#version: 0.2
Ø §
Ù Ħ
Ġ Ù
Ġ Ø
Ù Ĭ
Ø§ ÙĦ
Ù Ĩ
Ù ħ
Ø§ Ø
Ġ Ø§ÙĦ
Ù Ī
Ø ±
Ù ĩ
Ø ª
Ù ĥ
ĠÙ Ī
Ø ¨
Ø ¯
Ø ©
Ø ¹
ĠÙ ħ
Ø Ń
Ù Ĥ
Ù ģ
Ø ³
č Ċ
ĠØ ¨
ĠÙ ģ
Ġ ÙĦ
ĠØ ¹
ĠÙ Ĭ
Ø§ ÙĨ
Ø ¬
ĠØ ª
Ø ´
ÙĦ Ùĩ
ĠØ £
Ù ī
ÙĦ ÙĬ
ð Ł
Ø µ
ĠÙģ ÙĬ
ĠÙ Ĩ
ĠÙ ĥ
ĠØ ±
Ø ®
ÙĬ ÙĨ
ĠÙħ ÙĨ
Ø £
Ø ·
Ø§Ø ±
Ø§Ø ª
Ø§ Ùħ
Ø ²
ĠØ§ÙĦ ÙĦÙĩ
ĠÙ ĩ
Ø °
ÙĬ Ø±
Ø ¶
Ġ Ø§Ø
ÙĨ Ø§
Ùĩ Ø§
ĠÙ Ĥ
ĠØ Ń
ĠØ§ÙĦ Ùħ
ÙĦ Ùī
ÙĬ Ø©
ðŁ ĺ
. .
Ø¨ ÙĬ
ĠØ ´
ÙĦ Ø§
Ùĩ Ùħ
ÙĪ ÙĨ
Ø§Ø ¨
Ø «
ĠØ ³
ĠÙĪ Ø§ÙĦ
Ø§Ø ¡
ÙĦ Ùħ
Ø¯ ÙĬ
Ø§Ø ¯
Ø Į
Ø± ÙĬ
Ø§ Ùĥ
ÙĪ ÙĦ
ĠØ ¬
ĠØ ¥
Ø§Ø ³
ĠØ ®
ĠØ ¯
Ø º
ĠØ¹ ÙĦÙī
Ġ Ø§ÙĨ
Øª ÙĬ
Ø§Ø ¹
â Ŀ
Ùħ Ø§
ĠØ µ
âĿ ¤
ĠØ¹ ÙĦÙĬ
Ùĥ Ùħ
ĠØ§ÙĦ Ø¹
ĠØ Į
ĠØ¹ ÙĨ
Ø§Ø Ń
ÙĪ Ø±
Ø§ Ùģ
Ø§ ÙĬ
.. .
Ø§ Ùĩ
ÙĨ ÙĬ
ĠØ£ ÙĨ
ØŃ Ùħ
Ø§Ø ¦
Ø ¥
Ø ¸
ÙĦ Ùĥ
ĠØ¨ Ø§ÙĦ
ĠÙĦ ÙĬ
ĠÙħ Ø¹
Ùĥ Ø±
Ø§Ø ´
ĠØ§ÙĦ Ø£
ÙĪ Ø§
Ø° Ø§
ðŁĺ Ĥ
Ø§Ø °
ÙĪ Ùħ
Ùģ ÙĬ
Ø³ Øª
Ø§Ø ¬
Ø§ ÙĪ
ĠØ§ÙĦ Ø³
ĠØ§ÙĦ Ø¬
ĠØ§ÙĦ Øª
ĠØ§ÙĦ ÙĨ
ĠØ§ÙĦ ØŃ
ĠÙħ Ø§
ĠØ§ÙĦ ÙĤ
Ø¨ Ø±
ÙĬ Ø¯
Ġ ðŁ
ÙĦ Ø§Ùħ
Ùħ ÙĨ
ĠÙĦ Ø§
ĠØ§Ø ³
ĠØ º
ĠØª Ø¹
Ġ .
Ùģ Ø±
ÙĦ Ø©
Ġ :
Ġ (
ĠØ§ÙĦ Ø¨
ĠØ ·
Ø¯ Ø±
Ø¹ Ø¯
ĠØ§ÙĦ Ø´
ÙĦ ÙĪ
Ø± Ø¨
Ø§ÙĨ ÙĬ
Øª ÙĪ
O N
E N
T I
M EN
TI ON
MEN TION
Øµ ØŃ
ÙĪ Ùģ
ÙĨ Øª
Ùħ ÙĬ
Ġ ...
ĠØ± Ø¨ÙĬ
ÙĤ ÙĬ
ĠÙĥ ÙĬ
Ø Ł
ĠÙĦ ÙĦ
Ø± Ùĥ
Ġ âĿ¤
Ġ -
ĠÙĥ ÙĦ
ÙĬ Ø§
ÙĬ Ø¨
ĠØ¹ÙĦÙĬ Ùĩ
ĠØ§ÙĦ Ø±
Ø± Ùģ
Ø³ ÙĦÙħ
ĠÙĥ Ø§ÙĨ
Ġ 1
Ø± Ø©
Ùĥ ÙĪÙĨ
Ùħ Ø¹
ĠÙĤ Ø§ÙĦ
Ġ ðŁĺ
ĠÙĪ ÙĦØ§
Ùĥ ÙĨ
ĠØ °
Ùħ Ø±
Ø¹ ÙĪ
Øª Ùĩ
ÙĤ Ø¯
ÙĤ Ø©
Ø³ ÙĬ
Ġ "
ĠÙĩ Ø°Ø§
Ø¯ Ø©
ĠØ§ÙĦ Ùĥ
Ø§ÙĦ ÙĦÙĩ
Ø§ÙĨ Ø§
ĠØ§Ø³ Øª
ĠÙĪ ÙĬ
Ø§Ø± Ùĥ
ĠÙĬ ØŃ
ĠÙĪ Ø£
Ø¹ Ø©
Ø¨ Ø©
Ø§Ø µ
Ø± ÙĪ
Ġ 2
Ø ¢
ĠØª ØŃ
Ùħ Ø©
ÙĤ Øª
Ø ¤
Ùĥ ÙĬ
Ø ¦
ĠÙĬ Ø¹
ĠØ§ÙĦ Ø¯
o u
ĠØ ²
ĠØ§ÙĦ Ø®
ĠØ§ÙĦ Øµ
Ø§Ø³ Øª
ĠØ§ÙĨ Ø§
ĠÙĬ Ø§
Ø§Ø ²
Ø¯ÙĬ ÙĪ
ĠØ «
ÙĦ Øª
Ø¯ Ø§
ĠÙĩ ÙĪ
ĠØ§ÙĦ Ø¥
ĠØ§ÙĦ Ùģ
ĠØ£ ÙĪ
ĠØ¹ÙĨ Ø¯
Ø® Ø±
ĠØ¨ ÙĨ
ĠÙĪ Øª
ÙĨ Ø©
ĠØ Ł
Ġ l
ÙĬ Ùĥ
ĠØ§ÙĦ ÙĪ
ĠØ§Ø ®
Ø§Ø ®
h a
ÙĤ ÙĪÙĦ
Ø± ØŃ
Ġ m
Ø± Ø¨ÙĬ
ĠÙĪ Ùĩ
ÙĬ Ùħ
ÙĥØ± Ø§
Ġ t
ĠØ§ÙĦ Ø°
ĠØ´ Ø§Ø¡
ĠØª Ø§Ø¹
ĠÙĦ Ùħ
ĠØº ÙĬØ±
ØŃÙħ Ø¯
ÙĪ Ø¬
ĠØ¥ ÙĦÙī
Ø¨ ÙĦ
Ø§Ø ·
Øª Ùī
ÙĦ Ø¨
Ø§Ø ©
Ùģ Ø³
ĠÙĪ ÙĨ
ĠÙĨ Øª
Ø¨ Ø¯
Ġ Ø§Ùħ
Ġ ðŁĺĤ
ĠÙĩ Ø°
ÙĪ Ø¯
Ùĥ ÙĦ
ÙĦ ÙĤ
Øª Ùĥ
ØŃ ÙĬ
Ø¹ Ùħ
Øª Ùħ
Ø³ ÙĦØ§Ùħ
Ø§Ø ¶
ĠÙĪ ØŃ
ÙĪ Ø¹
â Ģ
Ùģ Ø¸
ÙĤ Ø±
ĠÙħ Øª
ĠÙĪ Ø³ÙĦÙħ
Ø§ÙĦ Ùħ
Ø§Ø± Ø¨
Ø¹ Ø¨
Ø¹ ÙĦ
ĠØ§Ø ¨
ĠÙħ Ø´
ĠÙĪ Ùħ
ÙĤ Ø§ÙĦ
ÙĪ ÙĬ
ĠØ¥ ÙĨ
Øª Ø¨
ĠÙĦ Ùĩ
ĠÙĪ Ø¬
Ø¯ ÙĬØ±
Ø ¡
ØŃ Ø¨
Ø³ Ùħ
ĠÙĪ ÙĦ
ĠØ§ÙĦ Ø·
ĠØ§ÙĦ ÙĬ
ĠØ± ÙĪ
Ø³ Ø¨
r a
Ùģ Ø©
Ø§ ÙĤ
ĠÙĬ Ø¬
ĠÙĪ Ø±
ÙĦ ÙĨØ§
ĠØ¨ Ø²
ØŃ Ùĥ
ÙĪ Ùĥ
Ġ b
ĠØ® ÙĬØ±
ï ¸
ï¸ ı
ÙĬ Øª
Ø£ ÙĨ
Ġ a
ÙĬ Ø®
Ø³ ÙĨ
ĠØŃ ØªÙī
- -
ĠØ ¢
ĠØµ ÙĦÙī
e s
ÙĪ Øª
ðŁ ¤
Ø§Ø¯ Ø©
ØŃ Ø©
ÙĬ Ø§Øª
ĠÙĪ Ø¹
ĠÙĬ ÙĨ
ĠÙĦ Ùĥ
Ø± Ø¬
ĠØ¨ ÙĦ
Ø¥ ÙĨ
Ø® ÙĦ
ĠØ ¶
Ġ d
Ø² Ø§Ø¦
ÙĤ ÙĪ
Ø« Ø±
Ø± Ø¶
c h
Øª ØŃ
Ø¹ ÙĬ
o n
i n
ĠÙĪ Ø¨
Ùħ ÙĦ
Ġ2 0
Ġ 3
ĠØ¨ Ùĩ
Øµ ÙĦ
ĠÙĪØ§ÙĦ ÙĦÙĩ
ÙĦÙĩ Ø§
Ġ )
ĠØ¹ÙĦÙĬ ÙĥÙħ
ÙĪØ± Ø©
ĠØ§Ø³Øª Ø§Ø°
ÙĨ Ø³
ĠØ¨ Ø¹Ø¯
ĠÙĪ Ø§ØŃ
ÙĪ Ø³
Ùĥ Ø§ÙĨ
Ø§ÙĦ ÙĬ
Ùģ Ø¶
Ġ s
Ø§Ùħ ÙĦ
ĠØ§ÙĦ ØªÙĬ
Ġ Ø§ÙĪ
ĠØ¨ Ø¹
ĠØ° ÙĦÙĥ
ĠÙģÙĬ Ùĥ
Ġ w
ĠØ¨ ÙĬÙĨ
Øª Ø§Ø¨
l a
Ùĩ Ø±
r e
Øª Ø±
ĠØ£ Ø®
Ø² ÙĬ
* *
Ø¬ ØŃ
ĠÙĬ Ø±
Ùĩ ÙĦ
ĠÙģ Ø§ÙĦ
Ø¯ Ùħ
Ġ n
ĠÙĩØ° Ùĩ
ĠÙĨ Ø´
ĠØ§Ø Ń
Øµ Ø©
ĠÙĩ ÙĬ
ĠÙĦ ÙĦÙĩ
ÙĬØ± Ø©
ĠÙģÙĬ Ùĩ
ĠÙħ Ø±
ðŁ Ĵ
ÙĬÙĨ Ø§
ĠðŁ ¤
ĠØ¨Ø² Ø§Ùģ
Øª Ø´
Ġ Ø§
ÙĦ Ø³
Ø¯ ÙĪ
ĠÙħ ÙĪ
Ġ f
Ø® Øµ
Ø¨ ØŃ
ĠØ§ÙĦØ° ÙĬ
Ø¨ Ø§Ø±Ùĥ
Øª ÙĩØ§
ĠØ§ÙĦ Ø«
ĠØ¨ ÙĬ
ĠÙĥÙĬ Ùģ
Ø· ÙĬ
Ø¶ ÙĬ
ĠÙħ ØŃ
Ġ y
Ø§Ø¯ ÙĬ
ÙĪ Ø¨
ĠØ¯ ÙĬØ±
ĠØ£ Ùħ
Ø§Ø³Øª Ø§Ø°
ĠÙģÙĬ ÙĩØ§
Ġ Ø§ÙĬ
Ġ [
ĠØ± Ø¨
ĠÙĪ Ø´
ÙĦ Ùģ
ĠØ± Ø§Ùĥ
ÙĬ Ø´
Ġ k
Ø§ÙĦ Ùī
ÙĤ Ø·
ĠÙĦ ÙĪ
ĠØ£ ÙĬ
ĠØª Ø¬
Ġ Ø§Ø±
Ġ c
Ø§Ø± Ø©
ĠØ§Ø ¯
ÙĪ ÙĦÙĬ
e r
ĠÙģÙĬ Ø¯ÙĬÙĪ
ÙĬ ÙĦ
ĠÙĩ ÙĨØ§
ĠÙĪ ÙĦÙĬ
Øµ Ø±
Ø³ ÙĪÙĦ
ĠÙĨ ØŃ
ĠâĿ¤ âĿ¤
e n
ĠØ¨ ØµØŃ
Ġ âĢ
Ġ p
Ø« ÙĦ
Ø´ Ø±
ĠØ§ÙĦÙĦÙĩ Ùħ
Ø¨ Øª
ĠØ§ÙĦØ¬ Ø²Ø§Ø¦
ĠÙĨ Ø¬
ĠðŁĺĤ ðŁĺĤ
ĠÙĪØ§ØŃ Ø¯
ĠØ´ ÙĬ
Ø§Ø¨ Ø©
ĠØ¥ ÙĦØ§
Ø§Øª Ùĩ
ĠÙĬ Ø§Ø±Ø¨
ĠØ§ÙĦ Øº
ĠÙĩ Ùĩ
ĠÙĬ Øª
Ø§ ÙĬÙĨ
ðŁĺ ¢
ÙģÙĬ Ø¯ÙĬÙĪ
ĠÙħ ÙĬ
ĠÙĬ ÙĪÙħ
ĠØ´ ÙĥØ±Ø§
ĠØ® ÙĪ
Ø§ ÙĬØ©
Ø¹ Ø±
Ġ20 2
ĠÙħ Ø³
ĠÙĥ ÙĨØª
ØŃ Ø¯
0 0
Ø¶ Ø§
ÙĤ ÙĦ
ÙĪÙĨ ÙĬ
Ø§Øª Ùĥ
ĠØ§Ø ¹
ĠØªØ¹ Ø§ÙĦÙī
ĠÙĬ Ø´
ÙĤ Ø¯Ø±
ÙħÙĬ Ø¹
Ø¨ Ø¹
ĠÙĪ ÙħÙĨ
a n
ĠÙĥ ÙħØ§
ĠÙĨ Ø³
ĠØ¨ ÙĦÙĬ
ĠÙĬØŃ ÙģØ¸
Ùħ Øª
ĠØª ÙĪ
ĠÙĨ ÙģØ³
ĠØ± Ø§ÙĨÙĬ
ĠÙĥ Ø§ÙħÙĦ
ĠØ§ÙĦØ¨ Ø§Ùĥ
ÙĪ Ø´
ĠØ¹ÙĦÙĬ Ùĥ
ĠÙħ Ø¬
ĠÙĦ ÙĥÙĨ
Ø¨ Ùĩ
Ùģ Øª
ĠØ± Ø§Ùĩ
ĠØ¨ Ùĥ
ĠØ¯ Ø±
ĠÙĬ ÙĥÙĪÙĨ
Ø§Ø¹ Ø©
ĠØ§Ø¨ ÙĨ
ĠØ« Ùħ
ÙĪ Ø±ÙĬ
ĠØ³ ÙĬ
Ùĩ Ø¯
ĠØ§ÙĦÙħ ÙĪ
ĠØ§Ø ¬
ĠØ§ÙĦ Ø²
ĠØ¹ Ø¨Ø¯
ĠÙĩ ÙĦ
ĠØ§ÙĦÙĤ Ø±
ĠØ± ØŃÙħ
i s
ĠØ§ÙĦÙĨ Ø§Ø³
Ø¨ ÙĪ
Ø³ Ø±
ĠÙĤ Ø¯
ØŃ Ø±
Ø¹ÙĪ ÙĦÙĬ
Ùħ ÙĪ
ĠÙĬ Ø®
ĠØ§ÙĦ ØµØŃ
ÙĪÙģ ÙĤ
Ø§ ÙĩÙħ
Ø« ÙĬØ±
ĠØª Ø´
Ġ Ø§Ùĥ
Ùħ ÙĥÙĨ
Øº ÙĬØ±
Ã ©
Ø¹ ÙĦÙħ
Ø¯ ÙĬÙĨ
Ø§ÙĦ Ùĥ
Ø· Ø©
ĠÙħ ØŃÙħØ¯
ĠØµ ØŃ
ĠÙĬ Ø¯
Øµ Øµ
Ø¨ Ø§
ĠØª ÙĨ
ĠÙģ Ø¶
ĠÙĤ Ø¨ÙĦ
Ø¬ ÙĦ
l i
ĠØ¨ Ø±Ùĥ
ĠØ§ÙĦØ¹ ÙĦÙħ
Ùģ Ø¹
ĠÙĪ ÙĬÙĨ
ĠØ¨ Ø§Ùĥ
Ø§ÙĦÙĦÙĩ Ùħ
= =
ĠØ§ÙĦØ³ ÙĦØ§Ùħ
ĠØ§ÙĦØ¬Ø²Ø§Ø¦ Ø±
ĠØ± Ø³ÙĪÙĦ
ĠØª ÙĤ
Ùģ ÙĩÙħ
ÙĪ Ùĩ
ĠÙħ ÙĦÙĬ
ĠØ¥ ÙĦÙĬ
n a
t i
Ø´ ÙĥØ±Ø§
ĠðŁĺ ¢
âĿ¤ âĿ¤
Ø³Øª Ø§Ø°
Ø§ÙĦ Ø©
Ø¢ ÙĨ
ĠÙĥØ§ÙĨ Øª
İ ī
ĠØ§ÙĦ ÙĦ
ÙĦÙĬ ÙĦ
Ø§Ø «
Ø§Ùħ Ø©
ĠÙĪ Ø§Ø´
ĠØ§ÙĨ Øª
Ø² ÙĬØ¯
Ġ h
Ø¯ÙĬ Ø«
ĠØ¹ Ùħ
ÙĪ Ø©
ĠÙħ Ø§Ø´
ĠÙĪ Ùĥ
Ø¹ Øª
ĠÙĪÙĩ ÙĪ
Ø§Ø± ÙĬ
ÙĪ ÙĤ
ĠÙģ Ø±
ĠØ¨Ø¹ Ø¶
a r
ĠØ¨ Ø¯
ðŁĺĤ ðŁĺĤ
Ø° ÙĦÙĥ
ĠØ§ÙĦØ¹ Ø§ÙĦÙħ
Ø®Ø± Ø¬
_ _
ĠðŁ Ĵ
Ø¹ Ø±Ùģ
ĠÙĪ Ùģ
ĠÙĬØŃÙģØ¸ Ùĥ
Ġ Ø§Øª
ÙģØ± Ø¬
ĠÙĬ ÙĤÙĪÙĦ
ÙĬÙĨ ÙĬ
ĠØ¥ Ø°Ø§
ĠØª Øª
ĠØ¨ Ø§Ø±Ùĥ
ĠÙĪ Ø³
ĠÙĪ ÙĦÙĥ
Ø³ Ø§ÙĨ
ÙĦÙĩ Ùħ
ĠÙĬ Ø³
ĠØ§ÙĦÙħ ÙĨ
Ġ Ø§Ùģ
ĠÙĦ Ø£ÙĨ
ĠØ¨Ø§ÙĦ Ùħ
Ø§Ø° Ø§
Ġ ,
ĠÙĪØ§ÙĦ Ùħ
ĠØ§ÙĦÙĨ Ø¨ÙĬ
Ø¬ Ø±
ĠØ¹ ÙĦ
ĠØŃ Ùĥ
Ø§ ÙĪÙĦ
Ø§ÙĦ Ø³ÙĦØ§Ùħ
-- --
ÙĩÙħ Ø§
Ø´ ÙĬ
Ġ v
ĠØ¹ÙĨ Ùĩ
ĠØ¨ Ùħ
ĠØ§ÙĦÙħ Ø±
ĠØ¨ Ø±
ĠØª Ùħ
o m
ÙĨ Ø¯
ĠØ§ÙĦ Ø§Ø³
ĠØª Ø³
ĠÙĪ Ø¥
Ø±ÙĬ Ùħ
ĠÙĪ Øµ
ĠÙĦ Ø¨
Ø§ÙĦ ØŃ
ĠØ¹ ÙĦÙħ
Ġ 4
Ùħ ÙĬÙĨ
ĠØ¨ Ø§Ø´
Ùħ Ø§ÙĨ
Ø¸ Ø±
Ùĩ ÙĪ
Ø· Ø±
Ø±Ø¨ ÙĬØ©
ĠÙĩ Ø§Ø¯
ĠØ§ÙĦÙħ Ø´
ĠØª Ø®
ĠØª ÙĥÙĪÙĨ
a l
e l
ĠØ£ Ø³
ĠØ§ÙĦ ÙģØ±
i d
Ø² ÙĤ
Ø¨ ÙĤ
ĠØ§ÙĦ Ø§ÙĨ
ĠØŃ ÙĬ
ĠÙĤ Ø±
Ø¯ÙĬ Ø¯
ĠÙĨ Øµ
ĠØ§ÙĦ Ùī
ĠÙħ Ø§Øª
ÙĪØ±ÙĬ Ø§
ĠÙĪ ÙĤ
Ø§Ø¬ Ø©
ðŁ ¥
Ø² Ø§Ùĥ
Ø¶ ÙĪØ¹
Ø· ÙĦ
ĠÙĬ Ø³Øª
ĠØŁ ØŁ
ĠÙĦ ÙĦÙħ
ĠØ ¸
Ø¶ ÙĦ
ĠÙħ Ø³Øª
ĠØª Ø±
Ø¬ Ø¨
ĠÙĪ ÙģÙĬ
ÙĪ Ø§Øª
ĠØ¯ Ø§Ø±
Ø¯ Ùī
ĠÙĬ ÙĪÙģÙĤ
ĠÙģ Ø¥ÙĨ
ĠÙĥÙĬ ÙħØ§
ĠÙĦ Ø¹
Ġ â
ĠØ£ ÙĨØ§
ÙĦÙĬ Ø©
Ġm a
ÙħÙĨ Ùī
t a
ÙĬ Ø¹
ĠØ£ÙĨ Ùĩ
Ø° Ùĩ
ĠØ± Ø§ØŃ
ĠØ¹ÙĦÙĬ ÙĩØ§
Ø¤ Ø§ÙĦ
ĠÙĬØ± ØŃÙħ
Ø§Ø º
ĠØ¹ ÙĦØ§
ĠØ£ Ùĥ
Ø§ÙĦ ÙĪØ±ÙĬØ§
ĠØ®ÙĪ ÙĬØ§
ĠÙĪ Ø§ÙĨ
Ø´ Ø§Ø¡
ØŃ ÙĪ
ÙĨ Ùī
Ø¯ Øª
Ø³ Ø©
ĠØ§Ø °
ĠÙĥ ØªØ§Ø¨
ĠØ§ÙĦ ÙģÙĬØ¯ÙĬÙĪ
ĠØ§ÙĦÙħ Ø¬
Ø¯ Ùĩ
ðŁĺ Ĭ
ĠØ¨ ÙĩØ§
ØŃ ÙĤ
Ùĩ ÙĬ
ĠØ¹ÙĨ Ø¯ÙĬ
Ø· ÙĬÙĥ
ÙģÙĬ ÙĤ
Ġ 5
i r
ĠÙĦ Ø£
ÙĪ Ø²
ĠÙĦÙĬ Ø³
ĠØ§ÙĦÙħ Ø³ÙĦÙħ
o r
i t
Ø¯ ÙĦ
Ø§Ø± ÙĬØ®
ĠØ®ÙĬØ± Ø§
ĠÙĪ ÙħØ§
ĠÙģ Ø£
ØŁ ØŁ
Ġ g
ĠØ§ÙĦÙħ Ø³
Ļ Ĥ
ĠÙĬ ÙĤ
Ø§Ø² Ùħ
ÙĬÙĨ Ø©
ĠðŁ¤ ²
ĠØ§ÙĦ Ø¢
ĠÙĥ Ø§ÙĬÙĨ
ØŃÙħ Ø©
ĠØª Ø¨
ĠØ´ÙĬ Ø¡
Ø±ÙĬ ÙĤ
ĠÙĩ Ø§Ø°
ĠÙĨØ¬ ÙĬØ¨
ĠØ¨ Ø£
Ùĩ Ø§Ø±
ðŁĺ Ń
Ú ¨
y a
ĠØ¹ Ø§Ùħ
Ø§ÙĨ ÙĬØ©
ĠØ® ÙĦ
Ø§Øµ Ø©
ĠÙħ ÙĦ
ÙģØ¶ ÙĦ
ÙĪ Ø§ÙĨ
Ø§ÙĦ Ùĩ
ĠÙģ ÙĤØ·
ĠØ§ÙĦ Ø§Ø®
ĠØ§ÙĦÙĬ ÙĪÙħ
a h
ĠØ§ÙĦØ¥ Ø³ÙĦØ§Ùħ
ĠÙħ Ø®
ĠÙĬØ¹ ÙĨÙĬ
Ø¹ ÙĪÙĨ
ĠÙĪ ÙĤØ§ÙĦ
ĠØ§Ø ´
Ø±ÙĬ Ø¨
ĠØŃ Ø¨ÙĬ
Ø§ÙĬ Ø§
ĠÙĥ Ø¨
ÙĦ Ø§Ø©
Øº ÙģØ±
ĠÙĥ Ø«ÙĬØ±
ðŁ¤ ²
ĠØ¬ ÙħÙĬØ¹
ĠÙħÙĨ ÙĩØ§
ÙĪÙĦ Ø©
ĠØ¹ Ø¨
ðŁ ı
ĠØ§ÙĦ ØŃÙħØ¯
ĠØ± Ø¬
Ø¹ ÙĦÙĬ
ðŁ İī
ĠÙĪ ÙĤØ¯
ĠðŁ ¥
ĠØ£ Ø¨ÙĬ
Ø§Ø¯ Ø±
ĠØ± Ø¶ÙĬ
Ø§Øª ÙĬ
ĠÙĨ ØŃØ¨
Ø¬ Ø©
Ùħ Ø§ÙĦ
ĠÙĦ ÙĩØ§
Ø§Ø± Ø¨ÙĬ
ĠØ± Ø§Ø¬
ĠÙħÙĨ Ùĩ
l e
Ø¯ Ùĥ
d a
ĠÙĩ Ùĥ
Ø¶ Ø¹
ĠÙĦ ÙĨØ§
ĠØ¹ ÙħØ±
ĠÙĬ Ùĩ
Øº Ø©
ĠØ§ÙĦ Ø¯Ø±
ĠØ§ÙĦÙħ Ø¹
Ġ ha
ÙĤ Øµ
ĠØ§ÙĦØ£ Ùħ
ÙĬ Ùĩ
ĠÙħ Ùĥ
ðŁĺ ħ
Ġ Ø§Ùĩ
Ø¨Ø± Ùĥ
ĠØ§Ø® ØªÙĬ
ĠÙĪÙĦÙĥ ÙĨ
ĠÙħ Ø«
ĠØ§ÙĦ Ùĩ
Ø¹ Ø¨Ø©
ÙĪ ØªÙĬ
Ø±ÙĬ ÙĤØ©
ÙĤ Ø§
Ġ ra
ĠÙĦ Ø§ÙĨ
ĠØª Øµ
ÙĨÙĬ Ø§
ĠØ§Ø® ÙĬ
ĠØ³ ÙĨØ©
Ø° ÙĥØ±
e t
ĠØ§ÙĦØ¬ ÙĨØ©
ĠÙĪ ÙĤØª
ĠØ§ÙĦ Ø§
ÙĪ Ø§Ø¨
ĠØ§ÙĦÙĤØ± Ø¢ÙĨ
âĿ¤ ï¸ı
Ġ j
m a
ÙĦÙĬ ÙĨ
Ġ *
ĠØ¬ ÙĨ
ĠØ¯ ÙĬ
Ø§ÙĦ Ø¨
Ùħ Ø³
Ùħ Ø¶
ĠØ§Ø³ Ùħ
ĠÙĨ ÙĨ
Ø¶ Ø±
ĠÙĪ ÙĦÙħ
ĠØ£ Ø¹
Ø¯ Ø¯
Ùĩ Ùĩ
ðŁ¤ £
ÙĪ ÙĬØ©
Ø® ÙĬØ±
ĠÙĪ Ø¥ÙĨ
ÙĪ Ø§ÙĦ
ÙĬ ØŃ
ĠÙģ Øª
ÙĪ Øµ
ĠÙģØ¶ ÙĦÙĥ
ÙĤ Ø¹
ĠÙħØ§Ø´ ÙĬ
ĠØª Ùģ
ÙĪ Ø§ÙĦÙĦÙĩ
ðŁ ĳ
Ġ1 9
ÙĬØ¨ Ø©
Ø§Ø³ ÙĬØ©
Ø¨ Ø§ØŃ
Øª ÙĦ
i l
ĠØŃ Ø±
ÙĦÙħ Ø©
Øº ÙĬ
ĠØ§Ø µ
ĠØ§ÙĦØ® ÙĬØ±
ĠØ£ ØŃØ¯
ĠØ£ ÙĩÙĦ
Ø Ľ
Ø±ÙĬ Ø¯
ĠÙħ Ø±Ø©
ĠØ§Ø° Ø§
ĠØ§ÙĦ Ø¨ÙĬ
Ùĥ ÙĪ
ĠÙĪØ§ÙĦ Ø£
ÙĤÙĬ ÙĤØ©
ĠÙħ Øµ
ĠÙģ ÙĤØ§ÙĦ
Ø±ÙĪ ØŃ
Ø¸ ÙĬÙħ
ĠÙĬÙĨ Ø¬ØŃ
ĠÙĦ ÙĨ
ĠØ³ ÙĨ
ĠÙĤ ÙĦØª
ĠÙĤ ÙĦ
Ø¤ ÙħÙĨ
Ùħ Ø§Ùħ
ĠØ§ÙĦ Ø§Ùħ
Ø² Ø©
ĠØ§ÙĦØ´ ÙĬØ®
ĠØ¨Ø§ÙĦ ÙĦÙĩ
ĠØ§ÙĦ ÙĦÙĬ
ĠØ± Ø£
ĠØ£ ØŃ
** **
Ø§Ø¦ ÙĦ
ĠÙĬ Øµ
ĠÙħ ÙĤ
ĠØ° ÙĥØ±
ĠØ£ Ø¬
Ø¬ Ø§ØŃ
ĠÙĤ ØµØµ
ĠØ¬ Ø§Ùħ
ĠÙĪØ£ ÙĨ
ÙĪ ÙĦÙĩ
Øº Ø±
b i
Ø¨ Ø§Ø¨
ĠØ§ÙĦØ¯ ÙĬÙĨ
ĠÙĨ Ø¹
Ø¹Ø¯ ÙĦ
Ø¨ØŃ Ø§ÙĨ
ĠØ¥ÙĦÙĬ Ùĩ
ĠØ´ Ø±
Ġ !
ĠØµ ØŃÙĬ
ĠØ£ Øµ
ĠØ§ÙĦØ° ÙĬÙĨ
ĠØ§ÙĦÙħ ØŃ
ÙģØ± ØŃ
Ø¯ÙĬ Ùĥ
ĠÙĬ Ø¨Ø§Ø±Ùĥ
Ø¶ ØŃÙĥ
ĠØ£ Ø³ØªØ§Ø°
ĠØ³ Ø¨ØŃØ§ÙĨ
Ø§ÙĦ Ø§
ĠØ® Ø·
ÙĬØ¯ Ø©
ĠØŃ Ø³
ĠÙĪ Ø§ÙĨØ§
ĠÙĨ Ø¯ÙĬØ±
Ø¬ Ùħ
ĠÙĪØ§ÙĦ Øª
a s
Ø§Ø³ ÙĬ
ĠØ£ Ø±
Ø° ÙĬ
ĠØ¨ Ø´
Ø¯ Ø¹
ĠØ¨ Ø§Ø¨
ĠÙĤ ÙĨ
h e
ÙĤØ± Ø§
ĠÙĪØ± ØŃÙħØ©
Ø§ÙĪ ØªÙĬ
ØŃ Ø§ÙĦ
ĠØŃ Ø§Ø¬Ø©
ðŁı »
ĠØ±ØŃÙħ Ùĩ
ĠØ± ÙĬ
ÙħØ¶ Ø§ÙĨ
Ùĩ ÙĦØ§
ĠØ£Ø® ÙĬ
ĠØ§ÙĦØ´ ÙĬ
2 0
Ø§Ùĥ Ùħ
ĠØ§ÙĦ Ø§Ø³Øª
ĠÙĤ Ø§Ø¹
ĠØ¹ÙĦÙĬ ÙĩÙħ
ĠÙĦ Ø§Ø²Ùħ
ĠØŃ Ø³ÙĨ
ĠÙĪ ÙĥØ§ÙĨ
ĠÙĪ Ø®
ĠØ§ÙĦØ¹Ø§ÙĦÙħ ÙĬÙĨ
Ġl a
Ø² Ø§ÙĦ
ĠÙĨ Ø¨
ĠØ§ÙĦØ¬ ÙĨ
Ġ Â
Øª ÙĩÙħ
ĠØª Ùĥ
Ø§ÙĬ Ø§Øª
ĠÙģ ÙĦØ§
r o
) .
ĠâĿ¤ ï¸ı
ĠÙĦ Øª
t e
ĠØ¨ ÙĦØ§
Ø¯ ÙĤ
ĠØµ Ø±
Øª ÙĨØ§
ĠØ² ÙĪØ¬
Ø° ÙĨ
ĠØ´ Ø®Øµ
ĠÙģ ÙĦ
ĠØ§ÙĦØª ÙĪ
Ø² ÙĦ
9 9
Ø§Ùģ Ø©
ĠØª Ø³Øª
ĠÙĦ ÙħØ§
ÙĦÙĪ Ø¨
ĠÙĨØ´ ÙĪÙģ
ĠÙģ ÙĩÙħ
ĠÙĥ Ùħ
ĠØ§ÙĦÙĥ Ø±ÙĬÙħ
Ø³ ÙĦ
ĠÙĤ ØµØ©
ÙĪ ÙĬØ§
ĠØ¹ÙĦÙĬ ÙĨØ§
ĠØ¹ÙĨØ¯ Ùĥ
ĠØŃ ÙĬØ§Øª
ĠØ§ÙĦØ³ ÙĬ
ĠðŁĺ Ĭ
ÙĤ Ø§Øª
ðŁ ĩ
Ùģ ÙĦ
ĠÙħ Ø¨
ĠÙħ Ø«ÙĦ
ĠØ§ÙĦÙħØ³ÙĦÙħ ÙĬÙĨ
ÙĨ Ø§Ø¡
ÙĥÙĬ Ùģ
ĠØ¬ Ø¯Ø§
Øº ÙĦ
ĠÙħ ÙĥØ§ÙĨ
ĠØ´ Ùĩ
Ġ /
ĠØ§ÙĦÙħ Øª
ĠÙĬ Ùĥ
Ø§Ùħ Ø§
Ø£ Ø©
ĠØ§ÙĦÙħ ÙĨØª
ĠÙĨ ÙĪØ±
ĠØ§ÙĦØŃ ÙĬ
Ùģ ÙĪ
Ġ 9
ĠØ¨ Ø¥
d i
ĠÙĦ ÙĩÙħ
ĠÙĪØ§ÙĦ ÙĪ
ĠØ§ÙĦØ¹ Ø§Ùħ
ØŃ Ø´
ĠØ¨ Ø³
Ø§ØŃ Ø©
ÙĤ Ùħ
ØªÙĪ Ùī
ĠÙĦÙĪ ÙĦØ§
Ġ 7
ĠðŁĺ ħ
Ø¯ Ø§Ø±
Ø² ÙĪØ¬
Ġ 6
ĠØ§ÙĦÙħ Ø³Øª
Ø¯ Ø«
ĠÙĬ Ø¨
ĠØŃ Ùħ
== ==
Ùĩ Ø§Øª
ĠØ³ ÙħØ¹
ĠØ§ÙĦØŃ Ø¯ÙĬØ«
Ø§Ø³ Ø©
ÙĤ Ùĩ
ĠÙĨ ÙĤÙĪÙĦ
Ø§ ÙĬØ±
ĠØ§ÙĦØ¹ Ø¨
ĠØ§ÙĦØ¨ Ùĥ
ĠØ§ÙĦØµ ÙĦØ§Ø©
Ø¶ Ø§Ø¡
ĠÙĬ Ø¯ÙĬØ±
ÙĤ Ø¨
Ļ ¥
ĠØ§Ùħ ÙĬÙĨ
Ġt a
ĠÙĪÙĩ Ø°Ø§
q u
b a
ĠØª Ø£
Ø¹ ÙĨ
ĠÙĨØª Ø§Ø¹
ĠÙģ ÙĤØ¯
Ùĥ Øª
ĠØ¨ ØŃ
Ø¹ ÙĬÙĨ
ĠØ¨ ÙħØ§
ĠÙĬ ÙħÙĥÙĨ
ĠÙĨØª Ø§
Ø± Ø§Ùĥ
ĠÙģ Ø±ØŃ
Ø² Ø§ÙĨ
Ø¸ Ùħ
ĠØ§ÙĦØŃ ÙĤ
ĠÙĥ ÙĪÙĨ
ĠØ§ÙĦØµØŃ Ø©
ĠÙĤ ÙĪÙĦ
ĠÙĪ Ø±Ø¨ÙĬ
Ø· Ø§
Ø£ ÙĦ
ĠØª Ø¯
ĠØ± ÙħØ¶Ø§ÙĨ
ĠÙħ Ø³ÙĦÙħ
ĠÙĩ Ùħ
ðŁĴ Ķ
ĠØªØŃ Øª
ÙĬ ÙĬÙĨ
ÙĬ Ø³
Ùĩ Ø°Ø§
ÙĨ ÙĬØ©
ĠØ³ ÙĪ
ĠØ¯ Ø¹ÙĪ
ĠÙĬ Ùħ
Ø´ ÙĥÙĪÙĨ
Ø¨ÙĬ Ø§
ĠØªØ¹ ÙĦÙĬ
ØŃ Øª
ĠÙħ Ø§ÙĬ
ÙĤØ¯ Ùħ
ĠðŁ ĳ
Ø§ ÙĩØ§
ĠÙĪ Ø¨Ø±Ùĥ
ĠÙĦ ØŃ
ÙĬ Ùģ
ÙĤ ÙĬØ©
ĠÙħÙĨ ÙĩÙħ
ĠØ£ ÙħØ±
ØªÙĪ ÙģÙĬÙĤ
ĠØŃ Ø¨
ĠØ£ Ø´
Ø¨ Ø§Ùĥ
Ø¦ Ø©
Ø§ÙĦ ÙĬØ©
Ø§ÙĪ Ø¯
ĠØ£ Ø¨ÙĪ
ĠØ§ÙĦØ´ Ø±
ĠÙĨ Ùģ
ĠØ§ÙĦØ¯ ÙĨÙĬØ§
ĠØµ Ø§ØŃ
ĠÙĦ Ø§ÙĬ
Ù Ģ
ĠÙĨ ÙĤ
ĠØŃ ÙĤ
ĠÙĤ Øµ
ĠØ® ØªÙĬ
m e
ÙĦ ÙĪÙħ
ĠÙĦ ÙĥÙħ
ĠØ¯ ÙĬÙĨ
ĠØ£ Ø¨
ĠØ³ Ø¨
â ľ
ĠÙĪ ÙĥÙĦ
ĠØ± Ø§Ø¦
Ø¦ ÙĦØ©
ĠÙĩÙĨØ§ Ùĥ
ĠÙħÙĦÙĬ ØŃ
ĠØ§ÙĦØ£ Ø®
r i
la h
ĠÙĪÙĩ ÙĬ
ÙĦØ§ ÙĤ
ĠØ¨ Ø£ÙĨ
Ø¬ Ø¯
Ø± Ùħ
Ġd e
ĠÙĤ ÙĦØ¨
ĠðŁĺ Ń
ĠØª Ùĩ
ĠØ¬ Ø²Ø§Ùĥ
ĠÙĨ Ø®
ĠÙĬØŃ ÙģØ¶
Ø· Ø§ÙĨ
ĠØ§ÙĦØ± ØŃÙħ
Ø§Øµ ÙĦ
Ùĩ ÙĪØ¯
ĠØŃ Ø§ÙĦ
ĠØ£ÙĨ Øª
Ø° Ø±
ĠØŃ ÙĨØ§
Ġ re
ĠØ§ÙĦÙĥ ØªØ§Ø¨
ĠÙĨÙĨ Ø¬ØŃ
ĠØ± Ø§ÙĬ
ĠÙĬ ÙĪ
ĠÙĪØ§ÙĦ ÙĨ
ÙĦ ÙĦÙĩ
Ġ1 0
Ø· ÙĪ
ĠØªØ§Ø¹ Ùĥ
Ùģ Ø§Øª
ĠØ¨Ø§ÙĦÙħ Ø«ÙĦ
Ø§ÙĦ Ø«
ĠØ¨ Øª
Ø² Ø¡
ÙĦØ³ ÙģØ©
Ùģ Ùĩ
ou r
ĠÙĪØ¨Ø±Ùĥ Ø§ØªÙĩ
ĠØ³ Ø±
Ø§Ø¨ Ø¹
Ø¶ ÙĪ
__ __
ĠÙĬØ¹ Ø·ÙĬÙĥ
ĠØ± Ø§ÙĨØ§
ĠâĢ ĵ
ĠÙħ Ø¯
Ġ Ø§ÙĤ
Ø¹ÙĪ Ø¯
ĠØŃ ÙĦ
Ø²ÙĬ Ø²
Ø¨ ØªÙĬ
ĠÙĪÙĦÙĬ Ø¯
ÙĤØª Ø±ØŃ
Ø§Ø¯ Ø¹ÙĪÙĦÙĬ
ÙĦÙĪ ÙĦØ§
Ø° Ø¨
ÙĬØ± Ø§
ĠØ± Ø¶Ø§
ĠØ· ÙĦ
Ø§Ø± Ø§Øª
ÙĥØ± Ø©
ĠØªØ¹ ÙĬØ´
ÙĦ Ø§Ø«
ĠÙħ Ø§ÙĨ
ĠØª ÙĤÙĪÙĦ
Ø§Ùģ ÙĬ
Ø§ ÙĤÙĬ
ĠÙĬ Ùģ
Ùĥ Ø³
h o
ĠÙĨ Ø¯ÙĬ
ĠØ¬ Ùħ
Ļ ı
ÙĥÙħ ÙĦ
ĠØ§ ÙĪÙĦ
ĠØ³ ÙĬØ¯
ĠØ£Ùĥ Ø«Ø±
Ø£ Ø³
ĠØ£ ÙĪÙĦ
ĠØ§ÙĦØ³ ÙĨØ©
ĠÙĨ Ø³Øª
ÙĦÙĬ Ø´
ĠØŃÙĬ Ø«
Ø§ Ø§Ùģ
ĠÙĪØ¹ ÙĦÙī
ĠØ§ÙĦ Ø¨Ø±
Ġ Ġ
Ø¶ Ø©
ĠØµØŃÙĬ ØŃ
a c
Ø¨ Ùĥ
ĠØ£ ÙħØ§
ĠØ§ÙĦÙħÙĪ Ø¶ÙĪØ¹
ĠØ¨ Ø§Ùĩ
ĠØ§ÙĦ Ø§Ø¹
Øª ÙĨÙĬ
ĠÂ «
ĠÙģ Ø¹
ĠØ§ÙĦÙħ Øµ
---- ----
Ø· Ùģ
ĠØ§ÙĦÙĪ ÙĤØª
ĠÙĥØ«ÙĬØ± Ø§
ĠÙĪØ§ÙĦ Ø¹
ĠØ« Ø§ÙĨÙĬ
ĠØ³ Øª
Ø¨ Ø·
ĠÙĪØ§ÙĦ Ø³
Ġ ch
ĠØ§ÙĦØ£ Ø³
ĠØ¹ÙĦØ§ Ùĩ
ĠØ§ÙĦØ¨Ùĥ Ø§ÙĦÙĪØ±ÙĬØ§
i k
ÙĪ ÙĩØ§
ĠØ§ÙĦ Ø§Ø¬
ĠÙĥ ØªØ¨
Ġ +
ĠØ§Ø® Ø±
ĠØ±Ø§Ø¬ Ø¹ÙĪÙĨ
ĠÙħØ¹ Ø§Ùĥ
ĠÙĦØ¨ Ø§Ùĥ
ĠØ¯ Ø®
ĠØ¢ Ø®Ø±
ĠÙĨ Ø¹Ùħ
Ø¬ ÙĬ
ĠØ§Ùģ Ø¶ÙĦ
ĠØ¯ ÙĪÙĨ
Ġ u
Ø®Ø± Ùī
Â »
ĠÙĬÙĪÙģÙĤ Ùĥ
ÙħÙĬ ÙĦ
ĠØ§ÙĨ ØªÙĩ
ĠØ§ÙĦÙĤ ØµØ©
ĠØ§ÙĦØ¹ Ø¸ÙĬÙħ
ĠØ§ÙĨ ÙĬ
a m
ĠÙĩØ° ÙĬ
ÙĬ Ø§Ùħ
ĠÙĬ Ø·
Ġl es
ĠØ¬ Ø§Ø¡
ĠÙĨ Ø§Ø³
Ø§ÙĨ Ø©
e d
ĠÙĬ Ø£
ÙĬ Ø§Ø±Ø¨
ðŁĺ į
ĠØ® Ø±Ø¬
ÙĦØ§ Ùĩ
n i
ÙĤ Ùģ
ĠØŃ Ø§Ø¨
ĠÙĥ ÙĦØ§Ùħ
Ø¹ Ø§Ø¡
l h
Øº Ùħ
Ø¬ ÙĪ
ðŁ Į
Ø§ÙĦ Øª
ĠØµ ÙĦ
ĠÙĪÙĦ ÙĥÙħ
ĠÙĪ Ø·
es t
ĠÙĦ ÙĤ
ĠØŃ ÙģØ¸
Ùĩ Ø§Ø¯
Ø§Ø¹ Ø¯
Ø¹ Ø§
ÙĨ Ø¨
ĠØ® ÙĦÙĤ
Ùĥ Ø§Ø±
Ø§Ùĩ ÙĦ
ĠØ§ÙĦ Ø¸
Ø§Ø³ Ùħ
Ø§ÙĦ Ùģ
v e
ĠØ§ÙĦÙħÙĨØª Ø¯Ùī
ĠØ¨ Øµ
ØªÙħ Ø§Ø¹
ĠÙĪØŃ Ø¯
ĠØ§ÙĦØ« Ø§ÙĨÙĬ
a y
Ø§Ùĩ Ø±
ĠÙħ Ùĩ
ĠØ§ÙĦØ¹ Ø±Ø¨ÙĬØ©
ÙĦÙĬ Ø·Ø©
Ø¬ Ø§Ø¨
ĠØ±ÙĪ Ø§Ùĩ
ĠØ Ľ
ĠØ´ Ø±ØŃ
ÙĦÙħ Ø§
Ø· ÙĬÙĨ
en t
Ġ A
ĠØ§ÙĦ Ø§ØŃ
Ġ202 5
Ø± Ø¯
ØŃ ÙĦ
ÙĤ Ø¨ÙĦ
ĠØ¨ Ø·
ÙĤÙĬ Øª
ĠØ¨Ø² Ø§Ø§Ùģ
ĠðŁ ĻĤ
ĠØ§Ø¯ Ø¹ÙĪÙĦÙĬ
ĠØ® Ø§ØµØ©
Ø® Ø°
ĠØ¬ Ø¯ÙĬØ¯
ØŃ ÙĬÙĨ
ÙĪ Ø§Ø¬
Øª Ø§
ĠØ£ Øª
ĠØª Ø§Ø±ÙĬØ®
ĠØ¹ Ø²
ĠØ§ÙĦØ³ Ø¤Ø§ÙĦ
ĠØª Ø·
ÙĪ Ø¯Ø©
ĠÙħ ÙħÙĥÙĨ
ĠØ¹ÙĦÙĬ Ø§
ĠÙħØ´ ÙĬ
ĠÙĦ ÙĥÙĦ
ĠÙĨ Ø¯
ĠØ§ÙĦØŃ Ùĥ
ĠÙĪØŃ Ø¯Ø©
Ø± Ø´
ĠØŃ Ø¯ÙĬØ«
ĠÙħ Ø±ØŃ
ĠØŃÙĥ Ø§ÙĬØ©
ÙĬ ØŃØ©
a k
ĠØª Ø§ÙĨÙĬ
Ø§Ø¶ ÙĬØ¹
ĠØ´ Ùģ
Ķ ¥
ÙĦÙĬ Ùĥ
ĠÙĪ Ø¯
ÙĤ Ùī
ÙĪØ¬ Ø¯
Ø¯ÙĬ Ø¯Ø©
Ø´ Ø©
ĠØ§Ø º
Ø§Ùĩ Ø¯
Ø¹ ÙĬØ¯
ĠðŁ¤ £
ÙĨ Ø´
Ùģ ÙĤ
ĠØ±ØŃÙħ Ø©
ĠØ§ÙĦÙħ Øº
ĠØ±Ø§Ùĩ ÙĬ
ĠØ£ Ø¯
ðŁ ĻĤ
Ø® ÙĬ
ĠðŁ İī
ĠØ´Ùĩ Ø§Ø¯Ø©
Ø¯ÙĬ Øª
Ġv id
ĠØ±ÙĪ ØŃ
ĠÙĪ ÙĬØ±
ĠÙĬØŃÙģØ¶ Ùĥ
Ø§Ø¦ ÙĬ
i a
ĠÙĪÙģ ÙĤ
Ġ1 5
ĠØ§ÙĦÙĨ Øµ
ĠÙĬ Ø§Ø±Ø¨ÙĬ
ĠØ§ÙĦØ¬Ø²Ø§Ø¦ Ø±ÙĬ
ĠÙĩ Ø¯Ø§
ĠØ´ ÙĩØ±
U R
ÙĪÙħ Ø©
ĠÙģ ÙĩÙĪ
Ø£ ÙĨØ§
o o
ĠÙĪØ´ ÙĥØ±Ø§
Øµ ÙĦÙī
ĠØ§ÙĨØªÙĩ Ùī
ĠØ¯ÙĬØ± ÙĦÙĨØ§
Ø±Ø¬ Ø¹
ĠÙĤ Ø±ÙĬ
Ø¹Ùħ ÙĦ
Øª ÙħØ¹
ÙĪ ÙģÙĬ
ĠÙĨØŃØ¨ Ùĥ
ĠÙģÙĬ ÙĩÙħ
ĠÙĨ Ø±
ĠÙĦ Ø§Ø¨
ĠØ£ÙĬ Ø¶Ø§
ÙĪ Ø¶
ĠÙĬÙĨØ¬ØŃ ÙĨØ§
ĠØ¹ ÙĤ
Ø¯ÙĬÙĨ Ø©
ÙĬ Ø²
ĠÙĨØª ÙģØ±Ø¬
ĠØ§ÙĦØŃÙĬ Ø§Ø©
ĠØ§ÙĦØª Ø¹ÙĦÙĬ
ÙĪ ÙĬÙĨ
ĠØ¹ Ø±Ùģ
ĠØ· Ø±ÙĬÙĤ
ĠÙĨ ØªÙĬ
Ø¨ Ø¹Ø¯
ĠÙħØ¹ Ø¯ÙĦ
ĠÙĨ Ø¹Ø±Ùģ
Ø¬ Ø§Ø¨Ø©
ĠÙĤ Ø¯Ø±
ĠÙĥÙĬÙģ Ø§Ø´
Ġ 8
u r
Ø±Ùĥ Ø©
ĠØ¯ Ø§Ø¦
ĠØŃ Ø³Ø¨
ti on
ĠâĢ ı
Ø¨ Ø§Øª
ĠÙħÙĬ Ø²Ø§ÙĨ
ĠØ§ÙĨ Ø´Ø§Ø¡
n e
ĠØ¬ Ø²ÙĬ
Ø§Ùħ ÙĬ
ÙĦÙħ ÙĬ
ÙĪ Ø§Ø±
ĠØ§ÙĦÙĬ Ùĩ
ĠØ³ Ùħ
ĠØ³ Ø¤Ø§ÙĦ
ĠØ´ Ø¹Ø¨Ø©
ĠØ¨ ÙĪ
Ġ r
Ø§ÙĨ Øª
Ø§Ø¡ Ø©
ĠØ±ÙĪ ØŃÙĬ
ĠØ¨ ÙĨØª
ĠØ§ÙĦÙħ ÙĩÙħ
ĠÙĬØ¹ Ø±Ùģ
ĠØ§ÙĦØ¥ ÙĨØ³
ÙĪØ± Ùĥ
Ø³ÙĬ ØŃ
Ġl e
Ġ1 6
ĠÙĪ Ø²
ĠÙĨÙģØ³ Ùĩ
ĠØ« ÙĦØ§Ø«
ÙĬØ§Øª ÙĬ
Ġ1 8
ĠØ² ÙĬØ¯
ĠÙĥ Ø±
UR L
ĠØ´ÙĬ Ø¦
Ø§Ùģ ÙĬØ©
ĠÙħÙĪ Ø¶ÙĪØ¹
ðŁĺ ®
ĠÙĪ ÙĦÙĪ
ĠÙĨ ÙĩØ§Ø±
ĠØ§ÙĦ Ø¶
ĠØ® Ø§ÙĦ
ĠØ§ÙĦØ±ØŃÙħ ÙĨ
ĠÙĪ Ø§Ø¬
Ġ 0
Ø¨ ÙĬØ±
ĠÙĪØ§ÙĦ ØŃ
ĠÙħÙĨ Ùĥ
Ø± ÙĤ
ĠØª Ø±Ùĥ
ÙĬÙħ Ø§ÙĨ
ĠÙĥÙĬÙģ Ø§Ùĩ
Ġ in
ĠØ§ÙĦÙĤ ÙĬ
e m
Ġ( (
ĠÙĪ ÙħØ¹
ĠØŃ ÙĪÙĦ
ĠØ´ ÙĬØ®
Ùĩ Ø©
ĠØ± Ùĥ
ðŁ¥ º
ĠðŁĺ¢ ðŁĺ¢
Ø§Ø¶ ÙĬ
ĠØ§ÙĦØ£ ÙħØ±
Ø² Ùħ
ĠØ§ÙĦÙħ Ø®
1 0
ĠØ± Ø§ÙĩÙħ
Ġâ ľ
ĠÙħ ÙħØ§
Ø° Ø§Ø¨
ĠÙħ Ø¤
ĠÙĪ ØµØŃ
ĠØª ÙĦ
Ø° Ø©
Ø³Ø¨ Ø¨
Ġl i
ØŃ Ø§Øª
Ġ o
ĠÙĤ Øª
ĠØ§ÙĦÙĨ Ø¬Ø§ØŃ
Ø³ Ùĥ
ĠÙĬØ¬ Ø¨
ĠØ§Ùĥ Ø«Ø±
Ġ {
ĠÙħ Ø§ÙĦ
ĠÙħ Ø·
ĠØ´ ÙĥÙĪÙĨ
Øª Ø§Ø¬
ĠÙĩ Ø¯
ĠÙĪ ØºÙĬØ±
Ø¨Ø± ÙĪÙĥ
in g
ĠØªØ¹ Ø±Ùģ
n d
ĠÙĤ Ø¨
Øª Øµ
ÙĦ Ø§Ø¡
ĠÙĬ ÙĦ
Ø± Ø§ÙĨÙĬ
ĠÙĬØŃ Ø¨
ĠÙĥÙĦ Ø´
Ø²Ø§Ø¦ Ø±
ĠØ§ÙĦØ£ Ø±Ø¶
Ġ Ú¨
Ùĩ ÙĨ
ĠØª ÙĦÙĥ
ĠØ´ Ø¹Ø±
ÙĪ ÙĦØ§
Ġ1 7
Ġy ou
Ø¬ ÙĨ
Ø¥ Ø°Ø§
ÙĨØ§ Ùĥ
Ø±ÙĬ ØŃ
Ø§Ùħ Ø¬
ĠØ¯ Ø±ÙĪ
ĠØ¢ ÙħÙĬÙĨ
ÙĨØ³ Ø¨Ø©
ĠØ® Ø§Ø·
Ø§Ø¨ Ø¹Ø©
Ø¸ Ø©
a t
Ġ202 6
ĠØ§ÙĦØ® Ø·
ĠØ§ÙĦØŃ Ø±
Ġ e
ĠØ³ ÙĪØ±Ø©
Øª Ø¯
Ø¬ Ø¹
ÙĪ Ø§Ø´
ĠØ± ØŃ
Ġ B
ĠØ§ÙĦØ£ ÙĨ
ĠÙĥ ÙĨ
ĠÙĥ ÙĦÙħØ©
ĠØŃ ÙĥÙħ
ĠÙĦÙĬ Ùĥ
ĠØ§ÙĦÙĪ Ø·
Ø£ Ø³ØªØ§Ø°
ÙħÙĬ Ø²
ĠÙĥØ¨ ÙĬØ±
ĠÙħ ÙħØª
ĠØ§ÙĦØ´ Ø¹Ø±
ĠÙĨ ÙĤØ±Ø§
Ġ M
ĠØ± Ø³
Ġt he
ĠØ³Ø¨ØŃØ§ÙĨ Ùĩ
Ø¨ Ø§ÙĦ
ĠÙĪØ§ÙĦ Ø´
Øª Ø§Ø±
ÙħØ¹ ÙĬÙĨ
ĠØ¬ Ø¯
c i
ĠÙĪÙĦÙĬ Ø³
ÙĪ ÙĨØ§
ĠÙĦ ÙħÙĨ
ĠÙĥ Ø«
ĠØ· Ø±ÙĬÙĤØ©
ÙĦØ§ Ùģ
ĠØº ÙĬ
Ø±Ùģ Ø©
ĠØ± Ø¹Ø¨
ĠØ±Ø§Ùĥ ÙĬ
ĠÙħ Ø²Ø§ÙĦ
ĠØ§ÙĦÙĨ Ø³
ĠÙĤ ÙĪØ©
ĠÙħØŃ ØªÙĪÙī
ĠÙĨ ÙĤØ¯Ø±
Ø¯ÙĬ Ùħ
ĠðŁĺ į
ĠÙħØ¹ ÙĨØ§
ĠÙģ Ø§Øª
ÙĪ ØŃ
ĠØªØŃ ÙĬØ§ØªÙĬ
ĠØ§ÙĦØµ Ø¨Ø±
ØµØŃ Ø§Ø¨
Ø¨ÙĬ ÙĦ
ĠØ§ÙĦØ¹ ÙħÙĦ
ĠØ£ Ø¹ÙĦÙħ
Ø¨ Ø§Ø±
ĠÙĦ Øº
ĠÙĤÙĦ Ø¨ÙĬ
ĠØ¹ÙĨ ÙĩØ§
k a
ĠØ§ÙĦÙĦ ØºØ©
Ø¬ ÙħÙĬØ¹
ĠØ¨Ùħ Ø¹Ø¯ÙĦ
ĠØ® Ø§ÙĪØªÙĬ
ĠØŃ ÙĬÙĨ
Ø¹ ÙĬØ©
ĠØ´ ÙģØª
ĠðŁ Į
Ùģ Ø§Ø±
Ø¬ Ø²
ĠØ£Ø® ØªÙĬ
ÙĪ Ùī
Ø¯Ø§ ÙĬØ©
ØŃÙĥ Ø§ÙĬØ©
ĠÙħ Ø§Ùĩ
Ø¬ Ø¨Øª
ĠØ§ÙĦØ£ ÙĪÙĦ
ĠØ³ ÙĦØ§Ùħ
ĠØ¹ ÙĬÙĨ
ĠÙĥ ÙħÙĦ
ÙĪÙĦ ÙĨØ§
Ø³ Ø·
Ø¯ÙĬ Ùĩ
ÙģÙĬ Ø¯
ĠÙĨ Ø²
ĠÙĨØŃ ÙĨ
ĠØ¹ÙĨØ¯ ÙĪ
ĠØ£ ØŃÙħØ¯
ÙĤ Ø³ÙĬ
Ġf i
u s
Ġy a
Ø¨ ØµØŃ
Ø± Ø§
ĠÙĤ ÙĪÙĦÙĩ
Ø¨ÙĬ Ùĩ
20 2
Øª ÙĬÙĨ
ĠÙĥ Ø«Ø±
Ġ1 2
ĠØ§ÙĦÙħ Ø¤ÙħÙĨ
ĠÙĪ Ø§Ø¹
ĠØªØ¹ ÙĦÙħ
ĠÙĨ Ø¬ØŃ
ÙģØ³ ÙĬØ±
ÙĨ Ø§Øª
ĠØ¹ Ø§Ø¯ÙĬ
ĠØ¨ ÙĥÙĦ
Ø·ÙĬ Ø¹
Ùħ Ø´
Ø· Ø§Ø±
Ùĩ ÙĪØ±
Ø² ÙĨ
Ø¹Ùħ Ø§ÙĦ
Ø§Ø¯ Ùĩ
ÙĤ ØµØ©
Ø±ÙĬ Ùģ
ĠÙĪØ¬ Ùĩ
ĠØ£ ÙģØ¶ÙĦ
ĠÙģ ÙĪÙĤ
Ø´ Ùģ
Ø® Ø±Ø©
Ø¶ ÙĬØ©
ÙĤØªØ±ØŃ Ø§Øª
Ø¬ Ø§ÙĦ
ĠØ§ÙĦÙħ Ùĩ
ĠØ¹ÙĨØ¯ ÙħØ§
ĠØ§ÙĦÙĤ ØµØµ
ĠÙĨ Ùĩ
ĠØ§ÙĦÙĨ Ø§Ø±
Ø® Ø§Ø±ÙĬ
âľ ¨
ĠÙĬØ± Ø²ÙĤ
Ø§Ùģ Ø¶ÙĦ
Ø§ÙĪ Ø¨
ĠÙĩØ§Ø° ÙĬ
Øª ÙĤ
ĠØ£ Ø®Ø±Ùī
ĠØ¬ Ø§
ĠÙĨØ³ ÙħØ¹
ÙĪØªÙĬ ÙĪØ¨
Ġ Ã
ĠÙĪØ¬ ÙĦ
ĠØ¬Ø²ÙĬ ÙĦØ§
Ø± ÙĬÙĨ
ĠØ´ ØŃØ§ÙĦ
Ļ¥ ï¸ı
Ø² ÙĬØ©
o s
ÙĦÙħ Ø§Øª
ÙĨ Ø¹
ĠÙģ ÙĦÙĬ
ĠÙĬØ¬ Ø§Ø²
Ø¹ Ø§Ø¯Ø©
ĠÙģ ÙĨ
ĠÙĬÙĪÙģÙĤ ÙĨØ§
ÙĦ ÙĥÙħ
ĠðŁ ĩ
ÙĨ ÙĪ
ĠÙĪ Ø§Ø±
Ġk i
w a
Ø±Ø¨ Ø©
ĠØ§ÙĦØ± Ø³ÙĪÙĦ
ĠØ§ÙĦ Ø§Ø¨
ĠØ£ Ùĩ
ĠØŃØ³ÙĨ Ø§ØªÙĥ
! !
ĠÙħ Ø§Ø±
ĠØ¨ ÙĤ
Ø§Ùħ ÙĦØ©
ĠØ§ÙĨ ÙĪ
Ø§ÙĪ ÙĬ
ĸ ¤
ĠÙħ Øº
Ø¨ ÙĬÙĨ
Øª Ùģ
ÙĤÙĪ ÙĦÙĩ
ĠØ§ÙĦØ¨ ÙĦ
ĠØ§ÙĦØ¥ÙĨØ³ Ø§ÙĨ
ĠØµ Ø¨Ø§ØŃ
ĠØ¯Ø§Ø¦ ÙħØ§
ĠÙħØ§Ø´ Ø§Ø¡
o l
ĠÙĪØ§ÙĦ Ø¥
c e
ĠØ® Øµ
ÙĪØ§ ÙĤØ¹
ĠðŁ¥ º
ĠÙĩ Ø§Ø¯ÙĬ
ĠÙħ Ø§Ùĥ
ĠâĢ ¬
ĠÙĩ Ø§ÙĬ
ĠØ¨Ø§ÙĦ ÙĨ
Ø§Øª ÙĥÙħ
ĠØ¨Ø§ÙĦ ØªÙĪÙģÙĬÙĤ
ĠÙĥ Ùģ
ĠØ§ÙĨ Ùĩ
ĠØ§ÙĦØ¹ÙĦÙħ Ø§Ø¡
ÙĨ ÙĬÙĨ
Ø± Ø§Ø¨
ÙĦØ³ ÙĦØ©
ĠØ£ ØŃØ¨
Ġ qu
ĠØ§ÙĦØ´ Ø¹Ø¨
ÙĤ ÙĬÙĨ
ĠÙĪØª Ø¹
ĠØ§ÙĦÙħ ÙĦ
ĠØ´ Ø¹
Ø±Ø¶ Ø§
ĠØ³ÙĬØ¯ ÙĨØ§
Ùĥ Ø±ÙĬ
ÙĦØ³ Ø·ÙĬÙĨ
ÙħÙĬ ÙĦØ©
ĠÙĨ Ùħ
ÙĤØ± Ø£
ĠØ§ÙĦØ¨ Ø®Ø§Ø±ÙĬ
ÙĦ Ø§Øª
ĠØ§ÙĦØ§Ø³ ÙĦØ§Ùħ
Ø³ÙĬ Øª
ĠÙĪØ§ÙĦ Ø³ÙĦØ§Ùħ
ĠØ¨Ø¥ Ø°ÙĨ
ĠÙĤØ§ÙĦ Øª
Ùħ Ø§Ø´
ĠÙħØ±ØŃ Ø¨Ø§
ĠÙĨ Ø¸
ĠÙħÙĨ Ø§
âĢ ı
ĠØ§Ùħ Ø§
Ùĥ ÙĪØ±
ĠÙĪ Ø§Ø³
) ØĮ
ÙĬ Ø§Ø±Ø¨ÙĬ
ĠØ¯Ø± Øª
Ø¨Ø± Ø©
Ø¬ Ùĩ
ĠØ§ÙĦ Ø§Ø¯
ĠØŃØ¨ÙĬ Ø¨ØªÙĬ
1 9
ÙĨØ³ ÙĬØ©
Ø¹ Ùĩ
ĠØ§ÙĦÙģ Ø§Ø¶
Ø¨ÙĤ Ùī
Ġ1 4
ĠØ§ÙĦÙģ Øª
ÙħØ¹ Ø©
Ġ202 4
Ø± Øª
Ġ et
Ø¸ ÙĩØ±
ĠØ§ÙĦ Ø±ÙĬ
ĠÙĩÙĥ Ø§
ĠØ¨Ø§ÙĦ ÙĨØ³Ø¨Ø©
ĠÙĨ ÙĪØ¹
ĠØ· ÙĦØ¨
Ġ ou
ØŃ ÙĨ
ĠØ§ÙĦ ÙĥØ±
ĠØ¯ÙĬØ± ÙĬ
ĠØ¹ÙĦ ÙĪÙħ
ĠÙĤ Ø·
ĠØ§ÙĨ Ùĥ
ĠØ§ÙĦ Ø§ÙĪÙĦ
ĠØ± Ø¯
g e
a d
ĠÙĦ Ø®
ĠØ§ÙĦØ£Ùħ ÙĬØ±
ĠØ¯Ø¹ÙĪ Ø©
Øµ ÙĪÙĦ
ĠØ§ÙĦØ± Ø¬ÙĦ
ÙĬØ± ÙĬ
ĠØ¨ÙĦ Ø§Ø¯
ĠÙħ Ø§Ø¹
ĠÙħÙĨ Øª
Øª ÙĦÙģ
Ø§Ø ¸
Ùģ ÙĦØ©
Ġ L
ĠØµ Ùģ
Ø§ÙĦ Ø¬
Ø¨ÙĬ Ø¨
ĠØ§ÙĦØª ØŃ
ĠÙģÙĬ ÙħØ§
Ø§Ø± Ø¬
Ø§Ø ¤
ÙĦÙĬ ÙĥÙħ
c ha
Ġ! !
ĠØ¹ Ø§Ø¯
ĠÙĦÙĦ Ø£
ĠØ¹ ÙĬ
ĠØ§ÙĦØŃ ÙĦ
ĠØ¨ÙĬ Ùĩ
ĠØŃØ³ Ø§Ø¨
ĠØ³ Ø£
e k
Ø±ÙĬ Ùĥ
ĠÙĬØ¹ ÙĦÙħ
ÙĬ ÙħØ©
ĠØ¹ Ø§Ø¦
Ø§Ùĩ ÙĬÙħ
t o
ĠØ§ÙĦ ÙĦÙĬÙĦ
Ø§ØŃ Ø¯
Ø¬Ø¨ ÙĨÙĬ
Ùĩ Ø¨
Ø§Ø¦ Ø±
ĠØ§ÙĦØ¯ Ø§Ø±
ĠØ®ÙĦ Ø§ÙĦ
ĠÙĪ ÙĨØª
ĠØªØŃ ÙĥÙĬ
ĠÙħ ÙĪØ±
ĠØ¨ÙĬ ÙĩØ§
ĠØ² ÙĬ
Ø² Ø¹
Ø® Ø§ÙĪØªÙĬ
ĠÙħ Ø§Ùħ
ĠÙħ Ø§Ø²
ĠØ¬ ÙĬ
Ø±ÙĪ Ø¹
ĠØ§ÙĦÙĤ ÙĦØ¨
Ø§Øª Ø¨
i m
Ġ =
ĠØŃ Ø·
on t
Ø§Ø³ØªØ§Ø° Ø©
1 5
ĠÙĪ Ø§Ø¨
ÙĨØ³ Ø§
ĠØ¨ ÙĬÙĥ
ÙĥÙĬ ÙĦ
ĠÙģ Ø³ÙĬØŃ
ĠØ¹ Ø¯Ø¯
ĠÙĬØ¬ ÙĬ
Ø§Ùĥ ÙĦ
ĠØ§Ø± ØŃÙħ
ĠØ¬ÙħÙĬØ¹ Ø§
ĠØ³ ÙĦÙħ
ĠØ§ÙĦØ£ ÙĪ
ĠØ§ÙĦØ¥ ÙħØ§Ùħ
ĠØª ÙĦÙĤ
ÙĨ Ùĩ
ĠÙħ Ø§Ø°Ø§
Ø§Ø¦ ÙĤ
Ġ ?
ĠÙĬ Øº
ĠØµ Øº
ØŃÙħ ÙĦ
ĠÙĪ Ø¢
ĠÙĬ Ø®Ø±Ø¬
Øª Ø¹
ĠØµ Ø¯
ĠØ® ÙĦÙĬ
ĠØ³ÙħØ¹ Øª
ĠØ¨Ø§ÙĦ Ø£
ĠÙĪÙĦØ§ ÙĬØ©
ĠØ§ÙĦÙħØ± Ø£Ø©
ĠØ· ÙĪÙĦ
ĠØ§ÙĦØ« Ø§ÙĦØ«
ÙĦÙĪ Ø¯
ĠÙĦ ÙĤØ¯
Ø°Ùĩ Ø¨
Ø® ÙĪÙĬØ§
ĠÙĬ ÙĥÙĨ
ĠØ± ÙĤÙħ
Ġt o
ĠØ§ÙĦØ¬ ÙĦ
ĠØ§ÙĦÙĥ Ø«ÙĬØ±
ĠØ§ÙĦÙĤ ÙĨ
Ùģ Ùĥ
ĠØµ Ø§ÙĦØŃ
ĠÙĨ ÙĦÙĤ
ðŁ Ķ¥
ĠØ§ÙĦØª Ø¹
ÙĨ Ø§ÙħØ¬
e p
Ø¹ ÙĦÙī
Ġ R
ĠØ§ÙĦØª Ø§Ø±ÙĬØ®
ĠðŁ¤£ ðŁ¤£
ĠØ§Ùħ Ø±
Ø§Ø¦ Ø¯
Ø³ ÙĪ
Ø¹ Ø§Ùħ
ØªÙĪ Ø¨
ĠØŃÙĥ Ø§ÙĬØ§Øª
Ġk h
ÙĪÙĥ Ø§ÙĨ
ĠÙĪØ¨ Ø§Ø±Ùĥ
ĠØ¹ ÙħÙĦ
Ø± ÙĪÙģ
ðŁĺ¢ ðŁĺ¢
Ø³ Ø§Ùħ
ĠØŃ ÙĪ
Ø§ÙĬ Ùĩ
ï ´
Ùħ Ø§Ø¡
Ø² Ø§Ø¡
Ø¨ ÙĦÙĬ
ÙĨØ§ Ùĩ
ĠÙģ ÙħÙĨ
Ø· Ø¨
Ø¬ ÙĦÙĬ
ĠØ² Ø¹
ðŁ Ļı
ĠÙĥ Ø§ÙĦ
ĠØ¨ Ø¯ÙĬØª
ĠØ§ÙĦØ¹Ø¨ Ø§Ø³ÙĬØ©
ĠÙħ ØªÙĪ
Ø±Ø¨ ØŃ
1 2
Ø¯Ø± Ø³Ø©
ĠÙĥØ¨ ÙĬØ±Ø©
ÙĥØ± Ùĩ
ĠÙĦØ£ÙĨ Ùĩ
Ø¹ Ùĥ
ÙĤÙĪ ÙĦÙĬ
Ġ S
Ø§Ø¦ Ùĥ
ĠÙĨØ´ Ø§ÙĦÙĦÙĩ
ĠØ´ Ø¨Ø§Ø¨
Ø§ÙĪ ÙĬØ©
ĠÙĨ Ùĥ
Ùħ Ø§Ø±
ĠÙĪ ÙĪ
ĠÙģÙĬ ÙĥÙħ
ĠØ¬ Ø¯ÙĬØ¯Ø©
ĠØ§ÙĦØ¹ Ø±Ø¨ÙĬ
Ø¨ÙĬ Øª
ĠØ· ÙĪÙĬ
ĠØ´ÙĬØ¦ Ø§
ĠØ§ÙĦØª Ø¬
ĠØ§ÙĦØ´ Ø®Øµ
Ø¯ ÙĬØ©
Ġc ha
Ġ T
ĠÙĨ Ø§Ø¬
ĠÙĥ ÙĨØ§
ĠØ±ÙĪ Ø¹Ø©
Ø¯ÙĬØ± ÙĦÙĨØ§
ĠØ¯ Ø®ÙĦ
Ø¹ ÙĦÙĩØ§
ĠØ¹ Ø´Ø±
ØŃ ÙĬØ¯
ĠÙĪ Ø§Ø³Øª
Ġa l
Ø±ÙĬ ÙħØ©
ĠØ¨Ø¯ ÙĪÙĨ
Ø§ÙĨ Ùĩ
ĠØ¨ Øº
k h
ĠØ± Ø¬ÙĦ
ĠØ§ÙĦØ¹ ÙĤ
ĠØ¹ Ø´
Ø£ Øª
ĠØ±ÙĪ ØŃÙĥ
ĠÙģ Ø¹ÙĦ
ĠØ¯Ø±ÙĪ Ø³
ĠðŁ¤² ðŁı»
99 99
ĠÙħÙĨ ÙĬ
Øµ Ùģ
ĠØ· ÙĬØ¨Ø©
Ø± Ø³
ĠØŃ Ø¯
==== ====
ĠÙĬØ´ ÙĪÙģ
ĠÙħØ« ÙĦØ§
**** ****
h h
ĠÙĬ Ø§Ø®
Ġ I
ĠØ£ ÙĦÙģ
Ø§Ø¹ Ø§Øª
ĠÙģ Ø¥Ø°Ø§
Ø¤ ÙĦØ§Ø¡
a b
i re
Ø¹ÙĦ ÙĪÙħ
ĠØ§ÙĦØ· Ø¨
Øª ÙĥÙħ
ĠÙĦÙĦ ÙĨ
ÙĤØ± Ø§ÙĪ
ÙĦ Ø·
Ø·ÙĦ Ø¹
ĠÙģ ÙħØ§
ĠÙĦ Ø´
Ø§Ø¨ Ø·
ĠØ³ Ø§Ø¹Ø©
Ø³ Ø§Ø¨
ĠÙģ ÙĦÙħ
ĠÙĪÙĦ Ø¯
ÙĨ Ø³ÙĬ
Ùħ Ø¯
ĠÙĪØ§ÙĦ Ø¯
ĠØ® ÙĬ
ĠØ¹Ùħ Ø±ÙĬ
ĠØ¹ Ø¯Ùħ
ĠØ¨ ÙĨÙĬ
ĠÙĪÙĬ Ø¹
Ø¬ ÙĬØ¨
ĠÙĨ ÙĬ
ĠØ¯ Ø¹
ĠÙģ Ùī
ĠÙĬØ¬Ø§Ø² ÙĬÙĥ
ĠØ§Ø³ØªØ§Ø° Ø©
ĠØ¨ÙĦÙĬ Ø²
ĠÙħ Ø±ÙĬ
© ðŁĩ
ĠØ±Ø§Ùĩ ÙĪ
Ø®ÙĦ Øµ
ĠÙĨÙģ Ø³ÙĬ
Ø¬Ø¨Øª ÙĨÙĬ
Øª Ø±Ùĥ
ĠØŃ Ø§Ø¨Ø©
ĠÙĪ Ø§Ø®
ĠÙĥ Ø°ÙĦÙĥ
ĠØ¥ ÙĦÙĩ
1 6
00 00
Ø¯ Ø¨
©ðŁĩ ¿
ĠØ§Ø ·
ĠÙħÙĦÙĬ ÙĪÙĨ
ĠØ§ÙĦ Ø§ÙĪ
Ø§Ø¦ ÙĬØ©
ĠØ§ÙĦØ¯ Ø¹Ø§Ø¡
Ġh h
ĠØ§ÙĦ ÙģÙĬ
ÙĤØª ÙĦ
ĠÙĬ ØªÙħ
ĠÙħØ¹ Ø§ÙĬØ§
ÙĤ ÙĤ
Ġb e
ĠØ¨ Ø¬
ĠØ® ÙĪÙģ
ĠØ§ÙĦÙħ Ø¤
ĠØ¨ Ø®ÙĬØ±
ĠÙĨ ÙĪ
ÙĬØ¯ Ø§
Ø· ÙĪØ±
ĠØ§ÙĦÙĥ ÙĦØ§Ùħ
ĠØ£ Ùģ
Ø§ÙĦ Ø´
ÙĪÙĨ Ø©
Ø§Ø¶ ÙĬØ§Øª
ĠÙĬØ¬ ÙĪØ²
1 4
ĠØ§ÙĦÙħ ÙĤ
ÙĤÙĬ ÙĤ
ÙĨ Ø§Ø´
Ã ¨
Ø¬ Ø²Ø§Ùĥ
ĠÙĬØ´ ÙģÙĬ
ØŃØ¨ Ùĥ
ĠÙĤÙĨ Ø§Ø©
ĠØ¬ Ø§Øª
Ø§Ùħ ÙĬÙĨ
ĠØ§ØŃ Ø³ÙĨ
Ø§Ø¬ Ø¹Ø©
ÙĦÙĬ Ùħ
Ø§Ø² ÙĬ
ĠØ§ÙĨ Ø³Ø§ÙĨ
ĠØ§ÙĦØ¬ Ùħ
Øµ Ø§Ø±
Ø· ÙĪØ±Ø©
ĠÙĬ Ø¤
Ø§Ø· ÙĦ
ĠØµØ§ØŃ Ø¨
ĠØŃ Ø¯Ø«
ĠÙħ Ø§ÙħØ§
Ø§ÙĦ ÙĪ
ÙĤØ· Ø¹
ĠØ§ÙĦØ¬ ÙĪØ§Ø¨
ĠØ£ÙĨ ÙĩØ§
ĠÙĥØ§ÙĨ ÙĪØ§
ĠÙĪØ¹ ÙĨ
ðŁ¥ °
ÙĦØ§Ùħ Ø©
ĠØªØŃ Ø¨
Ø§Ùģ Ø±
ĠØ§ÙĦØ± Ø¯
ĠØ¨Ø§ÙĦ Ø¹
ĠØ¹ÙĨØ¯ ÙĩØ§
ĠÙģ ÙĤ
ĠÙĩÙĪ ÙħØ§
ĠÙĪ ÙĦÙĩ
Ø§Ø± ÙĬØ©
ĠØ¶ ØŃÙĥ
ĠØ§ÙĦØ¹ Ø±Ø¨
ĠÙĦÙĬ Ø³Øª
ĠØŃØ¨ÙĬ Øª
ĠØ§ÙĦØµ Ø§ÙĦØŃ
Ø« Ø©
ĠØªÙĪ ØŃØ´
Ø¯ÙĪ Ø©
ou s
ĠØ§ÙĦØ¢ ÙĬØ©
) )
Ø§Øª ÙĩØ§
ĠØ¯ Ø§Ø®
ĠØ¯Ø± Ø³
Ø¯ ÙħØ©
ĠØ¶ ÙĬ
Ø§Ø¨ ÙĬ
ĠØ¹ÙĦ Ø§Ø´
Ø§Ùģ Ø¸
ĠÙħ Ø§Ø¯
ĠØ§ÙĦØ´ÙĬ Ø·Ø§ÙĨ
ÙĨ Ø§ÙĨ
Ġ1 3
ĠØ§ÙĦ ØŃÙħ
ĠØª ÙĬ
ĠØº Ø§ÙĦ
ĠØ§Ø ¶
ĠØ§ÙĦØ¨ÙĬ Øª
ĠÙĨ ØªÙĪ
ĠØ¨ Ø§Ø³
Ø« Ø¨Øª
ĠÙĪØ§ØŃ Ø¯Ø©
Ø´ ÙĪ
ðŁĳ į
ĠÙħ Ø¶
ĠØ¨Ùĩ Ø°Ø§
1 3
ĠÙģ Ø³
Ø§Ø¦ Ùħ
Ø¯ ÙĪØ§
ØµÙĦ ØŃ
ĠÙĬ ÙĤØ¯Ø±
ĠÙģ ØªØŃ
Ġ **
Ø¯ÙĬ Ø§
ĠÙĪ ØªÙĪ
ĠÙĩÙĥ Ø°Ø§
ĠØµ ÙĪØª
ĠÙĪØ³ÙĦÙħ ØµÙĦÙī
ĠÙĪØ§ÙĦ Øµ
ĠØ§ÙĦØ¬Ø²Ø§Ø¦Ø± ÙĬØ©
Ø§Ø³ Ø¨
ĠØ´ ÙĪÙĬØ©
ĠÙħ ÙĩÙħ
ĠÙĪØ¨ Ø¹Ø¯
ĠÙħ ÙĪØ¬
ØŃ ÙĬÙħ
ÙĦÙĬ Ø·Ø§
ĠØ¨ Ø³Ø¨Ø¨
Ø§ÙĦ Ø³
Ø§ÙĦ ÙĤ
ĠØµ ÙĦØ§Ø©
ĠÙħ Ùģ
ĠØ§ÙĦÙħ Ø¯
Øª Ø¨Ø±
ðŁĴ Ĺ
ĠÙĦ ÙĪÙĥØ§ÙĨ
ĠØ§ÙĦÙħ Ø·
ĠØ´ ÙĪÙĬ
Ø§Ø¬ Ø¹
1 8
ĠØ§ÙĦ Ø§Ø±
ĠØ¨ Ø§ÙĬÙĨ
Ø¶ ØŃ
ĠØ£ ÙĤ
ĠÙĬØ¬ ÙĬØ¨
ĠØ´ Ø¹Ø¨
ĠÙĨØª ÙħÙĨÙī
ÙĪÙĨ Ø³
ĠÙħÙĨ Ø°
ĠÙģ ÙĪ
Ø§Øª ÙĩÙħ
ĠØ§ÙĦØª Ø³
ĠØ±Ø§Ø¦ Ø¹
Ùĥ Ø«Ø±
ðŁ¤ į
ĠÙĪÙĬ Ø³
Ø§Ø¹ ÙĬ
Ġs a
âĢ į
ĠØªØ¹ÙĦÙĬ ÙĤ
ĠØ¨ Ø®
ĠÙĪØ¨ ÙĬÙĨ
Ø§ÙĦ Ø¹
ĠØ§ÙĦØ± Ø¹Ø¨
e o
ÙĦÙĪ Ø§ÙĨ
ĠØ¥ ÙĨØ§
ÙĤÙĬ Ùħ
ĠØ¬ ÙĬØª
ĠÙĨ Ø·
Ø§ÙĦ ØŃÙħØ¯
ĠðŁ Ļı
ĠÙĬ ÙĨØª
ĠØ¯ Ø§ÙĬØ±
ĠÙĪØ¥ Ø°Ø§
ĠÙģØ¥ÙĨ Ùĩ
ÙĩØ§ ÙĬØ©
ĠØ¹ ÙĬØ¯
er ci
ĠÙĨ ÙģÙĩÙħ
Ø²Ø§Ø¦ Ø±ÙĬ
ĠØªØ§Ø¹ ÙĬ
ĠØ§ÙĦÙĤ Ø§Ø¯Ø±
ÙĬØ¹ Ø·ÙĬÙĥ
ÙĪ ÙĩÙħ
ĠØ§ÙĦØ« Ø§ÙĨÙĬØ©
ĠØªØ¬ ÙĬ
ĠØªØ´ ÙĪÙģ
ĠØ¹ÙĨØ¯ Ùĩ
ĠÙĦÙĬ ÙĦØ©
ĠØ¬ ÙĦ
Ø®Øµ Øµ
Ġ z
ĠÙĨØ´ Ø§ÙĦÙĩ
Ø¯ Ø§Ø¯
Ø± ØŃÙħ
Ø¬ Ø§
ĠÙĤ ÙĦÙĪØ¨
ÙĦØ§Ùħ ÙĬ
Ġ i
ĠØ¯ ÙĪ
ĠØ¨Ø§ÙĦ Ùĥ
1 7
Ø® ÙĦÙĬ
ĠÙħ Ø§Ùģ
Ø§ÙĦ Ø§Øª
ĠÙĬ ØªØŃ
ĠÙĪ Ø¹Ø¯
Ø¬Ùħ Ø§Ø¹Ø©
Ùģ Ø§
ĠØ§ÙĦÙĨØ³ Ø§Ø¡
Ġc om
ĠØ§Øª ÙħÙĨÙī
ĠØ¨Ùĥ Ø§ÙĦÙĪØ±ÙĬØ§
Ùħ Ùĩ
ĠÙģØ±ØŃ Ø©
ĠÙħÙĪ Ø§Ø¶ÙĬØ¹
ĠðŁĴ Ķ
ĠØ¨Ø±Ùĥ Ø§ØªÙĩ
ĠÙĪØ¬ Ø²Ø§Ùĥ
Ø§Ùĩ Ø±Ø©
ĠØ´Ø§Ø¡ ÙĦÙĦÙĩ
Ø¹ÙĬ ÙĦÙĬ
ÙĬ Ø§Ø®
Ø§Ø¦ Ø¹
ĠðŁĺŃ ðŁĺŃ
ĠÙĩ Ø±
ĠÙħÙĥØ§ÙĨ Ø´
ĠÙĬ ØªØ¨
ĠÙĦ Ø§Øª
ĠÙħ ÙĤØ§ÙĦ
ĠØ§ÙĦØ¬ Ø§Ùħ
ĠØª Øº
ĠÙĪ ÙħØ±
ĠØ§ÙĦÙĨ ÙģØ³
ĠØ§ÙĦ Ø¢ÙĨ
ĠØ´ Ø§Ùģ
ĠØ§ÙĦØ¨ ÙĤ
o t
~ ~
ĠØ¬ ÙħØ¹
Øµ Ø¯
Ø¬ ØŃÙĥ
ĠØ£ ÙĩÙĦØ§
ĠØª Ø¯ÙĬ
Ø±ÙĬ Ø§
Ø¨ÙĬ Ø§Ø¡
in e
ĠØ§ÙĦÙĪ Ø§ÙĦ
ØŃ Ø³
ĠÙĪØ£ ÙħØ§
ĠØ³ ÙĦ
ĠÙħØ¹ ÙĨÙī
ĠØ£ ØµØŃØ§Ø¨
Ø´ ÙĪÙģ
Ġw a
Ø®ÙĦ Ø§Øµ
ĠÙĬ ÙĪØ¬Ø¯
ĠÙĬ ÙģØ±
ĠØŃÙĥ Ø§ÙĬ
ĠÙħ Ø±Ø¶
ÙĤ ÙĪÙĨ
ĠÙĪ Ø§Øª
Ø§Ùĩ ÙĬ
Øª ÙĨ
ĠØ£ Ø³Øª
Ø· ÙĤØ©
ĠØ³ Ø¹ÙĬØ¯
ĠÙĤ Ø±ÙĬØ¨
ÙĦØ§ Ùĥ
ĠØ§ ÙĤØª
Ø±Ø¬ ÙĪ
ĠÙħ Ø²
ĠÙģ ÙĦØ³Ø·ÙĬÙĨ
ĠØ¹ÙĨØ¯ ÙĨØ§
ØªØŃ Ø§ÙĨ
ðŁ ĸ¤
ĠÙħØ¹ ÙĦÙĪÙħ
ĠØ³Ø¨ Ø¨
ĠØ§ÙĦØ£ÙĪ ÙĦÙī
ĠÙĪØ§ÙĦ Ø¬
] .
h i
ĠÙĥ Ø§Ø´
ĠØ¹ Ø§ÙĦÙħ
ĠØ´ Ø§Ø¨Ø©
ĠØ¬ Ø§Ø¨
Ø¶ Ø§ÙģØ©
ĠØ§ÙĦØª Ùģ
Ø§Ø¦ Ùĩ
Ø§Ø¹ Ø±
ĠØ§ÙĦØ¬ ÙħÙĬØ¹
ĠÙĪ ÙĩÙħ
ÙĪÙĦ ÙĪ
Ġm e
ĠÙĦØ§ÙĬ Ùĥ
Ġa na
Ġ C
d e
ĠÙĪØ§ÙĦ Ùģ
Ġ en
Ø¹ ÙĨØ¯
ĠØ® Ø§Øµ
ĠØ§ÙĦØŃ ÙĥÙħ
ĠðŁ¤ į
ĠØ£Ùĥ Ø¨Ø±
Øª ÙĤØ¯
Ø¯ÙĬ ÙĤ
ĠÙĤ Ø³Ùħ
ĠØ§ÙĦÙĤÙĬ Ø§ÙħØ©
s i
Ùģ Ùī
ĠÙĤ ÙĦÙĬ
Ø¹ ÙĦØ§Ùĩ
ĠØ¹ÙĨØ¯ ÙĩÙħ
ĠÙģ Ùħ
ĠÙĩ Ø§Ùĥ
ĠÙħ ÙĦÙĥ
Ø§ ÙĪÙĨ
ĠÙħÙħØª Ø§Ø²
ĠØ§ÙĦØ· ÙĬØ¨
ĠØª ÙĤØ¯Ø±
ĠÙĤ ÙĪ
Ø® ØªÙĬ
Ġ1 00
Ø§Ø± Ùģ
ĠØ§ÙĦÙģØ§Ø¶ ÙĦ
Ø® ÙĪÙģ
ĠØ¨ ÙĥØ±
ĠÙĬØ¯ Ø®ÙĦ
ĠØ¹ Ø·
ĠØªØ¬ ÙĬØ¨
ĠÙĪ Ø¶Ø¹
ĠØ§ÙĦÙħØº Ø±Ø¨
ĠÙģÙĬØ¯ÙĬÙĪ ÙĩØ§Øª
ĠØ§Ø «
ĠÙĪØŃ Ø¯ÙĬ
ÙĤÙĬ ÙĦ
ĠØ§ÙĦØ¢ Ø®Ø±
Ø§Ø¯ÙĬ Ø«
ĠÙĦ Ø³
ĠØ¯ ÙĪØ±
ĠØµ ØºÙĬØ±
Ø¯Ø± Ø³
Ùħ Ø²
ĠÙĪ Ø«
ĠØ§ÙĦØª ÙĨ
ÙĪÙĦ Ø¯
ĠØ§ÙĦÙĪ ÙĥÙĬÙĦ
Ġ D
Ø¨ÙĦ Øº
Ø§Ø¨ ÙĦ
____ ____
Ø¯ Ø¹ÙĪ
Ùģ Ø§Ø¡
Ø¶ Ø±Ø¨
Ø³Ùħ Ùī
ĠØ§ÙĦØŃ ÙĤÙĬÙĤØ©
ÙĪÙħ ÙĬ
Ø´Ø± ÙĬØ©
ĠØ± ØºÙħ
Ø³Ø¨ ØŃ
ĠÙħ ÙħÙĨ
ĠØ¨ Ø°ÙĦÙĥ
Ø§Ø¯ Ùħ
Ø¨Ø¯ Ø£
Ø¯Ø± Ø©
ĠØ§ÙĦÙħ ÙĪØª
ĠØ§ÙĦØ¬ÙĦ ÙģØ©
Ø§ÙĬ Ø´
ĠØ§ÙĦØ¬ Ø²Ø¡
ĠÙģØ± ÙĨØ³Ø§
Ø±ÙĬ Ø¹Ø©
ĠØ§ÙĦØŃÙĥ Ø§ÙĬØ©
ĠÙĪ ÙĬØ¨
ĠØ§ÙĦØ´ Ùĩ
ĠØ± Ø§Ø³
Ø³Ø¨ Ø§Ø¨
ĠÙħØ¹ ÙĦÙĬØ´
1 1
ĠØª Ø®Ø±Ø¬
ĠÙħ Ø¨Ø§Ø±Ùĥ
ÙĪÙĦ Ùĥ
Ø² Ø§ÙĬØ±
ĠÙĦ ÙĥÙĬ
ØµÙĦ Ø§Ø©
ĠØ¨ ÙĬØª
ĠØ®ÙĦ Ø§Øµ
ØªÙĥ ÙĦÙħ
Ø± Ø§Ø¡
ĠÙĦÙĬ ÙĪÙħ
s e
ĠØ¥ ÙĨÙĬ
ØŃ Ùĩ
ĠØª ÙģØ³ÙĬØ±
ĠÙħ Ø¨Ø±ÙĪÙĥ
ĠÙħØ¹ Ø§ÙĨØ§
ĠÙĦ Ùģ
ÙħØ§Ø´ Ø§Ø¡
ĠÙħ ÙĬÙħ
Ø³ Ùī
ÙĦÙĬ Ùĩ
ĠÙĦÙĦ Ø´
Ø§Øª ÙĪ
Ùĥ ÙĨØª
Ø§Ø° ÙĨ
ĠØ§ÙĦØ¨ Ø§Ø±
ĠÙĨÙĪØ± ÙħØ§ÙĦ
ĠÙĪÙĦÙĬ Øª
ØŃ ÙģØ¸
ØŃØ¨ Ø§
ĠÙĤ Ø¨Ø±
s a
Ø§ÙĨ ÙĪÙĨ
ĠØ¯Ø® ÙĦØª
Ø¬ Ø¹ÙĦ
ĠØ¯ÙĬØ± ÙĨØ§
ĠØ¥ Ø°
Ø¬ ÙĬÙĦ
ĠÙģ Ùĩ
ĠØ§ÙĦØ± ØŃÙĬÙħ
ĠØ§ÙĦÙĤ ÙħØ©
ĠØŃ ÙĤÙĬ
ĠØ§ÙĦÙĤ Ø¨
ĠÙĪÙĦ ÙĦÙĩ
ĠØ¨ Ø§Ø±
ĠÙĨ ÙĥÙĪÙĨ
ĠØ¬ Ø¹ÙĦ
ĠØ¬ ÙħÙĬÙĦ
ĠÙĦ ÙĤÙĬØª
ĠØ¹ ÙħÙĬ
ĠØª Ø¨Ø¹
Ġ4 0
ĠÙģÙĩÙħ Øª
âĢ Ļ
ĠØ¥ÙĨ ÙħØ§
ĠÙħ ÙĪØ³
Ùħ ÙĨØ§
Øª ÙĦÙĬ
Ø§Øª Ø°Ø©
ÙĦÙĪ Ùĥ
ĠØ£ÙĪ ÙĦØ§
ĠØ§ÙĦØ¥ ÙĬÙħØ§ÙĨ
Ø§Øª Ùģ
ĠÙĦ Ø¯ÙĬ
ĠÙħØ¹ Ùĩ
ĠÙĩ Ø¤ÙĦØ§Ø¡
Ø§Ùģ ÙĬØ§
ÙĪØ³ Ùģ
ĠØ£Øµ Ø¨ØŃ
Ø·ÙĦ ØŃØ§Øª
ĠÙĩ ÙĬØ§
Ùĩ Ø§Ø´
ĠØ¹ ÙĪØ¯Ø©
ĠØ±Ø§Ø¦ Ø¹Ø©
ÙĪØ§ ÙĬØ©
ĠÙĦÙĩ Ø°Ø§
ĠØ¹ÙĦ Ø§Ø¨
ĠØ§ÙĦØ¨ Ø§Ø¨
ĠØŃØ± Ø§Ùħ
ĠÙĤ Ø¯Ùħ
ĠØ§ÙĦØ³ Ø¨
ÙģÙĩÙħ ØªØ´
ÙĪØ¬ ÙĬ
ĠØ§ÙĦØ¹ Ùħ
ĠÙħØŃ ÙĦ
ÙĦÙĬ Ø§
Ø¹ ÙĪØ§
Ø±Ùĥ Ø²
ĠØ¥ Ø®
ÙĨ Ùģ
ĠØ¬ Ø²Ø¡
Ùĥ ÙĦØ©
ĠØ§ÙĦÙħØ¤ÙħÙĨ ÙĬÙĨ
ÙĨ Ø¯ÙĬ
ÙĬ ÙĪÙħ
ĠÙĪ Ø§
ĠØ§Ø¹ ÙĦÙħ
Ø³Ùħ Ø§Ø¡
ĠØ±Ø¨ ÙħØ§
ĠØ§ÙĦØªÙĪ ÙģÙĬÙĤ
ĠØ§ÙĦ Ø§Ø´
ÙĤØ· Ø©
Ø£ ÙĬ
ĠÙĥ ÙĦÙĩØ§
Ø£ Ùĥ
ĠÙĦ Ø°ÙĦÙĥ
ĠÙĪ ÙĥÙĬ
ĠÙĩØ± ÙĬØ±Ø©
ĠØ§Ø®Ø± Ùī
Ġ19 5
ĠØ§ÙĦØ§Ø¬ ØªÙħØ§Ø¹
f i
a u
ĠÙĨÙģØ³ Ùĥ
ĠÙĪ Ø°ÙĦÙĥ
ĠØ£ÙĬ Ø§Ùħ
ĠØ¹ Ø¯
Ø¨Ø± Ø§ÙĩÙĬÙħ
ĠØ§ÙĦØ« ÙĪØ±Ø©
Ø§ØŃ ÙĬ
ĠØµ ÙĪ
ĠØ£ÙĨ Ùĥ
ĠØ§ÙĬ Ø¶Ø§
ĠØ§ÙĦÙĤ ÙĪÙĦ
Ø§Ùģ ÙĤ
ĠÙĬ Ø²ÙĬØ¯
ĠÙĦÙĦ Øª
ĠÙĩØ° Ø§Ùĥ
ĠÙĪØ§ÙĨ Øª
Ġk ho
ĠØ¬Ùħ Ø§Ø¹Ø©
ĠØ´ Ùĥ
Ġ ]
ĠÙħ Ø§ÙĦÙĥ
Ø¨ ÙĨ
Ø® Ø§Ùģ
ĠØª ÙĤØ¯
ĠÙĬØ±ØŃÙħ ÙĩØ§
ĠÙĬØ§ Ø§Ø±Ø¨
ĠÙĥØ« ÙĬØ±Ø©
Ġ ï´
ĠØ§Ùĩ ÙĦØ§
Ø± Ø§Ø±
ĠØ¹ Ø«
ðŁ Ļ
ĠØ¬ ÙħÙĬÙĦØ©
Ùĥ Ø§ÙĬÙĨ
ĠÙĪØ§ÙĦ Ø®
ĠØ§ÙĬ Ø§Ùħ
ĠØ§ÙĦØª Ø´
ĠØ¬ Ø§ÙĬ
Ġ1 1
Ø§Ùĥ Ø³
ÙĦ ÙĦ
Ġm o
ĠÙĬÙĨ Ø¬ØŃÙĥ
ÙĤÙĪ Ø©
ĠØ§ÙĦØ³ ÙħØ§Ø¡
ĠØ§ÙĦ Ø§ÙĬ
ĠØŃÙĬØ§Øª Ùĥ
ĠÙģ Ø¯ÙĬÙĪ
ĠÙĦ ÙĬÙĨØ§
Ø¯Ø± Ùĥ
ĠðŁĺ ®
ĠØ§ÙĦØ¯ ÙĪÙĦØ©
l o
ĠØ§ÙĦ ÙĪØ±
ĠÙģ Ø§ÙĦÙħ
ØµØŃ ÙĬØŃ
ĠÙĪØ¬ ÙĪØ¯
z a
ĠØ§ÙĦØ³ ØŃØ±
ĠØ§Øº ÙģØ±
ĠÙĤ ØªÙĦ
Ø¨ ÙĬØ©
ĠÙĬ Ø±ÙĬØ¯
ĠÙĨØ³ ÙĤØ³ÙĬ
ĠÙħ ÙĤØªØ±ØŃØ§Øª
Ø§Ø¬ ÙĦ
ĠÙĪÙĩ ÙĦ
ĠÙħØ´ ÙĥÙĦ
Ø¯ Ø¹ÙĪÙĦÙĬ
ĠÙĨ Ø±ÙĪØŃ
ĠØ§ØŃ Ø¯
ĠØ±Ø§Ùĥ Ùħ
ĠØ§ÙĦØ³ Ø±
ĠÙħØ¹ Ø§Ùĩ
ĠØ¨Ø§Ø¨ Ø§
3 0
ĠØ¥ Ø³Ùħ
ĠØ¥ÙĨ Ùĩ
ĠØ³ Ø¨ÙĬÙĦ
ĠÙĪÙĦ Ø§Ø¯
Ø§ÙĦ ØŃØ©
ĠØª ÙĤØ±
Ø¹ÙĬ Ø´
ĠÙĦ Ø¬
ĠØµ ÙĦÙĬ
ĠØ§ÙĦØ£ ÙħØ©
ĠÙĥØ§ÙĨ ÙĪ
l lah
Ø±ÙĪ Ø¬
ĠØ¨Ø§ÙĦ Øª
ĠØªÙĩ Ø¯Ø±
-------- --------
ĠØ¹ Ø°Ø§Ø¨
ĠÙħØ¹ Ø§
ĠÙĪØ£ ÙĨØ§
ĠØ´ ÙĥØ±
Ø§Ø¨ ÙĤØ©
Ø² Ø§
ĠÙĦÙĦ Ø¹
ĠÙħØ³Øª Ø¬Ø§Ø¨Ø©
Ø§ÙĦ Ø£
Ø£ ÙĦÙĥ
ĠÙĪ Ø§ÙĤ
Ø¹ Ø§Ø±Ø©
ĠÙĦ Ø§ÙĦØ§
ÙĬÙĥ ÙĪØ±
ÙĨ ÙĪØ¨
ĠØ±Ø¬ Ø¹
ĠØ· ÙĬØ¨
Ø·ÙĬ Ùģ
Ø§Ø¯ Ø§
ĠÙħØ¬ ÙĩÙĪØ¯
ĠØŃÙĬØ§Øª ÙĬ
ĠØ± ÙĬØ¯
Ø§Ø¦ Ø¯Ø©
" .
ÙĦ Ø§Ø¨
Ġb ac
Ġ H
ØªØ¨ Ø§Ø±
Ø§Ø¹ Ø¯Ø©
ĠØª ØªÙħ
ÙĦÙĬ ÙĪÙĨ
Ø± Ùī
ĠÙģ ÙĩØ°Ø§
ĠØª ÙģÙĩÙħ
ĠÙĪØ§ÙĦ Ùĥ
ĠØ§ÙĦØª Øµ
Ø§Ùĥ ÙĨ
ĠØª ØªØŃ
ĠÙĥ ÙĦÙĩ
ĠÙĤØ§ÙĦ ÙĪØ§
ĠðŁĩ ©ðŁĩ¿
Ø§Øª ÙĦÙĬ
ĠÙĬÙĩ Ø¯Ø±
ĠØ§ÙĦØ£ ØŃ
ĠØª ÙģØ±Ø¬
ĠÙħ Ùħ
ĠÙĪØª ØŃ
Ø¨Ø¹ Ø§
ĠÙħÙĨ ÙĥÙħ
Ùģ ÙĪÙĨ
Ø§Ø¦ ØŃ
ÙĦØ¨ Ø§ÙĨÙĬ
Ø¨ Ø±ÙĬ
ĠØ¨ Ø³ÙĬ
Ø§ÙĦ ÙĩØ§
ĠÙģ ÙĥØ±Ø©
ĠØ§ÙĦÙħ ÙĦÙĥ
ĠÙĬ Ø¯ÙĬ
ĠÙĤ ÙĪÙĦÙĬ
Ø§Ø¨ Øª
ĠØµ Ø§Ø±
Ùĥ ÙĬÙĨ
ĠÙĦ Ø§ØŃ
ĠØ§ÙĦØŃ Ø³ÙĨ
ĠÙĥ ÙģØ±
ĠØ§ÙĦØ³ ÙĦ
ĠØ³ Ø§Ùħ
Ø¹ Ø§Ø±
ĠðŁ¥ °
ĠØ± Ø§
ĠØ§ÙĦØµØŃ Ø§Ø¨Ø©
ĠØ§ÙĦÙħØ¬ ØªÙħØ¹
ĠØ¥ ÙĬ
Ø¹ ÙĦÙĩ
Øµ Ø§Ø¯
ĠØ¯ Ùħ
ĠÙħÙĦÙĬ ØŃØ©
ĠØ§ÙĦØ² ÙĪØ¬
Ø§ÙĦ ÙĩÙħ
ĠÙĪØ¥ÙĨ ÙħØ§
ĠØ¬ Ø§ÙĪØ¨
ĠØ¹ÙĨ ÙĩÙħ
Ø¶ Ùī
ĠØŃ Ø§ÙĦØ©
ØªØ± Ø§Ùħ
ĠØ§Ø± Ø¬ÙĪ
ĠØ£ØŃ Ø³ÙĨ
Ø¯Ø¹ Ø§Ø¡
ĠÙĨØŃ ÙĥÙĬ
ÙĦØ³ ÙĦ
ĠØ§Ø³Øª Ø§Ø¯
ĠØµØº ÙĬØ±Ø©
ĠØ£ ÙĦØ§
ĠÙģ ÙĩÙĬ
ĠÙĩ Ø¯ÙĬ
Ġ _
ĠØ³ÙĬ Ø¨ÙĬØ§
ĠÙĤ Ø§Ùħ
ĠØ¯ Ø§ÙĬ
Ø¹ Ø¶
ÙĨ Ø¹Ùħ
a w
Ø¬ÙĦÙĬ Ø²ÙĬØ©
ĠØµ Ø§ÙĨ
ĠØ§ÙĦØ¹ Ø²ÙĬØ²
ĠÙħ ÙĬÙĨ
ĠØªØ¹ÙĦÙĬ ÙĤÙĬ
Ø¸ ÙĨ
Ø³ Ùĩ
ĠÙĪ Øº
ĠØ¨ Ø§Øº
Ø¬ Ø§Ø²
ĠÙĨ ÙĦ
ĠØµ ÙĪØ±Ø©
ÙĥÙĬ Øª
ĠÙĪØ£ ÙĨØª
Ø§Ø¨ Ùĩ
Ø¬ Ø±Ø©
ĠÙĦØ§ÙĨ ÙĪ
ĠØ³ÙĨ ÙĪØ§Øª
ĠØ£ Ø¬ÙĦ
ĠØ§ÙĦØŃ Ø§ÙĦ
ĠÙĪÙģ ÙĦØ³ÙģØ©
ĠØ§ÙĬ Ø§
ĠØ§ÙĦØª ØŃØ±
ĠØ¨Ø§ÙĦ Ø¥
ĠØ§ÙĦØ¯Ø± ÙĪØ³
ĠÙħÙĦ Ø§ØŃ
ÙĤ ÙĨ
ĠÙĦÙħ Ø§Ø°Ø§
ØºØ± Ø§ÙģÙĬØ§
ĠØ¨ ÙħØ¹
ĠÙĪØŃ Ø¯Ùĩ
ØŃ Ø«
ÙĪÙĨ Ùĩ
Ø¨ÙĬ Ø¹
Ùħ Ø§Øª
ĠØº Ø±ÙĬØ¨
Û ¡
ĠÙĦÙĬ Ø§
ĠØªØ® ÙĪÙģ
Ø· Ø§Ø¡
ĠÙħØ± Øª
ĠØªØ§Ø¹ ÙĪ
ĠÙĦ Ø¥
ĠÙĦ ÙģÙĬØ¯ÙĬÙĪ
ĠÙĪÙĨ Ø¹Ùħ
ĠÙĬØ¬ Ø¹ÙĦ
ĠØ§ÙĦØª ÙĤ
ĠÙĨØ¨ Ø¯Ø§
Ġt e
ĠØ¨ Ø§
ØªÙĪ Ø´
ĠØ§Ø¬ Ø¹ÙĦ
ĠØ¥ Ø¨Ø±Ø§ÙĩÙĬÙħ
â ĺ
ĠØ¬ Ø²Ø§Ø¦Ø±ÙĬ
Ø¨Ø¹ Ø¶
ĠâĿ¤ï¸ı âĿ¤ï¸ı
â Ļ¥ï¸ı
ĠðŁĳ į
ĠØ¢ ÙĦ
Ġvid Ã©
ÙĪÙĨ ÙĬØ©
Ġ el
ĠØ® Ø§ÙĬ
ĠÙĪØ§ÙĦ Ø¯ÙĬÙĥ
Ġj e
in a
âĢ ª
Ġâľ ¨
p p
ĠØ§ÙĦÙħ Ø§Ø¡
Ø±ÙĬ Øª
ĠÚ¨ Ø§Ø¹
ĠØ¨ ÙĩÙħ
ĠØ´Ø§Ø¡ Ø§ÙĦÙĦÙĩ
ĠØ§ÙĦÙħ Ø¯ÙĬÙĨØ©
ĠØ§ÙĦØ· Ø±ÙĬÙĤ
ch i
ÙĪ Ø¨Ø±
ĠØ¨ Ø§Øª
ĠÙģ Ùĥ
ĠÙĬØ±Ø²ÙĤ Ùĥ
ÙĥÙĨ Ùĩ
Ø¬ ÙĬØ©
ĠØ§ÙĦÙħ ØªÙĪ
ÙĪÙħ ÙĪÙĨ
ĠÙĩ Ø§Ø°Ø§
ĠØ§ÙĦØ§ÙĨ Ø³Ø§ÙĨ
ÙĨ ØŃØ¨Ùĥ
Ø± Ùĩ
Ġ is
ĠÙĪØ§ÙĦ ØŃÙħØ¯
ep ia
ĠØ´ ÙĪÙģ
Ġs u
ĠØ® Ø¯Ùħ
Ø« Ùħ
ĠÙĬÙĪ ÙħØ§
ĠØ§ÙĦØ± Ø¬Ø§ÙĦ
ĠØ· Ø§ØŃ
Ø§Ø± ÙĬÙĨ
ĠÙĪÙĦÙĥ ÙĦ
ĠØª ÙĤØ¯Ùħ
ĠÙĬØ¹ ÙĬØ´
Ùħ ÙĬØ±
Ø§ØŃ ÙĬØ©
ĠØ³ÙĪ Ø§Ø¡
ĠØ£Øª ÙħÙĨÙī
ĠØ· Ø¨
ĠØ§ÙĦÙħ Ø¨
Ø³ ÙĨØ©
ĠÙĬ Ø³Ø±
Ġ N
Ġf or
ĠØ¨ÙĦÙĬ ÙĬØ²
Ø® ÙĦÙĪ
Ø° ÙĬÙĨ
ĠØ§ÙĦØ® ÙĪÙģ
ĠØ¬Ùħ ÙĦØ©
s t
ĠØ§ÙĦ Ø±Ø¨
ĠØ² Ø§Ø¯
Ø§ÙĨ Ø¨
ÙĤØ¯Ø± Ø´
ĠØŃ Ø§Ø¬
ĠÙĪØªØ¹ Ø§ÙĦÙī
ĠØ±Ø§Ùĥ ÙĦÙĬØ·Ø©
Ø³ ÙĬÙĨ
Ø§ÙĨÙĬ Ø´
ðŁ «
ĠØ§ÙĦØ£ ÙĦØ¨Ø§ÙĨÙĬ
ĠØ²Ø¹ ÙħØ§
Ø§ÙĦ ÙĨ
ĠØ¶ Ø¯
ĠÙĪØ§ÙĦ Ø±
ĠØ¨Ùĥ Ø±ÙĬ
ĠÙģ Ø§Ø±
b e
Ø¨ØŃ Ø«
ÙĪØ¬ Ùĩ
Ø³ ÙĥØ±
ĠØ¨ Ø§ÙĨ
ĠÙĩ Ø¯Ø±
ĠðŁ Ļ
Ø± ÙĬØ©
Ø¨ Ø§Ø¡
Ø¹ÙĨ Ø¯ÙĬ
ĠØ± ØŃØª
ĠØ§ÙĦØ· Ø±ÙĬÙĤØ©
ĠØ¨Ø§ÙĦ Ø±
ĠØ§Ø¨ ÙĪÙĨÙĬ
ĠØ¨Ø§ÙĦ ØŃ
ĠØ¹ Ø±Ø¨ÙĬØ©
ĠÙģ Ø§ÙĨ
Ġa nd
ĠÙĦ ÙĪÙĦ
Ġp ar
ĠØ§ÙĦÙĥ Ø±ÙĬÙħØ©
ðŁĴ ª
ĠÙĪØ¹ ÙĦÙĬÙĥÙħ
Ø§ÙĪ Ùī
Ø« Ø§Ø±
ou m
i e
ĠØ§ÙĨ ÙĩØ§
ØŃ ÙĨØ§
Ø§Ø¦ ÙĦØ©
ĠØ¬Ø§Ùħ ÙĬ
ÙĪ Ø§Ùĩ
Ø±Ùģ Ø¹
Ø® Ø©
Ø® Ø¯Ùħ
ĠØ§ÙĦØ³ Ø§Ø¹Ø©
ou t
ĠÙĦ Ø·
ĠØ¹ ÙĨØ§
ĠØŃ ÙĤÙĬÙĤØ©
ĠØ§ÙĦÙĨ ÙĩØ§Ø±
ĠØ±Ø§Ø¬ ÙĦ
ÙĦØ§ÙħÙĬ Ø°
ĠÙĬØ® ÙĦÙĬÙĥ
ĠÙĦÙĦ Ø¬ÙħÙĬØ¹
ĠØ§ÙĦÙĤÙĨ Ø§Ø©
ĠØ¨ Ø§Ø°ÙĨ
Ùħ Ùħ
ĠØ³ÙĨ ÙĬÙĨ
ĠØ¨Ø§ÙĦ Ø¬
ĠØ³ ÙĦØ³ÙĦØ©
ĠØ§Ø¬ ÙħØ¹ÙĬÙĨ
Øµ Ø¨Ø§ØŃ
ĠØ§ÙĦØ£ Ø¹
Ø³Ø¨ØŃ Ø§ÙĨ
ØŃ Ø§Ø¨
ĠÙĬ ØªÙĪ
ĠØ¢ ÙħÙĨ
an a
Ø§ÙĪ Ø²
Ġvid eo
ĠÙĨ Ø¸Ø±
ĠØµ Ø¯ÙĤ
ĠØªØ¹ÙĬØ´ ÙĬ
ðŁĺ ģ
ĠØ¬ ÙĪ
ĠØ£Ø® Ø°
ĠÙĬ Ø²
ĠÙĬ ÙĤØ§ÙĦ
Ø§Ùģ Ø¹
ĠÙĦ Ø±
ĠØŃ ÙĤØ§
ĠØ¹ Ø¨Ø±
ĠØ±Ø£ ÙĬ
Ø±ÙĬ Ø³
ĠÙĪ ØµÙĦ
j a
Ġw e
ĠØ§ÙĦÙħ Ø¹ÙĦÙĪÙħ
ĠðŁ¤² ðŁ¤²
g h
ĠØ§Ø± ÙĬØ¯
ĠÙĦÙĦ Ø¬
ÙĬÙħ ÙĬÙĨ
ĠØŃ ØªØ§
ĠØ´ Ø¦
Ġp our
ĠØ£ÙĬ ÙĩØ§
Ø¯ ÙĪÙĨ
k om
ĠØ§Ùĥ Ø¨Ø±
ĠÙģÙĬ Ø§
ĠØ· Ø§ÙĦ
Ø§Øµ Ø±
ĠÙĨØ® Ø¯Ùħ
ĠØ¹ÙĦØ§ ÙĤØ©
Ø§Ø¨ ÙĤ
ÙĨ Ùĥ
ØŃÙĬ ÙĦ
Ø§Ø±Ùĥ Ø©
ĠØ§Ø® Øª
ĠØ¶ Ø¹ÙĬ
ĠØ§ÙĦØ£Ùħ ÙĪØ±
ĠÙĬÙĩ Ø¯ÙĬ
Øº Ø·
Ø§Øª ÙĨØ§
ĠØ§ÙĦÙĬ ÙĪØªÙĬÙĪØ¨
Ø§Ø¦ Ø¨
ĠÙħÙĪ ÙĤØ¹
2 2
ĠØ® Ø·Ø±
ĠØ¹Ø¨ Ø§Ø¯
ĠÙħ ØŃØ¨
Ø±Ø¨ Øª
ĠØ¹Ø¨ Ø§Ø³
ĠØ£Ø¬ ÙħØ¹ÙĬÙĨ
ĠÙĦÙĦ ØŃ
Ø§Ø¦ ÙħØ©
ÙĦÙĪ Ùĩ
Ø¯ Ø§Ùħ
ĠÙĤ ÙĪÙħ
ĠÙĪØ§ÙĦ Ø«
Ġp as
Ġp ro
ĠØ¨ÙĦ Øº
ĠÙĬ Ø§Ø³
Ø¹ Ùī
ĠØµ ÙĪØ±
ðŁ¤£ ðŁ¤£
ĠØ§ÙĦ Ø§Ø³ØªØ§Ø°
ĠØ£ÙĨ ÙĩÙħ
ĠØ§Ø± Ø²ÙĤ
ÙĤ Ø§ÙħØ©
ÙĪ ÙĪ
ĠØ§ÙĦÙħØ´ ÙĥÙĦ
ĠÙĪ Ø§Ø¶
ĠØ£ ÙĬÙĨ
ĠØ£ Ø®Ø±Ø¬
Ġ F
Ø³ÙĬ Ø¨ÙĬØ§
ĠØ§Ø¯ Ø§Ø¨
ĠØ³ ÙĪÙģ
ĠÙĬØª Ø¹
ĠØµ ØŃØ©
Ġ K
Ø° Ø§Ùĥ
ĠÙĦÙĦ Ø¨Ø§Ùĥ
ĠÙħÙĥ Ø§Ø´
a da
ĠÙĦ Ø¯
ĠØ· Ø§ÙĦØ¨
ĠØ§ÙĦÙĤ ÙĬÙħ
Ġd es
ĠØ¨Ø± ØŃÙħ
ÙĪ Ø§Ø¹
Ø¶ Ø¨
ĠØ§ÙĦØ´ ÙĥØ±
ĠØ§Ø³Øª ØºÙģØ±
ĠÙĤ Ø§Ø¯Ø±
Ø§Øµ ÙħØ©
Ø§Ø® Ø±
ĠÙĪ Ø²ÙĬØ¯
ÙħØ§ÙĨ Ø©
ĠØŃ ÙĦÙĬ
ĠØºÙĬØ± Ùĩ
ĠØ§ÙĦÙģØ± ÙĨØ³ÙĬØ©
ĠØ§ÙĦØª Ø±
Ø´ ØŃØ§ÙĦ
Ø¯ Ø®ÙĦ
ÙĩÙħ Ø´
Ø®ÙĬ Øµ
ØŃ ØªÙī
Ø® Ø§Øµ
ĠØ¯Ø± Ø§ÙĩÙħ
ĠÙĦ ÙĤÙĬ
Ġb a
Ġt h
Û Į
ĠÙĪ ÙĬØ¯
ĠØª Ø¨Ø§Ø±Ùĥ
ĠØ£ Ø¬Ø±
ĠÙĪØ§ÙĦ ÙĤ
ĠØ§ÙĦØ§Ø³ Ø¦ÙĦØ©
Ø·ÙĬ ØŃ
Ġ P
ĠÙĩØ§Ø¯ Ø§
Ø¨Ø¯ ÙĦ
ĠÙģØ¶ ÙĦÙĥÙħ
u t
ĠØ¯ Ø¹ÙĪÙĦÙĬ
ĠØ§ÙĦÙĤ Øµ
ĠÙħØ§Ø² Ø§ÙĦ
ĠØ® Ø¨Ø±
ĠØ§ÙĦØŃ Ø§ÙĦØ©
Ø³ Ø§
ĠÙĬ ÙģÙĩÙħ
Ġha d
Ø¦ ÙĦ
Ġl o
ĠÙĬ ØºÙģØ±
qu e
ĠØª Ø²
ĠØ« Ø§ÙĨ
ĠÙħ ØµØ±
Ùģ Ø§ÙĦ
ĠØ§ÙĦØ¹ ÙĦÙĪÙħ
Ø¯ Ø§Ø¡
ØŃØ¯ Ø«
ĠØ«ÙĦØ§Ø« Ø©
ĠØ£ Ø±Ø¨
Øµ ÙĬ
ØªÙĬ Ùĩ
Ġ202 3
ĠÙĨØ¬ÙĬØ¨ ÙĪ
ĠÙĨ ÙģØ±ØŃ
ĠØ§ÙĦØªØ¹ÙĦÙĬ ÙĤ
Ġ Ì
ĠØª ÙĪÙĦÙĬ
Ø· Ø¨ÙĬ
ĠÙĪØ¹ ÙĨØ¯
ĠðŁĺħ ðŁĺħ
ĠÙħØ¹ Ø±Ùģ
ĠÙĨÙĨØ¬ØŃ ÙĪ
ĠÙħØ¹ ÙĬ
Ġd ir
Ġb i
ðŁĺŃ ðŁĺŃ
ĠÙģ ÙĦÙħØ§
ĠÙħØ¬ Ø±Ø¯
d x
Ø§Ø® ØªÙĬ
Ø° Ùģ
ĠØ£ ÙĨÙĬ
ØªÙĪ ØŃØ´
ĠØ¯ ÙĬØª
ĠØ¢ ÙĦÙĩ
Ø¯ ÙĩØ§
ĠØ§ÙĦØ¥Ø³ÙĦØ§Ùħ ÙĬØ©
ĠØ£Ùħ ÙĬÙĨ
Ø¨Ø¹ Ø«
ðŁ¥ ¹
ĠÙĬ Ø§Ùĥ
Ø¦ ÙĬØ³
ĠØ§ÙĦÙģØ± Ø¯
Ø« Ø§ÙĦ
ĠØ§ÙĦ Ø§ÙĤ
ØºÙĬ ÙĬØ±
ĠÙģÙĬ ÙĨØ§
ĠØ§ÙĦØ· ÙģÙĦ
ĠØ§ÙĦØ¨ÙĤ Ø±Ø©
ĠÙħ ÙĥÙĨ
ĠØ¨ Ø¯Ø§ÙĬØ©
ĠØ£ Øº
ĠÙĦØº Ø§Øª
ĠÙĪØ± Ø³
5 5
ĠØ¨ Ø´Ø±
ĠÙĥ Øª
ĠØªØŃ ÙĬØ©
ĠÙĦØ¹ Ø²ÙĬØ²
ÙĪØ± Ø§
Ø§ÙĦÙħ ÙĪ
ĠØ± Ø²ÙĤ
ĠÙĬÙģØ± ØŃÙĥ
ðŁĺ ĺ
Ø§Ø³Øª Ø§Ø¯
Ùħ ÙħÙĥÙĨ
ha t
ĠâĢ ¢
ĠÙĪØµ Ùģ
ĠØ¨ ÙĬØ¯
Ø§Ø¯ Ø§Øª
ĠØª Ø®ÙĦ
ĠØ§ÙĦÙĪØ· ÙĨÙĬ
ĠÙĪ ÙħÙĬ
ÙĤÙĪ Ø¨Ø©
ĠÙĨÙħ ÙĪØª
ĠÙĦ Ø¹Ø¨
Ø§Ø³ Ø¨Ø©
Ø¸ Ø§Ø±
ĠÙĨØ¬ Ø§ØŃ
ĠÙħÙĪØ³ Ùī
ØŁ !
ÙĦ ØŃ
Ø± Ø§ØŃ
ĠØ¨ÙĬ ÙĩÙħ
ÙĪ Ø¡
ĠØ§ÙĦ Ø¶ÙĬ
ĠØ§ÙĦØª Ø£
ĠØŃ Ø±Ø©
ĠØ¹Ø§Ø¦ Ø´Ø©
l na
ĠØ¹ Ø¯Ø©
ĠÙĬ ÙĦÙĬ
ou ra
ĠØ³ ØŃØ±
Ø¯ÙĬØ± ÙĨØ§
ĠÙħØ± Ø§Øª
ĠÙĪ Ø§Øµ
ĠØ§ÙĦÙĪ ØŃ
ĠÙĨØ¯ Ø®ÙĦ
ĠØ§ÙĦØ¹ Ø¨Ø¯
ĠÙĪØ§Ø¨ ÙĨ
Øµ ÙĬÙĦ
Ġ W
ÙĦØª Ùĥ
ĠØ§ÙĦØµØŃ ÙĬØŃ
ĠÙģ ÙĩÙĦ
ĠÙģ Ø·
ĠÙħØ¹ Ùĥ
Ø§Ø¬ Ø¯
Ø§Ùħ Ø§Øª
Ġn ch
ĠØ£ Ø·
ĠØ³ ÙĬØ±
ĠÙĪ ÙĥÙĬÙģ
ØªØ± Ùħ
ĠØ¬ Ø²Ø§Ø¦Ø±
Ġâ Ļ¥ï¸ı
Ø£ Ùħ
Ø¯ÙĬ ÙħØ©
ĠØ§ÙĦÙĤ Ø³Ùħ
ĠØ¥ÙĦÙĬ Ùĥ
ĠØ¯Ø§Ø® ÙĦ
Øµ Ø¨
ĠØ· ÙģÙĦØ©
ĠØ¨ Ø±ÙĪ
ĠØ´ Ø§Ø¨
ÙĥØ± Ùħ
ĠØ§ÙĦØ£ Ø³ØªØ§Ø°
ĠðŁĴ Ĺ
k i
Ø¹ÙĪ Ø°
ðŁĳ ı
ĠÙĦ ØŃÙĥØ§ÙĬØ©
Ġc ont
ĠØ§Øµ ÙĦØ§
ĠÙħ Ø¯ÙĬÙĨØ©
ĠØ¯ Ø±Ø¬
Ø§Ø´ Ø±Ø©
a i
Ø² ÙĬÙĨ
ĠðŁ Ķ¥
ĠØ« Ø§ÙĦØ«
Ø· ÙĬÙĨÙĬ
ĠØµ Ø¹
ÙĪØ³ Ø¹
ĠÙĪØ³ ÙĩÙĦØ§
ĠÙĪÙĩ Ø°Ùĩ
Ġn e
ĠÙĨØ³Øª ÙĨØ§
h om
ĠØ³ Ø¹Ø¯
ĠØ§ÙĦÙĨ ÙĤ
ĠÙĪØµØŃ Ø¨Ùĩ
ĠØ® Ø±
ĠÙĬ ÙģØ±ØŃ
Ø¹ÙĦ Ø§Ø´
ÙĪÙĬ Ùĩ
ĠØªÙĤ Ø¨ÙĦ
ĠÙĪØ¥ ÙĨØ§
ĠÙģ Ø§ÙĩÙħ
Ø§Ø· Ø©
ĠØ§ÙĦÙħØ¬ ÙĩØ±
Ġ20 0
ĠØ· Ø¨ÙĬ
ĠÙģ Ø±ÙĬ
Ġ E
ÙĪØªÙĬ ÙĪØ¨Ø±
ÙĦÙĬ Ø³
ĠØĮ ØĮ
ĠâĢ ª
Ø¯ÙĬ Ø§Øª
ĠÙĤØ±ÙĬ Øª
ĠØ®Ø§Ø· Ø±
ĠØªØŃ Ø·
ĠÙĦ Øµ
ĠØ® ÙģØª
Ùħ Ø¨Ø±ÙĪÙĥ
ĠÙĬ ÙĪØ³Ùģ
ĠØ° Ø§Øª
ĠØ«Ø§ÙĨÙĬ Ø§
ĠØ§ÙĦÙĦ Øº
ĠÙħ Ø±ÙĪ
ĠÙĤ ÙħØ©
ĠØ¨ÙĦØ§ Ùĥ
ĠØ§ÙĦØ£ Ø´
Ø§Ø¦ Ø¬
Ù ł
ĠÙĪØ¬ Ø¯
ĠØ¸ ÙĩØ±
Ø§ÙĨÙĬ Ø§
ĠØª ÙĨØª
ÙĪÙĨ Ø³ÙĬ
ĠÙĤÙĦØ¨ Ùĥ
f a
ĠÙĪ Ø§Ø¯
Ø¨ ØºÙĬ
â Ļ
ĠØ£ÙĨ ÙģØ³
ĠØ§ÙĦØ¯Ø± Ø§Ø³Ø©
ĠØ¨Ø´ ÙĥÙĦ
Ġâ Ļ¥
ÙĦ Ø§ÙĨ
ĠØ±Ø¬ Ø§ÙĦ
ĠØ§ÙĦØ¥ Ø³Øª
Ø±Ùĥ Ø§Øª
Ø¨ÙĬ ÙĬÙĨ
Ø§ ÙĤØ©
ĠØ§ÙĦØŃ ÙĤÙĬ
ĠØ§ÙĦ Ø§Ùģ
Ø±Ø¶ Ùī
ĠØ£Ùħ Ø§Ùħ
ĠØ¯ÙĬ ÙħØ§
ĠØ§ÙĦÙħ Ø§ÙĦ
Ø¹ Ø§ÙĨ
3 3
Ø§ØŃ Ø¨
Ùĩ Ø§Ø°
ĠØ§ÙĨ ØªÙĬ
4 7
ĠØ¨ÙĨ ÙģØ³
ĠÙĨØµ ÙĬØŃØ©
ĠØ£ Ø«
ĠÙĨØª Ø¨Ø¹
ĠÙĨØ¨ ÙĬÙĨØ§
ĠÙĪ Ø³ÙĬ
Ø® Ø·
Ø¹ÙĪ Ø©
ĠÙħ Ø¯Ø©
Ø± Ø§ÙĨØ§
Ø· ÙĤ
ĠØ³ ÙĩÙĦØ§
ĠÙĪØ§ÙĦ ÙħØ¹
ĠÙĨØ¯ÙĬØ± ÙĪ
ĠØªØ¯ Ø®ÙĦ
Ø¬ Ø§Ø¬
ØŃ Ø§
ra n
Ġ }
ĠØ§ÙĦØ² ÙĪØ§Ø¬
ĠØ§ÙĦÙħØ¹ÙĦÙĪÙħ Ø§Øª
Ùģ ÙĬÙĨ
Ø§Ø´ ÙĬ
ĠØ° Ø§Ùĥ
ĠÙĪÙĥ Ø°ÙĦÙĥ
Ùģ ÙĨ
ĠØ§ÙĦØ§ÙĪ ÙĦÙī
ĠÙĨ Ø¶
ĠØŃÙĬ Ø§Ø©
ĠÙĦ ÙĦÙĥ
Ø§Ø¦Ùĥ Ø©
ĠØ§ÙĦØŃ Ø¨
ĠÙĩØ° ÙĪ
ĠØ¨Ø¹Ø¯ ÙĩØ§
ØŃÙĥ Ø§Ùħ
00 0
a tion
ĠØ§ÙĦÙĥ Ø¨ÙĬØ±
ĠØ¨ÙĦ Ø§Ø¯ÙĬ
ĠÙĦÙĦ Ø¥
Ø§Ø· Ø±
Ġb on
j i
ĠØ§ÙĦØ¹ÙĦÙħ ÙĬØ©
Ø±ÙĬØ¨ ÙĬØ©
ĠØ§Øµ Ø¨ØŃ
ĠÙĦ ØºØ©
ÙĪÙĦÙĬ Ø©
ĠÙĬØ±ØŃÙħ ÙĪ
ĠðŁİī ðŁİī
ÙĤØ¯ ÙħØ©
Øª Ø³
ÙĦÙĪ Ø±ÙĬØ§
ĠØ§ÙĦØ§Ø¯ Ø¨
ĠØ£ ØŃÙĬ
ĠØ§ÙĦØµ Ùģ
ÙĬ ÙĦÙĬ
ĠÙħØ´ Ø§Ø¡
Ø§Ø £
ĠØ¹ Ø§Ø´
ÙĪ Ø¹Ø©
ĠÙħ ÙĬØª
ĠØ¨ ÙĪØ±
ĠØ§ÙĦØ¹ ÙĬÙĨ
Ġm n
ĠØ² Ùĩ
ĠØ§ÙĦÙģØ± ÙĨØ³ÙĬ
ĠØ¥ Ø³Øª
Ġâ ĺ
ĠØ· Ø¨Ø¹Ø§
ĠØ§ÙĦØ® ÙĦÙĤ
Ø³Ùħ ØŃ
Øµ Ø¨ØŃ
ĠØ¯ ÙĤÙĬÙĤØ©
ĠÙĬØ¹ Ø·ÙĬ
ĠÙħ ØŃÙħ
Ġ #
Ø¨ Ø³Ùħ
Ø§ÙĨ Ø´Ø§Ø¡
Ø³ Ø¯
ĠÙģ ÙĥØ§ÙĨ
Ø¦ Ùĥ
ĠØ´ÙĥØ±Ø§ Ø§
ĠÙħØ¹ Ø§ÙĥÙħ
ĠØ¶ Ø¹
ĠÙĪØ± Ø¯
ĠØ§ÙĦØªØ¹ÙĦÙĬ Ùħ
ĠÙĪÙĥØ§ÙĨ Øª
Ø´ÙĬ Ø§Ø¡
ĠØ¬ ÙĬØ¨
Ùģ ÙĬØ©
Ġ3 0
ÙģØ± ØŃÙĪ
Ġs t
Ø§Ø± Ø§
ÙģÙĬ Ùĩ
Ø¨ Ø²
ĠØª ÙĪÙĥ
ĠðŁ¥ ¹
Ùģ ÙĥØ±
Øµ ÙĪØ±
ĠØ§ÙĦÙħÙĪ Ø§Ø¶ÙĬØ¹
ĠÙĨ Ø¨ÙĬ
ÙĢ ÙĢ
ĠÙħ ÙĦØ§
ĠÙĨ ÙĤÙĦ
Ø§Ø· ÙĬÙĨ
ÙĤÙĬ Ø§
ĠØ§ÙĦØŃ Ø±Ø¨
Ø¬ Ø§Øª
ĠÙĩ Ø§
ĠØ¯ Ø¹Ø§Ø¡
ĠØ¨Ø§ÙĦ Ø´
ĠØ¥ÙĦÙĬ ÙĩØ§
ĠÙĪØ§ÙĦ Ø¢
Ø§ÙĪ Ø¯ÙĬ
ĠØ¨Ø± ÙĨØ§ÙħØ¬
ĠÙĨØ§Ø¬ ØŃÙĬÙĨ
ĠØ§ÙĦØ£Ø³ Ø¦ÙĦØ©
ĠØ§ÙĦÙĥ ØªØ¨
ĠØ¯ ÙĪÙĥ
ĠÙĪØ¨ Ø§ÙĦ
an t
ĠÙĪÙĬ ÙĤÙĪÙĦ
Ø®Ø± ÙĬÙĨ
ÙĬØª ÙĩØ§
ĠÙħ ÙĪÙĦ
ĠØ¨ ÙħÙĨ
ĠØ§ÙĦØ± Ø³
ĠÙĩØ§Ø¯ ÙĪ
ÙĬ Ø·
ĠØ¨ ØºÙĬØ±
ĠØª ÙĤÙĪÙĦÙĬ
ĠÙĥ Ø£ÙĨ
ĠØ¯ ÙĦÙĬÙĦ
ĠÙĬØ¹ ÙħÙĦ
ĠØ§ÙĦØ§Ø³ Ùħ
ÙĬØ§Ø® ÙĪ
ĠÙĦØ¹ Ø§Ùħ
ĠðŁĺĬ ðŁĺĬ
ĠÙħ Ø§Ø¯Ø©
ĠÙģ Ø´
ĠØ± Ø¤
ĠØ§ÙĦØ¬ ÙħØ¹Ø©
Ġa n
ĠÙĥØªØ§Ø¨ Ùĩ
ĠØ§ÙĦØ³ ÙĦÙģ
ĠØ§ØŃ Ø¨
ĠÙĪ Ø¶
ĠØ§ÙĦØ® Ø§ØµØ©
ĠÙģ ÙĦØ³ÙģØ©
Ġo f
ĠØª Ø¯ÙĬØ±
H hh
ĠØ³ Ø¹
ĠØ´ ÙĪÙĬØ§
ĠØ¨ Ø³Ùħ
ĠÙĥ Ø±ÙĬÙħ
ĠØª Ø²ÙĬØ¯
ĠØªÙĤ Ø±ÙĬ
Ġra bi
ĠØ§ÙĦ ÙĪØ§ÙĤØ¹
ĠÙĬØ³ ÙħØ¹
ĠØ§ÙĦØµ ÙĪØ±Ø©
ĠÙĨØ± ÙĤØ¯
ÙĥØ± Ùĥ
ĠØ§ÙĦØ£ Øµ
Ø± Ø§ÙĨ
ĠÙģØ¹ ÙĦØ§
ĠÙħ ÙĩÙħØ§
ØªÙħ Ø¯
ka ya
ĠÙĩØ§Ø° ÙĪ
Ø§Ø± Ø¹
ĠØ±Ø¨ Ùĥ
ĠØªØ± Ùī
ĠØ¯ Ø§ÙĪØ¯
Ø±ÙĬØŃ ÙĬØ©
ĠØ³ Ø¤
ÙĤØª Ùĥ
ĠÙĨØ¹ Ø§ÙĪØ¯
ĠØŃ ÙĥÙĬ
Ø¯Ùĥ Ø³
Ø§ÙĨ Ø´
ĠÙħÙĨ ÙĪ
ĠØµØ± Ø§ØŃØ©
Ġqu e
Ø³ ØŃ
ÙĩØ¯ Ø§Ø¡
ĠØ£ ÙĩÙħ
ØŃ Ø³ÙĨ
d ir
ĠÙģ Ø¬
ĠØ§ÙĦÙħ ÙĤØ§ÙĦ
ĠØ¨Ùĩ Ø°Ùĩ
ĠØ§ÙĦØ§Ùħ Ø±
ĠØ§Ø¬ ØªÙħØ§Ø¹
ĠÙĥ ÙĦÙħ
ÙĨØª Ø§
Ø¨Ø± ÙĪ
ĠØ±ÙĪ Ø·Ø§Ø±
ĠÙĪØ± Ø§ÙĨÙĬ
Ġn ta
Ú ©
an i
ĠÙĪ Ø§ØµÙĦ
ĠØªØ¹ Ø¨
ÙĨÙĬ Ø´
Ġw lh
ĠØª ÙĨØ³
Ùĥ Ø´
ĠØµ ÙĨ
Ø§Ø¬ Ø¨
ĠØ¨Ø§ÙĦ Ùģ
Ø² ÙĪ
ĠØŃ ÙĦÙĪ
Ø§Ùģ ÙĬÙĥ
ĠØ¹ÙħØ± ÙĪ
ÙĬÙħ ÙĬØ©
ĠÙĪØ£ Ø³
il le
ÙĨ ØªÙĬ
ĠÙħ Ø§Ø¨
ĠØ§ÙĦØ³ÙĬ Ø§Ø³ÙĬ
ÙĤÙĪ ÙĤ
ĠØª Ø§ÙĪ
Y a
Ø®Ø± Ø§
Ø² Ø§Ùħ
ĠØŃ ÙĨ
ĠØ§Ùĩ ÙĦ
ĠØª Ø¶
ĠØ´ ØºÙĦ
ĠØ§ÙĬ Ùĩ
ĠØ£Ø¨ Ø¯Ø§
ÙĤ Ø§Ø¯
ĠÙĪÙħ Ø³ÙĦÙħ
ĠØ¨Ø§ÙĬÙĨ Ø©
ĠØ§ÙĦÙħØ³ Ø¬Ø¯
ĠØ§ÙĦØ¨ÙĦ Ø§Ø¯
5 0
ĠØ¨Ø§Ø³ ÙĥÙĪ
ĠÙĥ Ø§Ø±
ÙĪÙĬ ÙĦ
ĠÙĬØ¯ ÙĦ
Øµ ÙĦØª
ĠØ§ÙĦØ¯Ø± Ø³
ĠÙĪ Ø±ÙĪ
ĠÙĨÙĥ ØªØ¨
Ġa b
ĠØ±ÙĬ Ø§Ø¶
ĠðŁĺį ðŁĺį
ĠÙĬØŃÙģØ¸ ÙĥÙħ
ÙĦ Ø¹
Ø¸ Ø§ÙĩØ±
ĠØ§ ÙĬÙĨ
ĠØ§ÙĦÙĤØ± Ø§ÙĨ
ĠØ® ÙģÙĬ
ØŃÙĥ Ø§ÙĬØ§Øª
ĠÙĨØ³ÙĤØ³ÙĬ Ùĥ
Ġ G
ĠÙĪÙĨ ÙģØ±ØŃ
ÙĤ ØµØµ
Ø® Øª
ĠØ§ÙĦØµ Ø¨Ø§ØŃ
ĠØ®ÙĪ ØªÙĬ
ĠØ§ÙĦ ÙĩØ¯
ÙħÙĪ Ø¹Ø©
ĠØ§ÙĦÙĪ Øµ
ðŁĴ ľ
ĠØ¨Ø¹ ÙĬØ¯
ĠÙħ ÙĪØª
ĠÙĨØŃ ÙģØ¸
ha n
ÙĤÙĪ Ùī
Ġf a
Ø£ ÙģØ¶ÙĦ
ĠØ§ÙĦÙĥ ÙĦ
Ø´ Ø±ØŃ
ĠØ¬ Ø±
ĠÙĨÙģØ³ ÙĩØ§
Ø§ÙĬ Ø¬
ĠvidÃ© o
ĠØ§ÙĦØ¹ ÙĬØ¯
Øµ Ø¨Ø±
ĠØ± ÙģØ¹
Ø³ ÙħØ¹
Ø§Ùħ Ø±
m i
ĠØª ÙħØ±
ĠðŁĺ ģ
Ø³ÙĬ ÙĤÙī
ĠØ§ÙĦØ¥ ÙĨ
ĠØª Ø±Ø¬
ĠØ§ÙĦØ¨ ØŃØ±
ĠØ§ÙĨ Ø´
ĠÙĨØ´ Ø±ÙĬ
ĠØ§ÙĦØ³ ÙĨ
Ġc on
ĠØ¨ Ø§ÙĤÙĬ
Ø§Ùħ ÙĨ
Ø§Ø¬ Ø±
ðŁ¥ ²
ĠØ§ÙĦÙħØŃ ØªÙĪÙī
ĠÙĤØ± Ø§Ø¡Ø©
es s
ĠØ¯ ÙĪÙĦ
ĠØ§ÙĦØ¹ Ø´Ø±ÙĬØ©
Ùģ ØªØŃ
9999 9999
Ø§Ø¯ Ø±Ø©
ÙħØ± ØŃØ¨Ø§
ÙĪØ§ ÙĤ
ĠØ§ÙĦØ³ ÙĬØ¯
Ġg a
ĠÙģ Ø§ÙĬ
ĠØ§ÙĦØ¬ Ø¯ÙĬØ¯
Ø§Ø® ÙĬ
Ùħ ØŃ
Ø±ÙĪ Ø¨
ĠÙĨØ® Ø§Ùģ
ĠÙĬØ£ ØªÙĬ
Ø§ÙĦ ÙĨØ§
Ø¯ Ø®
ĠØ· Ø±Ùģ
ĠØ®Ø±Ø¬ Øª
ðŁĴ ĸ
ĠØ§ÙĦØ¨Ø§Ùĥ Ø§ÙĦÙĪØ±ÙĬØ§
ĠØ§ÙĦÙģ ÙĦØ³ÙģØ©
ðŁĮ ¹
Ø¸ ÙħØ©
ĠØ§ÙĦØ£ Ø¨
ÙĪ Ø£
ĠÙĩ ÙħØ§
ØŃÙħ Ùĩ
ĠÙĥ Ø´
Ø§Øµ ÙĬ
ĠÙħØ¹ Ø§ÙĩÙħ
ĠØ§ÙĦÙĨ ÙĪ
ou d
ĠØ¬ ÙĪØ§Ø¨
ĠðŁĴ ª
ĠÙĨØªÙĪ ÙħØ§
ĠÙĤ Ø¹Ø¯
ĠØ§ÙĦØ´ Ø±ØŃ
Ø¸ Ø§Ùħ
ĠØ§ÙĦØ¢ Ø®Ø±Ø©
ÙĦ Ø§ØŃ
ĠØ§ÙĦÙĨ Ùģ
t h
ĠØ¨ ÙĥÙħ
ĠÙĬ Ø¨ÙĤÙī
ĠØ§ÙĦØ· ÙĬØ¨Ø©
Ø§Ùĩ ÙĦØ§
c t
ĠØ¨ ÙĦÙħ
ÙģØ± ÙĤ
ÙħÙĬ Ùħ
ÙĬØ³ Ùī
f d
ĠØª Ø±ÙĪØŃ
ĠØ£Ø± Ø§Ø¯
Ġ č
ÙĪØ¯ Ø§Ø¡
Ú ¤
ĠØ² ÙħØ§ÙĨ
Ø¬ ÙĪØ¯
ĠØ§ÙĦÙĤ Ø¨Ø±
ĠÙĩØ° ÙĬÙĥ
Ø§Ùģ Ùĩ
ĠÙĪ Ø±Ø¨
ĠØ® Ø§Ø±Ø¬
ĠØ§ÙĦÙĬ ÙĩÙĪØ¯
Ø³ ÙĬØ¯
ĠØ§ÙĦØ¹ ÙĤÙĦ
ÙĤØ¯Ø± ØªØ´
l y
o w
Ùĩ Ø§Ø¨
ĠÙħØª Ø§Ø¨Ø¹
ĠÙħÙĥÙĨ ÙĬØ©
ĠÙĤØ¯ Ø§Ùħ
ĠØ£Ø® Ø¨Ø±
Ø§Ø¹ ÙĦ
ĠØ§ÙĦÙħ Ùĥ
ĠÙĪ Ø§ÙĬ
ĠØ§ÙĦÙħ Ø¨Ø§Ø±Ùĥ
ĠÙĪØ§ÙĦ Ø¨
Ø¸ ÙĬ
ĠØ§ÙĦÙĪ ÙĦØ§
ĠØ¹ Ùģ
ĠØ§ÙĦØ£ÙĨ Ø¨ÙĬØ§Ø¡
ĠØ§ÙĦØŃ Ø¯
ĠØ§ÙĦØ´ÙĬ Ø¡
ĠØ§ÙĦÙģØ±Ø¯ ÙĪØ³
ĠØ§Ø¯ Ø§
ĠØ¹ Ø§ÙĬØ´
ĠÙĦÙĬ ÙĦ
ĠÙĬÙģ ØªØŃ
ĠÙĨ Ø³ÙĬ
ĠØ¶ Ø±Ø¨
Ø§ÙĬ ÙĦ
Ø£ ÙĦØ©
ĠØ£Ø¹ Ø¸Ùħ
ĠÙĨ ÙĩØ§ÙĬØ©
Ø· ÙĨ
Ø° Ùĥ
ĠØ¹ÙĨ ÙĩÙħØ§
Ġu n
ĠÙĬØ® Ø¯Ùħ
ĠÙĨ Ø§ÙĤ
Ø± Ø§Ùĩ
Ø§ Ø§
ĠÙĬ Ø°ÙĥØ±
ĠØ¬ Ø¨Øª
ĠØ§ÙĦÙħØ¹ ÙĨÙī
ĠÙĬ ÙĪØªÙĬÙĪØ¨Ø±
ĠÙĨØ³ Ø£ÙĦ
ĠÙĤ ÙĬÙĦ
ÙĤ Ø§Ùħ
p e
ĠØ¨Ø¹ Ø«
ĠØ¨ Ø§ÙĬ
ØŃ Ø·
4 4
Ø¥ ÙĨØ§
ĠØ§ÙĦÙħ Ø±Ø©
ĠØ¹ Ø±Ø¨ÙĬ
ĠØ§ÙĦÙģØ± ÙĤ
Ø§Ùĥ Øª
ĠØµØŃ Ø§Ø¨
ĠÙĪÙĬ ÙĪÙģÙĤ
Ø§Ø¨ Ø±
ĠðŁ¥ ²
2 5
ĠÙħ Ø±ÙĬÙħ
ÙĨØ§ ÙĤ
ĠØŁ !
Ø¬ Ø§Ø±
ĠØ¨ Ø¨
ĠØ® ÙĦÙģ
ĠÙĪÙĬ Ø´
ÙĦØ¨ Ø³
ðŁ¤ Ķ
ĠØµ Ø¨Ø±
ĠÙĥ ØªØ±
Ġ202 1
Ø·Ø§ ÙĤØ©
ĠÙĬ Ø¶
Ġ Y
ÙĦØª ÙĩØ§
/ /
n t
ĠØ§ÙĦØµ Ø§ÙĦØŃØ©
ĠÙħØ§Øª Øª
ĠØ¹ Ø¶
ĠðŁĮ ¹
Ùħ Ùĥ
ĠÙĥ Ø§Ùħ
ĠÙħØ¹ Ø±ÙĪÙģ
ĠØ¬ Ø¹
ĠØ® Ùħ
ĠÙħØ±ÙĬ Ø¶
Ø§Ø¬ Ùĩ
ĠØ§ÙĦØ± Ø¬
ĠÙĤ ÙĬÙħØ©
Ø¬ ÙĪØ²
ĠØ§Ø ²
v o
Ġ, ,
ĠÙħØ§Ùĩ ÙĪ
ĠØª Ø°ÙĥØ±
" ØĮ
ĠÙģ ÙĪØ±
ÙĬØ± ÙĪ
ĠØ§Ø± Ø¬
ĠÙĩØ§ÙĬ ÙĦ
m ent
Ġ on
ĠÙģ ÙĥØ±
ĠØª ÙĬÙħÙĬØ©
ÙĤØµ ÙĪØ¯
ĠØ¨Ø£ Ø³
s s
ĠÙĨØŃ ÙĪ
Ġra k
Ø±Ø§Ùĥ ÙĦÙĬØ·Ø©
Ø« Ø±Ø©
ĠðŁ «
ĠØ§ÙĦØ´ Ø±Ùĥ
ĠÙĨ ÙĤØµ
Ø· ÙĪÙĦ
ØŃ Ø³Ø¨
ĠØ³ ÙĩÙĦ
ĠØ¯ Ø§
ĠÙĬ ÙħØ§
Øª Ø§ÙĨ
â Ļ¥
ĠØ¥ÙĨ Ø³Ø§ÙĨ
ĠÙĨ Ø³ÙĬØª
Ø· ÙĬÙĨØ©
ĠØ¢ ÙĬØ©
ĠØ³ Ùĩ
ĠØ¯ Ø±Ùĥ
ØºØ± Ø§Ùħ
ĠØ¹ Ø¬Ø¨ØªÙĨÙĬ
ĠÙĨ ÙĤØ±
ĠØ£Ùĩ ÙĦÙĩ
ĠÙĬÙĤ ÙĪÙħ
ĠØ£ÙĨ Ø³
ĠØ§ÙĦØ§Ø¬ Ø§Ø¨Ø©
Ġ O
ĠØ¯ÙĬØ± ÙĪ
ĠØ§ÙĦØ§Ø® Øª
ĠØ« Ø¨Øª
Ùģ Ø±ÙĬ
ĠØ³ Ø¨ÙĤ
ĠØ¶ ÙĬÙģ
ĠØ¸ ÙĦ
u x
ØªÙĩ Ø§Ø´
ĠÙħ ØªÙī
ĠØ§ÙĦÙĨ ÙĪØ¹
ĠØ± ÙĪØ§ÙĬØ©
Ø§Ø¹ Ùĩ
Ø´ÙĥØ±Ø§ Ø§
Ø·Ùģ Ùī
ĠØ¹ ÙĬÙĨÙĬ
ĠÙĬ ÙĤØª
ĠØ§ÙĦØ³Ø¨ Ø¨
Ġï´ ¿
ĠÙĪØ§ÙĦ ÙħØ±
ĠØ° ÙĩØ¨
Ø¹Ùħ Ø§Ø±
ĠÙĨØŃ ÙĪØ³
ĠØ§ÙĦÙħÙĪ Ø§Ø¯
ĠÙĬÙĥ ØªØ¨
ĠÙĪÙģÙĤ ÙĨØ§
ĠÙħØ§Ùĩ ÙĬ
Ø¹Ø¨ Ø§Ø³ÙĬØ©
Ġre dx
ĠØ§ÙĦÙĥ ÙĦÙħØ§Øª
ĠØª ØªÙĪ
ĠØ§ÙĦ ÙĦÙĤ
ĠÙĤ Ø§Ø¯Ø©
ĠØªØ¨ Ø§ÙĨ
ĠØ¨ÙĨ Ø§Øª
ĠØ¹ Ø±Ø¶
ĠØ± Ø§Ø¨
ĠÙĪØ§ÙĦØ³ ÙĦÙĪØ§ÙĨ
ĠØ¬ Ø²
Ø¹Ø¯ Ùĥ
Ø´ÙĬ Ø¡
ĠÙĬØ³Øª Ø±
ÙĨØ¯ÙĬ Ø´
ðŁĳ Į
Ġ âĿ
Ø¨Ø¯ ÙĪ
g er
ĠÙħØ¹ Ø±ÙģØ©
ĠØª Ø¤
Øª ÙĪØ§
Ùħ Ø±ÙĬ
ĠØ§ÙĦØ¹ ÙĦÙĬ
Ġ) )
ĠÙĥØ± Ùĩ
Ùħ ÙĪØ¹
ĠØ§Ø¹ Ø±Ùģ
Ø¨Ø§ ÙĤÙĬ
ĠØ¹ ÙĬØ³Ùī
ĠÙĨÙĤÙĪÙĦ ÙĪ
ĠÙħØ¹ Ø§ÙĩØ§
ĠÙĤ ÙĦÙĬÙĦ
Ġs e
Ġ** *
ØªÙħ Ø§Ùħ
Ġb est
ĠÙĥ Ø§ÙħÙĦØ©
ĠÙĬØ¯ÙĬØ± ÙĪ
ĠØ§ÙĦØ¬Ø²Ø§Ø¦Ø±ÙĬ ÙĬÙĨ
Ù ¡
ĠØ¹ Ø¸ÙĬÙħ
ĠÙĩ ÙĪØ§
ðŁĺħ ðŁĺħ
ĠÙħÙĦ Ø®Øµ
Ùģ Ø§Ø¯
ĠÙĦ ÙħØ±
Ùĩ Ø§ØªÙĥ
ĠØ§ÙĦØ¨ Ø´Ø±
ĠØ§ÙĦÙĥ ÙĦÙħØ©
Ø´ ÙĬØ®
ÙĦ Ø§ÙĦØ§
Ø§Ø¯ ÙĬØ©
ĠÙĬØŃ Ø·
Øº Ø±Ø¨
ou l
ĠØ¢ Ø¯Ùħ
ĠÙĪØŃ ØªÙī
Ġk ha
ĠØµØŃÙĬ ØŃØ©
ĠØ¹Ø« ÙħØ§ÙĨ
Ùħ ÙĪØª
Ø³ Ø§Ø³
ĠØŃ Ø¶
ØµØŃ Ùĥ
ĠØªÙħ Ø§Ø±ÙĬÙĨ
ĠØ§ÙĦØ´ Ø¨Ø§Ø¨
ĠØª ÙĥÙĨ
ĠÙĨØ¬ ÙĬ
Ø§Ø± Øª
ĠØ¯ ÙĪÙĦØ©
Ø§ÙĪ Ø©
ĠØ¨ÙĨ Ø§Ø¡
ðŁĴ ķ
ĠÙĦ ÙĦÙĪ
ĠØ§ÙĦÙģ Ø¬Ø±
ĠØŃ ÙĦÙħÙĬ
ðŁİī ðŁİī
ĠÙĪØ±Ø³ ÙĪÙĦÙĩ
2 4
Ø³Ø¨ ÙĪÙĥ
Ġf r
s h
ĠØ§ÙĦÙĤ Ø¯Ø±
ĠÙħØ³Øª ÙĪÙī
Ø° ÙĦ
ÙĤØª ØµØ§Ø¯
ĠØ¹ÙĦÙħ Ø§Ø¡
ĠØ³ÙĬ Ø¯ÙĬ
ĠØ±ÙĬ Ø¶Ø§
Ø£Ø³ Ùģ
ĠÙĪØª ÙĨ
oura ge
ĠÙĬ ÙĩØ¯
ĠØ¬ Ùĩ
Ø¯ Ø§Ø¨
ĠÙĪØ§ÙĦ Ø·
ĠØ¬ÙĨ Ø§ØªÙĩ
ĠØ¨Ø§ÙĦ Ø³
ĠØŃ ÙĦÙħ
ĠØ§Ø³Ùħ ÙĩØ§
ĠØ¨Ø· Ø±ÙĬÙĤØ©
2 3
ÙĤØ¯ ÙĬØ±
Ġg h
ĠØ§ÙĦØŃÙĥ Ø§ÙĬØ§Øª
ĠØ¹Ø±Ùģ Øª
ÙĬØ± Ø§ÙĨ
Ùĥ Ø§
ĠØ§ÙĦÙħ Ùģ
ĠØ§ÙĦØª Ø±Ùħ
ĠØ§ÙĦÙĥ Ø¨
ĠØ´Ø®Øµ ÙĬØ©
ĠØ§ÙĦ ÙĩÙħ
Ġ ~
Ø³Øª Ø§
ĠØ³ Ø§ÙĩÙĦ
ÙĤØ± Ø¢ÙĨ
ĠÙĩØ§ÙĬ ÙĦØ©
ĠØ§ÙĦØŃ Ø§Ø¬Ø©
Ùĩ Ø°ÙĬ
ĠØ§ÙĦØ´ ÙħØ³
ĠÙĪÙĨ Ø´
ðŁĺĬ ðŁĺĬ
ĠÙħ ÙģÙĩÙħØªØ´
ĠØ¨ Ø§Ø³Ùħ
ĠØ§Ø¬ ÙĦ
ĠÙĦÙĦ Ø§Ø³
Ø¶ÙĬ Ø¹
ĠÙģÙĬ ÙĤÙĪÙĦ
ĠÙĤÙĨ Ø§ØªÙĥ
ĠÙĬÙĩ Ø¯ÙĬÙĥ
ĠØ·ÙĪÙĬ ÙĦØ©
ðŁĺ Ķ
ÙĪØ¬ ÙĪØ¯
ĠØ¨Ø¹Ø¶ ÙĩÙħ
Ø²ÙĬ ÙĦ
ĠØ§ÙĦÙĨ Ø¸Ø±
ĠØ§ÙĦØ¨ ÙĨØ§Ø¡
Ø³ÙĨ Ø·ÙĬÙĨØ©
ĠÙĨÙĤÙĪÙĦ Ùĥ
Ø§Ø´ Ø±
ĠØªØ¬ Ø±ÙĬØ¨ÙĬØ©
ĠØ£ Ø±ÙĬØ¯
ĠØ±Ø§ØŃ Øª
ĠØªØ· Ø¨ÙĬ
Øª Ø¬
ĠØ§ÙĦÙĨ Ø¬
ĠØ® ÙħØ³
ĠØ¹Ùħ Ø±Ùĥ
Ùħ ÙĥØ§ÙĨ
ĠÙĬÙĤÙĪÙĦ ÙĪ
ĠØ§ÙĦÙģÙĬØ¯ÙĬÙĪ ÙĩØ§Øª
ĠØ¹ Øµ
ÙĥÙħ Ø©
ØªØ¨ Ø¹
ĠÙĪØ§ÙĦØ³ ÙĨØ©
ĠÙĨ Ø²ÙĬØ¯
ĠÙĬ ÙģØ±Ø¬
ĠØ§ÙĦØ¹ ÙĦØ§ÙħØ©
ĠÙĪØ± Ø§Ø¡
ĠÙĨØŃ Ø³
Øª Ø§ÙĦ
Øµ Ø§ÙĦ
ĠØ± Ø¨ØŃ
Ø· Ø§ÙĦ
ï¸ı â
Ø¯ ÙĨØ§
Ùģ ÙĪØ±
ĠØ§ÙĦØ¹ ÙĨ
ĠØ§ÙĦØµ ÙĪØª
ĠÙĨØ´ Ø§Ø¡
ĠØ§ÙĦØªØ±Ùħ Ø°ÙĬ
ĠÙĬ Ø±ÙĪØŃ
Ø¯ÙĬ ÙĦ
ĠÙĪØ§ÙĦ Ø¯ÙĬ
Ø§Ø¦ Ø©
ĠØº Ø¯ÙĪØ©
Ġ it
ĠÙĪÙħ Ø´
ĠØ±Ø¨ Ùĩ
ĠÙħØ¬ Ø§ÙĦ
ĠÙħØ± Ø§Ø¬Ø¹Ø©
c k
ĠÙĪØ£ÙĨ Ùĩ
ĠØ·ÙĪÙĬ ÙĦ
ĠÙħ Ø¯Ø±
ĠÙĬØ¬ Ø¹ÙĦÙĩØ§
ĠØ§ÙĦØº Ø±Ø¨
ĠÙĬ ØµØ±
Ø¯ÙĬ ÙĪØ§
ĠØ§ÙĦØ£ Ø¯Ø¨
ĠØ§ÙĦ Ø§Øª
ĠØ³ ÙĦÙĬ
ĠÃ ł
Ø§Ùĩ Ø¯Ø©
ĠØ§ÙĦØ® Ø§Øµ
o k
u l
ĠØª Ø®ØµØµ
Ø§Ø¨ Ø§
ĠØ¬ ÙĩØ©
ÙĪ Ø¨Ø©
ĠØªØ¬ Ø¯
ĠØ§ÙĦÙĨ Ø¨ÙĪ
ĠÙĤ ÙĬ
ÙĬÙĨ Ùĩ
ĠØ§ÙĦ Ø§Øµ
Ø®Øµ ÙĪØµ
ĠØ¹ Ø²ÙĬØ²
Ø¯ Ø§Ø¹
ĠØ¨ Ø¯Ø§
Ø· ÙĦØ¨
ĠØ§ÙĦÙĨ Ø§Ø¬
ĠØ£ Ø«Ø±
ĠØ´ Ø±Ùģ
ĠØ´ ÙĬÙĥÙĪØ±
ĠØºØ§ÙĦ Ø·
ĠØ±ÙĪ ØŃÙĪ
ĠÙħ Ø¯Ø±Ø³Ø©
ĠØ§ÙĦØ¬ ÙħÙĬÙĦ
Ġma is
ĠØ¹ ÙĤØ¯
ĠÙĬÙĨ Ø¨ØºÙĬ
ĠØ£Ø¹ Ø·
ĠÙħØ¨ Ø§Ø´Ø±Ø©
ĠÙħÙĨØª Ø¯Ùī
ĠÙħØ¬ÙĩÙĪØ¯ Ø§ØªÙĥ
Ø§Ø¨ Ø§Øª
Ø§Ø¦ ÙĩÙħ
ÙĬ ØªÙĬ
ĠØ§ÙĦÙħ Ø¹Ø¯ÙĦ
ĠØ±Ø³ Ø§ÙĦØ©
v er
ĠØª ÙĤØ±Ø§
Ø« ÙĬ
ĠØ· ÙģÙĦ
ĠðŁĺĤ âĿ¤
ĠØªÙĨ Ø¬ØŃ
ĠÙĨ ÙĤØ·Ø©
ĠØ§ÙĦØ´ ÙĩØ±
ÙĪÙħ ÙĨØª
ĠÙħ Ø¯ÙĬØ±
ÙĪÙĨ ÙĩØ§
ĠÙĦØ§ÙĬ Ùģ
ÙĪ Ø§ÙĨÙĬ
ÙĦØª ÙĨÙĬ
ĠÙĬ ÙħÙĨ
Ø¢ ÙħÙĬÙĨ
ĠÙĨØ¹ ÙħØ©
ĠÙħÙĨ ÙĬØ´
ĠØº ÙĦØ·
ĠØ§ÙĦÙĪ ØŃÙĬØ¯
ĠØ§ÙĦ Ø¯ÙĬ
Ø§Ø± Ø¶
ĠØ§ÙĦØ· Ø¨ÙĬ
ĠØ§ÙĦØ±ÙĬ Ø§Ø¶ÙĬØ§Øª
ĠØ£ Ø¹Ø¯
ĠÙĪÙĨ ØŃÙĨ
ĠØ§ÙĦØµØŃ ÙĬØŃØ©
ĠØª Ø²ÙĪØ¬
ĠØ£ Ø±Ø¬ÙĪ
Ø· Ø¹
ĠØ§Ø³ ÙħÙĬ
ĠØ³ ÙħØ§
ĠØ¬ Ø¨
ĠØ° ÙĬ
ĠÙĦØ§ÙĨ Ùĩ
ĠðŁĳ ı
ĠØ§ÙĦØ« ÙĤ
o i
ØªØŃ ÙĬØ§
ĠØŃ Ø¬Ø±
ĠØ¹ÙĦÙħ Ø§
ĠÙĬØµ Ø¨Ø±
ĠÙĪÙĬØ± Ø²ÙĤ
Ø¨ ÙĪØ¹
ĠÙĪØ§ÙĦ Ø¯ÙĬØ§
Ġ U
ĠØ¹ÙĦÙħ ÙĬØ©
ĠÙĪ Ø§Øº
ĠÙħÙĨ Ø¹Ø±Ùģ
ĠÙĪÙĦ Ø§Øª
ÙĥØª ÙĪØ±
Ùĥ Ø°Ø§
ĠØ§ÙĦÙģ ÙĥØ±Ø©
f t
ĠØ¯ ÙĤ
ĠÙĨØ´ Ø±
ĠØ±Ø¨ ÙĨØ§
ÙĨØ§ ÙĩØ§
ĠØµ ØŃØ¨
ĠØµØ± Ø§Øª
ĠØ§ÙĦÙĤ ÙĦÙĪØ¨
ĠØ§ÙĦÙĨ ÙĪØ±
ĠÙĦØ£ÙĨ ÙĩØ§
Ø¶ÙĪ Ø¡
ĠØµØ§ØŃ Ø¨ÙĬ
ĠØŃ Ø§ÙĪÙĦ
ĠÙĪØ§ÙĦ Ø°ÙĬ
ØªÙĬ Ø´
ĠØ§ÙĦØ¥ Ø¬Ø§Ø¨Ø©
ĠØ§ÙĦÙĪØ§ÙĦ Ø¯ÙĬÙĨ
Ø¹ÙĨØ¯ Ùĥ
Ø± Ø§Ùħ
ĠÙħØµ Ø·ÙĦØŃØ§Øª
Ø¨Ø± Ùī
ÙĪ Ø®
Ø¸ ÙĦÙħ
ĠØ§ÙĦÙĨ Øª
ĠØ¹ ÙĬØ´
ĠØª Ø±ÙĬØ¯
ĠØ° Ø§
ĠØ±Ø£ ÙĬÙĥ
ĠØ§ÙĦØ¹ Ø§ØµÙħØ©
ĠÙģØ¶ ÙĦ
2 6
ĠØ³ Ø¬
ĠØ§ÙĦØ´ Ø¹
ĠØ§ÙĦØ«Ø§ÙĦØ« Ø©
ĠØ¬ Ø¯ÙĬ
ĠÙĪÙħ Øª
s ta
ĠØ¬ ÙħØ§ÙĦ
ĠØªØ³ ÙħØ¹
ĠØ¨Ø§ÙĦÙĨ Ø¬Ø§ØŃ
======== ========
ĠÙħØ´ Ø±ÙĪØ¹
Ø±ÙĬ Ø¨Ø©
ĠÙĬØ± Ùī
ĠÙĬØŃ ÙĥÙĬ
ĠÙĪØ¬ Ø¯Øª
Ù ¢
ÙĪ Ø·
3 5
ĠØª Ø§ÙĨ
ĠØª ØŃÙħ
2 7
ĠØ§ÙĦØ¨ Ø¹Ø¶
Ø¹ÙĪ Ø¶
Ùħ ÙĨÙĬ
ĠÙĥ ÙĦÙħØ§Øª
ĠØ§ÙĦÙĪ Ø§Ø³
ĠØ§ÙĦØ« ÙĦØ§Ø«
ĠÙĩØ¯ Ø§Ùĥ
ĠØ§ÙĦØªØŃØ± ÙĬØ±
' '
2 8
Øª ÙĦÙĥ
ĠØª ØºÙĬØ±
ĠÙĪØŃ Ø¯Ùĥ
ĠÙĦÙĦÙĨ Ø§Ø³
ØªØ± Ø§Ùĥ
ĠØ§ÙĪ ÙĦØ§
ĠØ£ Ø¨Ø§
ĠÙĥ ÙĦÙħØ§
A na
ĠØ§ÙĦÙĪ Ø§ØŃØ¯
ĠÙĬØ¯ Ø¹ÙĬÙĦÙĬ
ĠÙħ ØªÙħ
ĠØ¹ ÙĪØ¯
Ø±ÙĬ Ø¹
ĠÙĪ ÙĤÙĬÙĦ
ĠØ¹ Ø¶ÙĪ
ĠÙĨ ÙĥÙħÙĦ
ĠÙĤ Ø¶ÙĬØ©
Ġc ourage
ĠÙħØ§Ùģ ÙĩÙħ
Ø§Ø¯ ÙĤ
ĠÙģ Ø±Ø¶
Ø±ÙĬ Ø¶
ĠÙĬØ¯ Ø¹ÙĪ
ÙĦÙħÙĬ Ø°
Ø±ÙĪ Ø·
Ùĥ ÙĬÙĨØ©
ĠØ« Ø§ÙĨÙĬØ©
ĠÙĤØ§ÙĦ ÙĪ
Ø¶ÙĬ Ùģ
Øµ Ø±Ùģ
ĠÙĪØ¬ Ø¹ÙĦ
ĠÙĪØµ ÙĦØª
ĠÙħØ® ÙĦÙĪ
ĠØ£Ø®Ø±Ø¬ Ùĩ
o d
ĠØ¨Ø§ÙĦ ÙħØ¹
ÙĥÙĨ ÙĩØ§
ĠØ®Øµ ÙĪØµ
ÙĪØ± ÙĪ
ĠÙĪØ§ÙĦ Ø§Ø³Øª
Ø§Ø¦ ÙĩØ§
Ø§Ø± Ùĩ
ĠØ§ÙĦØ£ Ø¹ÙħØ§ÙĦ
ÙħÙĬ Ø²Ø©
ĠÙĬØŃ Ø¯Ø«
ØŃ Ùī
ĠØ´ Ø¨Ùĩ
ĠØ¨ÙĬ Ø§ÙĨ
ÙĪ Ø§ØŃ
ĠØ¬ ÙĬØ¯Ø§
ĠÙĪÙĩ Ø±Ø§ÙĨ
ĠØ¯Ø¹ÙĪ Ø§ØªÙĥÙħ
ĠØ¨ ÙĤÙĬ
ĠØ¶Ø¹ÙĬ Ùģ
Ġ202 2
ĠÙĪÙĬ ØŃ
ĠÙĪÙĬ Ø³Øª
ĠÙĦÙĦ Ø¹ÙĦÙħ
Ø³ ÙĬØ©
ĠØ§ÙĦØ¹ Ø§Ø¯Ø©
ĠâĿ¤ ðŁİī
ĠØ£Ø³ØªØ§Ø° Ø©
ĠØ§ÙĦÙħ Ø¯Ø±Ø³Ø©
ĠÙĦØ§Ø¨ ÙĨ
Ø³ÙĬ ÙĬØ±
ĠØ² ÙħÙĨ
ĠÙĪÙĬÙĨ Ø¬ØŃ
ĠÙĪÙĦÙħ Ø§
f f
ĠØ£ ÙĤÙĪÙĦ
ÙĦÙĬ Ø¯
Øµ ÙĦÙĬ
ÙĪØ± ÙĬØ©
ĠÙĪØŃ Ø¯ÙĪ
ĠÙĬØ® ÙĪÙģ
ĠÙĪØ§ÙĦ ØªÙĬ
Ø³ÙĦÙħ ÙĬÙĨ
u m
ĠÙģØ± ÙĤ
ĠØ±ÙĬØ¯ ÙĥØ³
ĠØªØŃ ÙĬØ§
B ac
ĠØ§ÙĦØ¯ Ø¹ÙĪØ©
ĠÙĨØªØ§Ø¹ Ùĥ
ch e
ĠØ§ÙĦØ±ØŃÙħ Ø§ÙĨ
u i
ĠÙħÙĬ ÙĦÙĪØ¯
Ø§Ø²ÙĬ Øº
ĠÙĬØŃ ÙĬ
ĠÙĥÙģ Ø§Ùĩ
ĠØ¨Ø£ÙĨ Ùĩ
ĠØ§ÙĦØ¨ Ø·
ĠØ§ÙĦØ± ÙĪÙħ
ĠØ¥ Ø´
Ġ2 5
ĠØªÙĤ ÙĪÙħ
ÙĦ Ø§Ø²Ùħ
ĠØ§Ø³Ùħ Ùĩ
ĠØ®Ø· Ø£
ĠØ¹ Ø§ÙĦ
ÙħÙĨ Øª
ĠÙĨ ÙĤØ±Ø§ÙĪ
Ø§Ùĩ ÙĦØ©
ĠØ² ÙĬÙĨ
Ġs o
ĠÙħØ¹ÙĦÙĪÙħ Ø§Øª
ĠÙĦ ÙĦÙĬ
ðŁ İ
ĠÙĨ ØŃÙĬ
ĠØŃ Ø±Ùģ
ĠØ¯ Ø¹Ùħ
ĠØ§ÙĦÙģ ØµÙĦ
ĠØ¨ ÙģØ¶
ĠÙģ ÙĥÙĬÙģ
li k
ĠØ¨ÙĬÙĨ ÙĩÙħ
ĠØ§ÙĦ ÙĥÙĪÙĨ
ĠØ§Ø¨ ÙĬ
ĠØ¢ÙħÙĨ ÙĪØ§
ĠØ§ÙĦÙħ ÙĬ
ĠØ§ÙĦØ¬ Ø²Ø§Ø¡
ĠØ£ ØµÙĦ
ĠØ§ÙĦÙħ ÙĥØ§ÙĨ
ÙĦØ¨ ÙĬØ©
an d
Ø¨ Øº
ØµÙĦ Ø§ØŃ
ĠØ§ÙĦØ¥Ø³ÙĦØ§Ùħ ÙĬ
ĠØ§ÙĦØ£ ÙĬØ§Ùħ
ĠÙ ±
ÙĨ ÙģØ³
Ġ est
ĠðŁĳ Į
ĠØ¯ÙĬØ±ÙĬ ÙĦÙĨØ§
ĠØ§ÙħØ± Ø£Ø©
ĠØŃÙĤÙĬ ÙĤÙĬØ©
Øª Ø¨Ø©
ÙĦÙĬ ÙĨØ§
Ø® Ø¨Ø±
Ø±ÙĪ ØŃÙĪ
ĠØµ ÙģØ©
ĠØ§ÙĨ Ø¸Ø±
in u
ÙħÙĪ Ø§Øª
Ø¦ ÙħØ©
Ø· Ø±ÙĬÙĤØ©
ĠØ§ÙĦØ§Ø® ÙĬØ±
ĠÙĪØ§ÙĦ Øº
a bi
Ø± Ø¹
Ø§Ø¦ Ø¹Ø©
Ø¯ÙĪ Ø´
Ġ202 0
ĠØ®ÙĦÙĤ Ùĩ
ĠØ§ÙĦÙħ ØªØ§Ø¨
ĠØ§ÙĦØ£ØŃ Ø§Ø¯ÙĬØ«
ĠÙĦ Ø³Øª
ĠØ§ÙĦØ¹ ØµØ±
ĠØº Ø§ÙĬØ©
ĠØ§ÙĦØ® ÙĬ
ĠØ§ÙĦØª Ùĥ
ĠØªÙĥÙĪÙĨ ÙĬ
ĠÙħØ¨ Ø¹Ø¯
Ø· Ø§Ø¹
Ø§Øª Ùħ
ĠÙĪØŃ Ø³ÙĨ
ĠØ·ÙĦ Ø¹
ĠØ¥ÙĨ Ø´Ø§Ø¡
Ø· ÙĦÙĤ
ĠØ® Ø¯ÙħØ©
ĠðŁĺ Ķ
ĠØ§ÙĦØ¯ Ùħ
ÙĪØ¨ Ø§
Ø·Ùģ Ø§ÙĦ
ĠÙĪ Ø§Ùĥ
ĠØª ÙĤÙĪ
ĠØµØŃ Ø§
ĠØ§ÙĦÙĪØ· ÙĨ
ĠØ§ÙĦØ± ÙĪØŃ
Ø§Ø¶ ÙĬØ©
ĠØ§ÙĦØ´Ø± Ø¹ÙĬØ©
u n
Ġ Û
Ø¦ Ø§Øª
ĠÙĪÙĦÙĩ Ø°Ø§
Ø§Øª Ø´
ĠØ¬ ÙĬØ¯
ĠÙĤØ§ÙĦ Ùĥ
Ġn a
ĠØª Ø«
Ġ2 4
ØµØ± Ø§ØŃØ©
ĠÙĦ Ø§Ùħ
ĠØ¹ ØµØ±
Ø² ÙĦØ©
ĠØ¯ ÙĦ
ĠÙĪÙģÙĤ ÙĨÙĬ
ĠØ´ ÙĪÙģÙĬ
ĠØ±ÙĬ Ø§Ø¶ÙĬØ§Øª
ĠØ§ÙĦÙĪØ· ÙĨÙĬØ©
e b
ĠØ±ÙĪ Ùī
ĠØ§ÙĦØ§Ø± Ø¶
ĠØµ Ø¯ÙĬ
ĠÙħÙĪØ¬ ÙĪØ¯
ĠØ£ ÙĦ
Ø® ÙĪÙĦ
ĠØªÙĤØ±ÙĬ Ø¨Ø§
ÙĨ Øµ
ĠØ±Ø§ÙĬ ØŃØ©
ĠÙħÙĨ Ø·ÙĤØ©
ĠØ£ÙĨ ÙĨÙĬ
ĠØ§ÙĦÙĩ Ø§ØªÙģ
ØŃ ÙĦÙĬ
Ø¶ Ùħ
ĠØ§ÙĦ ÙĩÙĪ
ĠØ®Ø§ÙĬ ÙģØ©
Ø· Ø±Ø©
ĠØ° ÙĪ
ĠðŁ ĸ¤
ĠØ§ÙĦØ± ÙĪ
ĠÙĤØ¨Ø± Ùĩ
ðŁ ©
ĠÙĥ Ø§
ĠØ£Ùħ ÙĪØ±
ĠØ±Ø§Ùĥ ÙĦÙĬØ·Ø§
ĠØ§ÙĦØ± Ø§ØŃ
ÙĤ Ø±Ø¨
ØªÙĬ ÙĩØ§
Ø¹ÙĬ ÙĪÙĦÙĬ
ĠÙħØ« Ø§ÙĦ
ĠØ£ Ø²
ÙĦØ§ ÙĤØ©
ĠØ§ÙĦØª Ø±Ø¨ÙĬØ©
ĠØ±Ø£ ÙĬØª
ĠØ± Ø§Ø¨Ø·
ĠØº Ø§ÙĦØ¨
ÙĥÙĬÙģ Ø§Ø´
ĠØ¹ ÙĩØ¯
ĠØ¹ Ø¯ÙĦ
ÙĨØª Ùĩ
Ø± ÙģÙĬ
ĠØ¹ ÙħØ§
ĠØ§Ø³ ÙĥÙĪ
ĠØ§ÙĦØµ ÙĪØ±
ĠÙĨØª Ø¹
ĠØ¥ÙĨ Ùĥ
Ġm an
ĠÙĬ Ø±Ø¬Ø¹
ĠÙĦ Ø¯Ø±
ĠØ¹ Ø§ÙħØ©
ĠØªÙĤØ¯ Ø±ÙĬ
ĠÙħØ¹ ÙĩÙħ
Ø¨ÙĤ Ø§
ĠØŃÙĦ ÙĤØ©
it e
ĠØ¯ ÙĨÙĬØ§
ÙĪØ§ ÙĤÙģ
ĠÙĬØ¨ Ø§ÙĨ
ĠÙĥÙĬÙģ Ùĥ
ĠØ§ÙĦØ¨Ø± ÙĨØ§ÙħØ¬
ĠÙĥ Ø°Ø§
ĠÙĤÙĦÙĬ ÙĦØ§
ĠÙģÙĬ ÙĦÙħ
Ġv ous
ĠÙĬØ±ØŃÙħ Ùĩ
Ġt r
ĠØªÙĪ ÙģÙĬ
Ġha da
Ġe x
ÙĬ ÙĪ
ĠØ§ÙĦØ¹ ÙħØ±
ÙĪÙĬ ÙĦÙĬØ©
ĠØ±Ø§ÙĬ Ùĥ
ĠØ¬ Ø§ÙĦ
ĠÙĬØ´ÙģÙĬ Ùĥ
ĠÙħ ÙĦÙģ
ĠØ§ÙĦØ± ÙĤÙħ
ĠÙĬÙĨ ÙģØ¹
ĠØŃÙĬ ÙĤÙĪÙĨ
k ha
ĠÙĦÙĦ ÙĤ
ĠØ¨ÙħØ¹ ÙĨÙī
Øµ Ø¯ÙĤ
Ø¹ Ø¬Ø¨ØªÙĨÙĬ
Ø³ Ø§Ø¡
Ġb z
id a
ÙĨØ´ Ø§ÙĦÙĦÙĩ
t u
ĠØ¨Ø§ÙĦ Ø¶ØŃÙĥ
ĠÙĪÙĦ ÙĨ
ĠØªØ¬ Ø¹ÙĦ
ĠØ³ÙĪ Ùī
Øº Ø§ÙĦ
Ø§Ùģ Ø§Øª
Ø§ÙĤ Ø¨
ĠØ¬ÙĨ Ø§ÙĨÙĩ
ĠÙĬ Ø¹ÙĪØ¯
Ø§ÙĤ Ø¨Ø©
Ø® ÙĪØªÙĬ
ĠØ§ÙĦÙħ Ø²ÙĬØ¯
Ø¨ÙĦ Ø§Ø¯
Ġu ne
ĠØ¨ Ø¯Ø±
Ø§Ø¶ Ø¹
ØªØŃ ÙĬØ©
Ùħ Ø¨Ø±
ĠØ´ Ø§
0000 0000
Ø§Ø¦ ÙĬÙĦ
ĠÙħØ³ Ø¤
ĠÙĤ Ø¹
ĠÙĦ Ø³Ø§ÙĨ
ĠÙħØ´ ØªØ±Ùĥ
ĠÙĬØª ÙģØ±Ø¬
ĠÙĪÙĤ Ø¹
ĠØ§ÙĦØ¹ Ø§Ø¦ÙĦØ©
ĠØªØŃ Ø±Ùħ
ĠÙħØ³ ÙĥÙĬÙĨ
an s
i ya
ĠÙħ ÙĤØ±
ØµØŃ Ø©
ĠÙĬÙģ Ø¹ÙĦ
d r
ĠÙģ Ø¨
ÙģØ± Ø©
ĠÙĬØ±ØŃÙħ ÙĩÙħ
ĠØ°ÙĥØ± Ùĩ
202 5
ĠØªØ® Ø¯Ùħ
ĠØ§ÙĦØ¨ ØŃØ«
ØŃÙĤ ÙĤ
ÙĨØ´ Ø§ÙĦÙĩ
ĠØŃÙģØ¸ Ùĥ
ĠÙĬ Ø§Ø±
ĠØªØ¹ ÙħÙĦ
ĠÙĦ ØªØŃ
Ø³ Ø³
ÙħÙĬ ÙĬÙĨ
ĠØ±Ø¬ Ø¹Øª
ĠÙħÙĨ ÙĬÙĨ
o p
ĠÙĪÙĬ Ø¬Ø¹ÙĦ
Ø§ÙĦÙĬ ÙĪÙħ
ĠØ±Ø£ Ø³
ĠØ§ÙĦØª Ø±Ùĥ
ĠØ§ÙĦØµ Øº
ĠÙĪØºÙĬØ± ÙĩØ§
Ø§ÙĦÙħ ÙĬÙĨ
ĠØ¹ÙĦØ§Ø¨ Ø§ÙĦÙĬ
ĠØµØ§ÙĨ Ø¹
ĠØ¨ Ø±ÙĬ
ĠÙĦ ÙħØ¹
ĠØ§ÙĦØ¯ ÙĪÙĦ
ĠØ« ÙĤ
ĠØ§ÙĦ ÙĪÙĦ
ĠÙĬØ± Ø¯
âĺ º
Ùģ ÙĬØ±
ĠØª Ø¨ÙĤÙī
ĠØ¯ ÙģØ¹
d f
ĠÙĬ Ø®Øµ
ĠØ¹ÙĨ ÙĬ
ÙģØ± Ø¯
ĠØ®Ø§ÙĦ ØªÙĬ
t er
ðŁĺ ±
ĠÙĪ Ø°ÙĥØ±
ĠØŃØ¨ Ø³
ÙĪØ¯ Ùĥ
ĠØªÙĥ ØªØ¨
Ùħ Ø«
Ø¨ Ø§Ø³
ĠÙģ ÙĦÙĬÙĦ
ĠØ¬ Ø§ÙĪ
ĠØ§Ø¯ Ø¹ÙĪ
ØªÙĬ Ø¨
ĠØ¨Ø³ Ùĥ
Ø¨ÙĬ Ø¶
ØªÙĬ Ùĥ
ĠØ§ÙĦØ£ Ø®Ø±Ùī
ĠÙĥÙħ ÙĦØª
2 9
Ø§Ùĥ ÙĬ
ĠÙĦÙĦ Ø³
Ø±ØŃ ÙĬØ¨
ĠØ¨Ø¯ ÙĦ
Øª ÙģÙĬ
ĠØ§ÙĦØ² ÙħØ§ÙĨ
Ùħ Ø§Ø¹
ĠØ§ÙĦ Ø±Ùĥ
ĠÙĥÙĬ ÙģÙĬ
Ø° ÙĬØ¨
ĠØ§ÙĦØŃÙĤÙĬ ÙĤÙĬ
Ø§ÙĦ Ø¯
ĠÙĥ ÙĪØ±
ou n
is to
a la
ĠØ¨Ø±ØŃÙħ ØªÙĥ
ĠÙĬ ØµÙĦ
ĠÙĨ Ø§
ĠØ¢ ÙĬØ§Øª
Ø³ÙĬ ÙĦØ©
ĠÙĬØŃ ØªØ§Ø¬
Ùĥ Ø¯
ĠØ§ÙĦÙħÙĦ Ø§Ø¦ÙĥØ©
ĠØŃ Ø³ÙĬØª
Ø· Øª
Ø¹ Ø§Øª
ÙĨØ³ Ø§Ø¡
ÙĦÙĪ Ø´
ĠÙĪØ£ Ø¹
ĠØ§Ø¹ Øª
ĠØŃ Ø±Ø¨
ĠØªÙĪØŃØ´ ÙĨØ§Ùĥ
ÙĬØ¯ ÙĬÙĨ
ĠØ¶ Ø±
ØªÙĦ ÙģØ©
ĠðŁ¤ Ķ
ĠÙĦÙĨ ÙģØ³
ØªÙĬ Ùħ
ĠÙĨ Ø±Ø¨ØŃ
ĠØ§ÙĦØ³ ÙĦØ³ÙĦØ©
ĠÙĪØª Ø´
Ġm erci
ĠÙĥ Ø§Ø³
Ø§ÙĪ ÙĦÙĬ
ĠØ§ÙĦØ³ ÙħØ§
ĠØ§ÙĦÙħØ¬ ÙĩÙĪØ¯
Ú ª
ĠØ¨ Ø§Ø·ÙĦ
ĠÙĬ Ø§ÙĦ
Ø² Ø¨
ÙħØª Ø¹
ĠÙĤÙĦØ¨ Ùĩ
ĠØ¹ ÙĦØ§ÙħØ©
ĠØ§ÙĦØµ Ø±
Ø¦ Ø§
Ġm on
ĠØ§ÙĦØ° ÙĨÙĪØ¨
ĠðŁĴ ľ
ĠÙĤØµØµ Ùĥ
ĠØ¹Ø¨ Ø§Ø±Ø©
h k
ØŃ ÙĪØ±
ÙĥÙĬ ÙĦÙĨØ§
Ø® ÙĦÙĩ
ÙĬ ÙĩØ§
ĠØ´ Ø±ÙĬ
ĠØ³ Ø§Ø¹Ø§Øª
ÙĦÙĬ ÙģÙĪÙĨ
ĠØ¨ Ø§Ø¹
Ã© ri
ĠØªØ³Øª Ø§ÙĩÙĦ
Ùħ Ø²Ø§ÙĦ
Ø§Ø¦ ÙĨ
Ø® Ùģ
ÙĪÙĦ ÙĪØ¬
Ø§Ø¶ Ø±
han k
Ġ) .
h m
ĠØ¨ Ø¯ÙĬ
ÙĪÙĨ Ùĥ
ÙĬ Ø§Ø¡
Ġ Ã©
ĠÙħ Ø§Ø¡
ĠØ¹ÙĨ Ùĥ
ĠÙħØ¬ ÙħÙĪØ¹Ø©
ĠÙĪ Ø°
ÙĤ ÙĪØ§
ĠÙĤ Ø±Ø¨
ĠÙģØª Ø±Ø©
ĠØ§ÙĦØ® Ø±
Ø· Ùĩ
ĠØ£ÙĨ Ø²ÙĦ
ĠÙĪÙĬ Øª
ĠØ¨Ø¹Ø¯ Ùĩ
ĠØªØª Ø¹
ĠØªØ§ÙĪ Ø¹Ùĥ
Ø«ÙĦ Ø§Ø«
ĠØ§ÙĦÙħØ´ Ø¨Ùĩ
ðŁı ¼
ĠØ¸ ÙĦÙħ
ĠØ±Ø§ÙĬ ØŃ
ĠØ±Ø§ ÙĤØ¯
Ø§Ø¯ Ø«
ĠØ§Ø³ Ø·ÙĪØ±Ø©
ĠØ§ÙĦØ± Ø¹Ø¯
ðŁ¤² ðŁı»
ĠÙĪØ§ÙĦØ£ Ø±Ø¶
Ø´ ÙĦ
ĠØ§ÙĦØ£Ø¹ Ø¶Ø§Ø¡
ĠØª ÙĦÙħ
ĠðŁĺ ĺ
ĠÙĬØ¹ ØªØ¨Ø±
ĠØ§ÙĦÙģ ÙĤ
ĠØªØ§Ø¹ ÙĨØ§
ĠÙĪÙģÙĤ Ùĥ
ĠÙĬ Ø¶ØŃÙĥ
ĠØ± Ø§ÙĤÙĬ
ĠÂ »
ĠØ§Ø¨ Ø¯Ø§
ĠÙĪ Ø§Ùĩ
ĠØ£ Ø¹Ø±Ùģ
ĠØªÙĪ ÙģÙĬÙĤ
ĠØªØ¹ÙĬØ´ ÙĪ
ĠØ§ÙĦØ¥ Ø®
ĠÙĬ Ø¸ÙĩØ±
ĠØ§ØŃ Ø¨Ùĥ
Ġha di
ĠÙĪØŃØ¯ ÙĩØ§
ĠØ¯Ø§ÙĬ ÙħØ§
ĠÙħ Ø§ÙĦØ§
Ø´ Ø¹Ø±
ĠØ¬Ø²Ø§Ùĥ Ùħ
ĠÙĬÙĦ Ø¹Ø¨
t s
Ø¬ Ø§Ùħ
ĠØ§ÙĦØ¬Ø§Ùħ Ø¹Ø©
ĠØ§ÙĦØŃ Ø²ÙĨ
ĠØªØµ Ø±ÙĬØŃÙĬØ©
ĠØ§ÙĦØ§Ø¬ØªÙħØ§Ø¹ ÙĬ
ÙĨ Ø§Ø³
ĠÙĦ Ø¯Ø§Ø±
Ø´ Ø±Ø©
ĠØ³ Ø¨Ø¹
ĠØ§ÙĨ ÙĨÙĬ
Ġâľ ħ
ĠÙĦ Ø§ÙĨÙĬ
ĠÙĪÙĨ Øµ
ĠØ´ ÙĪ
ĠØ´ Ø±Ùĥ
ÙĪÙħ ÙĨ
Ø±Ø¶ ÙĬ
Ø¯ÙĪ Ùĩ
ĠØ§ÙĦØ® ÙĦ
ĠØªØ§Ø¹ ÙĩØ§
ÙĨØ¨ ÙĬØ©
ĠÙĬÙĤÙĪÙĦ ÙĪÙĨ
ĠØ§ÙĦØ¬Ùħ ÙĦØ©
Ø² ÙĪÙħ
ĠØ§ÙĦØŃ Ø¶
ĠØ§ÙĦØ² ÙħÙĨ
ĠØ§ÙĪÙĦ Ø§Ø¯
3 6
ÙĪ ÙħØ§
ØŃ Ø³Ø§ÙĨ
ou p
ĠØ´ ÙĥÙĦ
Ø¹ Ø¨Ø¯
ĠÙĬ ÙĤØ±Ø§
ĠØªØ³ ÙħØ§
ĠØªÙģ ÙĥØ±
ĠØ£ØŃ Ø¯Ø§
ĠÙĩ Ø§ØªÙĩ
ĠØ¯ Ø²Ø§ÙĬØ±
ĠÙħØ³ Ø¹ÙĪØ¯
ĠØ§ÙĦØº ÙĬØ¨
ĠØª ÙĦÙģ
Ġ? ?
ĠØ§ÙĦØ° ÙĥØ±
Ø§Ø· ÙĨ
ĠØ³ÙĪ Ø¡
Ġv ra
Ùĥ Ø¨Ø±
ĠØ¨ ØŃÙĬ
ÙĨÙĬ Øª
Ġ J
Ġ ro
Ø® Ø¨
ÙĨ Ø§Ø¬
ĠÙħ Ø§Ø®
Ø§Øª ÙĦ
ĠÙĬÙħ ÙĪØª
ĠØ§ÙĦØªØ³ Ø¬ÙĬÙĦ
ĠØªÙĪ ØµÙĦ
ĠØ§ÙĦØ¬ ÙĪ
ĠØ£ Ø³ÙħØ§Ø¡
Ø§ÙĬ Ø¹
Ø§Ø® Øª
ĠÙħØ® ØªÙĦÙģ
Ø¬ ÙĬØª
ĠÙĤ Ø³ÙĨØ·ÙĬÙĨØ©
ØºÙģØ± Ø©
m l
ĠØ§ÙĦØª Ø¹Ø¨
Ġp r
â ģ
ĠØ§ÙĦ ÙĨØ§
Ùĥ Ø§Ø©
ĠÙĦÙĬ ÙģÙĬØ¯ÙĬÙĪ
Ø³Ùħ ÙĬØ©
Ø±Ø¬ ÙĦ
ĠØ§ÙĦÙħØ± ÙĪØ±
ĠÙĬ Ø¹Ø¯
ÙĦÙĪ ÙĩØ§
ĠØ§ÙĦ Ø§Ø·
ĠØ¨ ÙģØ¶ÙĦ
ĠÙħØ¹ ÙĨØ¯
ĠÙĬÙĪÙħ ÙĬÙĨ
ĠØ³ Ø¨ÙĬ
ĠØ¨ÙĬÙĨ Ø§
ÙĦÙĥ ÙĨ
Ø¶Ø¹ Ùģ
202 6
Ġcont inu
ĠÙģ Ø§Ø¹
Øº Ø¨
ĠØ§ÙĦØ¢ ÙĬØ§Øª
ĠØ§ÙĦÙĪØŃ Ø¯Ø©
ĠÙĦÙĬ Ùĩ
ĠÙħØ³ ÙĦØ³ÙĦ
ĠØ¹ ÙĬØ¨
ĠâĿ¤ ðŁĺĬ
Ġ" .
ĠÙĪØ§ÙĦÙħ Ø´
ĠØ®Ø· Ø±Ø©
) :
4 0
ĠØ® ÙĦØ§Ùģ
ÙģÙĬ Ø¯Ø©
ĠØ§ÙĦØ® Ø§Ùħ
ĠØ§ÙĦØ¹ÙĦÙħ ÙĬÙĬÙĨ
ĠØ£ÙĪÙĦ Ø§Ø¯
ĠÙħ Ø§ÙĨÙĬØ´
ĠØµ Ø¯ÙĬÙĤ
ÙĪ ÙĬØ±
ĠÙĬ ÙĤØ±
ĠÙĪØ§ÙĦ ØµÙĦØ§Ø©
ĠØ§ÙĦØ¹ Ø±Ø´
ĠØ§ÙĦØ¬ ÙħØ¹
ĠØ¹Ø´ Ø±Ø©
ĠØ± Ø´
ØµØŃ Ø§
Ġp l
ĠÙĤÙĪÙĦ ÙĪ
ĠÙĦ Ø¹ÙĦ
ĠØ£ ÙĪØ±
Ùħ ÙĦÙĬ
ĠØ¨ Ùģ
Ø¯ÙĬÙĥ Ø³
ĠØ¨Øº ÙĬØª
ĠØ® ÙĦØ§
Ø§Ø² ÙĦ
ĠÙħÙĥ Ø©
ĠÙĪ ÙĤÙĪÙĦÙĩ
ĠÙĬ ÙĦÙĤ
ĠØ± Ùģ
ĠÙħØª Ø£
ĠØ± Ø§Ø³ÙĬ
ĠØ³ ÙħØ§ÙĨØ©
ĠÙĪØ£ Ø´
ĠØ§Ø¹ Ø·
ØªÙħ ÙĦ
ĠÙĦÙĩ Ø°Ùĩ
ĠÙħØª Ø§Ø¨Ø¹Ø©
ĠØ£Ø³ Ø£ÙĦ
ĠÙĬ ØªÙĥÙĦÙħ
ĠØº Ø§ÙĦÙĬ
ĠÙĪ Ø§Ùħ
Ġl ik
en d
ĠÙħØ¹ÙĨØ§ ÙĩØ§
Ø§ÙĦ Ø¥
Ø¨ÙĬ Ùĥ
ĠÙħØŃ ØªÙĪ
âĻ Ģ
Ø§Ø± Ø¨Ø©
ĠØ¹ Ø¬
ĠØª ÙĥÙħ
ĠÙĨØµ Ùģ
Ùĩ Ø±ÙĬ
ĠÙĨØ¸ Ø§Ùħ
******** ********
ÙĦÙĬ ÙĩØ§
ĠØ§ÙĦÙħ Ø±ØŃ
ĠØ§ÙĦÙĥ ÙģØ±
Ø§ÙĦÙĬ Ø´
ĠÙĬ Ø¤ÙħÙĨ
ĠÙĥ Ø°Ø¨
ĠÙĪØ§ÙĦ Ø§ÙĨ
Ø§Ø¹ ÙĬÙĦ
ĠØ§ÙĦÙĤ ÙĪÙħ
ĠðŁİī âĿ¤
âĢį âĻĢ
ĠØ§ÙĦ ÙĥÙħ
ĠØ§ÙĦØªÙĪ Ø§ØµÙĦ
ĠÙĬ ÙĤØ±Ø£
ĠØ§ÙĦØ¨ Ø¯
ĠØ¨ÙĦ Ø¯
Ġ5 0
Ø¹ ÙĩØ§
ĠÙħØ¹ ÙĩØ§
ĠØ¨ÙĨ ØªÙĬ
Ùħ Ø¦
ĠÙĪ Ø§Ùģ
ĠÙĩ Ø¨
ĠØ¨ÙĦ Ø§Øµ
ÙĤÙĪ Ø§ÙĦ
ĠØ¬Ø²Ø§Ø¦Ø± ÙĬØ©
i z
Ø§Ùĥ Ø´
ĠÙĬØŃ ÙĥÙħ
ĠØ§ÙĦØ¹Ø¨ Ø§Ø¯
ĠÙĪ Ø§Ø°Ø§
ĠØ± Ø§ÙĩØ§
ĠØ§Ùħ ØªØŃØ§ÙĨ
Øµ Ø§
ĠØ· Ø±ØŃ
Ø¹ÙĪ Ùĩ
Ġki ma
ĠÙĪØ§ÙĦØ¹ Ø§ÙģÙĬØ©
Ø®ÙĦ Ùģ
ĠÙĨ Ø²ÙĦ
ÙĪÙĦ Ø§Ø¯
ĠØ§ÙĦØ§Ùħ ØªØŃØ§ÙĨ
ĠÙĨÙĩ Ø¯Ø±
ĠØ§ÙĦØŃÙħØ¯ ÙĦÙĦÙĩ
oo d
ĠÙĬ Ø·ÙĬØŃ
ĠØ§ÙĦÙħ Ø§Ø¯Ø©
ĠØ§Ø³ Ø¦ÙĦØ©
Ø« ÙĪØ±Ø©
Ø§ØŃ Ø´
ĠØ¯Ø±Ø¬ Ø©
Ø§Ø± ØŃ
ĠØ§ÙĦÙĨ Ùĩ
ĠØŃØ§ÙĦ ÙĬØ§
ĠÙģ ØµÙĦ
ĠØªØŃ Ø±
ĠÙĨØ´ÙĪÙģ ÙĪ
ĠÙģÙĦÙĬ Ø³
Ùģ Ø²
ĠØ§ÙĦÙĨ Ø¹
ÙĦ Øº
ÙħÙĬ Øª
ÙĪØ§ ÙĪ
Ø§ÙĪÙĦ Ø©
ĠÙĨØ¬ØŃ ÙĨØ§
ĠÙģ ÙģÙĬ
Ø¸ ÙĬÙģ
ĠÙĪØ§Ø¬ Ø¹ÙĦ
ĠÙĪ Ø®ÙĦØ§Øµ
ÙĤ ÙĩØ§
ĠÙĤØ± Ø£
er s
ĠØ§ÙĦØ³ÙĬ Ø§Ø±Ø©
ĠØµ Ø§ÙĬ
ĠØ´Ùģ Ø§Ø¡
ĠØ± Ø¢
Ġh e
ĠØŃØ¨ÙĬ Ø¨ÙĬ
ĠÙĨØ³ ÙĥÙĨ
ĠÙħØ³Øª ØŃÙĬÙĦ
ĠØ¯Ø§Ø± ÙĪ
ĠÙĪ Ø¯Ø±
ĠØ§Ø³Øª Ø¹Ø§Ø±Ø©
ĠØ§ÙĦÙģ Ø¯ÙĬÙĪ
ĠÙĪØ® Ø§ØµØ©
Ùĩ Ø¯Ø§
ĠØ§ÙĦÙĨ ÙĪÙħ
Øª Ø±ÙĬ
ĠØª ÙģØ¶
ÙģÙĩ ÙĪÙħ
] ØĮ
ĠØ§ÙĦÙħ ÙĨØ§
Ġb ro
Ã© s
ĠØ§ÙĦÙĦ ØŃ
Ø§ÙĦ Øµ
Ø§Ø¦ Øµ
ĠÙħØ´ ÙĥÙĦØ©
Ùĩ Ø°Ùĩ
il oud
ĠØ§ÙĦØ®Ø· Ø§Ø¨
ĠØ§ÙĦØ¹ Ø§ÙħØ©
ĠÙħØª ØŃ
ĠØŃÙĬØ§Øª Ùĩ
ĠØ§Ùģ ÙĩÙħ
ĠÙĥ ÙĪ
Ø¹ ÙĨÙĬ
ĠÙĨ Ø¶ØŃÙĥ
ĠØ§ÙĦØ´ Ø±ÙĬØ¹Ø©
Ø¹ÙĪ Ø¯Ø©
ĠÙĪØª Ø±Ùĥ
ĠØ®Ø§ÙĦ Ø¯
ÙĬ ÙĥÙħ
ĠØ³ Ø§Ø¹
4 5
a ch
Ø³Øª Ø±
âĢ Ŀ
ĠØªÙħ Ø§ÙħØ§
ĠØ§ÙĦÙħØ³Øª Ø¹Ø§ÙĨ
ĠÙĪØ¹Ø¯ Ùħ
Ġs ah
ĠØ¹ Ø¸Ùħ
ĠÙĪÙħ Ø¨Ø¹Ø¯
ĠØ¨Ø§ÙĦÙħ Ø¹Ø¯ÙĦ
Ġ ^
ĠØª ØºÙĬÙĬØ±
ĠØªØŃØª Ø§Ø¬
ĠÙĬØ§Ø® ÙĪ
ĠØ£ÙĨ ÙĪØ§Ø¹
ĠÙĦÙĥ Ø§ÙĨ
Øª Øª
ĠÙĥÙĦ Ø´ÙĬ
ĠÙĬØ¬ ÙħØ¹
ĠÙĪØ³ Ø·
ĠØ§ÙĦØŃØ± Ø§Ùħ
ĠØ£ Ø±Ø¶
za f
Ġgh ir
âĢįâĻĢ ï¸ı
ĠÙģ ÙĥÙĦ
Ø² Ø±
ĠÙĥØªØ§Ø¨ Ùĥ
m o
ĠØ§ÙĦØŃ Ø¬
ĠÙĥÙĦØ§Ùħ Ùĥ
ĠØ¹ Ø§ÙĪØ¯
ÙĨÙĬ Ùĥ
ĠØ§ÙĦÙĤ Ø¶ÙĬØ©
ĠÙħØ´ Ø§Ø±Ùĥ
ĠØ£Ø¬ ÙħÙĦ
ĠØ§ÙĦØ£Ø® Øª
Ø¨ ÙĪÙĦ
Ø¯ Ø±ÙĬ
el le
ĠØŃÙģØ¸ Ùĩ
Ø§ Ø§Ø°
ÙĪ Ø§Ø¡
ĠØ§ÙĦØ£ Ø¹ÙĦÙī
ĠØ§ÙĦØ¹ ÙģÙĪ
ĠØ³ÙĬ Ø§Ø³ÙĬ
ĠÙģÙĦ Ø§ÙĨ
ĠÙĬ ÙĪÙĦÙĬ
ĠØ¬ Ø§Ø²
ĠØ§ÙĦØ³ ÙĪØ¯Ø§Ø¡
ĠØªØŃ ÙĤÙĬÙĤ
ĠØªÙĨ ØµØŃ
ĠÙĬØ³Øª Ø·ÙĬØ¹
ÙħÙĬ Ø³
ĠÙĪÙĬ ÙĥÙĪÙĨ
ĠÙĨÙĪØ± Ùħ
ÙĪ Ø§ÙĨØ§
ĠÙĦÙĦ Ùģ
ĠÙĪÙħÙĬ ÙĦÙĪØ¯
ĠØ§ÙĦØº Ø§ÙĦÙĬØ©
ĠØ§ÙĦÙħ ØªØŃ
ĠØ¨ÙĦØ§Ø¯ ÙĨØ§
ĠØ± Ø¦ÙĬØ³
ĠÙģØ§ÙĦ Ø¨Ø§Ùĥ
ĠÙĬ ÙĪØªÙĬÙĪØ¨
ĠØ¨ÙĬÙĨ ÙĨØ§
ĠØ¹Ø¨ Ø§Ø¯Ø©
ĠÙĪØ§Ø¬ Ø¨
Ø§ ÙĪØ±
Ùħ Ø´Ø§Ø¡
ĠÙĪ ÙĥÙħ
ØªÙĪ ÙħØ§
ÙĦ ØºØ©
Ø¦ Ø°
ĠÙĤØ§Ø¹ Ø¯
Ø· ÙĦØ§ÙĤ
ĠØ° ÙĨÙĪØ¨
Ø³Ø¨ ÙĪØ¹
Ġa re
ĠØ§ÙĦÙħÙĨ Ø·ÙĤØ©
ĠØ£Øµ ÙĦØ§
ÙĤ Ø±ÙĬ
ĠØ¯ ÙĪØ±Ø©
ĠÙĥØ« Ø±Ø©
ĠØ§ÙĦØ±Ø§ØŃ ÙħÙĬÙĨ
ĠØªØ¹ ÙĪØ¯
ĠØ§ÙĦÙģ ÙĤÙĩ
Ùģ Ø§Ø¯Ø©
ĠØ¨ Ø³Ø±
ĠÙĨ Ø±Ø¬Ø¹
ĠØ§ÙĦØª ÙĦØ§ÙħÙĬØ°
ĠØ§ÙĦÙħ Ø§Ø¶ÙĬ
ĠØ§ÙĦØ´ Ø§Ø¹Ø±
Ġl ah
ĠØ´Ø± Ø·
ĠÙĨØµ ÙĬØ¨
ĠÙĬØ· ÙĦØ¨
ĠÙħ Ø§Ø³
ĠÙĦ ØŃÙħ
ĠÙĨ ÙĪÙĦÙĬ
ĠÙģØª ÙĨØ©
ĠØ· Ø±ÙĬ
ØŃÙĬ Ø§Ø¡
ĠÙģØ§ÙĦ ÙĤ
Ø¬ Ø§ÙĪØ²
ÙħØ¹ ÙĦÙĬØ´
ĠÃ ¯
ĠØ³ÙĦÙĬ ÙħØ§ÙĨ
ĠØ¨ Ø§Ø³Øª
ĠÙĬ ØµÙĦØŃ
ĠØ§ÙĦØ£ Ùģ
ÙĤÙĬ ØªØ´
ĠÙĪØŃ ÙĨØ§
Â °
Ø§Ø¨ ÙĦØ©
ĠØ§ÙĦÙĥ Ø¨Ø±Ùī
ĠÙģÙĬØ¯ÙĬÙĪ ÙĩØ§ØªÙĥ
ĠØ£ Ø¹Øª
ĠØ´ Ø±ÙĬÙĥ
Ø¸ ÙĬÙħØ©
ĠÙĪÙĬ ØŃÙģØ¸
Ø° Ùī
ÙĪÙģ Ø©
ĠÙĪØ¢ ÙĦÙĩ
ĠÙĤÙĦÙĪØ¨ ÙĨØ§
Ġ il
ĠØ§ÙĦØ¬ ÙĩØ§Ø¯
ĠØ§ÙĦØ¹ÙĦÙħ ÙĬ
ĠÙģØ±ØŃ Øª
Øµ ÙĬØ©
ĠØ§ÙĦØŃ Ø§ÙģØ¸
ĠØ´Ø±ØŃ Ùĥ
2 1
ĠÙĤØ§Ø¹ Ø¯Ø©
R ed
Ø§ÙĪ Ø´
ØŃÙĬ Ø§Ø©
ĠðŁĺ¢ âĿ¤
ĠØ¯Ø§Ø± Øª
ĠØ§ÙĦÙĤÙĬ ÙħØ©
ĠØ§ÙĦÙħ ÙĦÙģ
ĠØ§ÙĦØ³ Ø¹Ø§Ø¯Ø©
ĠØµÙĪ Ø§ÙĦØŃ
Ùĥ ÙħØ§
6 0
ĠØ§ÙĦÙģØ§Ø¶ ÙĦØ©
ĠØª ÙĥÙħÙĦ
ØĮ ØĮ
ØªÙĬ Ø§Ø²
ĠÙĩØ§Ø¯ ÙĬÙĥ
Ġ V
ĠØ¬ ÙĪÙĬÙĦÙĬØ©
ĠØº Ø§Ø¯ÙĬ
ĠØ§Ø³Øª ÙħØ±
Ø§Øµ ÙĬÙĦ
ĠÙĨØ³ Ø§Ø¡
ĠØ£ Ø³Ø¨Ø§Ø¨
ĠØ§ÙĦÙĤ Ø§ÙĨÙĪÙĨ
ĠÙħØ§Ø¯ Ø§Ùħ
ĠØ§ÙĦÙĥ Ùĩ
ĠØ±ÙĪ Ø¶Ø©
ĠÙĬØ³ ÙĩÙĦ
ĠØ£Ø´ Ø¯
ĠØ¨Ø§ÙĦ ÙĤ
ĠÙĬØµ ÙĦÙĬ
ĠØŃØ¯Ø« ÙĨØ§
Ø§Ùĩ Ø©
ĠÙ ¡
ĠØ¨ ÙĦÙĪ
Ø§ÙģÙĬ ÙĩØ§
ĠØ³Ø¤ Ø§ÙĦÙĬ
ĠÙħ ÙĤØªØ±ØŃ
ĠÙĬ Ø«Ø¨Øª
Ø§ØŃ Ø³ÙĨ
ĠØ¨Ø§ÙĦ Øº
Ø¯Ùħ Øª
ÙĪÙĦ ÙĦÙĩ
ØªÙĪ Ø¨Ø±
ĠÙĪÙĥ ÙĨØª
ĠØŃÙħ Ø¯
Ø³ÙĨ Ø¯
ĠØ§ÙĦØªÙĪ ØŃÙĬØ¯
ĠÙĪÙĩ ÙĥØ°Ø§
ĠØ¹ÙĦ Ø§Ø¬
ĠÙģ Ø§Ø³
Ġn t
ĠÙĪÙħÙĨ ÙĩØ§
ĠÙĬÙĥ ÙģÙĬ
ĠÙĪ ÙĪÙģÙĤ
ĠØ§ÙĦØŃ Ø§Ø¬
ÙĪÙĦÙĬ ÙĨ
Øª ÙħØ±
ĠØ§ÙĦÙĨØ§Ø¬ ØŃÙĬÙĨ
ĠÙħ ÙħÙĬØ²
Øº ÙģØ§Ø±
ĠÙĦ Ø§Ø®
ĠØº Ø±
ĠØºÙĬØ± ÙĩØ§
ĠØ¨ ÙĨØ§
ĠØ£ ÙĦÙħ
ĠØ§ÙĦØ· ÙģÙĦØ©
ĠØŃ Ø·ÙĬ
ĠØ§ÙĦÙħ Ø¹Ø±
ĠØ§Ùĥ ÙĬØ¯
Ø±Ùģ ÙĬÙĨ
ĠØŃÙħ Ø²Ø©
ĠÙĦ Ø¢
Ø± Ø§Ø¯
ĠØµØ¯ ÙĤØ©
ĠØ® Ø³Ø±
ĠØ§ÙĦÙħÙĪ ÙĤØ¹
ĠØ±Ùĥ ÙĦÙĬØ·Ø©
Ø± Ø§ÙĩÙĬ
ĠÙĦ ØŃÙĤ
ĠØ¹ÙĦÙħ ÙĬ
ĠØ§ÙĦÙĪ Ø¬Ùĩ
Ġ x
ĠØ¨ÙĬ Ø³Ùĥ
ðŁĺ® ðŁĺ®
ÙĤØ± Ø§Ø¡Ø©
ĠØ§ÙĦÙĪØ§Ø³ Ø¹Ø©
Ġs epia
ÙĤØ¨ Ø§ÙĦ
ĠØ§ÙĦ ÙĬÙĥ
ĠØ³ÙĬ ÙĥÙĪÙĨ
ĠØµØ± Ø§
ĠØŃØ§Ø¨ ÙĬÙĨ
ÙĨ ÙĪÙĨ
ĠÙģ ØŃ
ÙĦÙĬ ÙĦØ©
ĠØŃ ØªÙĬ
Ġd u
ĠØ¨Ø§Ø¨ Ø§Ùĥ
ÙĨ Ø¬ØŃ
Ùħ Ø±Ø©
Ø§Ø¦ Ùģ
ÙĪØ± Ø§Øª
ĠÙħØ¬ ØªÙħØ¹
ĠÙĪØµØŃ ØŃÙĩ
l k
Ø¦ ÙĬ
ĠØ§Ø±ØŃÙħ Ùĩ
ĠØ·Ø§ÙĦ Ø¨Ø©
Ø¯Ø§Ø± Ø³
3 7
ĠÙĪ ÙģØ±
Ø§ÙĨ Ùĥ
Ø¬ Ø±ÙĬ
c a
ĠÙĦ ØºÙĬØ±
ĠÙĪØ¹ ÙĦÙħ
ĠØ§ÙĦØ´Ø®Øµ ÙĬØ©
ĠØ£ Ø¹ÙħØ§ÙĦ
ĠØŃ Ø´
ĠØ§Ø¬ ÙħÙĦ
ĠØ¨ Ø§Ø²
ĠØ± ÙĬØŃ
ĠØ§ÙĦÙħØ± Ø§Ø¬Ø¹Ø©
ĠÙĨ Ø®Ø±Ø¬
ĠÙĪÙĥ Ø°Ø§
ĠÙħ Ø¤ÙħÙĨ
Ø§ØŃ Ø±
Ø§ÙĦ Ø±
Ø¬ ÙĨØ©
ĠÙĤ Ø¯ÙĬÙħ
ĠÙĥØ¨ Ø§Ø±
ĠØ±Ø¬ ÙĦØ§
Ġra h
ĠÙĥÙħ ÙĦÙĬ
ĠØ³ ÙĥÙĨ
ÙĦØ§Ùħ Ø§Øª
Ġ Ø§Ø±Ø¨
ĠÙĦ ØŃØ¯
Ġm en
ĠÙĪÙĦ ÙĦ
Øµ ÙĨ
Ø§Ø± Ùī
Ø² ÙĬØ±
ĠØµ Ø¹Ø¨
ĠØ· ÙĬ
ar t
ĠØ§ÙĦØ¨Ø§Ø± Ø¯Ø©
ĠÙĪØ§ÙĦ Ø²
Ø§ÙĬ Ø³
ĠÙĦÙĦ Ø£Ø³Ùģ
ÙĪØ¨ ÙĬØ©
ĠØ¯Ø± Ø§Ø³Ø©
ĠÙħ Ø£
ĠØ± Ø¯ÙĬ
Ø¨Ø± Ø§
ĠÙĨØªÙĬ Ø¬Ø©
Ø§ÙĦ Ø®
Ùħ ÙĪÙĨ
Ø²ÙĬ Ø¯ÙĬ
ĠØ¨ ÙĤÙĪÙĦÙĩ
ĠÙĤØ§ÙĦ ÙĬ
ØªØ¨ Ùĩ
Ø¯ÙĬØ± ÙĬ
ĠÙħÙĪ Ø§Ø¯
ĠÙĪØ¥ ÙĬ
ÙĩÙĨ Ùħ
ĠÙĪÙĨØª Ø§
Ġcom p
ĠÙĬ ØŃÙħ
ĠÙĪØ¬ ÙħÙĬØ¹
ĠÙĬÙĨØ¬ØŃ ÙĥÙħ
ĠØ§ÙĦØŃ ÙģØ¸
ĠØ§ÙĦØ® Ø¨Ø±
ðŁĩ ©
ĠÙĬÙħÙĥÙĨ Ùĥ
ĠÙĬ Ø·ÙĦØ¹
ĠØ¨ Ø°
ĠØ§ÙĦØ£ Ø®ÙĬØ±
ĠØ§Ø¯ Ø¨
Ø§Ùĩ Ø¯ÙĬÙĨ
ĠÙĥØ§ÙĬÙĨ Ø©
ĠÙĦ Ø§Ø´
ĠØ¬ ÙĬØ´
ĠØ· ÙĬØŃ
ĠÙĬÙĨ Ø¸Ø±
ĠØ¶ Ø±Ùĥ
ĠÙĬÙĪÙģÙĤ ÙĥÙħ
ÙĬØ¹ ÙĨÙĬ
Ø´ Ùĥ
ĠØ£ Ø³Ø±
ÙĤØ± Ø§Ø¡
ĠØ§ÙĦØµÙģ ØŃØ©
Ø§Ø¦ ÙĨØ§
ĠÙĨØŃ ÙĦ
ĠØ§ÙĦÙħÙĨ ÙĥØ±
Ġnch lh
Ø² Ø§Ø±
Ø¨ÙĬ Ø§ÙĨ
ĠØ§ÙĨ ØªÙħ
ĠØ§ÙĦØ¹ Ø±
ÙĥÙĬÙģ Ø§Ùĩ
ĠÙĥ ÙĬÙĨ
ĠØ³ Ø§ÙĩÙĦØ©
ĠÙĪØ§ÙĦ ÙħÙĨ
ĠÙĬØ¹ Ø§ÙĪÙĨ
ĠÙĪØ§ÙĦ Ø¨Ø±
Ø§Ùģ ÙĪ
ĠØ¨Ø§ÙĦ ÙĬ
ĠØ®ØµÙĪØµ Ø§
Ø§ÙĦ Ø§ÙĦ
ÙĨØª Ø´
Ġa s
Ġs ur
ÙĦØ³ Ø§ÙĨ
ĠÙĨØµ Ø¨
ĠØ§ÙĦÙħØ³Øª ÙĤØ¨ÙĦ
ĠØ§ÙĦÙģ Ø¹ÙĦ
ĠØ§ÙĦÙģ ÙĥØ±ÙĬ
ĠÙĨØ³ Ø¨Ø©
ĠØ¹Ùħ ÙĦÙĬØ©
ĠÙĬØ³Øª Ø±Ùĥ
Ġï´ ¾
ĠØª ÙĪØ¬Ø¯
ĠÙĬØ® ÙĬ
Ã¨ re
Ø± Ø®
Ø²ÙĬØ¯ Ø´
ĠØŃÙĪ Ø§ÙĬØ¬
ÙĪÙħÙĪÙĨ ØªØ§Ø±
ĠØ§ÙĦØ¬ ÙħÙĬÙĦØ©
ÙĤØ± Ø§ÙĬ
ĠØ§ÙĦÙħÙĨ Ùĩ
ĠØŃØ³ Ø¨ÙĬ
ĠØ§ÙĦØ¯ ÙĥØªÙĪØ±
ÙĨ Ø·
ĠØ£ ÙħØ©
ĠØ¬ ÙĪØ§ÙĨ
ĠØ§ÙĦØ¹ Ø±ÙĪ
ĠØ¹ÙĨØ¯ ÙĥÙħ
ĠØŃØ± Ùħ
ĠÙĪÙĬ ØºÙģØ±
ÙĤØª ÙĩØ§
b le
ĠØ£ ÙħÙĬ
ĠÙĤ Ø§ÙĨÙĪÙĨ
ÙĦÙĤ Ø§
Ø¶ÙĬ ØŃ
Ġa m
ĠØªÙĥ ÙĦÙħ
Ø· Ø·
ĠØ¥ ÙĤØ§ÙħØ©
ĠØ³ Ø§Ø¨
ĠØ§ÙĦØ¬ Ø¯ÙĬØ¯Ø©
ĠØªÙĤ Ø¯ÙĬÙħ
ĠÙĨØ¬ØŃ ÙĨÙĬ
ĠØ§ÙĦØ§ÙĬ Ø§Ùħ
Ø¨Ø±ÙĪ ÙĪÙĥ
b o
Ø¹ Ø§Ø¯
ĠÙĪØ§ÙĦ ØªÙĪ
ĠÙĬØ³Øª ØŃÙĤ
ĠÌ ģ
ĠÙħ Ø³Ø¨
Ø±Ø¨ ÙĪ
ĠÙĥØªØ¨ Øª
Ø® ÙĪ
ĠØªØ´ Ø¨Ùĩ
ĠØªØ± Ø¯
li ta
Ø´ Ø¹Ø¨Ø©
ĠØ§ÙĦØ¨ÙĬ Ø§Ùħ
ĠØŃ Ø§Ø³
Ø§Ø¬ ÙĬ
ĠØ§ÙĦØµ ØºÙĬØ±
ĠØŃ Ø¶Ø±
Ġ2 3
Ġ2 7
ra vo
Ø¬Ø± Ø¯
ĠÙĦ Ø¯ÙĬÙĥ
Ġd o
ti k
ØªØ± ÙĨØª
ĠÙħ ÙĤØª
ĠØ§ÙĦÙħ Ø±Ø¶
ĠØ§ÙĦØ³ ÙĥÙĨ
ØŃÙĪ Ø§ÙĦ
ĠÙħØ¹ÙĨØ§ Ùĩ
ĠØ§ÙĦØŃ Ø¨ÙĬØ¨
ĠÙħØ´ ÙĥÙĪØ±
ĠØ§ÙĦØº Ø§ÙĦÙĬ
ĠØ§ÙĦÙĥØ± Ø§Ùħ
ĠØŃØ¯ ÙĪØ¯
Ùģ Ø§Ø¹
ĠÙĬ ÙĩÙħ
ĠØ¥ ÙħØ§
ĠØ±ÙĪ Ø§ØŃ
ĠØ¥ÙĦÙĬ ÙĩÙħ
ĠØª Ø¶ØŃÙĥ
ĠØ§ÙĦÙħ ÙĤØªØ±ØŃØ§Øª
ĠÙĥÙĬÙģ ÙĬØ©
ÙĬ ØªÙĩ
ĠØ§ÙĦØ£Ø® ÙĦØ§ÙĤ
ĠÙĦ Ø§Ø¹
ĠØ£ ÙĥÙĪÙĨ
Ø±ÙĪ Ø§ØŃ
ĠØ§Ùħ ÙĬ
ĠØŃØ³ ÙĨØ©
ĠØ£Ø« ÙĨØ§Ø¡
ĠØ£ ÙĤÙĦ
Ø£ÙĨ Ùĩ
Ø¸Ø± ÙĪÙģ
ĠÙĪÙĤØª ÙĩØ§
O U
Ã ª
________ ________
f e
ĠØ¯Ø± ÙĨØ§
ĠØ£Ø³ Ø¦ÙĦØ©
ĠØ§ÙĦØŃÙĦ ÙĤØ©
ĠØ§ÙĦÙĪØµ ÙģØ©
Ùĩ ÙĦÙĥ
Ø§Ø® ÙĬØ±Ø§
ÙĩØ§Ø° ÙĬ
Ùĩ Ø§Ø¯ÙĬ
ĠÙģ Øµ
ĠÙĬ ØµØŃ
ĠØ§ÙĦÙħ Ø°
Ø§Ø± ÙĤ
ĠØµØ± Ø§ØªÙĦÙĬ
ĠØ¹ ÙĪ
ĠÙĤ Ø¶
ĠØ§ÙĦÙĥ ÙģØ§Ø±
ĠØ³ ÙĪØ¬ÙĬ
ĠØ§ÙĦØ± ØŃÙħØ©
ÙĨØª ÙĩØ§
ĠÙĪØºÙĬØ± Ùĩ
ĠÙĨ Ø³Ø¨
Ø® ÙĬÙĦ
ĠÙĬØ· ÙĪÙĦ
? ?
ĠÙģ Ø±Ø¬
Ø² Ø§Ø¨
Ø« Ø¨Ø§Øª
ĠÙĨØª Ø¹ÙĦÙħ
ĠðŁĴ ĸ
ĠØŃ Ø¬
ĠØªØª ÙħÙĨÙī
ĠØ¨Ø§ÙĦ Ø¯
Ø§Ø± ÙĨØ©
ĠÙĬÙĩØ¯ ÙĬÙĨØ§
Â» .
ĠØ§ÙĦØ¹ ÙĦ
ĠÙħØ± Ø§
Ø¦ÙĦ ØªÙĬ
ÙĥÙĬ Ùĥ
Ġt u
ĠØ¹ Ø¬Ø¨
ĠØ± Ø¶
ĠØ§ÙĦÙĤ Ø¯Ùħ
ĠØ£Ø´ ÙĩØ±
ĠØ§ÙĤ Ø§ÙħØ©
Ø¨ÙĬ Ø¯
ĠØ§ÙĦØªÙĪ Ø¨Ø©
ĠØ²ÙĪØ¬ ÙĩØ§
Ø´ Ø¹
ĠÙĨ Ø§Ø±
ĠÙĪÙĨ Ø³
Ø¥ÙĨ Ø³Ø§ÙĨ
ĠØ§ÙĦØ¹ÙĤ ÙĬØ¯Ø©
ĠØ§ÙĦÙħ Ø¹ÙĦ
ĠÙĬÙħ Ø´ÙĬ
ĠÙĤ Ø§Ø¦
M erci
ĠØª Ø±ÙĬ
ÙĤ ÙĦÙĬ
Ġ2 8
ĠÙģ Ø§Ø³Øª
ĠÙĨ ÙĨØ³
Ø´ ÙĬØ±
ĠØ³ Ø·
ĠÙĪÙĬ Ø¬Ø¹
ĠÙħØ± Ø§Ø¯
ba c
ĠØµØ§ØŃ Ø¨Ø©
ĠÙģ ÙĦÙĪ
ĠØ£ØµØ¨ØŃ Øª
p s
ĠÙĬ ÙĤØªÙĦ
Ø§Øª ÙĪØ±
ĠØ¹ÙħØ± Ø§ÙĨ
ĠÙħ ÙĤØ¯Ø±ØªØ´
ØŃØ¨ Ø³
ĠÙģØ¶ ÙĦØ§
ÙĬÙĨ ÙĩØ§
ĠØ³ ÙĤ
ĠÙģØ± ØµØ©
ĠØ¹ Ø§Ø±
ĠÙĤ ÙĬØ§Ùħ
ĠÙħØ¹ Ø¯
Ø®ÙĦ Ø·
ĠØ§Ø¬ Ø±
ðŁĺį ðŁĺį
ĠÙħÙħØª Ø¹Ø©
ĠØŃÙĥØ§ÙĬ Ø§ØªÙĥ
Ø§ÙĪ Ùĩ
ĠØªØ¹ Ø·ÙĬ
ĠÙģØ§ÙĦ Ø¹
Ġlo ve
ĠÙĦ Ø§Ùĥ
ĠØ§ÙĦØ¹ Øµ
ĠâĢ ľ
Ø¨Øª Ø¯
ĠØ§ÙĦØ§ÙĨ Øª
ĠÙĪ Ø¹Ùħ
ha m
ĠÙħ Ø¨Ø¯
ØªØ± ÙĪÙĨÙĬØ©
ĠØ´Ùģ ØªÙĪ
i i
ĠØŃ Ø§Ùģ
ĠÙĬÙĤ Ø¨ÙĦ
ĠÙģ Ø¥
ĠØª ÙĪÙĨØ³
Ø±ÙĬ Ø§Øª
ĠØ§ÙĦØ¨ Ø¯Ø§ÙĬØ©
ĠØ§Ø³ØªØ§Ø° ÙĨØ§
ĠØªØ·Ø¨ÙĬ ÙĤ
ÙĦ ÙĪÙĨ
ÙĪ ÙĦÙĩØ§
ĠØº ÙģØ±
ĠØ§ÙĦÙħØ³ Ø¤
âĿ¤ï¸ı âĿ¤ï¸ı
ðŁ į
ĠØµ ÙĬ
ĠØµ Ø¯Ø±
ØªØµ Ø§Ø±
Ø³ Ø§Ø±Ø©
ĠÙĤ ÙĦÙĨØ§
ĠÙħØ¹ ÙĬÙĨ
ĠØ« ÙĪØ±Ø©
ØµØ± Ø§
ĠØ§ÙĦØ§Ø¹ Ø¶Ø§Ø¡
Ø²ÙĬ Ø§Ø¡
ĠÙĨØ¬ Ø¯
Ġ ~~
Ø§ÙĨ Ø§Øª
ĠØ¬ ÙĨØ©
ĠØº ÙĦ
Ø±ÙĪ ØŃÙĬ
ĠÙĦÙĥ ØªØ§Ø¨
ĠØ£ÙĨÙģØ³ ÙĩÙħ
d er
ĠØª Ø§Ø¨
ĠØ§Ø ¸
ĠØº Ø¯ÙĪØ§
Ã© e
ĠØª Ø¨Ø¯
ĠØ³ Ø·ÙĬÙģ
ĠÙĬØ´ Ø§ÙģÙĬÙĥ
ĠÙĪÙĬØ¹ Ø·ÙĬÙĥ
ĠØ§ÙĦØ³ÙħØ§ ÙĪØ§Øª
Ùĩ Ø§Ø¯Ø©
ĠÙĦ Ø¯Ùī
ĠÙĥ ÙĦÙĩÙħ
ØªÙĬ Ø¬Ø©
ØªØ§Ø¨ Ø¹
ĠÙĦÙĦØ§Ø³ Ùģ
Ġw ah
Ø´ ÙĬØ©
ĠØ® Ø§ÙĦÙĬ
ĠØ¯ Ùĥ
ĠÙĬØ¹ Ø¬Ø¨
ðŁĴ Ļ
ĠØ§ÙĦÙħØ³ÙĦÙħ ÙĪÙĨ
ĠØ§ÙĦØ´Ø± Ø¹
ĠÙĪÙĬØ± ØŃÙħ
ĠØ§ÙĦ Ø¶Ø±
ÙĬØ± Ùĩ
ĠØ§ÙĦÙħ ÙĤØµÙĪØ¯
ĠØ§ÙĦØ® Øµ
ØªÙĤ Ø§Ø¯
3 9
ĠØ§ÙĦ Ø¶ØŃÙĥ
ĠÙĪØ± ÙĤØ©
Ġa d
ÙĨ ÙĩØ§
ðŁĺĤ âĿ¤
ÙģÙĬ Ø§
Ġw in
ĠÙĥ Ø°
Ġm y
Ø§Ø· ÙĤ
ĠÙħ Ø±ÙĥØ²
ĠÙĦÙĦ Ø¨
ĠÙĦÙĥÙĨ Ùĩ
ĠØª ÙģØ±
Ø« ÙĤ
Ġma t
ĠØŃØ¨ÙĬ Ø¨
Øª Ø©
ĠØ¥ Ø³ÙĦØ§Ùħ
Ø§Ø· Ø§
ĠØ¨Ø§Øº ÙĬ
ĠØ§ÙĦ Ø§Ùĥ
ĠÙĬ Ø¶Ø±Ø¨
Ø® Ø¯Ø§Ùħ
ÙģØª ÙĨØ§
ĠØ§Ø¨ Øª
Ø²ÙĬ Ø²Ø©
ĠØ§ÙĦÙħ Ø¹ÙĦÙħ
ĠØ§Ùģ Ø±ÙĬ
ĠÙĦ Ø§Ùģ
ĠØ¹ Ø§Ø±Ùģ
Ø±ØŃÙħ Ùĩ
ÙĪ ÙĤØª
Ùĩ Ø¯ÙĬ
ĠØ¹ Ø¯Øª
Ġb la
ĠØ§Ø¯ Ø¹
ĠÙģÙĬØ¯ÙĬÙĪ Ø§Øª
ĠØªÙĩ Ø¨ÙĦ
ĠÙĥÙĨ ØªÙĬ
Ù ¤
ĠØ§Ø³ ÙħÙĪ
ĠÙĪØ£ ÙĬ
ĠÙħÙĪ ÙĤÙģ
ĠÙĪØŃ ÙģØ¸
ĠØ£Ø³ Ø£ÙĦÙĥ
Ø¹ ÙĨØ§
ĠØ§ÙĦÙĨ Ø«Ø±
ĠØ§ÙĦÙĪ ÙĤ
Ġbe au
ÙĪÙĦÙĪØ¬ ÙĬØ§
ĠØ¨Ø§ÙĦ Ø®ÙĬØ±
Ø£Ùĥ Ø¯
ĠØ¥ ÙĬÙħØ§ÙĨ
ĠØ¯ Ø§Ùħ
Ø§ÙĬ ÙĤ
7 7
ĠØª ÙĬÙĥ
ĠØ§ÙĦÙħ Ø³ÙĬØŃ
Ø¸ ÙĦ
ĠØ¶ ÙĦ
ĠØªÙĤ ÙĨÙĬ
ÙĪØ§ÙĨ ÙĨØ§
ĠÙħØ« ÙĦÙĥ
ĠØ±Ø³ ÙĪÙĦÙĩ
ÙĬ Ø§Ø±
ĠÙģ Ø§Ø·
ĠØ³ ØªØ±
ou f
ĠÙĪÙģÙĬ Ùĩ
ĠØ§ÙĦÙħÙĨ Ø²ÙĦ
ĠØ£ÙĪÙĦ Ø¦Ùĥ
w e
Ú ¾
ĠÙĦ ÙģØ¸
ĠØ§ÙĦØ¹Ø§ÙĦÙħ ÙĬØ©
âľ Į
ĠÙĦ Ø¨Ø¹Ø¶
ĠØµ ÙģØ§Øª
ĠÙĪØºÙĬØ± ÙĩÙħ
ĠÙħØŃ Ø±
ÙģØª Ø§ØŃ
ĠÙĬØ® Ø¨Ø·
Ø±ÙĬÙĥ Ø§
ĠØ¨Ø§ÙĦ Ø§Ùĥ
Ø±ÙĪ ÙĬ
Ø±ÙĪ Ùĥ
Ġd Ã©
Ġh na
ĠØ§ÙĤ Ø±Ø¨
ĠÙħØ±ÙĬ Ø¶Ø©
Ø´ ÙĥÙĦ
ĠØ¬ Ø§ÙĨ
ĠÙĪØ£ Ø¨ÙĪ
§ a
ĠÙĪ Ø§ÙĪ
ĠØ° Ùĩ
ĠØ³ÙĬ Ø§Ø±Ø©
Ġâĺ º
ĠÙĩ Ø¯ÙĪ
ĠÙĪØ§ÙĦ ÙĬ
ĠÙģ Ø§
ĠÙĥ Ø¨Ø±
ĠØ§ÙĦØ³ ÙģØ±
ÙģØ³ Ø©
ĠÙĬØ¬ Ø¯
ĠØ§ ÙĩÙħ
ĠÙĬØªØ¨ Ø¹
ĠÙħØª Øª
o f
ĠðŁĴ ķ
ĠØ§ÙĦØ´ÙĬ Ø¹Ø©
ĠÙĩ ÙĨ
ĠØ§Ùĥ ØªØ¨
ĠØ±Ø¬ Ø§Ø¡
ĠÙĪØ§ÙĦ Ùĩ
ĠØ¨ Ø§Ø¯ÙĬ
ĠØ§ÙĦØ£ Ø¯
Ø³ ÙĬØ±
ĠØ¹ Ø§Ø¬
ĠÙĤ ÙĬÙħ
ĠØ§ÙĦØ´ Ø§Ùħ
ĠÙĪÙĨ ØŃÙĪ
ĠØ¨ÙĨ Ø¬Ø§ØŃ
ðŁ« ¶
ĠØ« Ø§Ø¨Øª
ĠØªØ® Ø§Ùģ
ĠÙĪ ÙĨØ§
ĠÙĦ Ø°Ø§
ĠÙĨ ÙĨØª
Ø¶ Ø§Ùģ
Ġc e
ĠÙĬØ´ Ø¨Ùĩ
ĠØ§ÙĦÙħØ´ ÙĥÙĦØ©
ĠØ£ÙĤ Ø±Ø¨
ĠÙĪ Ø¯ÙĬ
ĠØ¹Ø« ÙĬÙħÙĬÙĨ
ĠÙĬ Ø³ÙħÙī
ĠØ° ÙĪÙĬ
is t
a ra
Ø§Ø¹ Ø§
on n
Ø¹ Ø¯ÙĬ
ĠØ¨ ØŃØ±
ÙħÙĪ Ø¶ÙĪØ¹
ĠÙĬ ÙĤÙĦ
ĠÙĦÙħ Ø¯Ø©
ĠØ§ÙĦÙĥØªØ§Ø¨ Ø©
ĠØ¨ÙĪØ± ÙĥØª
Ø§ÙĦ ÙģØ©
ha b
Ø´ ÙĤ
ĠØ§ÙĦØ± Ø§Ø¨Ø·
Ġp df
ĠØ¸ Ø§ÙĩØ±
ĠØ¹ÙĬØ¯ Ùĥ
u re
ØŃ Ø¨ÙĬ
ĠÙģ Ø§ÙĦÙĬ
ĠØ¹ Ø±Ø´
ĠØ³ ÙĥØ±
ĠØ¥ Ø¹
ĠÙĦÙĦ Øº
Ġd i
Ġra ni
ĠÙĤÙĨ Ø´ÙĪ
ÙĦ ÙĨ
ĠÙħ ÙģÙĩÙħ
ĠØ§ÙĦØ¹ Ø§ÙģÙĬØ©
u e
ØŃ Ø¨ÙĬØª
Ø² Ùĩ
ĠØ§ØŃ ÙģØ¸
ĠØ§ÙĦØ±Ø³ Ø§ÙĦØ©
ĠØª Ø±Ø¨
Ø±Ø§Ùĥ ÙĬ
ÙĦÙĪ Ø§Øª
ĠØ° Ø±
Ġ2 6
ÙĪØ§ÙĨ ÙĬÙĨ
ĠÙĬ Ø¯ÙĬÙĩ
ĠØ§ÙĦØŃ ÙĪ
ĠA l
ĠØª ÙĪØ¨
ÙĦÙĬ Ø§Øª
ĠØ¬ Ø§Ø±
Øª Ø§Ùĩ
ØŃ ÙĥÙħ
ĠØª Ø¨Ø±
ĠØ§ÙĦØ¬ Ø§Ùĩ
ĠØ§ÙĦØ· Ø§Ø¨Ø¹Ø©
ĠØ§ÙĨØª Ø¸Ø§Ø±
ĠØ§Ùħ Ø§Ùħ
Ø¹ÙĪØ¯ ÙĬØ©
Ø³ Ø§Ø¯
ĠØ± Ø®
Ø§Ø¨ Ø³
ĠØªØ¬ Ø±Ø¨Ø©
ĠÙĪØ± Ø§ØŃ
ĠÙĪÙģ Ø§Ø©
ÙĪÙĨ Ø¯ÙĬ
ĠØ³ ÙĪØ±
ĠØ§ÙĦØ± Ø§Ø¬ÙĦ
Ġn i
ĠÙĨØ± Ø§Ø¬Ø¹
ĠØ§ÙĦÙħ Ø¹Øª
ĠØ§ÙĦØµØ§ÙĦØŃ ÙĬÙĨ
Â «
Ġf o
ĠØ¯Ø® ÙĪÙĦ
3 8
Ùģ ÙĪØ§
ĠØ£Ø¹ ÙĦÙī
ÙĨ ÙĪØ±
ĠØ´ ÙħØ³
ĠØ§ÙĦØ³ Ø§Ø¨ÙĤØ©
ĠØªØ¹ Ø±Ø¶
Ġcontinu ation
ĠØ§ÙĦØ¹ Ø¶
ĠØ§ÙĦÙħØ® ÙĦÙĪ
ĠÙĬØ¹ÙĬØ´ Ùĥ
ĠØ¨ÙĬÙĨ ÙĩÙħØ§
ĠØ§ÙĦØ§ÙĨ Ø¬ÙĦÙĬØ²ÙĬØ©
ĠØ¨ØŃ Ø«
L A
ĠØ¨ ÙĪÙĦ
ĠØ¨ Ø´ÙĬØ¡
ĠÙĪÙĬ Ø³Ø±
Ġy e
ĠÙħØ¬ ÙħÙĪØ¹
ĠÙĪØ¬Ùĩ Ùĥ
âĿ¤ ðŁİī
ĠÙĨÙĦ ØŃÙĤ
ĠØª Ø³ÙĬÙĬØ±
ĠØªØ§Ø¹ ÙĩÙħ
ĠØµÙĪ ØªÙĥ
ĠØªÙĤØ± Ø§ÙĬ
ĠÙĤÙĨØ´ÙĪ Ø¨Ø©
ĠÙĨ Øº
ĠØ§ØŃ ØªØ±Ø§Ùħ
ĠØ·ÙĦ Ø¹ÙĪ
r es
ĠÙĨ ÙĪØ¶
ĠØ§Ø¨ Ø±
ĠØ£ØŃÙĬ Ø§ÙĨØ§
c om
Ù £
ĠÙģ Ø®
ĠØ§ÙĦØ¹ ÙĪ
ĠØ§Ø³Øª Ùģ
ĠØ§ÙĦ Ø§Øº
ĠÙĥ ÙĦÙĬ
ĠØ´ Ø±ÙĥØ©
ĠØ¨ ÙĤÙĪØ©
ĠØªØŃ ÙģØ¸
ĠØ£Ø¬ Ø¯
ÙĦ ÙĪÙĦ
ĠÙĥ ÙĦØ§
ðŁĺ ¹
ĠØ§ÙĦØ¬ Ø§ÙĬ
Ø§ÙĤ ÙĬØ©
ĠØ¸ Ø§ÙĩØ±Ø©
ĠÙģ ÙĦØ¨
Ø§Ø¹ ÙĬØ©
ĠÙĤÙĦÙĬ ÙĦØ©
ÙĤ ÙĦØ©
ĠØ§ÙĦØ¹ ÙĦÙĬØ§
ĠØ§ÙĦØ£ Ø´ÙĬØ§Ø¡
ĠØ§ÙĦØ± Ø§Ø¦Ø¹
Ġd ar
ĠØ±Ø£ Ùī
ĠØµØ¹ ÙĬØ¨
ĠÙħØ´ Ø§ÙĥÙĦ
ĠØ§ÙĦØº ÙĬØ±
ĠØ¹ Ø§ÙĪ
b b
ĠÙĬ ØŃÙħÙĦ
ĠØ² ÙĪØ§Ø¬
ĠÙĨÙĦÙĤ Ø§
Ø¹ ÙħØ±
Ùģ ØªØ´
ĠØ¨ ÙĪÙħ
ĠÙĦ Ø¬ÙħÙĬØ¹
ðŁĴ ĵ
ĠØµØ§ÙĨ Ø¹Ø©
ØŃ ØµÙĦ
ĠØª ÙĪÙģ
ĠÙĨ ÙģØ¹
ĠØŃ Ø§ÙģØ¸
Ġ2 2
ØŃÙĬ Ø§ØªÙĬ
ĠÙģÙĤ ÙĦØª
ĠØ¬ Ø§Ø±ÙĬØ©
ĠØ§ÙĨ Ø³
ĠØ§ÙĦÙĤ ÙĪ
ĠØ§ÙĦÙĤ ÙĬØ§Ùħ
Øª Ø³Ø¨
ĠØ§ÙĦØŃ ÙĦÙĪ
Ġj a
ĠØª Ø±Ø¬Ø¹
ĠÙĦÙĦ Ø±
ĠØ§Ø¨ ØªØ¯
ĠÙħØ± ÙĪØ±Ùĥ
ĠÙĨØŃ ØªØ§Ø¬
ĠØ¹ÙĨ ÙĪØ§ÙĨ
Ø§Ø² Ø©
ĠÙĨØ¨ ÙĥÙĬ
ÙĨ ØŃØ¨
ĠØ§ÙĦØ® Ø¯ÙħØ©
ĠÙĪÙħ ÙĥØ§ÙĨ
ĠØ§ÙĦÙĨØ¨ÙĪ ÙĬØ©
o la
ÙĥØ± Ø±
ĠØªØŃ Ø³
ĠÙĪÙħ Ø§Øª
Ġy our
Ø· ÙĦØ©
ĠÙĩÙĥ Ø¯Ø§
ĠÙĦØŃ Ø¸Ø©
ĠÙħØ¹Ø±Ùģ ØªØ´
ĠÙĨ Ø¹ÙĦÙħ
Ġa r
ĠØ§ÙĦÙħØ³Øª ÙĪÙī
Ø§ÙĦ ÙĤØµØ©
ĠØ¹ÙħØ± ÙĩØ§
t y
ÙĪ ÙĥÙħ
Ùĩ ÙĪØ©
ĠØ§ÙĦÙĤ Ø¯ÙĬÙħØ©
ÙģØ± Ø§Ø¯
l ou
Øª Ø¹ÙĬ
ĠØµÙģ ØŃØ©
ĠÙĬ Ø³Ùħ
ĠØ¬ ÙĬØ¯Ø©
ĠØ²ÙĬ Ø§Ø¯Ø©
Ø¬ Ø§Ùĩ
ĠÙĪØª Ø³
ĠØ³Ø¹ ÙĬØ¯Ø©
ÙģÙĬ Ø§ÙĨ
ĠÙĪÙĩ ÙĨØ§Ùĥ
Ġk am
ĠØ£Ø± Ùī
ĠÙĨÙĤ ÙĦÙĥ
ĠØŃ Ùģ
ĠØ¬ Ø±Ø¨
ĠØ¬ ÙĩÙĨÙħ
ĠØ§ØŃ ÙħØ¯
ÙĪØ§Øª ÙĬ
ĠÙĨÙĤØ¯Ø± ÙĪ
Ø¹ Ø«
ĠØ§ÙĦÙħ ÙĬØª
ĠØ§ÙĦØ¨ÙĦ Ø¯
ÙĪÙħÙĨØª Ø§Ø±
cha llah
ĠÙĪØ§Ø¶ ØŃ
ĠÙĪ Ø¨Ø±
ĠØ§ÙĦØ¨ Ø¯Ø¹
ĠØ· Ø±ÙĤ
ÙĪØ¯ ÙĬØ©
ĠØ¹Ø¨ Ø§Ø¯Ùĩ
ĠØ§ÙĦÙħ ØŃØ±
ĠØ§ÙĦØ¹ ÙĬ
ĠØ§ ÙĤÙĪÙĦ
Ø§Ùĥ Ø±
ĠØ¬ Ø¹ÙĦÙĩØ§
ĠØ§ÙĦØŃ Ø³Ø§Ø¨
ĠÙĬÙĤ Ø¹
ĠØ£Ùĩ ÙĦÙĩØ§
Ã¨ s
ĠØªÙĪØŃØ´ ÙĨØ§
Ø£ ÙĪÙĦ
ĠØ¶Ø¹ Ùģ
Ø§ÙĨ ÙĬÙĨ
ĠØªØ¨ ÙĥÙĬ
Ø² ÙĬÙĥ
ĠØ§ÙĦØ¹ Ø¯ÙĬØ¯
ĠÙĪÙĨ ÙģØ±ØŃÙĪ
ĠÙĪØ¬ ÙĪÙĩ
ĠÙĪ Ø¨Ø¯
ĠØ§ÙĦØ® Ø§Ø±Ø¬
ĠØŃ Ø±ÙĥØ©
ĠØº Ø¯Ø§
ha ha
ĠØ¯Ø± ØªÙĬ
Ø¬Ùħ ÙĦØ©
Ø¯Ø¹ÙĪ Ø§ØªÙĥÙħ
ĠÙĪØ§ÙĦØ¢ Ø®Ø±Ø©
Ġw la
ĠÙĪÙħ ØŃ
ØŃØ¯ Ùī
ĠØ§ÙĦÙħØ´ Ø±Ùĥ
ĠÙĪØ§ÙĦ Ø¹ÙĦÙħ
ĠØ§ÙĦØ¹ Ø¯ÙĪ
Ø±Ø§Ùĥ ÙĦÙĬØ·Ø§
ĠØ£ÙħØ± Ùĩ
Ø§Ùħ Ùĩ
ÙĦÙĪ ÙĥØ§ÙĨ
ðŁĩ ©ðŁĩ¿
oo p
Ø£Ø³ØªØ§Ø° Ø©
ÙĤ ÙĪÙħ
ĠØ± ÙĤØ¯
ĠÙĬØ´ÙĪÙģ ÙĪ
ðŁĴ ŀ
Ø¹Ø±Ùģ Ø´
ĠØ§ÙĦÙħØ¬ Ø§ÙĦ
Ø³ ÙħØ§
ĠØ¨Ø§ÙĦ Ø·
ĠÙĬ Ø³ÙĦÙħ
ØªÙĩ Ø¯
Ġw al
ĠØ§ÙĦØ¢Ø®Ø± ÙĬÙĨ
ØŃÙħØ¯ Ùĩ
ĠØ§ÙĦØ· Ø¹Ø§Ùħ
ĠÙĨØ§ÙĤ Øµ
ĠØ§ÙĦÙħ Ø«
Ø§Ø¯ Ø¹ÙĪ
ĠØªØ¬ Ø±ÙĬ
ĠÙĦØ¨ Ø§Ø³
Ø§ÙĦ ÙģÙĬØ¯ÙĬÙĪ
Ùĥ ØªØ¨
ĠÙħ Ø²ÙĬØ¯
Ġm ar
ĠØ¶ ÙħÙĨ
em ent
ĠØ§ÙĦÙĪÙĦØ§ ÙĬØ©
ĠÙħ ÙĪØ§ÙĤØ¹
ĠØ§ÙĦØ¹Ø¨ Ø§Ø¯Ø©
Ø§ÙĦ Ø¹Ø¨Ø§Ø³ÙĬØ©
ĠØª ÙĤÙĦ
ĠÙħØ¹ ÙĨØ¯ÙĬØ´
ĠØ§ÙĦØ´ÙĬ Ø§Ø·ÙĬÙĨ
ĠØ§ÙĦÙĦÙĤ Ø§Ø¡
Ø§ÙĦ Øº
Ø¨ ÙĩØ§
ĠØª ØŃÙħÙĦ
ÙĦÙĬ Ùģ
ĠÙĦ Ø§Ùĩ
ĠÙĬØ§Ø³ Ø±
ØŃ ÙĬØ©
Ø° ÙĪ
ĠØµØº Ø§Ø±
Øª ÙģØ±Ø¬
Ø· ÙĬÙĨØ§
ÙĨØ§ ÙĪ
Ġkh ou
Ùħ ÙĬØ©
ĠÙĥÙĨØª Ùħ
Ø®Ø§Ùģ Ø´
ĠØ ©
ĠÙĪ Ø³Ùħ
ĠÙĦÙĦ Ø·
ĠØ£Ùħ ÙĬØ±
ĠØ¬Ø§ÙĪØ¨ ÙĨÙĬ
ĠÙĪ Ø³Øª
ĠÙħ Ø§ÙĨÙĬ
Ø§Ùģ Ø¹ÙĬ
ĠØ¹Ø§Ùħ ÙĬ
ĠÙģØª Ø§ÙĪÙī
ÙħØ§Ø´ ÙĬ
ĠØ¨ÙĬØ¯ Ùĩ
ÙĪØ³ ÙĪ
Ø¯ Ø§Ø±Ø©
ĠØªØ¹ Ø±ÙģÙĬ
ĠØ¨Ø± Ø§
Ø¨ Ø§Ø¹
ĠÙħØª Ø¹
ĠÙĬ Ø±Ø¬
ÙĬÙĨ Ø§Øª
ĠØ§ÙĦÙħ Ùħ
ĠÙĪÙĥ Ø§ÙĬÙĨ
ĠÙĤØµ ØªÙĬ
ĠØ§ÙĦÙħØ¹ÙĦ ÙĪÙħØ©
ðŁĺ İ
ĠÙĬØ´ Ø§Ø¡
ĠØ§Ø®ØªÙĬ Ø§Ø±
ĠØ´Ø®Øµ ÙĬØ§
Ø¨ Ø³
ĠØ¨ ÙĤØ¯Ø±
ĠØ¹ Ø¬Ø¨ÙĨÙĬ
ĠØª ÙĪØ¬
ĠØªØ¹ ÙĬ
ĠØ§ÙĦØ¨ Øµ
Ø¹Ø¯ Ø©
ĠÙĪÙĬ Ø®
Ø§Øµ ÙĦØ©
H A
ĠØ¯Ø§Ø± ÙĨØ§
ĠØ£Ø¨ÙĪ Ø§Ø¨
ĠØ¨Ø§Ø¯ÙĬ Ø³
i c
Ø±ÙĬ Ùĩ
Ø§Ø³Øª ØºÙģØ±
ĠÙĪÙĨ ØªÙĬ
ĠØ® ÙĪÙĥ
ĠÙħØ¹ ÙĨ
ØªÙĪ Ø¨Ø©
Ø¨Ùĩ Ø©
ĠÙĪØ§ÙĦ Ø§Ø®
ĠØ§ÙĦÙĥ Ø°Ø¨
ĠÙĨØµ Ø§Ø¦ØŃ
Ø¹ÙĦÙĬ Ùĩ
1 00
ĠØ§ÙĦ ÙĦÙĪ
ĠØ§ÙĦ ÙĪÙģ
ĠØµ ÙĬØ§Ùħ
ÙģÙĬ ÙĩØ§
ĠÙĪØ§Ø± ØŃÙħ
Ø§Ø¶ Ø©
ĠÙĬØ® ÙĦÙĬ
ĠÙĬ ÙĤØ¯Ùħ
ÙĪØ¹ ÙĦÙĬÙĥÙħ
ÙĦØ³ ÙĦØ§Øª
ĠðŁĺĬ âĿ¤
ĠØ¬Ø§Ø¡ Øª
ĠÙĦ ØŃÙĥØ§ÙĬØ§Øª
ĠØ® Ø®
ÙĤÙĬ Ùĩ
Ø²ÙĪØ¬ Ø©
ĠÙĬÙĦ Ø²Ùħ
ĠÙĪÙĬÙĪÙģÙĤ Ùĥ
Ø¨ Ø§ÙĬÙĨ
ÙĪØª Ø±
ĠÙħÙħØªØ§Ø² Ø©
ĠØ¨ÙĦ Ø¹
ĠØ¨ÙĦ Ø§ØµØ©
ĠØ§ÙĦÙĩ Ø¯Ø±Ø©
ĠÙĦØ§ÙĨ ÙĩØ§
Ġch ik
ĠØ±Ø§Ø³ Ùĥ
ĠÙĨ Ø«Ø±
ĠØ§Ùħ ÙĬÙĬÙĨ
or t
ĠØ¨Ø§Øª ÙĨØ©
ØµØŃ Ùģ
Ġp la
ĠÙĨÙĪ ØµÙĦ
Ġbi en
Øª ÙĬÙĨÙĬ
Ø§Ø± Ø³
Ġa ve
ĠØªÙģ Ùĥ
Ø¨Ø§ÙĦ ØªÙĪÙģÙĬÙĤ
ĠØ§ÙĦØ£ Ø±Ø¨
ha r
3 1
ĠØŃ Øµ
ĠØªØ¹ ØªØ¨Ø±
ĠÙĬÙĪÙħ ÙĬØ§
ĠØ§ÙĨ ÙĩÙħ
ĠØ§ÙĦØ± ÙĤÙĬØ©
Ġy h
ĠØ¯ÙĬÙĨ Ùĩ
ØŃ Ø§Ø¯
ĠØ² Ø±
on ne
ĠÙĬØ® Ø§Ùģ
ÙĤØµ Ø¯
ĠÙħ ÙĬÙĦ
Ø±ÙĪ Ø¹Ø©
ÙĦØ³ Ø©
k e
ĠÙĬ ÙĤØ±Ø§ÙĪ
ĠÙĨØ³ Ø£ÙĦÙĥ
ĠØ§ÙĦØ¯ Ø§Ø®
ĠØ¯ÙĬ Ø§ÙĦÙĥ
ĠðŁĺ® ðŁĺ®
4 8
ÙĦÙĬ ÙħØ§
Ġma chi
ĠØµ Ø§Ø¯
ĠØ´Ø§Ø¨ ÙĬÙĨ
ĠØ§ÙĦØ¬ ÙĬØ´
ĠØ§ÙĦØ¯ Ø¬Ø§ÙĦ
ĠØ¨ÙĨ Ø§Ø¯Ùħ
Ø´ ÙĥØ±
ĠÙħØ³ ÙĥÙĪÙĨ
ØŃØ± Ø§Ùħ
ĠØ®ÙģÙĬ ÙģØ©
Ġ |
ÙĦØ§ ÙĪØ©
C h
ĠÙĪØ£ Ø®
ØªÙħ Ø¨Ø±
ĠØ§Ø¨ ÙĪ
ĠØªÙĦ Ø¹Ø¨
Ø¯Ø¹ÙĪ Ø©
m al
ØŃ ÙĦØ©
Ø§Ø· ÙĬ
âľ ħ
ĠØ±ÙĬØ¯ Ø§ÙĥØ³
Ùĥ Ø§ÙĦ
ĠÙĦ ÙģØ±
ÙĬÙĨ Ùĥ
ÙĪÙĦ ÙĥÙħ
ĠØ§ÙĦØ£ ØµÙĦ
Ġs i
ĠØ·ÙĪÙĦ Øª
ĠÙĪ Ø³ÙĦØ§Ùħ
Ø´ Ø§
Ġth is
ÙĨ ÙĤØ¯Ø±
Ø§Ø² Ø¹
Ø§Ø¦ ÙģØ©
ĠØ· Ø±
ĠØ· Ùģ
ĠÙħØ± Ø´
ĠØ¸ ÙĩÙĪØ±
ĠÙħÙĤØ§ÙĦ Ø©
6 6
D ir
Ø§Ø¨ Ø¹ÙĬÙĨ
ĠØ¸ ÙĨ
ĠÙĨØ¬ØŃ Øª
Ø§ÙĦ ÙĥÙħ
ÙĦØ§ ÙĬ
Øº Ø§ÙĨ
ĠØ§ÙĦØ£ Ø²
ĠØ§ÙĦÙĤØ± Ø§Ø¡Ø©
Ø§Ø´ Ø©
ØªÙĪ Ùĥ
ÙĪÙĤ Ùģ
ĠÙĪØ§ÙĦÙħ Ø³
ðŁ¤² ðŁ¤²
ØºÙĦ Ø·
our s
ĠÙħÙĦØ§ØŃ Ø¸Ø©
ĠÙĪ Ø±ØŃ
ðŁĺ ĩ
ĠØ² ÙĬØª
Ø¹Ø§ ÙĪÙĨ
isto ire
Ø² Ø§ÙĤ
Ø³ÙĨ ÙĬÙĨ
ĠÙħØ³ Ø§Ø¡
ĠØ°ÙĥØ± Øª
ĠØ§ÙĦÙħÙĩ Ø¯ÙĬ
Ø¶ Ø¨Ø·
ĠØ¬ ØºØ±Ø§ÙģÙĬØ§
ÙĪ ØªÙĥ
ÙĤ ÙĦØ¨
ĠÙĨ Ø¹ÙĬ
c oup
d o
l es
ĠØ¨ Ø¶ØŃÙĥ
ĠØ´ ÙĩØ¯
ĠØ§Ø± ÙĪØ¹
ĠØ§Ø¬ Ø¯
ĠØ³Ø§Ùħ ÙĬØ©
ĠØ¹ Ø§ÙĬ
Ø£ ÙĪ
ĠØ£Ø± ØŃÙħ
ĠØ«Ø§ÙĨ ÙĪÙĬ
ĠØ¨ Ø±Ø¬
ĠØ¹ Ø§ÙĦÙĬ
Ø° ÙĬØ±
ÙĨØª ÙĬÙĨ
ÙĪÙĬ ÙĤ
ĠØ§Ø³ØªØ§Ø° ÙĬ
ĠØ§ÙĦØ´Ùĩ ÙĬØ¯
ÙĪ ØªÙĪØ¨
ÙĤ ÙĦØª
ĠÙħØ¬ Ø¯
ĠØ¯ ÙħØª
ÙħØ§ Ùĩ
ĠÙĪØ¬ ÙĩÙĩ
ĠØ§ÙĦÙħØµ Ø¯Ø±
ĠØ§ÙĦÙħ Ø±ÙĬØ¶
âĢ ¢
ĠØ´Ùģ ØªÙĩØ§
Red x
Ġ ri
ĠÙĦ Ø¯ÙĬÙĩ
ĠÙĤ Ø§Ø¦ÙħØ©
Ø§Ø¦ Ø²
ĠØ· ÙĪØ§ÙĦ
Ø¨Ø±Ùĥ Ø©
Ø¬ ÙħØ¹
Ø´ Ùī
ĠØ§ÙĬ ÙħØ§ÙĨ
ĠÙĥØªØ§Ø¨ Ø©
Ġr Ã©
ĠØ£ Ø¸ÙĨ
Ø¨ ÙĪÙĨ
Ø¨ ÙĪØª
ĠØ¹ Ø±ÙĪ
ÙĨØ§ ÙĬØ©
ĠØªØŃ Ø¯Ø«
ĠØŃÙĥØ§ÙĬ ØªÙĬ
ØªØ¨ Ø§Ø±Ø§Øª
ĠÙĦÙĦÙħ Ø±
ĠÙĤÙĦÙĪØ¨ ÙĩÙħ
ĠØ§ÙĦØ± Ø§Ø¨Ø¹Ø©
ĠØ£ÙĪ ÙĦÙī
ĠÙħØµ Ø¯Ø±
ĠØ§ÙĦØ³ Ø§Ø¨ÙĤ
Ø¢ Ø¢
Ø§ÙĤ ÙĦ
ĠØ±Ø¬Ø¹ ÙĪÙĨÙĬ
Ø³Øª ØºØ±Ø§Ùħ
r k
ĠÙĤ Ø¯ÙĬÙħØ©
ĠÙĪØ§ÙĦÙĨ Ø¬Ø§ØŃ
ĠÙĩ Ø¯ÙĬÙĥ
ĠØ§ÙĦØ¹ Ø¶ÙĪ
ÙĦÙĤ Ùī
ĠÙĪÙĦ ÙĤØ¯
ĠØ§ÙĦØ« Ø§ÙĨ
ÙģØ¹ ÙĪÙĦ
ĠØ§ÙĦÙħØ± Ø§Ø¯
Ġt hat
R ak
m en
Ø§ÙĨ ÙĪ
ĠØª Ø±Ø¨ÙĬØ©
Ø« ÙĦØ©
ØŃØ¯ Ø§Ø«
L a
ĠÙĩ Ø¯Ùĩ
ĠÙĤ Ø¯ÙĬØ±
Ø³ÙĨ Ø§Ø¯
ĠÙĬØ£ Ø®Ø°
ĠÙĨØ² ÙĦØª
Ø³ÙĥØ± ÙĬØ©
ĠØ§ÙĦ ÙĬØ¯
ĠÙĦÙĬ ÙĩØ§
ĠØ§ÙĦØ´ ÙģØ§Ø¡
ĠØªØ³Øª Ø·ÙĬØ¹
ĠÙĬÙħ ÙĦÙĥ
ĠØ¬Ø§ÙĪØ¨ ÙĪÙĨÙĬ
ÙħÙĨ Ø©
ÙĪØ³ Ø©
ĠÙĬØ³ Ø£ÙĦ
Ø¹ Ø§ÙĬØ©
ĠØº Ø²Ø©
ĠØ§ÙĦØ¯ Ø®ÙĪÙĦ
ĠØ§ÙĦØ® Ø±ÙĪØ¬
Ġsa ha
u b
Øª Ø§Ø¹
ĠÙĨ Ø¨Ø¯
Ø§Ø± Ø¦
ĠØ§ÙĦØ³ ÙĦÙĪØ§ÙĨ
Ø°Ø± ÙĬØ©
ĠØ¬ Ø¨ÙĦ
ĠØµ Ø§ÙĦØŃØ©
ĠØ§ÙĦØ´ ÙĩØ¯Ø§Ø¡
ðŁ¤ Ĺ
ÙģØ¹ Ø§ÙĦ
ĠØ§ÙĦÙģ ÙĥØ±
Ø§Ø· Ø¹
ØµØ± ÙĬØ©
Ø³ Ø¹
ĠØ¨ ÙħØ±
ĠÙĤØ§ÙĦ Ùĩ
ĠÙĪØ§ÙĦØ¯ ÙĬÙĨØ§
ĠÙĨØŃÙĥÙĬ ÙĦÙĥ
ĠØ«Ø§ÙĦØ« Ø§
ĠØª ÙħÙĨ
Ø³Ø§Ùħ ØŃ
ĠÙĨÙĪØ±Ùħ Ø§ÙĦÙħÙĪ
ĠÙģ Ø·ÙĪØ±
Ø§Ø³ Ø§Øª
ĠØ§ØŃ ØªØ±
ĠØ§ÙĦÙħÙĪ Ø³ÙĬÙĤÙī
Ø·Ø¨ÙĬ ÙĤ
ĠØ± ÙĤ
ĠØ¬ Ø§ÙĨØ¨
Ø¹Ø¯ ÙĨÙĬ
ĠÙĬÙģ ÙĪØª
ĠØª Ø¸ÙĩØ±
Ø¨ÙĬ Ø§Øª
Ø±ÙĬ Ø¯ÙĥØ³
Ġg o
t ha
ĠÙģ Ø¯
ĠØ§ÙĦÙģØª ÙĨØ©
ĠØ¨ Ø«
ĠØ¨ ÙĬØ§
ĠØ§ÙĦØª Ø¯
ĠØ§ÙĦØ§Ø® Ø±
Ùĩ ÙĨØ§
ĠØ· Ø§Ø¹Ø©
Ġc an
Ġp e
Ø¨ÙĤ Ø§Ø´
ĠØªÙģØ±Ø¬ Øª
ĠÙĪÙĦ Ø¯ÙĬ
ÙĪØ± Ùĩ
ĠØ§ÙĦØ¹ Ø¯
ĠØ¹Ùħ Ø§Ø±
ĠÙħØ§Ø¹ ÙĨØ¯
ĠÙĬ ÙħØ±
ĠÙħÙĨ ÙĤØ¯Ø±Ø´
ĠØ§ÙĨ ØµØ±
ĠÙħÙĨØª Ø¯ÙĬØ§Øª
Ø§Ø¦ Ø±Ø©
ĠÙħØ¹ÙĦÙĪÙħ Ø©
---------------- ----------------
S epia
Øª Ø³Øª
Øµ Ùī
ðŁĺ ¥
ĠØ§ÙĦÙħ ÙħÙĬØ²
Ø§Ùģ ÙĬÙĩ
ĠØ§ÙĦØ¯ Ø¹Ùħ
ĠÙĤØ± Ø£Øª
ĠØ³ÙħØ¹ ØªÙĩØ§
ou k
ĠØªÙĦÙħ Ø³Ø§ÙĨ
Ùģ ÙĩØ§
ĠÙĨ ÙĪÙģ
ĠØ§ÙĦØŃ Ø§ÙĥÙħ
ĠØ§ÙĦØŃ ØµÙĪÙĦ
ĠÙĪÙĨ Ø¹
ĠØ¨ Ø®ØµÙĪØµ
ĠÙħØ´ Ùĥ
ĠØ§ÙĦØ· ÙĦ
ĠÙĪÙħØ± ØŃØ¨Ø§
ĠØ¨Ø³Ø± Ø¹Ø©
E D
Øº ÙĪ
ĠØ§ÙĦØ¬ Ø±
Øª Ø²
ĠÙħØ¹ ÙĥÙħ
ĠØ§ÙĦÙĨ Ø²
ØªÙĩ Ø§Ø¯
Ø¨ ØªÙĩ
ĠØ¨ Ø·Ø§ÙĤØ©
ĠØ¨Ø¯ Ø£Øª
ĠØ¹Ø§Ø¦ ÙĦØ©
Ù ¾
ĠØªØŃ ÙĥÙħ
' s
ĠÙĪØ§ÙĦ Ø°ÙĬÙĨ
Ø§Ø² Ø§ÙĦ
ĠØ§ÙĦÙĪ Ø§Ø±
ÙĨ ÙĨ
Ø´Ø± ÙĬÙĨ
ĠÙħÙĬ Ø³
ĠØ£Ø¨ ÙĨØ§Ø¡
3 4
ÙĪ Ø§Ùĥ
ĠÙĬ ÙĪØµ
Ø´ Ø§Ùħ
Ø£ ØªÙĬ
ĠØŃØ¨ Ø³Øª
ÙĪ Ø§ØŃÙĬ
ĠÙĬ Ø«
ĠÙĬØ§ Ø§
ĠÙĦØ¹ Ø¨Ø©
ĠÙħ Ø°
ra k
Ù ¥
Ø³ ÙĦÙĬÙĨ
Ġa u
ĠÙħÙĬÙħ Ø²
Ø®Ø± Ø§Ø¬
ĠØ¨Ø¯ Ø§Øª
v p
ĠÙĦ ÙĪÙĨ
ĠØº Ø±ÙĬØ¨Ø©
ĠØ§ÙĦØ¥ Ø¹
ðŁĴ ¯
ØŃ ÙĥÙĬ
ĠÙĦ Ø§Ø³Øª
ĠØ§ÙĦØ® ÙĦÙĬ
ĠÙĨØª Ø§Ø¦Ø¬
ĠÙĪÙĦ Ø°ÙĦÙĥ
99999999 99999999
ĠÙĤ ÙĪÙĬØ©
ĠØ§ÙĦØ¨ Ø§ÙĤÙĬ
ĠÙĬÙĤÙĪÙĦ Ùĥ
ĠØ§Ø´ Øª
ÙĪØ± Ø§ÙĦ
it h
ĠØ§ÙĦÙĨØµ ÙĬØŃØ©
ĠÙħÙĨ Ø²
ĠØ§ÙĦØª ÙĦÙģ
ØŃÙĬ Ø·
ÙĤÙĪ ÙĦÙĩØ§
ĠØ¨Ø±Ùĥ Ø©
ĠØŃØ³Ø¨ ÙĨØ§
ĠÙĪ ÙĤÙĬ
Ùģ Ø§ÙĤ
ĠÙĪÙĩ ÙĨØ§
ĠØ§ÙĦØ° Ùĩ
ĠØ§ØŃ ÙĨØ§
ĠØ§ÙĦÙħØ´ Ø§Ø±ÙĥØ©
ĠÙĬÙĨØ¬ØŃ ÙĨÙĬ
ÙģÙĬ Ùĥ
ĠØ§ÙĦÙģ Ø¶
ĠØ§ÙĦÙĥØ± Ø³ÙĬ
ĠÙĪØ§ÙĦ Ø¹ÙħÙĦ
ÙĪØ± ÙĩÙħ
ĠðŁĻĤ ðŁĴĶ
j e
ĠÙħ Ø§Ø¬
Ø§Ø® ÙĪØ©
Ġn o
Ġqu i
ĠØ§ÙĦØ¬Ø§Ùħ Ø¹
Ø¨ ÙĪÙĥ
ĠÙħ ÙĬØ¯
ĠØ§Ø³ ÙĦØ§Ùħ
ĠØªØ¹ Ø¨Øª
Ø§Ø¤ Ùĩ
ĠØ¯Ø§ÙĬ ÙħÙĨ
ĠØ¨ Ø¨Ø¹Ø¶
Ø¹Ø¯ Ø¯
ĠÙĬØ¯ Ùĩ
ĠØ§ÙĦÙħØ± Ø¡
ĠØ£ØŃ Ø§Ø¯ÙĬØ«
ĠÙĤØ· Ø¹
ĠÙģ Ø§Ø´
ĠÙĦØ£ ØŃØ¯
ĠÙħØ±ØŃ ÙĦØ©
ĠØ¨ ÙĤÙĬØ©
ĠØ¹ Ø±Ø¨
ÙĬØ± Ø§Øª
Ø¨ÙĬ ØŃ
ÙĪÙħ Ø§Øª
ĠðŁ Ķ
ĠÙĥÙĦ ÙĨØ§
ĠØ« ÙĤØ©
ĠÙĬØª Ø±Ùĥ
ĠÙħØ® ØªÙĦÙģØ©
Ø¯ÙĤ Ø§Ø¡
ĠØª Ø±Ø¨ØŃ
ĠØ§ÙĦÙĨ Ø¸Ø§Ùħ
ĠØ§Ùĥ ÙĪÙĨ
ĠØ§ÙĦØ§Ø³ Ø§ØªØ°Ø©
ĠÙĪÙħ ÙĪ
ĠÙĨÙĦÙĤ Ùī
ĠØ§ÙĦØ§ÙĤ ÙĦ
ĠÙģØ§Ø· ÙħØ©
ÙĦÙĬ Øª
Ø§Ø¯ ÙĦ
ĠØ² Ø§ÙĦ
Ø¨ ÙĪØ±
ÙĨØ§ ÙĪÙĦ
ĠÙĬØŃ ÙĦ
ĠØ§ÙĦØµ ÙģØ§Øª
ĠØ¹Ø¨Ø¯ Ø§ÙĦÙĦÙĩ
ĠÙħÙĩÙħ Ø©
ĠØ§ÙĦØŃÙĥÙħ Ø©
ĠØ¹ Ø³
Ø§ÙĬ Ø¯
as s
Ú ¯
ĠÙħ ØªÙĥ
Ø¨ÙĤ Ø±Ø©
Ġki f
Ø£ ÙĨØª
ĠØ§ÙĦÙħ ÙĤØ¯
ĠØ³ ÙĬÙĨ
ÙħÙĬ Ùĩ
ĠÙĨØ´ Ø§Ø·
ĠØ§ÙĦØ§Ø® ÙĬØ±Ø©
Ġ195 6
ĠØ´Ø¦ Øª
g ra
Ø§ÙĦ Ø·
Ùģ Ùģ
om a
ĠØªØµ Ø±Ùģ
202 4
ĠØªÙĦÙĤ Ùī
ĠðŁĻı ðŁĻı
ĠðŁĶ¥ ðŁĶ¥
ĠØµØ¹ ÙĬØ¨Ø©
im p
ĠØ¨ Ø±Ø¨ÙĬ
ĠØ£ Ø®Ø±
ĠØªØ´ ÙĪÙģÙĬ
Ø§ÙĦØª Ø§ÙĦÙĬ
ĠØŃÙĦÙĪ Ø©
ĠØ¹ Ø¯ÙĪ
Ø±ÙĬ Ø¶Ø§
Ġm in
ĠØªØª ÙģØ±Ø¬
ĠØ£ÙĨ ØªÙħ
ĠØ§ÙĦØ£ Ø³ÙħØ§Ø¡
Ġ: "
ĠÙħÙĤØ§ÙĦ Ø§Øª
ĠÙĨÙĦ Ø¹Ø¨
Ġlik e
ĠÙĦ Ø®Ø±
ĠÙģÙĬ ÙĥÙĪÙĨ
ĠØ¥ Ø°ÙĨ
ĠØ¨Ø§ÙĦÙħ Ø§Ø¡
ĠÙĬÙħ Ø¯
ĠØ¹ Ø§Ø¯Ø©
ĠØ£ Ø°
ĠØ§ÙĦØ¬ ÙĩÙĦ
Ġd a
ĠØ§ÙĤ ÙĦ
ĠÙĬ Ø³Ø¨
Ø§Øª ÙħØ©
ĠØ§ÙĦÙħ Ø«ÙĦ
ĠØ§ÙĦØŃØ± ÙĬØ©
Ġme ille
Ø§Ùĩ Ø¨
Ø¯ÙĬØ± ÙĪ
ĠØªØ¨ Ø¯Ø§
ĠØ§ÙĦØ¸ ÙĨ
ĠÙħÙĦØ§ ÙĬÙĨ
ĠÙĨ Ø±ÙĬØ¯
Ø§Ø¯ ÙħØ©
ĠØ§ÙĦØ´ Ø±ÙĬÙģ
ĠØ² Ø¹Ùħ
ÙĥÙĦ Ùģ
ĠÙħØ³ ÙĥÙĬÙĨØ©
ĠÙĪØµ ÙĦÙī
ĠÙĤÙĪÙĦÙĬ ÙĦÙĬ
ĠØ§Ø±Ø²ÙĤ ÙĨÙĬ
ĠÙħ Ø®Ø±Ø¬
ĠÙĨ ÙħÙĪ
ĠØ³ ÙĦÙĬÙħ
ĠØ§Ø³Ùħ Ùĥ
Ġbeau coup
Ùĥ Ø©
ĠÙħ ÙĥØ±
Ø¯ÙĪ ÙĤ
ĠØ§ÙĦÙĤ Ø¯ÙĬÙħ
ĠØ£ØŃØ¯ ÙĥÙħ
ĠÙĤ ÙĪÙĬ
ĠØŃ Øª
Ġto p
ĠØ¬ Ø³
ĠÙĪÙħÙĨ Ùĩ
ĠØªØ¨ ÙĬÙĨ
ĠØ±Ø£ Ø³Ùĩ
ðŁĮ ¸
ĠðŁ¥º ðŁ¥º
ĠÙħØŃÙħ Ø¯Ø§
ĠÙĤÙĦ ØªÙĬ
ĠØ·ÙĦ Ø¹Øª
ĠÙĤØ§ÙĦ ÙĩØ§
ÙĦØª ÙĨØ§
ĠÙĪØ± ØŃÙħ
ðŁ¥ Ģ
ĠØ¨ Ø§Ø®
ĠÙĨ Ø¯ÙĪ
ĠØ§ÙĦØ£Ø® ÙĬØ±Ø©
Ø±ÙĬ ÙĬÙĨ
Øª Ø§ØŃ
Ø´ ÙĩØ§Ø¯
ĠÙģØ£ ÙĨØ§
Ø¬Ùħ Ø§Ø¹
ĠØŃÙħ ÙĬØ¯
ĠØ¨Ø±ØŃÙħ ØªÙĩ
Ġ^ ^
ĠØ¥ ÙħØ§Ùħ
ØªÙĪØŃØ´ ÙĨØ§Ùĥ
Ã Ĺ
ĠØª ÙĤÙĬ
ĠØ§ÙĦØ£ ÙĤÙĦ
ĠØªØ¨ ÙĪÙĨ
m es
ÙħØ± ÙĬÙĨ
ĠØ§ÙĦÙĪ Ø¶Ø¹
ĠØºØ§ÙĦ Ø·Ø©
ĠØ¨ ØªÙĪ
ĠØ¨Ø§ÙĦ Ø®
ĠØ¨Ø¹ Ø¶Ø§
ĠÙĬØ¯ Ø¹ÙĬ
Øª Ø§Ùħ
ĠØ§ÙĦØ± Ø§Ø¨Ø¹
ĠØ§ÙĦÙĥ Ø§ØªØ¨
ĠØ§Ùħ ÙĦ
ĠØ§Ø´ ÙĩØ±
ĠØ£Ø¨ÙĬ Ùĩ
ĠØ§ÙĦØ§Ùħ ÙĪØ±
ÙĦØ§Ø¨ Ø§ÙĦÙĬØ´
ĠÙģ Ø£ÙĨ
ĠÙĬ Ø·ÙĬ
ĠÙĬ Ø¨Ø¹Ø«
ĠÙĪØ§ÙĦ ØªØŃ
ĠØ¨ÙĬÙĨ ÙħØ§
ÙĤÙĦ Ø§ÙĦ
ĠÙģÙĦ ÙĨ
âĢį â
ĠØ¬ Ø²Ø§Ø¡
ĠØ§ÙĦØ± Ø§ÙĤÙĬ
Ġf l
ĠØ§ÙĦÙĦ Ø¬ÙĨØ©
R abi
Ùħ ÙĪØ±
ĠØ§ÙĦ Ø²ÙĬ
ĠØŃ ÙĤÙĪÙĤ
Ø§Ø¯ Ø¦
ĠØªØ¹ ÙĨÙĬ
ĠÙĪØµ ÙģØ©
ï´ ¾
m in
ĠØ³ ÙģÙĬØ§ÙĨ
Ġ2 9
ĠØ§ÙĦÙģ ÙĩÙħ
ĠÙĪÙħÙĨ ÙĩÙħ
ĠÙħÙĪØ¬ ÙĪØ¯Ø©
ĠØ§ÙĦÙĪØ§ÙĦ Ø¯
v i
ĠØ§ÙĦÙĨ ÙĩØ§ÙĬØ©
ĠØ² ÙĩØ±
Â» ØĮ
ĠÙĬØ´ÙģÙĬ ÙĩØ§
ĠØ¨Ø³ÙĬ Ø·Ø©
ĠØŃ Ø²
ĠØ§ÙĦØŃ Ø³
ĠØ¯ÙĬ Ø¬Ø§
ĠØ§ÙĦØ§Ø³ÙĦØ§Ùħ ÙĬØ©
ĠØ§ÙĦÙģØª Ø§ÙĪÙī
t ou
ĠØ¨ Ø¢
ĠØµ ÙĨØ¹
ÙħÙĬ ÙĬØ²
Ø« Ùī
Ø´ Ø±ÙĬ
Ø§ØŃ ÙĦ
ðŁĴ ļ
ĠØ§ÙĦ Ø§Ø³ØªØ§Ø°Ø©
ĠØŃ Ø¸
ĠØ§ÙĦÙĤ ØªÙĦ
ĠØ§Ø³ ÙħØ¹
ĠØ§ÙĦØ± ÙħØ²
ĠØ§ÙĦÙħØ´ Ø§ÙĥÙĦ
ĠØ§ÙĦØ´Ùĩ Ø§Ø¯Ø©
t Ã©
ĠÙĬ ØªØ±
ĠÙĪØ§ÙĦ Ø§
ĠØ¨Ø§ÙĦ ÙħÙĨ
ĠÙĪØ¨ Ø¹Ø¶
ĠØ§Øµ ØŃØ§Ø¨
Ùĩ Ø§ÙĨ
ĠØ£ÙĨ ÙĨØ§
Ø±Ø¨ Ùĩ
Ø±ÙĪ ÙĤ
ĠÙĪÙĦ Ø§ÙĦØ§
ĠØ¨ÙĬ Ø§Ùħ
ĠÙģØ· ÙĪØ±Ùĥ
ĠÙĦØ¯Ø± Ø¬Ø©
ĠØŃÙĪ Ø§ÙĦÙĬ
ĠÙħØ³Ø¨ ÙĤØ§
ĠØ§ÙĦÙħ ÙĦÙĬÙĪÙĨ
âĿ¤ ðŁĺĬ
ĠØ§Ø® ØªØ±
ðŁĩ ¦
Ø¶ Øª
ĠÙĪÙħ Ø³
ĠÙĪØ¥ ÙĦØ§
ĠØ²Ùĩ Ø±Ø©
ðŁ Ĳ
ĠØ¹ÙĬØ¯ ÙĥÙħ
ai me
ĠØ¹ ÙĦØ¨
ĠÙĤ Ø¶Ø§Ø¡
Ø¹ÙĪ Ø¨
Ġt w
ØµÙĦ ØŃØ©
Ġfi ha
ĠØ§ÙĦÙģØª Ø±Ø©
Ùħ ØŃÙħØ¯
ØªÙĬ ÙĤ
ĠØ§ÙĦØ¹ Ø¯Ø¯
Ġy ah
ĠÙħØ³ÙĦÙħ ÙĬÙĨ
ĠØ¬ Ø§Ùĩ
ÙĬØ§ Ø§
ĠØ§ÙĦØ£ Ø·ÙģØ§ÙĦ
ĠðŁ İ
ĠðŁĻ Ħ
j b
ĠØ§ÙĦØ£ Ø¨ÙĬØ¶
ĠØ§ÙĦØµ ÙĬØ§Ùħ
ĠØ¬ÙħØ¹ ÙĬØ©
ĠØªØ³ ÙĦÙĬÙħØ§
ĠØ¨ÙģØ¶ ÙĦÙĥ
ÙĩØ§ ÙĬ
ĠØ§ÙĦØ£ Ø³Ø¨Ø§Ø¨
Ø·Ø± ÙĤ
ĠØ§ÙĦÙĩ ÙĨØ¯
ĠØ¨Ø§ÙĦØ± ØŃÙħØ©
S T
ĠØ§ÙĦØ· Ø±ÙĤ
ĠØ¹ÙĤ ÙĦÙĬ
4 6
Ùĩ Ø§ÙĦÙĥ
ĠØª ÙħØª
ĠÙĬØŃ ØµÙĦ
ĠÙħØµ Ø·ÙģÙī
3 2
Ġ2 1
ĠØ§ÙĦØµ Ø¯ÙĬÙĤ
ÙĦØª Ø´
ĠÙĪÙĦÙĥÙĨ Ùĩ
ĠÙĬØŃÙģØ¶ ÙĥÙħ
Ùģ ÙĪÙĤ
ĠØŃ Ø¬Ø©
ĠØ§ÙĦØ®Ø· Ø£
ĠØ§ÙĦÙĨÙĪ ÙĪÙĬ
ĠØ§Ø¨Ø± Ø§ÙĩÙĬÙħ
g a
ĠÙĨ ØµØŃ
ĠÙħÙĨ Ø¹
Ø±ÙĬ Ø¬
ĠØ§ÙĦØ¨ ÙĨØª
ðŁ¤ ©
ĠØ§ÙĦ Ø§ÙĦØª
ÙĪÙĨ ØªÙĬ
ĠØªØ¹ Ø±ÙĬÙģ
Ġd z
Ø²ÙĬ Ø§Ùħ
ĠØ§ÙĦÙħØ³ Ø£ÙĦØ©
ðŁĻ ĥ
Ø±Ø¨ ÙĩØ§
ĠØ§ÙĦØ² ÙĩØ¯
ĠÙĥØ¨ ÙĬØ±Ø§
ĠÙĦØ§Ø¨ Ø¯
ĠØ§ÙĦØµØº ÙĬØ±Ø©
ĠØ¥ ØŃ
ĠØ¯ Ø¬
ĠØ§ÙĦØ¯ ÙĦÙĬÙĦ
ĠÙĬØ³ ÙĥÙĨ
ĠÙĬØŃÙĬ Ùī
Ø³ Ø·Ø©
ĠØ§ÙĦÙħ Ø¶
ĠØ§Ø® ÙĪØªÙĬ
ĠÙħØ± ÙĪØ±
ÙĪÙĦ Ø§Øª
ĠØ±ØŃ ÙĬÙħ
ĠÙħ ÙĦØ§Ùĥ
ĠØ£ ÙĬØ§
ÙĪÙĨ ÙĩÙħ
ĠØ¥ ÙĨØª
ĠÙĪØ± Ø§Ùĥ
ĠØ§Ùģ ÙĥØ§Ø±
ĠÙĦØ§ØŃ Ø¸
Ø¨ Ø§ÙĨ
ĠØ§ÙĦØ¨ ÙĨØ§Øª
Ġ6 0
ĠÙĬÙĦ ØŃÙĤ
ĠØ¬ÙĬ Ø¬ÙĦ
ĠÙģÙĪ ÙĪØ±
Ùģ ÙĨØ§
ĠØ¬ ÙħÙĬ
ĠØ§ÙĦØ¨ ÙĨ
ĠÙĦÙĦ Ø¯
Ø¦ Øª
ĠØ§Ø¹ Ø±Ø§Ø¨
ĠØ§ÙĨØ´ Ø§ÙĦÙĦÙĩ
ĠØ³Ø§Ø¨ ÙĤØ§
ÙĪÙĨ ØªØ§Ø¬
Ø§Ø¶ ÙĦ
ĠØ¨Ø£ ÙĬ
ÙħØ´ ÙĥÙĪØ±
Ø· ÙĪØ±ÙĬ
Ø§Øª ÙĨÙĬ
ĠØ® Ø§Ùģ
ĠðŁ¤ ¦
ĠÙħÙĪ ØªÙī
ĠØ¨ ÙĪÙĥ
Ø¬ ØªÙħØ§Ø¹
ĠØŃ ØµØ©
ĠØ§Ø¨ Ø¯
ĠÙĦØ£ÙĨ ÙĩÙħ
Ø¤ÙħÙĨ ÙĬÙĨ
ĠØ£Ø± Ø¯Øª
ĠØ§ÙĦØªØ¹ÙĦÙĬ ÙħÙĬ
Ġkho ya
d u
ĠØ£ ØªÙī
ĠØ§ÙĦÙĨ Ø¨
ĠØ§ÙĦÙĨ Ø´
Ø±ÙĪ Ø§Ùĩ
ĠÙģØ§ÙĦ Ø¬
ĠÙĥÙħ ÙĦÙĨØ§
ĠÙĬØ· ÙĦÙĤ
Ø¬ ØªÙħØ¹
ĠØ´ Ø¯ÙĬØ¯
Ø²ÙĬ ÙħØ©
ĠØ¹Ùħ ÙĦÙĩ
ĠØ¨Ø¯ Ø£
ĠÙĪÙĤØª Ùĥ
ÙĦØ§ ÙĤØ§
ĠÙħØ§Ùģ ÙĬÙĩ
ĠÙħØ§ÙģÙĩÙħ ØªØ´
ĠØ³ ÙĬØ±ÙĬ
ĠØ¨Ø§ÙĦ ÙģØ±
ĠØ§ÙĦØ¨ ÙĪ
ĠØ§ÙĦÙģ Ø¶ÙĦ
ĠØ£ÙĪ ÙĤØ§Øª
ÙĪØ² ÙĬÙĨØ©
Ù ¦
Ùħ Ø´ÙĬ
Ø³ ÙĦÙĩ
ĠÙĪØª ÙĤ
ÙĪÙĬ Øª
ĠðŁ¥° ðŁ¥°
ðŁĺ ī
ĠØ§ÙĦÙĤ ÙĪØ©
ĠØ° ÙĪÙĬÙĩ
Ø¹Ø¨ Ø§Ø³
ĠØ¥ÙĨ ÙĩØ§
ĠÙĥ Ø§ÙģØ±
ĠØ° ÙĨØ¨
Ġp s
m an
ĠÙĥ Ø§Øª
ĠÙĦÙĬ ÙģØ§Øª
ðŁİī âĿ¤
ĠØªÙģ ØªØŃ
: :
Ùħ ÙģÙĩÙħØªØ´
ĠØŃ ØµÙĦ
ĠÙĪØ± Ø²ÙĤ
ĠÙĬØ§Ø® ÙĬ
ÙĪ Ø§Ø®ÙĬØ±Ø§
ĠÙħ Ø§ØŃ
ĠØ§ÙĦØ¹ Ø«
ĠØ§ÙĦØ£ ÙĪØ±
ĠÙĪØ£ ÙħØ±
ĠÙĤÙĪÙĦ ÙĪÙĦÙĬ
ĠØ§ÙĦÙħØªÙĪ Ø³Ø·
ĠÙĤ Ø§ØªÙĦÙĬ
ĠØ§ÙĦÙħ ÙģØ±
v a
ĠØ¹ ÙĥØ³
ĠØ§ÙĦÙħ Ø§Ø³
ĠÙħØ¹ Ø§ÙĨÙĬ
ĠÙħØ¹ Ø¸Ùħ
ĠØ§ÙĦØ± Ø§Ø¦Ø¹Ø©
Ø¹ÙĦÙĬ Ùħ
ĠÙĥÙĪÙĨ Øª
Ġbon ne
a f
Øª Ø¨ÙĬ
ĠÙħ Ø±Ùģ
Ø´ Ùħ
ĠØ³ ÙĦÙĥ
ĠÙģØ± ÙĪÙĨØ³ÙĬ
ĠÙĨÙĤ Ø§Ø·
ÙĤÙĨ Ø§Ø©
ĠÙĪ ØŃÙĬ
ĠÙĤ ÙħØª
ĠØ§ Ø§
ĠÙĬØ¨ Ø¹Ø¯
ĠÙģÙĩ Ø°Ùĩ
ĠÙĥ ÙħØ§ÙĦ
Ø±Ùĥ ÙĦÙĬØ·Ø©
ØªØ± ÙĪÙĨÙĬ
ĠØ§ÙĦ Ø³Øª
ĠÙĪ Ø²ÙĪØ¬
ĠÙĬ Ø§ÙĪ
ĠØ¬ Ø§ÙĨÙĬ
ĠØ§ÙĦØ³ Ø§Ø¯
ĠØªØ¹ Ø¯
ĠÙĬØ¹ ØªÙĤØ¯
ĠØ§ÙĦÙĪ Ø§Ø¬Ø¨
ĠØ§ÙĦØ§Ø³Øª Ø¶Ø§ÙģØ©
ĠØªØ³Øª ØŃÙĤ
ĠØ§ÙĦØŃØ¯ÙĬØ« Ø©
ĠØ¯ÙĪ ÙħØ§
c p
Ùħ Ø§Ø¬
ĠØ§ÙĦ Ø§Ùĩ
ĠØ§ÙĦÙħ Ø²
ĠØ§ÙĦØ¹ ÙĥØ³
Ø¯Ø± Ø§Ùĥ
ĠØ§Ø¨ ÙĨÙĬ
ĠðŁĴ Ļ
Ø§ÙĦ ØªÙĬ
ĠØ¨Ø§ÙĦ Ø¨
ĠØº Ø§Ø¶
ÙĪÙģ ÙĬØ©
âĢįâ ĻĤ
ĠÙģ Ø®Ø±
Øµ Ø§Ø¨
ĠÙĦÙĦ Ø®
ĠØ§ÙĦÙĥ Ø§ÙģØ±
ĠØ¨ÙĦÙħ Ø«ÙĦ
ĠÙħ ÙĪÙģÙĤ
Ø£ ÙħÙĬÙĨ
ĠØ´ Ø£ÙĨ
ĠØªØ¹ Ø¬Ø¨ÙĨÙĬ
ĠØ§ÙĤ Ø³Ùħ
ÙĬ ØªÙĥ
ĠÙĬ ÙĤÙĪÙĦÙĬ
ĠØ§ÙĦØ° ÙĩØ¨
ĠØ¨Ø¹ ÙĬØ¯Ø§
ĠÙĬÙĤ ØµØ¯
Ġal lah
ĠØ± ÙģØ¶
ha l
ĠÙħÙĪ Ø¶Ø¹
ĠØ§ÙĦØ§Ø³Øª Ø¹ÙħØ§Ø±
ĠØ§ÙĦØµ ÙĨ
ðŁĮ ·
ĠÙħØ¬Ø¯ Ø¯Ø§
ÙĦÙĤ Ø¨
ĠÙĪÙĦÙĬ Ø¯ÙĬ
ĠÙĬÙĥ ÙģØ±
ĠØ³ÙĦ Ø·Ø§ÙĨ
on e
ĠØªÙĦ ØŃÙĤ
ĠÙĪØ§Øº ÙģØ±
4 9
ÙģØ³ Ø±
is h
ĠÙĪØ§Ø± Ø²ÙĤ
Ùĩ Ø±Ø©
ĠØ¨Ø¹ Ø¯ÙĬ
ĠÙħÙĥ ØªÙĪØ¨
Ùĩ Ùī
ĠÙĪØ§ÙĦ ÙĬÙĪÙħ
Ø§Ø¯Ø± Ø§
ĠÙĩÙĥ Ø§Ùĥ
ĠÙ ¢
Ø±ØŃ Ø¨
ĠØªØ´ Ø¨ÙĬÙĩ
ĠØ§Ùĥ ØªØ´
ĠØ§ÙĦÙĨØµ ÙĪØµ
ĠÙĬ Ø¨Ø¯
ĠØª ÙĦØ§ÙħÙĬØ°
ĠØ§ÙĦØª Ø§ÙĦÙĬØ©
ÙĦØª ÙĩÙħ
ÙĦÙĤ Ø§Øª
ĠØ¨ØŃÙĬ Ø«
Ġave c
ĠØª ØµÙĦ
ĠÙĪØ§ÙĦ ÙĦ
ÙĨÙĬ Ùĩ
ĠØ§ ÙĪÙħ
ĠØ§ÙĦÙħØ¬ Ø§Ø²
d ou
o li
ÙĬ Ø§Ø¨
ĠÙħ Ø°ÙĩØ¨
ĠÙĬÙĨ ÙĤØµ
ĠØ£Ø³ Ø§Ø³
T he
Â §
ĠØ§ÙĦØ¨ Ø§Ø·ÙĦ
Ġk ada
ĠØ´ÙĬ Ø·Ø§ÙĨ
ĠØ§ÙĦØ§Ø¹ Ø±Ø§Ø¨
b y
ÙĨ ØŃÙĨ
ĠØ£ Ø¹ÙĪØ°
ÙĦÙĬ Ø¨
ĠÙĥ ÙĪÙĥ
Ġn ot
ĠØ¹ÙħØ± Ùĩ
ĠÙħØ§Ø± Ø³
ĠØªÙħØ± ÙĬÙĨ
ĠØ§ÙĦØµ Ø¯
ĠÙģØ¥ÙĨ ÙĩØ§
ur s
ĠØ§ÙĦØªØ¬ Ø§Ø±Ø©
ĠØ§ÙĦØ¨ÙĤ Ø§Ø¡
ÙĤ Ø§Ø¡
ĠÙĦ ÙĬÙĨ
ĠÙĦ Ø§Ø³
Ø£ ÙĩÙĦØ§
ðŁĺ ĳ
ðŁĺ Ĵ
ÙĪØ§ ÙĩØ§
ĠØ§ÙĦØª ÙĦ
ĠØ§ÙĦØ« ÙĪØ¨
ĠØ§ÙĦØ¨Ø§Ø± ØŃ
ĠØ§ÙĦÙĦØº ÙĪÙĬ
ĠØ§Ø±Ø¬ ÙĪÙĥ
t ni
ĠØ§ÙĦ ÙĥÙĨ
ĠØ³ Ø¹Ø±
ÙĨØª Ùĥ
ĠØ§ÙĦÙħØ´ Ø±ÙĪØ¹
ĠÙĬÙĪÙģÙĤ ÙĨÙĬ
ĠØª Ø¯ÙĦ
Ø´Ø± Ø¹
Ø®ÙĬØ± Ø§
Ùģ Ø¹Ø©
ðŁ Ķ
ĠØ¬ Ø¨Ø±ÙĬ
ĠØ§ÙĦØ£ Ø¹Ø±
Ø¹Ø¯ Ùħ
en s
ĠØ§ÙĦÙĤØ± ÙĨ
ÙĨØ¯ ÙĤ
ØªÙĦ Ø§ÙĦ
ĠØ§ÙĦØµØ§ÙĦØŃ Ø§Øª
ĠØ§ÙĦÙĥØ¨ ÙĬØ±Ø©
Ġpl us
ĠÙĨ Ø¹ÙĬØ´
ĠÙĬÙĪ ØµÙĦ
ĠØ¯ Ø¹Ø§
ĠÙħØ¹ Ø§ÙĪÙĬØ©
ĠÙħØ± Ùĩ
ĠØ§ÙĦÙĦØº Ø§Øª
Ø§Ùħ Ø¹
Ø§Ø¯ Ø¨
ĠØ¨Ø¹Ø¶ ÙĩØ§
ĠØªØ¨ ÙĨØ§Ø¬
ĠÙĬØ¨ Ø¯Ø§
ĠÙĪØ±Ø¨ ÙħØ§
ĠÙĪ ÙĤØ¯Ø±
Ø³ ÙħØ©
ĠÙĤ Ø§Øª
ĠØŃ ÙħÙĦ
ĠØ¬ ÙĬÙĦ
ÙħØ§ ÙĬØ©
ĠÙĬØ¬ Ø±ÙĬ
ĠØªØ´ Ø±ØŃ
ĠØ§Øº ÙĦØ¨
ÙĬ ÙĤ
Ø¬ ÙĪÙĨ
ĠØª ÙĤØ±Ø£
ĠØ¬ÙĨ Ø§Øª
ĠÙĨÙĤØ± Ùī
Øº Ø¨Ø©
ĠØ± Ùĩ
ĠØ´ Ø§Ø±Ùĥ
ĠÙĪÙĬ ÙģØ±ØŃ
ĠØ§ÙĦØ¹ÙĨ ÙĪØ§ÙĨ
ĠÙĬ Ø¨ÙĦØº
ĠÙĬÙĥÙĪÙĨ ÙĪ
ĠÙĩØ§Ø° ÙĬÙĥ
ĠØ£Øµ Ø§Ø¨
ĠÙħ ÙģÙĩÙĪÙħ
ĠØ¬ Ø¨ØªÙĬ
ĠØ§ÙĦØª Ø§ÙĦÙĬ
ĠØ±Ø§ØŃ Ø©
ĠÙħØ§Ùĥ Ø§ÙĨØ´
ĠØ§Ø± ÙħÙĬ
om e
ĠØµ Ø¨
Ø§Ø¦ Ø·
ĠØ§Ø³ ØªÙĪ
ĠØ³Ø¨ ØªÙħØ¨Ø±
ĠÙĪØ§Øª ÙĪØ¨
ĠØ§Ø±Ø²ÙĤ ÙĨØ§
ĠâĿ Į
ĠÙĬ Ø¨Ø¯ÙĪ
Ø· Ø£
ĠÙĪ Ø¯Ø¹
ĠØ§ÙĦØµ ÙĬÙģ
ÙģØ¹ ÙĦÙĩ
ĠØ¯Ø§Ø± ÙĩØ§
ĠØ§ÙĦØ¶ Ø¹ÙĬ
ðŁĻ Ħ
ĠØ§ÙĦÙħØ³ Ø§Ø¬Ø¯
R e
ĠÙĥ Ø§Ùģ
Øº Ø¶
ĠØ§ÙĦØª Ø¨
ĠØ° Ùĥ
Ġw h
ĠÙģ Ø§Ø¦Ø¯Ø©
Ø³ØŃ Ø§ÙĤ
ĠØ§ÙĦÙħØ¬ÙĩÙĪØ¯ Ø§Øª
Ø³ Ø§Øª
ĠÙĨ ØµØ±
ĠØ§ÙĦÙĤØ¨ ÙĪØ±
a li
ĠØ¨ Ø§Ùħ
ĠÙĬ Ø±ÙģØ¹
ĠÙĥ Ø±Ùħ
ĠØ§ÙĦØ¨ Ø±ÙĬØ¯
Ø¢ ÙĦ
ĠÙĬÙĨ Ø²ÙĦ
ĠØ¬Ø²ÙĬ ÙĦ
ĠØ¨ ØªØŃ
Ø§ÙĬ Ø¨
ÙĦÙĥ Ø©
ĠÙĬØŃ ÙĤÙĤ
ĠØ§ ÙĪØ±
ĠØ§ÙĦÙģØ± ØŃØ©
ĠÙĦØ¹ ÙĤÙĪØ¨Ø©
Ùĥ Ùģ
ĠØ¹ ÙĤÙĦ
ĠÙĪØ¹ ÙħØ±
Ø§Ø²ÙĬØº ÙĬØ©
ĠÙģ Ø¯Ø§Ø±
ĠÙĬ Ø¶Ø±
Ø¬ ÙĬÙĨ
ĠÙģØ£ ÙĨØª
č Ġč
ĠØª Ø§Ùĥ
Ø¸ Ø§Øª
ĠØ§ÙĦÙĨ ØªÙĬØ¬Ø©
ĠÙĪØ¥ ÙĦÙī
ĠØ§ÙĦÙĪØ± ÙĤØ©
ĠØ¨Ø³ÙĬ Ø·
ĠØ§ÙĦØ²ÙĪØ¬ Ø©
ĠØ§ÙĦÙĪÙĦØ§ ÙĬØ§Øª
ĠØ§ÙĦ Ø§Ø«
ĠØª ÙĥØ±
Ø±Ùģ Ø¶
ĠÙĪÙĨ Ø¨
ðŁ¤ ¦
ĠØ§ØŃ ÙĥÙĬ
ĠÙĦØ£ ÙĨÙĬ
il l
ĠØ¨Ø§ÙĦ Øµ
ĠØ¯ÙĬØ± Ø§ÙĥØª
ĠØªØ¬ Ø§Ø±Ø©
ĠØ§Ø¯ Ø¹ÙĬ
ĠØ§ÙĦØ´Ø± Ø¹ÙĬ
ĠÙħØªÙĪ Ø³Ø·
ĠÙħ Ø¸
ĠÙĬ Ø®ÙĦØµ
Ø² Ø§Ùģ
Ø±Ø¨ ÙħØ§
ji b
i g
ĠØ¨ Ø§ÙĨØª
ĠÙĦØ¨ ÙĨØ§Øª
ĠØ§ÙĦØ§Ø® ÙĪØ©
ĠØ³Ø± Ø¯
ĠÙĥÙģ Ø§Ø´
ĠØ§ÙĦÙħ ÙĪØ¬
ĠÙĪØ§ÙĦ ÙħÙĪ
ÙĬØ§ ÙĤ
ĠØ¨Ùħ Ø«ÙĦ
8 8
Ø° Ø§Øª
ĠØªÙħ ÙĪØª
t ch
Ø³ Ø³Ø©
ĠØ£Ø¹ Ø¶Ø§Ø¡
ĠØ¹Ø§ÙĬØ´ ÙĬÙĨ
ĠØ¹ Ø±
ĠØª ÙĤØªÙĦ
ĠØ¥ ØŃØ¯Ùī
ĠØ§ÙĦØ¬ Ùĩ
ÙĪÙĬ ÙĪÙĬ
ĠÙħØŃ Øª
ĠØ®Ùħ Ø³Ø©
e f
ĠÙħ Ø±Ùĥ
Ø§Ø¬ Ø¯Ùĥ
ĠÙĨØ¶ Øª
7 0
£ ï¸ı
ĠÙĩØ§Ø¯ Ø§Ùĥ
ĠÙĬÙĥ Ø«Ø±
âĢįâĻĤ ï¸ı
ĠØªØŃ ÙĦÙĬÙĦ
ĠÙĨØ¯ÙĬØ± ÙĩØ§
ĠØ§ÙĦØ¸ ÙĦÙħ
ÙĨ ÙĤ
Ø´ ÙĬØ±Ø©
ÙĥØ± Ø§Ùħ
ĠÙĦÙĦ Ø§Ø³Øª
ÙĤÙĪ Ø¨
Ø§ÙĦ Ø¨ÙĤØ±Ø©
ĠØŃ Ø§
ĠØ£ÙĪ ÙĦÙĬ
ĠÙĪÙĥ ÙħØ§
ĠØµÙĦ Ø§ØŃ
ØŃÙħ Ø±
ĠÙĦÙĨÙģØ³ Ùĩ
Ã©ri e
Ùĩ Ø´
Ø® ÙĦÙĩØ§
ĠØ¨Ø¯ Ø¹Ø©
9 0
ĠØª ÙģÙĬØ¯
Ø£ Ø®Ø°
ÙĥÙĬ ÙħØ§
ĠØ§ÙĦÙĪ Ø«
ĠÙĪÙĨ ØŃ
ĠÙĪÙĨ Ø¬ØŃ
ĠØ¨ÙĬ ØªÙĩ
ĠØ§ÙĦØµØŃ Ø±Ø§Ø¡
Ø¬Ùħ ÙĪØ¹
ĠØ³Øª ÙĥÙĪÙĨ
ĠØ£ Ø´ÙĬØ§Ø¡
ĠØ±Ø¨ ÙĩÙħ
ĠÙĪ Ø§ÙĤÙĬ
ĠÙħ ÙĤØ¯ÙħØ©
Ø¬ Ø§Ø¯
ĠØª ØªÙĥÙĦÙħ
ĠÙĨ Ø±Ø¬
ĠØ§ÙĦÙĪ Ø³
Ø´Ø± ÙĤ
ĠØ¹Ø§Ùħ ÙĬÙĨ
ĠØªÙģ Ø¹ÙĦ
ĠÙĬØµ Ø¨ØŃ
ĠØ¹Ø§Ø¯ ÙĬØ©
ĠØ§ÙĦØªØ¹ Ø±ÙĬÙģ
ĠØ¨Ø§ÙĦØ¹ Ø±Ø¨ÙĬØ©
ĠØ¯ ÙĬØ¯ÙĬÙĨ
Ø§Ø¬ Ùħ
Ø¹Ø¯ Ø§Ø¯
im ent
ĠØ§ÙĦ ÙĦØ³Ø§ÙĨ
ĠØ¨ Ø³Ø¨
ĠØ§Ø³ Ø¨ÙĪØ¹
ĠÙģØ± ÙĨØ³ÙĬØ©
ÙģÙĥ ÙĬØ±
ĠÙĥØ§ Ø§ÙħÙĦ
ĠÙĬ Ø§Ùħ
ĠÙĬ Ø¹ÙĪØ¶
ĠÙĩ ÙĨØ¯
ĠØ¬ Ø§ÙĬØ©
ĠØ¥ Ø³Ø±
ÙĪØª ÙĬÙĨ
ÙĪØª ÙĨØ§
ĠÙĬÙĩ Ø¨ÙĦ
ĠØ§ÙĦØ§ ÙĤØª
on i
ðŁĩ ¸
ĠÙĥØ§Ø± Ø«Ø©
et te
ĠÙģ ØªÙĪ
ØªÙħ ÙĬØ©
ĠØ¹Ø¨Ø¯ ÙĪ
ĠØ²Ø¹ ÙĬÙħ
ĠÙĨ ÙģØ±ØŃÙĪ
ĠØ³ Ø§Ø¦Ø±
Ø±ÙĬ ÙĦÙĨØ§
ĠØ§ÙĦØ³ÙĬ Ø§Ø³Ø©
ĠÙĪÙĬØ³ Ø¹Ø¯Ùĥ
c c
Ø§Ø¡ Ø§Øª
ĠØ§ÙĦÙĤ Ø·
ĠÙĪØª Ø±
ĠÙĪØ§ØŃ Ø¯Ø§
ĠÙĬ Ø²Ø§ÙĦ
ĠØª ÙĤØª
Ø¨Ø± Ø§ÙĨÙĬ
ĠÙĪØ¬ Ø§Ø¡
ch lh
la m
ĠØ§ÙĦØ¯ÙĬÙĨ ÙĬØ©
ĠØ§ÙĦØ¬ ÙĬ
ÙħÙĥØ§ÙĨ Ø´
ĠØ§ÙĦØ¬ ÙĦÙĬÙĦ
Ġâ Ļ
ĠØ´Ø± Ø¹
ĠØ§ÙĦØ¥ ÙĨØª
ĠØŃÙĤÙĬ ÙĤÙĬ
ĠÙĬÙĦÙĬ ÙĤ
ĠÙĨÙĪÙģ ÙħØ¨Ø±
ÙĨÙĬ ÙĬÙĨ
ØªÙĪ ÙĬ
ĠØ§ÙĦÙħØ¹Ø± ÙĪÙģ
ĠØ¬Ø¨Ø±ÙĬ ÙĦ
e ep
Ùħ Ø·
ĠØ£ Ø±Ø¬
ĠÙĪØª Øª
ĠÙĪÙħ ÙĦ
ĠØ§ÙĦÙģØª ÙĨ
ĠØ§ÙĦÙĪØŃ ÙĬØ¯Ø©
Ùĩ Ø¯Ø±
Ø³ ÙĪØ±Ø©
ĠÙĨ ÙĥÙħ
ĠØ¢ Ø¯Ø§Ø¨
ĠÙħØ³ Ø¬Ø¯
ĠÙħÙĨÙĩ Ø¬ÙĬØ©
ĠØ³ ØŃ
ĠØ§ØŃ ÙĬ
ĠÙĨØ¯ Ø¹ÙĬ
ĠÙĨØ§Ø¬ ØŃ
ĠØ£ØµØŃØ§Ø¨ Ùĩ
Ø± Ø§Ø¯Ø©
Ø¹ Ø·
ĠØ¯ Ø§Ùĥ
Ø¨ØŃ Ø±
ĠØ§ÙĦØªØ¹Ø¨ ÙĬØ±
ĠÙħØŃØªÙĪ Ø§Ùĥ
ĠÙĪ Ø¸
ÙĪØ§ÙĨ Ø§Øª
ĠØ§ÙĦØ¨ÙĬ Ø§ÙĨ
ĠÙĤ Ø·Ø±
ĠØ§ÙĦØ³ ÙĪØ±Ø©
A N
ĠÙħÙĨ Ø·
ĠØ§ÙĦÙĤ Ø§Ø¯Ùħ
Ø¹ÙĦ Ø§Ø¨
ĠØ§Ùĥ ÙĦ
ĠØ£Ùĥ ÙĬØ¯
ðŁĺ¢ âĿ¤
Ø§Ø±ÙĬ Ø¹
ĠØ´ÙĩØ± ÙĬÙĨ
ĠØ§ÙĦÙħØ¨Ø§Ø±Ùĥ Ø©
ĠÙĬ Ø¯ÙĪ
ĠØ£ ÙħÙĦ
ĠØ· Ø¨ÙĤ
Ø±Ø¬ Ø§ÙĦ
ĠÙħÙĤ Ø§Ùħ
ĠØ¬Ø¯ Ø§ØªÙĬ
Ø§ÙĦ ÙħØ§
Ùħ Ø§Ø°Ø§
ĠÙħÙĨ ÙĤÙĪÙĦ
ĠØ³ ÙĥØ§ÙĨ
ĠØ¯ÙĬÙĨ Ø§ØªÙĪØ±
ĠÙĪØ§Ø± ØŃÙħÙĩ
d j
ĠØ³ Ø§Ùĥ
ĠÙĪØ¹ ÙĦØ§
in i
Ġf ik
ĠØ¹ÙĬ ÙĬØª
f r
g le
Ġ ****
ĠØª Ø·ÙĦØ¹
ĠØ·Ø§ØŃ Øª
ĠÙģØ§ÙĦ Øª
li h
ĠÙĤØµ Ø¯
ĠØ§ÙĦ Ø§ÙģØ¶ÙĦ
ÙĨÙĬ Ùģ
ĠØ§ÙĦØ¬ Ø²
ĠØ§ÙĦÙĤ Ø¯
t t
ĠÙĦ ÙĬØ±
ĠÙĥ Ø£Ø³
ĠØ§ÙĦØ¬ Ø¯
ĠØ¹Ø¨ Ø§Ø³ÙĬØ©
ĠØµØ§ØŃ Ø¨Ùĩ
ĠÙħ ÙĪÙģ
ĠØ¨ ØŃÙĤ
Ø¬ ÙĬØ´
Ø² ÙĦØª
ĠØ¨Ø¹Ø¯ ÙħØ§
is s
ÙĤØµ Ùī
ĠØ§ÙĦÙħØªØ§Ø¨ Ø¹ÙĬÙĨ
Ġ Ú¤
ĠÙĥ Ø£
ĠØ§ÙĦØ£ ÙģØ¶ÙĦ
ĠÙĪØª ÙĥÙĪÙĨ
ĠØ¨ÙĬ Ø¶
ĠÙĪÙĤ Ø¨ÙĦ
ĠØ§ÙĦÙĦÙĬ ÙĦØ©
ĠØ±ÙĬ Ø§Ø¶ÙĬ
ĠØ§ÙĦØ¹ Ø°Ø§Ø¨
ĠØ§ÙĦØŃ ÙĦÙħ
ðŁĴ Ģ
ĠØµØŃ ØªÙĥ
Ġj us
ĠÙģØ·ÙĪØ± ÙĥÙħ
Ø¹ Ø§Ùĥ
Ø· Ø§Øª
ĠØŃ Ø°Ùģ
ĠÙħØª ÙģÙĤ
ĠÙĦÙĪ Ø§ÙĦ
ĠÙĥÙĦØ§Ùħ Ùĩ
ĠØ£Ø±Ø¨ Ø¹Ø©
ĠØ£ ØŃÙĥØ§Ùħ
ĠÙĨ Ø§ØŃÙĬØ©
Ø¨Ùĥ Ø§ÙĦÙĪØ±ÙĬØ§
ĠØ¨Ø§ÙĦÙħØ¹ Ø±ÙĪÙģ
ĠÙĥ Ø´Ùģ
Ø§Ø¯ Ø¹
ĠØ§ÙĦØŃ Ø¬Ø©
ĠØ§ÙĦÙģ ÙĪ
ĠØ§ÙĦÙģ Ø§Øª
Ø§ÙĦÙħ ÙĩÙħ
ĠØ§ÙĦØ§ÙĨ ØªØ±ÙĨØª
ĠØ§ÙĦØ³ÙĬ Ø§Ø±Ø§Øª
ĠÙĨØ³ØªÙĨØ§ ÙĪ
ĠÙĪØ±ÙĪ Ùī
ÙĦ ÙĪØ§
ĠØ§ÙĦ Ø¶ÙĪ
ĠØ³ ÙģØ±
ĠØ§Ø¯ Ø®ÙĦ
47 47
ĠØ§Ø¸ ÙĨ
ðŁ §
ĠØŃ Ø¨Ø©
ĠâĿ¤ ðŁ¤²
ØŃÙĬ ÙĦÙĬ
ĠÙħØª ÙĨ
Ġp a
Ø·ÙĦ ØŃ
ĠÙĤØ±ÙĬ Ø´
ĠÙħÙģ ØªÙĪ
Ø§ÙĬ Ø§Ùħ
ÙĪÙħ Ùĩ
ÙĥÙĬ Ùħ
ĠÙĨØ´ÙĪÙģ Ùĥ
ĠØ§ÙĦØªØŃØ±ÙĬØ± ÙĬØ©
Ġt ra
ĠØ§ÙĦÙģØ± ØµØ©
ĠØŃØ· ÙĬØª
Ø¨ ÙĦÙĪ
Ø¹ ÙĦÙĥ
ÙĦØª ÙĤÙĬ
ĠÙĬØ¹Ø·ÙĬ ÙĥÙħ
ĠØ§ÙĦØ°Ùĩ Ø¨ÙĬ
Ù ©
Ø´ Ø¹Ø¨
ÙĪÙĬ Ø§Øª
ĠØ³ÙĪ Ø§ÙĬØ¹
ĠØ§ÙĦÙħÙĩ Ø¬Ø±
ĠÙĪØ¹ÙĨØ¯ ÙħØ§
H a
Ù §
ÙĪ Ø§Ø¯
ĠÙģ Ø¶ÙĬ
Ø¬ Ø§ÙĨ
Ø§Ø¬ ÙħÙĦ
ĠØº Ø¶
ĠØ§Ø³Øª Ø¹ÙħØ§ÙĦ
ĠØ§ÙĦØ· Ø§ÙĩØ±
ĠØ¨ØŃ Ø§Ø¬Ø©
ĠØ²ÙĬØ¯ ÙĦÙĪ
Ù ¨
ĠðŁ Ĳ
ĠØ§ÙĦØ± Ø²ÙĤ
ÙĤÙĪ ÙĬÙħ
ĠÙĤØ¹Ø¯ Øª
ĠØ±Ø¢ Ùĩ
Ġ es
Ø¯ÙĬ Ø§ÙĨ
Ø§Ø¹ Ø¨
ĠØ§ÙĦØ³ Ùħ
ĠØ§ÙĦØª Ø®
ĠØªØ® ÙĦÙĬ
ĠØ¬Ø§Ùħ Ø¹Ø©
Ġre da
ĠÙħ ÙĤØ¯
ĠØ¹ ÙħÙĪ
ĠØ£ Ø³ÙĦÙħ
ĠÙĤ Ø¯ÙĪØ©
ĠØ§ÙĦØ¹ Ø¬
ĠØ§ØŃ Ø±Ø§Ø±
ĠÙĤØ±ÙĬ Ø¨Ø§
ĠÙĪ ÙĬØ§
ĠÙĪ Ø®Ø±Ø¬
ĠØ± Ùħ
ÙĪØ± ÙĩØ§
ĠØ·ÙĦ Ø§Ø¨
ĠÙĨØ¹Ø±Ùģ ÙĪ
ĠØŃØ· ÙĦÙĨØ§
ĠØ§ÙĦØ¹ÙĦ Ø§Ø¬
O ui
ĠØ´ Øº
ĠÙģØ¹ ÙĦÙĩ
ĠØ§ÙĦØ·Ø¨ Ø±ÙĬ
ĠØ§ÙĦØ± Ø£ÙĬ
ĠØŃÙĦ Ø§ÙĦ
ĠÙĨØ³Øª ÙĨÙī
ĠÙħ Ø¨Ø±
ĠØª ÙģØ¶ÙĦ
Ø¶ ÙħÙĨ
Ġw ith
ÙħÙĪ Ø§ÙĦ
ĠØ³Ø¨ØŃØ§ÙĨ ÙĪ
ĠØ§ÙĦÙħØ´Ø±Ùĥ ÙĬÙĨ
² ðŁĩ¦
Ø° Ø§Ø±
ĠØ§ÙĦØ£ ÙĤ
ĠØ§ÙĦÙĦ ÙģØ¸
ĠØ§ÙĦØª ÙģØ³ÙĬØ±
ĠÙĪØª Ùģ
ĠÙĪÙĦÙĬ Ø³Øª
ĠÙĬØª ÙĤØ¨ÙĦ
ĠØªØ¹ÙĦÙħ Øª
Ø§ÙĦØ¬ Ø²Ø§Ø¦Ø±
ĠÙĦ ÙħÙĬ
ĠÙĬ ÙĥØ±Ùĩ
ĠØ§ÙĦØ® ÙĦÙģ
on s
ĠÙĦØ£ÙĨ ÙĪ
ĠØ§ÙĦ Ø§Ø¶
ĠØ£ Ø¹Ùħ
ĠÙĪØ± ØŃÙħÙĩ
Ġd ire
ĠÙħØ³ Ø£ÙĦØ©
ĠØ¹ÙĦÙħ Ùĩ
ÙĤØ§ ÙĪÙħØ©
8 0
ĠØ¬ ÙĩØ¯
ĠØ§ÙĦØ¨ Ø´Ø±ÙĬØ©
ĠØ§ÙĦØ§Ùħ Ø§Ùħ
ĠØ§ÙĦØ§Ø¹ ÙĦÙī
ĠØ¹ Ø§ÙĪÙĨ
ĠØ¯Ø§ ÙĬØ±Ø©
ĠØ§ÙĦØ¬Ø§Ùĩ ÙĦÙĬØ©
ÙĬ Ø§ÙĪ
Ùģ Ø§Ùģ
ĠØ¹ Ø§ÙĦÙĬØ©
ÙģÙĬ Øª
ĠÙĪØª Ø¬
ĠÙĬÙĨ ØµØ±
ĠØ¹ Ø°Ø±
Ø¹ÙĪ Ø¨Ø©
ÙĪØ¹ Ø§
ÙĪØ¹ Ùĩ
Ø³Ùĥ Ø±ÙĬ
Ø´ ÙĩØ¯
ĠØ£ ÙħÙĨ
ĠØ§ÙĦÙĥ Ø§ÙħÙĦØ©
Ø§Ø² ÙħØ©
Ø¨Ø¹ Øª
ĠÙĪØ² Ø§Ø¯
2 00
Øª ÙģØ³ÙĬØ±
Ø´ Ø¯
ĠØ· Ø¨ÙĬØ¨
ĠØ§Ø® ÙĬØ±Ø§
ØŃØ¨ Ø´
ÙĪØ³ Ø·
ĠØ§ÙĦØ³ ÙħÙĪØ§Øª
ĠÙĨØŃ Ø·
ĠÙħÙĨ Ø§Ùģ
ĠØ¯ ÙĬÙĨØ§
ĠØ§ÙĦØ£ ÙĥØ¨Ø±
ĠðŁĺ ĳ
ĠØ§ÙĦØ« ÙĤØ©
Ġk ay
ĠØ§ÙĦØ¬Ùħ Ø§Ø¹Ø©
Ø§Ø¨ Ø¯
Ø§Ùģ Ø¶Ø©
ĠÙĪÙĨ Ø¬ÙĬØ¨
ĠØ§ÙĦØ³ÙĬ Ø§Ø³ÙĬØ©
ĠØ§ÙĦØŃÙħ ÙĬØ¯
E R
Ĺ ¿
ĠØ¨ ØªØ±
ĠÙħÙĨ ØŃ
Ø§ÙĪ Ø¯ÙĪ
ĠØªÙħ Ø´ÙĬ
ĠÙĬØªØ¹ ÙĦÙĤ
ĠØ§ÙĦ Ø¸Ø±ÙĪÙģ
ĠØ§ÙĦØ± Ø¦ÙĬØ³
ĠÙĪØ£ Ùħ
ĠØ§Ø® ØªÙĦÙģ
ÙĤØ± Ø§Ø±
ĠØ£ÙĬ Ø¯ÙĬ
ĠÙĬØ¹Ø§ÙĪÙĨ Ùĥ
ĠØ§ÙĦØ¨Ùĥ ÙĦÙĪØ±ÙĬØ§
ĠØ§ÙĦØ´Ø± ÙĤ
ĠÙĩØ§Ùĥ Ø§
ĠØ¹Ø¯ ÙĨØ§
ÙĬ Ø§ÙĦ
Ø° Ø§ÙĨ
Ø§Ùģ ÙĦ
ĠØ§ÙĦØ³ Ø¹ÙĪØ¯ÙĬØ©
ĠØªØ¹ Ø¬Ø¨
ĠðŁĺ ī
ĠØ§ÙĦØ· ÙĦØ¨
ĠØ±Ø¨ Ø¹
ĠØªÙĩ Ø¨ÙĦÙĬ
ĠØ§ÙĦÙģÙĬ ÙĦÙħ
ĠØŃ Ø§Ø³Ø©
ĠØ§ÙĦØ¬ ÙħØ§ÙĦ
ĠØ§ØŃ Ø³
Ø¨ÙĦÙĬ Ø²
k on
ĠÙĦ ÙĤØ¨
Ø±ÙĬ Ø´
ĠâĿ¤ ðŁĺ¢
ĠØ¥ÙĦÙĬ ÙĥÙħ
ĠÙĨØ¨ ØºÙĬ
ĠØ§ÙĦØ¸ Ø§ÙĦÙħÙĬÙĨ
~~ ~~
z id
Ø¯ÙĬ ØªØ´
ĠÙħØ¹ ÙĬÙĨØ©
ĠØ§ÙĦØ¨ Ø§ÙĦ
ĠØ§Ø° ÙĨ
ĠØ§Ùĩ ÙĦÙĩ
ĠÙħØ§Ùĥ Ø§ÙĨ
ĠØµÙĦÙĬ Øª
ĠØªØŃØ±Ùħ ÙĨØ§
ĠØ¹ Ø§Ø¦ÙĦ
ĠØª ÙĩØ¯
ĠØ¬ ÙħØ¹Ø©
ĠÙħØ¹ ÙĦÙħ
ÙħÙĨ ÙĬÙĨ
ĠÙĪÙĨ ØŃØ¨
ðŁĺĬ âĿ¤
ĠÙĬ Ø±Ø¶Ùī
ĠØ³ Ø£ÙĦ
ĠØ® Ø±ÙĪØ¬
ra h
ĠØªØ¬ Ø³ÙĬØ¯
ĠØ§ÙĦÙĪØ§ÙĦ Ø¯Ø©
ÙĪ Ø«
ĠØ¨ ØªÙĪÙģÙĬÙĤ
ĠÙĦ ÙĤÙĪÙĦÙĩ
Ø® Ø®
Øº ÙĬÙĥ
ĠØ§ÙĦØ£ Ø¬
ĠØ§ÙĦØ¬ ÙĬÙĦ
ĠÙĤØ§ÙĦ ÙĪÙĦÙĬ
ĠÙĪØ± Ø§Ùĩ
Ġd ans
ĠÙĦÙĦÙħ ÙĨØª
ĠÙĪÙģÙĬ ÙĩØ§
ðŁ ¦
ĠÙĪØ§ÙĦ ÙĪØ§
Ø¯ÙĬ ÙħØ§
ĠØ§ÙĦØ¥ ÙĦØª
ĠØ£Ø¯ Ø±ÙĬ
ĠÙĨØ§Ø¬ ØŃØ©
Ø³ Ùģ
ĠÙĥ Ø§ØªØ¨
Ø§Ø· ÙĬØ©
ĠØ±Ø§Ø¬ Ø¹
Ġâľ Į
Ġbz f
ĠØ¬ ÙĩÙĦ
ĠØ« ÙĦ
ĠØ§ÙĦÙħØ³ Ø§Ø¹Ø¯Ø©
o re
ĠðŁĺ Ĵ
ĠÙģØª Ø§Ø©
ĠØ§ÙĦØ¬ÙĨ ÙĪÙĨ
ĠØ ¡
Ø³ Ø¤Ø§ÙĦ
Øµ ÙĦØ©
ĠØ§ÙĦØ® ÙĦØ§
ĠØ¨Ø§Ùĥ Ø§ÙĦÙĪØ±ÙĬØ§
ĠØ²ÙĪØ¬ Ø©
Ø®Ø§Ùģ ÙĬØ´
ĠÙĪØ§Ø¶ ØŃØ©
Ø«ÙĦ Ø¬
Ġg ood
ĠÙĤØµ Ø¯ÙĬ
ĠØ§ØµØ¨ØŃ Øª
ĠÙħ Ø§Ø¦Ø©
ĠØ´ Ø§ÙĩØ¯
Ġk an
ĠØ§ÙĦØ² ÙĬØª
ĠØºÙĬ Ø§Ø¨
Ø´Ùģ Ø§Ø¡
ĠÙħ Ø¯Ø§Ø±
ĠÙĦ Ø®ÙĬØ±
ĠÙĨ Ø§Ùģ
ĠØ²ÙĬ Ø§Ø±Ø©
m ar
Ø´ ÙĬÙĥÙĪØ±
ðŁ ķ
ĠÙħÙĨ ÙĩÙħØ§
Ø§Ùĩ ÙĦÙĬ
ĠØ¨Ø§ÙĦ ÙĦØºØ©
ĠØ§ÙĦØª Ùĩ
ĠØ§Ø³ Ø§ÙĦ
ØªÙĩ Ùī
ĠÙĨØ¬ Ø±ÙĬ
ĠØªØ´ Ø®ÙĬØµ
ĠØ§ÙĦØ¯Ø± Ø¬Ø©
ĠØ±ÙĪØŃ ÙĩØ§
Ø¶ØŃ Ùī
ĠÙĪÙĬØ±Ø²ÙĤ Ùĥ
r y
Ġ id
Ø§Ø¯ Ø«Ø©
ÙĪØ± Ø¯
Ø§ÙĬ ÙĬ
Ø§Ùĩ ÙĬØ©
ĠÙĪØ¹ ÙĦÙĬÙĩ
Ġh kaya
ĠØªØ³ ÙĥÙĨ
ĠØ®ÙĦ Øµ
ĠÙģ ÙĦÙĩ
ĠØ§ÙĦÙĦÙĩ Ø¬Ø©
ÙĦØ§Ùħ Ùĥ
ĠØ¯Ø± ØªÙĩØ§
ĠØ§ÙĨØª Ø¸Ø±
ĠØ³Ùĩ ÙĦØ©
ĠØºØ§ÙĦÙĬ ØªÙĬ
ĠÙģÙĬ Ø¯ÙĬÙĪØ§
Ø¹Ø¨ Ø§Ø¯
ĠØªØµ ÙĦÙĬ
as t
ĠÂ ·
ĠØ§ÙĦØ¹Ùħ ÙĦÙĬØ©
ĠØ§ÙĦØ§Ø¬ØªÙħØ§Ø¹ ÙĬØ©
ĠØ§ÙĦØ¶ÙĬ Ø§ÙģØ©
ĠðŁĳı ðŁĳı
ĠØ§ÙĦØª Ùħ
ĠÙĬØ¹ Ø¨Ø¯
ĠÙħØ¯ Ø§Ùħ
ĠØ¹ÙĦØ§Ø¨ Ø§ÙĦÙĥ
6 5
ĠÙĬ ÙĥÙħÙĦ
ĠÙĪØ§ÙĦ Ø¥ÙĨ
ÙģÙĬ Ùģ
ĠÙħØª Ø®
ÙĪØ±ÙĬ Ø§Øª
ĠÙĦØ§ÙĨ Ùĥ
ĠØªØ¹ÙĦÙĬ Ùħ
ĠÙĬØ£ ÙħØ±
ĠÙģ Ø²
Ø§Ø¨ ÙĨ
ĠØ³ ÙĪÙĤ
ĠÙĪØ§ÙĦ Ø£ÙĨ
ĠØ¨Ø§ÙĦ Ø²
ĠØ§Ø³ Ø±
ĠØªØŃ ÙĦ
el l
ĠðŁĺħ ðŁĺĤ
ĠØ±Ø§Ø¦ Ø¯
ĠðŁĻ ĥ
ĠØ§ÙĦÙħ ÙĬÙĦ
Ø§Ø¹ ØªÙĩ
Ø¢ Ø¡
Ø§Øº Ø©
ĠØ§ÙĦÙĨØµ Ø§Ø±Ùī
ĠØ¬Ø§Ø¨ Ø±
ĠØ¬Ø¹ ÙģØ±
ĠØ¹ÙĬØ´ Ùĥ
ĠÙĪ ÙĪØ³Ø¹
ĠØ§ÙĦØ¯ Ø§Ø¦ÙħØ©
ĠØ§Ø¹ ØªÙĤØ¯
Ġh o
ĠØ¸ Ø±ÙĪÙģ
ĠØ§ÙĦØ«ÙĦØ§Ø« Ø©
M a
ĠÙĤ ØµØ±
ĠðŁĺ ±
ĠØ§ÙĦØ¯ ÙĦ
ĠØ§Ø¯ Ø¹ÙĬÙĦÙĬ
Ġu p
ĠØ§ÙĦÙĩØ¯ Ùģ
ĠØ§ÙĦ Ø§ÙħÙĦ
ĠÙħ Ø¯Ùī
ĠÙĪØ§ÙĦ Ø¯Ùĥ
ĠÙĦÙĬ ÙĥÙħ
Ø¹Øª Ø¨Ø±
ĠÙģØ¹ ÙĦØª
ĠØ§ÙĦØŃØ¯ ÙĪØ¯
Ù ±
ĠÙħ ÙĬØ´
Ùģ Ø³ÙĬ
Ø§ÙĨ ÙĩØ§
ĠÙĤ ÙĦÙħ
ĠØ´ Ø§Ùĩ
Ø§Ø¬ Ø§Øª
ØªØ¨ Ø§Ø¹
ĠÙģØ§ÙĦ ÙģÙĬØ¯ÙĬÙĪ
ĠØ§ÙĦÙĨØª Ø§Ø¦Ø¬
ÙĨØ· Ø§ÙĦØ¨
ĠØ§ÙĦØ·ÙĦ Ø¨Ø©
ĠÙĪ Ø¹ÙħÙĦ
ĠÙħ Ø®ÙĦ
ĠÙĬ Ø¶Ø¹
ĠØ± ÙĬØ¨
ÙĨØ§ ÙĬ
Ø¯Ø± Øª
ĠÙħØŃ ØªØ§Ø¬
ĠØ±Ø¨ ÙĥÙħ
ĠØ§ÙĦ ÙĦØ¨
Ø³ ÙĪÙĨ
ĠØª Ø§Ø¨Ø¹
Ø§ÙĬ ØŃ
ĠØ§ÙĦØ¥ Ùħ
Ø§ÙĦØ´ ÙĬØ®
ÙĨØµ ÙĬØŃØ©
ĠÙĪ ØºÙģØ±
ĠØŃ Ø§Ø·
ĠÙĪØ§ÙĦ ÙħØª
ĠØ§Ø® Ø°
ĠØ§ÙĦØ° Ø±ÙĬØ©
ĠÙħÙĪ Ø¹Ø¯
Øº ÙĬØ¨
ØªÙĬ ÙĦ
ĠÙĦÙĦÙħ Ø´
ĠØ§ÙĦØŃÙĥ ÙĪÙħØ©
ĠØ± ÙĪÙħ
Ø§Ø¯ Ùī
ÙģØ± ØŃÙĥ
ĠðŁĴ Ģ
tion s
ÙĦ ÙĤØ¯
ÙĪ Ø§ØŃØ¯
ĠØ® ÙĦÙĪ
ĠÙħØ± Ø¹Ø¨Ø©
ĠØ¯Ø± ØªÙĪ
ÙĪÙĤ Ø¹
ĠÙĪØ§ÙĦØ£ Ø®
ĠÙĤÙĨ ÙĪØ§Øª
ĠØ¬ÙĪ Ø§Ø²
. "
m d
Ġ ï
ÙĤ Ø§Ø·
Ø§Ùģ Ø±ÙĬÙĨ
ĠØ¨Ø§ÙĦ Ø«ÙĪØ±Ø©
ÙĬØ¯ Ùĩ
ĠØ´Ø¹ ÙĪØ±
ĠØ§ÙĦØªØ¹ Ø§ÙħÙĦ
ĠØ§ÙĦ ÙĪÙĦØ¯
ØŃ Ø§ÙĤ
ĠØŃ Ø±ÙĥØ§Øª
Ġf e
ĠÙħØ« ÙĦÙĩ
ĠÙĤØ¨Ø± ÙĩØ§
ĠÙħØ®ÙĦÙĪ ÙĤ
Ø± ÙĤØ¯
ÙĤ Ø³Ùħ
ĠÙĬ ÙħØª
ĠØ´ Ø§Ùĥ
ĠØ¬ Ø¹ÙĦÙĩ
ĠØ§ÙĦØŃ Ø¬Ø±
ĠØ§ÙĦØ¨ ÙĦÙĬ
Ø±ÙĪ Ùĩ
ĠÙĦÙĥ ÙĨÙĬ
li ha
ĠØ¨ÙĨÙģØ³ Ùĩ
ĠÙģØ§ÙĦÙĤ ÙħØ©
ĠÙĦ ÙĩÙħØ§
ĠØ± ÙħØ²
ĠØ§ÙĦØ¹ Ø±Ø¶
ĠØ¢ ÙĨ
ĠØ§ÙĦØ§Ùħ ÙĬØ±
ĠØ²ÙĬ Ø¯ÙĬ
ØªØ§ÙĦ ÙĬØ§Øª
ĠØª ÙģØ±ØŃ
Ø´ ÙģØª
ĠØ® Ø§ÙĪ
ĠØ§ÙĦØ´ Ø¨Ùĩ
ĠØ§ ÙĪÙĨ
ĠØ§ÙĦÙħØ± Ø§Ø©
ĠØ´Ø¹ Ø±Ùĥ
ĠØ§ÙĦÙĪÙĦ Ø§Ø¯Ø©
Â ·
Ùģ Ø¹ÙĦ
ĠØµ Ø§Ùħ
ĠÙĦÙĬ Øª
Ø¤ ÙĪÙĨ
ĠÙĨØª ÙħÙĨØ§
ĠØ§ÙĦÙħÙĪ ÙĦÙī
ah k
ĠØ§ÙĦØ´Ø± Ø·
g u
Ø¯ ÙħÙĬ
ĠÙĪØ§ÙĦ Ø¬ÙħØ§Ø¹Ø©
Ø¶ ÙĬØ±
Ø§Ø¦ ÙĥÙħ
ĠØ§ÙĦØ´ Ø§ÙģØ¹ÙĬ
ĠØ§Ø± ÙĪØ§ØŃ
ĠØ§ÙĦÙħØŃ Ø¨Ø©
ĠØ§ÙĦØ³ÙĬ Ø¨ÙĬØ§
ĠÙģØ¹ ÙĦÙĬØ©
Ø´ Øª
Øµ ÙĦÙĪ
ĠÙĩ Ø§Øª
ÙĬØ§ Ø§Ø±Ø¨
ĠÙĪÙĬ ØµØ¨Ø±
ĠØ§ÙĦÙħÙĨ ÙģÙī
ĠØªØµ Ø¨ØŃ
ØªÙĪØŃØ´ ÙĨØ§
Ø¨Ø² Ø§Ùģ
ÙħØ¹ Øª
ĠÙĨØ¬ ÙĪØ²
ĠØ³ÙĬ Ø¦
ĠØªØ£ ØªÙĬ
ÙĪØ§Ø¬ Ø¨
Ø§Ø± Ùħ
ĠÙĩ Ø´Ø§Ùħ
ĠØ¯ ÙħØ´
ĠØ§ÙĦÙģ ÙĪØ²
ĠÙĬØ¬ ÙĪ
ĠÙĪØµ ÙģØ§Øª
ĠÙĪØ§ÙĦØª Ø¹
Ġsu is
ÙĬ Ø¶
Ø³ Ø¨Ø©
ĠØ§ÙĦØ¯ ÙĤÙĬÙĤØ©
ĠØ¢ Ø«Ø§Ø±
ĠÙĦØ£ÙĨ Ùĥ
Ġz id
µ ðŁĩ¸
Øµ ÙĬØ±
ĠØº Ø²
ĠØ§ÙĦØ¯ ÙĪ
A R
p r
ĠÙħ Ø³ÙĬ
ĠØ§ÙĦØ³ Ùģ
ĠØºÙĬØ± ÙĩÙħ
ÙĪØ¬ Ø¨
ØªÙħ Ø§ÙĦ
ĠÙħØª Ø´
Ø¯Ø¹ ÙĪØ§
ÙĪØ¯Ùĥ Ø§Ø³Øª
ĠÙĪ ÙĦØª
ĠØ§ÙĦÙħ Ø«Ø§ÙĦ
ðŁĺ Ĩ
ĠÙĪØª Ùĥ
ĠÙħØ´ Ø§Ø±ÙĥØ©
ĠÙĬØ³ ÙĬØ±
ĠÙĤÙĨ Ø§ØªÙĬ
ĠðŁĳį ðŁĳį
b l
Ø« Ø§ÙĦÙĥ
ØªØ§Ø¨ Ø©
ĠÙĨÙĨ ØµØŃÙĥ
ĠØ§ÙĦØ´ Ø±Ùģ
ĠØ¶ Ùĥ
ÙĥÙĪ ÙĬÙĨ
ĠØ§ÙĨ ØªØ´
ĠØªØ¹ Ø§ÙĪØ¯
ĠØ§ÙĦÙģ ÙĦØ³Ø·ÙĬÙĨ
ĠØ§Ø® ØªØ§Ø±
ĠØ§Ùħ ÙĪØ±
Ø³Ø± Ùī
ĠÙĤØ± Ø¢ÙĨ
Ø·ÙĦ Ø¹ÙĪ
ĠØ£ÙħØ± Ø§
ĠvidÃ© os
Ø¨ Ø¹ÙĪ
Ø£ Ø¬
ĠØ§ÙĦÙĤ ÙĦÙħ
ĠÙĨØ³ Ø®Ø©
ĠØ¯ÙĪÙĦ Ø§Ø±
Ø³ ÙĬØ§
ĠØ¹ Ø¸ÙĬÙħØ©
ĠØŃ ÙĤÙĩ
ÙĦØ§ ÙĤÙĬ
Ø§Ø³ Ø¹
ĠÙħØª Ùģ
ĠØ¨ÙĬÙĨ Ùĩ
ĠØ§ÙĦÙĬÙĪÙħ ÙĬØ©
Ø¨ÙĬ ÙĩØ§
ĠØ§Ø³Øª Ø·Ø§Ø¹
Ø¹Øª ÙĨÙĬ
ĠØ£Ø³ØªØ§Ø° ÙĨØ§
ĠÙĨÙĨØ¬ØŃ ÙĪØ§
ĠØ¹ÙĤ ÙĬØ¯Ø©
ĠðŁ« ¶
ĠØ· ÙħÙĪ
ĠØ§ÙĦØ¥Ø® ÙĪØ©
' t
w i
Ø¹ Ø§ÙĦ
ĠÙĦ ÙĪÙĦØ©
Ø¯Ø± Ø§Øª
ÙĤØ¯ Ø§Ùħ
ĠÙĬØ¹ Ø·
ou h
ĠØ¯ÙĬØ± ÙĬÙĨØ§
Ġ9 0
ĠÙĨØªØ§Ø¹ ÙĬ
ĠÙĪØ¬Ø²Ø§Ùĥ Ùħ
ĠðŁĸ¤ ðŁĸ¤
ĠÙģÙĬ Ø²Ø§
ĠØŃ Ø§Ø´
ĠØ§ÙĦØŃ Ø±ÙĥØ©
ÙĤÙĪÙĦ ÙĪ
ĠÙħÙĤ Ø¨
ĠÙĨÙĪØ± Øª
ĠÙĥØ§Ùħ ÙĦÙĬÙĨ
Ø± ÙĨØ§
ĠØ· Ø§Ø¨Ø¹Ø©
ÙĤÙĪÙĦ Ø©
Ġt out
ĠÙĪØ¹ ÙĦØ§Ùĩ
ĠÙĬÙħÙĨ Ø¹
ĠÙĦ Ø®Ø±ÙĬÙĨ
Ø§ÙĨ Ø¹
ĠÙĪØ§ÙĦ Ø§ØŃ
ĠÙħØ´ Øª
ĠØ§ÙĦÙħÙĦ Ø®Øµ
ĠØ¯ÙħØ´ ÙĤ
Ø¨ Ø«
ĠØ¨ Ø°ÙĥØ±
ĠØ¨ ÙĤÙĬØª
Ø±Ø¨ Ø¹
ĠÙħØŃ Ø¨Ø©
Ø¨ÙĤ Ø§ÙĪ
ĠØ§ÙĦÙħØµ Ø·ÙĦØŃØ§Øª
ĠÙħ Ø¯Ø§
ĠØŃ Ø°
ĠØ´ Ùħ
ĠØ³ Ùĥ
ĠÙħ ÙĬØ®
Ø³ Ø®
ĠØ£ Ø±ÙĪØ¹
ĠØ§ÙĦØ¯ ÙĨØ³
Ø§Ø« Ø©
ĠØ¬Ø§Øª ÙĨÙĬ
ĠØ§Ø®Øª ÙĦØ§Ùģ
ĠØ±Ø¤ ÙĬØ©
A C
ÙĨ Ùħ
ÙĨ Ø´Ø§Ø¡
ĠØ£Ùģ ÙĥØ§Ø±
ĠØ¨ Ø§Ø·
ĠÙĬ Ø°ÙĩØ¨
ÙĨÙĬ Ø§Øª
ĠØ§ÙĦØ® Ø§ÙĦÙĤ
Ġd ay
ĠÙĪØ³ Ø§Ø¦ÙĦ
ĠÙħØ³Øª ÙĤØ¨
ĠÙĦØŃ ÙĤØª
ĠØ§ÙģØ±ÙĬ ÙĤÙĬØ§
> >
Ø£ ÙĦÙĩ
ÙħØ§Ø± ÙĬÙĨ
Ø¨ÙĬ ÙĦØ©
ĠØ¬ Ø¯Ø¯
ĠØ§ÙĦØ´ Ø§Ø¨
ĠØ³ÙĬ Ø§Ø³Ø©
ĠÙħ Ø¨Øª
ĠÙĬ Ø±Ø¶
Ø¨ÙĬ Ø¨Ø©
ĠØ´ Ø¯Ø©
ĠØ§ÙĦØ¨ Ø§Ø±ÙĬ
ĠØ§ÙĦÙħÙĪ ÙĤÙģ
ĠÙĪÙĤØª Ø§Ø´
âģ Ħ
ĠÙģØ¶ ÙĦÙĩ
ĠØ£ØŃ Ø³
Ø¨ ÙĨÙĬ
ĠØ£ Ø³Ùħ
Ġg ra
ĠØ§ÙĦØ³ÙĦ Ø·Ø§ÙĨ
ĠÙĨ ÙĪØµ
Ø£ ÙĦÙģ
ĠØŃ ÙģØ¶
ĠØ¥ Ø³ØŃØ§ÙĤ
ĠØ§ÙĦØµ Ø§Ø¨
-- -
ĠÙĦÙĥÙĨ ÙĩØ§
as e
ĠØ§ÙĦØ³ ØŃ
ÙĤÙĪÙĦ Ùĥ
ĠÙĨÙģØ³ ÙĪ
ĠÙĪÙĥ Ø£ÙĨ
Ø¹Øª ÙĬÙĨ
ĠÙĬØµ ÙĬØ¨
ĠØ¯ÙĤ Ø§ÙĬÙĤ
ĠØ§Ø³ØªÙģ Ø¯Øª
ĠØª Ø¨Ø¯Ø£
ĠÙĥ ÙĪÙħ
ĠØ¥ Ø«Ø¨Ø§Øª
ĠØ¨Ø§ÙĦ ØªÙģ
ĠØ§ÙĦØ£ Ø¦ÙħØ©
Ø±Ùģ Øª
Ø³ÙĬ Ø³
ĠÙģØ§ÙĦ ØŃ
ĠØ§ÙĦØ§Ø® Ø±Ùī
ĠØ§ÙĦØ£Ùħ Ùħ
ĠØªØŃ Ø·ÙĬ
ÙģØ³ Ø¯
ĠÙħØ± Ø§Ùĩ
ĠÙĨØ¬ÙĬØ¨ ÙĪÙĩ
ĠØ£ØŃØ¯ ÙĩÙħ
ĠÙĪØ§Øµ ÙĦÙĬ
Ùĥ Ùī
Øµ Ø·ÙĦØŃØ§Øª
ĠØŃ Ø±Ø¬
Ø±ÙĬ Ø·
ĠØ§ÙĦØ¹ Ø´Ø§Ø¡
ĠØ§ÙĦØ£ Ø±
ha k
ÙĦÙĤ Ùĩ
ĠÙĪØ§ÙĨ ØªÙħ
Ġ19 9
Ø§Ø³ Ø·ÙĪØ±Ø©
ĠØ§ÙĦØ£ ÙħÙĦ
ĠØ§ÙĦØ± Ø³ÙĦ
ĠØ§Ø® ÙĪØ©
ĠØª Ø¶Ø¹
ĠØµ Ø¹Ø¨Ø©
Ø§Ø¦ ÙħØ§
ĠÙħÙĤ Ø§Ø¨ÙĦ
ĠÙĨØªÙģØ±Ø¬ ÙĪ
ĠØ¹Ø²ÙĬØ² ØªÙĬ
ĠÙ± ÙĦ
Ã ¢
ĠØ¹ ÙĪØ¶
ĠØ§ÙĦÙĤØ¨ Ø§Ø¦ÙĦ
ĠØµØŃØ¨ ØªÙĬ
j et
ĠØ§ÙĦ Ø¶ÙĪØ¡
ĠØ¨ Ø·ÙĦ
ĠØ§ÙĦÙħ ÙĪØ§ÙĤÙģ
ĠØ¹ÙĨ Ø§Ø¨Ø©
ĠØ§ÙĦØª Ø±ØŃÙĬØ¨
Ġ3 5
ĠÙħ Ø¸Ø§ÙĩØ±
ĠØ¹ ÙĦØ§ÙħØ§Øª
ĠØª ØµØ±
ĠÙħØ´ ÙĩÙĪØ±
ÙĤÙĦ Ø¨ÙĬ
ĠØ¯Ø§Ø± Ùĩ
ĠØ²ÙĪØ¬ ØªÙĩ
Ø·Ø¨ Ø®
ĠØ¹Ø§ÙĪ Ø¯Øª
ĠØ´ Ø±ÙĪØ·
ĠØ¨Ø§ÙĦ ÙħØ±
ĠØ§ÙĦØ´ Ø¯ÙĬØ¯
ra bi
ĠÙģØ§ÙĦ Ø£
al ly
Â» (
ĠÙĪØ§ÙĤ Ø¹
g l
ÙĥØ± ÙĪ
ĠØ§ÙĦÙĨ ÙĬØ©
ĠØ§ÙĦÙĤ Ø¶Ø§Ø¡
ĠØº ÙĬØ¨Ø©
ĠØªØ« Ø¨ÙĬØª
Ùĩ ÙĪÙĦ
ĠÙħ Ø§Ø¬Ùĩ
ĠØ¨ ÙĥÙĬØª
ĠØ³ ÙĤØ³ÙĬ
ĠØ§ÙĦØ³ Ø±Ø¯
ĠØ¶ÙĬ ÙģØªÙĨØ§
ĠÙĬØª ÙĨ
ti f
Ġ195 5
ðŁĺ ¨
ÙĦØ§ ÙĬÙģ
ÙĪÙĦÙĬ Ø´
ĠØ§ÙĦØ§Ø¨ ØªØ¯
ĠÙĦÙĦØ´ ÙĬØ®
, ,
Ø£ ÙħÙĦ
Ø· ØŃ
ĠðŁ į
ĠÙħØ´ Ø§ÙĩØ¯Ø©
ĠØªØŃ ØµÙĦØª
ĠØ² Ø¯Øª
ĠØ§ÙĦÙģ ÙĤØ±
Ġv o
ir es
ĠÙģØ§ÙĩÙħ Ø©
Ø¹ Ø¬Ø¨ÙĨÙĬ
ĠÙĦ Ø¨ÙĦ
Ø¹Ø¯ ÙĪ
ĠÙħØŃ Ø±Ùħ
ĠÙħØ« ÙĪØ§Ùĩ
ba b
ĠØ§ÙĦÙĨÙĤ Ø¯ÙĬ
ĠØºÙĦØ· Øª
Ø³ ÙħÙĬ
ĠØ® ØªÙĥ
ĠÙĦÙĦ Øµ
Ø³ÙĬ ÙĦ
ĠÙĪØ¬ ÙĩØ©
ĠÙħÙĥ ØªØ¨
ØŃ Ø¯Ø©
ÙĬØª ÙĩÙħ
ØªÙĦ Ø§Ø·
ĠÙĬØ¨ ÙĥÙĬ
ĠâĻ¥ï¸ı âĻ¥ï¸ı
âĺº ï¸ı
Ø§ÙĦ Ø²
ĠØªØŃ Ø³Ø¨
ĠA llah
ĠØ§ÙĦØ³Ø± Ø¹Ø©
ĠØ¨ ÙĤØ§
ĠÙĥ ØŃÙĦ
ĠØ³ Ø¦ÙĦ
ĠØ§ÙĨ Ø³ØªØ§
ĠÙĨØ¹ ÙĬÙħ
ĠÙĬØ¹ÙĦÙħ ÙĪÙĨ
Ġfa it
ĠØ¥Ø³Ø± Ø§Ø¦ÙĬÙĦ
ĠÙĬ ØªØ´
ĠØ§ÙĦÙħ ÙģØ¶
Ø±ÙĬ Ø¯Ø©
ĠØ§ÙĦØµ Ø¯ÙĤ
Ø²Ø¹ ÙħØ§
ĠØ§ÙĦØªØ§Ø±ÙĬØ® ÙĬØ©
Ùħ ÙĦÙĬÙĪÙĨ
ÙĪ Ø§ØµÙĦ
Ø§Ø³ ØªÙĬ
ÙĥÙħ Ø§ÙĦ
ĠÙĪÙĬ ÙĪÙħ
Ø¢ Ùħ
ĠØ§ÙĦÙģ Ø³Ø§Ø¯
ÙģØ³ Ø§Ø±
re k
ĠØªÙĦÙĤ Ø§ÙĬ
ĠÙĬ ØªÙĬ
ĠØ¯ ÙĬÙĥ
ØŃÙĥ Ø§ÙĬ
Ø®ÙĦ Ø¹
ĠâĢ Ŀ
ĠÙģØªØŃ Øª
ĠÙĦÙĦØ¬ Ø²Ø§Ø¦Ø±
ĠØ§ÙĦ Ø§ÙĦÙĥ
ĠØ¨Ø§ÙĦ ØµØŃØ©
ĠÙĪÙĬ Ø¬
ĠØ§ÙĦØº Ø±Ø¨ÙĬØ©
ĠØ§ÙĦÙĦ ÙĪÙĨ
ĠØªØ£ Ø«ÙĬØ±
Ø« ÙĨØ§Ø¡
ĠØ³ ÙĦÙģ
ĠÙĪØ§ÙĦ Ø¯Ùĩ
Ġm al
ĠÙĪØ¢ Ø®Ø±
ĠÙĥÙĨØ§ ÙĬØ©
ĠØªÙĪÙģÙĬÙĤ Ùĥ
f or
ÙĬ ÙĩÙħ
ÙĨ ÙĪØ§
ĠØ§ÙĦÙħ ÙĪØ±Ø§ÙĦ
Ø§Ø¯ ÙĦØ©
ĠØ¬ Ø¯Ùĥ
ĠØ¨Ø§ÙĦ Ø¹ÙĦÙħ
ĠÙĬØ´ Ø¹Ø±
ĠØ§Ø±ØŃÙħ ÙĩØ§
Ø¸ÙĬ ÙģØ©
Ø§Ø¬ ØªÙħØ§Ø¹
ĠØ¹Ø¨Ø¯ Ùĩ
ĠØ§ÙĦÙħØ³ Ø§Ø¨ÙĤØ©
ÙĪØ§Ø± Ø¬
Ġkh ir
ÙĨ Ø¬
ĠØ¹ Ø±Ø³
ĠØª Ø³Ø±
ĠØ¬ ÙĪØ²
Øº Ø¯ÙĪØ©
ĠØ§ÙĦØ£ ÙħÙĨ
Ø¯Ø± ÙĪØ³
ĠðŁĺ ¥
Ġm es
ĠØ±ÙĪ ÙĪØ¹Ø©
ĠÙħØ± ØªÙĬÙĨ
ĠÙħ ÙģØ±
ĠØ¨ Ø¹Ùħ
ĠÙĦ ÙĤØ±
ĠÙĪØ§ÙĦ ØªÙĪÙģÙĬÙĤ
ĠÙħØª ÙĨØ³
Ø± ÙħØ¶Ø§ÙĨ
ÙĤ Ø§Ø¯Ø©
ĠØ± Ø³Ùħ
Ø¶ Ø§Ø±
ĠØ§ÙĦÙħ ÙģØ¶ÙĦ
ØªÙĪ Ùĩ
ĠØ¨Ø¹ ÙĬÙĨ
ĠØ¨Ø¹ ÙĬØ¯Ø©
ĠØ¨ÙĬ Ø¹
ĠØ¬ÙĨ Ø§ØªÙĥ
ØŃ ÙĤÙĪ
ĠØ¨ ÙĪØ³
ĠÙĥ ÙħÙĨ
ðŁĺ Ĳ
ĠØ§ÙĦØ£ Ø¬Ø±
ĠÙĪØ£ ÙĥØ«Ø±
ĠÙħØª Ø±Ø´
ĠØ§ÙĦÙĩØ¯ Ùī
L e
Ùĩ ÙĦÙĩ
ĠÙħ ÙģØ¹ÙĪÙĦ
ĠÙĤ ÙĦØ©
Øº Ø§
ĠØ§ÙĦØ¹ Ø§Øµ
ÙĦØ¨ Ùĩ
Ø¹Ø± Ø§Ø¶
ÙĥÙĪ Ø¨ÙĬ
ĠØ¨Ø¬ Ø§ÙĬØ©
ĠØ¯ÙĤ Ø§Ø¦ÙĤ
b er
ÙĦØ§ ÙĬÙĥ
Ø§Ø³ Ø±
ĠØ§ÙĦØ¬ Ø§ÙĬØ©
ĠØ§ÙĦØŃ ÙĨ
ĠÙģÙĤØ§ÙĦ Øª
ÙħÙĨØª Ø¯Ùī
Ã ł
ĠÙĪ ÙģÙĩÙħ
Ø¬ ÙĬØ¹
ĠØª Ø®Øµ
ĠØ§ÙĦÙĤ ÙħØ±
Ġ10 6
ĠØŃÙĬÙĨ ÙħØ§
ĠØ¯Ø§ÙĬØ± ÙĬÙĨ
ĠÙĤÙĪ Ø§Ø¹Ø¯
ĠÙĦÙĦØ¹ÙĦÙħ ÙĬÙĬÙĨ
w f
ĠÙĦ Ø²ÙĪØ¬
ĠÙĨ ÙĪÙħ
ĠØ§ÙĦÙħ ÙĪØ§ÙĤØ¹
Ø±ÙĬ ØŃØ©
ĠÙĬØŃ Ø¨ÙĪ
ĠØ§Ø® ØªØ¨Ø§Ø±
ÙĥØ§ÙĨ Øª
ar i
ĠÙĩØ¯Ø± Øª
Ġvra i
ÙĪ Ø°
ĠØ¹ Ø¨ÙĬØ¯
ĠØª ÙĦÙħÙĬØ°
ÙĦÙĬ ÙĪÙħ
ĠØ§ÙĨ ÙĨØ§
ĠÙĪØ£ ØµØŃØ§Ø¨
ĠÙĪØª Ùħ
ĠÙģØ£ Ø¬Ø§Ø¨
ĠØ¨Ø³ ÙĥÙĪ
ĠØ¨Ø³ ÙĥØ±Ø©
Ùĩ ÙĪØ±Ø©
ĠÙĦÙħ Ø³
ĠØ§Ø¨ ØŃØ«
Ġh om
ĠØªØ³ Ø§Ø¹Ø¯
ĠØ§ÙĦÙģÙĦØ³Ø·ÙĬÙĨ ÙĬØ©
ÙĨ ÙħÙĪØª
ĠÙħ ØŃÙĬ
ĠØ¨ ÙĪØ¬ÙĪØ¯
ĠÙĬ ÙĪÙĦØ¯
ÙĤÙĪ ÙĦÙĩÙħ
ĠØ§ÙĦÙģÙĬØ¯ÙĬÙĪ Ø§Øª
ðŁĸ¤ ðŁĸ¤
ĠÙĪ Ø®ÙĬØ±
Ø§ÙĨ ØªÙĬ
ĠØª Ø§
Ø° ÙĬÙĥ
Ø¯ÙĬ Ø¯Ø§
ĠØ±Ø¨ÙĬ Ø¹
ĠÙĬØŃ Ø±Ùħ
Ġm iloud
ĠÙĨØŃ ÙģØ¶
ĠØ§ÙĦØ² ÙĩØ±ÙĬ
ĠØ¬ÙĨ ÙĪÙĨ
ĠØ³ÙĨ ÙĨ
ĠðŁĮ ¸
ÙĪÙĨ Ø§ÙĦ
ĠØ® Ø´
ĠØ§ÙĦØŃ Ø¬Ø§Ø¨
ĠÙĪÙĬ Ùĥ
ĠÙĦÙĪ ÙĤØª
ĠØªÙĪ ÙģØ±
ĠØ§Ø´ Ø±ØŃ
ĠØ¨Øµ ÙģØ©
Ø§Ø¨ÙĬ ÙĩØ§
ĠÙħØ¨Ø§Ø±Ùĥ Ø©
ĠØ§ÙĦØ§Ùģ ÙĥØ§Ø±
ĠØ§ÙĦØª ÙĦÙħÙĬØ°
ĠÙĩØ° ÙĪÙĥ
ĠÙħØ´ ÙĪ
Ġn dir
ĠÙĪØ´ Ø±
ĠÙĬØª Ø²ÙĪØ¬
is e
Ø±ÙĬ ÙĦ
ĠØ§ÙĦØ¨ ÙĦØ§Ø¡
ĠØ§ÙĦØµ ÙĨÙģ
ĠØ¨ÙĬÙĨ ÙĩØ§
ÙĤØ· Ø§Ø¹
ĠÙĦÙĦÙħ ÙĪ
ĠØ£Ø¨ ÙĨ
ĠÙĨÙĦÙĤ Ø§ÙĪ
fd k
ĠÙģÙĦØ¨ Ø§Ùĥ
ĠØ§ÙĦØ¹ ÙĪØ¯Ø©
ĠðŁ ©
ĠØ§Ø± Ø¶
ĠØ§ÙĦØ¨ÙĬ Ø§ÙĨÙĬØ©
Ġre bi
ĠØ±Ùĥ Ø²
ĠÙĨØ· ÙĦØ¨
ĠØ§ÙĦØŃÙĤÙĬ ÙĤÙĬØ©
r Ã©
Ùĥ ØªØ§Ø¨
ĠØ§ÙĦÙħ Ø¹Ø±Ùģ
ĠØ§Ø³Øª Ø§Ø§Ø°
ĠØ§Øµ ÙĦ
ĠØ®Ø· ÙĪØ©
ĠðŁĻĤ ðŁĻĤ
ĠÙĨØ± Ùī
Ø§ÙĦØ´ Ø¹Ø¨
Ø§ÙĦØ³ Ø¤Ø§ÙĦ
ÙĨØ§ÙĤ Ø¶
ĠÙĪØª Ø¯
ĠØ®Øµ Ø§Ø¦Øµ
g i
ÙĦ Ø§Ø´
ÙĬ Ø§ÙĨ
Ø§Ø± Ø¯
ĠØ´ Ø±ÙĬØª
ĠØ§ÙĨ ØµØŃ
âĢ ŀ
ÙģØª Ø®Ø±
Ġv er
ĠØ§ÙĦÙħØ¬ Ø§ÙĩØ¯ÙĬÙĨ
ĠØŃØ³ ÙĬÙĨ
ĠØ§ÙĦÙģØª Ø§Ø©
ĠÙĬØ§Ø³ ÙĬÙĨ
ĠØ§ÙĦØ£Ø¯ ÙĦØ©
ĠÙħÙĪÙģ ÙĤØ©
ĠÙħ ÙģÙĬØ¯Ø©
ĠÙħ Ø¨Ø±ÙĪÙĪÙĥ
ĠÙĦ Ø§ÙĥÙĨ
Øµ Ø§ØŃ
ĠÙĩØ§Ø¯ ÙĪÙĥ
ĠØ´Ø®Øµ ÙĬØ§Øª
ĠØ³Øª Ø©
ÙĨ Ø§Ø©
ĠÙħÙĨ Ø´
ĠÙħÙĨ Øµ
ĠØ§ÙĦÙħ ÙĤØ¯ÙħØ©
ÙĪÙħ ÙĬÙĨ
ĠØ§ÙĦØ¬ Ø³Ùħ
ĠØ¨Ø± ÙĤÙħ
Ġ '
ĠÙĪ Ø¯Ø§Ø±
ĠÙĦ ØªÙĪ
ĠÙħÙĨ Ø¨Ø¹Ø¯
ĠØ§ÙĦØ¹ Ø´Ø±
ĠðŁĺ İ
ĠØ¨ÙĦ Ø¯ÙĬØ©
Ġd er
ÙħÙĪ Ø²ÙĬÙĨ
ĠÙĤØ± Ø§ÙĬ
ĠØ£Øµ ÙĪÙĦ
ĠÙĪØ§Ø³ Ø¹
ðŁ© ·
ĠØ§ÙĦØ£Ùģ ÙĥØ§Ø±
ĠØ§ÙĦ ÙĨÙĬ
ĠØ¹ Ø§
ÙĪØ± Øª
ÙĬØ§ ÙĤØ©
ĠðŁĺ Ĳ
ĠØ§ÙĦÙĪ ØµÙĪÙĦ
Ġw as
Ġk ol
ĠÙħØ³ Ø§Ø¹Ø¯Ø©
ĠÙĬØ´ ÙĩØ¯
ĠØ§ÙĤØª Ø¨Ø§Ø³
] )
ĠØ§ÙĦ ÙĩÙĬ
ĠÙģ ÙĦÙĥ
ĠØ§ÙĦØ£ ÙĦÙħ
ĠØ§ÙĦØ¬ ØºØ±Ø§ÙģÙĬØ§
ĠØ§ÙĦÙģ Ø¶ÙĬ
ĠÙĪØ¨ ØŃÙħØ¯Ùĩ
cha lah
ðŁİ Ģ
Ġ ;
Ùģ Ø§Ø¸
ĠØ¹ Ø¨Ø±Ø©
ĠØ´ ÙĪÙĥ
ĠÙĪØ§ÙĦ Ø¯ÙĬÙĨ
ĠØ§ÙĦØª Ø®ØµØµ
ĠÙĪÙĦØ§ ÙĤÙĪØ©
ĠØ³Ø¨ØŃØ§ÙĨ Ùĥ
ĠØ³Ø¨ Ø¨Ø§
ĠÙħÙĪØ± Ø§Ùĥ
ĠÙĬ Ø¯Ø±
ĠÙĬ ÙģÙĬØ¯
ĠØ§Ø³ Ø§Ø³
ĠØ§ÙĦØ¥ ÙĦÙĥ
ĠØªØ¬ Ø±Ø¨
ĠÙĬÙĥÙĪÙĨ ÙĪØ§
ÙħÙĪ Ùĩ
ĠÙħØ® Øª
ĠÙĬÙħ Ø§Ùĥ
Ø§ÙĦØŃÙħØ¯ ÙĦÙĦÙĩ
: "
ĠØ± Ø§Ø¨Ø¹
Ø§Ø³ Ùĥ
ĠØ¨Ø§ÙĦ Ø®ÙĪÙģ
ÙģÙĬ Ø²
ĠØŃÙĬØ§Øª ÙĨØ§
ĠÙĥØ±Ùĩ Øª
ĠØ§ÙĦÙĤÙĪ Ø§Ø¹Ø¯
ĠÙħ Ø²ÙĬØ©
ĠÙĬ ÙĪÙĨØ³
Ø§ÙĨ Ø³Ø§ÙĨ
Ø¹ÙĦÙĬ ÙĤ
Ø´Ùģ Ùī
Ø§ÙĪØ¨ ÙĨÙĬ
ĠØ§ÙĦØ´Ø¹ ÙĪØ±
Ùħ Ø³Øª
Ø¯ ÙĪØ¯
Ø£ Ø«Ø±
Øº ÙĦØ¨
Ø§Ùģ Ø¸Ø©
ĠØ¨Ø§ÙĦ ØŃÙĤ
ĠâĿ¤ ðŁĺĤ
ĠØ§ÙĦØ± Ø¤
Ø³ÙĬ ÙĪ
ØªØ§Ø¨ Ø¹Ø©
ir st
ĠÙĪØ¨Ø¹Ø¯ ÙĩØ§
6 7
ĠÙĪ ÙĤØ±
ĠØ§ÙĦØ¬ ÙħÙĦ
Ø¹Ø¨ Ø§Ø¯Ø©
ĠÙĪØ± Ø¬
Ġc a
ĠØ¹Ø§Ø¬ ÙĦØ§
ĠÙħ ÙħÙĬØ²Ø©
ĠÙĬ Ø§Ø£
ĠØ§ÙĦÙĨ Ø¹Ùħ
ĠÙĪÙĦØ§ ÙĪ
ĠÙĪØª Ø³Øª
ĠÙħØª ØŃÙħ
ĠØ£Ø® ØªÙĨØ§
ĠØ§ÙĦÙħÙĨØ§ ÙģÙĤ
ĠÙģ Ø¸
ĠÙĪØ§ÙĦ ÙģØ±
Ø§Ø¦ ÙĬØ§
Ġ20 19
ĠØ§ÙĦØº Ø±ÙĬØ¨
ĠÙĦÙĦÙħ Ø³ÙĦÙħÙĬÙĨ
Ø§Ø· Ùģ
ĠØ§ÙĦÙĨØ¬ ÙĪÙħ
ĠÙĥÙĪØ± Ø§Ø¬
+ +
ĠÙħ Ø§ÙĦÙĬ
ÙĤ Ø¶
ĠØ§ÙĦØ± ÙĪØ§ÙĬØ©
Ø¨Ø¯ Ø§Ø¹
ĠÙĪÙĤ Ùģ
ĠÙĨÙĨ ØµØŃ
n j
Ø« ÙĬÙĦ
ĠØµ ÙģØ±
ĠØªØŃ ÙĤÙĤ
Ø¦ ÙĦØªÙĥ
** *
ĠÙĨØŃ Ø§ÙĪÙĦ
ĠØ§ÙĦØ¹Ø± Ø§ÙĤ
ĠØ¨ ÙĪÙĨ
ĠØª ØµØŃÙĬØŃ
ĠðŁ ĵ
ĠÙĬØŃ Ø¨Ùĩ
Ø§ÙĦÙħ ÙĪÙĨ
ĠðŁĴ ĵ
ĠÙĪØ§ÙĦÙħ Ø³ÙĦÙħ
ĠØ£Ø³ Ø¹Ø¯
ĠÙħØ³ÙĦÙħ Ø©
8 9
ĠØ¨ Ø¶
ØªØ¨ ÙĬÙĨ
ĠØ£Ùħ Ùĩ
ĠØ¹Ø¨Ø¯ Ùĥ
ĠÙĦØ£ Ø®
Ø§ÙĩØ¯ Ø§Øª
ĠØ§ÙĦØªØ¹ÙĦÙĬ ÙĤØ§Øª
ĠØ£Øº ÙĦØ¨
4 3
ĠÙĪØ¬ Ø¨
ĠØ§ÙĦØ¯Ø± Ø§ÙĩÙħ
ĠÙĤØµ ÙĬØ±Ø©
ĠØ±Ø§ÙĬ ØŃÙĬÙĨ
ĠÙĪØ§ÙĦØŃ Ø¯ÙĬØ«
ĠÙħØ¶ Ø§Ùģ
ĠØ¥Ø³Ùħ Ø§Ø¹ÙĬÙĦ
ĠÙģ Ø§ÙĦÙĦÙĩ
ĠØ´ Ø±ÙĬØ¹Ø©
Ø¯Ø± Ø§Ø³Ø©
ĠØ§ÙĦÙĩ Ø¬Ø±Ø©
ĠÙĥØªØ¨ Ùĩ
ĠÙĨ Ø§ÙģØ¹
ĠØ§ÙĦØª ÙĤØ¯ÙĬØ±
ĠÙħØ¬ Ø§Ø²
ĠØ§Øª Ø®Ø°
ĠÙĤØ± Ø§Ø¡
ĠÙģÙĤØ§ÙĦ ÙĪØ§
ĠÙĪÙĬØ¨ Ø§Ø±Ùĥ
ĠÙĤ Ø§
ĠØ§Ø³Øª Ø·ÙĬØ¹
Ġf el
ĠØ¨ØŃ ÙĥÙħ
ĠØ§ÙĤØª ØµØ§Ø¯
ÙĪ Ø§ÙĦØŃ
ĠÙģ Ø§ÙĬØ±
Ø· ÙĬØ¨
Ø§ÙĬ Ùĥ
Ø§Ø¸ Ø±
Ø· Ø¨ÙĤ
ĠØ§ÙĦÙĤ Ø¯Ø±Ø©
ĠØªÙĪ ÙĤ
ĠØ£ØŃØ¨ Ùĥ
ĠØµØ¯ÙĬ ÙĤÙĬ
ÙĤ Ø§Ø¨
Ø´ Ø§Ø±Ø©
ĠÙĬØŃ Ø³ÙĨ
Ø§Ø· ÙģØ©
Ġs h
ĠÙĦØ£ ÙĬ
ĠØ¶ØŃÙĥ Øª
ĠØ®Ø§ÙĬ Ùģ
ĠØ²ÙĬÙĨ Ø¨
ĠØ§ÙĦÙħØªØ§Ø¨ Ø¹Ø©
A llah
ĠØ± ÙĪÙĬ
ĠÙĪØ¹ Ø¨Ø¯
ĠØ§ÙĦØ£Ø´ Ø®Ø§Øµ
ĠØ·Ø±ÙĬ ÙĤØªÙĥ
l l
ĠÙħ ÙĬØ±
ĠØ¨ Ø±Ø¨
ĠÙĬ Ø¨Ø¯Ø£
ĠØª ØµÙĦØŃ
ĠÙĨ ÙĤØ¯
ĠÙĪØ£ ØŃ
ĠÙĪØŃ Ø¨
ĠØ¨ÙĬ ÙĪØª
ĠØ§ÙĦÙĤØ± Ø·Ø¨ÙĬ
Ġma k
ĠØŃØ± ÙĬØ©
ĠÙħÙĪØ± Ø§ÙĬØ§
ĠØ§ÙĦÙħØ¤ Ø±Ø®
Ġ <
ĠÙĥ Ø³
Ø° ÙĥØ§Ø±
Ø§Ø³ ÙĦ
ĠØªØª Ø±Ùĥ
ĠØ±Ø§ØŃ ÙĪ
ĠÙĬØ¨ ÙĬÙĨ
ðŁĻĤ ðŁĴĶ
ÙĥØ±ÙĬ Ø§Øª
Ø¶ØŃ ÙĬØ©
ÙĪ Ø¨ÙĬ
Ø¹ Ø¸Ùħ
ÙĤØ± Ø§Ø·ÙĬØ©
ĠØ§ÙĦØ· Ø¨ÙĬØ¨
ĠØ§Ø¬Ø± ÙĥÙħ
ĠÙĪ ÙĦØ¨
ÙĦÙĪ Ø³
ĠØ§ÙĦÙĬ ÙĤÙĬÙĨ
ĠÙĦÙĤ Ø§Ø¡
ĠØ¯ÙĪÙĥ Ø§
ÙĤ Ø§Ø¹
ÙĦÙĬ Ø·
Ø§Ùħ ÙĬØ©
Ø¯ÙĬ ÙĩØ§
ĠØ§ÙĦÙģ ÙĦØ³
ÙĤØ¯Ø± ÙĪØ´
ĠÙĬØ¯ ÙĪØ±
ĠÙĤØ¨ ÙĦÙĩ
Ø® Ø§Ø°
Ø¹Ø¯ Øª
ÙħÙĬ Ø§
ĠðŁĺ ĩ
ÙħØ± Øª
ĠðŁ¤ Ĺ
ĠØ§ÙĦØ¸ Ø§ÙĩØ±Ø©
ĠØ§ÙĦØ§ØŃ Ø¯
Ġyou tu
p a
Ø² ØŃ
ðŁĺ ©
ĠØ¥ Ø¶Ø§ÙģØ©
Øº ÙĨÙĬ
ĠØ§Ø³Øª Ø®Ø¯Ø§Ùħ
ĠØ£ØŃØ¯ ÙĩÙħØ§
ĠØ²ÙĪØ¬ ÙĬ
ĠØªØ£ Ø®Ø°
ĠÙĨØ¸ Ø±Ø©
ĠØ²Ùĩ Ø±ÙĬ
Ø§Ø± Ø¬ÙĬ
ĠØ§ÙĦÙħ ØŃØ¯Ø«
Ø§Ø³Øª Ø¹Ø§Ø±Ø©
ĠØ§ÙĦØ° Ø§Øª
ĠØ§ÙĦØ£Ø³ Ø±Ø©
6 2
Ùħ Ø§Ùĥ
ĠØª Ø®ÙĦØµ
ĠØ§ÙĦØ¹ ÙĦØ§ÙĤØ©
ĠØ§ÙĦÙĪ ØŃÙĬ
ĠØ§Ùħ Ùĥ
ÙħØ³ Ùĥ
ĠÙĦ ÙĪØ¬Ùĩ
ĠÙĬ ÙĦØª
ĠØª Ø³ÙħÙī
ĠÙĨ ÙĪØŃ
ĠØŃ ÙĥÙĬØª
ØŃØª Ø§Ø¬
Ø§Ø¤ ÙĦ
ĠÙĬØªØŃ Ø¯Ø«
00000000 00000000
ĠÙĪ ØªÙĩ
ÙĨØª ÙħÙĨÙī
ha d
ĠØ§ÙĦÙħØµ Ø·ÙģÙī
Ġch e
Ãª me
ĠØ¹Ø§Ø± ÙģØ©
ĠØ§ÙĦØ§ÙĦØª Ø²Ø§Ùħ
u p
ĠÙĪ Ø³Ø±
ÙĦØ§ ÙĤØ§Øª
Ø¨ÙĬØ¨ ÙĨØ§
ĠØ£Ø³Øª ØºÙģØ±
ĠØ§Ø¬ØªÙħØ§Ø¹ ÙĬØ§Øª
ĠØ§ÙĦÙħØ° ÙĥÙĪØ±
Ġâĺº ï¸ı
Ùħ ØªÙĩ
ĠÙĦ Ø¹ÙĦÙħ
ĠÙĪØ§ÙĦ ÙĩÙħ
en ce
ĠØ¨ ÙĦÙĤ
ĠÙģ Ø±ÙĬÙĤ
ĠØ§ÙĦØŃ Ø³ÙĬÙĨ
ĠØ§ÙĦØ´ Ø§ÙħÙĦØ©
ĠØ° ÙĨ
ĠØ§ÙĦÙħØ± Ø³ÙĦÙĬÙĨ
ÙĬ Øµ
ÙĨ Ø§Ùħ
ðŁĺ ı
ĠÙĪØ§ÙĦ Ø¬ÙĨ
ĠØ§ÙĦØª ÙģÙĥÙĬØ±
ĠØº Ø±Ø¨
ĠÙĪØ´ ÙĨÙĪ
ĠÙĪÙħÙĨ ÙĥÙħ
ĠØ§Øª Ø¨Ø§Ø¹
ĠÙĪØ§Ø³ ÙĥÙĨÙĩ
t k
ĠØ´ ÙħØ§ÙĦ
ÙĪÙĨ Ø¯
Ø§ÙĪ ÙĪ
ÙĪØ¯ Ùĩ
ĠØ¬Ø§Ùħ Ø¹
ĠØ§ÙĦØ§Ø· ÙģØ§ÙĦ
ĠØ£ Ø³Ø¨ÙĪØ¹
âĿ¤ ðŁĺĤ
ĠØ§ÙĦØª ÙħØ§Ø±ÙĬÙĨ
ĠØ§ÙĦÙĨ ØµØ±
ĠÙĦÙħ ÙĪ
ÙĩÙĬ Ùĩ
ĠB ac
ĠØ§ÙĦØ¬Ùħ ÙĩÙĪØ±
ðŁ© ¹
Ø§ÙĦ ØªÙĩ
Ø§ÙĦ ØŃÙĥØ§ÙĬØ©
Ø¨ Ø§Ùĩ
ĠØ£ Ø°ÙĥØ±
ĠÙĨ Ø§Ø¶
ĠØ± ÙĤØ§Ø¯
Ø³Øª Ø§ÙĨ
ĠØ§ÙĦØ³ Ø¬ÙĨ
Ġb l
ĠÙĬØ® ØªÙĦÙģ
da k
ĠØ±Ø²ÙĤ Ùĥ
ĠÙĨÙĤÙĦ ÙĥÙħ
7 9
ĠØ³ ÙĨØ¯
Ø§Ùģ ÙĤØ©
ĠØ§ÙĦØ¯ ÙĪØ±Ø©
ĠØ¨ ÙĪØ¹
Ø§ÙĨÙĬ ÙĬÙĨ
Ø§Ø· Ø¨
ÙħÙĥÙĨ ÙĬØ©
ĠØ±ÙĬ Ø¯ÙĬÙĥØ³
ÙĪÙĦØ§ ÙĬØ©
ĠÙĪØ§ ÙĤØªØµØ§Ø¯
Ùħ Ø§Ø¯
ĠðŁĴĶ ðŁĴĶ
ĠÙĬ Ø§Ø¨
ĠÙĨ ÙĥØ±Ùĩ
ĠÙĨ Ø¨Ø¹Ø«
ĠØ± Ø§Ø¯
ĠØ± Ø§Ùģ
ØªÙĬ ÙĦÙĬ
ĠÙħÙĦÙĬ Ø§Ø±
ĠÙģØ± Ø§ÙĤ
ĠØ§ÙĦØ®Ø§Ùħ Ø³Ø©
Ġ or
ĠÙĬ Ø¯Ø±Ø³
ĠØª ØªØ±
Ø· Ø¦
ðŁĺ Ģ
Øº ÙĬÙĦ
Ø¹Ùħ Ø±ÙĬ
Ø·ÙĬ ÙĥÙħ
ĠØ§ÙĦÙģÙĤ ÙĬØ¯
ÙħØ§ ÙĬ
ĠØ· Ø¹Ø§Ùħ
ĠØŃØ± ÙĪÙģ
ĠÙĬÙĥ Ø°Ø¨
ĠÃ §a
Ø¬ ÙĪÙħ
Ø³ÙĬ Ùħ
ĠÙĨÙģ ØªØŃ
ĠØ§ÙĦØªÙĤ ÙĦÙĬ
w al
Ø¯ Ø§Ùĥ
ĠØ§ÙĦÙħ Ø¯Ø§Ø±Ø³
ÙĦØ§ Ø§Ùħ
Ġ- -
Ø³ÙĬ Ùģ
ĠØ§ÙĦØ¯ ÙĪØ±
Ø§Ø® Ø°
ĠØ¯ÙĬÙĨ Ùĥ
ĠØ§ÙĨÙĪ Ø§Ø¹
l t
ĠØ§ÙĦÙĨ ÙĤÙĦ
ĠØ² ÙĪ
ĠÙģØ§ÙĦ Ø¯
ĠØ¨ØŃ Ø³Ø¨
ĠØ£Ø¯ Ø¨
Ùĩ ÙĪÙĦØ©
ĠØ§ÙĦÙħ Ø¬Ø±
ĠÙĦÙĬ ÙĥÙĪÙĨ
ĠÙħØ¹ ÙĨØªÙĩØ§
ÙĤØ± Ø§Ùħ
Ġn s
ĠØ¨ÙĬ Ø²Ø§Ø±
ĠØ§ÙĦØ² ÙĥØ§Ø©
ĠØªØ± Ø§Ø¨
ĠØ§ÙĦÙħØ¬ Ø§ÙĩØ¯
ĠØµØ¯ Ø±ÙĬ
Ø§ÙĦ ÙħØ±
ĠÙĬ ÙĥÙħ
ĠØ£ ØªÙħ
ĠØ§Ø³ ÙĦÙĪØ¨
ĠØªÙĤ Ø¹
ĠÙĨØ¯ Ø¹Ùħ
ĠØ§ÙĦÙĨÙģØ³ ÙĬØ©
Ø± Ø§Ùģ
ĠØ£ ÙĤÙĪØ§ÙĦ
Ø±Ø¨ ØŃÙĪ
ĠØ§ÙĦÙĤÙĨ ÙĪØ§Øª
Ø® Ùħ
ĠÙĤ Ùħ
ĠØ³ ÙĪØ¯Ø§Ø¡
ÙĦÙħ Ø§Ø°Ø§
Ø§ÙĬ Ø¯Ø©
ĠÙħÙĨÙĩ Ø¬
ĠðŁ¥º ðŁ¤²
ĠÙĪØ£ÙĨØª Ùħ
ĠØ±Ø£ÙĬ ÙĬ
r c
Ø§Ùħ Øª
Ø¯ÙĬ Ø´
ĠÙĪÙĬ ÙģØ±ØŃÙĥ
ÙĬÙħ ÙĪ
ÙĪÙĩ ÙĪ
ĠÙĬØ³Øª Ø§ÙĩÙĦ
ĠØ§ÙĦÙħØ³ ÙĦØ³ÙĦ
ĠØ¶Ø¹ÙĬ ÙģØ©
ĠØ§ÙĦØ¥ÙĨ Ø¬ÙĦÙĬØ²ÙĬØ©
d k
ÙĦ Ø²Ùħ
ÙĨ ØŃ
ĠØª ÙĪØ¹
ĠØ§ÙĦÙĤ Ø§Ø¯ÙħØ©
ĠÙĪØ£ ÙĪÙĦ
ĠÙħØª Ø§Ø¨Ø¹ÙĬÙĨ
Ġ20 16
ĠÙĨØ³ Ø®
ĠØ§ÙĦØ¯Ø± Ø§Ø³ÙĬ
Øª Ø±Ùģ
ĠØ¨ ÙĪØ±Ùĥ
Ø§Ùģ Ø§
ÙĤÙĬ Ø§Ùħ
Ġp re
ĠØªÙĨ Ø²ÙĬÙĦ
ĠÙĤØ¯Ø± Øª
ĠØ§ÙĦØªØŃØ± Ø±
ĠÙĬ Ø°
ĠØ§ÙĦÙħ ÙĥØª
ĠØ¨Ø§ÙĦ Ø¶Ø¨Ø·
Ø¯Ø§ ÙĤØ©
Ø¹ÙĦ ÙĤØ©
ÙĪÙĬ Ø³
ĠØ¯ÙĬÙĨ Ø§Ø±
ĠØµØŃÙĬØŃ Ùĩ
ĠØ¯Ø±ÙĪ Ùĥ
ĠØ·Ø¨ÙĬ Ø¹ÙĬ
ĠØŃ Ø³ÙĬ
ÙģØ³ Ø§Ø¯
ĠÙħØª Ø±
ÙĤØ§ÙĦ ÙĬØ¯
ĠØ§ ÙĤØ±Ø§ÙĬ
Ø¯ÙĪ Ø§Øª
Ġv e
ĠØªØ³ ÙĬØ±
ĠÙĤØ± Ø§
Ø§ÙĦ ÙĪØ±ÙĬØ§Øª
ĠÙĪÙħ ÙħØ§
ĠÙĨØŃ Ø³Ø¨
ĠÙĬØª Ø¹ÙĦÙħ
ĠÙĦØ¨ Ø§Ø±ØŃ
Ġha y
ĠÙĤØ¯Ùħ Øª
ĠÙĪØ³ÙĬ ÙĦØ©
I N
ÙĨ ÙĩØ§Ø±
ĠÙĪ Ø³Ø¨
ĠÙĥ Ø±Ø©
ÙĦÙĪ ÙĩÙħ
ĠÙĪØ§ÙĦÙħ ØŃ
Ø¶Ø± ÙĪØ±Ø©
ĠØªØ· ÙĦØ¨
ÙĦ ØŃÙĤ
ĠØ® Ø§ÙĪØ©
ÙĪØ§ ÙĤÙĬ
ĠØªØ¹ ÙĦÙĤ
ĠØªØŃ ÙĦÙĬ
ĠÙĪØª Ø¨
Ø²ÙĬ ÙĪÙĨ
ĠØ¯Ø§Ø± Ø§
ĠÙĤØª ÙĦØªÙĨÙĬ
ĠÙĨØªØ¨Ø¹ Ùĥ
J e
Ùĥ Ø§ÙħÙĦ
ÙĤ ÙĦÙĥ
ĠØ¨ ÙģØ±
ĠØ¨ Ø§Ø±ÙĬ
ĠØ¹ ÙĪÙĨ
ÙĬØ± ØŃÙħ
ĠÙĤ Ø§Ø¯
Ø« ÙĬÙĨ
ĠØ§ÙĦØ± Ø§Ø¨
ØªÙħ Ø§Ø¯
ĠØªÙĤ ÙĦÙĬ
ĠØ¹Ùħ ÙĦØ§
ĠÙĪÙĤ ÙĦØª
ĠÙħÙĤ Ø§Ø±ÙĨØ©
ĠØ´Ø± Ø¹ÙĬØ©
ĠØ¨Ø§Ø± Ø¯Ø©
Ø¨ Ø´
ĠÙĦ Ø°
ĠØ£ ÙĥÙĦ
Ø« ÙĦÙĩ
ÙĤØ§ÙĦ Ùĥ
ĠØªØ¬ Ø§ÙĪØ²
Ø§Ø¯Ø± Ø§Ùĥ
ÙĨÙĪ Ø¹Ø©
ĠØ®ÙĬ ØªÙĬ
ĠÙħØªØ§Ø¨Ø¹ ØªÙĥ
Ø¸ÙĬ ÙħØ§
ĠØ§ÙĦØ®Ø§Ùħ Ø³
ĠÙĨÙĨØª Ø¸Ø±
v id
Ø« Ø§ÙĨ
Ø§ØŃ Ø¸
ĠÙĪØ£ ÙĩÙĦ
ĠØ¨ÙĦ Ø§ÙĦ
ĠØ§ÙĦØŃÙĦ Ø§ÙĦ
ĠÙĦØ´ Ø¹Ø¨Ø©
E S
ĠÙĪ Ø¯ÙĬØ±
Ø³ Ø®Ø±
ĠØ¨ ØºÙĬ
ðŁĺ Ħ
ĠØ§ÙĦØ¹ ÙĩØ¯
Ø¥ Ø°ÙĨ
ĠØ§ÙĦØ¥ ÙĦÙĩ
ĠØ§ÙĦÙĪ Ø¬ÙĪØ¯
Ø³Ùħ Ø¨Ø±
ĠØ®ÙĪ ÙĨØ§
ĠØªÙĪ ÙĤÙĬ
ĠÙĦØ£ÙĨ ÙĨÙĬ
ĠØ§ÙĦØ£Ø³ ÙĪØ¯
Ġpro f
ĠÙĦÙĦÙħÙĨØª Ø¯Ùī
ĠÙħ ÙģÙĬØ¯
ĠÙĬ Ø±ÙĪ
ĠÙĬ ØºÙĬØ±
Ùī Ø¡
Ø±Ùģ ØªØ´
ĠØ´Ø± Ø§Ø¡
Ġfi h
ĠÙĬØ¤ Ø¯ÙĬ
ĠØ£Ø±Ø¨ Ø¹
ĠÙħÙĨØ¹Ø±Ùģ Ø´
ĠÙĩ Ø¨Ø·
ÙĪÙĨ ÙĬØ´
ĠØ§ÙĦØ£ ØŃÙĥØ§Ùħ
ĠØ§Ø³ Ø§ØªØ°Ø©
Ġl y
ĠÙĬØ´ Ø±ØŃ
ĠØ¹Ø§Ùħ Ø±
ĠÙĪØ§ÙĦÙĪ Ø§Ø¬Ø¨
ĠØ¹Ø±Ùģ Ø©
ÙħÙĥ Ø§Ø´
ĠØ§ÙĦØ´ Ùĥ
ĠÙħÙĪ Ø§ÙĦ
ĠØ¯Ø± ÙĦÙĨØ§
ĠÙĦ Ø¨ÙĦØ§Ø¯
Øµ ÙĦÙĨØ§
ÙĨØ§ ÙĩÙħ
ĠØ§ÙĦÙĤ Ø§Ø¶ÙĬ
ĠðŁĺ ¹
ĠØ±ØŃÙħ ÙĩØ§
ÙģÙĦ ØŃ
ĠØ®Ø§Ø· Ø±Ø´
ÙĬ Ø§ÙĪØ¯ÙĬ
ĠÙģÙĬ ÙĨ
Ø² ÙĪÙĨ
Ø¶ Ø§Ø¹
ĠØ´ ÙĨ
ĠØ® Ø¯
âĿ Į
ĠØ£Ùħ ØªÙĬ
Ø¹Ø± Ø§Ø¨
ĠÙĨØµ ÙĪØµ
ÙĨØ³ ÙĤØ³ÙĬ
ĠØ¹Ùħ ØªÙĬ
Ġ5 00
ĠØ®ÙĦ ÙĤØª
ĠØ± ÙĨÙĬ
Ø±ÙĬ ÙģØ©
ĠØ§ÙĦØ¹ Ø¯ÙĦ
Ø²Ø§ÙĨ Ø©
ĠÙĨØ® ÙħÙħ
ĠÙĨÙĪØ¹ Ø§
ĠÙĬ Ø¨Øª
ĠÙĨ ÙģØ±
ĠÙħÙĨ Ø§ÙĦ
ĠØ¨Ø§ÙĦ ÙĤØ±Ø¢ÙĨ
ĠØªØŃ Ø¯ÙĬØ¯
ĠØ§ÙĦØ® ÙĬÙħØ©
ĠØ§ÙĦØ¥ Ø³Ø±
Ø§Ø· ÙĪ
ĠÙĪØ¬ Ø¹ÙĦÙĩØ§
ĠØ§ÙĪ ÙĦÙī
ĠÙĦÙĪ Ø§ØŃØ¯
Ġc ar
ĠÙħØ³ Ø§Ø¹Ø¯
ĠØ§ÙĦØ§ÙĨ Ø¨ÙĬØ§Ø¡
me d
ĠÙģÙħ Ùĥ
z iz
Ø¬ Ø§Ø¹Ø©
Øº Ø§Ø±
Ġha b
ĠØ¨Ø§ÙĦØ± ØºÙħ
r it
t es
ĠØ§ÙĦØ³ ÙĪÙĤ
ĠØ§Ø³ ÙĪØ¯
Ġs vp
ĠÙģØ§ÙĦ Ùĥ
ĠØªÙħ ÙĨÙĬØª
Ġ4 5
Ġkhou ya
) ).
A L
Ø§ ÙĤØª
Øª ØŃÙĬØ§ØªÙĬ
ĠÙĥ Ø±ÙĬ
ÙĩÙħ ÙĬØ©
Øº Ø±ÙĬØ¨
ĠØ§ÙĦØ¹ Ø§Ø¬ÙĦ
ĠØ¹Ø§Ùħ Ø§
ĠØ§ÙĦØ§ ÙĤØªØµØ§Ø¯
ĠØ®Ø¯Ùħ Øª
ĠÙħØŃÙħ ÙĪØ¯
ĠØ¨ ØµØ±Ø§ØŃØ©
Ø§Ø± Ø«
ĠØ¬ ÙĨØ³
ĠÙĦÙĦ Ø¯Ø§Ø±
ĠØ§ÙĦØ² Ø¨ÙĬØ±
ĠØŃØ¨ Ø§ÙĨ
ĠØ³ÙĤ ÙħØ§
Ùĥ ÙĬØ©
ĠÙħ ØªÙĩ
ĠØª Ø§ÙģÙĩ
Ø£ Ø³Øª
ĠØ§ÙĦÙħ ÙħØª
ĠØ§ÙĨ Ø¬ØŃ
ÙĥÙħ ÙĦÙĬ
ĠÙĪÙĨ ÙģØ¹
ĠÙĬØ³ Ø§Ø¹Ø¯
ĠØ§ÙĦÙħØ´ Ø§Ø±Ùĥ
ĠØ±ÙĪØŃ Ùĩ
ĠØ¨Ø§ÙĦ ØªÙĪ
ĠÙĪØ£ ÙĦÙĩÙħ
ĠØ§ÙĦÙĪ Ø³Ø·
ĠØ¶ÙĬ ÙģØ©
e x
ĠÙĩ Ø¯Ø±Ø©
ĠØ¨Ø§ÙĦ ÙĪ
ØªÙĪ ÙĨØ§
ÙĬØ¨ Ø§
ĠØ§ÙĦØ± Ø§ÙģØ¶Ø©
ĠÙĪØ¨ Ø§ÙĦØªØ§ÙĦÙĬ
ÙĪØ´ Ø©
ØŃ ÙĩØ§
ĠØ® Ø¨Ø±Ø©
ĠÙħØ¹ Ø¬
ĠÙħØ¹ Ø±ÙĥØ©
Ø¨Ø± Ùĩ
ĠØ§ÙĦÙĥ Ùģ
ĠÙħÙĪ ØµÙĪÙĦ
ĠðŁĴ ļ
ĠÙĦØ¹ ÙĨ
ĠØ§ÙĦØ®Ø· Ø§ÙĬØ§
ĠØµØ§ÙĦØŃ Ø§
ĠØ§ÙĦÙĨØ¹ ÙĬÙħ
ĠÙĦ Ø²
Ø§ÙĨ Ø¯
ĠÙħÙĨ ÙĥØ±
ĠÙħØ¹ Ø±Ø¶
ĠØ§ÙĦØ¬ Ø§ÙĨØ¨
ĠØ§ÙĦÙĨ ÙĩÙĬ
or mal
ĠØ¨Ø£ ÙħØ±
ĠÙĨØŃØ¨ ÙĪÙĥ
ĠÙĪØ§ÙĦØª ÙĤØ¯ÙĬØ±
ĠØ¯ÙĬÙĨ ÙĩÙħ
ÙĩØ§Ø¯ Ø§
ĠÙĩØ¯ ÙĬØ©
ĠðŁĻı ðŁı»
A l
ĠÙĨ ÙĩØ§
ĠÙĥ ÙĬØ¯
ĠØ³ Ø®
ĠØªÙĨ Ø¬
ĠØ§ÙĦØ§Ø³ Ø¨ÙĪØ¹
ĠÙĦØ£ Ø¬ÙĦ
ĠØ§ÙĦÙĨÙĩ Ø§Ø¦ÙĬØ©
. âĢı
ÙĬ ÙĪØ³Ùģ
ĠØ§ÙĦ Ø§ÙĦ
ĠØ® Ø°
ĠØ§Ø® ØªÙĥ
ĠÙħØ¬ ÙĦØ³
ÙħØ§ÙĨ ÙĬØ©
ÙĩÙĪ Ø¯ÙĬ
ĠØ§ÙĦØ§Ø® ÙĦØ§ÙĤ
Ø±ÙĬØ¯ Ø§ÙĥØ³
ĠØŃØ³ ÙĨØ§
ĠÙĪØ· ÙĦØ¨
ĠØ§ÙĦØ«Ø§ÙĨ ÙĪÙĬØ©
i b
ÙĬ Ø¨ÙĬ
ĠØª ÙĪØ³
ĠØ§ÙĦÙħ Ø±Ùĥ
ĠØ§ÙĦÙħ Ø³ÙĬÙĦØ©
ĠØ§ÙĦØ¬ Ø³Ø¯
ĠØ« ÙĪØ¨
ĠÙĪØª Ø®
ĠØ§ ÙĬØ©
ØµØ± Ùĩ
ĠØ§ÙĦØ«ÙĤ Ø§ÙģØ©
7 5
Ùħ ÙĤ
Ø¬ Øª
ĠÙĥ ÙĦÙĬØ©
Ø¯ÙĬ Ø¬Ø©
ÙĥÙĬ Ø´
ĠØ§ÙĦØµ Ø§Ø¯ÙĤ
Ġl bac
ĠØ§ÙĦØ§ØŃ Ø±Ø§Ø±
Ġr bi
ĠÙĪØ¹ÙĨ Ø¯ÙĬ
ĠðŁĺģ ðŁĺģ
ĠÛ ŀ
ĠÙħÙĨ Ø²ÙĦ
Ø£ Ø®ÙĬ
ĠØ§ÙĦØ¹ Ø³ÙĥØ±ÙĬØ©
ĠØ§ÙĦØ³ Ø¬ÙĪØ¯
ĠØ§ÙĦØµ ÙģØ±
ĠØ¨ÙĨ ÙĬØ©
ĠÙĪØª ÙĤÙĪÙĦ
ĠØ¶ Ø±Ø¨Ø©
ĠØ£Ø¹Ø· Ùī
ĠÙĬØµØ¨Ø± ÙĥÙħ
m ou
Ø¯ ÙĨ
Ø° Ø±Ø©
ĠÙĦÙĦ ØªÙĪ
ĠØ§ØŃ ÙĦÙī
ĠØ§Ø¬ ÙĨØ¨ÙĬØ©
ĠØ§ÙĦØ§Ø¬ØªÙħØ§Ø¹ ÙĬØ§Øª
ÙĪ Øº
ĠØ£ Ø¨Ø¯
ĠØ¬ Ø±Ø¨Øª
ĠØ§ÙĦØ¹ ÙĤØ¯
ĠØ¹Ùħ ÙĦÙĥ
ĠØªØ£ Ùĥ
ĠØ§ÙĦ Ø¶Ø¹Ùģ
ÙĪÙĦ ÙĪØ§
ĠØ® Ø³Ø§Ø±Ø©
ĠÙĪÙĬ ÙĪØ³Ø¹
ĠÙĪÙĥ ØªØ¨
Ġma y
ĠØ±ÙħØ¶Ø§ÙĨ Ùĥ
ĠØ¹Ø´Ø± ÙĬÙĨ
ĠÙĦØ´ Ø®Øµ
ĠØ§ÙĦ ÙĬÙħ
ĠØ£ÙĨ ÙĪ
Ø¨Ø± Ø²
ĠØ§ÙĦØµ ÙĪÙħ
ĠØ« ÙħÙĨ
ØŃÙĦ Ø§ÙĦ
ĠÙĬØ±Ø²ÙĤ ÙĨÙĬ
ĠÙĦ ÙģÙĬ
ĠØŃ Ø§ÙĦÙĥ
ĠØ´ Ø¬Ø±Ø©
ĠÙĪØ§ÙĦ Ø§Ø¹
ĠØ£Ùħ ÙĪØ§ÙĦ
ĠØªØ¬ ÙħØ¹
ÙĩØ¯ Ø§Ùģ
ĠØ®ÙģÙĬ Ùģ
ĠØ§ÙĦØŃØ¶ Ø§Ø±Ø©
ĠØ¹ Ø¬Ø²
ĠØµ Ø§Ø¨
Ø·ÙĬ Ùĩ
ĠÙĨØ¯ÙĬ Ùĩ
ĠØ¨Øµ ÙĪØª
ĠØ³Ùħ Ø§Ø¹
ØµØ§Ø± Ùī
ĠØ§ÙĦÙĤØµ ÙĬØ¯Ø©
ÙĤÙĬ ÙĤÙĩ
ÙĥÙĬ ØªØ´
ĠØ§ÙĦØµ ØºØ±
Ġd j
Ġd is
ĠðŁĴ ŀ
ĠÙĬÙħÙĥÙĨ ÙĨÙĬ
ĠØ³Ø£ ÙĦØª
ĠØ§ÙĦØ·Ø¨ Ø®
ĠØ§ÙĦØ¶ÙĬ Ùģ
ĠÙĬÙģØ±ØŃ ÙĨØ§
Ø¨Ø§ÙĬÙĨ Ø©
h b
ĠÙģ Ø¹ÙĨ
ĠÙĨ ÙĬØ©
Ø§Ùħ Ø¹Ø©
ĠÙĪØ§ÙĦ ÙĦÙĤØ¨
ĠØ¯ ÙĬÙĨÙĬ
Ø§ØŃ ÙĥÙĬÙĦÙĨØ§
ĠÙĪÙĨ Ø´ÙĪÙģ
ÙĦÙĤ Ø§Ø¡
Ø²ÙĬ Ø§Ø¯Ø©
ĠØ§ÙĦØªØ¬ Ø±Ø¨Ø©
ĠØ§ÙĦØ¹ÙĤ ÙĦÙĬØ©
ØºØ§ÙĨ Ùħ
B on
ÙĪÙĦ ÙĥÙĨ
ÙĪØ± ÙĬÙĨ
ĠØ§ÙĦØª Ùī
ĠØ§ÙĦÙĪ Ø²
ĠØªÙĨ ÙģØ¹
ĠÙģØ± Ø¹ÙĪÙĨ
ĠÙĤØ± Ø§Ø±
ĠØªØ¨ Ø³Ø©
ĠØŃÙģØ¸ Øª
ĠØŃÙĥÙħ Ø©
Ġpar t
Ùł Ùł
ĠÙĪÙĬÙĨØ¬ØŃ ÙĨØ§
p i
ĠÙĬ ÙĦØ§
Ø§Ùħ ÙĬÙĬÙĨ
Ø« Ø±ÙĬ
ĠØ¨Ø§ÙĦ Ø¯Ø¹Ø§Ø¡
ĠØ§ÙĦØª Ø±Ø§Ø¨
ĠÙħÙĪ Ø³ÙĬÙĤÙī
ĠØ§Ø¹ Ø·ÙĬÙĨÙĬ
al lah
Ø¨ ØªÙĩØ§
Ø§ÙĬ ÙħØ§
ÙħØ± Ø§Ø±
Ø³ÙĬ Ø·
ĠÙĬØ£ ÙĥÙĦ
4 1
Øª Ø¯ÙĬ
ĠØ£ ÙĥØ±Ùħ
ĠØ± Ø¯ÙĥØ³
on a
ĠØªÙĨ Ø´Ø±
ĠØªØª Ø¹ÙĦÙħ
ĠØªÙĥ Ø°Ø¨
ĠØ§ÙĦÙħÙģØ¶ ÙĦØ©
A D
ĠÙĬØŃ Ø§ÙĪÙĦ
ĠØ§ÙĪ ÙĬÙĦÙĬ
ĠØ§ÙĦÙħØ¹ Ø§ØµÙĬ
ĠØ§ÙĦØ§Ø³Øª ØºÙģØ§Ø±
Ø¨ Ø§Ø´
ÙĥÙĪÙĨ Ø´
ĠØ±ØŃÙħ ØªÙĥ
ĠÙĨÙĪØ± Ø§
Ġch w
Ĩ Ĺ
Ùĩ Ø§Ø°Ø§
ĠÙĨ ÙģÙĬ
Ø« Ùĩ
ĠÙģØ§ÙĦ Ø´
ĠØªÙĪ ÙĤÙģ
ĠÙĨÙģØ³ ÙĬØ©
ĠØ§ÙĦÙħØ´ Ø±Ùģ
ÙĪØ§ÙĨ Ùĩ
ĠØ¨Ø§ÙĦØ¹ ÙĥØ³
ĠØ§ÙĦÙĨÙģ ÙĪØ³
ÙħØ¦ ÙĨ
ĠØ¹Ø±Ø´ Ùĩ
ĠÙĬ Ø¸ÙĨ
ĠØ§ÙĦØ³ ÙĬØ¯Ø©
Ø¦ ÙĬÙĨ
ĠØ§ÙĦØµ ÙĪÙģÙĬØ©
ĠØ§ÙĦØ· Ø§ÙĦØ¨
ĠØ¯ÙĬÙĨ ÙĨØ§
ØŃØ³ Ø¨ÙĬ
ĠØ£Ø³Øª Ø·ÙĬØ¹
ĠØ³ÙĬØ±ÙĬ ÙĪ
Ø¹ Ø±Ø¶
ĠÙģ ÙĦÙĤ
ĠØª Ø³Ø¨
ĠÙĤ Ø§Ø±
ØªÙĬ Øª
ÙĦÙĪ Ø¹
ĠØ§ÙĦÙĪ Ø¬
ĠÙĪÙĤ Ø¹Øª
ĠØ£Ø´ Ø±Ùģ
Ø¬Ø§Ø¨ ÙĬØ©
ĠÙĤØ¨ ÙĪÙĦ
ĠØªØ®ÙĦ Ø·
r f
Ø´ ÙĪÙģÙĬ
ĠÙĨ ÙĬØ´
ĠØ¨Ø§ÙĦ Ùĩ
ĠÙħØ¹ Ø³ÙĥØ±
ĠØ§ÙĦØ³ Ø¹Ø¯ÙĬ
ØªØ± Ø§Ùģ
ĠØ§ÙĦÙħÙĨ Ø§Ø³Ø¨
ĠØ§ÙĦÙħØ§Ø³ ÙĪÙĨÙĬØ©
ÙĪ Ø³Øª
ĠØ± Ø§ÙĪ
ĠØ³ Ø§Ø±
ĠØ§ÙĦÙĤ ÙĦÙĬÙĦ
ĠØ² ÙĥØ±ÙĬ
Ø§Ø® ÙĦ
Ġy dir
ĠØ§Ùĩ ØªÙħØ§Ùħ
ĠØ§ÙĦØ·Ø¨ÙĬ Ø¹Ø©
Øª ÙĪØ±
ĠÙħ ÙĦØª
Ø¬ Ø±Ø¨
ĠÙĬÙĩØ¯ÙĬ ÙĩÙħ
ĠÙĬÙģØ±ØŃ ÙĥÙħ
ĠØ§ÙĦÙĨØ¨ÙĪ Ø©
ĠÙĪ Ø§Ø«
ĠØª ÙĥÙĦ
ĠÙĨ Ø¨ÙĬÙĩ
Ø· Ø§Ø¬
ĠØ§ÙĦÙħ ÙħÙĬØ²Ø©
ĠØ´ ÙĩØ¯Ø§Ø¡
ØªÙĪ ÙĩØ§
ØªÙĩ ÙĨ
Ġt i
ar k
ĠØ¨Ùħ Ø³
ĠÙĤØ§ÙĦØª ÙĦÙĬ
ĠØ§Ø¯Ø¹ ÙĪÙĦÙĨØ§
Ġ q
Øª ÙĪÙĨ
ĠØ³ ÙĬØª
ØªØ§Ø¨ Ø¹ÙĬÙĨ
ĠÙģØ± ÙĨØ³ÙĬ
ĠØ§Ø´ Ø¹Ø§Ø±
ĠØ§ÙĦÙħØªØŃ Ø¯Ø©
ĠÙĪØ§ÙĦØ¨Ø± Ø¯
Ùģ ÙĬÙĨÙĬ
ĠÙģ Ø¹ÙĦÙĬ
Ø£ ÙħÙĨ
an e
ĠØŃÙħ Ø¨ÙĪÙĥ
oo k
ĠÙĩØ§ÙĬ ÙĦÙĬÙĨ
ĠØªØ±Ø¬ ÙħØ©
h ou
ÙĦ Ø®
ĠÙĤ Ø§Ø¯Ø±Ø©
ĠØ´ Ø§ÙĬ
ĠØ§Ø³Øª Ø¹Ùħ
ĠØ§ÙĦØ¯ ÙĬÙĨÙĬ
ĠØ§ÙĦØ² ÙĩØ±
ĠÙģØ± Ø§Ø´
ĠÙĪØ§Ø¹ Ø±Ø©
ĠØŃÙĥØ§ÙĬ ØªÙĥ
Øµ Ø§Ùģ
ĠÙĥ Ø§Ø¹
ĠÙĪØ§ÙĦ Ø¯ÙĬÙĩ
ĠØ§ÙĦÙĤ Ø¯ÙĬØ±
ĠÙĥÙĬ ÙĪØª
Ø§Øµ Ø¨
Ġt b
ĠØ§Ø¨ÙĨ Ùĩ
ĠØ§Ùģ Øª
ĠØ§Ø· ÙĦ
4 2
Ø¯ ÙĨÙĬ
ĠÙħ Ø¨ÙĤØ§Ø´
ĠØ¨ Ø¯Ùħ
ĠÙĪØ§ÙĦÙħ Ø¤ÙħÙĨ
ðŁĮ ļ
ĠØ³Ùħ ØŃ
ĠðŁĴª ðŁĴª
ĠÙħØ³ÙĥÙĪÙĨ Ø©
ÙĬØ± ÙĩØ§
ĠØ¯ Ùģ
ÙħØ§ ÙĤ
ĠØ§ÙĦØ³ Ø§Ø¦ÙĦ
Ø§ÙĤ Ø³Ùħ
ĠØ¨ÙĦ Ø¹Ø¨Ø§Ø³
ĠØ§Ø¬ ØªÙħØ¹
ĠÙħ ÙĥÙħ
ĠØ¨ ÙħÙĪ
ÙĦÙĬ ÙĬÙĨ
ĠÙĥ ÙĪÙĦ
Ø£ Ø®
ÙģÙĬ Ø´
Ġa pp
Ġf in
ĠØ§Ø¯ Ø¹ÙĪØ§
ĠØ¹ÙĦÙħ ÙĬÙĬÙĨ
ĠØ§ÙĦÙģØ± ØŃ
ĠY ou
a ha
ÙĪ Ø¯ÙĬ
ĠØ£ ÙĦÙĩÙħ
ĠØ£ Ø°ÙĨ
ĠÙĥ Ø§ÙģØ©
ĠØŃ Ø²ÙĨ
Ġt ah
ĠÙħØª Ø¨
Ã ®
ĠÙĪØ§ÙĦ Ø§Ø³
Ø§Ø¹ Ùĥ
ĠØ§ÙĦÙĤ Ø§Ø³Ùħ
ĠØ§Ø¹ ÙĦÙī
ØŃØ± Ùħ
ĠÙĪØ¥ ÙħØ§
Ø¯ÙĦ ÙĪÙĦ
Ġcha n
ĠÙĪØ§ÙĦØ« Ø§ÙĨÙĬ
ED X
ĠØ¨Ø§Ø® ØªØµØ§Ø±
c ation
ĠÙĬ Ø¨ØŃØ«
ÙĤØ§ÙĦ Ø©
ĠØ£Ùħ Ø§ÙĨ
ĠÙĬÙħ Ø«ÙĦ
Ġ100 0
ĠØ³Ø¬ ÙĦØª
Ø§ÙĦ ÙĬØ¨
ĠØ£ ÙģÙĩÙħ
Ø§Ùĥ ÙĬÙĨ
ĠÙĦÙĬ ÙĩÙħ
ĠØªØ± Ø¯ÙĬ
Ġvid e
ĠÙĨÙĩ Ùī
ĠØªØ´ÙĪÙģ ÙĪ
Ġvra iment
ĠØ¬Ø§ÙĨ ÙģÙĬ
Ø§ÙĦÙħ Ø´ÙĥÙĦ
ĠØ§Ø± Ùī
ÙĪÙĦÙĬ Ø³
ĠÙĤÙĪÙĦ Ùĥ
ĠðŁĩ µðŁĩ¸
ĠØºØ§ÙĦ Ø¨Ø§
ĠÙĪ ÙĤÙĦ
ĠÙģ ÙĥØ±ÙĬ
Ø§Ùĥ Ø¯
ĠÙĬØ§ Ø§Ø±Ø¨ÙĬ
ĠØ« ÙĪØ§Ø¨
ĠØ§ÙĦÙĬ ÙĪØªÙĪØ¨
ĠØ§ÙĦØ¨Ø§Ùĥ ÙĦÙĪØ±ÙĬØ§
ĠðŁĩ ²ðŁĩ¦
ĠÙĨÙĨØ³ Ùī
t re
ĠØ§ÙĦÙħ Ø¸
ĠÙĪØ£ Ø®Ø°
ĠÙĬÙĨ Ùģ
ĠÙĤØ¨ ÙĦÙĩØ§
ĠÙģÙĨ ØŃÙĨ
ĠÙĨØªÙĪ Ø§ØµÙĦ
ĠØ¨Ø§ÙĦÙģ Ø¹ÙĦ
Ùĩ Ø²
Ø¨ ØªÙĥ
ĠØª Ø«Ø¨Øª
ĠØ§ÙĦØ¯ Ø§ÙĦØ©
ĠÙĪÙĨ Ø¯ÙĬØ±
ĠØ§ÙĦÙĬ ÙħÙĨ
ĠØ§ÙĦØ¹Ø¨ Ø§Ø³
ĠØ±ØŃ ÙĦØ©
ĠÙĥØ«Ø± ÙĦÙĨØ§
ĠØŃØ§Ø¬ Ø§
ĠØ§ÙĦÙħÙĨÙĩ Ø¬ÙĬØ©
m erci
Ø¯Ùħ Ø§Øª
ĠØªÙħ ÙĦÙĥ
- :
ĠÙĪ ÙģØ±ØŃ
ĠØ± Ø¯Ùĥ
Ø£ ÙĬØª
ĠØŃ ØªØ§ÙĨ
ĠØ§ÙĦØ¹ ÙĨÙģ
ĠÙĨØª ÙģÙĥØ±
Ġf ran
ĠØ§Ùĩ ÙĦÙĩØ§
ĠØŃØ§ÙĦ Ø§Øª
ĠÙĪØ£ÙĬ Ø¶Ø§
: âĢı
W lh
Û ©
ĠÙĪ Ø¯ÙĬÙĨ
ĠØª Ø¨ØŃØ«
ĠØ³ Ø§Ø¹Ø¯
ĠØ³ Ø¹Ø§Ø¯Ø©
ĠØ§ÙĦØµ ÙħØ¯
ĠØºÙĬØ± Ùĥ
ĠÙģØ± Ø¯
ĠØªØ® ØªÙĦÙģ
ĠÙģÙĦØ§ ÙĪÙĨ
sta d
5 6
w ti
ĠØ¨ Ø§ØŃ
ĠÙģ Ø±Ùĥ
ĠØ³ ÙĤØ·
Ø§Ø° ÙĬ
ĠØ§ÙĦØ³ Ø¨Øª
