{
  "version": "1.0",
  "truncation": null,
  "padding": null,
  "added_tokens": [
    {
      "id": 0,
      "content": "<pad>",
      "single_word": false,
      "lstrip": false,
      "rstrip": false,
      "normalized": false,
      "special": true
    },
    {
      "id": 2,
      "content": "<s>",
      "single_word": false,
      "lstrip": false,
      "rstrip": false,
      "normalized": false,
      "special": true
    },
    {
      "id": 3,
      "content": "</s>",
      "single_word": false,
      "lstrip": false,
      "rstrip": false,
      "normalized": false,
      "special": true
    }
  ],
  "normalizer": {
    "type": "Sequence",
    "normalizers": [
      {
        "type": "Strip",
        "strip_left": false,
        "strip_right": true
      },
      {
        "type": "Replace",
        "pattern": {
          "Regex": " {2,}"
        },
        "content": "▁"
      }
    ]
  },
  "pre_tokenizer": {
    "type": "Metaspace",
    "replacement": "▁",
    "prepend_scheme": "always",
    "split": true
  },
  "post_processor": null,
  "decoder": {
    "type": "Sequence",
    "decoders": [
      {
        "type": "Metaspace",
        "replacement": "▁",
        "prepend_scheme": "always",
        "split": true
      },
      {
        "type": "ByteFallback"
      },
      {
        "type": "Fuse"
      }
    ]
  },
  "model": {
    "type": "Unigram",
    "unk_id": 1,
    "vocab": [
      [
        "<pad>",
        0.0
      ],
      [
        "<unk>",
        0.0
      ],
      [
        "<s>",
        0.0
      ],
      [
        "</s>",
        0.0
      ],
      [
        "<0x00>",
        0.0
      ],
      [
        "<0x01>",
        0.0
      ],
      [
        "<0x02>",
        0.0
      ],
      [
        "<0x03>",
        0.0
      ],
      [
        "<0x04>",
        0.0
      ],
      [
        "<0x05>",
        0.0
      ],
      [
        "<0x06>",
        0.0
      ],
      [
        "<0x07>",
        0.0
      ],
      [
        "<0x08>",
        0.0
      ],
      [
        "<0x09>",
        0.0
      ],
      [
        "<0x0A>",
        0.0
      ],
      [
        "<0x0B>",
        0.0
      ],
      [
        "<0x0C>",
        0.0
      ],
      [
        "<0x0D>",
        0.0
      ],
      [
        "<0x0E>",
        0.0
      ],
      [
        "<0x0F>",
        0.0
      ],
      [
        "<0x10>",
        0.0
      ],
      [
        "<0x11>",
        0.0
      ],
      [
        "<0x12>",
        0.0
      ],
      [
        "<0x13>",
        0.0
      ],
      [
        "<0x14>",
        0.0
      ],
      [
        "<0x15>",
        0.0
      ],
      [
        "<0x16>",
        0.0
      ],
      [
        "<0x17>",
        0.0
      ],
      [
        "<0x18>",
        0.0
      ],
      [
        "<0x19>",
        0.0
      ],
      [
        "<0x1A>",
        0.0
      ],
      [
        "<0x1B>",
        0.0
      ],
      [
        "<0x1C>",
        0.0
      ],
      [
        "<0x1D>",
        0.0
      ],
      [
        "<0x1E>",
        0.0
      ],
      [
        "<0x1F>",
        0.0
      ],
      [
        "<0x20>",
        0.0
      ],
      [
        "<0x21>",
        0.0
      ],
      [
        "<0x22>",
        0.0
      ],
      [
        "<0x23>",
        0.0
      ],
      [
        "<0x24>",
        0.0
      ],
      [
        "<0x25>",
        0.0
      ],
      [
        "<0x26>",
        0.0
      ],
      [
        "<0x27>",
        0.0
      ],
      [
        "<0x28>",
        0.0
      ],
      [
        "<0x29>",
        0.0
      ],
      [
        "<0x2A>",
        0.0
      ],
      [
        "<0x2B>",
        0.0
      ],
      [
        "<0x2C>",
        0.0
      ],
      [
        "<0x2D>",
        0.0
      ],
      [
        "<0x2E>",
        0.0
      ],
      [
        "<0x2F>",
        0.0
      ],
      [
        "<0x30>",
        0.0
      ],
      [
        "<0x31>",
        0.0
      ],
      [
        "<0x32>",
        0.0
      ],
      [
        "<0x33>",
        0.0
      ],
      [
        "<0x34>",
        0.0
      ],
      [
        "<0x35>",
        0.0
      ],
      [
        "<0x36>",
        0.0
      ],
      [
        "<0x37>",
        0.0
      ],
      [
        "<0x38>",
        0.0
      ],
      [
        "<0x39>",
        0.0
      ],
      [
        "<0x3A>",
        0.0
      ],
      [
        "<0x3B>",
        0.0
      ],
      [
        "<0x3C>",
        0.0
      ],
      [
        "<0x3D>",
        0.0
      ],
      [
        "<0x3E>",
        0.0
      ],
      [
        "<0x3F>",
        0.0
      ],
      [
        "<0x40>",
        0.0
      ],
      [
        "<0x41>",
        0.0
      ],
      [
        "<0x42>",
        0.0
      ],
      [
        "<0x43>",
        0.0
      ],
      [
        "<0x44>",
        0.0
      ],
      [
        "<0x45>",
        0.0
      ],
      [
        "<0x46>",
        0.0
      ],
      [
        "<0x47>",
        0.0
      ],
      [
        "<0x48>",
        0.0
      ],
      [
        "<0x49>",
        0.0
      ],
      [
        "<0x4A>",
        0.0
      ],
      [
        "<0x4B>",
        0.0
      ],
      [
        "<0x4C>",
        0.0
      ],
      [
        "<0x4D>",
        0.0
      ],
      [
        "<0x4E>",
        0.0
      ],
      [
        "<0x4F>",
        0.0
      ],
      [
        "<0x50>",
        0.0
      ],
      [
        "<0x51>",
        0.0
      ],
      [
        "<0x52>",
        0.0
      ],
      [
        "<0x53>",
        0.0
      ],
      [
        "<0x54>",
        0.0
      ],
      [
        "<0x55>",
        0.0
      ],
      [
        "<0x56>",
        0.0
      ],
      [
        "<0x57>",
        0.0
      ],
      [
        "<0x58>",
        0.0
      ],
      [
        "<0x59>",
        0.0
      ],
      [
        "<0x5A>",
        0.0
      ],
      [
        "<0x5B>",
        0.0
      ],
      [
        "<0x5C>",
        0.0
      ],
      [
        "<0x5D>",
        0.0
      ],
      [
        "<0x5E>",
        0.0
      ],
      [
        "<0x5F>",
        0.0
      ],
      [
        "<0x60>",
        0.0
      ],
      [
        "<0x61>",
        0.0
      ],
      [
        "<0x62>",
        0.0
      ],
      [
        "<0x63>",
        0.0
      ],
      [
        "<0x64>",
        0.0
      ],
      [
        "<0x65>",
        0.0
      ],
      [
        "<0x66>",
        0.0
      ],
      [
        "<0x67>",
        0.0
      ],
      [
        "<0x68>",
        0.0
      ],
      [
        "<0x69>",
        0.0
      ],
      [
        "<0x6A>",
        0.0
      ],
      [
        "<0x6B>",
        0.0
      ],
      [
        "<0x6C>",
        0.0
      ],
      [
        "<0x6D>",
        0.0
      ],
      [
        "<0x6E>",
        0.0
      ],
      [
        "<0x6F>",
        0.0
      ],
      [
        "<0x70>",
        0.0
      ],
      [
        "<0x71>",
        0.0
      ],
      [
        "<0x72>",
        0.0
      ],
      [
        "<0x73>",
        0.0
      ],
      [
        "<0x74>",
        0.0
      ],
      [
        "<0x75>",
        0.0
      ],
      [
        "<0x76>",
        0.0
      ],
      [
        "<0x77>",
        0.0
      ],
      [
        "<0x78>",
        0.0
      ],
      [
        "<0x79>",
        0.0
      ],
      [
        "<0x7A>",
        0.0
      ],
      [
        "<0x7B>",
        0.0
      ],
      [
        "<0x7C>",
        0.0
      ],
      [
        "<0x7D>",
        0.0
      ],
      [
        "<0x7E>",
        0.0
      ],
      [
        "<0x7F>",
        0.0
      ],
      [
        "<0x80>",
        0.0
      ],
      [
        "<0x81>",
        0.0
      ],
      [
        "<0x82>",
        0.0
      ],
      [
        "<0x83>",
        0.0
      ],
      [
        "<0x84>",
        0.0
      ],
      [
        "<0x85>",
        0.0
      ],
      [
        "<0x86>",
        0.0
      ],
      [
        "<0x87>",
        0.0
      ],
      [
        "<0x88>",
        0.0
      ],
      [
        "<0x89>",
        0.0
      ],
      [
        "<0x8A>",
        0.0
      ],
      [
        "<0x8B>",
        0.0
      ],
      [
        "<0x8C>",
        0.0
      ],
      [
        "<0x8D>",
        0.0
      ],
      [
        "<0x8E>",
        0.0
      ],
      [
        "<0x8F>",
        0.0
      ],
      [
        "<0x90>",
        0.0
      ],
      [
        "<0x91>",
        0.0
      ],
      [
        "<0x92>",
        0.0
      ],
      [
        "<0x93>",
        0.0
      ],
      [
        "<0x94>",
        0.0
      ],
      [
        "<0x95>",
        0.0
      ],
      [
        "<0x96>",
        0.0
      ],
      [
        "<0x97>",
        0.0
      ],
      [
        "<0x98>",
        0.0
      ],
      [
        "<0x99>",
        0.0
      ],
      [
        "<0x9A>",
        0.0
      ],
      [
        "<0x9B>",
        0.0
      ],
      [
        "<0x9C>",
        0.0
      ],
      [
        "<0x9D>",
        0.0
      ],
      [
        "<0x9E>",
        0.0
      ],
      [
        "<0x9F>",
        0.0
      ],
      [
        "<0xA0>",
        0.0
      ],
      [
        "<0xA1>",
        0.0
      ],
      [
        "<0xA2>",
        0.0
      ],
      [
        "<0xA3>",
        0.0
      ],
      [
        "<0xA4>",
        0.0
      ],
      [
        "<0xA5>",
        0.0
      ],
      [
        "<0xA6>",
        0.0
      ],
      [
        "<0xA7>",
        0.0
      ],
      [
        "<0xA8>",
        0.0
      ],
      [
        "<0xA9>",
        0.0
      ],
      [
        "<0xAA>",
        0.0
      ],
      [
        "<0xAB>",
        0.0
      ],
      [
        "<0xAC>",
        0.0
      ],
      [
        "<0xAD>",
        0.0
      ],
      [
        "<0xAE>",
        0.0
      ],
      [
        "<0xAF>",
        0.0
      ],
      [
        "<0xB0>",
        0.0
      ],
      [
        "<0xB1>",
        0.0
      ],
      [
        "<0xB2>",
        0.0
      ],
      [
        "<0xB3>",
        0.0
      ],
      [
        "<0xB4>",
        0.0
      ],
      [
        "<0xB5>",
        0.0
      ],
      [
        "<0xB6>",
        0.0
      ],
      [
        "<0xB7>",
        0.0
      ],
      [
        "<0xB8>",
        0.0
      ],
      [
        "<0xB9>",
        0.0
      ],
      [
        "<0xBA>",
        0.0
      ],
      [
        "<0xBB>",
        0.0
      ],
      [
        "<0xBC>",
        0.0
      ],
      [
        "<0xBD>",
        0.0
      ],
      [
        "<0xBE>",
        0.0
      ],
      [
        "<0xBF>",
        0.0
      ],
      [
        "<0xC0>",
        0.0
      ],
      [
        "<0xC1>",
        0.0
      ],
      [
        "<0xC2>",
        0.0
      ],
      [
        "<0xC3>",
        0.0
      ],
      [
        "<0xC4>",
        0.0
      ],
      [
        "<0xC5>",
        0.0
      ],
      [
        "<0xC6>",
        0.0
      ],
      [
        "<0xC7>",
        0.0
      ],
      [
        "<0xC8>",
        0.0
      ],
      [
        "<0xC9>",
        0.0
      ],
      [
        "<0xCA>",
        0.0
      ],
      [
        "<0xCB>",
        0.0
      ],
      [
        "<0xCC>",
        0.0
      ],
      [
        "<0xCD>",
        0.0
      ],
      [
        "<0xCE>",
        0.0
      ],
      [
        "<0xCF>",
        0.0
      ],
      [
        "<0xD0>",
        0.0
      ],
      [
        "<0xD1>",
        0.0
      ],
      [
        "<0xD2>",
        0.0
      ],
      [
        "<0xD3>",
        0.0
      ],
      [
        "<0xD4>",
        0.0
      ],
      [
        "<0xD5>",
        0.0
      ],
      [
        "<0xD6>",
        0.0
      ],
      [
        "<0xD7>",
        0.0
      ],
      [
        "<0xD8>",
        0.0
      ],
      [
        "<0xD9>",
        0.0
      ],
      [
        "<0xDA>",
        0.0
      ],
      [
        "<0xDB>",
        0.0
      ],
      [
        "<0xDC>",
        0.0
      ],
      [
        "<0xDD>",
        0.0
      ],
      [
        "<0xDE>",
        0.0
      ],
      [
        "<0xDF>",
        0.0
      ],
      [
        "<0xE0>",
        0.0
      ],
      [
        "<0xE1>",
        0.0
      ],
      [
        "<0xE2>",
        0.0
      ],
      [
        "<0xE3>",
        0.0
      ],
      [
        "<0xE4>",
        0.0
      ],
      [
        "<0xE5>",
        0.0
      ],
      [
        "<0xE6>",
        0.0
      ],
      [
        "<0xE7>",
        0.0
      ],
      [
        "<0xE8>",
        0.0
      ],
      [
        "<0xE9>",
        0.0
      ],
      [
        "<0xEA>",
        0.0
      ],
      [
        "<0xEB>",
        0.0
      ],
      [
        "<0xEC>",
        0.0
      ],
      [
        "<0xED>",
        0.0
      ],
      [
        "<0xEE>",
        0.0
      ],
      [
        "<0xEF>",
        0.0
      ],
      [
        "<0xF0>",
        0.0
      ],
      [
        "<0xF1>",
        0.0
      ],
      [
        "<0xF2>",
        0.0
      ],
      [
        "<0xF3>",
        0.0
      ],
      [
        "<0xF4>",
        0.0
      ],
      [
        "<0xF5>",
        0.0
      ],
      [
        "<0xF6>",
        0.0
      ],
      [
        "<0xF7>",
        0.0
      ],
      [
        "<0xF8>",
        0.0
      ],
      [
        "<0xF9>",
        0.0
      ],
      [
        "<0xFA>",
        0.0
      ],
      [
        "<0xFB>",
        0.0
      ],
      [
        "<0xFC>",
        0.0
      ],
      [
        "<0xFD>",
        0.0
      ],
      [
        "<0xFE>",
        0.0
      ],
      [
        "<0xFF>",
        0.0
      ],
      [
        "▁و",
        -3.886566400527954
      ],
      [
        "▁في",
        -4.296496391296387
      ],
      [
        "▁الله",
        -4.339425086975098
      ],
      [
        "▁من",
        -4.4026360511779785
      ],
      [
        "▁",
        -4.784237861633301
      ],
      [
        "ه",
        -4.88571834564209
      ],
      [
        "ا",
        -4.88659143447876
      ],
      [
        "ي",
        -4.888432025909424
      ],
      [
        "ة",
        -4.92457914352417
      ],
      [
        "▁على",
        -4.987582206726074
      ],
      [
        "و",
        -5.0863213539123535
      ],
      [
        "ك",
        -5.203202724456787
      ],
      [
        "▁ربي",
        -5.301096439361572
      ],
      [
        "ها",
        -5.345654010772705
      ],
      [
        ".",
        -5.359468460083008
      ],
      [
        "▁ما",
        -5.386903285980225
      ],
      [
        "]",
        -5.397656440734863
      ],
      [
        "▁[",
        -5.402515411376953
      ],
      [
        "▁لي",
        -5.405594825744629
      ],
      [
        "▁لا",
        -5.490184783935547
      ],
      [
        "MENTION",
        -5.50340461730957
      ],
      [
        "،",
        -5.554195404052734
      ],
      [
        "▁انا",
        -5.5575056076049805
      ],
      [
        "▁ان",
        -5.690776824951172
      ],
      [
        "نا",
        -5.6920881271362305
      ],
      [
        "ت",
        -5.71795654296875
      ],
      [
        "▁...",
        -5.766692638397217
      ],
      [
        "▁يا",
        -5.814369201660156
      ],
      [
        "▁،",
        -5.873410701751709
      ],
      [
        "ين",
        -5.89130973815918
      ],
      [
        "▁كل",
        -5.893136501312256
      ],
      [
        "هم",
        -5.912263870239258
      ],
      [
        "...",
        -5.928336143493652
      ],
      [
        "▁ب",
        -6.047520160675049
      ],
      [
        "ش",
        -6.065392017364502
      ],
      [
        "▁-",
        -6.073278903961182
      ],
      [
        "▁.",
        -6.082854270935059
      ],
      [
        "▁هذا",
        -6.0964274406433105
      ],
      [
        "▁ولا",
        -6.101035118103027
      ],
      [
        "▁استاذ",
        -6.1151323318481445
      ],
      [
        "ات",
        -6.131258964538574
      ],
      [
        "▁أن",
        -6.153784275054932
      ],
      [
        "▁ل",
        -6.1907196044921875
      ],
      [
        "وا",
        -6.19213342666626
      ],
      [
        "▁شاء",
        -6.232866287231445
      ],
      [
        "▁ال",
        -6.262228965759277
      ],
      [
        "▁مع",
        -6.282909870147705
      ],
      [
        "3",
        -6.299067497253418
      ],
      [
        "▁غير",
        -6.312747001647949
      ],
      [
        "▁والله",
        -6.323079586029053
      ],
      [
        "▁شكرا",
        -6.353229522705078
      ],
      [
        "م",
        -6.355483055114746
      ],
      [
        "▁اللهم",
        -6.3578596115112305
      ],
      [
        "▁❤",
        -6.360090732574463
      ],
      [
        "▁كي",
        -6.3682684898376465
      ],
      [
        "▁هو",
        -6.377659797668457
      ],
      [
        "▁عن",
        -6.425045967102051
      ],
      [
        "ية",
        -6.432443618774414
      ],
      [
        ":",
        -6.441641807556152
      ],
      [
        "ني",
        -6.442759037017822
      ],
      [
        "▁:",
        -6.458378314971924
      ],
      [
        "▁تاع",
        -6.476505279541016
      ],
      [
        "▁وال",
        -6.477542400360107
      ],
      [
        "▁عليه",
        -6.508294105529785
      ],
      [
        "▁هه",
        -6.527963161468506
      ],
      [
        "▁يارب",
        -6.540639877319336
      ],
      [
        "▁عليكم",
        -6.544683933258057
      ],
      [
        "▁السلام",
        -6.556745529174805
      ],
      [
        "▁كان",
        -6.582636833190918
      ],
      [
        "▁فيك",
        -6.5867390632629395
      ],
      [
        "▁بزاف",
        -6.589073181152344
      ],
      [
        "▁(",
        -6.6034064292907715
      ],
      [
        "▁😂😂",
        -6.6126508712768555
      ],
      [
        "▁ف",
        -6.6218581199646
      ],
      [
        "▁بصح",
        -6.635385036468506
      ],
      [
        "▁❤❤",
        -6.652007102966309
      ],
      [
        "▁؟",
        -6.657656669616699
      ],
      [
        "▁حتى",
        -6.6674017906188965
      ],
      [
        "؟",
        -6.673993110656738
      ],
      [
        "ون",
        -6.674746513366699
      ],
      [
        "▁راني",
        -6.684971809387207
      ],
      [
        "▁لك",
        -6.701873779296875
      ],
      [
        "▁ا",
        -6.709568023681641
      ],
      [
        "كم",
        -6.714171886444092
      ],
      [
        "▁بارك",
        -6.7155938148498535
      ],
      [
        "▁ت",
        -6.738618850708008
      ],
      [
        "▁او",
        -6.746631622314453
      ],
      [
        "▁بال",
        -6.759183883666992
      ],
      [
        "▁ي",
        -6.766079425811768
      ],
      [
        "▁لل",
        -6.766912460327148
      ],
      [
        "▁قال",
        -6.770086765289307
      ],
      [
        "▁لم",
        -6.777490615844727
      ],
      [
        "▁هي",
        -6.795102596282959
      ],
      [
        "▁واحد",
        -6.807446002960205
      ],
      [
        "❤",
        -6.817440986633301
      ],
      [
        "▁م",
        -6.822346210479736
      ],
      [
        "▁لله",
        -6.823160648345947
      ],
      [
        "▁3",
        -6.829401969909668
      ],
      [
        "▁كامل",
        -6.835692882537842
      ],
      [
        "ال",
        -6.849617004394531
      ],
      [
        "ن",
        -6.856727123260498
      ],
      [
        "▁كنت",
        -6.864648818969727
      ],
      [
        "▁فيديو",
        -6.869498252868652
      ],
      [
        "▁تع",
        -6.897658824920654
      ],
      [
        ")",
        -6.899195194244385
      ],
      [
        "▁\"",
        -6.906663417816162
      ],
      [
        "▁خير",
        -6.920945644378662
      ],
      [
        "▁واش",
        -6.926048755645752
      ],
      [
        "▁عليك",
        -6.944537162780762
      ],
      [
        "▁هل",
        -6.945434093475342
      ],
      [
        "▁أو",
        -6.963094234466553
      ],
      [
        "▁باك",
        -6.969409942626953
      ],
      [
        "▁الباك",
        -6.978958606719971
      ],
      [
        "لي",
        -6.986631393432617
      ],
      [
        "▁😂",
        -7.011247634887695
      ],
      [
        "▁إن",
        -7.012261867523193
      ],
      [
        "s",
        -7.013193607330322
      ],
      [
        "▁ن",
        -7.029568672180176
      ],
      [
        "▁الا",
        -7.032323360443115
      ],
      [
        "▁بعد",
        -7.033651828765869
      ],
      [
        "▁فيها",
        -7.034494876861572
      ],
      [
        "▁الم",
        -7.051636695861816
      ],
      [
        "▁خويا",
        -7.063178539276123
      ],
      [
        "ى",
        -7.06433629989624
      ],
      [
        "▁راك",
        -7.084701061248779
      ],
      [
        "▁أ",
        -7.1043381690979
      ],
      [
        "▁فيه",
        -7.104815483093262
      ],
      [
        "▁هذه",
        -7.124130725860596
      ],
      [
        "▁يحفظك",
        -7.12684440612793
      ],
      [
        "▁أنا",
        -7.133896827697754
      ],
      [
        "▁لكن",
        -7.136763095855713
      ],
      [
        "9",
        -7.1562910079956055
      ],
      [
        "❤❤",
        -7.172038555145264
      ],
      [
        "▁وين",
        -7.179484844207764
      ],
      [
        "▁قبل",
        -7.1952409744262695
      ],
      [
        "▁هنا",
        -7.204223155975342
      ],
      [
        "▁إلى",
        -7.204629898071289
      ],
      [
        "▁له",
        -7.21804666519165
      ],
      [
        "▁باش",
        -7.230907917022705
      ],
      [
        "▁صح",
        -7.231924057006836
      ],
      [
        "7",
        -7.232468605041504
      ],
      [
        "a",
        -7.2346930503845215
      ],
      [
        "▁كيما",
        -7.2365570068359375
      ],
      [
        "▁عندي",
        -7.237504959106445
      ],
      [
        "▁التي",
        -7.240466594696045
      ],
      [
        "▁مي",
        -7.255125045776367
      ],
      [
        "▁يوم",
        -7.255200386047363
      ],
      [
        "▁بلي",
        -7.268258571624756
      ],
      [
        "▁انت",
        -7.273565292358398
      ],
      [
        "▁لولا",
        -7.275986194610596
      ],
      [
        "▁برك",
        -7.280616283416748
      ],
      [
        "▁وسلم",
        -7.316495418548584
      ],
      [
        "▁كاين",
        -7.316701412200928
      ],
      [
        "▁فال",
        -7.320065021514893
      ],
      [
        "'",
        -7.333894729614258
      ],
      [
        "▁عند",
        -7.334080696105957
      ],
      [
        "وش",
        -7.339694976806641
      ],
      [
        "ان",
        -7.341740131378174
      ],
      [
        "😂😂",
        -7.3460001945495605
      ],
      [
        "▁الذي",
        -7.351428031921387
      ],
      [
        "▁يكون",
        -7.353944778442383
      ],
      [
        "ل",
        -7.358220100402832
      ],
      [
        "▁شكون",
        -7.367278099060059
      ],
      [
        "▁رب",
        -7.371878623962402
      ],
      [
        "▁ادعولي",
        -7.376880645751953
      ],
      [
        "لك",
        -7.385196208953857
      ],
      [
        "▁؟؟",
        -7.394283294677734
      ],
      [
        "▁وي",
        -7.3958868980407715
      ],
      [
        "تي",
        -7.399238109588623
      ],
      [
        "▁ام",
        -7.407723903656006
      ],
      [
        "▁بين",
        -7.410262584686279
      ],
      [
        "😂",
        -7.413200855255127
      ],
      [
        "▁الجزائر",
        -7.415017127990723
      ],
      [
        ",",
        -7.415493011474609
      ],
      [
        "▁كانت",
        -7.421210289001465
      ],
      [
        "▁الفيديو",
        -7.425063610076904
      ],
      [
        "▁كيف",
        -7.428709030151367
      ],
      [
        "▁راه",
        -7.432122230529785
      ],
      [
        "ر",
        -7.435669898986816
      ],
      [
        "▁اي",
        -7.438985347747803
      ],
      [
        "▁الى",
        -7.4421162605285645
      ],
      [
        "؟؟",
        -7.452674865722656
      ],
      [
        "▁اخي",
        -7.457259178161621
      ],
      [
        "▁الناس",
        -7.461488246917725
      ],
      [
        "ب",
        -7.4629106521606445
      ],
      [
        "e",
        -7.467635631561279
      ],
      [
        "▁صلى",
        -7.471505641937256
      ],
      [
        "▁خيرا",
        -7.477765083312988
      ],
      [
        "▁بن",
        -7.481374263763428
      ],
      [
        "▁كما",
        -7.482116222381592
      ],
      [
        "▁ماشي",
        -7.488794803619385
      ],
      [
        "▁l",
        -7.50830602645874
      ],
      [
        "▁w",
        -7.513208866119385
      ],
      [
        "▁راح",
        -7.513767719268799
      ],
      [
        "▁اختي",
        -7.51463508605957
      ],
      [
        "▁محمد",
        -7.5199995040893555
      ],
      [
        "ته",
        -7.5251665115356445
      ],
      [
        "▁قصة",
        -7.527803897857666
      ],
      [
        "▁دير",
        -7.539256572723389
      ],
      [
        "k",
        -7.540149688720703
      ],
      [
        "▁اذا",
        -7.549034118652344
      ],
      [
        "▁تكون",
        -7.5499267578125
      ],
      [
        "▁😢",
        -7.5537495613098145
      ],
      [
        "t",
        -7.557856559753418
      ],
      [
        "▁يعني",
        -7.558027744293213
      ],
      [
        "▁أستاذ",
        -7.560945987701416
      ],
      [
        "▁به",
        -7.56378698348999
      ],
      [
        "▁وش",
        -7.565767288208008
      ],
      [
        "▁فضلك",
        -7.567899227142334
      ],
      [
        "▁ذلك",
        -7.57389497756958
      ],
      [
        "▁لازم",
        -7.57417631149292
      ],
      [
        "▁)",
        -7.576067924499512
      ],
      [
        "▁مت",
        -7.576584815979004
      ],
      [
        "▁امين",
        -7.577130317687988
      ],
      [
        "▁فقط",
        -7.582732200622559
      ],
      [
        "▁رضا",
        -7.585093021392822
      ],
      [
        "▁2",
        -7.595366477966309
      ],
      [
        "▁يعطيك",
        -7.602980613708496
      ],
      [
        "ف",
        -7.604034900665283
      ],
      [
        "▁نتا",
        -7.605551242828369
      ],
      [
        "▁إلا",
        -7.605576038360596
      ],
      [
        "اء",
        -7.609853744506836
      ],
      [
        "تك",
        -7.62168550491333
      ],
      [
        "▁وانا",
        -7.622633457183838
      ],
      [
        "ما",
        -7.625057697296143
      ],
      [
        "▁اليوم",
        -7.626099109649658
      ],
      [
        "تها",
        -7.628476619720459
      ],
      [
        "▁عندك",
        -7.630802154541016
      ],
      [
        "▁عليها",
        -7.634286880493164
      ],
      [
        "▁افضل",
        -7.650946140289307
      ],
      [
        "▁سلام",
        -7.6550068855285645
      ],
      [
        "▁الحمد",
        -7.660789489746094
      ],
      [
        "i",
        -7.661881446838379
      ],
      [
        "▁ياربي",
        -7.662202835083008
      ],
      [
        "▁علاه",
        -7.667230606079102
      ],
      [
        "\"",
        -7.669095993041992
      ],
      [
        "▁الي",
        -7.669367790222168
      ],
      [
        "▁مش",
        -7.6840410232543945
      ],
      [
        "▁نجيب",
        -7.687286853790283
      ],
      [
        "لو",
        -7.6894731521606445
      ],
      [
        "▁لو",
        -7.694389820098877
      ],
      [
        "▁وت",
        -7.696585178375244
      ],
      [
        "▁أخي",
        -7.697880268096924
      ],
      [
        "▁يبارك",
        -7.698169708251953
      ],
      [
        "▁قصص",
        -7.698732852935791
      ],
      [
        "▁ختي",
        -7.699826240539551
      ],
      [
        "▁الف",
        -7.704358100891113
      ],
      [
        "لنا",
        -7.708899021148682
      ],
      [
        "▁بك",
        -7.7184247970581055
      ],
      [
        "▁بل",
        -7.718670845031738
      ],
      [
        "▁حاجة",
        -7.718886852264404
      ],
      [
        "▁ديرلنا",
        -7.72186803817749
      ],
      [
        "▁رانا",
        -7.723875522613525
      ],
      [
        "▁جزاك",
        -7.731583595275879
      ],
      [
        "د",
        -7.740082740783691
      ],
      [
        "▁خاوتي",
        -7.74273157119751
      ],
      [
        "▁الخير",
        -7.7431864738464355
      ],
      [
        "▁مرة",
        -7.745990753173828
      ],
      [
        "▁حنا",
        -7.751910209655762
      ],
      [
        "o",
        -7.757266998291016
      ],
      [
        "▁la",
        -7.759367942810059
      ],
      [
        "-",
        -7.768865585327148
      ],
      [
        "▁نفس",
        -7.774352073669434
      ],
      [
        "▁اللي",
        -7.778651237487793
      ],
      [
        "▁ورحمة",
        -7.780522346496582
      ],
      [
        "▁لنا",
        -7.782608509063721
      ],
      [
        "▁اول",
        -7.789813041687012
      ],
      [
        "▁قد",
        -7.803621768951416
      ],
      [
        "▁هاد",
        -7.810732841491699
      ],
      [
        "▁العالمين",
        -7.812449932098389
      ],
      [
        "▁ثم",
        -7.818320274353027
      ],
      [
        "يا",
        -7.819236755371094
      ],
      [
        "▁ليس",
        -7.81990909576416
      ],
      [
        "▁ومن",
        -7.821397304534912
      ],
      [
        "▁هذي",
        -7.834052562713623
      ],
      [
        "▁وم",
        -7.845435619354248
      ],
      [
        "▁وربي",
        -7.847146511077881
      ],
      [
        "▁وما",
        -7.853036403656006
      ],
      [
        "▁الصحة",
        -7.855681419372559
      ],
      [
        "▁علينا",
        -7.86334753036499
      ],
      [
        "س",
        -7.863434791564941
      ],
      [
        "▁علي",
        -7.870449542999268
      ],
      [
        "▁ممكن",
        -7.8719964027404785
      ],
      [
        "▁عام",
        -7.874667644500732
      ],
      [
        "d",
        -7.881385803222656
      ],
      [
        "▁ta",
        -7.884001731872559
      ],
      [
        "▁مليح",
        -7.890867710113525
      ],
      [
        "▁ون",
        -7.891225814819336
      ],
      [
        "▁العام",
        -7.894010066986084
      ],
      [
        "▁الجنة",
        -7.897648811340332
      ],
      [
        "▁إذا",
        -7.899865627288818
      ],
      [
        "5",
        -7.9011616706848145
      ],
      [
        "▁شيء",
        -7.902436256408691
      ],
      [
        "▁عبد",
        -7.9033613204956055
      ],
      [
        "m",
        -7.904513835906982
      ],
      [
        "▁جدا",
        -7.915102958679199
      ],
      [
        "▁تعالى",
        -7.917802810668945
      ],
      [
        "▁,",
        -7.923091888427734
      ],
      [
        "▁نحبك",
        -7.925675868988037
      ],
      [
        "2",
        -7.928973197937012
      ],
      [
        "▁*",
        -7.929845809936523
      ],
      [
        "▁لها",
        -7.930934906005859
      ],
      [
        "▁وليد",
        -7.932949542999268
      ],
      [
        "من",
        -7.933260440826416
      ],
      [
        "h",
        -7.937578201293945
      ],
      [
        "▁بالمثل",
        -7.939896583557129
      ],
      [
        "1",
        -7.940991401672363
      ],
      [
        "▁بعض",
        -7.9448957443237305
      ],
      [
        "▁بالله",
        -7.946152687072754
      ],
      [
        "▁حكاية",
        -7.9470953941345215
      ],
      [
        "▁والو",
        -7.948623180389404
      ],
      [
        "▁a",
        -7.955782890319824
      ],
      [
        "la",
        -7.958792209625244
      ],
      [
        "▁قلت",
        -7.959423065185547
      ],
      [
        "▁تاعك",
        -7.959566116333008
      ],
      [
        "y",
        -7.966068267822266
      ],
      [
        "😢",
        -7.971442222595215
      ],
      [
        "▁أم",
        -7.975368976593018
      ],
      [
        "▁نعم",
        -7.978152275085449
      ],
      [
        "▁القصة",
        -7.980731010437012
      ],
      [
        "▁هدا",
        -7.9839558601379395
      ],
      [
        "ع",
        -7.98472261428833
      ],
      [
        "▁ناس",
        -7.990646839141846
      ],
      [
        "▁البكالوريا",
        -7.995787143707275
      ],
      [
        "▁انشاء",
        -7.998160362243652
      ],
      [
        "▁وهو",
        -8.00036334991455
      ],
      [
        "▁باه",
        -8.002354621887207
      ],
      [
        "▁كيفاش",
        -8.004197120666504
      ],
      [
        "▁ولكن",
        -8.005335807800293
      ],
      [
        "▁9",
        -8.008877754211426
      ],
      [
        "▁معاك",
        -8.012751579284668
      ],
      [
        "▁1",
        -8.019060134887695
      ],
      [
        "▁de",
        -8.01982593536377
      ],
      [
        "▁إ",
        -8.02223014831543
      ],
      [
        "▁كون",
        -8.023480415344238
      ],
      [
        "▁لباك",
        -8.023990631103516
      ],
      [
        "▁قاع",
        -8.024076461791992
      ],
      [
        "في",
        -8.027775764465332
      ],
      [
        "▁ندي",
        -8.028091430664062
      ],
      [
        "▁دار",
        -8.028462409973145
      ],
      [
        "▁رسول",
        -8.028945922851562
      ],
      [
        "▁m",
        -8.02988338470459
      ],
      [
        "▁يوفقك",
        -8.03300952911377
      ],
      [
        "▁مشي",
        -8.035486221313477
      ],
      [
        "▁راهي",
        -8.035767555236816
      ],
      [
        "وه",
        -8.03588581085205
      ],
      [
        "▁راجعون",
        -8.036174774169922
      ],
      [
        "▁شحال",
        -8.03936767578125
      ],
      [
        "▁les",
        -8.043794631958008
      ],
      [
        "▁f",
        -8.056252479553223
      ],
      [
        "▁اني",
        -8.058111190795898
      ],
      [
        "▁ك",
        -8.058236122131348
      ],
      [
        "▁وبركاته",
        -8.059503555297852
      ],
      [
        "▁الكريم",
        -8.061491966247559
      ],
      [
        "▁5",
        -8.064718246459961
      ],
      [
        "▁وأ",
        -8.067718505859375
      ],
      [
        "▁ماشاء",
        -8.068427085876465
      ],
      [
        "▁t",
        -8.075238227844238
      ],
      [
        "▁كيفاه",
        -8.076214790344238
      ],
      [
        "▁بها",
        -8.076257705688477
      ],
      [
        "l",
        -8.076512336730957
      ],
      [
        "▁بلا",
        -8.077393531799316
      ],
      [
        "▁بزااف",
        -8.08156681060791
      ],
      [
        "▁منها",
        -8.082005500793457
      ],
      [
        "n",
        -8.082813262939453
      ],
      [
        "▁رمضان",
        -8.091869354248047
      ],
      [
        "▁سنة",
        -8.092703819274902
      ],
      [
        "▁ولكم",
        -8.093844413757324
      ],
      [
        "▁2025",
        -8.095349311828613
      ],
      [
        "▁وكل",
        -8.096322059631348
      ],
      [
        "▁كمل",
        -8.09755802154541
      ],
      [
        "▁شعبة",
        -8.100144386291504
      ],
      [
        "▁أي",
        -8.110010147094727
      ],
      [
        "يه",
        -8.110832214355469
      ],
      [
        "▁وفي",
        -8.112696647644043
      ],
      [
        "▁مات",
        -8.11291217803955
      ],
      [
        "▁ندير",
        -8.11661148071289
      ],
      [
        "تش",
        -8.116661071777344
      ],
      [
        "يش",
        -8.11929702758789
      ],
      [
        "▁نشوف",
        -8.119596481323242
      ],
      [
        "لا",
        -8.1199369430542
      ],
      [
        "▁استاذة",
        -8.121846199035645
      ],
      [
        "▁وقت",
        -8.122601509094238
      ],
      [
        "4",
        -8.123032569885254
      ],
      [
        "▁ابن",
        -8.132003784179688
      ],
      [
        "r",
        -8.132408142089844
      ],
      [
        "▁عليهم",
        -8.133699417114258
      ],
      [
        "▁الموضوع",
        -8.13668155670166
      ],
      [
        "▁تاني",
        -8.137738227844238
      ],
      [
        "▁جا",
        -8.138229370117188
      ],
      [
        "▁آمين",
        -8.138786315917969
      ],
      [
        "▁😊",
        -8.1416597366333
      ],
      [
        "▁فل",
        -8.142245292663574
      ],
      [
        "لها",
        -8.145964622497559
      ],
      [
        "▁جام",
        -8.147653579711914
      ],
      [
        "f",
        -8.15118408203125
      ],
      [
        "▁يقول",
        -8.152050018310547
      ],
      [
        "▁جديد",
        -8.154298782348633
      ],
      [
        "▁يحفضك",
        -8.155498504638672
      ],
      [
        "▁وحدة",
        -8.15717887878418
      ],
      [
        "▁وان",
        -8.158745765686035
      ],
      [
        "▁+",
        -8.161048889160156
      ],
      [
        "▁😢😢",
        -8.161397933959961
      ],
      [
        "▁معدل",
        -8.164581298828125
      ],
      [
        "▁يرحم",
        -8.168052673339844
      ],
      [
        "▁تقول",
        -8.168148040771484
      ],
      [
        "▁المنتدى",
        -8.17431640625
      ],
      [
        "▁روحي",
        -8.178857803344727
      ],
      [
        "▁جميع",
        -8.179841041564941
      ],
      [
        "▁لكم",
        -8.180822372436523
      ],
      [
        "▁نهار",
        -8.18214225769043
      ],
      [
        "▁ينجحنا",
        -8.18503189086914
      ],
      [
        "▁❤️",
        -8.190361976623535
      ],
      [
        "تنا",
        -8.19271469116211
      ],
      [
        "▁عليا",
        -8.193107604980469
      ],
      [
        "▁n",
        -8.193472862243652
      ],
      [
        "▁الوقت",
        -8.193981170654297
      ],
      [
        "▁راهم",
        -8.196452140808105
      ],
      [
        "▁راكي",
        -8.199074745178223
      ],
      [
        "▁هاذي",
        -8.200483322143555
      ],
      [
        "▁أنت",
        -8.207952499389648
      ],
      [
        "b",
        -8.209649085998535
      ],
      [
        "▁ميزان",
        -8.218770027160645
      ],
      [
        "▁7",
        -8.224617004394531
      ],
      [
        "▁الجن",
        -8.226516723632812
      ],
      [
        "_",
        -8.234780311584473
      ],
      [
        "▁ma",
        -8.23579216003418
      ],
      [
        "▁لما",
        -8.23811149597168
      ],
      [
        "▁الحق",
        -8.23842716217041
      ],
      [
        "▁4",
        -8.239733695983887
      ],
      [
        "▁سؤال",
        -8.240978240966797
      ],
      [
        "▁مرحبا",
        -8.242383003234863
      ],
      [
        "▁العظيم",
        -8.243704795837402
      ],
      [
        "▁مثل",
        -8.243967056274414
      ],
      [
        "▁هناك",
        -8.244124412536621
      ],
      [
        "ج",
        -8.246015548706055
      ],
      [
        "▁اليه",
        -8.247232437133789
      ],
      [
        "▁اكثر",
        -8.247342109680176
      ],
      [
        "▁كتاب",
        -8.247352600097656
      ],
      [
        "▁مزال",
        -8.248091697692871
      ],
      [
        "▁تحت",
        -8.248225212097168
      ],
      [
        "▁صباح",
        -8.249021530151367
      ],
      [
        "▁10",
        -8.24932861328125
      ],
      [
        "w",
        -8.252939224243164
      ],
      [
        "▁محتوى",
        -8.253477096557617
      ],
      [
        "▁طريقة",
        -8.25361442565918
      ],
      [
        "▁وشكرا",
        -8.253847122192383
      ],
      [
        "▁يدير",
        -8.254171371459961
      ],
      [
        "▁😅",
        -8.256638526916504
      ],
      [
        "▁شفت",
        -8.260555267333984
      ],
      [
        "تو",
        -8.261272430419922
      ],
      [
        "▁زوج",
        -8.261327743530273
      ],
      [
        "▁شهادة",
        -8.262499809265137
      ],
      [
        "▁هادي",
        -8.264533042907715
      ],
      [
        "▁لن",
        -8.267008781433105
      ],
      [
        "ربي",
        -8.27160930633545
      ],
      [
        "▁تحياتي",
        -8.272320747375488
      ],
      [
        "▁النبي",
        -8.27272891998291
      ],
      [
        "▁كلش",
        -8.276078224182129
      ],
      [
        "c",
        -8.281201362609863
      ],
      [
        "▁مام",
        -8.283068656921387
      ],
      [
        "وها",
        -8.285042762756348
      ],
      [
        "▁إليه",
        -8.28768539428711
      ],
      [
        "▁ya",
        -8.289754867553711
      ],
      [
        "▁نتاع",
        -8.29129409790039
      ],
      [
        "▁كثيرا",
        -8.291553497314453
      ],
      [
        "▁2026",
        -8.294651985168457
      ],
      [
        "ح",
        -8.299785614013672
      ],
      [
        "▁لكل",
        -8.299866676330566
      ],
      [
        "p",
        -8.300331115722656
      ],
      [
        "▁رعب",
        -8.30146312713623
      ],
      [
        "6",
        -8.304760932922363
      ],
      [
        "▁سي",
        -8.306655883789062
      ],
      [
        "▁عندو",
        -8.306778907775879
      ],
      [
        "z",
        -8.307743072509766
      ],
      [
        "▁نقرا",
        -8.308614730834961
      ],
      [
        "▁رحمة",
        -8.310437202453613
      ],
      [
        "g",
        -8.310795783996582
      ],
      [
        "▁عنه",
        -8.312700271606445
      ],
      [
        "😊",
        -8.313522338867188
      ],
      [
        "▁بالتوفيق",
        -8.313610076904297
      ],
      [
        "▁نشالله",
        -8.313888549804688
      ],
      [
        "▁المهم",
        -8.315445899963379
      ],
      [
        "▁العلم",
        -8.315973281860352
      ],
      [
        "▁y",
        -8.319602966308594
      ],
      [
        "▁عادي",
        -8.31974983215332
      ],
      [
        "▁خو",
        -8.321619987487793
      ],
      [
        "ق",
        -8.321830749511719
      ],
      [
        "▁يت",
        -8.324031829833984
      ],
      [
        "▁قلبي",
        -8.32640266418457
      ],
      [
        "وني",
        -8.328691482543945
      ],
      [
        "▁علاش",
        -8.329665184020996
      ],
      [
        "ط",
        -8.33409309387207
      ],
      [
        "ز",
        -8.334369659423828
      ],
      [
        "ص",
        -8.341215133666992
      ],
      [
        "▁حبيت",
        -8.34462833404541
      ],
      [
        "j",
        -8.347346305847168
      ],
      [
        "▁المسلمين",
        -8.349081993103027
      ],
      [
        "▁أفضل",
        -8.350507736206055
      ],
      [
        "▁مبروك",
        -8.35133171081543
      ],
      [
        "▁العالم",
        -8.353606224060059
      ],
      [
        "▁أختي",
        -8.35388469696045
      ],
      [
        "▁خاصة",
        -8.354009628295898
      ],
      [
        "8",
        -8.35489273071289
      ],
      [
        "▁🤲",
        -8.355706214904785
      ],
      [
        "▁ديرنا",
        -8.356319427490234
      ],
      [
        "▁نت",
        -8.360380172729492
      ],
      [
        "▁ثاني",
        -8.361733436584473
      ],
      [
        "▁شعر",
        -8.362485885620117
      ],
      [
        "▁النجاح",
        -8.36374568939209
      ],
      [
        "▁شيخ",
        -8.364325523376465
      ],
      [
        "▁le",
        -8.370444297790527
      ],
      [
        "▁هاذ",
        -8.37106704711914
      ],
      [
        "▁تم",
        -8.374119758605957
      ],
      [
        "▁نتي",
        -8.376168251037598
      ],
      [
        "▁الشعر",
        -8.37824821472168
      ],
      [
        "▁اسم",
        -8.379258155822754
      ],
      [
        "(",
        -8.38061809539795
      ],
      [
        "▁بمعدل",
        -8.381513595581055
      ],
      [
        "▁الثاني",
        -8.387144088745117
      ],
      [
        "▁الت",
        -8.3878755569458
      ],
      [
        "▁با",
        -8.388222694396973
      ],
      [
        "▁شرح",
        -8.389640808105469
      ],
      [
        "▁استاد",
        -8.391833305358887
      ],
      [
        "▁الدنيا",
        -8.394968032836914
      ],
      [
        "▁القصص",
        -8.394969940185547
      ],
      [
        "▁نتفرج",
        -8.395145416259766
      ],
      [
        "▁16",
        -8.398674011230469
      ],
      [
        "▁الأ",
        -8.399956703186035
      ],
      [
        "▁جزيلا",
        -8.403480529785156
      ],
      [
        "▁حبيبتي",
        -8.404121398925781
      ],
      [
        "▁العباسية",
        -8.409132957458496
      ],
      [
        "▁ننجح",
        -8.409916877746582
      ],
      [
        "▁الشيخ",
        -8.410137176513672
      ],
      [
        "يت",
        -8.410187721252441
      ],
      [
        "▁الصبر",
        -8.411430358886719
      ],
      [
        "na",
        -8.411492347717285
      ],
      [
        "▁روح",
        -8.416790962219238
      ],
      [
        "ha",
        -8.417247772216797
      ],
      [
        "▁العربية",
        -8.417638778686523
      ],
      [
        "▁الدين",
        -8.41840648651123
      ],
      [
        "▁سبحان",
        -8.420241355895996
      ],
      [
        "▁حسناتك",
        -8.421069145202637
      ],
      [
        "▁15",
        -8.421839714050293
      ],
      [
        "x",
        -8.422486305236816
      ],
      [
        "▁حول",
        -8.42345142364502
      ],
      [
        "▁يوفقنا",
        -8.423466682434082
      ],
      [
        "▁ماي",
        -8.423847198486328
      ],
      [
        "v",
        -8.425637245178223
      ],
      [
        "▁موضوع",
        -8.427051544189453
      ],
      [
        "▁نحن",
        -8.428817749023438
      ],
      [
        "▁جيت",
        -8.429030418395996
      ],
      [
        "يات",
        -8.429969787597656
      ],
      [
        "▁the",
        -8.433165550231934
      ],
      [
        "/",
        -8.434460639953613
      ],
      [
        "لهم",
        -8.436172485351562
      ],
      [
        "▁نشاله",
        -8.437819480895996
      ],
      [
        "▁li",
        -8.44105052947998
      ],
      [
        "▁القرآن",
        -8.441141128540039
      ],
      [
        "▁🙂",
        -8.442610740661621
      ],
      [
        "URL",
        -8.44287109375
      ],
      [
        "ار",
        -8.443807601928711
      ],
      [
        "ير",
        -8.445666313171387
      ],
      [
        "▁ولي",
        -8.445684432983398
      ],
      [
        "▁هم",
        -8.446660995483398
      ],
      [
        "▁احسن",
        -8.449010848999023
      ],
      [
        "▁hh",
        -8.44982624053955
      ],
      [
        "▁b",
        -8.451075553894043
      ],
      [
        "▁قوة",
        -8.452869415283203
      ],
      [
        "▁درت",
        -8.454076766967773
      ],
      [
        "▁أنه",
        -8.457290649414062
      ],
      [
        "▁سيبيا",
        -8.460906982421875
      ],
      [
        "▁تت",
        -8.461112976074219
      ],
      [
        "ch",
        -8.46123218536377
      ],
      [
        "▁الصلاة",
        -8.461403846740723
      ],
      [
        "▁you",
        -8.461545944213867
      ],
      [
        "▁🤣🤣",
        -8.46198844909668
      ],
      [
        "▁جماعة",
        -8.462430953979492
      ],
      [
        "▁هكا",
        -8.46329402923584
      ],
      [
        "▁علا",
        -8.468461036682129
      ],
      [
        "u",
        -8.469956398010254
      ],
      [
        "▁بديت",
        -8.470327377319336
      ],
      [
        "آ",
        -8.471915245056152
      ],
      [
        "▁بما",
        -8.474363327026367
      ],
      [
        "▁17",
        -8.475640296936035
      ],
      [
        "▁روعة",
        -8.476223945617676
      ],
      [
        "▁أكثر",
        -8.47652530670166
      ],
      [
        "▁2024",
        -8.478901863098145
      ],
      [
        "▁الان",
        -8.479467391967773
      ],
      [
        "▁مكان",
        -8.482389450073242
      ],
      [
        "▁لأن",
        -8.491455078125
      ],
      [
        "▁الحياة",
        -8.491799354553223
      ],
      [
        "▁نقدر",
        -8.493621826171875
      ],
      [
        "▁دعولي",
        -8.493842124938965
      ],
      [
        "▁نص",
        -8.494297981262207
      ],
      [
        "▁فا",
        -8.495463371276855
      ],
      [
        "أ",
        -8.497490882873535
      ],
      [
        "▁وعلى",
        -8.49886417388916
      ],
      [
        "▁حكايات",
        -8.499628067016602
      ],
      [
        "*",
        -8.500292778015137
      ],
      [
        "▁لوكان",
        -8.500568389892578
      ],
      [
        "▁et",
        -8.503690719604492
      ],
      [
        "▁كبير",
        -8.503972053527832
      ],
      [
        "▁فلا",
        -8.504264831542969
      ],
      [
        "▁اما",
        -8.504498481750488
      ],
      [
        "تني",
        -8.510387420654297
      ],
      [
        "ور",
        -8.51259994506836
      ],
      [
        "▁الاول",
        -8.512808799743652
      ],
      [
        "▁شهر",
        -8.513086318969727
      ],
      [
        "▁لالا",
        -8.513206481933594
      ],
      [
        "▁حاب",
        -8.514015197753906
      ],
      [
        "▁شي",
        -8.514057159423828
      ],
      [
        "▁‪",
        -8.51433277130127
      ],
      [
        "▁حل",
        -8.51611614227295
      ],
      [
        "▁والم",
        -8.516802787780762
      ],
      [
        "▁فيهم",
        -8.51998519897461
      ],
      [
        "▁بيه",
        -8.52218246459961
      ],
      [
        "▁وحد",
        -8.523515701293945
      ],
      [
        "▁حق",
        -8.528851509094238
      ],
      [
        "▁راكليطة",
        -8.531753540039062
      ],
      [
        "😅",
        -8.53262996673584
      ],
      [
        "▁غي",
        -8.535425186157227
      ],
      [
        "▁بنت",
        -8.535507202148438
      ],
      [
        "q",
        -8.537643432617188
      ],
      [
        "▁I",
        -8.539398193359375
      ],
      [
        "▁السؤال",
        -8.539868354797363
      ],
      [
        "▁علوم",
        -8.540263175964355
      ],
      [
        "▁/",
        -8.541719436645508
      ],
      [
        "▁دعوة",
        -8.542181968688965
      ],
      [
        "خ",
        -8.5429105758667
      ],
      [
        "▁بإذن",
        -8.543272018432617
      ],
      [
        "▁راهو",
        -8.544782638549805
      ],
      [
        "▁اخر",
        -8.544951438903809
      ],
      [
        "▁بيها",
        -8.54537296295166
      ],
      [
        "▁لان",
        -8.545929908752441
      ],
      [
        "▁يجي",
        -8.548568725585938
      ],
      [
        "▁بيك",
        -8.55077075958252
      ],
      [
        "▁c",
        -8.551276206970215
      ],
      [
        "غ",
        -8.552047729492188
      ],
      [
        "▁فسيح",
        -8.552385330200195
      ],
      [
        "▁معليش",
        -8.55264663696289
      ],
      [
        "▁الشعب",
        -8.555931091308594
      ],
      [
        "ولي",
        -8.555994033813477
      ],
      [
        "▁يمكن",
        -8.556583404541016
      ],
      [
        "▁شخص",
        -8.557345390319824
      ],
      [
        "تهم",
        -8.560047149658203
      ],
      [
        "▁اهلا",
        -8.563081741333008
      ],
      [
        "▁كلمة",
        -8.568958282470703
      ],
      [
        "▁بليز",
        -8.569598197937012
      ],
      [
        "▁نحب",
        -8.570669174194336
      ],
      [
        "▁منهم",
        -8.572239875793457
      ],
      [
        "▁إنا",
        -8.578995704650879
      ],
      [
        "▁وهي",
        -8.57971477508545
      ],
      [
        "❤️",
        -8.582221984863281
      ],
      [
        "▁اللغة",
        -8.585657119750977
      ],
      [
        "▁آخر",
        -8.587388038635254
      ],
      [
        "▁ايه",
        -8.588312149047852
      ],
      [
        "▁مكانش",
        -8.591638565063477
      ],
      [
        "▁حابة",
        -8.595561027526855
      ],
      [
        "▁دائما",
        -8.597201347351074
      ],
      [
        "يين",
        -8.602392196655273
      ],
      [
        "▁!",
        -8.602526664733887
      ],
      [
        "▁حال",
        -8.603086471557617
      ],
      [
        "ذ",
        -8.603339195251465
      ],
      [
        "▁عمري",
        -8.604072570800781
      ],
      [
        "▁‬",
        -8.606231689453125
      ],
      [
        "▁ليك",
        -8.60646915435791
      ],
      [
        "▁سمعت",
        -8.611001968383789
      ],
      [
        "▁🤲🏻",
        -8.611095428466797
      ],
      [
        "▁صحيح",
        -8.612369537353516
      ],
      [
        "▁الكتاب",
        -8.613736152648926
      ],
      [
        "▁بكل",
        -8.617228507995605
      ],
      [
        "▁تعرف",
        -8.617828369140625
      ],
      [
        "▁ولاية",
        -8.61793327331543
      ],
      [
        "▁سيدنا",
        -8.618192672729492
      ],
      [
        "▁نقول",
        -8.618980407714844
      ],
      [
        "▁ول",
        -8.624478340148926
      ],
      [
        "▁روحك",
        -8.625984191894531
      ],
      [
        "▁فوق",
        -8.626205444335938
      ],
      [
        "▁نتمنى",
        -8.627276420593262
      ],
      [
        "▁نعرف",
        -8.627888679504395
      ],
      [
        "يك",
        -8.628482818603516
      ],
      [
        "▁زيد",
        -8.63045597076416
      ],
      [
        "▁قناة",
        -8.631974220275879
      ],
      [
        "▁ولله",
        -8.634637832641602
      ],
      [
        "▁انك",
        -8.635210037231445
      ],
      [
        "▁يجازيك",
        -8.635735511779785
      ],
      [
        "▁دروس",
        -8.636764526367188
      ],
      [
        "▁بالنسبة",
        -8.637775421142578
      ],
      [
        "ra",
        -8.638359069824219
      ],
      [
        "وك",
        -8.639265060424805
      ],
      [
        "ث",
        -8.640946388244629
      ],
      [
        "▁كثر",
        -8.641412734985352
      ],
      [
        "▁d",
        -8.642168998718262
      ],
      [
        "▁18",
        -8.643473625183105
      ],
      [
        "اب",
        -8.644060134887695
      ],
      [
        "▁الذين",
        -8.653618812561035
      ],
      [
        "▁أهل",
        -8.655957221984863
      ],
      [
        "▁رائع",
        -8.656868934631348
      ],
      [
        "وم",
        -8.657459259033203
      ],
      [
        "▁هوما",
        -8.658143043518066
      ],
      [
        "▁أهلا",
        -8.661913871765137
      ],
      [
        "▁انو",
        -8.662056922912598
      ],
      [
        "▁ولم",
        -8.664223670959473
      ],
      [
        "▁وهذا",
        -8.665026664733887
      ],
      [
        "▁معايا",
        -8.66641616821289
      ],
      [
        "ض",
        -8.667503356933594
      ],
      [
        "▁بي",
        -8.668667793273926
      ],
      [
        "al",
        -8.66910457611084
      ],
      [
        "▁ماما",
        -8.669377326965332
      ],
      [
        "li",
        -8.670166969299316
      ],
      [
        "😭",
        -8.670409202575684
      ],
      [
        "▁ana",
        -8.670452117919922
      ],
      [
        "▁س",
        -8.675021171569824
      ],
      [
        "▁6",
        -8.67662239074707
      ],
      [
        "▁است",
        -8.677898406982422
      ],
      [
        "▁شباب",
        -8.677957534790039
      ],
      [
        "▁fi",
        -8.67806625366211
      ],
      [
        "▁ع",
        -8.68022346496582
      ],
      [
        "▁دون",
        -8.682562828063965
      ],
      [
        "▁ماذا",
        -8.683147430419922
      ],
      [
        "▁فات",
        -8.683870315551758
      ],
      [
        "▁الحكاية",
        -8.68444538116455
      ],
      [
        "▁لهم",
        -8.685063362121582
      ],
      [
        "▁صوت",
        -8.685553550720215
      ],
      [
        "ـ",
        -8.687646865844727
      ],
      [
        "▁رحمه",
        -8.687928199768066
      ],
      [
        "▁وبارك",
        -8.68928337097168
      ],
      [
        "▁تعيش",
        -8.689826965332031
      ],
      [
        "!",
        -8.690231323242188
      ],
      [
        "▁يجب",
        -8.690325736999512
      ],
      [
        "يد",
        -8.691668510437012
      ],
      [
        "▁بكالوريا",
        -8.692883491516113
      ],
      [
        "▁الرحمن",
        -8.695563316345215
      ],
      [
        "▁تحكي",
        -8.698640823364258
      ],
      [
        "▁درس",
        -8.698956489562988
      ],
      [
        "▁ساعة",
        -8.699893951416016
      ],
      [
        "▁عندما",
        -8.700018882751465
      ],
      [
        "▁ليوم",
        -8.700081825256348
      ],
      [
        "🙂",
        -8.701931953430176
      ],
      [
        "▁نسمع",
        -8.704092979431152
      ],
      [
        "😢😢",
        -8.704240798950195
      ],
      [
        "▁مليون",
        -8.70515251159668
      ],
      [
        "er",
        -8.705626487731934
      ],
      [
        "له",
        -8.70699405670166
      ],
      [
        "▁رضي",
        -8.708135604858398
      ],
      [
        "▁طيبة",
        -8.709442138671875
      ],
      [
        "▁أما",
        -8.710305213928223
      ],
      [
        "▁اتمنى",
        -8.711738586425781
      ],
      [
        "▁جديدة",
        -8.713139533996582
      ],
      [
        "▁مر",
        -8.714041709899902
      ],
      [
        "▁عمر",
        -8.714571952819824
      ],
      [
        "▁ست",
        -8.71534538269043
      ],
      [
        "▁ياخو",
        -8.720183372497559
      ],
      [
        "▁😭😭",
        -8.7213773727417
      ],
      [
        "▁ياارب",
        -8.722103118896484
      ],
      [
        "▁عندها",
        -8.725422859191895
      ],
      [
        "▁شوية",
        -8.729497909545898
      ],
      [
        "▁!!",
        -8.732552528381348
      ],
      [
        "▁الدار",
        -8.742391586303711
      ],
      [
        "▁الرعب",
        -8.743745803833008
      ],
      [
        "▁ايا",
        -8.744461059570312
      ],
      [
        "▁بخير",
        -8.744574546813965
      ],
      [
        "▁وب",
        -8.746944427490234
      ],
      [
        "انا",
        -8.748713493347168
      ],
      [
        "▁كم",
        -8.749959945678711
      ],
      [
        "ونا",
        -8.75080394744873
      ],
      [
        "▁منك",
        -8.750861167907715
      ],
      [
        "▁شابة",
        -8.751262664794922
      ],
      [
        "▁شكراا",
        -8.752012252807617
      ],
      [
        "▁انه",
        -8.753030776977539
      ],
      [
        "ظ",
        -8.757336616516113
      ],
      [
        "▁وليت",
        -8.75778579711914
      ],
      [
        "دي",
        -8.758491516113281
      ],
      [
        "▁شوي",
        -8.76467227935791
      ],
      [
        "▁تدي",
        -8.765603065490723
      ],
      [
        "ام",
        -8.766332626342773
      ],
      [
        "▁شاءلله",
        -8.766457557678223
      ],
      [
        "▁فرحة",
        -8.767019271850586
      ],
      [
        "▁السنة",
        -8.768651962280273
      ],
      [
        "▁معانا",
        -8.768671989440918
      ],
      [
        "▁فيكم",
        -8.770185470581055
      ],
      [
        "▁حيث",
        -8.770715713500977
      ],
      [
        "▁مقترحات",
        -8.773102760314941
      ],
      [
        "▁يحب",
        -8.773924827575684
      ],
      [
        "▁فهمت",
        -8.77725601196289
      ],
      [
        "▁بدون",
        -8.778523445129395
      ],
      [
        "▁طريق",
        -8.78019905090332
      ],
      [
        "+",
        -8.782368659973145
      ],
      [
        "▁فيديوهات",
        -8.782773971557617
      ],
      [
        "▁12",
        -8.782957077026367
      ],
      [
        "▁علم",
        -8.78319263458252
      ],
      [
        "▁وإن",
        -8.784886360168457
      ],
      [
        "ou",
        -8.787694931030273
      ],
      [
        "▁😭",
        -8.787739753723145
      ],
      [
        "▁لقيت",
        -8.78956127166748
      ],
      [
        "▁نورمال",
        -8.79047679901123
      ],
      [
        "▁وعليكم",
        -8.798064231872559
      ],
      [
        "▁العمل",
        -8.801311492919922
      ],
      [
        "▁كاش",
        -8.801732063293457
      ],
      [
        "▁خوتي",
        -8.802372932434082
      ],
      [
        "▁كبيرة",
        -8.804289817810059
      ],
      [
        "▁تقدر",
        -8.805071830749512
      ],
      [
        "▁بسم",
        -8.806130409240723
      ],
      [
        "يل",
        -8.808143615722656
      ],
      [
        "▁انسان",
        -8.811599731445312
      ],
      [
        "ء",
        -8.813674926757812
      ],
      [
        "▁فلسطين",
        -8.813796997070312
      ],
      [
        "▁صل",
        -8.817734718322754
      ],
      [
        "▁هيا",
        -8.81797981262207
      ],
      [
        "▁حسب",
        -8.820611953735352
      ],
      [
        "▁14",
        -8.82153606414795
      ],
      [
        "وي",
        -8.821660995483398
      ],
      [
        "▁راكم",
        -8.821930885314941
      ],
      [
        "ينا",
        -8.822999954223633
      ],
      [
        "▁يعرف",
        -8.823403358459473
      ],
      [
        "▁سورة",
        -8.823596000671387
      ],
      [
        "▁دخلت",
        -8.82904052734375
      ],
      [
        "▁20",
        -8.829172134399414
      ],
      [
        "▁أحد",
        -8.829290390014648
      ],
      [
        "▁لايك",
        -8.82967758178711
      ],
      [
        "▁A",
        -8.831799507141113
      ],
      [
        "▁اله",
        -8.83230972290039
      ],
      [
        "▁جات",
        -8.832855224609375
      ],
      [
        "▁لت",
        -8.832971572875977
      ],
      [
        "▁‏",
        -8.833192825317383
      ],
      [
        "▁ديري",
        -8.833565711975098
      ],
      [
        "▁قريب",
        -8.835219383239746
      ],
      [
        "▁وحدي",
        -8.83523941040039
      ],
      [
        "▁الإ",
        -8.836145401000977
      ],
      [
        "▁جن",
        -8.836731910705566
      ],
      [
        "▁19",
        -8.839205741882324
      ],
      [
        "▁الجزء",
        -8.841209411621094
      ],
      [
        "▁وقال",
        -8.841793060302734
      ],
      [
        "اد",
        -8.842385292053223
      ],
      [
        "ma",
        -8.842923164367676
      ],
      [
        "▁تاعي",
        -8.843864440917969
      ],
      [
        "▁للم",
        -8.843976974487305
      ],
      [
        "اك",
        -8.844571113586426
      ],
      [
        "▁هاذا",
        -8.844805717468262
      ],
      [
        "▁زعما",
        -8.8455810546875
      ],
      [
        "▁وقد",
        -8.845641136169434
      ],
      [
        "▁خلاص",
        -8.846318244934082
      ],
      [
        "▁الليل",
        -8.84783935546875
      ],
      [
        "▁عجبتني",
        -8.847946166992188
      ],
      [
        "▁جميل",
        -8.848304748535156
      ],
      [
        "▁مثلا",
        -8.84893798828125
      ],
      [
        "ئ",
        -8.849478721618652
      ],
      [
        "▁حساب",
        -8.851092338562012
      ],
      [
        "▁جميعا",
        -8.851142883300781
      ],
      [
        "اس",
        -8.852442741394043
      ],
      [
        "▁=",
        -8.852842330932617
      ],
      [
        "▁محل",
        -8.855354309082031
      ],
      [
        "▁عودة",
        -8.85643482208252
      ],
      [
        "ول",
        -8.856549263000488
      ],
      [
        "▁هكذا",
        -8.857970237731934
      ],
      [
        "▁أول",
        -8.860974311828613
      ],
      [
        "▁بابا",
        -8.860978126525879
      ],
      [
        "▁شعب",
        -8.862665176391602
      ],
      [
        "▁وليس",
        -8.863896369934082
      ],
      [
        "▁تجي",
        -8.865158081054688
      ],
      [
        "▁الوكيل",
        -8.86823558807373
      ],
      [
        "▁القلب",
        -8.8691987991333
      ],
      [
        "▁هذاك",
        -8.869354248046875
      ],
      [
        "الله",
        -8.871079444885254
      ],
      [
        "▁فإن",
        -8.871166229248047
      ],
      [
        "▁الن",
        -8.871785163879395
      ],
      [
        "▁عندنا",
        -8.872330665588379
      ],
      [
        "▁القمة",
        -8.873912811279297
      ],
      [
        "▁مواضيع",
        -8.874531745910645
      ],
      [
        "▁تعليق",
        -8.874606132507324
      ],
      [
        "▁دخل",
        -8.875020027160645
      ],
      [
        "▁ou",
        -8.878280639648438
      ],
      [
        "▁بركاته",
        -8.882369041442871
      ],
      [
        "▁هدي",
        -8.883790969848633
      ],
      [
        "▁الفاضل",
        -8.885218620300293
      ],
      [
        "▁S",
        -8.885653495788574
      ],
      [
        "رة",
        -8.887713432312012
      ],
      [
        "▁عدد",
        -8.887857437133789
      ],
      [
        "▁تحية",
        -8.897245407104492
      ],
      [
        "▁أبي",
        -8.898253440856934
      ],
      [
        "▁وانت",
        -8.898508071899414
      ],
      [
        "▁لقد",
        -8.89868450164795
      ],
      [
        "▁تاريخ",
        -8.898999214172363
      ],
      [
        "▁فعل",
        -8.907849311828613
      ],
      [
        "▁رح",
        -8.908001899719238
      ],
      [
        "▁مكاش",
        -8.908537864685059
      ],
      [
        "▁الجزائري",
        -8.910795211791992
      ],
      [
        "هاش",
        -8.913128852844238
      ],
      [
        "▁رائعة",
        -8.913872718811035
      ],
      [
        "▁ولد",
        -8.914813041687012
      ],
      [
        "▁الكثير",
        -8.917315483093262
      ],
      [
        "▁M",
        -8.917848587036133
      ],
      [
        "لة",
        -8.917856216430664
      ],
      [
        "▁فقد",
        -8.920063972473145
      ],
      [
        "▁مان",
        -8.920234680175781
      ],
      [
        "▁ني",
        -8.920552253723145
      ],
      [
        "▁تعيشي",
        -8.920952796936035
      ],
      [
        "▁نموت",
        -8.921074867248535
      ],
      [
        "✨",
        -8.921127319335938
      ],
      [
        "▁تحب",
        -8.921285629272461
      ],
      [
        "▁شر",
        -8.9213228225708
      ],
      [
        "▁ينجحك",
        -8.922860145568848
      ],
      [
        "▁الجلفة",
        -8.924626350402832
      ],
      [
        "▁أخرى",
        -8.924897193908691
      ],
      [
        "▁يرحمها",
        -8.925226211547852
      ],
      [
        "▁قول",
        -8.925230979919434
      ],
      [
        "▁ابوني",
        -8.926543235778809
      ],
      [
        "▁رد",
        -8.926615715026855
      ],
      [
        "▁8",
        -8.928285598754883
      ],
      [
        "in",
        -8.928503036499023
      ],
      [
        "▁تحيا",
        -8.92857837677002
      ],
      [
        "▁نروح",
        -8.929286003112793
      ],
      [
        "جي",
        -8.929438591003418
      ],
      [
        "▁جد",
        -8.932778358459473
      ],
      [
        "▁حرام",
        -8.933052062988281
      ],
      [
        "▁العربي",
        -8.934050559997559
      ],
      [
        "مة",
        -8.935281753540039
      ],
      [
        "▁🇩🇿",
        -8.93730640411377
      ],
      [
        "تم",
        -8.937698364257812
      ],
      [
        "▁سلم",
        -8.938044548034668
      ],
      [
        "▁ايام",
        -8.93927001953125
      ],
      [
        "▁مازال",
        -8.939345359802246
      ],
      [
        "▁حتا",
        -8.939711570739746
      ],
      [
        "\r",
        -8.940632820129395
      ],
      [
        "▁مشاء",
        -8.940651893615723
      ],
      [
        "▁تخوف",
        -8.940930366516113
      ],
      [
        "▁هادا",
        -8.943882942199707
      ],
      [
        "▁مليحة",
        -8.943910598754883
      ],
      [
        "▁بش",
        -8.944147109985352
      ],
      [
        "▁وأن",
        -8.947017669677734
      ],
      [
        "▁تجيب",
        -8.9478178024292
      ],
      [
        "▁طول",
        -8.948725700378418
      ],
      [
        "▁المشكل",
        -8.948848724365234
      ],
      [
        "▁الخ",
        -8.94898509979248
      ],
      [
        "▁مستجابة",
        -8.95046615600586
      ],
      [
        "re",
        -8.95238208770752
      ],
      [
        "▁أمين",
        -8.953173637390137
      ],
      [
        "▁جامي",
        -8.958952903747559
      ],
      [
        "▁كنا",
        -8.95928955078125
      ],
      [
        "▁نفسي",
        -8.959991455078125
      ],
      [
        "▁j",
        -8.960610389709473
      ],
      [
        "▁ألف",
        -8.960834503173828
      ],
      [
        "▁تن",
        -8.961341857910156
      ],
      [
        "ed",
        -8.961470603942871
      ],
      [
        "▁معا",
        -8.961694717407227
      ],
      [
        "بي",
        -8.962677955627441
      ],
      [
        "️",
        -8.962688446044922
      ],
      [
        "▁s",
        -8.962867736816406
      ],
      [
        "▁ذكر",
        -8.962913513183594
      ],
      [
        "▁مشكل",
        -8.963898658752441
      ],
      [
        "▁ڨاع",
        -8.964007377624512
      ],
      [
        "▁😍",
        -8.964091300964355
      ],
      [
        "▁حب",
        -8.964371681213379
      ],
      [
        "🤲",
        -8.96496868133545
      ],
      [
        "▁اخرى",
        -8.96540355682373
      ],
      [
        "▁ونعم",
        -8.965543746948242
      ],
      [
        "▁شوف",
        -8.965746879577637
      ],
      [
        "▁ولو",
        -8.966657638549805
      ],
      [
        "▁تشوف",
        -8.967854499816895
      ],
      [
        "▁رحت",
        -8.967905044555664
      ],
      [
        "▁قلب",
        -8.968610763549805
      ],
      [
        "▁🎉",
        -8.969655990600586
      ],
      [
        "▁بلييز",
        -8.969883918762207
      ],
      [
        "▁#",
        -8.97042465209961
      ],
      [
        "▁ليلة",
        -8.971537590026855
      ],
      [
        "▁عل",
        -8.97236156463623
      ],
      [
        "▁قريت",
        -8.97374439239502
      ],
      [
        "▁كن",
        -8.974579811096191
      ],
      [
        "▁وكان",
        -8.975207328796387
      ],
      [
        "▁40",
        -8.975279808044434
      ],
      [
        "▁❤️❤️",
        -8.976712226867676
      ],
      [
        "ناش",
        -8.97816276550293
      ],
      [
        "▁ج",
        -8.978372573852539
      ],
      [
        "▁لانو",
        -8.978880882263184
      ],
      [
        "▁to",
        -8.979125022888184
      ],
      [
        "بل",
        -8.980061531066895
      ],
      [
        "▁اريد",
        -8.981325149536133
      ],
      [
        "▁شكر",
        -8.982340812683105
      ],
      [
        "▁قسم",
        -8.982654571533203
      ],
      [
        "💔",
        -8.983627319335938
      ],
      [
        "▁عز",
        -8.984098434448242
      ],
      [
        "▁باقي",
        -8.986071586608887
      ],
      [
        "▁نبدا",
        -8.98611831665039
      ],
      [
        "▁✨",
        -8.986515045166016
      ],
      [
        "عة",
        -8.986550331115723
      ],
      [
        "؛",
        -8.987403869628906
      ],
      [
        "▁التوفيق",
        -8.988330841064453
      ],
      [
        "▁نوع",
        -8.989337921142578
      ],
      [
        "▁مين",
        -8.989988327026367
      ],
      [
        "▁راجل",
        -8.990331649780273
      ],
      [
        "▁كانو",
        -8.990716934204102
      ],
      [
        "ود",
        -8.990838050842285
      ],
      [
        "ست",
        -8.991094589233398
      ],
      [
        "▁T",
        -8.992457389831543
      ],
      [
        "▁معاه",
        -8.992544174194336
      ],
      [
        "▁ص",
        -8.992842674255371
      ],
      [
        "▁حياتك",
        -8.992888450622559
      ],
      [
        "هل",
        -8.99348258972168
      ],
      [
        "▁?",
        -8.993791580200195
      ],
      [
        "!!",
        -8.993826866149902
      ],
      [
        "▁تهدر",
        -8.99455451965332
      ],
      [
        "▁مسلم",
        -8.994589805603027
      ],
      [
        "▁رغم",
        -8.995390892028809
      ],
      [
        "▁حياتي",
        -8.996499061584473
      ],
      [
        "▁وفلسفة",
        -8.997230529785156
      ],
      [
        "▁والسلام",
        -8.997248649597168
      ],
      [
        "▁تعليقي",
        -8.997383117675781
      ],
      [
        "▁جزء",
        -8.99779224395752
      ],
      [
        "▁شا",
        -8.9984130859375
      ],
      [
        "▁لفيديو",
        -8.999896049499512
      ],
      [
        "▁الرد",
        -8.999966621398926
      ],
      [
        "▁اعلم",
        -9.000429153442383
      ],
      [
        "▁صحا",
        -9.000472068786621
      ],
      [
        "▁الحل",
        -9.001547813415527
      ],
      [
        "▁عمل",
        -9.001885414123535
      ],
      [
        "ري",
        -9.003066062927246
      ],
      [
        "▁بلاك",
        -9.00387191772461
      ],
      [
        "▁جميلة",
        -9.005298614501953
      ],
      [
        "▁لمن",
        -9.00605583190918
      ],
      [
        "▁فكرة",
        -9.007180213928223
      ],
      [
        "▁الاستاذ",
        -9.007305145263672
      ],
      [
        "’",
        -9.007417678833008
      ],
      [
        "▁يوجد",
        -9.007789611816406
      ],
      [
        "▁L",
        -9.007817268371582
      ],
      [
        "▁الأول",
        -9.009228706359863
      ],
      [
        "▁الجميع",
        -9.013391494750977
      ],
      [
        "ak",
        -9.01564884185791
      ],
      [
        "رت",
        -9.017900466918945
      ],
      [
        "▁ر",
        -9.019210815429688
      ],
      [
        "▁عين",
        -9.019598007202148
      ],
      [
        "▁قل",
        -9.020222663879395
      ],
      [
        "▁لينا",
        -9.020400047302246
      ],
      [
        "=",
        -9.020740509033203
      ],
      [
        "▁بم",
        -9.022354125976562
      ],
      [
        "▁i",
        -9.022830963134766
      ],
      [
        "ni",
        -9.022831916809082
      ],
      [
        "مي",
        -9.023716926574707
      ],
      [
        "▁شاءالله",
        -9.024359703063965
      ],
      [
        "▁ايضا",
        -9.025218963623047
      ],
      [
        "▁يرزقك",
        -9.026822090148926
      ],
      [
        "▁واصل",
        -9.027219772338867
      ],
      [
        "▁والا",
        -9.028719902038574
      ],
      [
        "▁سن",
        -9.028889656066895
      ],
      [
        "▁عندهم",
        -9.029162406921387
      ],
      [
        "▁غريب",
        -9.03021240234375
      ],
      [
        "اش",
        -9.030915260314941
      ],
      [
        "▁الدعاء",
        -9.031787872314453
      ],
      [
        "▁باذن",
        -9.032093048095703
      ],
      [
        "▁والديك",
        -9.032405853271484
      ],
      [
        "▁ki",
        -9.032844543457031
      ],
      [
        "▁كتب",
        -9.032898902893066
      ],
      [
        "▁الإسلام",
        -9.0347900390625
      ],
      [
        "▁رقم",
        -9.035822868347168
      ],
      [
        "▁دي",
        -9.036344528198242
      ],
      [
        "▁ها",
        -9.036550521850586
      ],
      [
        "▁لعزيز",
        -9.0379056930542
      ],
      [
        "▁اا",
        -9.037939071655273
      ],
      [
        "▁video",
        -9.037992477416992
      ],
      [
        "▁بكري",
        -9.039000511169434
      ],
      [
        "▁هذو",
        -9.040188789367676
      ],
      [
        "▁نور",
        -9.040724754333496
      ],
      [
        "▁الدروس",
        -9.040791511535645
      ],
      [
        "اللهم",
        -9.042537689208984
      ],
      [
        "▁نصيحة",
        -9.04409408569336
      ],
      [
        "▁سبب",
        -9.0457763671875
      ],
      [
        "▁خوف",
        -9.045809745788574
      ],
      [
        "▁يجيب",
        -9.045924186706543
      ],
      [
        "est",
        -9.046279907226562
      ],
      [
        "▁كلام",
        -9.046687126159668
      ],
      [
        "▁نفسه",
        -9.047866821289062
      ],
      [
        "▁نا",
        -9.050771713256836
      ],
      [
        "▁عمي",
        -9.050985336303711
      ],
      [
        "?",
        -9.052238464355469
      ],
      [
        "▁ديت",
        -9.052800178527832
      ],
      [
        "▁لكي",
        -9.053711891174316
      ],
      [
        "▁bac",
        -9.053791046142578
      ],
      [
        "▁ريضا",
        -9.054156303405762
      ],
      [
        "▁صغير",
        -9.054776191711426
      ],
      [
        "▁اداب",
        -9.055887222290039
      ],
      [
        "را",
        -9.056386947631836
      ],
      [
        "▁je",
        -9.056733131408691
      ],
      [
        "▁سلسلة",
        -9.057044982910156
      ],
      [
        "▁نفهم",
        -9.057271957397461
      ],
      [
        "▁خاص",
        -9.0579833984375
      ],
      [
        "▁منه",
        -9.060579299926758
      ],
      [
        "▁خفت",
        -9.060808181762695
      ],
      [
        "es",
        -9.061018943786621
      ],
      [
        "▁القناة",
        -9.063065528869629
      ],
      [
        "يلي",
        -9.063676834106445
      ],
      [
        "كي",
        -9.064135551452637
      ],
      [
        "▁«",
        -9.06564998626709
      ],
      [
        "▁😅😅",
        -9.066600799560547
      ],
      [
        "▁وجزاك",
        -9.067092895507812
      ],
      [
        "▁يخليك",
        -9.067694664001465
      ],
      [
        "▁ملي",
        -9.068934440612793
      ],
      [
        "اتك",
        -9.069445610046387
      ],
      [
        "▁اغفر",
        -9.06975269317627
      ],
      [
        "🎉",
        -9.071637153625488
      ],
      [
        "▁ليست",
        -9.071734428405762
      ],
      [
        "▁ربما",
        -9.072613716125488
      ],
      [
        "▁تاعو",
        -9.073909759521484
      ],
      [
        "▁لحكاية",
        -9.07436466217041
      ],
      [
        "▁المغرب",
        -9.075601577758789
      ],
      [
        "▁اكبر",
        -9.075629234313965
      ],
      [
        "▁معنا",
        -9.076667785644531
      ],
      [
        "▁الع",
        -9.077178955078125
      ],
      [
        "▁داير",
        -9.077251434326172
      ],
      [
        "▁البيت",
        -9.079103469848633
      ],
      [
        "▁شاف",
        -9.0796537399292
      ],
      [
        "▁رجل",
        -9.079792976379395
      ],
      [
        "▁🤲🤲",
        -9.081144332885742
      ],
      [
        "▁النار",
        -9.0817232131958
      ],
      [
        "▁مفهمتش",
        -9.081979751586914
      ],
      [
        "▁ولكل",
        -9.082488059997559
      ],
      [
        "▁بسبب",
        -9.084423065185547
      ],
      [
        "وهم",
        -9.085908889770508
      ],
      [
        "▁راكليطا",
        -9.08627986907959
      ],
      [
        "▁باينة",
        -9.08708667755127
      ],
      [
        "▁أتمنى",
        -9.088570594787598
      ],
      [
        "اني",
        -9.08985424041748
      ],
      [
        "▁المرأة",
        -9.090441703796387
      ],
      [
        "▁فهو",
        -9.090926170349121
      ],
      [
        "▁ديما",
        -9.090977668762207
      ],
      [
        "▁مال",
        -9.092759132385254
      ],
      [
        "▁te",
        -9.092887878417969
      ],
      [
        "▁قالت",
        -9.093198776245117
      ],
      [
        "▁اليوتيوب",
        -9.093481063842773
      ],
      [
        "ؤ",
        -9.094579696655273
      ],
      [
        "▁🤍",
        -9.094891548156738
      ],
      [
        "▁الحقيقة",
        -9.0964994430542
      ],
      [
        "▁يدي",
        -9.097128868103027
      ],
      [
        "وس",
        -9.09798526763916
      ],
      [
        "▁ش",
        -9.09855842590332
      ],
      [
        "▁لول",
        -9.098791122436523
      ],
      [
        "▁أيضا",
        -9.099106788635254
      ],
      [
        "كل",
        -9.099495887756348
      ],
      [
        "▁هاذو",
        -9.099651336669922
      ],
      [
        "▁نديرو",
        -9.100944519042969
      ],
      [
        "▁B",
        -9.10109806060791
      ],
      [
        "▁اجمعين",
        -9.10230541229248
      ],
      [
        "▁el",
        -9.103405952453613
      ],
      [
        "▁حي",
        -9.10417366027832
      ],
      [
        "▁en",
        -9.1056547164917
      ],
      [
        "▁طلب",
        -9.10831069946289
      ],
      [
        "لكم",
        -9.108354568481445
      ],
      [
        "▁نجيبو",
        -9.108988761901855
      ],
      [
        "▁بالم",
        -9.109309196472168
      ],
      [
        "▁نسيت",
        -9.109615325927734
      ],
      [
        "▁صغيرة",
        -9.109762191772461
      ],
      [
        "▁لغات",
        -9.110182762145996
      ],
      [
        "▁جزائري",
        -9.110974311828613
      ],
      [
        "▁ريدكس",
        -9.111442565917969
      ],
      [
        "😍",
        -9.111501693725586
      ],
      [
        "ti",
        -9.112236976623535
      ],
      [
        "▁ننجحو",
        -9.112686157226562
      ],
      [
        "▁شيكور",
        -9.113005638122559
      ],
      [
        "▁هادو",
        -9.113733291625977
      ],
      [
        "▁اصلا",
        -9.113956451416016
      ],
      [
        "ek",
        -9.114209175109863
      ],
      [
        "▁دعواتكم",
        -9.114645957946777
      ],
      [
        "▁C",
        -9.114686965942383
      ],
      [
        "اه",
        -9.11689567565918
      ],
      [
        "▁دراهم",
        -9.117310523986816
      ],
      [
        "▁تعلم",
        -9.117828369140625
      ],
      [
        "▁بأن",
        -9.119246482849121
      ],
      [
        "▁صاحب",
        -9.120318412780762
      ],
      [
        "▁وزيد",
        -9.120866775512695
      ],
      [
        "▁2023",
        -9.123549461364746
      ],
      [
        "▁ندخل",
        -9.12513256072998
      ],
      [
        "▁تلك",
        -9.126498222351074
      ],
      [
        "▁عربية",
        -9.12650203704834
      ],
      [
        "▁الصح",
        -9.127436637878418
      ],
      [
        "سي",
        -9.127626419067383
      ],
      [
        "é",
        -9.128827095031738
      ],
      [
        "▁الادب",
        -9.131234169006348
      ],
      [
        "ad",
        -9.131420135498047
      ],
      [
        "▁حسن",
        -9.132524490356445
      ],
      [
        "▁فى",
        -9.132596969604492
      ],
      [
        "▁لماذا",
        -9.133403778076172
      ],
      [
        "يها",
        -9.133872985839844
      ],
      [
        "▁🎉🎉",
        -9.135945320129395
      ],
      [
        "▁_",
        -9.136056900024414
      ],
      [
        "▁in",
        -9.136500358581543
      ],
      [
        "▁13",
        -9.138519287109375
      ],
      [
        "▁للجميع",
        -9.138700485229492
      ],
      [
        "▁يدخل",
        -9.138725280761719
      ],
      [
        "▁ادا",
        -9.138860702514648
      ],
      [
        "▁pour",
        -9.139264106750488
      ],
      [
        "▁and",
        -9.139688491821289
      ],
      [
        "يب",
        -9.139924049377441
      ],
      [
        "▁ديرو",
        -9.143440246582031
      ],
      [
        "▁الرجل",
        -9.144417762756348
      ],
      [
        "▁منا",
        -9.144437789916992
      ],
      [
        "▁نفسك",
        -9.144630432128906
      ],
      [
        "▁منذ",
        -9.144781112670898
      ],
      [
        "▁التعليق",
        -9.145145416259766
      ],
      [
        "▁أستاذة",
        -9.145256996154785
      ],
      [
        "▁مل",
        -9.145560264587402
      ],
      [
        "at",
        -9.14590835571289
      ],
      [
        "▁كثير",
        -9.146214485168457
      ],
      [
        "▁فضلكم",
        -9.146845817565918
      ],
      [
        "▁ارجو",
        -9.149242401123047
      ],
      [
        "▁حر",
        -9.149492263793945
      ],
      [
        "ya",
        -9.151267051696777
      ],
      [
        "▁الخوف",
        -9.152088165283203
      ],
      [
        "▁خاطر",
        -9.152989387512207
      ],
      [
        "▁الحديث",
        -9.153706550598145
      ],
      [
        "▁أعلم",
        -9.1574125289917
      ],
      [
        "▁يفرحك",
        -9.160423278808594
      ],
      [
        "▁نتوما",
        -9.160452842712402
      ],
      [
        "▁خلال",
        -9.160909652709961
      ],
      [
        "▁لدي",
        -9.161133766174316
      ],
      [
        "▁للباك",
        -9.16120433807373
      ],
      [
        "▁ممتاز",
        -9.161296844482422
      ],
      [
        "▁الثانية",
        -9.161412239074707
      ],
      [
        "▁باب",
        -9.161734580993652
      ],
      [
        "▁عدم",
        -9.161934852600098
      ],
      [
        "▁الجزائرية",
        -9.16207218170166
      ],
      [
        "بة",
        -9.162287712097168
      ],
      [
        "بر",
        -9.162300109863281
      ],
      [
        "▁فديو",
        -9.163558959960938
      ],
      [
        "▁is",
        -9.164166450500488
      ],
      [
        "▁الرسول",
        -9.16729736328125
      ],
      [
        "▁قمة",
        -9.167950630187988
      ],
      [
        "▁فهم",
        -9.168462753295898
      ],
      [
        "▁النص",
        -9.168794631958008
      ],
      [
        "▁لأ",
        -9.168879508972168
      ],
      [
        "▁عنها",
        -9.169134140014648
      ],
      [
        "يس",
        -9.169660568237305
      ],
      [
        "دة",
        -9.16967487335205
      ],
      [
        "▁توحشناك",
        -9.169715881347656
      ],
      [
        "▁💔",
        -9.170933723449707
      ],
      [
        "▁نسقسيك",
        -9.171102523803711
      ],
      [
        "▁نكون",
        -9.171712875366211
      ],
      [
        "▁وكي",
        -9.17205810546875
      ],
      [
        "وب",
        -9.172191619873047
      ],
      [
        "▁يشوف",
        -9.172209739685059
      ],
      [
        "▁طفلة",
        -9.172517776489258
      ],
      [
        "▁جاء",
        -9.173083305358887
      ],
      [
        "▁خلق",
        -9.173711776733398
      ],
      [
        "اج",
        -9.173723220825195
      ],
      [
        "▁غدوة",
        -9.175792694091797
      ],
      [
        "اح",
        -9.176020622253418
      ],
      [
        "▁اهل",
        -9.176796913146973
      ],
      [
        "▁بيهم",
        -9.177329063415527
      ],
      [
        "▁الشكر",
        -9.177621841430664
      ],
      [
        "بو",
        -9.178338050842285
      ],
      [
        "▁سا",
        -9.179447174072266
      ],
      [
        "▁تقبل",
        -9.180221557617188
      ],
      [
        "▁rabi",
        -9.180257797241211
      ],
      [
        "ولا",
        -9.18155574798584
      ],
      [
        "▁د",
        -9.18253231048584
      ],
      [
        "▁الإنسان",
        -9.18403434753418
      ],
      [
        "▁يهدر",
        -9.184152603149414
      ],
      [
        "▁هايل",
        -9.184463500976562
      ],
      [
        "▁مبارك",
        -9.184866905212402
      ],
      [
        "▁جبت",
        -9.184885025024414
      ],
      [
        "ing",
        -9.185371398925781
      ],
      [
        "هن",
        -9.185796737670898
      ],
      [
        "ta",
        -9.186827659606934
      ],
      [
        "▁الرحيم",
        -9.187901496887207
      ],
      [
        "▁Hhh",
        -9.188203811645508
      ],
      [
        "▁جملة",
        -9.188754081726074
      ],
      [
        "▁الآن",
        -9.189553260803223
      ],
      [
        "▁11",
        -9.189651489257812
      ],
      [
        "قة",
        -9.18969440460205
      ],
      [
        "▁كذلك",
        -9.189879417419434
      ],
      [
        "da",
        -9.190922737121582
      ],
      [
        "▁حرة",
        -9.191031455993652
      ],
      [
        "▁مما",
        -9.19324779510498
      ],
      [
        "▁صالح",
        -9.19329833984375
      ],
      [
        "▁قادة",
        -9.193337440490723
      ],
      [
        "▁🥺",
        -9.19690227508545
      ],
      [
        "▁شغل",
        -9.197603225708008
      ],
      [
        "▁هاك",
        -9.198582649230957
      ],
      [
        "▁des",
        -9.200145721435547
      ],
      [
        "M",
        -9.200726509094238
      ],
      [
        "▁الاسلام",
        -9.201409339904785
      ],
      [
        "🤍",
        -9.202040672302246
      ],
      [
        "🥺",
        -9.202096939086914
      ],
      [
        "▁wlh",
        -9.20217227935791
      ],
      [
        "لت",
        -9.202425003051758
      ],
      [
        "▁تولي",
        -9.203512191772461
      ],
      [
        "تين",
        -9.204731941223145
      ],
      [
        "▁الاسئلة",
        -9.204890251159668
      ],
      [
        "▁سحر",
        -9.205020904541016
      ],
      [
        "▁نفرح",
        -9.205589294433594
      ],
      [
        "▁عنده",
        -9.213105201721191
      ],
      [
        "▁تدخل",
        -9.21379566192627
      ],
      [
        "▁sa",
        -9.213916778564453
      ],
      [
        "▁ناجحين",
        -9.214523315429688
      ],
      [
        "▁وسهلا",
        -9.21458625793457
      ],
      [
        "😭😭",
        -9.21520709991455
      ],
      [
        "▁😊😊",
        -9.219317436218262
      ],
      [
        "▁يرحمو",
        -9.22000503540039
      ],
      [
        "همش",
        -9.22004508972168
      ],
      [
        "يم",
        -9.220311164855957
      ],
      [
        "▁الاولى",
        -9.22128963470459
      ],
      [
        "▁خرج",
        -9.221429824829102
      ],
      [
        "▁صراحة",
        -9.22189998626709
      ],
      [
        "▁سنين",
        -9.22594165802002
      ],
      [
        "▁بلادي",
        -9.226167678833008
      ],
      [
        "▁معاكم",
        -9.226357460021973
      ],
      [
        "▁لهذا",
        -9.226567268371582
      ],
      [
        "▁انتي",
        -9.22878646850586
      ],
      [
        "▁قدر",
        -9.229713439941406
      ],
      [
        "▁الطريقة",
        -9.230204582214355
      ],
      [
        "▁تخرج",
        -9.231494903564453
      ],
      [
        "▁حفظ",
        -9.23181438446045
      ],
      [
        "▁لعام",
        -9.232685089111328
      ],
      [
        "▁دقيقة",
        -9.233123779296875
      ],
      [
        "▁nta",
        -9.233570098876953
      ],
      [
        "▁حد",
        -9.233627319335938
      ],
      [
        "▁السحر",
        -9.235368728637695
      ],
      [
        "الم",
        -9.236757278442383
      ],
      [
        "▁احد",
        -9.237776756286621
      ],
      [
        "▁طيب",
        -9.237897872924805
      ],
      [
        "ar",
        -9.23862075805664
      ],
      [
        "حب",
        -9.23940372467041
      ],
      [
        "▁بس",
        -9.24028491973877
      ],
      [
        "قت",
        -9.240732192993164
      ],
      [
        "با",
        -9.241463661193848
      ],
      [
        "▁نعاود",
        -9.241935729980469
      ],
      [
        "▁المجهر",
        -9.243012428283691
      ],
      [
        "▁عالم",
        -9.244586944580078
      ],
      [
        "▁صورة",
        -9.245415687561035
      ],
      [
        "▁الانسان",
        -9.246588706970215
      ],
      [
        "▁الأمر",
        -9.24731731414795
      ],
      [
        "▁نشاء",
        -9.249563217163086
      ],
      [
        "▁😍😍",
        -9.249598503112793
      ],
      [
        "▁وجه",
        -9.249753952026367
      ],
      [
        "▁النهار",
        -9.250263214111328
      ],
      [
        "▁فما",
        -9.250641822814941
      ],
      [
        "▁بو",
        -9.250797271728516
      ],
      [
        "▁المت",
        -9.250946998596191
      ],
      [
        "▁تبارك",
        -9.25178050994873
      ],
      [
        "▁باسكو",
        -9.251981735229492
      ],
      [
        "▁الباب",
        -9.25297737121582
      ],
      [
        "am",
        -9.254855155944824
      ],
      [
        "▁الب",
        -9.25497817993164
      ],
      [
        "▁الكلام",
        -9.256377220153809
      ],
      [
        "▁que",
        -9.257509231567383
      ],
      [
        "▁علاقة",
        -9.258212089538574
      ],
      [
        "▁me",
        -9.25961971282959
      ],
      [
        "▁الحال",
        -9.259906768798828
      ],
      [
        "▁رحم",
        -9.261089324951172
      ],
      [
        "وت",
        -9.261125564575195
      ],
      [
        "▁فلسفة",
        -9.262269973754883
      ],
      [
        "💗",
        -9.264317512512207
      ],
      [
        "▁أحسن",
        -9.264408111572266
      ],
      [
        "▁أبو",
        -9.265571594238281
      ],
      [
        "▁شويا",
        -9.2671537399292
      ],
      [
        "جر",
        -9.267488479614258
      ],
      [
        "▁حديث",
        -9.267581939697266
      ],
      [
        "▁حين",
        -9.267671585083008
      ],
      [
        "وف",
        -9.268613815307617
      ],
      [
        "نة",
        -9.269335746765137
      ],
      [
        "▁W",
        -9.269693374633789
      ],
      [
        "▁بنات",
        -9.270613670349121
      ],
      [
        "▁pas",
        -9.271272659301758
      ],
      [
        "▁Bac",
        -9.271728515625
      ],
      [
        "▁روطار",
        -9.272618293762207
      ],
      [
        "نى",
        -9.273625373840332
      ],
      [
        "▁داخل",
        -9.27487564086914
      ],
      [
        "▁أمر",
        -9.275405883789062
      ],
      [
        "رو",
        -9.276097297668457
      ],
      [
        "▁وهل",
        -9.27707576751709
      ],
      [
        "▁حكم",
        -9.277445793151855
      ],
      [
        "▁انها",
        -9.278183937072754
      ],
      [
        "جد",
        -9.279149055480957
      ],
      [
        "▁أكبر",
        -9.279268264770508
      ],
      [
        "▁سهلا",
        -9.280534744262695
      ],
      [
        "▁العرب",
        -9.280843734741211
      ],
      [
        "▁الأرض",
        -9.28128433227539
      ],
      [
        "▁أنك",
        -9.282669067382812
      ],
      [
        "▁التاريخ",
        -9.283598899841309
      ],
      [
        "▁اين",
        -9.28371524810791
      ],
      [
        "▁مهم",
        -9.284001350402832
      ],
      [
        "▁واحدة",
        -9.28428840637207
      ],
      [
        "▁بهذا",
        -9.28516674041748
      ],
      [
        "▁فقال",
        -9.28600025177002
      ],
      [
        "di",
        -9.287121772766113
      ],
      [
        "يف",
        -9.287836074829102
      ],
      [
        "el",
        -9.28907585144043
      ],
      [
        "▁wa",
        -9.289137840270996
      ],
      [
        "▁واه",
        -9.289865493774414
      ],
      [
        "▁{",
        -9.28987979888916
      ],
      [
        "فا",
        -9.290018081665039
      ],
      [
        "▁redx",
        -9.290858268737793
      ],
      [
        "در",
        -9.291184425354004
      ],
      [
        "▁الثورة",
        -9.291669845581055
      ],
      [
        "▁كريم",
        -9.292579650878906
      ],
      [
        "▁فأ",
        -9.292972564697266
      ],
      [
        "▁حالة",
        -9.29299259185791
      ],
      [
        "▁يديرو",
        -9.293282508850098
      ],
      [
        "▁ليا",
        -9.294048309326172
      ],
      [
        "▁mn",
        -9.294225692749023
      ],
      [
        "▁فت",
        -9.29423713684082
      ],
      [
        "▁ركليطة",
        -9.294326782226562
      ],
      [
        "▁الموت",
        -9.294474601745605
      ],
      [
        "قال",
        -9.294952392578125
      ],
      [
        "لم",
        -9.29562759399414
      ],
      [
        "▁نخدم",
        -9.297832489013672
      ],
      [
        "▁صلاة",
        -9.298107147216797
      ],
      [
        "▁مرت",
        -9.298450469970703
      ],
      [
        "▁ga",
        -9.298856735229492
      ],
      [
        "▁مرا",
        -9.299298286437988
      ],
      [
        "▁سيد",
        -9.303674697875977
      ],
      [
        "▁هذيك",
        -9.303787231445312
      ],
      [
        "▁الكريمة",
        -9.305206298828125
      ],
      [
        "▁بدا",
        -9.305325508117676
      ],
      [
        "▁وراني",
        -9.305414199829102
      ],
      [
        "▁سنوات",
        -9.305764198303223
      ],
      [
        "▁100",
        -9.306675910949707
      ],
      [
        "صر",
        -9.307035446166992
      ],
      [
        "▁دا",
        -9.307132720947266
      ],
      [
        "🤣🤣",
        -9.307193756103516
      ],
      [
        "▁المحتوى",
        -9.307409286499023
      ],
      [
        "▁Ya",
        -9.308174133300781
      ],
      [
        "▁معنى",
        -9.310394287109375
      ],
      [
        "▁تستاهل",
        -9.311774253845215
      ],
      [
        "دا",
        -9.312091827392578
      ],
      [
        "▁وإنا",
        -9.312568664550781
      ],
      [
        "▁واو",
        -9.313496589660645
      ],
      [
        "▁vidéo",
        -9.313809394836426
      ],
      [
        "▁آل",
        -9.314472198486328
      ],
      [
        "▁ينجح",
        -9.314886093139648
      ],
      [
        "▁الباكالوريا",
        -9.316877365112305
      ],
      [
        "رد",
        -9.317766189575195
      ],
      [
        "▁قادر",
        -9.319005966186523
      ],
      [
        "▁قلبك",
        -9.31973648071289
      ],
      [
        "▁حقا",
        -9.319751739501953
      ],
      [
        "بت",
        -9.31994342803955
      ],
      [
        "te",
        -9.321247100830078
      ],
      [
        "▁هك",
        -9.32130241394043
      ],
      [
        "▁طفل",
        -9.321595191955566
      ],
      [
        "ri",
        -9.321707725524902
      ],
      [
        "▁سأ",
        -9.321967124938965
      ],
      [
        "▁الدرس",
        -9.323102951049805
      ],
      [
        "▁سوف",
        -9.324183464050293
      ],
      [
        "ــ",
        -9.324798583984375
      ],
      [
        "▁نحس",
        -9.325032234191895
      ],
      [
        "▁الطيب",
        -9.32526969909668
      ],
      [
        "▁يجعل",
        -9.325288772583008
      ],
      [
        "▁يحفظكم",
        -9.326472282409668
      ],
      [
        "▁H",
        -9.326644897460938
      ],
      [
        "▁اجل",
        -9.326715469360352
      ],
      [
        "▁المواضيع",
        -9.326766014099121
      ],
      [
        "وال",
        -9.329280853271484
      ],
      [
        "▁مكنية",
        -9.331053733825684
      ],
      [
        "▁un",
        -9.33116340637207
      ],
      [
        "▁اه",
        -9.331659317016602
      ],
      [
        "▁العشرية",
        -9.33203125
      ],
      [
        "▁راحت",
        -9.332634925842285
      ],
      [
        "▁صحة",
        -9.332662582397461
      ],
      [
        "▁ديريلنا",
        -9.33287525177002
      ],
      [
        "▁المجتمع",
        -9.334954261779785
      ],
      [
        "▁سبحانه",
        -9.336837768554688
      ],
      [
        "▁يقدر",
        -9.337474822998047
      ],
      [
        "▁شوفي",
        -9.338667869567871
      ],
      [
        "▁إله",
        -9.340591430664062
      ],
      [
        "▁صحاب",
        -9.340826988220215
      ],
      [
        "▁فعلا",
        -9.340944290161133
      ],
      [
        "▁جاي",
        -9.341048240661621
      ],
      [
        "▁خبر",
        -9.34105110168457
      ],
      [
        "▁دور",
        -9.341362953186035
      ],
      [
        "يح",
        -9.34155559539795
      ],
      [
        "▁تروح",
        -9.342427253723145
      ],
      [
        "فر",
        -9.344234466552734
      ],
      [
        "▁يخرج",
        -9.344855308532715
      ],
      [
        "▁نقولو",
        -9.345137596130371
      ],
      [
        "▁أجل",
        -9.347282409667969
      ],
      [
        "▁N",
        -9.347879409790039
      ],
      [
        "▁ين",
        -9.348114967346191
      ],
      [
        "▁مو",
        -9.349671363830566
      ],
      [
        "▁استغفر",
        -9.350015640258789
      ],
      [
        "▁بداية",
        -9.352572441101074
      ],
      [
        "▁حلمي",
        -9.35262393951416
      ],
      [
        "▁نو",
        -9.353012084960938
      ],
      [
        "▁ماهو",
        -9.353840827941895
      ],
      [
        "it",
        -9.353901863098145
      ],
      [
        "او",
        -9.354620933532715
      ],
      [
        "▁ضحك",
        -9.354636192321777
      ],
      [
        "▁مجرد",
        -9.354962348937988
      ],
      [
        "حي",
        -9.356283187866211
      ],
      [
        "▁الاخ",
        -9.356513977050781
      ],
      [
        "ڨ",
        -9.356758117675781
      ],
      [
        "▁هايلة",
        -9.358543395996094
      ],
      [
        "▁2021",
        -9.358566284179688
      ],
      [
        "▁مادة",
        -9.359393119812012
      ],
      [
        "▁ماهي",
        -9.360235214233398
      ],
      [
        "▁،،",
        -9.360575675964355
      ],
      [
        "يني",
        -9.360760688781738
      ],
      [
        "▁برنامج",
        -9.360933303833008
      ],
      [
        "▁مريض",
        -9.361605644226074
      ],
      [
        "▁أجمعين",
        -9.361778259277344
      ],
      [
        "▁for",
        -9.361815452575684
      ],
      [
        "▁معاهم",
        -9.362476348876953
      ],
      [
        "▁يجوز",
        -9.362648963928223
      ],
      [
        "▁نرقد",
        -9.362893104553223
      ],
      [
        "▁ثلاث",
        -9.363006591796875
      ],
      [
        "▁لأنه",
        -9.363205909729004
      ],
      [
        "▁المعلومات",
        -9.363258361816406
      ],
      [
        "▁🤣",
        -9.363335609436035
      ],
      [
        "▁وأنا",
        -9.363588333129883
      ],
      [
        "▁الشيطان",
        -9.364456176757812
      ],
      [
        "▁صلي",
        -9.364668846130371
      ],
      [
        "▁آ",
        -9.364971160888672
      ],
      [
        "▁ضد",
        -9.365461349487305
      ],
      [
        "▁بقا",
        -9.365772247314453
      ],
      [
        "▁جي",
        -9.36684513092041
      ],
      [
        "▁خرجت",
        -9.36782169342041
      ],
      [
        "▁طبعا",
        -9.368267059326172
      ],
      [
        "▁يوسف",
        -9.369174003601074
      ],
      [
        "▁والت",
        -9.369196891784668
      ],
      [
        "فت",
        -9.370881080627441
      ],
      [
        "▁Ana",
        -9.371097564697266
      ],
      [
        "تر",
        -9.371835708618164
      ],
      [
        "كان",
        -9.37335205078125
      ],
      [
        "▁تقرا",
        -9.374951362609863
      ],
      [
        "▁الدراسة",
        -9.37529182434082
      ],
      [
        "▁((",
        -9.376212120056152
      ],
      [
        "▁ساهل",
        -9.377180099487305
      ],
      [
        "▁الأخ",
        -9.377429962158203
      ],
      [
        "▁ادعو",
        -9.377652168273926
      ],
      [
        "▁يقولو",
        -9.377949714660645
      ],
      [
        "▁كتر",
        -9.378122329711914
      ],
      [
        "▁القسم",
        -9.380276679992676
      ],
      [
        "▁قناتك",
        -9.381048202514648
      ],
      [
        "▁مد",
        -9.381361961364746
      ],
      [
        "▁الشي",
        -9.381918907165527
      ],
      [
        "le",
        -9.382020950317383
      ],
      [
        "▁اسطورة",
        -9.38206958770752
      ],
      [
        "▁نجي",
        -9.38259220123291
      ],
      [
        "▁بت",
        -9.383703231811523
      ],
      [
        "▁سر",
        -9.384368896484375
      ],
      [
        "▁فيما",
        -9.384934425354004
      ],
      [
        "ba",
        -9.385009765625
      ],
      [
        "▁باين",
        -9.385509490966797
      ],
      [
        "▁الحمدلله",
        -9.385539054870605
      ],
      [
        "عا",
        -9.3865385055542
      ],
      [
        "▁😮",
        -9.389142036437988
      ],
      [
        "▁اجمل",
        -9.389216423034668
      ],
      [
        "▁ميلود",
        -9.38969612121582
      ],
      [
        "▁غ",
        -9.390089988708496
      ],
      [
        "▁والحمد",
        -9.390172958374023
      ],
      [
        "▁نخاف",
        -9.392379760742188
      ],
      [
        "▁best",
        -9.392927169799805
      ],
      [
        "▁احب",
        -9.39341926574707
      ],
      [
        "▁we",
        -9.39414119720459
      ],
      [
        "▁لايف",
        -9.394184112548828
      ],
      [
        "▁كال",
        -9.394546508789062
      ],
      [
        "▁الفلسفة",
        -9.394787788391113
      ],
      [
        "▁سهل",
        -9.394850730895996
      ],
      [
        "مت",
        -9.398235321044922
      ],
      [
        "وع",
        -9.398241996765137
      ],
      [
        "▁اسكو",
        -9.39825439453125
      ],
      [
        "فل",
        -9.399877548217773
      ],
      [
        "▁♥",
        -9.40004825592041
      ],
      [
        "▁kho",
        -9.400834083557129
      ],
      [
        "▁مور",
        -9.40197467803955
      ],
      [
        "▁رجال",
        -9.40267276763916
      ],
      [
        "▁الس",
        -9.40336799621582
      ],
      [
        "▁عرفت",
        -9.40340805053711
      ],
      [
        "▁الدولة",
        -9.403636932373047
      ],
      [
        "▁حط",
        -9.404132843017578
      ],
      [
        "▁معك",
        -9.404397964477539
      ],
      [
        "▁الشرح",
        -9.405576705932617
      ],
      [
        "▁أحب",
        -9.406027793884277
      ],
      [
        "▁أولا",
        -9.406257629394531
      ],
      [
        "▁قالك",
        -9.407402038574219
      ],
      [
        "شكرا",
        -9.407522201538086
      ],
      [
        "تكم",
        -9.408461570739746
      ],
      [
        "▁had",
        -9.409879684448242
      ],
      [
        "il",
        -9.411645889282227
      ],
      [
        "▁الصورة",
        -9.415037155151367
      ],
      [
        "▁الثالث",
        -9.4151611328125
      ],
      [
        "▁الحكايات",
        -9.417158126831055
      ],
      [
        "▁مشكور",
        -9.418490409851074
      ],
      [
        "▁الطريق",
        -9.41876220703125
      ],
      [
        "▁قولي",
        -9.419173240661621
      ],
      [
        "▁موقع",
        -9.419289588928223
      ],
      [
        "▁صار",
        -9.419343948364258
      ],
      [
        "▁يتم",
        -9.419828414916992
      ],
      [
        "▁الأسئلة",
        -9.420780181884766
      ],
      [
        "▁كفاه",
        -9.421198844909668
      ],
      [
        "▁وفقنا",
        -9.421469688415527
      ],
      [
        "▁هوا",
        -9.421534538269043
      ],
      [
        "▁تعيشو",
        -9.421627044677734
      ],
      [
        "🥰",
        -9.423934936523438
      ],
      [
        "▁هداك",
        -9.425830841064453
      ],
      [
        "▁فرنسا",
        -9.427911758422852
      ],
      [
        "▁المن",
        -9.42841911315918
      ],
      [
        "▁يعلم",
        -9.429305076599121
      ],
      [
        "▁اس",
        -9.430425643920898
      ],
      [
        "▁بلاد",
        -9.43120288848877
      ],
      [
        "▁تسما",
        -9.431970596313477
      ],
      [
        ").",
        -9.431989669799805
      ],
      [
        "▁ليل",
        -9.432340621948242
      ],
      [
        "▁والسلوان",
        -9.433550834655762
      ],
      [
        "▁صاحبي",
        -9.433587074279785
      ],
      [
        "▁فور",
        -9.433874130249023
      ],
      [
        "▁قضية",
        -9.434661865234375
      ],
      [
        "▁🥰",
        -9.43503475189209
      ],
      [
        "T",
        -9.435264587402344
      ],
      [
        "▁نسأل",
        -9.436492919921875
      ],
      [
        "▁ne",
        -9.436495780944824
      ],
      [
        "▁يهديك",
        -9.43649673461914
      ],
      [
        "▁درنا",
        -9.436543464660645
      ],
      [
        "▁درك",
        -9.438285827636719
      ],
      [
        "▁ياك",
        -9.438506126403809
      ],
      [
        "▁سما",
        -9.438838005065918
      ],
      [
        "en",
        -9.439485549926758
      ],
      [
        "▁اعرف",
        -9.43960189819336
      ],
      [
        "▁بني",
        -9.43989086151123
      ],
      [
        "▁مصطلحات",
        -9.44003963470459
      ],
      [
        "▁نقولك",
        -9.440530776977539
      ],
      [
        "▁الحالة",
        -9.441001892089844
      ],
      [
        "▁تقدري",
        -9.441084861755371
      ],
      [
        "▁منيش",
        -9.441686630249023
      ],
      [
        "لل",
        -9.441747665405273
      ],
      [
        "▁حفظك",
        -9.442668914794922
      ],
      [
        "▁غالط",
        -9.442705154418945
      ],
      [
        "▁مجهوداتك",
        -9.442789077758789
      ],
      [
        "▁الصباح",
        -9.443599700927734
      ],
      [
        "▁حسيت",
        -9.44424057006836
      ],
      [
        "▁قصصك",
        -9.444711685180664
      ],
      [
        "▁العزيز",
        -9.445175170898438
      ],
      [
        "▁دعاء",
        -9.445499420166016
      ],
      [
        "▁حقيقة",
        -9.44638442993164
      ],
      [
        "▁تمارين",
        -9.446709632873535
      ],
      [
        "▁عنا",
        -9.447819709777832
      ],
      [
        "▁الفيديوهات",
        -9.448338508605957
      ],
      [
        "▁تقولي",
        -9.44835090637207
      ],
      [
        "▁المرة",
        -9.450345039367676
      ],
      [
        "▁بغيت",
        -9.451836585998535
      ],
      [
        "مع",
        -9.454486846923828
      ],
      [
        "▁مس",
        -9.454623222351074
      ],
      [
        "▁أيام",
        -9.455253601074219
      ],
      [
        "▁مسكين",
        -9.457366943359375
      ],
      [
        "▁روحو",
        -9.45744800567627
      ],
      [
        "▁ونفرح",
        -9.457806587219238
      ],
      [
        "▁الفردوس",
        -9.459217071533203
      ],
      [
        "🙏",
        -9.459782600402832
      ],
      [
        "▁هذ",
        -9.460103034973145
      ],
      [
        "▁الاجابة",
        -9.460552215576172
      ],
      [
        "▁تدير",
        -9.461605072021484
      ],
      [
        "▁بعيد",
        -9.462776184082031
      ],
      [
        "قل",
        -9.463456153869629
      ],
      [
        "▁ارحم",
        -9.463736534118652
      ],
      [
        "▁عذاب",
        -9.463811874389648
      ],
      [
        "كش",
        -9.46660327911377
      ],
      [
        "▁العلوم",
        -9.46663761138916
      ],
      [
        "▁حلقة",
        -9.467005729675293
      ],
      [
        "▁فري",
        -9.468047142028809
      ],
      [
        "▁جناته",
        -9.468082427978516
      ],
      [
        "▁دين",
        -9.469682693481445
      ],
      [
        "▁الأولى",
        -9.469724655151367
      ],
      [
        "▁مهما",
        -9.469795227050781
      ],
      [
        "▁عمرك",
        -9.471426010131836
      ],
      [
        "▁شيئا",
        -9.471588134765625
      ],
      [
        "▁نكمل",
        -9.471620559692383
      ],
      [
        "▁ولاد",
        -9.471694946289062
      ],
      [
        "▁نجاح",
        -9.471817016601562
      ],
      [
        "▁تجريبية",
        -9.471833229064941
      ],
      [
        "▁اولا",
        -9.472329139709473
      ],
      [
        "▁الجواب",
        -9.47264575958252
      ],
      [
        "سر",
        -9.473134994506836
      ],
      [
        "▁معاها",
        -9.473653793334961
      ],
      [
        "▁وجل",
        -9.474720001220703
      ],
      [
        "▁رواه",
        -9.4749116897583
      ],
      [
        "▁اجعل",
        -9.4750394821167
      ],
      [
        "سنة",
        -9.478482246398926
      ],
      [
        "▁الصوت",
        -9.4794340133667
      ],
      [
        "▁النساء",
        -9.479584693908691
      ],
      [
        "▁مراجعة",
        -9.480732917785645
      ],
      [
        "▁J",
        -9.481146812438965
      ],
      [
        "فة",
        -9.481182098388672
      ],
      [
        "▁النفس",
        -9.481773376464844
      ],
      [
        "▁لغة",
        -9.482367515563965
      ],
      [
        "▁تزيد",
        -9.48284912109375
      ],
      [
        "▁اسمها",
        -9.483357429504395
      ],
      [
        "شي",
        -9.483850479125977
      ],
      [
        "▁يكن",
        -9.484214782714844
      ],
      [
        "10",
        -9.48509693145752
      ],
      [
        "▁عبر",
        -9.486441612243652
      ],
      [
        "▁السياسي",
        -9.486759185791016
      ],
      [
        "▁السيد",
        -9.486794471740723
      ],
      [
        "🤣",
        -9.4874906539917
      ],
      [
        "▁na",
        -9.489355087280273
      ],
      [
        "▁صرات",
        -9.490321159362793
      ],
      [
        "▁الامر",
        -9.490857124328613
      ],
      [
        "😮",
        -9.49191665649414
      ],
      [
        "▁😂❤",
        -9.492840766906738
      ],
      [
        "▁of",
        -9.492959976196289
      ],
      [
        "دو",
        -9.493550300598145
      ],
      [
        "▁دوك",
        -9.494842529296875
      ],
      [
        "دير",
        -9.495155334472656
      ],
      [
        "▁الرجال",
        -9.495198249816895
      ],
      [
        "▁اسمي",
        -9.496223449707031
      ],
      [
        "▁منكم",
        -9.496764183044434
      ],
      [
        "▁صانع",
        -9.497687339782715
      ],
      [
        "▁لذلك",
        -9.498547554016113
      ],
      [
        "▁تفهم",
        -9.498921394348145
      ],
      [
        "▁بالا",
        -9.498967170715332
      ],
      [
        "▁الماء",
        -9.499948501586914
      ],
      [
        "▁والديا",
        -9.500423431396484
      ],
      [
        "▁بيت",
        -9.50091552734375
      ],
      [
        "▁احبك",
        -9.501737594604492
      ],
      [
        "▁عاد",
        -9.50185775756836
      ],
      [
        "👍",
        -9.502601623535156
      ],
      [
        "▁الساعة",
        -9.503984451293945
      ],
      [
        "▁ات",
        -9.504552841186523
      ],
      [
        "▁يحط",
        -9.505505561828613
      ],
      [
        "▁البقرة",
        -9.506819725036621
      ],
      [
        "ی",
        -9.507011413574219
      ],
      [
        "▁العلي",
        -9.507418632507324
      ],
      [
        "▁الق",
        -9.50798511505127
      ],
      [
        "😊😊",
        -9.508310317993164
      ],
      [
        "▁يروح",
        -9.508319854736328
      ],
      [
        "▁جال",
        -9.509967803955078
      ],
      [
        "▁k",
        -9.510052680969238
      ],
      [
        "▁عيد",
        -9.510465621948242
      ],
      [
        "S",
        -9.510766983032227
      ],
      [
        "▁شيئ",
        -9.510927200317383
      ],
      [
        "▁قالو",
        -9.511134147644043
      ],
      [
        "▁الحرب",
        -9.511358261108398
      ],
      [
        "▁فيلم",
        -9.511524200439453
      ],
      [
        "▁نحوس",
        -9.511860847473145
      ],
      [
        "ir",
        -9.511981964111328
      ],
      [
        "▁مستحيل",
        -9.512712478637695
      ],
      [
        "▁الص",
        -9.513480186462402
      ],
      [
        "▁جزاكم",
        -9.51356315612793
      ],
      [
        "يرة",
        -9.515314102172852
      ],
      [
        "▁حسبي",
        -9.515458106994629
      ],
      [
        "▁وبعد",
        -9.518375396728516
      ],
      [
        "▁🙏",
        -9.518386840820312
      ],
      [
        "▁يفتح",
        -9.518516540527344
      ],
      [
        "▁أين",
        -9.518668174743652
      ],
      [
        "▁كملي",
        -9.51876163482666
      ],
      [
        "▁يجعلها",
        -9.518939971923828
      ],
      [
        "▁نن",
        -9.519140243530273
      ],
      [
        "▁القران",
        -9.519387245178223
      ],
      [
        "▁سعيد",
        -9.519452095031738
      ],
      [
        "▁تان",
        -9.519474983215332
      ],
      [
        "▁ياا",
        -9.51986026763916
      ],
      [
        "▁تفرجت",
        -9.519939422607422
      ],
      [
        "▁وضع",
        -9.520020484924316
      ],
      [
        "▁~",
        -9.520780563354492
      ],
      [
        "▁à",
        -9.521048545837402
      ],
      [
        "▁مدة",
        -9.521805763244629
      ],
      [
        "▁الكل",
        -9.521838188171387
      ],
      [
        "▁❤🎉",
        -9.52190113067627
      ],
      [
        "▁be",
        -9.522234916687012
      ],
      [
        "▁2022",
        -9.523006439208984
      ],
      [
        "▁mais",
        -9.52304458618164
      ],
      [
        "▁دنيا",
        -9.52316665649414
      ],
      [
        "▁معلومات",
        -9.523221969604492
      ],
      [
        "▁الاخت",
        -9.524200439453125
      ],
      [
        "▁رجعت",
        -9.524234771728516
      ],
      [
        "نت",
        -9.524337768554688
      ],
      [
        "غير",
        -9.524709701538086
      ],
      [
        "▁مرات",
        -9.524846076965332
      ],
      [
        "▁وصلت",
        -9.525508880615234
      ],
      [
        "▁نشوفو",
        -9.526260375976562
      ],
      [
        "kom",
        -9.526894569396973
      ],
      [
        "▁هما",
        -9.52757453918457
      ],
      [
        "▁الر",
        -9.52780532836914
      ],
      [
        "▁فهي",
        -9.528246879577637
      ],
      [
        "▁مثال",
        -9.5286865234375
      ],
      [
        "▁مسلسل",
        -9.529107093811035
      ],
      [
        "▁بالنجاح",
        -9.529448509216309
      ],
      [
        "▁الطيبة",
        -9.529821395874023
      ],
      [
        "▁courage",
        -9.530678749084473
      ],
      [
        "حت",
        -9.531131744384766
      ],
      [
        "▁يدعيلي",
        -9.53116512298584
      ],
      [
        "▁الطب",
        -9.532865524291992
      ],
      [
        "▁h",
        -9.533434867858887
      ],
      [
        "▁عضو",
        -9.533814430236816
      ],
      [
        "▁معي",
        -9.533934593200684
      ],
      [
        "▁so",
        -9.534565925598145
      ],
      [
        "▁يوما",
        -9.534592628479004
      ],
      [
        "▁تحط",
        -9.53902530670166
      ],
      [
        "▁merci",
        -9.539073944091797
      ],
      [
        "▁يست",
        -9.540478706359863
      ],
      [
        "▁الجميل",
        -9.540846824645996
      ],
      [
        "▁نتبع",
        -9.541521072387695
      ],
      [
        "سا",
        -9.541973114013672
      ],
      [
        "▁💗",
        -9.543272018432617
      ],
      [
        "▁نحفظ",
        -9.54356575012207
      ],
      [
        "😅😅",
        -9.544243812561035
      ],
      [
        "زيد",
        -9.544288635253906
      ],
      [
        "▁u",
        -9.544721603393555
      ],
      [
        "▁قدام",
        -9.545287132263184
      ],
      [
        "▁يحكي",
        -9.545541763305664
      ],
      [
        "▁رابط",
        -9.546062469482422
      ],
      [
        "▁الزواج",
        -9.546162605285645
      ],
      [
        "▁توصل",
        -9.548656463623047
      ],
      [
        "▁كملت",
        -9.549040794372559
      ],
      [
        "▁الش",
        -9.54967212677002
      ],
      [
        "▁الرياضيات",
        -9.550026893615723
      ],
      [
        "▁علابالي",
        -9.550857543945312
      ],
      [
        "▁نتاعك",
        -9.550896644592285
      ],
      [
        "▁حا",
        -9.551680564880371
      ],
      [
        "كر",
        -9.552031517028809
      ],
      [
        "🥹",
        -9.552513122558594
      ],
      [
        "et",
        -9.55260944366455
      ],
      [
        "▁2020",
        -9.552896499633789
      ],
      [
        "▁وفقك",
        -9.553014755249023
      ],
      [
        "▁صور",
        -9.553254127502441
      ],
      [
        "▁حيقون",
        -9.55341911315918
      ],
      [
        "يتي",
        -9.553741455078125
      ],
      [
        "▁بأ",
        -9.557181358337402
      ],
      [
        "▁طويل",
        -9.558091163635254
      ],
      [
        "▁رايح",
        -9.558802604675293
      ],
      [
        "جل",
        -9.559600830078125
      ],
      [
        "▁وحدك",
        -9.560035705566406
      ],
      [
        "▁فلم",
        -9.560267448425293
      ],
      [
        "جة",
        -9.561134338378906
      ],
      [
        "▁الحر",
        -9.561150550842285
      ],
      [
        "▁الصالحة",
        -9.56197738647461
      ],
      [
        "▁قولو",
        -9.562152862548828
      ],
      [
        "▁ملك",
        -9.562442779541016
      ],
      [
        "▁وحده",
        -9.563042640686035
      ],
      [
        "▁رياضيات",
        -9.563186645507812
      ],
      [
        "▁دارو",
        -9.563423156738281
      ],
      [
        "▁قع",
        -9.56383228302002
      ],
      [
        "▁المواد",
        -9.564443588256836
      ],
      [
        "بال",
        -9.564826965332031
      ],
      [
        "0",
        -9.566288948059082
      ],
      [
        "▁بوركت",
        -9.56639289855957
      ],
      [
        "▁قليل",
        -9.566760063171387
      ],
      [
        "اط",
        -9.56749153137207
      ],
      [
        "▁الحاجة",
        -9.567534446716309
      ],
      [
        "إن",
        -9.567593574523926
      ],
      [
        "▁رياض",
        -9.567780494689941
      ],
      [
        "▁وهران",
        -9.567837715148926
      ],
      [
        "▁♥️",
        -9.567940711975098
      ],
      [
        "▁طالب",
        -9.568230628967285
      ],
      [
        "▁نستنا",
        -9.568597793579102
      ],
      [
        "▁رايحة",
        -9.56930160522461
      ],
      [
        "بارك",
        -9.569527626037598
      ],
      [
        "▁الواقع",
        -9.56969928741455
      ],
      [
        "▁العلمية",
        -9.570084571838379
      ],
      [
        "▁ط",
        -9.570155143737793
      ],
      [
        "▁قاعد",
        -9.570477485656738
      ],
      [
        "قر",
        -9.571921348571777
      ],
      [
        "▁بسك",
        -9.572193145751953
      ],
      [
        "🎉🎉",
        -9.572306632995605
      ],
      [
        "مر",
        -9.57237720489502
      ],
      [
        "نو",
        -9.572813987731934
      ],
      [
        "▁لانه",
        -9.572979927062988
      ],
      [
        "▁؛",
        -9.573385238647461
      ],
      [
        "▁خايفة",
        -9.57352352142334
      ],
      [
        "▁غدوا",
        -9.573832511901855
      ],
      [
        "▁قتل",
        -9.573912620544434
      ],
      [
        "▁👍",
        -9.574213027954102
      ],
      [
        "▁الجديد",
        -9.574912071228027
      ],
      [
        "▁ذا",
        -9.574978828430176
      ],
      [
        "ah",
        -9.575371742248535
      ],
      [
        "ضر",
        -9.576960563659668
      ],
      [
        "راني",
        -9.577256202697754
      ],
      [
        "▁يوتيوبر",
        -9.578827857971191
      ],
      [
        "▁it",
        -9.580144882202148
      ],
      [
        "▁فتح",
        -9.581310272216797
      ],
      [
        "▁عجبني",
        -9.58159065246582
      ],
      [
        "▁بفضل",
        -9.582204818725586
      ],
      [
        "▁صرا",
        -9.58260440826416
      ],
      [
        "اق",
        -9.58337688446045
      ],
      [
        "▁est",
        -9.583385467529297
      ],
      [
        "▁الحب",
        -9.583751678466797
      ],
      [
        "▁الطفل",
        -9.583980560302734
      ],
      [
        "جيب",
        -9.584087371826172
      ],
      [
        "▁r",
        -9.584101676940918
      ],
      [
        "lo",
        -9.584458351135254
      ],
      [
        "▁توك",
        -9.585522651672363
      ],
      [
        "▁مشروع",
        -9.58608341217041
      ],
      [
        "▁دايما",
        -9.586906433105469
      ],
      [
        "▁بالك",
        -9.587930679321289
      ],
      [
        "D",
        -9.588191986083984
      ],
      [
        "▁F",
        -9.588508605957031
      ],
      [
        "▁تفسير",
        -9.5886869430542
      ],
      [
        "▁يخي",
        -9.588729858398438
      ],
      [
        "to",
        -9.589194297790527
      ],
      [
        "▁وفقني",
        -9.589256286621094
      ],
      [
        "▁شكل",
        -9.589378356933594
      ],
      [
        "▁وله",
        -9.589641571044922
      ],
      [
        "▁باغي",
        -9.589642524719238
      ],
      [
        "▁الل",
        -9.589841842651367
      ],
      [
        "▁جمال",
        -9.590432167053223
      ],
      [
        "▁نهاية",
        -9.591083526611328
      ],
      [
        "▁قيمة",
        -9.591307640075684
      ],
      [
        "▁كيفك",
        -9.591358184814453
      ],
      [
        "▁ابدا",
        -9.592294692993164
      ],
      [
        "▁تس",
        -9.592402458190918
      ],
      [
        "صح",
        -9.592767715454102
      ],
      [
        "▁منتدى",
        -9.592779159545898
      ],
      [
        "🔥",
        -9.592887878417969
      ],
      [
        "▁جيب",
        -9.5929536819458
      ],
      [
        "كون",
        -9.593555450439453
      ],
      [
        "▁يقرا",
        -9.593870162963867
      ],
      [
        "▁اب",
        -9.594494819641113
      ],
      [
        "or",
        -9.595580101013184
      ],
      [
        "▁يس",
        -9.595706939697266
      ],
      [
        "▁إنشاء",
        -9.595741271972656
      ],
      [
        "▁فلي",
        -9.597246170043945
      ],
      [
        "هما",
        -9.59744644165039
      ],
      [
        "▁كانوا",
        -9.597603797912598
      ],
      [
        "▁طرف",
        -9.598458290100098
      ],
      [
        "▁K",
        -9.598489761352539
      ],
      [
        "▁vous",
        -9.598776817321777
      ],
      [
        "▁D",
        -9.598804473876953
      ],
      [
        "▁ريداكس",
        -9.598929405212402
      ],
      [
        "▁تكمل",
        -9.59907341003418
      ],
      [
        "▁فليل",
        -9.59943962097168
      ],
      [
        "▁يبقى",
        -9.600533485412598
      ],
      [
        "زي",
        -9.600950241088867
      ],
      [
        "▁بان",
        -9.60221004486084
      ],
      [
        "▁ساعات",
        -9.602486610412598
      ],
      [
        "▁برا",
        -9.603462219238281
      ],
      [
        "▁حبس",
        -9.60384464263916
      ],
      [
        "▁عظم",
        -9.604068756103516
      ],
      [
        "▁زاد",
        -9.604352951049805
      ],
      [
        "نيش",
        -9.60534381866455
      ],
      [
        "▁خالتي",
        -9.606134414672852
      ],
      [
        "▁إني",
        -9.60619068145752
      ],
      [
        "▁الوحيد",
        -9.606762886047363
      ],
      [
        "▁1-",
        -9.606781959533691
      ],
      [
        "▁ز",
        -9.608717918395996
      ],
      [
        "اف",
        -9.609026908874512
      ],
      [
        "▁العلميين",
        -9.609089851379395
      ],
      [
        "حل",
        -9.609267234802246
      ],
      [
        "▁حدث",
        -9.609515190124512
      ],
      [
        "▁تنجح",
        -9.60984992980957
      ],
      [
        "▁مانيش",
        -9.610374450683594
      ],
      [
        "▁**",
        -9.612804412841797
      ],
      [
        "تلي",
        -9.613637924194336
      ],
      [
        "والله",
        -9.61391544342041
      ],
      [
        "▁ظل",
        -9.614415168762207
      ],
      [
        "▁يشفيك",
        -9.614474296569824
      ],
      [
        "▁جنانه",
        -9.615544319152832
      ],
      [
        "▁أنها",
        -9.61556625366211
      ],
      [
        "يوم",
        -9.615693092346191
      ],
      [
        "▁بالضحك",
        -9.615818977355957
      ],
      [
        "▁مرض",
        -9.61644172668457
      ],
      [
        "▁فرحت",
        -9.617171287536621
      ],
      [
        "▁الاخير",
        -9.617287635803223
      ],
      [
        "جا",
        -9.617912292480469
      ],
      [
        "▁بشكل",
        -9.61918830871582
      ],
      [
        "▁الو",
        -9.619455337524414
      ],
      [
        "▁نقطة",
        -9.619522094726562
      ],
      [
        "على",
        -9.619813919067383
      ],
      [
        "▁وصحبه",
        -9.6207914352417
      ],
      [
        "▁كثيرة",
        -9.620796203613281
      ],
      [
        "يز",
        -9.62148666381836
      ],
      [
        "▁فمن",
        -9.621509552001953
      ],
      [
        "▁يزيد",
        -9.621721267700195
      ],
      [
        "طر",
        -9.621728897094727
      ],
      [
        "▁البناء",
        -9.62271499633789
      ],
      [
        "▁الكلمات",
        -9.62321662902832
      ],
      [
        "▁كاس",
        -9.62344741821289
      ],
      [
        "ro",
        -9.623854637145996
      ],
      [
        "؟!",
        -9.624157905578613
      ],
      [
        "▁بطريقة",
        -9.624356269836426
      ],
      [
        "▁une",
        -9.62445068359375
      ],
      [
        "▁طولت",
        -9.625866889953613
      ],
      [
        "▁G",
        -9.626459121704102
      ],
      [
        "▁مشترك",
        -9.62654972076416
      ],
      [
        "▁يد",
        -9.626666069030762
      ],
      [
        "▁الشر",
        -9.62717056274414
      ],
      [
        "▁الجمعة",
        -9.627310752868652
      ],
      [
        "▁حقيقية",
        -9.62733268737793
      ],
      [
        "ذا",
        -9.627779006958008
      ],
      [
        "▁بدل",
        -9.627978324890137
      ],
      [
        "خير",
        -9.628195762634277
      ],
      [
        "كتب",
        -9.628368377685547
      ],
      [
        "▁وحنا",
        -9.628519058227539
      ],
      [
        "راس",
        -9.628732681274414
      ],
      [
        "▁وأنت",
        -9.629111289978027
      ],
      [
        "▁🌹",
        -9.629778861999512
      ],
      [
        "ولو",
        -9.629804611206055
      ],
      [
        "▁ومع",
        -9.630183219909668
      ],
      [
        "wa",
        -9.630967140197754
      ],
      [
        "▁حبيبي",
        -9.63123893737793
      ],
      [
        "▁وإ",
        -9.631458282470703
      ],
      [
        "ay",
        -9.63192081451416
      ],
      [
        "▁sepia",
        -9.632220268249512
      ],
      [
        "▁وجدت",
        -9.632367134094238
      ],
      [
        "▁أسأل",
        -9.632564544677734
      ],
      [
        "▁ليفيديو",
        -9.633000373840332
      ],
      [
        "▁يرحمهم",
        -9.633023262023926
      ],
      [
        "▁وصل",
        -9.633245468139648
      ],
      [
        "ارة",
        -9.633325576782227
      ],
      [
        "فو",
        -9.633957862854004
      ],
      [
        "▁التعليم",
        -9.63582706451416
      ],
      [
        "▁خطرة",
        -9.635951042175293
      ],
      [
        "▁رايك",
        -9.636221885681152
      ],
      [
        "▁ملاح",
        -9.636366844177246
      ],
      [
        "▁رجع",
        -9.637105941772461
      ],
      [
        "▁,,",
        -9.638076782226562
      ],
      [
        "▁دزاير",
        -9.638340950012207
      ],
      [
        "▁تا",
        -9.63959789276123
      ],
      [
        "▁o",
        -9.63988971710205
      ],
      [
        "▁إليك",
        -9.640933990478516
      ],
      [
        "▁30",
        -9.641396522521973
      ],
      [
        "▁تاوعك",
        -9.642156600952148
      ],
      [
        "اع",
        -9.642281532287598
      ],
      [
        "▁طب",
        -9.64236068725586
      ],
      [
        "▁0",
        -9.642481803894043
      ],
      [
        "▁نزيد",
        -9.643548011779785
      ],
      [
        "▁العلماء",
        -9.643936157226562
      ],
      [
        "▁راس",
        -9.644052505493164
      ],
      [
        "يع",
        -9.644065856933594
      ],
      [
        "▁تبان",
        -9.644253730773926
      ],
      [
        "»",
        -9.644957542419434
      ],
      [
        "▁خط",
        -9.64530086517334
      ],
      [
        "▁man",
        -9.64620304107666
      ],
      [
        "▁يرحمه",
        -9.646474838256836
      ],
      [
        "▁السبب",
        -9.64717960357666
      ],
      [
        "▁ويجعل",
        -9.647276878356934
      ],
      [
        "بعد",
        -9.647928237915039
      ],
      [
        "▁يفرج",
        -9.648025512695312
      ],
      [
        "▁rak",
        -9.64803695678711
      ],
      [
        "▁بعدها",
        -9.648126602172852
      ],
      [
        "▁العيد",
        -9.649218559265137
      ],
      [
        "ab",
        -9.649836540222168
      ],
      [
        "▁كلها",
        -9.650367736816406
      ],
      [
        "يق",
        -9.650938034057617
      ],
      [
        "▁القيامة",
        -9.651442527770996
      ],
      [
        "▁أحمد",
        -9.652098655700684
      ],
      [
        "عت",
        -9.652202606201172
      ],
      [
        "▁تجد",
        -9.65226936340332
      ],
      [
        "▁تخدم",
        -9.653036117553711
      ],
      [
        "▁يسهل",
        -9.653682708740234
      ],
      [
        "▁امر",
        -9.653738021850586
      ],
      [
        "▁مبعد",
        -9.654157638549805
      ],
      [
        "▁فان",
        -9.65558910369873
      ],
      [
        "▁dir",
        -9.656137466430664
      ],
      [
        "▁2-",
        -9.65639877319336
      ],
      [
        "▁متى",
        -9.65749454498291
      ],
      [
        "▁اكيد",
        -9.657645225524902
      ],
      [
        "▁الفصل",
        -9.658069610595703
      ],
      [
        "▁خلي",
        -9.65892219543457
      ],
      [
        "))",
        -9.66032600402832
      ],
      [
        "▁مدرسة",
        -9.660368919372559
      ],
      [
        "▁المال",
        -9.661643981933594
      ],
      [
        "▁طويلة",
        -9.66247272491455
      ],
      [
        "▁اميين",
        -9.662562370300293
      ],
      [
        "▁🥲",
        -9.662652969360352
      ],
      [
        "▁مالا",
        -9.663326263427734
      ],
      [
        "▁زمان",
        -9.663725852966309
      ],
      [
        "▁الشخص",
        -9.664172172546387
      ],
      [
        "▁صحيحة",
        -9.66446304321289
      ],
      [
        "▁رأيك",
        -9.66575813293457
      ],
      [
        "▁ابو",
        -9.666315078735352
      ],
      [
        "مثل",
        -9.667082786560059
      ],
      [
        "▁العادة",
        -9.667128562927246
      ],
      [
        "▁علمية",
        -9.667205810546875
      ],
      [
        "}",
        -9.667521476745605
      ],
      [
        "▁اخت",
        -9.667685508728027
      ],
      [
        "hom",
        -9.668368339538574
      ],
      [
        "▁مم",
        -9.668478965759277
      ],
      [
        "علم",
        -9.669478416442871
      ],
      [
        "▁سمانة",
        -9.66973876953125
      ],
      [
        "▁كلمات",
        -9.669830322265625
      ],
      [
        "بات",
        -9.670008659362793
      ],
      [
        "▁الرحمان",
        -9.671161651611328
      ],
      [
        "▁عدل",
        -9.671279907226562
      ],
      [
        "▁دارت",
        -9.671426773071289
      ],
      [
        "▁حياة",
        -9.67155647277832
      ],
      [
        "▁نحل",
        -9.67233943939209
      ],
      [
        "▁أجمل",
        -9.673093795776367
      ],
      [
        "▁P",
        -9.67314624786377
      ],
      [
        "▁الفكرة",
        -9.673807144165039
      ],
      [
        "▁تصريحية",
        -9.674270629882812
      ],
      [
        "▁كلشي",
        -9.67529582977295
      ],
      [
        "▁فاهم",
        -9.675630569458008
      ],
      [
        "▁bon",
        -9.676393508911133
      ],
      [
        "▁توحشنا",
        -9.676552772521973
      ],
      [
        "▁تقدم",
        -9.677088737487793
      ],
      [
        "▁وبين",
        -9.677266120910645
      ],
      [
        "▁نسكن",
        -9.67767333984375
      ],
      [
        "lah",
        -9.677891731262207
      ],
      [
        "▁تكوني",
        -9.678218841552734
      ],
      [
        "▁U",
        -9.678618431091309
      ],
      [
        "▁الوالدين",
        -9.67863655090332
      ],
      [
        "▁نفسها",
        -9.678848266601562
      ],
      [
        "▁نكتب",
        -9.680191993713379
      ],
      [
        "▁ذات",
        -9.680498123168945
      ],
      [
        "بن",
        -9.680545806884766
      ],
      [
        "▁الفرنسية",
        -9.68089485168457
      ],
      [
        "🤲🏻",
        -9.681632995605469
      ],
      [
        "▁الح",
        -9.682673454284668
      ],
      [
        "▁شخصية",
        -9.68290901184082
      ],
      [
        "▁ترى",
        -9.682999610900879
      ],
      [
        "▁كيفي",
        -9.68337345123291
      ],
      [
        "▁ونتا",
        -9.683539390563965
      ],
      [
        "▁فيديوهاتك",
        -9.684123039245605
      ],
      [
        "▁نشري",
        -9.68429183959961
      ],
      [
        "▁جعل",
        -9.684561729431152
      ],
      [
        "▁تعب",
        -9.684697151184082
      ],
      [
        "▁??",
        -9.685327529907227
      ],
      [
        "▁الأستاذ",
        -9.686226844787598
      ],
      [
        "▁راقي",
        -9.686456680297852
      ],
      [
        "بين",
        -9.686506271362305
      ],
      [
        "▁Ma",
        -9.68670654296875
      ],
      [
        "▁المشبه",
        -9.686901092529297
      ],
      [
        "▁القادر",
        -9.687071800231934
      ],
      [
        "▁تخصص",
        -9.68709659576416
      ],
      [
        "▁شفتو",
        -9.68724536895752
      ],
      [
        "▁غادي",
        -9.687288284301758
      ],
      [
        "▁سبيل",
        -9.687948226928711
      ],
      [
        "▁عشر",
        -9.687957763671875
      ],
      [
        "▁ادب",
        -9.688009262084961
      ],
      [
        "▁رجعوني",
        -9.688321113586426
      ],
      [
        "▁كاينة",
        -9.688410758972168
      ],
      [
        "▁نبينا",
        -9.688470840454102
      ],
      [
        "▁شرحك",
        -9.68867015838623
      ],
      [
        "اتي",
        -9.689947128295898
      ],
      [
        "اي",
        -9.691429138183594
      ],
      [
        "▁يريد",
        -9.691487312316895
      ],
      [
        "▁يغفر",
        -9.691688537597656
      ],
      [
        "▁طيح",
        -9.691761016845703
      ],
      [
        "▁نربح",
        -9.69214916229248
      ],
      [
        "وية",
        -9.69223690032959
      ],
      [
        "ورة",
        -9.693075180053711
      ],
      [
        "▁آله",
        -9.693439483642578
      ],
      [
        "▁راها",
        -9.69381332397461
      ],
      [
        "▁الج",
        -9.694037437438965
      ],
      [
        "▁سامية",
        -9.694473266601562
      ],
      [
        "▁نحي",
        -9.694912910461426
      ],
      [
        "▁ق",
        -9.695138931274414
      ],
      [
        "عود",
        -9.695398330688477
      ],
      [
        "▁دليل",
        -9.696501731872559
      ],
      [
        "▁🎉❤",
        -9.6969575881958
      ],
      [
        "▁❤😊",
        -9.696969985961914
      ],
      [
        "▁إنسان",
        -9.697076797485352
      ],
      [
        "▁الاسم",
        -9.697261810302734
      ],
      [
        "ai",
        -9.697357177734375
      ],
      [
        "▁تكتب",
        -9.697419166564941
      ],
      [
        "به",
        -9.698873519897461
      ],
      [
        "▁البر",
        -9.700319290161133
      ],
      [
        "▁خارج",
        -9.700571060180664
      ],
      [
        "▁يما",
        -9.700777053833008
      ],
      [
        "▁اقسم",
        -9.702061653137207
      ],
      [
        "▁الام",
        -9.70227336883545
      ],
      [
        "▁kima",
        -9.702824592590332
      ],
      [
        "قول",
        -9.703560829162598
      ],
      [
        "▁يحفظ",
        -9.703802108764648
      ],
      [
        "▁تبقى",
        -9.703895568847656
      ],
      [
        "▁أريد",
        -9.70423698425293
      ],
      [
        "▁حمد",
        -9.70436954498291
      ],
      [
        "▁المعدل",
        -9.705671310424805
      ],
      [
        "▁جيد",
        -9.706596374511719
      ],
      [
        "▁تعمل",
        -9.706912994384766
      ],
      [
        "▁استعارة",
        -9.7074556350708
      ],
      [
        "▁مجال",
        -9.707480430603027
      ],
      [
        "▁الرعد",
        -9.708276748657227
      ],
      [
        "ائي",
        -9.708553314208984
      ],
      [
        "طة",
        -9.708805084228516
      ],
      [
        "▁ch",
        -9.708849906921387
      ],
      [
        "مل",
        -9.709266662597656
      ],
      [
        "▁كلامك",
        -9.709490776062012
      ],
      [
        "راء",
        -9.710240364074707
      ],
      [
        "▁البرنامج",
        -9.71033000946045
      ],
      [
        "▁الارض",
        -9.711066246032715
      ],
      [
        "ol",
        -9.71115779876709
      ],
      [
        "▁هاديك",
        -9.711528778076172
      ],
      [
        "▁ترك",
        -9.711740493774414
      ],
      [
        "▁النوع",
        -9.712433815002441
      ],
      [
        "▁صراتلي",
        -9.71389102935791
      ],
      [
        "▁الكلمة",
        -9.714238166809082
      ],
      [
        "▁الخاص",
        -9.714709281921387
      ],
      [
        "▁تح",
        -9.7149076461792
      ],
      [
        "▁دعم",
        -9.71535873413086
      ],
      [
        "▁Rabi",
        -9.716021537780762
      ],
      [
        "▁الفرق",
        -9.716341972351074
      ],
      [
        "مو",
        -9.71634578704834
      ],
      [
        "▁باي",
        -9.71743106842041
      ],
      [
        "▁نقل",
        -9.718011856079102
      ],
      [
        "▁مستوى",
        -9.718135833740234
      ],
      [
        "▁بر",
        -9.718567848205566
      ],
      [
        "▁ghir",
        -9.718663215637207
      ],
      [
        "▁ثانية",
        -9.719326972961426
      ],
      [
        "▁غالب",
        -9.720576286315918
      ],
      [
        "▁يفهم",
        -9.721677780151367
      ],
      [
        "▁المزيد",
        -9.722525596618652
      ],
      [
        "ثر",
        -9.723029136657715
      ],
      [
        "▁متابعة",
        -9.723638534545898
      ],
      [
        "▁راسي",
        -9.723868370056152
      ],
      [
        "▁اصبح",
        -9.724294662475586
      ],
      [
        "خر",
        -9.725613594055176
      ],
      [
        "▁يكتب",
        -9.726893424987793
      ],
      [
        "▁صوتك",
        -9.727291107177734
      ],
      [
        "▁🥹",
        -9.727909088134766
      ],
      [
        "ki",
        -9.728118896484375
      ],
      [
        "▁يخدم",
        -9.72877025604248
      ],
      [
        "ذكر",
        -9.729589462280273
      ],
      [
        "▁مادام",
        -9.73002815246582
      ],
      [
        "▁اروع",
        -9.730701446533203
      ],
      [
        "▁جو",
        -9.731078147888184
      ],
      [
        "▁طالبة",
        -9.731386184692383
      ],
      [
        "▁العفو",
        -9.731790542602539
      ],
      [
        "▁نقدرو",
        -9.731947898864746
      ],
      [
        "دار",
        -9.732047080993652
      ],
      [
        "از",
        -9.733500480651855
      ],
      [
        "▁La",
        -9.73381519317627
      ],
      [
        "▁يومين",
        -9.734050750732422
      ],
      [
        "▁جواب",
        -9.734447479248047
      ],
      [
        "▁ولات",
        -9.73620891571045
      ],
      [
        "قو",
        -9.736332893371582
      ],
      [
        "ک",
        -9.737605094909668
      ],
      [
        "▁يشوفو",
        -9.737687110900879
      ],
      [
        "▁أرجو",
        -9.737763404846191
      ],
      [
        "▁جدي",
        -9.738994598388672
      ],
      [
        "bi",
        -9.73929214477539
      ],
      [
        "▁ح",
        -9.739595413208008
      ],
      [
        "▁الوحدة",
        -9.739607810974121
      ],
      [
        "▁الملك",
        -9.739713668823242
      ],
      [
        "▁\r",
        -9.739811897277832
      ],
      [
        "▁كاملة",
        -9.739937782287598
      ],
      [
        "▁حكاياتك",
        -9.740285873413086
      ],
      [
        "▁re",
        -9.741325378417969
      ],
      [
        "▁صوالح",
        -9.741609573364258
      ],
      [
        "▁تقريبا",
        -9.741780281066895
      ],
      [
        "▁بات",
        -9.742002487182617
      ],
      [
        "▁عربي",
        -9.742478370666504
      ],
      [
        "15",
        -9.742581367492676
      ],
      [
        "صار",
        -9.742589950561523
      ],
      [
        "ذر",
        -9.742810249328613
      ],
      [
        "مام",
        -9.742830276489258
      ],
      [
        "A",
        -9.743185043334961
      ],
      [
        "▁خخ",
        -9.74374771118164
      ],
      [
        "▁شرف",
        -9.743755340576172
      ],
      [
        "▁للأسف",
        -9.7446928024292
      ],
      [
        "▁بالاك",
        -9.744890213012695
      ],
      [
        "▁😁",
        -9.745464324951172
      ],
      [
        "▁لدار",
        -9.746304512023926
      ],
      [
        "▁موجود",
        -9.74634838104248
      ],
      [
        "▁فن",
        -9.746525764465332
      ],
      [
        "▁بالمعدل",
        -9.74730110168457
      ],
      [
        "▁Merci",
        -9.748128890991211
      ],
      [
        "▁واذا",
        -9.748223304748535
      ],
      [
        "▁القيم",
        -9.748588562011719
      ],
      [
        "▁يوتيوب",
        -9.749536514282227
      ],
      [
        "16",
        -9.749637603759766
      ],
      [
        "قي",
        -9.749774932861328
      ],
      [
        "▁وخلاص",
        -9.750112533569336
      ],
      [
        "حا",
        -9.75040054321289
      ],
      [
        "▁ولك",
        -9.750800132751465
      ],
      [
        "▁مست",
        -9.750986099243164
      ],
      [
        "▁نشر",
        -9.75129222869873
      ],
      [
        "▁حسبنا",
        -9.751876831054688
      ],
      [
        "▁الجملة",
        -9.752076148986816
      ],
      [
        "▁دك",
        -9.752086639404297
      ],
      [
        "وق",
        -9.753186225891113
      ],
      [
        "▁الخاصة",
        -9.75346565246582
      ],
      [
        "L",
        -9.75361442565918
      ],
      [
        "الف",
        -9.754112243652344
      ],
      [
        "U",
        -9.754170417785645
      ],
      [
        "▁نورمالمو",
        -9.754422187805176
      ],
      [
        "▁تو",
        -9.754525184631348
      ],
      [
        "▁العائلة",
        -9.754841804504395
      ],
      [
        "mi",
        -9.754926681518555
      ],
      [
        "♥️",
        -9.754960060119629
      ],
      [
        "kh",
        -9.75683307647705
      ],
      [
        "▁e",
        -9.757047653198242
      ],
      [
        "▁اسئلة",
        -9.757766723632812
      ],
      [
        "▁وميلود",
        -9.758027076721191
      ],
      [
        "▁سياسي",
        -9.758091926574707
      ],
      [
        "▁القول",
        -9.758157730102539
      ],
      [
        "▁يسر",
        -9.758161544799805
      ],
      [
        "الي",
        -9.758574485778809
      ],
      [
        "عي",
        -9.75928783416748
      ],
      [
        "▁يطيح",
        -9.759941101074219
      ],
      [
        "طو",
        -9.760089874267578
      ],
      [
        "▁nchlh",
        -9.761425971984863
      ],
      [
        "💪",
        -9.762131690979004
      ],
      [
        "دين",
        -9.762764930725098
      ],
      [
        "▁ضرك",
        -9.763311386108398
      ],
      [
        "▁🔥",
        -9.763579368591309
      ],
      [
        "▁للاسف",
        -9.763938903808594
      ],
      [
        "انة",
        -9.76418685913086
      ],
      [
        "▁نعمة",
        -9.764979362487793
      ],
      [
        "▁الشيء",
        -9.765049934387207
      ],
      [
        "▁لاي",
        -9.765297889709473
      ],
      [
        "▁الطفلة",
        -9.765379905700684
      ],
      [
        "▁مقدرتش",
        -9.765986442565918
      ],
      [
        "▁g",
        -9.767199516296387
      ],
      [
        "▁تاعنا",
        -9.767870903015137
      ],
      [
        "▁طلعو",
        -9.768281936645508
      ],
      [
        "▁علمي",
        -9.768362998962402
      ],
      [
        "▁المس",
        -9.769490242004395
      ],
      [
        "▁ابي",
        -9.769808769226074
      ],
      [
        "▁خالي",
        -9.76993179321289
      ],
      [
        "▁الإجابة",
        -9.76993465423584
      ],
      [
        "قد",
        -9.770376205444336
      ],
      [
        "▁جيدا",
        -9.770976066589355
      ],
      [
        "▁love",
        -9.771322250366211
      ],
      [
        "▁مالك",
        -9.771944999694824
      ],
      [
        "an",
        -9.7720947265625
      ],
      [
        "▁العاصمة",
        -9.772439002990723
      ],
      [
        "▁اخ",
        -9.772575378417969
      ],
      [
        "▁المسلم",
        -9.7736234664917
      ],
      [
        "▁دولة",
        -9.773826599121094
      ],
      [
        "راك",
        -9.774209976196289
      ],
      [
        "▁نقراو",
        -9.774270057678223
      ],
      [
        "▁ثبت",
        -9.7749605178833
      ],
      [
        "▁نرجع",
        -9.774991989135742
      ],
      [
        "▁تست",
        -9.775235176086426
      ],
      [
        "▁كتابك",
        -9.775839805603027
      ],
      [
        "▁برحمتك",
        -9.775933265686035
      ],
      [
        "▁وحتى",
        -9.776145935058594
      ],
      [
        "▁حوايج",
        -9.776423454284668
      ],
      [
        "▁نولي",
        -9.776433944702148
      ],
      [
        "17",
        -9.776653289794922
      ],
      [
        "▁ha",
        -9.77668285369873
      ],
      [
        "جب",
        -9.77691650390625
      ],
      [
        "▁فرح",
        -9.777260780334473
      ],
      [
        "فق",
        -9.777974128723145
      ],
      [
        "▁جل",
        -9.77861213684082
      ],
      [
        "mo",
        -9.778852462768555
      ],
      [
        "▁قوله",
        -9.778863906860352
      ],
      [
        "▁يخص",
        -9.779252052307129
      ],
      [
        "روح",
        -9.779553413391113
      ],
      [
        "▁مافهمتش",
        -9.779788970947266
      ],
      [
        "▁الحزن",
        -9.78048324584961
      ],
      [
        "فهم",
        -9.780616760253906
      ],
      [
        "▁خطأ",
        -9.780658721923828
      ],
      [
        "▁بكم",
        -9.780718803405762
      ],
      [
        "▁😢❤",
        -9.781048774719238
      ],
      [
        "▁موت",
        -9.781494140625
      ],
      [
        "▁–",
        -9.781967163085938
      ],
      [
        "I",
        -9.782472610473633
      ],
      [
        "▁بيسك",
        -9.782625198364258
      ],
      [
        "▁فهل",
        -9.78349781036377
      ],
      [
        "▁سواء",
        -9.783637046813965
      ],
      [
        "▁حرف",
        -9.784649848937988
      ],
      [
        "▁دورة",
        -9.78481388092041
      ],
      [
        "▁قدم",
        -9.785109519958496
      ],
      [
        "▁المرور",
        -9.785852432250977
      ],
      [
        "▁الأخت",
        -9.78604793548584
      ],
      [
        "▁ساهلة",
        -9.786128997802734
      ],
      [
        "▁عاود",
        -9.786601066589355
      ],
      [
        "▁واجب",
        -9.786866188049316
      ],
      [
        "▁الشباب",
        -9.786921501159668
      ],
      [
        "▁باباك",
        -9.787154197692871
      ],
      [
        "▁نتع",
        -9.787858009338379
      ],
      [
        "▁لست",
        -9.78850269317627
      ],
      [
        "▁ري",
        -9.788528442382812
      ],
      [
        "▁ير",
        -9.788750648498535
      ],
      [
        "▁اك",
        -9.788936614990234
      ],
      [
        "▁البلاد",
        -9.789088249206543
      ],
      [
        "▁بنتي",
        -9.790094375610352
      ],
      [
        "▁are",
        -9.790836334228516
      ],
      [
        "▁تهبل",
        -9.790987968444824
      ],
      [
        "رى",
        -9.791360855102539
      ],
      [
        "▁البحر",
        -9.791387557983398
      ],
      [
        "🥲",
        -9.793379783630371
      ],
      [
        "2025",
        -9.793396949768066
      ],
      [
        "▁السلسلة",
        -9.793655395507812
      ],
      [
        "ine",
        -9.793850898742676
      ],
      [
        "▁تجعل",
        -9.793892860412598
      ],
      [
        "K",
        -9.795238494873047
      ],
      [
        "▁الفجر",
        -9.796003341674805
      ],
      [
        "▁فصل",
        -9.796850204467773
      ],
      [
        "دم",
        -9.797025680541992
      ],
      [
        "عرف",
        -9.797277450561523
      ],
      [
        "▁ملخص",
        -9.797396659851074
      ],
      [
        "▁hada",
        -9.797807693481445
      ],
      [
        "ولنا",
        -9.79855728149414
      ],
      [
        "▁الفديو",
        -9.800060272216797
      ],
      [
        "▁والعافية",
        -9.800177574157715
      ],
      [
        "▁وإذا",
        -9.800305366516113
      ],
      [
        "▁الهم",
        -9.800464630126953
      ],
      [
        "▁الك",
        -9.800524711608887
      ],
      [
        "انية",
        -9.800601959228516
      ],
      [
        "▁للا",
        -9.800863265991211
      ],
      [
        "▁وجود",
        -9.800895690917969
      ],
      [
        "▁راي",
        -9.80137825012207
      ],
      [
        "▁نجحنا",
        -9.802058219909668
      ],
      [
        "▁ذاك",
        -9.802423477172852
      ],
      [
        "دت",
        -9.802927017211914
      ],
      [
        "دخل",
        -9.80308723449707
      ],
      [
        "▁سوجي",
        -9.80385971069336
      ],
      [
        "▁الوصفة",
        -9.804655075073242
      ],
      [
        "▁يبان",
        -9.80482006072998
      ],
      [
        "▁خدمة",
        -9.805398941040039
      ],
      [
        "▁Y",
        -9.80547046661377
      ],
      [
        "▁العمر",
        -9.80555534362793
      ],
      [
        "▁دو",
        -9.805572509765625
      ],
      [
        "▁المراجعة",
        -9.805644989013672
      ],
      [
        "id",
        -9.805827140808105
      ],
      [
        "▁si",
        -9.806083679199219
      ],
      [
        "▁وحدها",
        -9.806245803833008
      ],
      [
        "▁دم",
        -9.807746887207031
      ],
      [
        "▁الغالية",
        -9.807964324951172
      ],
      [
        "aw",
        -9.808202743530273
      ],
      [
        "▁شو",
        -9.808328628540039
      ],
      [
        "بصح",
        -9.808356285095215
      ],
      [
        "▁مباشرة",
        -9.808451652526855
      ],
      [
        "▁رسالة",
        -9.808991432189941
      ],
      [
        "20",
        -9.809288024902344
      ],
      [
        "▁عيدك",
        -9.809701919555664
      ],
      [
        "▁الناجحين",
        -9.810379028320312
      ],
      [
        "▁فالباك",
        -9.810797691345215
      ],
      [
        "▁استمر",
        -9.81082534790039
      ],
      [
        "▁جزائرية",
        -9.810870170593262
      ],
      [
        "▁فينا",
        -9.811742782592773
      ],
      [
        "▁المقترحات",
        -9.812143325805664
      ],
      [
        "▁كتبت",
        -9.812155723571777
      ],
      [
        "طا",
        -9.81224536895752
      ],
      [
        "▁انتم",
        -9.812528610229492
      ],
      [
        "▁عدة",
        -9.81266975402832
      ],
      [
        "▁يو",
        -9.813067436218262
      ],
      [
        "▁ويعطيك",
        -9.813924789428711
      ],
      [
        "▁ماتت",
        -9.814115524291992
      ],
      [
        "▁تريد",
        -9.815167427062988
      ],
      [
        "🖤",
        -9.815224647521973
      ],
      [
        "▁مقال",
        -9.815735816955566
      ],
      [
        "▁أبدا",
        -9.816229820251465
      ],
      [
        "▁الكبير",
        -9.81700611114502
      ],
      [
        "▁بينا",
        -9.81739616394043
      ],
      [
        "▁وجد",
        -9.818056106567383
      ],
      [
        "as",
        -9.81855297088623
      ],
      [
        "fa",
        -9.818657875061035
      ],
      [
        "▁علما",
        -9.81977653503418
      ],
      [
        "▁تاعها",
        -9.820061683654785
      ],
      [
        "▁الواحد",
        -9.820504188537598
      ],
      [
        "ii",
        -9.82083797454834
      ],
      [
        "▁rani",
        -9.820940971374512
      ],
      [
        "▁هاته",
        -9.821612358093262
      ],
      [
        "▁لحد",
        -9.821636199951172
      ],
      [
        "▁اكتب",
        -9.821660041809082
      ],
      [
        "▁علامة",
        -9.821786880493164
      ],
      [
        "▁ومت",
        -9.822526931762695
      ],
      [
        "▁تطبيق",
        -9.823028564453125
      ],
      [
        "▁ينجحكم",
        -9.823212623596191
      ],
      [
        "▁du",
        -9.823246955871582
      ],
      [
        "me",
        -9.823646545410156
      ],
      [
        "▁شئ",
        -9.823688507080078
      ],
      [
        "▁تقني",
        -9.82384967803955
      ],
      [
        "أن",
        -9.824156761169434
      ],
      [
        "▁cha",
        -9.824589729309082
      ],
      [
        "▁انتهى",
        -9.824877738952637
      ],
      [
        "▁الراجل",
        -9.825423240661621
      ],
      [
        "اوي",
        -9.826171875
      ],
      [
        "▁لكان",
        -9.826292991638184
      ],
      [
        "▁مريم",
        -9.826476097106934
      ],
      [
        "رق",
        -9.82649040222168
      ],
      [
        "▁البيام",
        -9.827134132385254
      ],
      [
        "▁اسمو",
        -9.82718276977539
      ],
      [
        "▁الصور",
        -9.827864646911621
      ],
      [
        "😁",
        -9.8281888961792
      ],
      [
        "▁رو",
        -9.828649520874023
      ],
      [
        "▁تشبه",
        -9.828897476196289
      ],
      [
        "▁بلادنا",
        -9.828907012939453
      ],
      [
        "▁انني",
        -9.829380989074707
      ],
      [
        "سو",
        -9.83012580871582
      ],
      [
        "B",
        -9.830554962158203
      ],
      [
        "▁يسترك",
        -9.830952644348145
      ],
      [
        "▁✅",
        -9.831258773803711
      ],
      [
        "قا",
        -9.831478118896484
      ],
      [
        "▁هد",
        -9.831521034240723
      ],
      [
        "مان",
        -9.832562446594238
      ],
      [
        "سم",
        -9.83301830291748
      ],
      [
        "▁الشهر",
        -9.833230972290039
      ],
      [
        "▁أمام",
        -9.833709716796875
      ],
      [
        "▁قنشوبة",
        -9.834065437316895
      ],
      [
        "▁Redx",
        -9.8348970413208
      ],
      [
        "▁الباردة",
        -9.834920883178711
      ],
      [
        "▁فرق",
        -9.8351411819458
      ],
      [
        "▁نجحني",
        -9.835626602172852
      ],
      [
        "▁اجد",
        -9.835766792297363
      ],
      [
        "▁يوفقكم",
        -9.836260795593262
      ],
      [
        "ده",
        -9.837274551391602
      ],
      [
        "▁السوداء",
        -9.837397575378418
      ],
      [
        "▁😮😮",
        -9.838271141052246
      ],
      [
        "▁العين",
        -9.838388442993164
      ],
      [
        "▁القضية",
        -9.838482856750488
      ],
      [
        "▁السماء",
        -9.838972091674805
      ],
      [
        "▁الاست",
        -9.839432716369629
      ],
      [
        "▁se",
        -9.839454650878906
      ],
      [
        "▁عدت",
        -9.839606285095215
      ],
      [
        "▁tu",
        -9.840754508972168
      ],
      [
        "تا",
        -9.841055870056152
      ],
      [
        "▁قراءة",
        -9.841083526611328
      ],
      [
        "▁القبر",
        -9.842057228088379
      ],
      [
        "H",
        -9.843252182006836
      ],
      [
        "لات",
        -9.843908309936523
      ],
      [
        "رب",
        -9.844828605651855
      ],
      [
        "▁win",
        -9.84524154663086
      ],
      [
        "▁ارحمه",
        -9.84544563293457
      ],
      [
        "▁يولي",
        -9.845699310302734
      ],
      [
        "▁النثر",
        -9.846085548400879
      ],
      [
        "▁الكتب",
        -9.846976280212402
      ],
      [
        "▁lah",
        -9.847179412841797
      ],
      [
        "▁الحقيقي",
        -9.849306106567383
      ],
      [
        "▁الرابط",
        -9.849427223205566
      ],
      [
        "▁كلما",
        -9.849980354309082
      ],
      [
        "em",
        -9.850024223327637
      ],
      [
        "▁يطول",
        -9.851097106933594
      ],
      [
        "▁اصحاب",
        -9.85145092010498
      ],
      [
        "▁نقص",
        -9.85172176361084
      ],
      [
        "▁والأ",
        -9.851776123046875
      ],
      [
        "▁مصر",
        -9.851802825927734
      ],
      [
        "▁نلقا",
        -9.852100372314453
      ],
      [
        "▁تضحك",
        -9.85224723815918
      ],
      [
        "▁يقال",
        -9.853288650512695
      ],
      [
        "سب",
        -9.853462219238281
      ],
      [
        "▁rah",
        -9.853618621826172
      ],
      [
        "R",
        -9.853669166564941
      ],
      [
        "▁امي",
        -9.854201316833496
      ],
      [
        "▁المدرسة",
        -9.855646133422852
      ],
      [
        "ly",
        -9.857771873474121
      ],
      [
        "بك",
        -9.8578519821167
      ],
      [
        "💕",
        -9.858055114746094
      ],
      [
        "▁معنديش",
        -9.858948707580566
      ],
      [
        "▁al",
        -9.859275817871094
      ],
      [
        "on",
        -9.860004425048828
      ],
      [
        "▁التلاميذ",
        -9.86009693145752
      ],
      [
        "▁مدينة",
        -9.860368728637695
      ],
      [
        "▁افهم",
        -9.860441207885742
      ],
      [
        "▁واجعل",
        -9.86069107055664
      ],
      [
        "▁دول",
        -9.861445426940918
      ],
      [
        "▁ياخي",
        -9.862040519714355
      ],
      [
        "▁الأعضاء",
        -9.86219596862793
      ],
      [
        "▁نصف",
        -9.862260818481445
      ],
      [
        "قدر",
        -9.862338066101074
      ],
      [
        "▁روضة",
        -9.862597465515137
      ],
      [
        "▁مساء",
        -9.862953186035156
      ],
      [
        "▁عباد",
        -9.863115310668945
      ],
      [
        "اته",
        -9.863327026367188
      ],
      [
        "▁قط",
        -9.863770484924316
      ],
      [
        "▁البشر",
        -9.864375114440918
      ],
      [
        "ولك",
        -9.865265846252441
      ],
      [
        "صل",
        -9.865391731262207
      ],
      [
        "▁نضحك",
        -9.866074562072754
      ],
      [
        "شر",
        -9.866576194763184
      ],
      [
        "▁الحلقة",
        -9.866583824157715
      ],
      [
        "▁شك",
        -9.866988182067871
      ],
      [
        "▁قبره",
        -9.86740493774414
      ],
      [
        "▁بناء",
        -9.868121147155762
      ],
      [
        "▁ويرحم",
        -9.868669509887695
      ],
      [
        "▁جمع",
        -9.868759155273438
      ],
      [
        "om",
        -9.8688383102417
      ],
      [
        "▁فهذا",
        -9.86890697479248
      ],
      [
        "▁غدا",
        -9.86922836303711
      ],
      [
        "▁يشافيك",
        -9.869414329528809
      ],
      [
        "??",
        -9.869872093200684
      ],
      [
        "▁ذو",
        -9.869970321655273
      ],
      [
        "زا",
        -9.870607376098633
      ],
      [
        "▁حابين",
        -9.870930671691895
      ],
      [
        "▁معرفتش",
        -9.871017456054688
      ],
      [
        "▁الواسعة",
        -9.87108039855957
      ],
      [
        "▁ومبعد",
        -9.871296882629395
      ],
      [
        "اري",
        -9.871330261230469
      ],
      [
        "▁صدق",
        -9.872069358825684
      ],
      [
        "▁ولدي",
        -9.872326850891113
      ],
      [
        "▁هدر",
        -9.87236499786377
      ],
      [
        "12",
        -9.872537612915039
      ],
      [
        "▁الايام",
        -9.872593879699707
      ],
      [
        "▁يوفق",
        -9.872783660888672
      ],
      [
        "▁مخ",
        -9.87295913696289
      ],
      [
        "▁الحي",
        -9.873167037963867
      ],
      [
        "ذي",
        -9.873283386230469
      ],
      [
        "▁يهدي",
        -9.874512672424316
      ],
      [
        "▁مبرووك",
        -9.875654220581055
      ],
      [
        "▁انشالله",
        -9.87566089630127
      ],
      [
        "▁معناها",
        -9.876779556274414
      ],
      [
        "▁أصبح",
        -9.87828254699707
      ],
      [
        "▁نصب",
        -9.878389358520508
      ],
      [
        "▁نجحت",
        -9.878453254699707
      ],
      [
        "▁يرجع",
        -9.878780364990234
      ],
      [
        "▁hna",
        -9.878846168518066
      ],
      [
        "▁ce",
        -9.8798189163208
      ],
      [
        "▁نحو",
        -9.879886627197266
      ],
      [
        "▁فيديوات",
        -9.879960060119629
      ],
      [
        "▁طاح",
        -9.880346298217773
      ],
      [
        "🌹",
        -9.8808012008667
      ],
      [
        "▁الفكري",
        -9.880838394165039
      ],
      [
        "▁يعيشك",
        -9.881729125976562
      ],
      [
        "وز",
        -9.882126808166504
      ],
      [
        "▁حتي",
        -9.882179260253906
      ],
      [
        "▁يهدينا",
        -9.882186889648438
      ],
      [
        "يهم",
        -9.882237434387207
      ],
      [
        "▁المستعان",
        -9.882917404174805
      ],
      [
        "▁تعود",
        -9.883500099182129
      ],
      [
        "▁يعمل",
        -9.883806228637695
      ],
      [
        "▁احكي",
        -9.884001731872559
      ],
      [
        "▁ار",
        -9.886629104614258
      ],
      [
        "▁صعيب",
        -9.886685371398926
      ],
      [
        "إ",
        -9.886802673339844
      ],
      [
        "▁وقيل",
        -9.887397766113281
      ],
      [
        "▁باطل",
        -9.887469291687012
      ],
      [
        "سة",
        -9.88808822631836
      ],
      [
        "▁عندكم",
        -9.888486862182617
      ],
      [
        "▁😔",
        -9.888581275939941
      ],
      [
        "▁يتفرج",
        -9.889242172241211
      ],
      [
        "اتو",
        -9.889303207397461
      ],
      [
        "▁ألا",
        -9.889429092407227
      ],
      [
        "▁اليك",
        -9.889555931091309
      ],
      [
        "▁اقامة",
        -9.889668464660645
      ],
      [
        "▁تعجبني",
        -9.890162467956543
      ],
      [
        "راد",
        -9.891029357910156
      ],
      [
        "▁الغرب",
        -9.891302108764648
      ],
      [
        "▁الثالثة",
        -9.891707420349121
      ],
      [
        "▁هدو",
        -9.891731262207031
      ],
      [
        "وو",
        -9.89177131652832
      ],
      [
        "▁مشكلة",
        -9.892163276672363
      ],
      [
        "▁تذكر",
        -9.892899513244629
      ],
      [
        "gh",
        -9.893289566040039
      ],
      [
        "▁الاجتماعي",
        -9.893502235412598
      ],
      [
        "is",
        -9.894070625305176
      ],
      [
        "▁ثلاثة",
        -9.895118713378906
      ],
      [
        "▁تبع",
        -9.895624160766602
      ],
      [
        "▁عباسية",
        -9.895757675170898
      ],
      [
        "زع",
        -9.896851539611816
      ],
      [
        "ur",
        -9.897492408752441
      ],
      [
        "▁سيدي",
        -9.89785385131836
      ],
      [
        "30",
        -9.898009300231934
      ],
      [
        "▁استااذ",
        -9.898026466369629
      ],
      [
        "رك",
        -9.898341178894043
      ],
      [
        "ka",
        -9.89899730682373
      ],
      [
        "▁نجح",
        -9.899992942810059
      ],
      [
        "▁نحكي",
        -9.900253295898438
      ],
      [
        "▁الجامعة",
        -9.900520324707031
      ],
      [
        "▁تعرفي",
        -9.900704383850098
      ],
      [
        "لان",
        -9.90120792388916
      ],
      [
        "▁القيمة",
        -9.901392936706543
      ],
      [
        "▁hadi",
        -9.902406692504883
      ],
      [
        "▁سؤالي",
        -9.902534484863281
      ],
      [
        "▁الأمور",
        -9.902892112731934
      ],
      [
        "▁تتمنى",
        -9.903295516967773
      ],
      [
        "▁انتظار",
        -9.903852462768555
      ],
      [
        "▁my",
        -9.903932571411133
      ],
      [
        "▁الز",
        -9.904376983642578
      ],
      [
        "▁نراجع",
        -9.905494689941406
      ],
      [
        "▁بهذه",
        -9.906024932861328
      ],
      [
        "راه",
        -9.90648078918457
      ],
      [
        "▁تقراي",
        -9.906489372253418
      ],
      [
        "ثم",
        -9.906551361083984
      ],
      [
        "عيد",
        -9.906688690185547
      ],
      [
        "▁R",
        -9.907116889953613
      ],
      [
        "▁رأي",
        -9.907118797302246
      ],
      [
        "▁أني",
        -9.907289505004883
      ],
      [
        "▁الوطن",
        -9.907541275024414
      ],
      [
        "▁مواد",
        -9.908000946044922
      ],
      [
        "▁The",
        -9.908005714416504
      ],
      [
        "▁يجو",
        -9.908570289611816
      ],
      [
        "2026",
        -9.908858299255371
      ],
      [
        "هش",
        -9.908864974975586
      ],
      [
        "دية",
        -9.908913612365723
      ],
      [
        "▁امتحان",
        -9.909316062927246
      ],
      [
        "▁ذي",
        -9.909455299377441
      ],
      [
        "▁Sepia",
        -9.909906387329102
      ],
      [
        "▁زمن",
        -9.909930229187012
      ],
      [
        "▁سبق",
        -9.910565376281738
      ],
      [
        "▁نطالب",
        -9.911076545715332
      ],
      [
        "▁احنا",
        -9.911242485046387
      ],
      [
        "💜",
        -9.911280632019043
      ],
      [
        "طل",
        -9.911826133728027
      ],
      [
        "▁اكل",
        -9.911828994750977
      ],
      [
        "▁مشاكل",
        -9.912264823913574
      ],
      [
        "ضحك",
        -9.91257095336914
      ],
      [
        "▁اسمع",
        -9.913713455200195
      ],
      [
        "👌",
        -9.914799690246582
      ],
      [
        "▁كملنا",
        -9.915572166442871
      ],
      [
        "▁da",
        -9.915590286254883
      ],
      [
        "▁ظهر",
        -9.915702819824219
      ],
      [
        "▁لاني",
        -9.916720390319824
      ],
      [
        "▁المع",
        -9.91714859008789
      ],
      [
        "ند",
        -9.917235374450684
      ],
      [
        "▁صعب",
        -9.91748046875
      ],
      [
        "▁ممن",
        -9.917634010314941
      ],
      [
        "▁قرا",
        -9.918235778808594
      ],
      [
        "▁خ",
        -9.918242454528809
      ],
      [
        "▁3-",
        -9.918537139892578
      ],
      [
        "▁جويلية",
        -9.919384002685547
      ],
      [
        "▁تربح",
        -9.9195556640625
      ],
      [
        "▁لبنات",
        -9.920360565185547
      ],
      [
        "▁حن",
        -9.920794486999512
      ],
      [
        "▁pdf",
        -9.92111873626709
      ],
      [
        "▁صاحبة",
        -9.921761512756348
      ],
      [
        "غر",
        -9.921954154968262
      ],
      [
        "▁المقال",
        -9.92241096496582
      ],
      [
        "😂❤",
        -9.922945976257324
      ],
      [
        "▁ونتي",
        -9.92343807220459
      ],
      [
        "▁طلع",
        -9.9235258102417
      ],
      [
        "▁حلم",
        -9.92386245727539
      ],
      [
        "▁التربية",
        -9.923992156982422
      ],
      [
        "▁الطابعة",
        -9.924153327941895
      ],
      [
        "fi",
        -9.924361228942871
      ],
      [
        "لف",
        -9.924449920654297
      ],
      [
        "▁سكر",
        -9.924517631530762
      ],
      [
        "▁حرب",
        -9.924910545349121
      ],
      [
        "▁ra",
        -9.925284385681152
      ],
      [
        "▁البعض",
        -9.925332069396973
      ],
      [
        "ter",
        -9.925508499145508
      ],
      [
        "▁النور",
        -9.926055908203125
      ],
      [
        "▁شفتها",
        -9.926916122436523
      ],
      [
        "▁وقتاش",
        -9.92697525024414
      ],
      [
        "💖",
        -9.927031517028809
      ],
      [
        "▁يطلع",
        -9.927165985107422
      ],
      [
        "▁ممتعة",
        -9.92734432220459
      ],
      [
        "كيف",
        -9.927397727966309
      ],
      [
        "▁يلي",
        -9.927474021911621
      ],
      [
        "▁التواصل",
        -9.928216934204102
      ],
      [
        "▁وعلاه",
        -9.928523063659668
      ],
      [
        "▁اع",
        -9.928949356079102
      ],
      [
        "▁مريضة",
        -9.928951263427734
      ],
      [
        "حة",
        -9.93106460571289
      ],
      [
        "P",
        -9.931845664978027
      ],
      [
        "عد",
        -9.932085037231445
      ],
      [
        "▁المدينة",
        -9.93345832824707
      ],
      [
        "▁يستر",
        -9.933659553527832
      ],
      [
        "▁جاوبوني",
        -9.934327125549316
      ],
      [
        "▁on",
        -9.934639930725098
      ],
      [
        "sh",
        -9.935016632080078
      ],
      [
        "▁الأدب",
        -9.935556411743164
      ],
      [
        "▁عم",
        -9.93555736541748
      ],
      [
        "▁عيدكم",
        -9.935909271240234
      ],
      [
        "فاء",
        -9.936010360717773
      ],
      [
        "▁الرائع",
        -9.936083793640137
      ],
      [
        "▁صبر",
        -9.936359405517578
      ],
      [
        "▁هدرت",
        -9.936456680297852
      ],
      [
        "▁الفاضلة",
        -9.936738014221191
      ],
      [
        "▁تسيير",
        -9.936893463134766
      ],
      [
        "▁الإمام",
        -9.937164306640625
      ],
      [
        "▁فالم",
        -9.938411712646484
      ],
      [
        "▁continuation",
        -9.938430786132812
      ],
      [
        "▁نثر",
        -9.938875198364258
      ],
      [
        "▁بنجاح",
        -9.939090728759766
      ],
      [
        "▁سطيف",
        -9.939657211303711
      ],
      [
        "▁؟!",
        -9.939769744873047
      ],
      [
        "▁قلوبنا",
        -9.940211296081543
      ],
      [
        "تع",
        -9.940923690795898
      ],
      [
        "▁ترد",
        -9.94110107421875
      ],
      [
        "▁أهله",
        -9.941228866577148
      ],
      [
        "▁وحدو",
        -9.941819190979004
      ],
      [
        "▁💪",
        -9.942475318908691
      ],
      [
        "▁الدي",
        -9.942596435546875
      ],
      [
        "▁لعل",
        -9.942780494689941
      ],
      [
        "▁هكدا",
        -9.943410873413086
      ],
      [
        "بس",
        -9.943843841552734
      ],
      [
        "▁نوصل",
        -9.944047927856445
      ],
      [
        "▁مول",
        -9.944700241088867
      ],
      [
        "▁احكيلنا",
        -9.944716453552246
      ],
      [
        "▁يب",
        -9.944744110107422
      ],
      [
        "▁فوور",
        -9.944777488708496
      ],
      [
        "▁درتي",
        -9.944860458374023
      ],
      [
        "▁أت",
        -9.945013999938965
      ],
      [
        "▁عايش",
        -9.945082664489746
      ],
      [
        "▁نقلك",
        -9.945104598999023
      ],
      [
        "▁تبدا",
        -9.945178985595703
      ],
      [
        "▁يخلي",
        -9.945443153381348
      ],
      [
        "قتل",
        -9.94548225402832
      ],
      [
        "▁رفع",
        -9.945854187011719
      ],
      [
        "▁العقل",
        -9.946295738220215
      ],
      [
        "▁وعن",
        -9.946311950683594
      ],
      [
        "▁وفق",
        -9.946945190429688
      ],
      [
        "قطع",
        -9.946967124938965
      ],
      [
        "▁قاعدة",
        -9.94728946685791
      ],
      [
        "▁الجزائريين",
        -9.947311401367188
      ],
      [
        "▁ايمان",
        -9.948200225830078
      ],
      [
        "ne",
        -9.948452949523926
      ],
      [
        "▁السعادة",
        -9.948972702026367
      ],
      [
        "▁فإذا",
        -9.94929027557373
      ],
      [
        "▁ورد",
        -9.949328422546387
      ],
      [
        "▁ترجع",
        -9.949936866760254
      ],
      [
        "بان",
        -9.95021915435791
      ],
      [
        "▁لحكايات",
        -9.950531959533691
      ],
      [
        "▁اقل",
        -9.950579643249512
      ],
      [
        "▁استاذنا",
        -9.950689315795898
      ],
      [
        "▁الجاي",
        -9.950780868530273
      ],
      [
        "▁اقرب",
        -9.95081901550293
      ],
      [
        "غرب",
        -9.951009750366211
      ],
      [
        "▁ارزقني",
        -9.95152759552002
      ],
      [
        "ئة",
        -9.952585220336914
      ],
      [
        "▁ونفرحو",
        -9.95266342163086
      ],
      [
        "▁ميت",
        -9.952701568603516
      ],
      [
        "▁لديك",
        -9.953849792480469
      ],
      [
        "▁ياو",
        -9.953883171081543
      ],
      [
        "رض",
        -9.95456314086914
      ],
      [
        "▁ثانيا",
        -9.954855918884277
      ],
      [
        "▁men",
        -9.955031394958496
      ],
      [
        "▁تغير",
        -9.955248832702637
      ],
      [
        "▁تلعب",
        -9.955381393432617
      ],
      [
        "وى",
        -9.955659866333008
      ],
      [
        "▁البخاري",
        -9.955757141113281
      ],
      [
        "▁نلحق",
        -9.95644760131836
      ],
      [
        "▁جاوبني",
        -9.957160949707031
      ],
      [
        "▁صانعة",
        -9.957819938659668
      ],
      [
        "▁ديالك",
        -9.958233833312988
      ],
      [
        "دل",
        -9.958511352539062
      ],
      [
        "▁نهدر",
        -9.958719253540039
      ],
      [
        "▁أخ",
        -9.958966255187988
      ],
      [
        "▁تخ",
        -9.959213256835938
      ],
      [
        "▁الدول",
        -9.960637092590332
      ],
      [
        "▁الشاعر",
        -9.96092700958252
      ],
      [
        "▁ردي",
        -9.96115779876709
      ],
      [
        "▁هؤلاء",
        -9.961470603942871
      ],
      [
        "▁علابالك",
        -9.961939811706543
      ],
      [
        "▁عيب",
        -9.962331771850586
      ],
      [
        "▁خوك",
        -9.962478637695312
      ],
      [
        "▁يرد",
        -9.963021278381348
      ],
      [
        "▁machi",
        -9.963032722473145
      ],
      [
        "▁جاو",
        -9.963391304016113
      ],
      [
        "▁حاليا",
        -9.963587760925293
      ],
      [
        "طي",
        -9.963922500610352
      ],
      [
        "▁p",
        -9.96419906616211
      ],
      [
        "▁نبكي",
        -9.964434623718262
      ],
      [
        "تبع",
        -9.96488094329834
      ],
      [
        "▁بذلك",
        -9.964973449707031
      ],
      [
        "▁وكاين",
        -9.965211868286133
      ],
      [
        "▁ربك",
        -9.965683937072754
      ],
      [
        "▁ادعيولي",
        -9.966012001037598
      ],
      [
        "▁المستقبل",
        -9.966116905212402
      ],
      [
        "▁•",
        -9.966551780700684
      ],
      [
        "▁مك",
        -9.966590881347656
      ],
      [
        "nd",
        -9.966778755187988
      ],
      [
        "lk",
        -9.967557907104492
      ],
      [
        "▁الراحمين",
        -9.967787742614746
      ],
      [
        "▁الاعضاء",
        -9.968353271484375
      ],
      [
        "😮😮",
        -9.968518257141113
      ],
      [
        "▁مسكينة",
        -9.9686918258667
      ],
      [
        "▁حبست",
        -9.968867301940918
      ],
      [
        "tha",
        -9.968948364257812
      ],
      [
        "▁اسمه",
        -9.969083786010742
      ],
      [
        "▁ثان",
        -9.96928596496582
      ],
      [
        "▁عنوان",
        -9.969795227050781
      ],
      [
        "▁بإ",
        -9.971357345581055
      ],
      [
        "▁شريت",
        -9.971461296081543
      ],
      [
        "▁الماضي",
        -9.97154426574707
      ],
      [
        "▁قصتي",
        -9.971782684326172
      ],
      [
        "▁الهاتف",
        -9.971841812133789
      ],
      [
        "▁تسمع",
        -9.971970558166504
      ],
      [
        "▁را",
        -9.97243595123291
      ],
      [
        "هذا",
        -9.972563743591309
      ],
      [
        "❤️❤️",
        -9.972915649414062
      ],
      [
        "▁ملاك",
        -9.973783493041992
      ],
      [
        "▁مثلك",
        -9.974769592285156
      ],
      [
        "▁يفوت",
        -9.974832534790039
      ],
      [
        "فه",
        -9.975109100341797
      ],
      [
        "▁وصفة",
        -9.975769996643066
      ],
      [
        "▁👌",
        -9.975778579711914
      ],
      [
        "▁يعود",
        -9.97635555267334
      ],
      [
        "▁top",
        -9.976435661315918
      ],
      [
        "▁راسك",
        -9.977499961853027
      ],
      [
        "▁saha",
        -9.977538108825684
      ],
      [
        "▁قوم",
        -9.977933883666992
      ],
      [
        "▁عارف",
        -9.977993965148926
      ],
      [
        "▁نصائح",
        -9.9783353805542
      ],
      [
        "▁هديك",
        -9.978438377380371
      ],
      [
        "▁عبارة",
        -9.978580474853516
      ],
      [
        "عين",
        -9.978890419006348
      ],
      [
        "▁جر",
        -9.980639457702637
      ],
      [
        "▁أنني",
        -9.980670928955078
      ],
      [
        "▁نعرفو",
        -9.980809211730957
      ],
      [
        "▁do",
        -9.981071472167969
      ],
      [
        "▁يصبر",
        -9.981606483459473
      ],
      [
        "▁كا",
        -9.981739044189453
      ],
      [
        "▁سمعتها",
        -9.982421875
      ],
      [
        "▁قولولي",
        -9.982516288757324
      ],
      [
        "▁نوض",
        -9.983211517333984
      ],
      [
        "hi",
        -9.984210014343262
      ],
      [
        "😍😍",
        -9.98456859588623
      ],
      [
        "▁Allah",
        -9.98491096496582
      ],
      [
        "▁عرف",
        -9.985344886779785
      ],
      [
        "▁عامي",
        -9.98534870147705
      ],
      [
        "▁المؤمنين",
        -9.985931396484375
      ],
      [
        "▁تعبت",
        -9.987546920776367
      ],
      [
        "❤🎉",
        -9.987811088562012
      ],
      [
        "▁الزمن",
        -9.987940788269043
      ],
      [
        "▁bien",
        -9.988341331481934
      ],
      [
        "▁أسئلة",
        -9.988447189331055
      ],
      [
        "بد",
        -9.98912239074707
      ],
      [
        "▁افكار",
        -9.989336967468262
      ],
      [
        "▁كو",
        -9.989639282226562
      ],
      [
        "▁أعرف",
        -9.989866256713867
      ],
      [
        "▁دايمن",
        -9.989910125732422
      ],
      [
        "▁مرورك",
        -9.991025924682617
      ],
      [
        "▁ye",
        -9.991386413574219
      ],
      [
        "de",
        -9.99153995513916
      ],
      [
        "▁سمع",
        -9.992138862609863
      ],
      [
        "😘",
        -9.992490768432617
      ],
      [
        "▁المشكلة",
        -9.992607116699219
      ],
      [
        "▁الهدرة",
        -9.992875099182129
      ],
      [
        "▁الإيمان",
        -9.99401569366455
      ],
      [
        "▁بنادم",
        -9.994410514831543
      ],
      [
        "▁أصل",
        -9.994701385498047
      ],
      [
        "▁😊❤",
        -9.994794845581055
      ],
      [
        "▁الأمة",
        -9.995590209960938
      ],
      [
        "جز",
        -9.995814323425293
      ],
      [
        "▁مراد",
        -9.996155738830566
      ],
      [
        "جه",
        -9.996393203735352
      ],
      [
        "▁امام",
        -9.996588706970215
      ],
      [
        "▁كفاش",
        -9.996723175048828
      ],
      [
        "هدر",
        -9.996947288513184
      ],
      [
        "im",
        -9.996993064880371
      ],
      [
        "▁ونحن",
        -9.997777938842773
      ],
      [
        "▁الانجليزية",
        -9.998031616210938
      ],
      [
        "سخ",
        -9.998246192932129
      ],
      [
        "▁يتبع",
        -9.998405456542969
      ],
      [
        "▁واخيرا",
        -9.99858570098877
      ],
      [
        "▁قسنطينة",
        -9.99863338470459
      ],
      [
        "▁نحكيلك",
        -9.998793601989746
      ],
      [
        "▁خمس",
        -9.999608993530273
      ],
      [
        "▁this",
        -9.999627113342285
      ],
      [
        "▁بيا",
        -10.00001335144043
      ],
      [
        "▁فرصة",
        -10.000332832336426
      ],
      [
        "جاب",
        -10.00040054321289
      ],
      [
        "وط",
        -10.000597953796387
      ],
      [
        "▁امل",
        -10.000600814819336
      ],
      [
        "▁اقول",
        -10.000795364379883
      ],
      [
        "▁الحبيب",
        -10.001466751098633
      ],
      [
        "▁ضرب",
        -10.002150535583496
      ],
      [
        "▁وشنو",
        -10.00271987915039
      ],
      [
        "▁نريد",
        -10.003095626831055
      ],
      [
        "▁يسمع",
        -10.003703117370605
      ],
      [
        "▁خطر",
        -10.003896713256836
      ],
      [
        "▁شابين",
        -10.003987312316895
      ],
      [
        "▁your",
        -10.003995895385742
      ],
      [
        "▁القلوب",
        -10.003996849060059
      ],
      [
        "▁بلاصة",
        -10.004220008850098
      ],
      [
        "▁ويوفقك",
        -10.004443168640137
      ],
      [
        "▁25",
        -10.00454330444336
      ],
      [
        "شرح",
        -10.004719734191895
      ],
      [
        "▁ذهب",
        -10.005385398864746
      ],
      [
        "▁الروح",
        -10.005706787109375
      ],
      [
        "▁قالي",
        -10.006062507629395
      ],
      [
        "ce",
        -10.007153511047363
      ],
      [
        "▁السيبيا",
        -10.007833480834961
      ],
      [
        "ايا",
        -10.00794506072998
      ],
      [
        "▁الموسيقى",
        -10.008102416992188
      ],
      [
        "▁أخذ",
        -10.00814437866211
      ],
      [
        "▁أقول",
        -10.008193016052246
      ],
      [
        "مات",
        -10.008245468139648
      ],
      [
        "▁جغرافيا",
        -10.00870418548584
      ],
      [
        "lik",
        -10.009027481079102
      ],
      [
        "▁ارمي",
        -10.00946044921875
      ],
      [
        "صف",
        -10.009475708007812
      ],
      [
        "▁حكايتي",
        -10.009639739990234
      ],
      [
        "▁تبكي",
        -10.01037311553955
      ],
      [
        "▁***",
        -10.010664939880371
      ],
      [
        "▁الغالي",
        -10.010774612426758
      ],
      [
        "18",
        -10.010887145996094
      ],
      [
        "▁مز",
        -10.010993957519531
      ],
      [
        "▁like",
        -10.011001586914062
      ],
      [
        "نه",
        -10.011878967285156
      ],
      [
        "▁ارجوك",
        -10.01196002960205
      ],
      [
        "اغ",
        -10.012654304504395
      ],
      [
        "▁الحكم",
        -10.012744903564453
      ],
      [
        "اذ",
        -10.01305866241455
      ],
      [
        "▁متابع",
        -10.013178825378418
      ],
      [
        "▁الأيام",
        -10.013434410095215
      ],
      [
        "▁منقدرش",
        -10.013773918151855
      ],
      [
        "حتى",
        -10.01407527923584
      ],
      [
        "▁الزوج",
        -10.014787673950195
      ],
      [
        "▁معرفة",
        -10.014878273010254
      ],
      [
        "زة",
        -10.015260696411133
      ],
      [
        "فعل",
        -10.015626907348633
      ],
      [
        "اض",
        -10.015706062316895
      ],
      [
        "▁ميمز",
        -10.015815734863281
      ],
      [
        "▁الأن",
        -10.015847206115723
      ],
      [
        "▁ديدين",
        -10.016851425170898
      ],
      [
        "▁منعرف",
        -10.016858100891113
      ],
      [
        "▁أيها",
        -10.017409324645996
      ],
      [
        "▁ندو",
        -10.017799377441406
      ],
      [
        "▁وجميع",
        -10.017815589904785
      ],
      [
        "do",
        -10.018068313598633
      ],
      [
        "قص",
        -10.018182754516602
      ],
      [
        "▁الد",
        -10.01826286315918
      ],
      [
        "▁🖤🖤",
        -10.01837158203125
      ],
      [
        "▁دراسة",
        -10.018659591674805
      ],
      [
        "▁أصلا",
        -10.019384384155273
      ],
      [
        "▁المنزل",
        -10.01956558227539
      ],
      [
        "▁الجميلة",
        -10.020183563232422
      ],
      [
        "▁ملف",
        -10.020560264587402
      ],
      [
        "▁قديم",
        -10.02072811126709
      ],
      [
        "▁تحتاج",
        -10.020768165588379
      ],
      [
        "▁شبه",
        -10.021659851074219
      ],
      [
        "▁تحس",
        -10.022087097167969
      ],
      [
        "▁تغيير",
        -10.022192001342773
      ],
      [
        "▁ادعولنا",
        -10.022217750549316
      ],
      [
        "😔",
        -10.022862434387207
      ],
      [
        "▁mon",
        -10.023550987243652
      ],
      [
        "يلة",
        -10.023659706115723
      ],
      [
        "▁ملاحظة",
        -10.023839950561523
      ],
      [
        "sa",
        -10.023935317993164
      ],
      [
        "عرض",
        -10.023972511291504
      ],
      [
        "قام",
        -10.024002075195312
      ],
      [
        "▁المعنى",
        -10.024045944213867
      ],
      [
        "▁توب",
        -10.024354934692383
      ],
      [
        "تان",
        -10.024362564086914
      ],
      [
        "▁منين",
        -10.024609565734863
      ],
      [
        "جو",
        -10.025227546691895
      ],
      [
        "▁احمد",
        -10.027215003967285
      ],
      [
        "▁عمرو",
        -10.027458190917969
      ],
      [
        "▁ديجا",
        -10.027870178222656
      ],
      [
        "▁قوليلي",
        -10.028227806091309
      ],
      [
        "▁عيني",
        -10.028517723083496
      ],
      [
        "▁الآخر",
        -10.028828620910645
      ],
      [
        "لوا",
        -10.028985023498535
      ],
      [
        "▁يضحك",
        -10.02944278717041
      ],
      [
        "▁شاب",
        -10.029748916625977
      ],
      [
        "▁فخر",
        -10.030088424682617
      ],
      [
        "▁يصلح",
        -10.03018856048584
      ],
      [
        "▁خا",
        -10.031181335449219
      ],
      [
        "▁جاب",
        -10.031473159790039
      ],
      [
        "اص",
        -10.031861305236816
      ],
      [
        "▁تحل",
        -10.032325744628906
      ],
      [
        "▁جعلها",
        -10.032721519470215
      ],
      [
        "▁دارنا",
        -10.03278923034668
      ],
      [
        "الا",
        -10.032955169677734
      ],
      [
        "▁معه",
        -10.033474922180176
      ],
      [
        "▁E",
        -10.033609390258789
      ],
      [
        "▁صغار",
        -10.0336275100708
      ],
      [
        "▁كنتي",
        -10.034424781799316
      ],
      [
        "lh",
        -10.035257339477539
      ],
      [
        "▁ثانوي",
        -10.035757064819336
      ],
      [
        "▁معلومة",
        -10.035927772521973
      ],
      [
        "يته",
        -10.036100387573242
      ],
      [
        "طار",
        -10.0361909866333
      ],
      [
        "▁قليلا",
        -10.036355018615723
      ],
      [
        "▁بضحك",
        -10.036669731140137
      ],
      [
        "▁بمعنى",
        -10.036890983581543
      ],
      [
        "▁عمرها",
        -10.036942481994629
      ],
      [
        "▁mat",
        -10.037619590759277
      ],
      [
        "▁ماكانش",
        -10.037818908691406
      ],
      [
        "🤲🤲",
        -10.038005828857422
      ],
      [
        "▁العضو",
        -10.038640975952148
      ],
      [
        "▁الصالح",
        -10.038711547851562
      ],
      [
        "دون",
        -10.039162635803223
      ],
      [
        "▁محتواك",
        -10.039217948913574
      ],
      [
        "حفظ",
        -10.039239883422852
      ],
      [
        "▁💜",
        -10.039400100708008
      ],
      [
        "▁24",
        -10.040180206298828
      ],
      [
        "تل",
        -10.040379524230957
      ],
      [
        "▁الأمير",
        -10.040966033935547
      ],
      [
        "▁عاودت",
        -10.041090965270996
      ],
      [
        "▁يأتي",
        -10.041237831115723
      ],
      [
        "▁كثرلنا",
        -10.04221248626709
      ],
      [
        "▁وراء",
        -10.043181419372559
      ],
      [
        "▁dar",
        -10.043482780456543
      ],
      [
        "▁يدل",
        -10.043827056884766
      ],
      [
        "14",
        -10.044075012207031
      ],
      [
        "▁اخوتي",
        -10.044079780578613
      ],
      [
        "▁الموقع",
        -10.044156074523926
      ],
      [
        "جم",
        -10.044626235961914
      ],
      [
        "▁وكنت",
        -10.04476261138916
      ],
      [
        "▁تاعهم",
        -10.045037269592285
      ],
      [
        "دور",
        -10.045365333557129
      ],
      [
        "▁وجهك",
        -10.045430183410645
      ],
      [
        "▁بهم",
        -10.045733451843262
      ],
      [
        "▁تجربة",
        -10.045823097229004
      ],
      [
        "▁المكان",
        -10.046499252319336
      ],
      [
        "C",
        -10.047179222106934
      ],
      [
        "▁🤔",
        -10.047382354736328
      ],
      [
        "oo",
        -10.04774284362793
      ],
      [
        "▁الحفظ",
        -10.047893524169922
      ],
      [
        "▁خي",
        -10.048062324523926
      ],
      [
        "▁ممتازة",
        -10.04821491241455
      ],
      [
        "ۡ",
        -10.048406600952148
      ],
      [
        "▁بصحتك",
        -10.048418045043945
      ],
      [
        "Y",
        -10.048617362976074
      ],
      [
        "▁ردكس",
        -10.048788070678711
      ],
      [
        "si",
        -10.048981666564941
      ],
      [
        "▁يقتل",
        -10.048982620239258
      ],
      [
        "▁يمشي",
        -10.049051284790039
      ],
      [
        "F",
        -10.049198150634766
      ],
      [
        "▁كرهت",
        -10.049240112304688
      ],
      [
        "▁🙂💔",
        -10.049471855163574
      ],
      [
        "▁تقوم",
        -10.049612998962402
      ],
      [
        "▁خدمت",
        -10.049942016601562
      ],
      [
        "▁شرط",
        -10.050764083862305
      ],
      [
        "▁السلوان",
        -10.050858497619629
      ],
      [
        "عم",
        -10.050975799560547
      ],
      [
        "▁ث",
        -10.051283836364746
      ],
      [
        "▁اولاد",
        -10.051546096801758
      ],
      [
        "▁الاخر",
        -10.052398681640625
      ],
      [
        "▁فم",
        -10.05257797241211
      ],
      [
        "▁مدام",
        -10.052997589111328
      ],
      [
        "▁قالوا",
        -10.053239822387695
      ],
      [
        "tik",
        -10.053646087646484
      ],
      [
        "زل",
        -10.053747177124023
      ],
      [
        "▁كونت",
        -10.054083824157715
      ],
      [
        "▁غاية",
        -10.05409049987793
      ],
      [
        "زم",
        -10.0546293258667
      ],
      [
        "🇩🇿",
        -10.054691314697266
      ],
      [
        "▁والدينا",
        -10.055932998657227
      ],
      [
        "▁عالي",
        -10.056203842163086
      ],
      [
        "▁لحظة",
        -10.05655288696289
      ],
      [
        "▁وجعل",
        -10.056923866271973
      ],
      [
        "▁تونس",
        -10.057565689086914
      ],
      [
[...]
