<pad>	0
<unk>	0
<s>	0
</s>	0
<0x00>	0
<0x01>	0
<0x02>	0
<0x03>	0
<0x04>	0
<0x05>	0
<0x06>	0
<0x07>	0
<0x08>	0
<0x09>	0
<0x0A>	0
<0x0B>	0
<0x0C>	0
<0x0D>	0
<0x0E>	0
<0x0F>	0
<0x10>	0
<0x11>	0
<0x12>	0
<0x13>	0
<0x14>	0
<0x15>	0
<0x16>	0
<0x17>	0
<0x18>	0
<0x19>	0
<0x1A>	0
<0x1B>	0
<0x1C>	0
<0x1D>	0
<0x1E>	0
<0x1F>	0
<0x20>	0
<0x21>	0
<0x22>	0
<0x23>	0
<0x24>	0
<0x25>	0
<0x26>	0
<0x27>	0
<0x28>	0
<0x29>	0
<0x2A>	0
<0x2B>	0
<0x2C>	0
<0x2D>	0
<0x2E>	0
<0x2F>	0
<0x30>	0
<0x31>	0
<0x32>	0
<0x33>	0
<0x34>	0
<0x35>	0
<0x36>	0
<0x37>	0
<0x38>	0
<0x39>	0
<0x3A>	0
<0x3B>	0
<0x3C>	0
<0x3D>	0
<0x3E>	0
<0x3F>	0
<0x40>	0
<0x41>	0
<0x42>	0
<0x43>	0
<0x44>	0
<0x45>	0
<0x46>	0
<0x47>	0
<0x48>	0
<0x49>	0
<0x4A>	0
<0x4B>	0
<0x4C>	0
<0x4D>	0
<0x4E>	0
<0x4F>	0
<0x50>	0
<0x51>	0
<0x52>	0
<0x53>	0
<0x54>	0
<0x55>	0
<0x56>	0
<0x57>	0
<0x58>	0
<0x59>	0
<0x5A>	0
<0x5B>	0
<0x5C>	0
<0x5D>	0
<0x5E>	0
<0x5F>	0
<0x60>	0
<0x61>	0
<0x62>	0
<0x63>	0
<0x64>	0
<0x65>	0
<0x66>	0
<0x67>	0
<0x68>	0
<0x69>	0
<0x6A>	0
<0x6B>	0
<0x6C>	0
<0x6D>	0
<0x6E>	0
<0x6F>	0
<0x70>	0
<0x71>	0
<0x72>	0
<0x73>	0
<0x74>	0
<0x75>	0
<0x76>	0
<0x77>	0
<0x78>	0
<0x79>	0
<0x7A>	0
<0x7B>	0
<0x7C>	0
<0x7D>	0
<0x7E>	0
<0x7F>	0
<0x80>	0
<0x81>	0
<0x82>	0
<0x83>	0
<0x84>	0
<0x85>	0
<0x86>	0
<0x87>	0
<0x88>	0
<0x89>	0
<0x8A>	0
<0x8B>	0
<0x8C>	0
<0x8D>	0
<0x8E>	0
<0x8F>	0
<0x90>	0
<0x91>	0
<0x92>	0
<0x93>	0
<0x94>	0
<0x95>	0
<0x96>	0
<0x97>	0
<0x98>	0
<0x99>	0
<0x9A>	0
<0x9B>	0
<0x9C>	0
<0x9D>	0
<0x9E>	0
<0x9F>	0
<0xA0>	0
<0xA1>	0
<0xA2>	0
<0xA3>	0
<0xA4>	0
<0xA5>	0
<0xA6>	0
<0xA7>	0
<0xA8>	0
<0xA9>	0
<0xAA>	0
<0xAB>	0
<0xAC>	0
<0xAD>	0
<0xAE>	0
<0xAF>	0
<0xB0>	0
<0xB1>	0
<0xB2>	0
<0xB3>	0
<0xB4>	0
<0xB5>	0
<0xB6>	0
<0xB7>	0
<0xB8>	0
<0xB9>	0
<0xBA>	0
<0xBB>	0
<0xBC>	0
<0xBD>	0
<0xBE>	0
<0xBF>	0
<0xC0>	0
<0xC1>	0
<0xC2>	0
<0xC3>	0
<0xC4>	0
<0xC5>	0
<0xC6>	0
<0xC7>	0
<0xC8>	0
<0xC9>	0
<0xCA>	0
<0xCB>	0
<0xCC>	0
<0xCD>	0
<0xCE>	0
<0xCF>	0
<0xD0>	0
<0xD1>	0
<0xD2>	0
<0xD3>	0
<0xD4>	0
<0xD5>	0
<0xD6>	0
<0xD7>	0
<0xD8>	0
<0xD9>	0
<0xDA>	0
<0xDB>	0
<0xDC>	0
<0xDD>	0
<0xDE>	0
<0xDF>	0
<0xE0>	0
<0xE1>	0
<0xE2>	0
<0xE3>	0
<0xE4>	0
<0xE5>	0
<0xE6>	0
<0xE7>	0
<0xE8>	0
<0xE9>	0
<0xEA>	0
<0xEB>	0
<0xEC>	0
<0xED>	0
<0xEE>	0
<0xEF>	0
<0xF0>	0
<0xF1>	0
<0xF2>	0
<0xF3>	0
<0xF4>	0
<0xF5>	0
<0xF6>	0
<0xF7>	0
<0xF8>	0
<0xF9>	0
<0xFA>	0
<0xFB>	0
<0xFC>	0
<0xFD>	0
<0xFE>	0
<0xFF>	0
▁و	-3.88657
▁في	-4.2965
▁الله	-4.33943
▁من	-4.40264
▁	-4.78424
ه	-4.88572
ا	-4.88659
ي	-4.88843
ة	-4.92458
▁على	-4.98758
و	-5.08632
ك	-5.2032
▁ربي	-5.3011
ها	-5.34565
.	-5.35947
▁ما	-5.3869
]	-5.39766
▁[	-5.40252
▁لي	-5.40559
▁لا	-5.49018
MENTION	-5.5034
،	-5.5542
▁انا	-5.55751
▁ان	-5.69078
نا	-5.69209
ت	-5.71796
▁...	-5.76669
▁يا	-5.81437
▁،	-5.87341
ين	-5.89131
▁كل	-5.89314
هم	-5.91226
...	-5.92834
▁ب	-6.04752
ش	-6.06539
▁-	-6.07328
▁.	-6.08285
▁هذا	-6.09643
▁ولا	-6.10104
▁استاذ	-6.11513
ات	-6.13126
▁أن	-6.15378
▁ل	-6.19072
وا	-6.19213
▁شاء	-6.23287
▁ال	-6.26223
▁مع	-6.28291
3	-6.29907
▁غير	-6.31275
▁والله	-6.32308
▁شكرا	-6.35323
م	-6.35548
▁اللهم	-6.35786
▁❤	-6.36009
▁كي	-6.36827
▁هو	-6.37766
▁عن	-6.42505
ية	-6.43244
:	-6.44164
ني	-6.44276
▁:	-6.45838
▁تاع	-6.47651
▁وال	-6.47754
▁عليه	-6.50829
▁هه	-6.52796
▁يارب	-6.54064
▁عليكم	-6.54468
▁السلام	-6.55675
▁كان	-6.58264
▁فيك	-6.58674
▁بزاف	-6.58907
▁(	-6.60341
▁😂😂	-6.61265
▁ف	-6.62186
▁بصح	-6.63539
▁❤❤	-6.65201
▁؟	-6.65766
▁حتى	-6.6674
؟	-6.67399
ون	-6.67475
▁راني	-6.68497
▁لك	-6.70187
▁ا	-6.70957
كم	-6.71417
▁بارك	-6.71559
▁ت	-6.73862
▁او	-6.74663
▁بال	-6.75918
▁ي	-6.76608
▁لل	-6.76691
▁قال	-6.77009
▁لم	-6.77749
▁هي	-6.7951
▁واحد	-6.80745
❤	-6.81744
▁م	-6.82235
▁لله	-6.82316
▁3	-6.8294
▁كامل	-6.83569
ال	-6.84962
ن	-6.85673
▁كنت	-6.86465
▁فيديو	-6.8695
▁تع	-6.89766
)	-6.8992
▁"	-6.90666
▁خير	-6.92095
▁واش	-6.92605
▁عليك	-6.94454
▁هل	-6.94543
▁أو	-6.96309
▁باك	-6.96941
▁الباك	-6.97896
لي	-6.98663
▁😂	-7.01125
▁إن	-7.01226
s	-7.01319
▁ن	-7.02957
▁الا	-7.03232
▁بعد	-7.03365
▁فيها	-7.03449
▁الم	-7.05164
▁خويا	-7.06318
ى	-7.06434
▁راك	-7.0847
▁أ	-7.10434
▁فيه	-7.10482
▁هذه	-7.12413
▁يحفظك	-7.12684
▁أنا	-7.1339
▁لكن	-7.13676
9	-7.15629
❤❤	-7.17204
▁وين	-7.17948
▁قبل	-7.19524
▁هنا	-7.20422
▁إلى	-7.20463
▁له	-7.21805
▁باش	-7.23091
▁صح	-7.23192
7	-7.23247
a	-7.23469
▁كيما	-7.23656
▁عندي	-7.2375
▁التي	-7.24047
▁مي	-7.25513
▁يوم	-7.2552
▁بلي	-7.26826
▁انت	-7.27357
▁لولا	-7.27599
▁برك	-7.28062
▁وسلم	-7.3165
▁كاين	-7.3167
▁فال	-7.32007
'	-7.33389
▁عند	-7.33408
وش	-7.33969
ان	-7.34174
😂😂	-7.346
▁الذي	-7.35143
▁يكون	-7.35394
ل	-7.35822
▁شكون	-7.36728
▁رب	-7.37188
▁ادعولي	-7.37688
لك	-7.3852
▁؟؟	-7.39428
▁وي	-7.39589
تي	-7.39924
▁ام	-7.40772
▁بين	-7.41026
😂	-7.4132
▁الجزائر	-7.41502
,	-7.41549
▁كانت	-7.42121
▁الفيديو	-7.42506
▁كيف	-7.42871
▁راه	-7.43212
ر	-7.43567
▁اي	-7.43899
▁الى	-7.44212
؟؟	-7.45267
▁اخي	-7.45726
▁الناس	-7.46149
ب	-7.46291
e	-7.46764
▁صلى	-7.47151
▁خيرا	-7.47777
▁بن	-7.48137
▁كما	-7.48212
▁ماشي	-7.48879
▁l	-7.50831
▁w	-7.51321
▁راح	-7.51377
▁اختي	-7.51464
▁محمد	-7.52
ته	-7.52517
▁قصة	-7.5278
▁دير	-7.53926
k	-7.54015
▁اذا	-7.54903
▁تكون	-7.54993
▁😢	-7.55375
t	-7.55786
▁يعني	-7.55803
▁أستاذ	-7.56095
▁به	-7.56379
▁وش	-7.56577
▁فضلك	-7.5679
▁ذلك	-7.57389
▁لازم	-7.57418
▁)	-7.57607
▁مت	-7.57658
▁امين	-7.57713
▁فقط	-7.58273
▁رضا	-7.58509
▁2	-7.59537
▁يعطيك	-7.60298
ف	-7.60403
▁نتا	-7.60555
▁إلا	-7.60558
اء	-7.60985
تك	-7.62169
▁وانا	-7.62263
ما	-7.62506
▁اليوم	-7.6261
تها	-7.62848
▁عندك	-7.6308
▁عليها	-7.63429
▁افضل	-7.65095
▁سلام	-7.65501
▁الحمد	-7.66079
i	-7.66188
▁ياربي	-7.6622
▁علاه	-7.66723
"	-7.6691
▁الي	-7.66937
▁مش	-7.68404
▁نجيب	-7.68729
لو	-7.68947
▁لو	-7.69439
▁وت	-7.69659
▁أخي	-7.69788
▁يبارك	-7.69817
▁قصص	-7.69873
▁ختي	-7.69983
▁الف	-7.70436
لنا	-7.7089
▁بك	-7.71842
▁بل	-7.71867
▁حاجة	-7.71889
▁ديرلنا	-7.72187
▁رانا	-7.72388
▁جزاك	-7.73158
د	-7.74008
▁خاوتي	-7.74273
▁الخير	-7.74319
▁مرة	-7.74599
▁حنا	-7.75191
o	-7.75727
▁la	-7.75937
-	-7.76887
▁نفس	-7.77435
▁اللي	-7.77865
▁ورحمة	-7.78052
▁لنا	-7.78261
▁اول	-7.78981
▁قد	-7.80362
▁هاد	-7.81073
▁العالمين	-7.81245
▁ثم	-7.81832
يا	-7.81924
▁ليس	-7.81991
▁ومن	-7.8214
▁هذي	-7.83405
▁وم	-7.84544
▁وربي	-7.84715
▁وما	-7.85304
▁الصحة	-7.85568
▁علينا	-7.86335
س	-7.86343
▁علي	-7.87045
▁ممكن	-7.872
▁عام	-7.87467
d	-7.88139
▁ta	-7.884
▁مليح	-7.89087
▁ون	-7.89123
▁العام	-7.89401
▁الجنة	-7.89765
▁إذا	-7.89987
5	-7.90116
▁شيء	-7.90244
▁عبد	-7.90336
m	-7.90451
▁جدا	-7.9151
▁تعالى	-7.9178
▁,	-7.92309
▁نحبك	-7.92568
2	-7.92897
▁*	-7.92985
▁لها	-7.93093
▁وليد	-7.93295
من	-7.93326
h	-7.93758
▁بالمثل	-7.9399
1	-7.94099
▁بعض	-7.9449
▁بالله	-7.94615
▁حكاية	-7.9471
▁والو	-7.94862
▁a	-7.95578
la	-7.95879
▁قلت	-7.95942
▁تاعك	-7.95957
y	-7.96607
😢	-7.97144
▁أم	-7.97537
▁نعم	-7.97815
▁القصة	-7.98073
▁هدا	-7.98396
ع	-7.98472
▁ناس	-7.99065
▁البكالوريا	-7.99579
▁انشاء	-7.99816
▁وهو	-8.00036
▁باه	-8.00235
▁كيفاش	-8.0042
▁ولكن	-8.00534
▁9	-8.00888
▁معاك	-8.01275
▁1	-8.01906
▁de	-8.01983
▁إ	-8.02223
▁كون	-8.02348
▁لباك	-8.02399
▁قاع	-8.02408
في	-8.02778
▁ندي	-8.02809
▁دار	-8.02846
▁رسول	-8.02895
▁m	-8.02988
▁يوفقك	-8.03301
▁مشي	-8.03549
▁راهي	-8.03577
وه	-8.03589
▁راجعون	-8.03617
▁شحال	-8.03937
▁les	-8.04379
▁f	-8.05625
▁اني	-8.05811
▁ك	-8.05824
▁وبركاته	-8.0595
▁الكريم	-8.06149
▁5	-8.06472
▁وأ	-8.06772
▁ماشاء	-8.06843
▁t	-8.07524
▁كيفاه	-8.07621
▁بها	-8.07626
l	-8.07651
▁بلا	-8.07739
▁بزااف	-8.08157
▁منها	-8.08201
n	-8.08281
▁رمضان	-8.09187
▁سنة	-8.0927
▁ولكم	-8.09384
▁2025	-8.09535
▁وكل	-8.09632
▁كمل	-8.09756
▁شعبة	-8.10014
▁أي	-8.11001
يه	-8.11083
▁وفي	-8.1127
▁مات	-8.11291
▁ندير	-8.11661
تش	-8.11666
يش	-8.1193
▁نشوف	-8.1196
لا	-8.11994
▁استاذة	-8.12185
▁وقت	-8.1226
4	-8.12303
▁ابن	-8.132
r	-8.13241
▁عليهم	-8.1337
▁الموضوع	-8.13668
▁تاني	-8.13774
▁جا	-8.13823
▁آمين	-8.13879
▁😊	-8.14166
▁فل	-8.14225
لها	-8.14596
▁جام	-8.14765
f	-8.15118
▁يقول	-8.15205
▁جديد	-8.1543
▁يحفضك	-8.1555
▁وحدة	-8.15718
▁وان	-8.15875
▁+	-8.16105
▁😢😢	-8.1614
▁معدل	-8.16458
▁يرحم	-8.16805
▁تقول	-8.16815
▁المنتدى	-8.17432
▁روحي	-8.17886
▁جميع	-8.17984
▁لكم	-8.18082
▁نهار	-8.18214
▁ينجحنا	-8.18503
▁❤️	-8.19036
تنا	-8.19271
▁عليا	-8.19311
▁n	-8.19347
▁الوقت	-8.19398
▁راهم	-8.19645
▁راكي	-8.19907
▁هاذي	-8.20048
▁أنت	-8.20795
b	-8.20965
▁ميزان	-8.21877
▁7	-8.22462
▁الجن	-8.22652
_	-8.23478
▁ma	-8.23579
▁لما	-8.23811
▁الحق	-8.23843
▁4	-8.23973
▁سؤال	-8.24098
▁مرحبا	-8.24238
▁العظيم	-8.2437
▁مثل	-8.24397
▁هناك	-8.24412
ج	-8.24602
▁اليه	-8.24723
▁اكثر	-8.24734
▁كتاب	-8.24735
▁مزال	-8.24809
▁تحت	-8.24823
▁صباح	-8.24902
▁10	-8.24933
w	-8.25294
▁محتوى	-8.25348
▁طريقة	-8.25361
▁وشكرا	-8.25385
▁يدير	-8.25417
▁😅	-8.25664
▁شفت	-8.26056
تو	-8.26127
▁زوج	-8.26133
▁شهادة	-8.2625
▁هادي	-8.26453
▁لن	-8.26701
ربي	-8.27161
▁تحياتي	-8.27232
▁النبي	-8.27273
▁كلش	-8.27608
c	-8.2812
▁مام	-8.28307
وها	-8.28504
▁إليه	-8.28769
▁ya	-8.28975
▁نتاع	-8.29129
▁كثيرا	-8.29155
▁2026	-8.29465
ح	-8.29979
▁لكل	-8.29987
p	-8.30033
▁رعب	-8.30146
6	-8.30476
▁سي	-8.30666
▁عندو	-8.30678
z	-8.30774
▁نقرا	-8.30861
▁رحمة	-8.31044
g	-8.3108
▁عنه	-8.3127
😊	-8.31352
▁بالتوفيق	-8.31361
▁نشالله	-8.31389
▁المهم	-8.31545
▁العلم	-8.31597
▁y	-8.3196
▁عادي	-8.31975
▁خو	-8.32162
ق	-8.32183
▁يت	-8.32403
▁قلبي	-8.3264
وني	-8.32869
▁علاش	-8.32967
ط	-8.33409
ز	-8.33437
ص	-8.34122
▁حبيت	-8.34463
j	-8.34735
▁المسلمين	-8.34908
▁أفضل	-8.35051
▁مبروك	-8.35133
▁العالم	-8.35361
▁أختي	-8.35388
▁خاصة	-8.35401
8	-8.35489
▁🤲	-8.35571
▁ديرنا	-8.35632
▁نت	-8.36038
▁ثاني	-8.36173
▁شعر	-8.36249
▁النجاح	-8.36375
▁شيخ	-8.36433
▁le	-8.37044
▁هاذ	-8.37107
▁تم	-8.37412
▁نتي	-8.37617
▁الشعر	-8.37825
▁اسم	-8.37926
(	-8.38062
▁بمعدل	-8.38151
▁الثاني	-8.38714
▁الت	-8.38788
▁با	-8.38822
▁شرح	-8.38964
▁استاد	-8.39183
▁الدنيا	-8.39497
▁القصص	-8.39497
▁نتفرج	-8.39515
▁16	-8.39867
▁الأ	-8.39996
▁جزيلا	-8.40348
▁حبيبتي	-8.40412
▁العباسية	-8.40913
▁ننجح	-8.40992
▁الشيخ	-8.41014
يت	-8.41019
▁الصبر	-8.41143
na	-8.41149
▁روح	-8.41679
ha	-8.41725
▁العربية	-8.41764
▁الدين	-8.41841
▁سبحان	-8.42024
▁حسناتك	-8.42107
▁15	-8.42184
x	-8.42249
▁حول	-8.42345
▁يوفقنا	-8.42347
▁ماي	-8.42385
v	-8.42564
▁موضوع	-8.42705
▁نحن	-8.42882
▁جيت	-8.42903
يات	-8.42997
▁the	-8.43317
/	-8.43446
لهم	-8.43617
▁نشاله	-8.43782
▁li	-8.44105
▁القرآن	-8.44114
▁🙂	-8.44261
URL	-8.44287
ار	-8.44381
ير	-8.44567
▁ولي	-8.44568
▁هم	-8.44666
▁احسن	-8.44901
▁hh	-8.44983
▁b	-8.45108
▁قوة	-8.45287
▁درت	-8.45408
▁أنه	-8.45729
▁سيبيا	-8.46091
▁تت	-8.46111
ch	-8.46123
▁الصلاة	-8.4614
▁you	-8.46155
▁🤣🤣	-8.46199
▁جماعة	-8.46243
▁هكا	-8.46329
▁علا	-8.46846
u	-8.46996
▁بديت	-8.47033
آ	-8.47192
▁بما	-8.47436
▁17	-8.47564
▁روعة	-8.47622
▁أكثر	-8.47653
▁2024	-8.4789
▁الان	-8.47947
▁مكان	-8.48239
▁لأن	-8.49146
▁الحياة	-8.4918
▁نقدر	-8.49362
▁دعولي	-8.49384
▁نص	-8.4943
▁فا	-8.49546
أ	-8.49749
▁وعلى	-8.49886
▁حكايات	-8.49963
*	-8.50029
▁لوكان	-8.50057
▁et	-8.50369
▁كبير	-8.50397
▁فلا	-8.50426
▁اما	-8.5045
تني	-8.51039
ور	-8.5126
▁الاول	-8.51281
▁شهر	-8.51309
▁لالا	-8.51321
▁حاب	-8.51402
▁شي	-8.51406
▁‪	-8.51433
▁حل	-8.51612
▁والم	-8.5168
▁فيهم	-8.51999
▁بيه	-8.52218
▁وحد	-8.52352
▁حق	-8.52885
▁راكليطة	-8.53175
😅	-8.53263
▁غي	-8.53543
▁بنت	-8.53551
q	-8.53764
▁I	-8.5394
▁السؤال	-8.53987
▁علوم	-8.54026
▁/	-8.54172
▁دعوة	-8.54218
خ	-8.54291
▁بإذن	-8.54327
▁راهو	-8.54478
▁اخر	-8.54495
▁بيها	-8.54537
▁لان	-8.54593
▁يجي	-8.54857
▁بيك	-8.55077
▁c	-8.55128
غ	-8.55205
▁فسيح	-8.55239
▁معليش	-8.55265
▁الشعب	-8.55593
ولي	-8.55599
▁يمكن	-8.55658
▁شخص	-8.55735
تهم	-8.56005
▁اهلا	-8.56308
▁كلمة	-8.56896
▁بليز	-8.5696
▁نحب	-8.57067
▁منهم	-8.57224
▁إنا	-8.579
▁وهي	-8.57971
❤️	-8.58222
▁اللغة	-8.58566
▁آخر	-8.58739
▁ايه	-8.58831
▁مكانش	-8.59164
▁حابة	-8.59556
▁دائما	-8.5972
يين	-8.60239
▁!	-8.60253
▁حال	-8.60309
ذ	-8.60334
▁عمري	-8.60407
▁‬	-8.60623
▁ليك	-8.60647
▁سمعت	-8.611
▁🤲🏻	-8.6111
▁صحيح	-8.61237
▁الكتاب	-8.61374
▁بكل	-8.61723
▁تعرف	-8.61783
▁ولاية	-8.61793
▁سيدنا	-8.61819
▁نقول	-8.61898
▁ول	-8.62448
▁روحك	-8.62598
▁فوق	-8.62621
▁نتمنى	-8.62728
▁نعرف	-8.62789
يك	-8.62848
▁زيد	-8.63046
▁قناة	-8.63197
▁ولله	-8.63464
▁انك	-8.63521
▁يجازيك	-8.63574
▁دروس	-8.63676
▁بالنسبة	-8.63778
ra	-8.63836
وك	-8.63927
ث	-8.64095
▁كثر	-8.64141
▁d	-8.64217
▁18	-8.64347
اب	-8.64406
▁الذين	-8.65362
▁أهل	-8.65596
▁رائع	-8.65687
وم	-8.65746
▁هوما	-8.65814
▁أهلا	-8.66191
▁انو	-8.66206
▁ولم	-8.66422
▁وهذا	-8.66503
▁معايا	-8.66642
ض	-8.6675
▁بي	-8.66867
al	-8.6691
▁ماما	-8.66938
li	-8.67017
😭	-8.67041
▁ana	-8.67045
▁س	-8.67502
▁6	-8.67662
▁است	-8.6779
▁شباب	-8.67796
▁fi	-8.67807
▁ع	-8.68022
▁دون	-8.68256
▁ماذا	-8.68315
▁فات	-8.68387
▁الحكاية	-8.68445
▁لهم	-8.68506
▁صوت	-8.68555
ـ	-8.68765
▁رحمه	-8.68793
▁وبارك	-8.68928
▁تعيش	-8.68983
!	-8.69023
▁يجب	-8.69033
يد	-8.69167
▁بكالوريا	-8.69288
▁الرحمن	-8.69556
▁تحكي	-8.69864
▁درس	-8.69896
▁ساعة	-8.69989
▁عندما	-8.70002
▁ليوم	-8.70008
🙂	-8.70193
▁نسمع	-8.70409
😢😢	-8.70424
▁مليون	-8.70515
er	-8.70563
له	-8.70699
▁رضي	-8.70814
▁طيبة	-8.70944
▁أما	-8.71031
▁اتمنى	-8.71174
▁جديدة	-8.71314
▁مر	-8.71404
▁عمر	-8.71457
▁ست	-8.71535
▁ياخو	-8.72018
▁😭😭	-8.72138
▁ياارب	-8.7221
▁عندها	-8.72542
▁شوية	-8.7295
▁!!	-8.73255
▁الدار	-8.74239
▁الرعب	-8.74375
▁ايا	-8.74446
▁بخير	-8.74457
▁وب	-8.74694
انا	-8.74871
▁كم	-8.74996
ونا	-8.7508
▁منك	-8.75086
▁شابة	-8.75126
▁شكراا	-8.75201
▁انه	-8.75303
ظ	-8.75734
▁وليت	-8.75779
دي	-8.75849
▁شوي	-8.76467
▁تدي	-8.7656
ام	-8.76633
▁شاءلله	-8.76646
▁فرحة	-8.76702
▁السنة	-8.76865
▁معانا	-8.76867
▁فيكم	-8.77019
▁حيث	-8.77072
▁مقترحات	-8.7731
▁يحب	-8.77392
▁فهمت	-8.77726
▁بدون	-8.77852
▁طريق	-8.7802
+	-8.78237
▁فيديوهات	-8.78277
▁12	-8.78296
▁علم	-8.78319
▁وإن	-8.78489
ou	-8.78769
▁😭	-8.78774
▁لقيت	-8.78956
▁نورمال	-8.79048
▁وعليكم	-8.79806
▁العمل	-8.80131
▁كاش	-8.80173
▁خوتي	-8.80237
▁كبيرة	-8.80429
▁تقدر	-8.80507
▁بسم	-8.80613
يل	-8.80814
▁انسان	-8.8116
ء	-8.81367
▁فلسطين	-8.8138
▁صل	-8.81773
▁هيا	-8.81798
▁حسب	-8.82061
▁14	-8.82154
وي	-8.82166
▁راكم	-8.82193
ينا	-8.823
▁يعرف	-8.8234
▁سورة	-8.8236
▁دخلت	-8.82904
▁20	-8.82917
▁أحد	-8.82929
▁لايك	-8.82968
▁A	-8.8318
▁اله	-8.83231
▁جات	-8.83286
▁لت	-8.83297
▁‏	-8.83319
▁ديري	-8.83357
▁قريب	-8.83522
▁وحدي	-8.83524
▁الإ	-8.83615
▁جن	-8.83673
▁19	-8.83921
▁الجزء	-8.84121
▁وقال	-8.84179
اد	-8.84239
ma	-8.84292
▁تاعي	-8.84386
▁للم	-8.84398
اك	-8.84457
▁هاذا	-8.84481
▁زعما	-8.84558
▁وقد	-8.84564
▁خلاص	-8.84632
▁الليل	-8.84784
▁عجبتني	-8.84795
▁جميل	-8.8483
▁مثلا	-8.84894
ئ	-8.84948
▁حساب	-8.85109
▁جميعا	-8.85114
اس	-8.85244
▁=	-8.85284
▁محل	-8.85535
▁عودة	-8.85643
ول	-8.85655
▁هكذا	-8.85797
▁أول	-8.86097
▁بابا	-8.86098
▁شعب	-8.86267
▁وليس	-8.8639
▁تجي	-8.86516
▁الوكيل	-8.86824
▁القلب	-8.8692
▁هذاك	-8.86935
الله	-8.87108
▁فإن	-8.87117
▁الن	-8.87179
▁عندنا	-8.87233
▁القمة	-8.87391
▁مواضيع	-8.87453
▁تعليق	-8.87461
▁دخل	-8.87502
▁ou	-8.87828
▁بركاته	-8.88237
▁هدي	-8.88379
▁الفاضل	-8.88522
▁S	-8.88565
رة	-8.88771
▁عدد	-8.88786
▁تحية	-8.89725
▁أبي	-8.89825
▁وانت	-8.89851
▁لقد	-8.89868
▁تاريخ	-8.899
▁فعل	-8.90785
▁رح	-8.908
▁مكاش	-8.90854
▁الجزائري	-8.9108
هاش	-8.91313
▁رائعة	-8.91387
▁ولد	-8.91481
▁الكثير	-8.91732
▁M	-8.91785
لة	-8.91786
▁فقد	-8.92006
▁مان	-8.92023
▁ني	-8.92055
▁تعيشي	-8.92095
▁نموت	-8.92107
✨	-8.92113
▁تحب	-8.92129
▁شر	-8.92132
▁ينجحك	-8.92286
▁الجلفة	-8.92463
▁أخرى	-8.9249
▁يرحمها	-8.92523
▁قول	-8.92523
▁ابوني	-8.92654
▁رد	-8.92662
▁8	-8.92829
in	-8.9285
▁تحيا	-8.92858
▁نروح	-8.92929
جي	-8.92944
▁جد	-8.93278
▁حرام	-8.93305
▁العربي	-8.93405
مة	-8.93528
▁🇩🇿	-8.93731
تم	-8.9377
▁سلم	-8.93804
▁ايام	-8.93927
▁مازال	-8.93935
▁حتا	-8.93971
	-8.94063
▁مشاء	-8.94065
▁تخوف	-8.94093
▁هادا	-8.94388
▁مليحة	-8.94391
▁بش	-8.94415
▁وأن	-8.94702
▁تجيب	-8.94782
▁طول	-8.94873
▁المشكل	-8.94885
▁الخ	-8.94899
▁مستجابة	-8.95047
re	-8.95238
▁أمين	-8.95317
▁جامي	-8.95895
▁كنا	-8.95929
▁نفسي	-8.95999
▁j	-8.96061
▁ألف	-8.96083
▁تن	-8.96134
ed	-8.96147
▁معا	-8.96169
بي	-8.96268
️	-8.96269
▁s	-8.96287
▁ذكر	-8.96291
▁مشكل	-8.9639
▁ڨاع	-8.96401
▁😍	-8.96409
▁حب	-8.96437
🤲	-8.96497
▁اخرى	-8.9654
▁ونعم	-8.96554
▁شوف	-8.96575
▁ولو	-8.96666
▁تشوف	-8.96785
▁رحت	-8.96791
▁قلب	-8.96861
▁🎉	-8.96966
▁بلييز	-8.96988
▁#	-8.97042
▁ليلة	-8.97154
▁عل	-8.97236
▁قريت	-8.97374
▁كن	-8.97458
▁وكان	-8.97521
▁40	-8.97528
▁❤️❤️	-8.97671
ناش	-8.97816
▁ج	-8.97837
▁لانو	-8.97888
▁to	-8.97913
بل	-8.98006
▁اريد	-8.98133
▁شكر	-8.98234
▁قسم	-8.98265
💔	-8.98363
▁عز	-8.9841
▁باقي	-8.98607
▁نبدا	-8.98612
▁✨	-8.98652
عة	-8.98655
؛	-8.9874
▁التوفيق	-8.98833
▁نوع	-8.98934
▁مين	-8.98999
▁راجل	-8.99033
▁كانو	-8.99072
ود	-8.99084
ست	-8.99109
▁T	-8.99246
▁معاه	-8.99254
▁ص	-8.99284
▁حياتك	-8.99289
هل	-8.99348
▁?	-8.99379
!!	-8.99383
▁تهدر	-8.99455
▁مسلم	-8.99459
▁رغم	-8.99539
▁حياتي	-8.9965
▁وفلسفة	-8.99723
▁والسلام	-8.99725
▁تعليقي	-8.99738
▁جزء	-8.99779
▁شا	-8.99841
▁لفيديو	-8.9999
▁الرد	-8.99997
▁اعلم	-9.00043
▁صحا	-9.00047
▁الحل	-9.00155
▁عمل	-9.00189
ري	-9.00307
▁بلاك	-9.00387
▁جميلة	-9.0053
▁لمن	-9.00606
▁فكرة	-9.00718
▁الاستاذ	-9.00731
’	-9.00742
▁يوجد	-9.00779
▁L	-9.00782
▁الأول	-9.00923
▁الجميع	-9.01339
ak	-9.01565
رت	-9.0179
▁ر	-9.01921
▁عين	-9.0196
▁قل	-9.02022
▁لينا	-9.0204
=	-9.02074
▁بم	-9.02235
▁i	-9.02283
ni	-9.02283
مي	-9.02372
▁شاءالله	-9.02436
▁ايضا	-9.02522
▁يرزقك	-9.02682
▁واصل	-9.02722
▁والا	-9.02872
▁سن	-9.02889
▁عندهم	-9.02916
▁غريب	-9.03021
اش	-9.03092
▁الدعاء	-9.03179
▁باذن	-9.03209
▁والديك	-9.03241
▁ki	-9.03284
▁كتب	-9.0329
▁الإسلام	-9.03479
▁رقم	-9.03582
▁دي	-9.03634
▁ها	-9.03655
▁لعزيز	-9.03791
▁اا	-9.03794
▁video	-9.03799
▁بكري	-9.039
▁هذو	-9.04019
▁نور	-9.04072
▁الدروس	-9.04079
اللهم	-9.04254
▁نصيحة	-9.04409
▁سبب	-9.04578
▁خوف	-9.04581
▁يجيب	-9.04592
est	-9.04628
▁كلام	-9.04669
▁نفسه	-9.04787
▁نا	-9.05077
▁عمي	-9.05099
?	-9.05224
▁ديت	-9.0528
▁لكي	-9.05371
▁bac	-9.05379
▁ريضا	-9.05416
▁صغير	-9.05478
▁اداب	-9.05589
را	-9.05639
▁je	-9.05673
▁سلسلة	-9.05704
▁نفهم	-9.05727
▁خاص	-9.05798
▁منه	-9.06058
▁خفت	-9.06081
es	-9.06102
▁القناة	-9.06307
يلي	-9.06368
كي	-9.06414
▁«	-9.06565
▁😅😅	-9.0666
▁وجزاك	-9.06709
▁يخليك	-9.06769
▁ملي	-9.06893
اتك	-9.06945
▁اغفر	-9.06975
🎉	-9.07164
▁ليست	-9.07173
▁ربما	-9.07261
▁تاعو	-9.07391
▁لحكاية	-9.07436
▁المغرب	-9.0756
▁اكبر	-9.07563
▁معنا	-9.07667
▁الع	-9.07718
▁داير	-9.07725
▁البيت	-9.0791
▁شاف	-9.07965
▁رجل	-9.07979
▁🤲🤲	-9.08114
▁النار	-9.08172
▁مفهمتش	-9.08198
▁ولكل	-9.08249
▁بسبب	-9.08442
وهم	-9.08591
▁راكليطا	-9.08628
▁باينة	-9.08709
▁أتمنى	-9.08857
اني	-9.08985
▁المرأة	-9.09044
▁فهو	-9.09093
▁ديما	-9.09098
▁مال	-9.09276
▁te	-9.09289
▁قالت	-9.0932
▁اليوتيوب	-9.09348
ؤ	-9.09458
▁🤍	-9.09489
▁الحقيقة	-9.0965
▁يدي	-9.09713
وس	-9.09799
▁ش	-9.09856
▁لول	-9.09879
▁أيضا	-9.09911
كل	-9.0995
▁هاذو	-9.09965
▁نديرو	-9.10094
▁B	-9.1011
▁اجمعين	-9.10231
▁el	-9.10341
▁حي	-9.10417
▁en	-9.10565
▁طلب	-9.10831
لكم	-9.10835
▁نجيبو	-9.10899
▁بالم	-9.10931
▁نسيت	-9.10962
▁صغيرة	-9.10976
▁لغات	-9.11018
▁جزائري	-9.11097
▁ريدكس	-9.11144
😍	-9.1115
ti	-9.11224
▁ننجحو	-9.11269
▁شيكور	-9.11301
▁هادو	-9.11373
▁اصلا	-9.11396
ek	-9.11421
▁دعواتكم	-9.11465
▁C	-9.11469
اه	-9.1169
▁دراهم	-9.11731
▁تعلم	-9.11783
▁بأن	-9.11925
▁صاحب	-9.12032
▁وزيد	-9.12087
▁2023	-9.12355
▁ندخل	-9.12513
▁تلك	-9.1265
▁عربية	-9.1265
▁الصح	-9.12744
سي	-9.12763
é	-9.12883
▁الادب	-9.13123
ad	-9.13142
▁حسن	-9.13252
▁فى	-9.1326
▁لماذا	-9.1334
يها	-9.13387
▁🎉🎉	-9.13595
▁_	-9.13606
▁in	-9.1365
▁13	-9.13852
▁للجميع	-9.1387
▁يدخل	-9.13873
▁ادا	-9.13886
▁pour	-9.13926
▁and	-9.13969
يب	-9.13992
▁ديرو	-9.14344
▁الرجل	-9.14442
▁منا	-9.14444
▁نفسك	-9.14463
▁منذ	-9.14478
▁التعليق	-9.14515
▁أستاذة	-9.14526
▁مل	-9.14556
at	-9.14591
▁كثير	-9.14621
▁فضلكم	-9.14685
▁ارجو	-9.14924
▁حر	-9.14949
ya	-9.15127
▁الخوف	-9.15209
▁خاطر	-9.15299
▁الحديث	-9.15371
▁أعلم	-9.15741
▁يفرحك	-9.16042
▁نتوما	-9.16045
▁خلال	-9.16091
▁لدي	-9.16113
▁للباك	-9.1612
▁ممتاز	-9.1613
▁الثانية	-9.16141
▁باب	-9.16173
▁عدم	-9.16193
▁الجزائرية	-9.16207
بة	-9.16229
بر	-9.1623
▁فديو	-9.16356
▁is	-9.16417
▁الرسول	-9.1673
▁قمة	-9.16795
▁فهم	-9.16846
▁النص	-9.16879
▁لأ	-9.16888
▁عنها	-9.16913
يس	-9.16966
دة	-9.16967
▁توحشناك	-9.16972
▁💔	-9.17093
▁نسقسيك	-9.1711
▁نكون	-9.17171
▁وكي	-9.17206
وب	-9.17219
▁يشوف	-9.17221
▁طفلة	-9.17252
▁جاء	-9.17308
▁خلق	-9.17371
اج	-9.17372
▁غدوة	-9.17579
اح	-9.17602
▁اهل	-9.1768
▁بيهم	-9.17733
▁الشكر	-9.17762
بو	-9.17834
▁سا	-9.17945
▁تقبل	-9.18022
▁rabi	-9.18026
ولا	-9.18156
▁د	-9.18253
▁الإنسان	-9.18403
▁يهدر	-9.18415
▁هايل	-9.18446
▁مبارك	-9.18487
▁جبت	-9.18489
ing	-9.18537
هن	-9.1858
ta	-9.18683
▁الرحيم	-9.1879
▁Hhh	-9.1882
▁جملة	-9.18875
▁الآن	-9.18955
▁11	-9.18965
قة	-9.18969
▁كذلك	-9.18988
da	-9.19092
▁حرة	-9.19103
▁مما	-9.19325
▁صالح	-9.1933
▁قادة	-9.19334
▁🥺	-9.1969
▁شغل	-9.1976
▁هاك	-9.19858
▁des	-9.20015
M	-9.20073
▁الاسلام	-9.20141
🤍	-9.20204
🥺	-9.2021
▁wlh	-9.20217
لت	-9.20243
▁تولي	-9.20351
تين	-9.20473
▁الاسئلة	-9.20489
▁سحر	-9.20502
▁نفرح	-9.20559
▁عنده	-9.21311
▁تدخل	-9.2138
▁sa	-9.21392
▁ناجحين	-9.21452
▁وسهلا	-9.21459
😭😭	-9.21521
▁😊😊	-9.21932
▁يرحمو	-9.22001
همش	-9.22005
يم	-9.22031
▁الاولى	-9.22129
▁خرج	-9.22143
▁صراحة	-9.2219
▁سنين	-9.22594
▁بلادي	-9.22617
▁معاكم	-9.22636
▁لهذا	-9.22657
▁انتي	-9.22879
▁قدر	-9.22971
▁الطريقة	-9.2302
▁تخرج	-9.23149
▁حفظ	-9.23181
▁لعام	-9.23269
▁دقيقة	-9.23312
▁nta	-9.23357
▁حد	-9.23363
▁السحر	-9.23537
الم	-9.23676
▁احد	-9.23778
▁طيب	-9.2379
ar	-9.23862
حب	-9.2394
▁بس	-9.24028
قت	-9.24073
با	-9.24146
▁نعاود	-9.24194
▁المجهر	-9.24301
▁عالم	-9.24459
▁صورة	-9.24542
▁الانسان	-9.24659
▁الأمر	-9.24732
▁نشاء	-9.24956
▁😍😍	-9.2496
▁وجه	-9.24975
▁النهار	-9.25026
▁فما	-9.25064
▁بو	-9.2508
▁المت	-9.25095
▁تبارك	-9.25178
▁باسكو	-9.25198
▁الباب	-9.25298
am	-9.25486
▁الب	-9.25498
▁الكلام	-9.25638
▁que	-9.25751
▁علاقة	-9.25821
▁me	-9.25962
▁الحال	-9.25991
▁رحم	-9.26109
وت	-9.26113
▁فلسفة	-9.26227
💗	-9.26432
▁أحسن	-9.26441
▁أبو	-9.26557
▁شويا	-9.26715
جر	-9.26749
▁حديث	-9.26758
▁حين	-9.26767
وف	-9.26861
نة	-9.26934
▁W	-9.26969
▁بنات	-9.27061
▁pas	-9.27127
▁Bac	-9.27173
▁روطار	-9.27262
نى	-9.27363
▁داخل	-9.27488
▁أمر	-9.27541
رو	-9.2761
▁وهل	-9.27708
▁حكم	-9.27745
▁انها	-9.27818
جد	-9.27915
▁أكبر	-9.27927
▁سهلا	-9.28053
▁العرب	-9.28084
▁الأرض	-9.28128
▁أنك	-9.28267
▁التاريخ	-9.2836
▁اين	-9.28372
▁مهم	-9.284
▁واحدة	-9.28429
▁بهذا	-9.28517
▁فقال	-9.286
di	-9.28712
يف	-9.28784
el	-9.28908
▁wa	-9.28914
▁واه	-9.28987
▁{	-9.28988
فا	-9.29002
▁redx	-9.29086
در	-9.29118
▁الثورة	-9.29167
▁كريم	-9.29258
▁فأ	-9.29297
▁حالة	-9.29299
▁يديرو	-9.29328
▁ليا	-9.29405
▁mn	-9.29423
▁فت	-9.29424
▁ركليطة	-9.29433
▁الموت	-9.29447
قال	-9.29495
لم	-9.29563
▁نخدم	-9.29783
▁صلاة	-9.29811
▁مرت	-9.29845
▁ga	-9.29886
▁مرا	-9.2993
▁سيد	-9.30367
▁هذيك	-9.30379
▁الكريمة	-9.30521
▁بدا	-9.30533
▁وراني	-9.30541
▁سنوات	-9.30576
▁100	-9.30668
صر	-9.30704
▁دا	-9.30713
🤣🤣	-9.30719
▁المحتوى	-9.30741
▁Ya	-9.30817
▁معنى	-9.31039
▁تستاهل	-9.31177
دا	-9.31209
▁وإنا	-9.31257
▁واو	-9.3135
▁vidéo	-9.31381
▁آل	-9.31447
▁ينجح	-9.31489
▁الباكالوريا	-9.31688
رد	-9.31777
▁قادر	-9.31901
▁قلبك	-9.31974
▁حقا	-9.31975
بت	-9.31994
te	-9.32125
▁هك	-9.3213
▁طفل	-9.3216
ri	-9.32171
▁سأ	-9.32197
▁الدرس	-9.3231
▁سوف	-9.32418
ــ	-9.3248
▁نحس	-9.32503
▁الطيب	-9.32527
▁يجعل	-9.32529
▁يحفظكم	-9.32647
▁H	-9.32664
▁اجل	-9.32672
▁المواضيع	-9.32677
وال	-9.32928
▁مكنية	-9.33105
▁un	-9.33116
▁اه	-9.33166
▁العشرية	-9.33203
▁راحت	-9.33263
▁صحة	-9.33266
▁ديريلنا	-9.33288
▁المجتمع	-9.33495
▁سبحانه	-9.33684
▁يقدر	-9.33747
▁شوفي	-9.33867
▁إله	-9.34059
▁صحاب	-9.34083
▁فعلا	-9.34094
▁جاي	-9.34105
▁خبر	-9.34105
▁دور	-9.34136
يح	-9.34156
▁تروح	-9.34243
فر	-9.34423
▁يخرج	-9.34486
▁نقولو	-9.34514
▁أجل	-9.34728
▁N	-9.34788
▁ين	-9.34811
▁مو	-9.34967
▁استغفر	-9.35002
▁بداية	-9.35257
▁حلمي	-9.35262
▁نو	-9.35301
▁ماهو	-9.35384
it	-9.3539
او	-9.35462
▁ضحك	-9.35464
▁مجرد	-9.35496
حي	-9.35628
▁الاخ	-9.35651
ڨ	-9.35676
▁هايلة	-9.35854
▁2021	-9.35857
▁مادة	-9.35939
▁ماهي	-9.36024
▁،،	-9.36058
يني	-9.36076
▁برنامج	-9.36093
▁مريض	-9.36161
▁أجمعين	-9.36178
▁for	-9.36182
▁معاهم	-9.36248
▁يجوز	-9.36265
▁نرقد	-9.36289
▁ثلاث	-9.36301
▁لأنه	-9.36321
▁المعلومات	-9.36326
▁🤣	-9.36334
▁وأنا	-9.36359
▁الشيطان	-9.36446
▁صلي	-9.36467
▁آ	-9.36497
▁ضد	-9.36546
▁بقا	-9.36577
▁جي	-9.36685
▁خرجت	-9.36782
▁طبعا	-9.36827
▁يوسف	-9.36917
▁والت	-9.3692
فت	-9.37088
▁Ana	-9.3711
تر	-9.37184
كان	-9.37335
▁تقرا	-9.37495
▁الدراسة	-9.37529
▁((	-9.37621
▁ساهل	-9.37718
▁الأخ	-9.37743
▁ادعو	-9.37765
▁يقولو	-9.37795
▁كتر	-9.37812
▁القسم	-9.38028
▁قناتك	-9.38105
▁مد	-9.38136
▁الشي	-9.38192
le	-9.38202
▁اسطورة	-9.38207
▁نجي	-9.38259
▁بت	-9.3837
▁سر	-9.38437
▁فيما	-9.38493
ba	-9.38501
▁باين	-9.38551
▁الحمدلله	-9.38554
عا	-9.38654
▁😮	-9.38914
▁اجمل	-9.38922
▁ميلود	-9.3897
▁غ	-9.39009
▁والحمد	-9.39017
▁نخاف	-9.39238
▁best	-9.39293
▁احب	-9.39342
▁we	-9.39414
▁لايف	-9.39418
▁كال	-9.39455
▁الفلسفة	-9.39479
▁سهل	-9.39485
مت	-9.39824
وع	-9.39824
▁اسكو	-9.39825
فل	-9.39988
▁♥	-9.40005
▁kho	-9.40083
▁مور	-9.40197
▁رجال	-9.40267
▁الس	-9.40337
▁عرفت	-9.40341
▁الدولة	-9.40364
▁حط	-9.40413
▁معك	-9.4044
▁الشرح	-9.40558
▁أحب	-9.40603
▁أولا	-9.40626
▁قالك	-9.4074
شكرا	-9.40752
تكم	-9.40846
▁had	-9.40988
il	-9.41165
▁الصورة	-9.41504
▁الثالث	-9.41516
▁الحكايات	-9.41716
▁مشكور	-9.41849
▁الطريق	-9.41876
▁قولي	-9.41917
▁موقع	-9.41929
▁صار	-9.41934
▁يتم	-9.41983
▁الأسئلة	-9.42078
▁كفاه	-9.4212
▁وفقنا	-9.42147
▁هوا	-9.42153
▁تعيشو	-9.42163
🥰	-9.42393
▁هداك	-9.42583
▁فرنسا	-9.42791
▁المن	-9.42842
▁يعلم	-9.42931
▁اس	-9.43043
▁بلاد	-9.4312
▁تسما	-9.43197
).	-9.43199
▁ليل	-9.43234
▁والسلوان	-9.43355
▁صاحبي	-9.43359
▁فور	-9.43387
▁قضية	-9.43466
▁🥰	-9.43503
T	-9.43526
▁نسأل	-9.43649
▁ne	-9.4365
▁يهديك	-9.4365
▁درنا	-9.43654
▁درك	-9.43829
▁ياك	-9.43851
▁سما	-9.43884
en	-9.43949
▁اعرف	-9.4396
▁بني	-9.43989
▁مصطلحات	-9.44004
▁نقولك	-9.44053
▁الحالة	-9.441
▁تقدري	-9.44108
▁منيش	-9.44169
لل	-9.44175
▁حفظك	-9.44267
▁غالط	-9.44271
▁مجهوداتك	-9.44279
▁الصباح	-9.4436
▁حسيت	-9.44424
▁قصصك	-9.44471
▁العزيز	-9.44518
▁دعاء	-9.4455
▁حقيقة	-9.44638
▁تمارين	-9.44671
▁عنا	-9.44782
▁الفيديوهات	-9.44834
▁تقولي	-9.44835
▁المرة	-9.45035
▁بغيت	-9.45184
مع	-9.45449
▁مس	-9.45462
▁أيام	-9.45525
▁مسكين	-9.45737
▁روحو	-9.45745
▁ونفرح	-9.45781
▁الفردوس	-9.45922
🙏	-9.45978
▁هذ	-9.4601
▁الاجابة	-9.46055
▁تدير	-9.46161
▁بعيد	-9.46278
قل	-9.46346
▁ارحم	-9.46374
▁عذاب	-9.46381
كش	-9.4666
▁العلوم	-9.46664
▁حلقة	-9.46701
▁فري	-9.46805
▁جناته	-9.46808
▁دين	-9.46968
▁الأولى	-9.46972
▁مهما	-9.4698
▁عمرك	-9.47143
▁شيئا	-9.47159
▁نكمل	-9.47162
▁ولاد	-9.47169
▁نجاح	-9.47182
▁تجريبية	-9.47183
▁اولا	-9.47233
▁الجواب	-9.47265
سر	-9.47313
▁معاها	-9.47365
▁وجل	-9.47472
▁رواه	-9.47491
▁اجعل	-9.47504
سنة	-9.47848
▁الصوت	-9.47943
▁النساء	-9.47958
▁مراجعة	-9.48073
▁J	-9.48115
فة	-9.48118
▁النفس	-9.48177
▁لغة	-9.48237
▁تزيد	-9.48285
▁اسمها	-9.48336
شي	-9.48385
▁يكن	-9.48421
10	-9.4851
▁عبر	-9.48644
▁السياسي	-9.48676
▁السيد	-9.48679
🤣	-9.48749
▁na	-9.48936
▁صرات	-9.49032
▁الامر	-9.49086
😮	-9.49192
▁😂❤	-9.49284
▁of	-9.49296
دو	-9.49355
▁دوك	-9.49484
دير	-9.49516
▁الرجال	-9.4952
▁اسمي	-9.49622
▁منكم	-9.49676
▁صانع	-9.49769
▁لذلك	-9.49855
▁تفهم	-9.49892
▁بالا	-9.49897
▁الماء	-9.49995
▁والديا	-9.50042
▁بيت	-9.50092
▁احبك	-9.50174
▁عاد	-9.50186
👍	-9.5026
▁الساعة	-9.50398
▁ات	-9.50455
▁يحط	-9.50551
▁البقرة	-9.50682
ی	-9.50701
▁العلي	-9.50742
▁الق	-9.50799
😊😊	-9.50831
▁يروح	-9.50832
▁جال	-9.50997
▁k	-9.51005
▁عيد	-9.51047
S	-9.51077
▁شيئ	-9.51093
▁قالو	-9.51113
▁الحرب	-9.51136
▁فيلم	-9.51152
▁نحوس	-9.51186
ir	-9.51198
▁مستحيل	-9.51271
▁الص	-9.51348
▁جزاكم	-9.51356
يرة	-9.51531
▁حسبي	-9.51546
▁وبعد	-9.51838
▁🙏	-9.51839
▁يفتح	-9.51852
▁أين	-9.51867
▁كملي	-9.51876
▁يجعلها	-9.51894
▁نن	-9.51914
▁القران	-9.51939
▁سعيد	-9.51945
▁تان	-9.51947
▁ياا	-9.51986
▁تفرجت	-9.51994
▁وضع	-9.52002
▁~	-9.52078
▁à	-9.52105
▁مدة	-9.52181
▁الكل	-9.52184
▁❤🎉	-9.5219
▁be	-9.52223
▁2022	-9.52301
▁mais	-9.52304
▁دنيا	-9.52317
▁معلومات	-9.52322
▁الاخت	-9.5242
▁رجعت	-9.52423
نت	-9.52434
غير	-9.52471
▁مرات	-9.52485
▁وصلت	-9.52551
▁نشوفو	-9.52626
kom	-9.52689
▁هما	-9.52757
▁الر	-9.52781
▁فهي	-9.52825
▁مثال	-9.52869
▁مسلسل	-9.52911
▁بالنجاح	-9.52945
▁الطيبة	-9.52982
▁courage	-9.53068
حت	-9.53113
▁يدعيلي	-9.53117
▁الطب	-9.53287
▁h	-9.53343
▁عضو	-9.53381
▁معي	-9.53393
▁so	-9.53457
▁يوما	-9.53459
▁تحط	-9.53903
▁merci	-9.53907
▁يست	-9.54048
▁الجميل	-9.54085
▁نتبع	-9.54152
سا	-9.54197
▁💗	-9.54327
▁نحفظ	-9.54357
😅😅	-9.54424
زيد	-9.54429
▁u	-9.54472
▁قدام	-9.54529
▁يحكي	-9.54554
▁رابط	-9.54606
▁الزواج	-9.54616
▁توصل	-9.54866
▁كملت	-9.54904
▁الش	-9.54967
▁الرياضيات	-9.55003
▁علابالي	-9.55086
▁نتاعك	-9.5509
▁حا	-9.55168
كر	-9.55203
🥹	-9.55251
et	-9.55261
▁2020	-9.5529
▁وفقك	-9.55301
▁صور	-9.55325
▁حيقون	-9.55342
يتي	-9.55374
▁بأ	-9.55718
▁طويل	-9.55809
▁رايح	-9.5588
جل	-9.5596
▁وحدك	-9.56004
▁فلم	-9.56027
جة	-9.56113
▁الحر	-9.56115
▁الصالحة	-9.56198
▁قولو	-9.56215
▁ملك	-9.56244
▁وحده	-9.56304
▁رياضيات	-9.56319
▁دارو	-9.56342
▁قع	-9.56383
▁المواد	-9.56444
بال	-9.56483
0	-9.56629
▁بوركت	-9.56639
▁قليل	-9.56676
اط	-9.56749
▁الحاجة	-9.56753
إن	-9.56759
▁رياض	-9.56778
▁وهران	-9.56784
▁♥️	-9.56794
▁طالب	-9.56823
▁نستنا	-9.5686
▁رايحة	-9.5693
بارك	-9.56953
▁الواقع	-9.5697
▁العلمية	-9.57008
▁ط	-9.57016
▁قاعد	-9.57048
قر	-9.57192
▁بسك	-9.57219
🎉🎉	-9.57231
مر	-9.57238
نو	-9.57281
▁لانه	-9.57298
▁؛	-9.57339
▁خايفة	-9.57352
▁غدوا	-9.57383
▁قتل	-9.57391
▁👍	-9.57421
▁الجديد	-9.57491
▁ذا	-9.57498
ah	-9.57537
ضر	-9.57696
راني	-9.57726
▁يوتيوبر	-9.57883
▁it	-9.58014
▁فتح	-9.58131
▁عجبني	-9.58159
▁بفضل	-9.5822
▁صرا	-9.5826
اق	-9.58338
▁est	-9.58339
▁الحب	-9.58375
▁الطفل	-9.58398
جيب	-9.58409
▁r	-9.5841
lo	-9.58446
▁توك	-9.58552
▁مشروع	-9.58608
▁دايما	-9.58691
▁بالك	-9.58793
D	-9.58819
▁F	-9.58851
▁تفسير	-9.58869
▁يخي	-9.58873
to	-9.58919
▁وفقني	-9.58926
▁شكل	-9.58938
▁وله	-9.58964
▁باغي	-9.58964
▁الل	-9.58984
▁جمال	-9.59043
▁نهاية	-9.59108
▁قيمة	-9.59131
▁كيفك	-9.59136
▁ابدا	-9.59229
▁تس	-9.5924
صح	-9.59277
▁منتدى	-9.59278
🔥	-9.59289
▁جيب	-9.59295
كون	-9.59356
▁يقرا	-9.59387
▁اب	-9.59449
or	-9.59558
▁يس	-9.59571
▁إنشاء	-9.59574
▁فلي	-9.59725
هما	-9.59745
▁كانوا	-9.5976
▁طرف	-9.59846
▁K	-9.59849
▁vous	-9.59878
▁D	-9.5988
▁ريداكس	-9.59893
▁تكمل	-9.59907
▁فليل	-9.59944
▁يبقى	-9.60053
زي	-9.60095
▁بان	-9.60221
▁ساعات	-9.60249
▁برا	-9.60346
▁حبس	-9.60384
▁عظم	-9.60407
▁زاد	-9.60435
نيش	-9.60534
▁خالتي	-9.60613
▁إني	-9.60619
▁الوحيد	-9.60676
▁1-	-9.60678
▁ز	-9.60872
اف	-9.60903
▁العلميين	-9.60909
حل	-9.60927
▁حدث	-9.60952
▁تنجح	-9.60985
▁مانيش	-9.61037
▁**	-9.6128
تلي	-9.61364
والله	-9.61392
▁ظل	-9.61442
▁يشفيك	-9.61447
▁جنانه	-9.61554
▁أنها	-9.61557
يوم	-9.61569
▁بالضحك	-9.61582
▁مرض	-9.61644
▁فرحت	-9.61717
▁الاخير	-9.61729
جا	-9.61791
▁بشكل	-9.61919
▁الو	-9.61946
▁نقطة	-9.61952
على	-9.61981
▁وصحبه	-9.62079
▁كثيرة	-9.6208
يز	-9.62149
▁فمن	-9.62151
▁يزيد	-9.62172
طر	-9.62173
▁البناء	-9.62271
▁الكلمات	-9.62322
▁كاس	-9.62345
ro	-9.62385
؟!	-9.62416
▁بطريقة	-9.62436
▁une	-9.62445
▁طولت	-9.62587
▁G	-9.62646
▁مشترك	-9.62655
▁يد	-9.62667
▁الشر	-9.62717
▁الجمعة	-9.62731
▁حقيقية	-9.62733
ذا	-9.62778
▁بدل	-9.62798
خير	-9.6282
كتب	-9.62837
▁وحنا	-9.62852
راس	-9.62873
▁وأنت	-9.62911
▁🌹	-9.62978
ولو	-9.6298
▁ومع	-9.63018
wa	-9.63097
▁حبيبي	-9.63124
▁وإ	-9.63146
ay	-9.63192
▁sepia	-9.63222
▁وجدت	-9.63237
▁أسأل	-9.63256
▁ليفيديو	-9.633
▁يرحمهم	-9.63302
▁وصل	-9.63325
ارة	-9.63333
فو	-9.63396
▁التعليم	-9.63583
▁خطرة	-9.63595
▁رايك	-9.63622
▁ملاح	-9.63637
▁رجع	-9.63711
▁,,	-9.63808
▁دزاير	-9.63834
▁تا	-9.6396
▁o	-9.63989
▁إليك	-9.64093
▁30	-9.6414
▁تاوعك	-9.64216
اع	-9.64228
▁طب	-9.64236
▁0	-9.64248
▁نزيد	-9.64355
▁العلماء	-9.64394
▁راس	-9.64405
يع	-9.64407
▁تبان	-9.64425
»	-9.64496
▁خط	-9.6453
▁man	-9.6462
▁يرحمه	-9.64647
▁السبب	-9.64718
▁ويجعل	-9.64728
بعد	-9.64793
▁يفرج	-9.64803
▁rak	-9.64804
▁بعدها	-9.64813
▁العيد	-9.64922
ab	-9.64984
▁كلها	-9.65037
يق	-9.65094
▁القيامة	-9.65144
▁أحمد	-9.6521
عت	-9.6522
▁تجد	-9.65227
▁تخدم	-9.65304
▁يسهل	-9.65368
▁امر	-9.65374
▁مبعد	-9.65416
▁فان	-9.65559
▁dir	-9.65614
▁2-	-9.6564
▁متى	-9.65749
▁اكيد	-9.65765
▁الفصل	-9.65807
▁خلي	-9.65892
))	-9.66033
▁مدرسة	-9.66037
▁المال	-9.66164
▁طويلة	-9.66247
▁اميين	-9.66256
▁🥲	-9.66265
▁مالا	-9.66333
▁زمان	-9.66373
▁الشخص	-9.66417
▁صحيحة	-9.66446
▁رأيك	-9.66576
▁ابو	-9.66632
مثل	-9.66708
▁العادة	-9.66713
▁علمية	-9.66721
}	-9.66752
▁اخت	-9.66769
hom	-9.66837
▁مم	-9.66848
علم	-9.66948
▁سمانة	-9.66974
▁كلمات	-9.66983
بات	-9.67001
▁الرحمان	-9.67116
▁عدل	-9.67128
▁دارت	-9.67143
▁حياة	-9.67156
▁نحل	-9.67234
▁أجمل	-9.67309
▁P	-9.67315
▁الفكرة	-9.67381
▁تصريحية	-9.67427
▁كلشي	-9.6753
▁فاهم	-9.67563
▁bon	-9.67639
▁توحشنا	-9.67655
▁تقدم	-9.67709
▁وبين	-9.67727
▁نسكن	-9.67767
lah	-9.67789
▁تكوني	-9.67822
▁U	-9.67862
▁الوالدين	-9.67864
▁نفسها	-9.67885
▁نكتب	-9.68019
▁ذات	-9.6805
بن	-9.68055
▁الفرنسية	-9.68089
🤲🏻	-9.68163
▁الح	-9.68267
▁شخصية	-9.68291
▁ترى	-9.683
▁كيفي	-9.68337
▁ونتا	-9.68354
▁فيديوهاتك	-9.68412
▁نشري	-9.68429
▁جعل	-9.68456
▁تعب	-9.6847
▁??	-9.68533
▁الأستاذ	-9.68623
▁راقي	-9.68646
بين	-9.68651
▁Ma	-9.68671
▁المشبه	-9.6869
▁القادر	-9.68707
▁تخصص	-9.6871
▁شفتو	-9.68725
▁غادي	-9.68729
▁سبيل	-9.68795
▁عشر	-9.68796
▁ادب	-9.68801
▁رجعوني	-9.68832
▁كاينة	-9.68841
▁نبينا	-9.68847
▁شرحك	-9.68867
اتي	-9.68995
اي	-9.69143
▁يريد	-9.69149
▁يغفر	-9.69169
▁طيح	-9.69176
▁نربح	-9.69215
وية	-9.69224
ورة	-9.69308
▁آله	-9.69344
▁راها	-9.69381
▁الج	-9.69404
▁سامية	-9.69447
▁نحي	-9.69491
▁ق	-9.69514
عود	-9.6954
▁دليل	-9.6965
▁🎉❤	-9.69696
▁❤😊	-9.69697
▁إنسان	-9.69708
▁الاسم	-9.69726
ai	-9.69736
▁تكتب	-9.69742
به	-9.69887
▁البر	-9.70032
▁خارج	-9.70057
▁يما	-9.70078
▁اقسم	-9.70206
▁الام	-9.70227
▁kima	-9.70282
قول	-9.70356
▁يحفظ	-9.7038
▁تبقى	-9.7039
▁أريد	-9.70424
▁حمد	-9.70437
▁المعدل	-9.70567
▁جيد	-9.7066
▁تعمل	-9.70691
▁استعارة	-9.70746
▁مجال	-9.70748
▁الرعد	-9.70828
ائي	-9.70855
طة	-9.70881
▁ch	-9.70885
مل	-9.70927
▁كلامك	-9.70949
راء	-9.71024
▁البرنامج	-9.71033
▁الارض	-9.71107
ol	-9.71116
▁هاديك	-9.71153
▁ترك	-9.71174
▁النوع	-9.71243
▁صراتلي	-9.71389
▁الكلمة	-9.71424
▁الخاص	-9.71471
▁تح	-9.71491
▁دعم	-9.71536
▁Rabi	-9.71602
▁الفرق	-9.71634
مو	-9.71635
▁باي	-9.71743
▁نقل	-9.71801
▁مستوى	-9.71814
▁بر	-9.71857
▁ghir	-9.71866
▁ثانية	-9.71933
▁غالب	-9.72058
▁يفهم	-9.72168
▁المزيد	-9.72253
ثر	-9.72303
▁متابعة	-9.72364
▁راسي	-9.72387
▁اصبح	-9.72429
خر	-9.72561
▁يكتب	-9.72689
▁صوتك	-9.72729
▁🥹	-9.72791
ki	-9.72812
▁يخدم	-9.72877
ذكر	-9.72959
▁مادام	-9.73003
▁اروع	-9.7307
▁جو	-9.73108
▁طالبة	-9.73139
▁العفو	-9.73179
▁نقدرو	-9.73195
دار	-9.73205
از	-9.7335
▁La	-9.73382
▁يومين	-9.73405
▁جواب	-9.73445
▁ولات	-9.73621
قو	-9.73633
ک	-9.73761
▁يشوفو	-9.73769
▁أرجو	-9.73776
▁جدي	-9.73899
bi	-9.73929
▁ح	-9.7396
▁الوحدة	-9.73961
▁الملك	-9.73971
▁	-9.73981
▁كاملة	-9.73994
▁حكاياتك	-9.74029
▁re	-9.74133
▁صوالح	-9.74161
▁تقريبا	-9.74178
▁بات	-9.742
▁عربي	-9.74248
15	-9.74258
صار	-9.74259
ذر	-9.74281
مام	-9.74283
A	-9.74319
▁خخ	-9.74375
▁شرف	-9.74376
▁للأسف	-9.74469
▁بالاك	-9.74489
▁😁	-9.74546
▁لدار	-9.7463
▁موجود	-9.74635
▁فن	-9.74653
▁بالمعدل	-9.7473
▁Merci	-9.74813
▁واذا	-9.74822
▁القيم	-9.74859
▁يوتيوب	-9.74954
16	-9.74964
قي	-9.74977
▁وخلاص	-9.75011
حا	-9.7504
▁ولك	-9.7508
▁مست	-9.75099
▁نشر	-9.75129
▁حسبنا	-9.75188
▁الجملة	-9.75208
▁دك	-9.75209
وق	-9.75319
▁الخاصة	-9.75347
L	-9.75361
الف	-9.75411
U	-9.75417
▁نورمالمو	-9.75442
▁تو	-9.75453
▁العائلة	-9.75484
mi	-9.75493
♥️	-9.75496
kh	-9.75683
▁e	-9.75705
▁اسئلة	-9.75777
▁وميلود	-9.75803
▁سياسي	-9.75809
▁القول	-9.75816
▁يسر	-9.75816
الي	-9.75857
عي	-9.75929
▁يطيح	-9.75994
طو	-9.76009
▁nchlh	-9.76143
💪	-9.76213
دين	-9.76276
▁ضرك	-9.76331
▁🔥	-9.76358
▁للاسف	-9.76394
انة	-9.76419
▁نعمة	-9.76498
▁الشيء	-9.76505
▁لاي	-9.7653
▁الطفلة	-9.76538
▁مقدرتش	-9.76599
▁g	-9.7672
▁تاعنا	-9.76787
▁طلعو	-9.76828
▁علمي	-9.76836
▁المس	-9.76949
▁ابي	-9.76981
▁خالي	-9.76993
▁الإجابة	-9.76993
قد	-9.77038
▁جيدا	-9.77098
▁love	-9.77132
▁مالك	-9.77194
an	-9.77209
▁العاصمة	-9.77244
▁اخ	-9.77258
▁المسلم	-9.77362
▁دولة	-9.77383
راك	-9.77421
▁نقراو	-9.77427
▁ثبت	-9.77496
▁نرجع	-9.77499
▁تست	-9.77524
▁كتابك	-9.77584
▁برحمتك	-9.77593
▁وحتى	-9.77615
▁حوايج	-9.77642
▁نولي	-9.77643
17	-9.77665
▁ha	-9.77668
جب	-9.77692
▁فرح	-9.77726
فق	-9.77797
▁جل	-9.77861
mo	-9.77885
▁قوله	-9.77886
▁يخص	-9.77925
روح	-9.77955
▁مافهمتش	-9.77979
▁الحزن	-9.78048
فهم	-9.78062
▁خطأ	-9.78066
▁بكم	-9.78072
▁😢❤	-9.78105
▁موت	-9.78149
▁–	-9.78197
I	-9.78247
▁بيسك	-9.78263
▁فهل	-9.7835
▁سواء	-9.78364
▁حرف	-9.78465
▁دورة	-9.78481
▁قدم	-9.78511
▁المرور	-9.78585
▁الأخت	-9.78605
▁ساهلة	-9.78613
▁عاود	-9.7866
▁واجب	-9.78687
▁الشباب	-9.78692
▁باباك	-9.78715
▁نتع	-9.78786
▁لست	-9.7885
▁ري	-9.78853
▁ير	-9.78875
▁اك	-9.78894
▁البلاد	-9.78909
▁بنتي	-9.79009
▁are	-9.79084
▁تهبل	-9.79099
رى	-9.79136
▁البحر	-9.79139
🥲	-9.79338
2025	-9.7934
▁السلسلة	-9.79366
ine	-9.79385
▁تجعل	-9.79389
K	-9.79524
▁الفجر	-9.796
▁فصل	-9.79685
دم	-9.79703
عرف	-9.79728
▁ملخص	-9.7974
▁hada	-9.79781
ولنا	-9.79856
▁الفديو	-9.80006
▁والعافية	-9.80018
▁وإذا	-9.80031
▁الهم	-9.80046
▁الك	-9.80052
انية	-9.8006
▁للا	-9.80086
▁وجود	-9.8009
▁راي	-9.80138
▁نجحنا	-9.80206
▁ذاك	-9.80242
دت	-9.80293
دخل	-9.80309
▁سوجي	-9.80386
▁الوصفة	-9.80466
▁يبان	-9.80482
▁خدمة	-9.8054
▁Y	-9.80547
▁العمر	-9.80556
▁دو	-9.80557
▁المراجعة	-9.80564
id	-9.80583
▁si	-9.80608
▁وحدها	-9.80625
▁دم	-9.80775
▁الغالية	-9.80796
aw	-9.8082
▁شو	-9.80833
بصح	-9.80836
▁مباشرة	-9.80845
▁رسالة	-9.80899
20	-9.80929
▁عيدك	-9.8097
▁الناجحين	-9.81038
▁فالباك	-9.8108
▁استمر	-9.81083
▁جزائرية	-9.81087
▁فينا	-9.81174
▁المقترحات	-9.81214
▁كتبت	-9.81216
طا	-9.81225
▁انتم	-9.81253
▁عدة	-9.81267
▁يو	-9.81307
▁ويعطيك	-9.81392
▁ماتت	-9.81412
▁تريد	-9.81517
🖤	-9.81522
▁مقال	-9.81574
▁أبدا	-9.81623
▁الكبير	-9.81701
▁بينا	-9.8174
▁وجد	-9.81806
as	-9.81855
fa	-9.81866
▁علما	-9.81978
▁تاعها	-9.82006
▁الواحد	-9.8205
ii	-9.82084
▁rani	-9.82094
▁هاته	-9.82161
▁لحد	-9.82164
▁اكتب	-9.82166
▁علامة	-9.82179
▁ومت	-9.82253
▁تطبيق	-9.82303
▁ينجحكم	-9.82321
▁du	-9.82325
me	-9.82365
▁شئ	-9.82369
▁تقني	-9.82385
أن	-9.82416
▁cha	-9.82459
▁انتهى	-9.82488
▁الراجل	-9.82542
اوي	-9.82617
▁لكان	-9.82629
▁مريم	-9.82648
رق	-9.82649
▁البيام	-9.82713
▁اسمو	-9.82718
▁الصور	-9.82786
😁	-9.82819
▁رو	-9.82865
▁تشبه	-9.8289
▁بلادنا	-9.82891
▁انني	-9.82938
سو	-9.83013
B	-9.83055
▁يسترك	-9.83095
▁✅	-9.83126
قا	-9.83148
▁هد	-9.83152
مان	-9.83256
سم	-9.83302
▁الشهر	-9.83323
▁أمام	-9.83371
▁قنشوبة	-9.83407
▁Redx	-9.8349
▁الباردة	-9.83492
▁فرق	-9.83514
▁نجحني	-9.83563
▁اجد	-9.83577
▁يوفقكم	-9.83626
ده	-9.83727
▁السوداء	-9.8374
▁😮😮	-9.83827
▁العين	-9.83839
▁القضية	-9.83848
▁السماء	-9.83897
▁الاست	-9.83943
▁se	-9.83945
▁عدت	-9.83961
▁tu	-9.84075
تا	-9.84106
▁قراءة	-9.84108
▁القبر	-9.84206
H	-9.84325
لات	-9.84391
رب	-9.84483
▁win	-9.84524
▁ارحمه	-9.84545
▁يولي	-9.8457
▁النثر	-9.84609
▁الكتب	-9.84698
▁lah	-9.84718
▁الحقيقي	-9.84931
▁الرابط	-9.84943
▁كلما	-9.84998
em	-9.85002
▁يطول	-9.8511
▁اصحاب	-9.85145
▁نقص	-9.85172
▁والأ	-9.85178
▁مصر	-9.8518
▁نلقا	-9.8521
▁تضحك	-9.85225
▁يقال	-9.85329
سب	-9.85346
▁rah	-9.85362
R	-9.85367
▁امي	-9.8542
▁المدرسة	-9.85565
ly	-9.85777
بك	-9.85785
💕	-9.85806
▁معنديش	-9.85895
▁al	-9.85928
on	-9.86
▁التلاميذ	-9.8601
▁مدينة	-9.86037
▁افهم	-9.86044
▁واجعل	-9.86069
▁دول	-9.86145
▁ياخي	-9.86204
▁الأعضاء	-9.8622
▁نصف	-9.86226
قدر	-9.86234
▁روضة	-9.8626
▁مساء	-9.86295
▁عباد	-9.86312
اته	-9.86333
▁قط	-9.86377
▁البشر	-9.86438
ولك	-9.86527
صل	-9.86539
▁نضحك	-9.86607
شر	-9.86658
▁الحلقة	-9.86658
▁شك	-9.86699
▁قبره	-9.8674
▁بناء	-9.86812
▁ويرحم	-9.86867
▁جمع	-9.86876
om	-9.86884
▁فهذا	-9.86891
▁غدا	-9.86923
▁يشافيك	-9.86941
??	-9.86987
▁ذو	-9.86997
زا	-9.87061
▁حابين	-9.87093
▁معرفتش	-9.87102
▁الواسعة	-9.87108
▁ومبعد	-9.8713
اري	-9.87133
▁صدق	-9.87207
▁ولدي	-9.87233
▁هدر	-9.87236
12	-9.87254
▁الايام	-9.87259
▁يوفق	-9.87278
▁مخ	-9.87296
▁الحي	-9.87317
ذي	-9.87328
▁يهدي	-9.87451
▁مبرووك	-9.87565
▁انشالله	-9.87566
▁معناها	-9.87678
▁أصبح	-9.87828
▁نصب	-9.87839
▁نجحت	-9.87845
▁يرجع	-9.87878
▁hna	-9.87885
▁ce	-9.87982
▁نحو	-9.87989
▁فيديوات	-9.87996
▁طاح	-9.88035
🌹	-9.8808
▁الفكري	-9.88084
▁يعيشك	-9.88173
وز	-9.88213
▁حتي	-9.88218
▁يهدينا	-9.88219
يهم	-9.88224
▁المستعان	-9.88292
▁تعود	-9.8835
▁يعمل	-9.88381
▁احكي	-9.884
▁ار	-9.88663
▁صعيب	-9.88669
إ	-9.8868
▁وقيل	-9.8874
▁باطل	-9.88747
سة	-9.88809
▁عندكم	-9.88849
▁😔	-9.88858
▁يتفرج	-9.88924
اتو	-9.8893
▁ألا	-9.88943
▁اليك	-9.88956
▁اقامة	-9.88967
▁تعجبني	-9.89016
راد	-9.89103
▁الغرب	-9.8913
▁الثالثة	-9.89171
▁هدو	-9.89173
وو	-9.89177
▁مشكلة	-9.89216
▁تذكر	-9.8929
gh	-9.89329
▁الاجتماعي	-9.8935
is	-9.89407
▁ثلاثة	-9.89512
▁تبع	-9.89562
▁عباسية	-9.89576
زع	-9.89685
ur	-9.89749
▁سيدي	-9.89785
30	-9.89801
▁استااذ	-9.89803
رك	-9.89834
ka	-9.899
▁نجح	-9.89999
▁نحكي	-9.90025
▁الجامعة	-9.90052
▁تعرفي	-9.9007
لان	-9.90121
▁القيمة	-9.90139
▁hadi	-9.90241
▁سؤالي	-9.90253
▁الأمور	-9.90289
▁تتمنى	-9.9033
▁انتظار	-9.90385
▁my	-9.90393
▁الز	-9.90438
▁نراجع	-9.90549
▁بهذه	-9.90602
راه	-9.90648
▁تقراي	-9.90649
ثم	-9.90655
عيد	-9.90669
▁R	-9.90712
▁رأي	-9.90712
▁أني	-9.90729
▁الوطن	-9.90754
▁مواد	-9.908
▁The	-9.90801
▁يجو	-9.90857
2026	-9.90886
هش	-9.90886
دية	-9.90891
▁امتحان	-9.90932
▁ذي	-9.90946
▁Sepia	-9.90991
▁زمن	-9.90993
▁سبق	-9.91057
▁نطالب	-9.91108
▁احنا	-9.91124
💜	-9.91128
طل	-9.91183
▁اكل	-9.91183
▁مشاكل	-9.91226
ضحك	-9.91257
▁اسمع	-9.91371
👌	-9.9148
▁كملنا	-9.91557
▁da	-9.91559
▁ظهر	-9.9157
▁لاني	-9.91672
▁المع	-9.91715
ند	-9.91724
▁صعب	-9.91748
▁ممن	-9.91763
▁قرا	-9.91824
▁خ	-9.91824
▁3-	-9.91854
▁جويلية	-9.91938
▁تربح	-9.91956
▁لبنات	-9.92036
▁حن	-9.92079
▁pdf	-9.92112
▁صاحبة	-9.92176
غر	-9.92195
▁المقال	-9.92241
😂❤	-9.92295
▁ونتي	-9.92344
▁طلع	-9.92353
▁حلم	-9.92386
▁التربية	-9.92399
▁الطابعة	-9.92415
fi	-9.92436
لف	-9.92445
▁سكر	-9.92452
▁حرب	-9.92491
▁ra	-9.92528
▁البعض	-9.92533
ter	-9.92551
▁النور	-9.92606
▁شفتها	-9.92692
▁وقتاش	-9.92698
💖	-9.92703
▁يطلع	-9.92717
▁ممتعة	-9.92734
كيف	-9.9274
▁يلي	-9.92747
▁التواصل	-9.92822
▁وعلاه	-9.92852
▁اع	-9.92895
▁مريضة	-9.92895
حة	-9.93106
P	-9.93185
عد	-9.93209
▁المدينة	-9.93346
▁يستر	-9.93366
▁جاوبوني	-9.93433
▁on	-9.93464
sh	-9.93502
▁الأدب	-9.93556
▁عم	-9.93556
▁عيدكم	-9.93591
فاء	-9.93601
▁الرائع	-9.93608
▁صبر	-9.93636
▁هدرت	-9.93646
▁الفاضلة	-9.93674
▁تسيير	-9.93689
▁الإمام	-9.93716
▁فالم	-9.93841
▁continuation	-9.93843
▁نثر	-9.93888
▁بنجاح	-9.93909
▁سطيف	-9.93966
▁؟!	-9.93977
▁قلوبنا	-9.94021
تع	-9.94092
▁ترد	-9.9411
▁أهله	-9.94123
▁وحدو	-9.94182
▁💪	-9.94248
▁الدي	-9.9426
▁لعل	-9.94278
▁هكدا	-9.94341
بس	-9.94384
▁نوصل	-9.94405
▁مول	-9.9447
▁احكيلنا	-9.94472
▁يب	-9.94474
▁فوور	-9.94478
▁درتي	-9.94486
▁أت	-9.94501
▁عايش	-9.94508
▁نقلك	-9.9451
▁تبدا	-9.94518
▁يخلي	-9.94544
قتل	-9.94548
▁رفع	-9.94585
▁العقل	-9.9463
▁وعن	-9.94631
▁وفق	-9.94695
قطع	-9.94697
▁قاعدة	-9.94729
▁الجزائريين	-9.94731
▁ايمان	-9.9482
ne	-9.94845
▁السعادة	-9.94897
▁فإذا	-9.94929
▁ورد	-9.94933
▁ترجع	-9.94994
بان	-9.95022
▁لحكايات	-9.95053
▁اقل	-9.95058
▁استاذنا	-9.95069
▁الجاي	-9.95078
▁اقرب	-9.95082
غرب	-9.95101
▁ارزقني	-9.95153
ئة	-9.95259
▁ونفرحو	-9.95266
▁ميت	-9.9527
▁لديك	-9.95385
▁ياو	-9.95388
رض	-9.95456
▁ثانيا	-9.95486
▁men	-9.95503
▁تغير	-9.95525
▁تلعب	-9.95538
وى	-9.95566
▁البخاري	-9.95576
▁نلحق	-9.95645
▁جاوبني	-9.95716
▁صانعة	-9.95782
▁ديالك	-9.95823
دل	-9.95851
▁نهدر	-9.95872
▁أخ	-9.95897
▁تخ	-9.95921
▁الدول	-9.96064
▁الشاعر	-9.96093
▁ردي	-9.96116
▁هؤلاء	-9.96147
▁علابالك	-9.96194
▁عيب	-9.96233
▁خوك	-9.96248
▁يرد	-9.96302
▁machi	-9.96303
▁جاو	-9.96339
▁حاليا	-9.96359
طي	-9.96392
▁p	-9.9642
▁نبكي	-9.96443
تبع	-9.96488
▁بذلك	-9.96497
▁وكاين	-9.96521
▁ربك	-9.96568
▁ادعيولي	-9.96601
▁المستقبل	-9.96612
▁•	-9.96655
▁مك	-9.96659
nd	-9.96678
lk	-9.96756
▁الراحمين	-9.96779
▁الاعضاء	-9.96835
😮😮	-9.96852
▁مسكينة	-9.96869
▁حبست	-9.96887
tha	-9.96895
▁اسمه	-9.96908
▁ثان	-9.96929
▁عنوان	-9.9698
▁بإ	-9.97136
▁شريت	-9.97146
▁الماضي	-9.97154
▁قصتي	-9.97178
▁الهاتف	-9.97184
▁تسمع	-9.97197
▁را	-9.97244
هذا	-9.97256
❤️❤️	-9.97292
▁ملاك	-9.97378
▁مثلك	-9.97477
▁يفوت	-9.97483
فه	-9.97511
▁وصفة	-9.97577
▁👌	-9.97578
▁يعود	-9.97636
▁top	-9.97644
▁راسك	-9.9775
▁saha	-9.97754
▁قوم	-9.97793
▁عارف	-9.97799
▁نصائح	-9.97834
▁هديك	-9.97844
▁عبارة	-9.97858
عين	-9.97889
▁جر	-9.98064
▁أنني	-9.98067
▁نعرفو	-9.98081
▁do	-9.98107
▁يصبر	-9.98161
▁كا	-9.98174
▁سمعتها	-9.98242
▁قولولي	-9.98252
▁نوض	-9.98321
hi	-9.98421
😍😍	-9.98457
▁Allah	-9.98491
▁عرف	-9.98534
▁عامي	-9.98535
▁المؤمنين	-9.98593
▁تعبت	-9.98755
❤🎉	-9.98781
▁الزمن	-9.98794
▁bien	-9.98834
▁أسئلة	-9.98845
بد	-9.98912
▁افكار	-9.98934
▁كو	-9.98964
▁أعرف	-9.98987
▁دايمن	-9.98991
▁مرورك	-9.99103
▁ye	-9.99139
de	-9.99154
▁سمع	-9.99214
😘	-9.99249
▁المشكلة	-9.99261
▁الهدرة	-9.99288
▁الإيمان	-9.99402
▁بنادم	-9.99441
▁أصل	-9.9947
▁😊❤	-9.99479
▁الأمة	-9.99559
جز	-9.99581
▁مراد	-9.99616
جه	-9.99639
▁امام	-9.99659
▁كفاش	-9.99672
هدر	-9.99695
im	-9.99699
▁ونحن	-9.99778
▁الانجليزية	-9.99803
سخ	-9.99825
▁يتبع	-9.99841
▁واخيرا	-9.99859
▁قسنطينة	-9.99863
▁نحكيلك	-9.99879
▁خمس	-9.99961
▁this	-9.99963
▁بيا	-10
▁فرصة	-10.0003
جاب	-10.0004
وط	-10.0006
▁امل	-10.0006
▁اقول	-10.0008
▁الحبيب	-10.0015
▁ضرب	-10.0022
▁وشنو	-10.0027
▁نريد	-10.0031
▁يسمع	-10.0037
▁خطر	-10.0039
▁شابين	-10.004
▁your	-10.004
▁القلوب	-10.004
▁بلاصة	-10.0042
▁ويوفقك	-10.0044
▁25	-10.0045
شرح	-10.0047
▁ذهب	-10.0054
▁الروح	-10.0057
▁قالي	-10.0061
ce	-10.0072
▁السيبيا	-10.0078
ايا	-10.0079
▁الموسيقى	-10.0081
▁أخذ	-10.0081
▁أقول	-10.0082
مات	-10.0082
▁جغرافيا	-10.0087
lik	-10.009
▁ارمي	-10.0095
صف	-10.0095
▁حكايتي	-10.0096
▁تبكي	-10.0104
▁***	-10.0107
▁الغالي	-10.0108
18	-10.0109
▁مز	-10.011
▁like	-10.011
نه	-10.0119
▁ارجوك	-10.012
اغ	-10.0127
▁الحكم	-10.0127
اذ	-10.0131
▁متابع	-10.0132
▁الأيام	-10.0134
▁منقدرش	-10.0138
حتى	-10.0141
▁الزوج	-10.0148
▁معرفة	-10.0149
زة	-10.0153
فعل	-10.0156
اض	-10.0157
▁ميمز	-10.0158
▁الأن	-10.0158
▁ديدين	-10.0169
▁منعرف	-10.0169
▁أيها	-10.0174
▁ندو	-10.0178
▁وجميع	-10.0178
do	-10.0181
قص	-10.0182
▁الد	-10.0183
▁🖤🖤	-10.0184
▁دراسة	-10.0187
▁أصلا	-10.0194
▁المنزل	-10.0196
▁الجميلة	-10.0202
▁ملف	-10.0206
▁قديم	-10.0207
▁تحتاج	-10.0208
▁شبه	-10.0217
▁تحس	-10.0221
▁تغيير	-10.0222
▁ادعولنا	-10.0222
😔	-10.0229
▁mon	-10.0236
يلة	-10.0237
▁ملاحظة	-10.0238
sa	-10.0239
عرض	-10.024
قام	-10.024
▁المعنى	-10.024
▁توب	-10.0244
تان	-10.0244
▁منين	-10.0246
جو	-10.0252
▁احمد	-10.0272
▁عمرو	-10.0275
▁ديجا	-10.0279
▁قوليلي	-10.0282
▁عيني	-10.0285
▁الآخر	-10.0288
لوا	-10.029
▁يضحك	-10.0294
▁شاب	-10.0297
▁فخر	-10.0301
▁يصلح	-10.0302
▁خا	-10.0312
▁جاب	-10.0315
اص	-10.0319
▁تحل	-10.0323
▁جعلها	-10.0327
▁دارنا	-10.0328
الا	-10.033
▁معه	-10.0335
▁E	-10.0336
▁صغار	-10.0336
▁كنتي	-10.0344
lh	-10.0353
▁ثانوي	-10.0358
▁معلومة	-10.0359
يته	-10.0361
طار	-10.0362
▁قليلا	-10.0364
▁بضحك	-10.0367
▁بمعنى	-10.0369
▁عمرها	-10.0369
▁mat	-10.0376
▁ماكانش	-10.0378
🤲🤲	-10.038
▁العضو	-10.0386
▁الصالح	-10.0387
دون	-10.0392
▁محتواك	-10.0392
حفظ	-10.0392
▁💜	-10.0394
▁24	-10.0402
تل	-10.0404
▁الأمير	-10.041
▁عاودت	-10.0411
▁يأتي	-10.0412
▁كثرلنا	-10.0422
▁وراء	-10.0432
▁dar	-10.0435
▁يدل	-10.0438
14	-10.0441
▁اخوتي	-10.0441
▁الموقع	-10.0442
جم	-10.0446
▁وكنت	-10.0448
▁تاعهم	-10.045
دور	-10.0454
▁وجهك	-10.0454
▁بهم	-10.0457
▁تجربة	-10.0458
▁المكان	-10.0465
C	-10.0472
▁🤔	-10.0474
oo	-10.0477
▁الحفظ	-10.0479
▁خي	-10.0481
▁ممتازة	-10.0482
ۡ	-10.0484
▁بصحتك	-10.0484
Y	-10.0486
▁ردكس	-10.0488
si	-10.049
▁يقتل	-10.049
▁يمشي	-10.0491
F	-10.0492
▁كرهت	-10.0492
▁🙂💔	-10.0495
▁تقوم	-10.0496
▁خدمت	-10.0499
▁شرط	-10.0508
▁السلوان	-10.0509
عم	-10.051
▁ث	-10.0513
▁اولاد	-10.0515
▁الاخر	-10.0524
▁فم	-10.0526
▁مدام	-10.053
▁قالوا	-10.0532
tik	-10.0536
زل	-10.0537
▁كونت	-10.0541
▁غاية	-10.0541
زم	-10.0546
🇩🇿	-10.0547
▁والدينا	-10.0559
▁عالي	-10.0562
▁لحظة	-10.0566
▁وجعل	-10.0569
▁تونس	-10.0576
▁الأم	-10.0584
▁v	-10.0585
▁المعلومة	-10.0585
▁لكتاب	-10.0599
▁par	-10.0602
▁أمي	-10.0606
▁نع	-10.0611
▁يشبه	-10.0612
▁مقالة	-10.0613
▁جاني	-10.0615
▁المو	-10.0616
▁الامتحان	-10.0618
▁الجديدة	-10.0626
▁ورقة	-10.0627
▁تر	-10.0628
▁حمزة	-10.0628
▁السيارة	-10.0631
▁جزائر	-10.0631
▁حلوة	-10.0632
▁ريديكس	-10.0636
▁بدات	-10.0637
▁🥺🥺	-10.064
▁نسا	-10.0641
ائه	-10.0641
▁that	-10.0641
▁fl	-10.0652
▁كذب	-10.0657
▁توجد	-10.0658
عن	-10.066
▁🔥🔥	-10.0661
▁نسألك	-10.0664
شهر	-10.0665
▁صعيبة	-10.0668
▁إلي	-10.0669
زين	-10.0672
▁لعقوبة	-10.0678
قبل	-10.0684
▁لحق	-10.0687
ve	-10.069
▁سعيدة	-10.069
▁بلد	-10.0692
خو	-10.0695
▁bro	-10.0695
▁تبون	-10.0696
▁بشر	-10.0697
▁بيننا	-10.0704
che	-10.0707
▁يدو	-10.0713
▁شمس	-10.0713
▁}	-10.0714
دى	-10.0716
▁الحد	-10.0718
▁ضحكت	-10.0721
▁بالخير	-10.0723
▁إبراهيم	-10.0726
E	-10.0727
▁ديرينا	-10.0734
▁بالت	-10.0738
▁sah	-10.074
▁سرد	-10.0742
▁والنجاح	-10.0743
▁il	-10.075
▁يعطيكم	-10.0755
▁حصة	-10.0759
▁العلامة	-10.0759
▁احلى	-10.0767
▁تكن	-10.0769
▁فإنه	-10.077
▁العصر	-10.0775
▁تحليل	-10.0776
تاع	-10.0779
▁والع	-10.0779
▁رأس	-10.0781
مس	-10.0785
عظم	-10.0787
الة	-10.0788
un	-10.079
سكن	-10.0791
▁بيام	-10.0791
▁الاستاذة	-10.0794
▁الكرام	-10.0795
▁وقتها	-10.0797
▁الط	-10.0798
▁أجد	-10.0802
▁يقولك	-10.0805
▁لب	-10.0809
▁أصحاب	-10.0816
حكي	-10.0816
▁يموت	-10.0819
▁الآية	-10.0825
▁غلطت	-10.0827
▁حرم	-10.0829
▁تمرين	-10.0836
▁هريرة	-10.0838
▁ينجحني	-10.0839
▁لانها	-10.0843
لكن	-10.085
▁عظيم	-10.0851
▁السن	-10.0851
▁عقل	-10.0854
▁البارح	-10.086
▁mo	-10.0862
▁حطلنا	-10.0863
▁ضعيف	-10.0867
▁وكانت	-10.0867
▁ياسر	-10.0869
▁تبناج	-10.0876
▁khoya	-10.0877
▁تحقيق	-10.0884
▁لع	-10.0886
▁سكن	-10.0889
جار	-10.0892
▁سوء	-10.0894
▁جيجل	-10.0897
ولها	-10.0899
▁هاداك	-10.0902
▁ويسر	-10.0905
▁ba	-10.0906
نك	-10.0906
▁عنهم	-10.0907
▁ضك	-10.0909
▁غزة	-10.0909
▁فرج	-10.0914
▁🙏🙏	-10.0918
بدا	-10.0922
▁الوطني	-10.0924
▁أظن	-10.0926
▁الاقل	-10.0931
▁بفضلك	-10.0933
▁يع	-10.0936
▁سمحلي	-10.094
▁بربي	-10.0943
▁رك	-10.0946
يتك	-10.0948
▁qui	-10.0948
▁مميز	-10.0961
▁لأنها	-10.0964
▁هده	-10.097
▁لخر	-10.0971
▁دمت	-10.0976
▁نتيجة	-10.0976
▁عصر	-10.0978
باك	-10.0979
تلك	-10.0979
ائك	-10.0981
▁ونص	-10.0981
▁وكيف	-10.0981
ana	-10.0984
der	-10.0989
▁الخلق	-10.0991
▁الغ	-10.0995
▁دخول	-10.0997
▁نق	-10.0998
▁عييت	-10.0999
عيش	-10.1002
▁تب	-10.1006
▁يحدث	-10.1006
▁الاساتذة	-10.1013
▁البداية	-10.1013
ضم	-10.1013
▁شخصيا	-10.1014
▁يقوم	-10.1017
▁العافية	-10.1024
▁القدم	-10.1027
▁reda	-10.1028
▁انصر	-10.104
▁الجزاء	-10.1041
▁تهبلي	-10.1045
▁ومرحبا	-10.1045
▁ذنب	-10.1046
▁يدعو	-10.1048
▁beaucoup	-10.1049
نج	-10.105
▁خفيفة	-10.1055
▁أيا	-10.1057
▁بكيت	-10.106
▁قرب	-10.1061
▁القدر	-10.1062
زن	-10.1065
رج	-10.1068
▁اصل	-10.1068
st	-10.1076
19	-10.1079
▁z	-10.1079
▁تحمل	-10.1079
th	-10.108
▁طلعت	-10.1086
▁bonne	-10.1089
▁خصوصا	-10.1095
▁يكفي	-10.1097
▁ركليطا	-10.1098
▁sur	-10.1098
▁يمكنك	-10.1099
▁اظن	-10.1099
▁as	-10.1102
▁قلتي	-10.1102
▁وخاصة	-10.1105
▁مح	-10.1106
▁وتعالى	-10.1107
▁النظر	-10.1118
رين	-10.1118
▁تعلمت	-10.1121
▁احفظ	-10.1122
▁عرض	-10.1125
▁🥰🥰	-10.1127
▁Je	-10.1128
ائية	-10.1128
▁جيدة	-10.1135
▁واضح	-10.1138
▁طرح	-10.114
▁يخوف	-10.1142
▁أل	-10.1143
▁اعراب	-10.1145
▁fiha	-10.1147
لى	-10.1151
▁فترة	-10.1154
▁ادخل	-10.1154
▁ملاين	-10.1156
▁الآ	-10.1161
لن	-10.1163
▁نلقى	-10.1164
ach	-10.1164
▁غالطة	-10.1164
ينة	-10.1165
▁الاب	-10.1167
▁يشفيها	-10.117
▁نس	-10.1172
▁نصيب	-10.1189
طب	-10.1189
O	-10.119
▁تشوفي	-10.1195
▁يخبط	-10.1196
▁الباقي	-10.1199
▁حت	-10.12
▁الفعل	-10.1207
▁درلنا	-10.1208
ضا	-10.1208
ضرب	-10.1213
موت	-10.1216
▁عا	-10.1218
مين	-10.1221
▁عيشك	-10.1221
نق	-10.1228
▁ادعيلي	-10.1231
ho	-10.1232
▁بقوة	-10.1235
▁الدعم	-10.1235
▁سيارة	-10.1243
▁مزية	-10.1244
▁زعيم	-10.1246
▁لون	-10.125
فات	-10.1251
🇩	-10.1253
▁يوميا	-10.1254
▁مقالات	-10.1256
▁مب	-10.1261
▁تقتل	-10.1266
▁غلط	-10.1267
ci	-10.1267
حكم	-10.1268
▁الخدمة	-10.1271
▁ماء	-10.1274
▁ولالا	-10.1277
▁جربت	-10.1278
▁كت	-10.1279
▁للناس	-10.1281
▁بد	-10.1282
▁فرونسي	-10.1282
▁الشمس	-10.1287
نس	-10.1287
▁تل	-10.1291
▁باسم	-10.1292
▁الغيب	-10.1295
▁الدم	-10.1296
▁لحقت	-10.1297
▁حطيت	-10.1298
▁wla	-10.1299
▁أدعولي	-10.1299
▁فطورك	-10.1304
▁كبار	-10.1304
▁تيك	-10.1304
▁عبدو	-10.1305
▁وسط	-10.1305
▁🖤	-10.1308
▁الاخيرة	-10.1308
عاد	-10.1311
▁شفاء	-10.1328
▁قديمة	-10.1331
صا	-10.1334
سن	-10.1334
▁ينفع	-10.1334
▁المليون	-10.1335
▁اكون	-10.1338
▁كارثة	-10.134
▁سيكون	-10.134
▁اخوات	-10.1341
▁ياخويا	-10.1344
aime	-10.1345
غل	-10.1357
حم	-10.1358
▁قوي	-10.1359
ia	-10.136
▁kh	-10.1368
▁المستوى	-10.1377
▁جهة	-10.1378
▁allah	-10.1382
▁الصفحة	-10.1384
▁حاول	-10.1386
▁اف	-10.1389
▁50	-10.1391
▁تلحق	-10.1395
▁ماش	-10.1396
11	-10.1401
▁ولن	-10.1407
▁وهذه	-10.1411
▁^^	-10.1414
▁الغير	-10.1418
▁تخاف	-10.1419
▁اغلب	-10.1426
▁جنة	-10.1432
▁كيفية	-10.1436
▁تماما	-10.1439
خرج	-10.144
▁فكل	-10.1441
▁المر	-10.1445
▁خايف	-10.1449
▁اسمك	-10.1456
♥	-10.1462
▁جارية	-10.1465
▁قليلة	-10.1466
خذ	-10.1474
▁ربنا	-10.1478
شرف	-10.148
أس	-10.1482
▁والح	-10.1486
▁المرض	-10.1487
▁هاذيك	-10.1489
▁تلاميذ	-10.149
▁ذويه	-10.1494
▁درتها	-10.1498
فرح	-10.15
شار	-10.1504
▁يحفضكم	-10.1504
▁نار	-10.151
ada	-10.1516
▁النوم	-10.1516
▁لعبة	-10.1521
▁منتديات	-10.1521
▁بتوفيق	-10.1522
ment	-10.1525
▁ثورة	-10.153
بع	-10.1537
▁حاط	-10.1538
وما	-10.1548
▁الصحيح	-10.1548
▁صديق	-10.1556
گ	-10.1557
▁رووعة	-10.1557
▁حقيقي	-10.156
N	-10.1564
▁الملف	-10.1564
▁حس	-10.1565
▁لاحول	-10.1568
▁كاامل	-10.1575
▁ظاهرة	-10.1578
كس	-10.1579
▁البنت	-10.158
▁رياضي	-10.1581
▁الشخصية	-10.1587
خص	-10.1595
▁خص	-10.1595
▁نستناو	-10.1599
❤😊	-10.16
▁الأعلى	-10.1608
▁كلنا	-10.1609
▁سوى	-10.1612
▁ناقص	-10.1613
▁نتعلم	-10.1625
▁4-	-10.1626
nt	-10.1629
▁V	-10.1631
▁ليفات	-10.1632
▁واست	-10.1632
دن	-10.1632
حر	-10.1638
▁عقلي	-10.1641
سير	-10.1646
درس	-10.1657
▁قعدت	-10.1659
▁داك	-10.1667
▁صفحة	-10.1669
▁تق	-10.1671
▁بلمثل	-10.1673
▁إذ	-10.1674
حو	-10.1679
▁يلعب	-10.168
▁لباس	-10.168
لام	-10.1681
Q	-10.1682
▁وراك	-10.1682
▁Le	-10.1685
age	-10.1685
▁دعا	-10.1685
▁لولة	-10.1685
▁فضل	-10.1692
ge	-10.1694
▁عزيز	-10.1701
▁أسألك	-10.1707
▁عايشين	-10.1711
▁مختلف	-10.1711
سمع	-10.1712
خت	-10.1712
▁الخبر	-10.1714
▁زيدلنا	-10.1714
▁can	-10.1716
▁البو	-10.1717
رف	-10.1722
▁طاحت	-10.1723
مد	-10.1729
▁دج	-10.173
▁قتلتني	-10.1732
▁الضحك	-10.1738
▁يحل	-10.1738
▁تموت	-10.1741
بار	-10.1741
▁الزهد	-10.1741
▁الصغير	-10.1747
▁تطلع	-10.1748
▁ضيف	-10.1753
صب	-10.176
ضع	-10.1761
دعم	-10.1762
50	-10.1765
▁يبدا	-10.1767
ائر	-10.1767
▁شعرك	-10.1769
tch	-10.1772
▁عما	-10.1775
▁زهرة	-10.1775
حاول	-10.1782
▁توحشتك	-10.1785
غو	-10.1787
ره	-10.1789
▁القانون	-10.179
▁يعتبر	-10.1791
▁نضت	-10.1792
▁avec	-10.1794
▁المثل	-10.1795
▁التعليمي	-10.1796
▁إي	-10.1799
▁نقرى	-10.1799
▁ضعف	-10.18
▁البا	-10.1802
▁106	-10.1802
صور	-10.1803
▁بقي	-10.1804
▁ننصحك	-10.1804
▁الاعراب	-10.1808
▁نساء	-10.1809
▁يااربي	-10.1809
▁موتى	-10.1812
▁حفظه	-10.1816
▁وراه	-10.1817
▁المميز	-10.1817
▁نزل	-10.1819
▁العالمية	-10.1823
▁ورا	-10.1824
▁عنك	-10.1831
▁مسبقا	-10.1833
▁مكتوب	-10.1837
▁تف	-10.1839
▁قطع	-10.1841
▁النت	-10.1856
▁❌	-10.1861
▁نحتاج	-10.1861
▁💕	-10.1862
▁برحمته	-10.1868
▁كله	-10.1876
▁أكيد	-10.1879
▁no	-10.188
▁تعريف	-10.188
▁صاي	-10.188
رات	-10.1884
▁اش	-10.1884
▁ماني	-10.1885
▁راجع	-10.1887
ليش	-10.1889
aa	-10.1903
▁اختيار	-10.1905
هالك	-10.1906
كمل	-10.1906
▁وذلك	-10.1906
▁عدنا	-10.1909
ذهب	-10.1912
دك	-10.1917
▁للت	-10.1917
لحق	-10.1923
▁نتفرجو	-10.1924
نحبك	-10.1927
ترك	-10.1932
▁ويسعدك	-10.1932
▁ويكون	-10.1933
▁المجهودات	-10.1933
▁البحث	-10.1935
حط	-10.1935
▁نفرحو	-10.1938
ظل	-10.1941
▁باكالوريا	-10.1942
▁السر	-10.1948
قسم	-10.1949
▁he	-10.1949
▁صحيت	-10.196
▁مه	-10.1963
ولكم	-10.1963
امي	-10.1969
▁أروع	-10.1969
▁خلف	-10.197
افي	-10.1971
be	-10.1974
▁تعاود	-10.1976
▁دارها	-10.1977
▁لجميع	-10.1988
🎉❤	-10.1992
ياء	-10.1992
▁يحتاج	-10.1994
▁هاكا	-10.1995
▁ذكرت	-10.2002
▁تعطي	-10.2003
▁وحسن	-10.2005
▁Les	-10.2007
▁أمور	-10.2008
▁لذا	-10.2008
▁ياودي	-10.2009
ابي	-10.2011
▁اشهر	-10.2012
▁مواقع	-10.2013
▁العلمي	-10.2027
▁تغ	-10.2028
فيد	-10.2036
▁بالرحمة	-10.2038
▁زواج	-10.2038
طيب	-10.2039
▁موفق	-10.204
▁أر	-10.2041
▁يفرح	-10.2046
حس	-10.2048
▁المجال	-10.205
ss	-10.2054
▁متت	-10.2058
▁طبق	-10.2058
▁يوفقني	-10.2058
▁نخرج	-10.206
)،	-10.2062
▁السي	-10.2064
▁نتائج	-10.2064
▁اخيرا	-10.2066
▁وليدي	-10.2072
▁بالي	-10.2078
▁صدقة	-10.2081
▁هكاك	-10.2088
G	-10.2094
▁لإ	-10.2096
▁ديناتور	-10.2097
▁سب	-10.2097
▁عمار	-10.2099
▁اليهود	-10.2101
▁جزيل	-10.2105
خدم	-10.2107
▁الافضل	-10.2108
كذب	-10.2108
▁رواية	-10.2113
▁ديراكت	-10.2114
▁العبد	-10.2116
قلب	-10.2119
▁يعاونك	-10.2126
▁زين	-10.2127
ich	-10.2134
▁ولل	-10.2136
▁حافظ	-10.2138
▁يجد	-10.2145
▁إقامة	-10.2146
▁نبغي	-10.2153
▁رأيت	-10.2154
▁مقبل	-10.2154
▁يذكر	-10.2159
▁تشبيه	-10.2159
▁والف	-10.216
▁ro	-10.2163
▁يهبل	-10.2165
كن	-10.2166
▁كف	-10.2167
▁غريبة	-10.2168
vi	-10.2175
▁الآخرة	-10.218
ادي	-10.2181
▁طوال	-10.2185
lna	-10.2188
▁نتمنا	-10.2189
▁Ha	-10.2192
▁فرض	-10.2198
▁أرحم	-10.22
▁تستحق	-10.2201
▁مجموعة	-10.2201
يارب	-10.2203
،،	-10.2204
▁تستطيع	-10.2211
▁وصح	-10.2218
▁قاتلي	-10.2218
▁فدار	-10.2221
▁عامة	-10.2225
يبة	-10.2228
▁زدت	-10.2233
▁الث	-10.2234
▁حفظت	-10.2235
▁dz	-10.2237
▁جيش	-10.2238
▁بغير	-10.224
▁نديرها	-10.2241
▁إنه	-10.2242
▁ارزقنا	-10.2246
▁أولاد	-10.225
▁حدود	-10.2253
✅	-10.2258
ڤ	-10.2259
tou	-10.2266
▁حمبوك	-10.2267
يتها	-10.227
▁ونت	-10.2271
وث	-10.2273
ina	-10.2279
جن	-10.2283
راح	-10.2285
▁تفتح	-10.2287
▁حكيت	-10.2288
امين	-10.2289
▁مدير	-10.229
▁وراح	-10.229
▁خر	-10.2297
▁الفيلم	-10.2302
▁جيل	-10.2303
▁تخلي	-10.2307
▁در	-10.2309
▁العليا	-10.2313
▁الاستضافة	-10.2316
▁الفرحة	-10.2316
▁يخ	-10.2317
ic	-10.2319
▁يعيش	-10.2321
▁تحكم	-10.2327
▁احرار	-10.2329
▁نقاط	-10.233
hh	-10.2334
جعل	-10.2334
▁نست	-10.2335
▁👏👏	-10.2335
▁تجسيد	-10.2336
يفة	-10.234
▁يح	-10.2351
▁قصدي	-10.2352
▁كحل	-10.2355
▁يوصل	-10.236
ذو	-10.2363
▁قلنا	-10.2366
▁اذ	-10.2368
وان	-10.2369
▁جاية	-10.2373
▁الراقي	-10.2373
eh	-10.2375
▁وكذلك	-10.2376
▁نبي	-10.2377
مليون	-10.2379
▁bi	-10.238
▁سعر	-10.2384
▁ماشاءالله	-10.2384
نظر	-10.2384
🫶	-10.2385
▁يبعد	-10.2385
▁💖	-10.2387
▁kada	-10.2388
▁موقف	-10.2389
▁ثالث	-10.2391
iya	-10.2392
▁ابراهيم	-10.2394
▁الأخير	-10.2397
▁ريح	-10.2398
🌸	-10.2405
▁تلمسان	-10.2411
▁اذن	-10.2412
▁أب	-10.2412
▁السكن	-10.2415
▁اهم	-10.2417
▁اسبوع	-10.242
ايام	-10.242
طلب	-10.2424
▁min	-10.2426
▁22	-10.2427
▁بالماء	-10.2431
يام	-10.2438
يلنا	-10.2439
▁المست	-10.244
▁قيم	-10.2442
▁باتنة	-10.2443
▁معكم	-10.2444
خوف	-10.2449
▁عرب	-10.245
▁بالف	-10.2451
▁يقولي	-10.2452
▁أكون	-10.2453
▁واي	-10.2453
▁نظام	-10.2457
▁وقتك	-10.246
▁نستنى	-10.2461
لون	-10.2464
▁ظ	-10.2469
▁good	-10.247
▁ختك	-10.2472
▁لدرجة	-10.2474
▁بقات	-10.2477
▁البنات	-10.248
▁ارض	-10.2484
▁منهجية	-10.2486
▁لمدة	-10.2495
▁رني	-10.2496
▁يتقبل	-10.25
رح	-10.2503
▁المتابعين	-10.2507
▁يستحق	-10.2508
▁منزل	-10.2509
▁أحبك	-10.2513
وبة	-10.2514
▁حلال	-10.2514
▁😘	-10.2516
صلى	-10.2523
▁قمت	-10.2526
▁الحرام	-10.2533
▁نحط	-10.2535
صدق	-10.2537
▁نسبة	-10.2538
▁لعب	-10.254
▁ظلم	-10.254
ولة	-10.2541
▁عرس	-10.2544
▁تتكلم	-10.2545
▁جاتني	-10.2546
▁عائشة	-10.2546
▁الزمان	-10.2546
▁عباس	-10.2547
▁المهجر	-10.2549
▁الذنوب	-10.2553
▁استفدت	-10.2558
▁كذا	-10.256
▁المسجد	-10.2561
وين	-10.2561
▁عائلة	-10.2568
▁قانون	-10.2575
غي	-10.2575
▁الشفاء	-10.2577
🏻	-10.2577
▁كأس	-10.2583
▁قنوات	-10.2586
▁النقدي	-10.2586
▁am	-10.2587
▁البكلوريا	-10.2588
▁زيدي	-10.2591
▁We	-10.2595
koum	-10.2596
▁صحتك	-10.2597
▁بسيط	-10.2597
▁بطاقة	-10.2603
خبر	-10.2603
▁واصلي	-10.2606
▁قام	-10.2607
▁المش	-10.2608
▁الورقة	-10.2617
بق	-10.2617
فتح	-10.262
ja	-10.2622
وهش	-10.2623
▁رزق	-10.264
▁فطوركم	-10.2642
نفس	-10.2643
رش	-10.2646
داء	-10.2649
▁يتكلم	-10.2652
عه	-10.2653
▁بيض	-10.2653
خف	-10.2653
▁❤🤲	-10.2655
▁خالد	-10.2656
▁جداتي	-10.2657
▁ناجح	-10.2658
▁Bon	-10.2659
▁المجاز	-10.2666
وغ	-10.2668
ie	-10.2678
▁سوايع	-10.2684
آل	-10.2687
▁تفكر	-10.2689
جمع	-10.2695
😢❤	-10.2695
▁تحسب	-10.2698
▁هب	-10.2699
زو	-10.27
▁O	-10.2708
▁الامور	-10.271
▁وام	-10.2711
▁فلان	-10.2713
🌷	-10.2716
▁معرف	-10.2719
▁صالحة	-10.2719
▁الإن	-10.2721
عل	-10.2723
▁القط	-10.2725
▁x	-10.2725
▁أصبحت	-10.2726
▁والد	-10.273
▁يشفي	-10.2739
▁أثر	-10.274
▁تسكن	-10.2745
امة	-10.2746
انت	-10.2749
▁يقراو	-10.2749
▁الوالد	-10.2749
▁نكره	-10.275
▁نورت	-10.275
صباح	-10.2755
▁غر	-10.2757
bo	-10.276
2024	-10.2768
lou	-10.2771
ليس	-10.2772
ty	-10.2775
▁plus	-10.2779
▁انتظر	-10.2781
وح	-10.2785
▁ستر	-10.2789
تفرج	-10.2789
▁يحبو	-10.2791
▁كاتب	-10.2797
▁فتحت	-10.2797
▁مرسي	-10.2799
▁إسم	-10.2802
▁تثبيت	-10.2807
▁الوطنية	-10.2809
نعم	-10.2811
▁رآه	-10.2825
▁شت	-10.2826
▁شعور	-10.2826
▁مبقاش	-10.283
▁دام	-10.2833
صرا	-10.2834
بلي	-10.2835
▁منطقة	-10.2837
▁متوسط	-10.2837
▁تفكرت	-10.2837
▁وعلاش	-10.284
▁حركات	-10.2842
▁شركة	-10.2843
▁مغ	-10.2847
▁كثرة	-10.2847
▁درتو	-10.2849
▁))	-10.2854
he	-10.2854
▁نلقاو	-10.2854
▁وصفات	-10.2856
▁نشوفك	-10.2859
▁الاخوة	-10.2859
▁مسلمين	-10.286
▁جوان	-10.2864
▁فضلا	-10.2866
ابة	-10.2875
▁لأنو	-10.2882
▁تفعل	-10.2884
▁بسيطة	-10.2885
▁لق	-10.2888
▁أجر	-10.289
▁زيت	-10.289
----------------	-10.2893
▁😅😂	-10.2893
▁بقاو	-10.2897
▁دايرين	-10.2899
▁صفة	-10.2901
▁1.	-10.2902
▁not	-10.2904
▁العرش	-10.2907
لب	-10.2907
▁الدعوة	-10.2908
▁قالولي	-10.291
▁بسرعة	-10.292
▁bzf	-10.292
يدة	-10.292
▁الرائعة	-10.2923
▁لهذه	-10.2926
▁اقراي	-10.2926
and	-10.2928
ادة	-10.293
▁ويغفر	-10.2933
▁إنك	-10.2938
▁👍👍	-10.2942
▁بوك	-10.2942
▁دايرة	-10.2942
▁يرزق	-10.2944
▁أقل	-10.2944
▁وابن	-10.2952
▁عامين	-10.2954
كنت	-10.2959
▁سبحانو	-10.2963
▁قا	-10.2963
▁الأنبياء	-10.2971
▁آية	-10.2973
▁برو	-10.2973
▁تفرح	-10.2974
▁طلاب	-10.2979
فصل	-10.2984
▁وأما	-10.2985
▁واغفر	-10.2986
▁يستطيع	-10.2989
قارب	-10.2993
▁❤😢	-10.2994
▁نجد	-10.2995
▁بخصوص	-10.2995
▁ادعوا	-10.2998
لعب	-10.3002
بدل	-10.3003
▁درجة	-10.3006
▁الرحمة	-10.3006
▁طبيب	-10.3006
▁ته	-10.3015
▁التسجيل	-10.302
▁حاسة	-10.303
▁كفر	-10.3036
▁فالقمة	-10.304
كسر	-10.3043
▁طرق	-10.3045
▁طريقتك	-10.3051
▁قناتي	-10.3053
▁عكس	-10.3053
oli	-10.3059
▁ضحكتني	-10.307
▁يكونو	-10.3072
".	-10.3072
▁صف	-10.3072
▁وبال	-10.3074
min	-10.3076
▁نفع	-10.3077
آآ	-10.3082
▁الما	-10.3087
▁جمعة	-10.3087
ant	-10.3088
▁ناجحة	-10.3091
ليل	-10.3095
▁مجددا	-10.3097
▁اللغات	-10.3099
▁نحبوك	-10.31
▁العنوان	-10.3104
▁يكمل	-10.3105
▁يبدو	-10.3106
▁عيسى	-10.3109
▁rebi	-10.3109
▁استاذي	-10.3112
▁الكتابة	-10.3116
▁بنفس	-10.3118
▁ربع	-10.3118
se	-10.3119
▁تش	-10.3122
▁قتلو	-10.3125
أم	-10.313
▁ياريت	-10.3132
لح	-10.3133
▁fa	-10.3135
مار	-10.3138
▁ويرزقك	-10.314
▁تزوج	-10.3144
راج	-10.3147
لبس	-10.315
▁العكس	-10.3151
▁انستا	-10.3156
سلام	-10.3161
قض	-10.3168
▁Ch	-10.3169
▁يصرا	-10.3173
▁تلقى	-10.3174
▁رحمها	-10.3178
▁تربية	-10.3178
▁تبدل	-10.3184
ائل	-10.3185
▁vrai	-10.3188
▁موسى	-10.3188
▁بسكو	-10.3189
سل	-10.3194
👏	-10.3194
▁قيل	-10.3196
▁حذف	-10.3197
▁شعال	-10.3198
▁لغ	-10.32
▁المنفى	-10.3207
😊❤	-10.3208
▁ينق	-10.3208
فيديو	-10.3209
▁حركة	-10.321
▁المبارك	-10.3214
▁up	-10.3217
▁دوما	-10.322
▁part	-10.3221
▁اللغوي	-10.3228
▁الاعلى	-10.3234
💙	-10.3237
▁إيمان	-10.3239
▁بنا	-10.324
ڪ	-10.324
وجد	-10.3242
تن	-10.3243
▁نحبو	-10.3244
▁القديمة	-10.3244
▁يقبل	-10.3247
▁بأس	-10.3248
▁الكرسي	-10.3248
▁المشاركة	-10.3251
▁آداب	-10.3251
▁رئيس	-10.3252
▁شيطان	-10.3262
▁امرأة	-10.3263
توش	-10.3263
▁النهاية	-10.3264
▁الأخلاق	-10.3265
▁تفهمي	-10.327
▁نجري	-10.3273
ft	-10.3276
▁يماك	-10.328
▁بع	-10.328
▁ابني	-10.3283
▁تمشي	-10.3285
▁الاسلامية	-10.3287
▁انس	-10.3288
▁سمحت	-10.3296
روب	-10.3299
▁وارحمه	-10.3305
▁اعطيني	-10.3307
▁مرعبة	-10.3307
▁والصلاة	-10.3307
▁أخر	-10.3308
▁miloud	-10.3309
▁وغير	-10.3311
نجح	-10.3318
▁زي	-10.3326
▁حلو	-10.3328
نسا	-10.333
▁السرد	-10.3332
تيني	-10.3335
▁معروف	-10.3335
▁الثوب	-10.3336
▁الصيف	-10.3341
houm	-10.3343
اتمنى	-10.3343
▁كوراج	-10.3344
▁أمل	-10.3345
🤔	-10.3345
▁يظهر	-10.3354
▁ارواحي	-10.3356
كثر	-10.336
▁تفيد	-10.3362
▁تي	-10.3364
▁الشهداء	-10.3365
غريب	-10.3375
▁قم	-10.3375
▁يلا	-10.3377
طور	-10.3378
واصل	-10.3379
▁عني	-10.3382
▁نطلب	-10.3382
▁23	-10.3384
صبر	-10.3385
▁استادة	-10.3387
▁برافو	-10.3388
af	-10.3388
▁تحرمنا	-10.3398
▁الامل	-10.3399
▁المادة	-10.3401
▁غاليتي	-10.3403
▁الأعمال	-10.3403
▁المتوسط	-10.3405
▁خونا	-10.3406
▁شهرين	-10.3407
▁الدقيقة	-10.3407
▁جنون	-10.3408
▁au	-10.341
▁تحصلت	-10.3417
▁قوية	-10.3421
ik	-10.3424
ونة	-10.3425
دب	-10.3426
▁ni	-10.3427
▁بلو	-10.3428
تعلم	-10.3434
▁الجنون	-10.3437
▁المح	-10.3438
▁ونحب	-10.3439
▁وشمن	-10.344
ation	-10.3441
▁تمنيت	-10.3442
▁حليت	-10.3442
▁suis	-10.3445
▁ارواح	-10.3446
▁بكر	-10.3446
▁يستاهل	-10.3448
▁vidéos	-10.3466
▁عملية	-10.3469
▁فالفيديو	-10.3473
▁عادية	-10.3473
▁هاي	-10.348
▁يلحق	-10.3482
قاء	-10.3485
▁♥️♥️	-10.3486
▁نعيش	-10.3489
▁وإنما	-10.3493
▁موراك	-10.3495
ستر	-10.3497
▁الوالدة	-10.3499
▁مفعول	-10.3506
▁kan	-10.3506
▁طابعة	-10.3509
▁قالها	-10.351
احة	-10.351
صة	-10.3513
▁الصحابة	-10.3514
ضيف	-10.3516
▁خفيف	-10.3521
▁ja	-10.3524
▁يخوفو	-10.3524
▁🙂🙂	-10.3527
عام	-10.3527
▁آميين	-10.3528
قرا	-10.3531
▁تقديم	-10.3535
▁🙄	-10.3536
حمل	-10.3537
▁لخير	-10.3539
صير	-10.3543
▁بحر	-10.3554
▁صحح	-10.3555
اث	-10.3556
▁المشاكل	-10.3557
▁أسعد	-10.3561
▁جدد	-10.3562
▁dans	-10.3562
رعب	-10.3562
▁ربحت	-10.3564
▁حسبت	-10.3575
▁قدوة	-10.3578
عو	-10.3581
▁اخوة	-10.3583
▁هاني	-10.3586
زر	-10.3587
▁اشرح	-10.3597
▁يضرب	-10.3597
▁هادوك	-10.36
▁خسرت	-10.3603
▁ماكان	-10.3607
▁وفاة	-10.3614
▁العباد	-10.3614
▁استمري	-10.362
▁النتيجة	-10.3621
بط	-10.3622
▁لانك	-10.3622
▁لخرين	-10.3626
غا	-10.3627
فض	-10.3632
▁سعد	-10.3634
▁كأن	-10.3635
حسن	-10.3636
▁الحساب	-10.3637
سمح	-10.3637
▁الإسلامية	-10.3637
▁هذوك	-10.3637
▁سو	-10.3643
▁جيبو	-10.3644
▁khir	-10.3647
▁دقايق	-10.3652
▁فرنسية	-10.3652
▁ودي	-10.3656
▁زهري	-10.3659
▁أرى	-10.3661
▁مستقبل	-10.3665
cha	-10.3667
▁فب	-10.3667
▁واعر	-10.3668
▁الأقل	-10.3669
▁Lola	-10.3673
▁نجيبوه	-10.3674
▁قائمة	-10.3675
هد	-10.3676
▁حزن	-10.3679
ضيع	-10.3681
▁لاكن	-10.3682
▁المد	-10.3688
▁صحبتي	-10.3694
▁يق	-10.3694
▁والن	-10.3696
فال	-10.3699
▁اللول	-10.3705
▁fel	-10.3707
شوف	-10.3712
أنا	-10.3713
▁أع	-10.3718
عند	-10.372
▁خسارة	-10.3721
▁قدرت	-10.3723
▁قر	-10.3723
▁تشخيص	-10.3726
▁الأبيض	-10.3729
اله	-10.373
▁ووسع	-10.3733
▁اسال	-10.3734
▁الحرية	-10.3736
▁تاكل	-10.3737
▁أستاذنا	-10.3739
▁الانترنت	-10.3741
▁قرأت	-10.3744
مه	-10.3744
استاذ	-10.3746
▁تبانلي	-10.3747
▁ابحث	-10.3747
▁Oui	-10.375
dr	-10.3751
▁شريك	-10.3757
حق	-10.3758
▁الوحيدة	-10.376
▁توفيقك	-10.3761
▁للعلميين	-10.3765
قم	-10.3767
▁اصبحت	-10.3767
▁جابو	-10.377
دني	-10.3771
▁صبح	-10.3775
lt	-10.3776
ot	-10.3776
▁Ta	-10.3776
حك	-10.3776
▁حلي	-10.3777
▁أسطورة	-10.378
▁حبة	-10.3782
▁za	-10.3786
▁احترام	-10.3786
اتهم	-10.3786
▁يرى	-10.3787
▁ننتظر	-10.3788
~	-10.3789
▁mi	-10.3793
▁المورال	-10.3794
%	-10.3801
وهاش	-10.3806
▁ننجحوا	-10.3806
▁متابعتك	-10.3815
▁أستغفر	-10.3821
oul	-10.3823
▁بركة	-10.3827
▁ka	-10.3831
za	-10.3834
▁والدي	-10.3838
دع	-10.3839
▁اساس	-10.3842
لق	-10.3842
▁ذنوب	-10.3843
فك	-10.3843
rou	-10.3851
▁لبارح	-10.3851
▁دفع	-10.3852
▁موجودة	-10.3852
صي	-10.3852
▁جبتو	-10.3852
قوم	-10.3855
▁معهم	-10.3858
▁زر	-10.386
▁زال	-10.3862
▁pro	-10.3864
▁خلاف	-10.3864
▁fik	-10.3867
▁أهم	-10.3869
▁تلميذ	-10.3869
▁المصطلحات	-10.387
▁توفيق	-10.3874
▁يطيحو	-10.3876
داع	-10.3878
▁مصدر	-10.3881
▁الصحيحة	-10.3886
▁شوفو	-10.3888
▁تشرح	-10.3889
▁التحرر	-10.389
فن	-10.3892
▁مركز	-10.3892
▁👏	-10.3894
▁بالأ	-10.3895
▁أعظم	-10.3896
رية	-10.3903
يدي	-10.3904
عبد	-10.3905
قه	-10.3905
▁مره	-10.3908
▁وانتم	-10.3909
▁روحها	-10.3913
▁اهله	-10.3919
▁قدير	-10.3925
▁الرقم	-10.3934
▁نزلت	-10.3934
▁تفضل	-10.3938
▁سم	-10.3939
▁أس	-10.3943
▁حم	-10.3949
▁رائد	-10.3955
▁دوكا	-10.3956
▁~~	-10.3957
تيش	-10.3966
▁تظهر	-10.3976
▁تمد	-10.3976
▁غا	-10.3982
▁تعتبر	-10.3984
▁انهم	-10.3985
▁مثواه	-10.3987
▁يكثر	-10.3989
رار	-10.3991
▁ليزوم	-10.3992
▁kml	-10.3993
▁الحاج	-10.3993
عب	-10.3996
▁💙	-10.3996
▁الذرية	-10.3997
▁لف	-10.3998
▁اثر	-10.3999
▁فاهمة	-10.4
شد	-10.4001
نها	-10.4006
▁القتل	-10.4007
▁أقرب	-10.4008
▁تصحيح	-10.401
▁لشعب	-10.4011
tt	-10.4012
▁للع	-10.4014
▁عزيزتي	-10.4019
مش	-10.4021
ul	-10.4023
▁بالعربية	-10.4025
💞	-10.4029
▁ذ	-10.403
▁تك	-10.4034
رحم	-10.4035
▁غياب	-10.4035
13	-10.4035
▁عوض	-10.4035
▁والإ	-10.4041
▁تشري	-10.4044
▁توحشت	-10.4044
▁رمز	-10.4056
▁قعد	-10.4056
▁اهدر	-10.4057
us	-10.4061
▁راقد	-10.4064
طلق	-10.4066
▁تفرج	-10.4071
▁بدأت	-10.4072
▁نفسو	-10.4073
▁تشوفو	-10.4075
▁شد	-10.4078
حدث	-10.4091
▁نر	-10.4092
▁جدك	-10.4094
▁ستكون	-10.4096
نية	-10.411
▁رحيم	-10.4111
▁تحطي	-10.4113
▁قص	-10.4121
▁الضيافة	-10.4128
عقل	-10.4131
ضل	-10.4132
▁ويصبر	-10.4133
▁موفقة	-10.4134
▁يقرأ	-10.4137
▁لوقت	-10.4139
▁سبتمبر	-10.4141
▁مقر	-10.4151
سنين	-10.4151
▁فعلية	-10.4154
عطي	-10.4157
▁دل	-10.4161
صيب	-10.4167
▁الحلم	-10.4168
▁التعليقات	-10.4171
رفع	-10.4179
لين	-10.418
▁يصلي	-10.4182
000	-10.4185
▁5-	-10.4192
▁بار	-10.4193
dj	-10.4194
▁ثقة	-10.4194
▁افريقيا	-10.4196
▁حميد	-10.4199
▁يعد	-10.4203
▁تنشر	-10.4203
▁لديه	-10.4205
▁كناية	-10.4205
▁الجاية	-10.4206
▁نسقسيكم	-10.4207
▁❤😂	-10.421
▁والدك	-10.4213
▁الرابعة	-10.4213
▁التجارة	-10.4214
▁الأب	-10.4217
▁يحمل	-10.4218
▁تخلع	-10.422
▁يحكم	-10.4221
وله	-10.4225
▁البيانية	-10.4229
▁الضو	-10.4229
▁المسلسل	-10.4231
▁علميين	-10.4232
▁لابس	-10.4233
ائها	-10.4235
▁خطا	-10.4237
شغل	-10.4237
طول	-10.4238
▁كر	-10.424
▁والوا	-10.4241
▁الفيديوات	-10.4242
▁اعمل	-10.4243
▁الدنس	-10.4243
▁2019	-10.4244
▁أرض	-10.4246
▁بمثل	-10.4247
▁تكلم	-10.4252
▁البريد	-10.4253
▁عال	-10.4254
▁النصيحة	-10.4255
no	-10.4255
▁قبرها	-10.4256
rt	-10.4259
▁حكايتك	-10.426
▁الاخلاق	-10.4263
▁ويقول	-10.4266
▁غباء	-10.427
▁21	-10.4274
▁اوو	-10.4274
▁﴿	-10.4275
وفي	-10.4275
▁غالي	-10.4277
▁يجيبو	-10.4278
▁الفلسطينية	-10.4284
▁المخ	-10.4286
▁خاوة	-10.429
وحد	-10.4291
دفع	-10.4291
▁اجر	-10.4295
▁الجمال	-10.4298
زال	-10.4299
▁ملقيتش	-10.4301
بدأ	-10.4302
▁الخط	-10.4304
تعرف	-10.4305
▁امور	-10.431
دد	-10.431
▁فتاة	-10.431
▁اجتماعيات	-10.4311
▁اولى	-10.4315
▁all	-10.4318
▁بالصحة	-10.4318
▁دولار	-10.4318
▁نتواصل	-10.4319
▁نتاعي	-10.4319
▁💔💔	-10.4324
▁فلباك	-10.4325
▁اليوتوب	-10.4325
شعبة	-10.4329
▁مرور	-10.4332
▁أف	-10.4334
▁رايحين	-10.4334
▁القا	-10.4339
▁الجغرافيا	-10.4342
▁ياسين	-10.4344
▁يطلب	-10.4347
بني	-10.435
حد	-10.4354
▁كيوت	-10.4354
▁جناتك	-10.4356
▁ڨع	-10.436
جاز	-10.4362
▁تحفظ	-10.4364
ربح	-10.4365
▁اودي	-10.4366
▁an	-10.4366
▁أنهم	-10.4368
▁رقاد	-10.437
▁th	-10.4373
▁شرك	-10.4377
✌	-10.4383
▁svp	-10.4385
صاب	-10.4386
▁المقصود	-10.4388
▁الترحيب	-10.439
▁والتي	-10.4392
فار	-10.4393
▁ارحمها	-10.4398
ll	-10.4401
اتها	-10.4401
▁التعريف	-10.4403
▁الكون	-10.4405
mou	-10.4408
▁مافهمت	-10.4409
عش	-10.4411
طيح	-10.4414
اما	-10.4418
▁Reda	-10.4419
▁بعين	-10.4421
🎀	-10.4421
▁الدخول	-10.4422
▁oui	-10.4423
خاف	-10.4424
▁اشعار	-10.4426
لاء	-10.4428
فرج	-10.4429
▁تضع	-10.4448
▁Rak	-10.4449
▁جانب	-10.4453
▁rbi	-10.4457
▁مفيد	-10.4459
▁الجهل	-10.446
ent	-10.4464
man	-10.4467
▁وصف	-10.447
40	-10.4471
▁منبعد	-10.4476
▁تحقق	-10.4477
▁يعطي	-10.4478
▁ض	-10.4485
▁النتائج	-10.4486
وج	-10.4487
▁تتفرج	-10.4488
▁الكاملة	-10.4489
▁ويا	-10.449
ناقش	-10.449
▁رنا	-10.4492
▁معنتها	-10.4493
▁chi	-10.4493
▁الأفضل	-10.4495
فى	-10.4497
ذب	-10.45
▁عدو	-10.45
▁دروك	-10.4502
▁تقري	-10.4503
▁فيديوا	-10.4504
▁قاتل	-10.4509
▁الض	-10.4509
▁الصالحين	-10.451
▁نتبعك	-10.4511
▁الافكار	-10.4512
▁الجد	-10.4516
▁تتم	-10.4519
▁بعيدا	-10.452
▁الجو	-10.4523
▁صحبي	-10.4528
▁خلقه	-10.4533
▁فاير	-10.4534
▁السابقة	-10.4535
▁لأني	-10.4538
▁Dir	-10.4538
▁نبغيك	-10.4538
▁بقيت	-10.4538
▁إليها	-10.4541
اسي	-10.4542
▁التالي	-10.4542
▁كتابة	-10.4543
▁الجليل	-10.4544
▁أردت	-10.4548
▁الرقية	-10.4548
ziz	-10.4549
▁وعند	-10.4557
▁bravo	-10.4559
▁أحيانا	-10.4559
▁البي	-10.4561
▁الولاية	-10.4564
▁fait	-10.4565
▁سير	-10.4565
جع	-10.4568
▁ودير	-10.457
▁الدراهم	-10.4571
▁الولايات	-10.4572
▁نحاول	-10.4573
▁مضاف	-10.4575
▁رزقك	-10.4584
سام	-10.4584
▁اجركم	-10.4586
▁سيريو	-10.4588
▁جز	-10.4588
▁تلقا	-10.4593
▁تصلح	-10.46
▁was	-10.4602
▁زهر	-10.4602
▁تقعد	-10.4604
▁مؤمن	-10.4607
▁أدب	-10.461
▁بصراحة	-10.4613
▁مورايا	-10.4617
rf	-10.4619
▁may	-10.462
▁بقدر	-10.4622
هوم	-10.4622
▁نسمعو	-10.4625
▁بجاية	-10.4626
▁المراة	-10.4627
▁يخرجو	-10.4627
▁اقرا	-10.4627
▁إست	-10.4627
▁الكاتب	-10.4633
▁صديقي	-10.4642
ite	-10.4644
eur	-10.4646
▁نقلكم	-10.4647
فور	-10.4647
▁تصل	-10.4647
▁واقع	-10.4649
عط	-10.4652
▁يقدم	-10.4652
▁سهلة	-10.4653
علوم	-10.4656
▁واسكنه	-10.4658
▁انجح	-10.4661
رس	-10.4663
▁مفهوم	-10.4664
▁أعلى	-10.4668
▁ومات	-10.4668
الخ	-10.4673
▁تالي	-10.4674
lek	-10.4674
▁khouya	-10.4677
▁ça	-10.4677
▁جبتي	-10.468
استعارة	-10.4683
▁with	-10.4695
▁الصغيرة	-10.4698
سورة	-10.4703
▁صنع	-10.4704
▁كاملين	-10.4705
▁ملخر	-10.4709
▁عطا	-10.471
عذر	-10.471
▁المساعدة	-10.4711
▁يثبت	-10.4711
قصة	-10.4716
حكايات	-10.4716
▁وينتا	-10.4716
كره	-10.4717
▁فكر	-10.4722
▁علاجال	-10.4724
▁فاعل	-10.4724
▁آدم	-10.4726
▁الألباني	-10.4726
▁وسع	-10.4727
▁وجزاكم	-10.4731
▁تعليم	-10.4731
اعة	-10.4733
▁يجري	-10.4734
▁غيبة	-10.4735
▁الكذب	-10.4737
آن	-10.4738
▁يصل	-10.4741
بقى	-10.4742
▁ولاقوة	-10.4743
▁تقل	-10.4743
وض	-10.4745
▁المسابقة	-10.4751
▁تصبح	-10.4752
▁نخمم	-10.4753
دعوة	-10.4755
▁هدف	-10.4757
▁بيزار	-10.4763
ريح	-10.4772
▁بحاجة	-10.4774
اسم	-10.4776
▁mou	-10.4777
▁co	-10.4777
ef	-10.4777
▁بيع	-10.4778
▁قطر	-10.478
▁طا	-10.4781
▁معناه	-10.4783
▁wach	-10.4785
فين	-10.479
▁زد	-10.4791
يتو	-10.4792
▁Wlh	-10.48
▁🥺🤲	-10.4805
▁مزيد	-10.481
▁مليار	-10.4812
▁منعرفش	-10.4816
▁qu	-10.4818
مون	-10.4818
▁تحبس	-10.482
دعي	-10.482
▁خيال	-10.4823
▁وعد	-10.483
▁وقع	-10.4832
رزق	-10.4835
▁معها	-10.4836
▁هدرة	-10.4837
مك	-10.4837
▁نسب	-10.4839
▁عشرة	-10.4839
▁الرسالة	-10.4841
▁راحة	-10.4843
▁أستاد	-10.4843
▁عاجلا	-10.4844
▁نقعد	-10.4844
▁خرا	-10.4845
أخذ	-10.4846
▁عهد	-10.4852
▁بعث	-10.4852
▁جهل	-10.4853
▁تراب	-10.4856
يحة	-10.4857
▁نوم	-10.4857
▁ظروف	-10.486
قيم	-10.4865
خلاص	-10.4866
سق	-10.4866
رجع	-10.4869
▁لقب	-10.487
▁نلعب	-10.4873
▁الثقة	-10.4877
سكو	-10.4879
▁لبعض	-10.4882
▁أوقات	-10.4883
▁قلبه	-10.4884
▁بطل	-10.4884
▁ad	-10.4886
▁اساتذة	-10.4887
▁الشرف	-10.4889
▁المولى	-10.4894
▁السلف	-10.4895
▁ألم	-10.49
فاق	-10.4901
🥀	-10.4903
▁ربح	-10.4904
▁🙃	-10.4906
ff	-10.4906
▁أخت	-10.4907
▁go	-10.4908
▁تما	-10.4911
▁ديرولنا	-10.4917
▁واعرة	-10.4919
▁الاخرى	-10.4919
▁ويفرحك	-10.4921
وري	-10.4921
▁ملا	-10.4926
🙃	-10.4928
▁حوالي	-10.4929
▁عنابة	-10.4936
▁يدور	-10.4936
ut	-10.4936
جت	-10.4937
ائد	-10.4938
▁لواحد	-10.4941
▁يهدرو	-10.4945
▁ديك	-10.4947
▁استعمال	-10.4952
ائب	-10.4955
▁الفقر	-10.4955
بعث	-10.4957
▁فكيف	-10.4957
▁الفقيد	-10.4958
▁غفر	-10.4958
▁حرفيا	-10.4958
▁وف	-10.496
▁افتح	-10.496
▁سجلت	-10.4964
▁اللهجة	-10.4964
كبر	-10.4965
▁عارفة	-10.497
▁مرحلة	-10.4972
ih	-10.4974
▁تصرا	-10.4975
ez	-10.4977
خي	-10.4978
حال	-10.498
▁أفكار	-10.4981
▁تز	-10.4981
▁فأنا	-10.4986
▁بالخوف	-10.4989
▁موصول	-10.499
ظهر	-10.4992
صحيح	-10.4994
▁امك	-10.4998
تعب	-10.5002
um	-10.5003
▁مق	-10.5003
▁يز	-10.5005
▁التمارين	-10.5008
▁يروحو	-10.5008
▁جرب	-10.5012
▁فتنة	-10.5013
▁مشاهدة	-10.5016
▁تخلص	-10.5019
▁القديم	-10.5022
▁dé	-10.5025
▁وفيك	-10.5027
▁حبيبنا	-10.5028
▁الكبرى	-10.5028
▁🌸	-10.5031
▁الحسن	-10.5032
▁خلو	-10.5035
▁You	-10.5035
وصل	-10.5036
▁شئت	-10.5041
▁بالعكس	-10.5044
▁الأخيرة	-10.5045
end	-10.5045
▁الحصول	-10.5046
ونه	-10.5047
▁المفضل	-10.5048
▁اختك	-10.5049
▁ادعي	-10.5051
ريس	-10.5051
💓	-10.5055
جور	-10.5056
لوش	-10.5058
▁والان	-10.5059
ضة	-10.5059
▁صلاح	-10.5067
▁شم	-10.5067
▁موسيقى	-10.5068
hm	-10.5068
ok	-10.507
▁وتكون	-10.5072
ولهم	-10.5073
▁لح	-10.5073
ائع	-10.5074
▁واقتصاد	-10.5076
▁خاطرش	-10.5077
🙂💔	-10.5077
لناش	-10.5083
ement	-10.5084
▁حجر	-10.5085
▁دقائق	-10.5088
▁عمك	-10.5089
▁ذرك	-10.5089
▁راحو	-10.5089
nn	-10.5093
▁ينبغي	-10.5094
▁zid	-10.5098
è	-10.5103
▁تطور	-10.5103
▁تسليما	-10.5103
▁هايلين	-10.5104
▁kol	-10.5105
▁سوا	-10.5106
▁سيرتو	-10.5107
فتاوى	-10.511
▁المباركة	-10.5112
▁علابيها	-10.5114
▁الفا	-10.5117
▁للعلم	-10.5118
▁الاحرار	-10.5119
▁تردي	-10.5119
ali	-10.5124
▁😉	-10.5124
وار	-10.5129
▁مارس	-10.513
▁تعني	-10.5134
▁درا	-10.5135
ry	-10.5136
▁اليد	-10.5136
ca	-10.5142
▁جهنم	-10.5142
▁💀	-10.5142
اخ	-10.5143
رز	-10.5148
طال	-10.5151
▁وهنا	-10.5153
▁أختنا	-10.5154
▁يعجبني	-10.5155
▁يش	-10.5174
▁شف	-10.5174
▁شاهد	-10.5179
▁مهمة	-10.518
▁والتوفيق	-10.5182
▁بينهم	-10.5182
▁صعبة	-10.5182
▁وااو	-10.5182
pe	-10.5186
كت	-10.5188
▁🇲🇦	-10.5189
▁وينجح	-10.5193
▁فوت	-10.5198
▁بيد	-10.52
▁😁😁	-10.5204
آم	-10.521
▁ناكل	-10.5212
سك	-10.5213
▁lbac	-10.5214
ذل	-10.5214
▁اختبار	-10.5215
▁الاجتماعيات	-10.5217
▁زيادة	-10.5219
حمد	-10.522
▁استطيع	-10.5224
▁tout	-10.5227
▁مجتمع	-10.5227
كار	-10.5231
▁حياته	-10.5236
قى	-10.5237
خد	-10.5237
اقة	-10.5238
▁fih	-10.5239
دق	-10.5239
▁السفر	-10.524
▁التو	-10.524
▁لوجه	-10.5242
▁شخصيات	-10.5244
▁مشاركة	-10.5246
▁جار	-10.5247
\	-10.5251
است	-10.5252
باب	-10.5254
فوت	-10.5259
▁زا	-10.5267
▁الشهادة	-10.5268
▁الطلبة	-10.5268
▁دخلو	-10.5271
▁بيان	-10.528
▁الشياطين	-10.5287
ائم	-10.5288
▁جاهل	-10.5289
▁هاتف	-10.529
بح	-10.5291
ضح	-10.5293
يرا	-10.5295
if	-10.5296
▁🙏🏻	-10.5297
▁ادي	-10.53
▁قيام	-10.5303
ساعة	-10.5304
▁علماء	-10.5315
▁السرعة	-10.5318
▁فهاد	-10.532
▁لس	-10.532
▁تقرأ	-10.5323
▁Ra	-10.5323
▁صلو	-10.5325
▁يعرفو	-10.5326
▁comme	-10.5326
حبس	-10.5327
▁فلاون	-10.5328
▁ياختي	-10.533
▁أحلام	-10.5331
علي	-10.5334
▁زوجها	-10.5335
▁تلقاي	-10.5338
خلق	-10.5342
▁مقدمة	-10.5344
**	-10.5349
▁التطبيق	-10.5349
▁السو	-10.5351
▁chaba	-10.5353
▁fe	-10.5355
ارت	-10.5359
▁التلميذ	-10.536
▁غلطة	-10.5366
▁للأ	-10.537
▁معلم	-10.5374
▁انواع	-10.5375
▁تنزيل	-10.5375
▁تواصل	-10.5375
,,	-10.5375
▁الفهم	-10.5377
▁المقدمة	-10.5379
▁عفوا	-10.5379
▁bla	-10.5379
▁أراد	-10.5379
▁عمتي	-10.538
▁تسير	-10.538
▁يرضى	-10.5382
▁أسماء	-10.5383
▁العاجل	-10.5388
▁وبابا	-10.539
فكر	-10.5391
▁مشرف	-10.5391
•	-10.5392
▁عقد	-10.5392
ينها	-10.5396
▁يليق	-10.5397
▁لبلاد	-10.5397
جماع	-10.5399
▁عبرة	-10.54
▁والواجب	-10.5401
▁لابن	-10.5403
▁يقولون	-10.5403
تى	-10.5406
بيا	-10.5407
tni	-10.5408
▁يبكي	-10.5412
▁تجري	-10.5413
▁يخاف	-10.5415
▁مقابل	-10.5417
كور	-10.5425
كتاب	-10.5427
فير	-10.5428
واش	-10.5429
▁الامام	-10.5429
▁والس	-10.543
يج	-10.543
يط	-10.5434
▁تحوس	-10.5435
▁خيتي	-10.5439
▁قصدك	-10.5441
تق	-10.5448
▁المعلم	-10.5448
▁النظام	-10.5449
▁💪💪	-10.5452
▁الجمل	-10.5452
▁أنتم	-10.5454
▁يادرا	-10.5454
▁يصبركم	-10.5461
زوج	-10.5462
❌	-10.5463
الك	-10.5465
▁اسود	-10.5466
▁vraiment	-10.5467
▁تكره	-10.5469
▁ماكاش	-10.547
▁Li	-10.5471
▁وينجحنا	-10.5475
▁المتابعة	-10.5475
▁ومنكم	-10.5477
▁قلي	-10.5478
▁Sa	-10.5478
مكنية	-10.5479
▁الدورة	-10.548
▁مفهمت	-10.548
▁اجنبية	-10.5482
▁عط	-10.5484
▁واد	-10.5484
▁تمر	-10.5484
▁مكنتش	-10.5487
▁يفرحنا	-10.5488
W	-10.5489
▁وألهم	-10.5494
▁تكذب	-10.5497
▁أح	-10.5498
▁لأنك	-10.5499
▁الدر	-10.5504
اذا	-10.5507
طالب	-10.5508
▁خليت	-10.5511
جوز	-10.5514
بلغ	-10.5514
▁اخلاق	-10.5517
خل	-10.5521
▁مكتب	-10.5524
▁جيتي	-10.5524
▁مميزة	-10.5527
▁الدور	-10.5533
▁يسكن	-10.5533
▁kif	-10.5533
شغال	-10.5535
▁الغريب	-10.5539
▁🇵🇸	-10.554
ssa	-10.554
▁الآخرين	-10.554
▁الشرعية	-10.5541
غن	-10.5542
▁حسنة	-10.5542
▁يفعل	-10.5543
▁ويوسع	-10.5547
سور	-10.5548
▁الأصل	-10.5551
▁نظر	-10.5553
▁ينقص	-10.5553
اهر	-10.5556
لع	-10.5558
آت	-10.5559
▁يسمى	-10.5567
▁وصفاتك	-10.5567
نش	-10.5567
امل	-10.5574
▁عون	-10.5581
نزل	-10.5582
ومة	-10.5584
rk	-10.5585
▁يقصد	-10.5585
▁أخلاق	-10.5587
دنا	-10.5588
رون	-10.5591
ظر	-10.5592
▁مقطع	-10.5594
أدب	-10.5595
دام	-10.5597
🩷	-10.5598
▁يااستاذ	-10.5598
▁hbb	-10.5601
▁تبعت	-10.5602
كرم	-10.5604
بيع	-10.5604
▁ونشوف	-10.5604
▁خاطي	-10.5608
▁اللون	-10.5608
▁كره	-10.561
▁القادم	-10.561
💚	-10.5611
توب	-10.5611
▁عو	-10.5616
▁يتبعو	-10.5619
▁الأمل	-10.5619
▁سردك	-10.5619
يعني	-10.5621
▁المجهود	-10.5622
▁قريتي	-10.5623
▁يهنيك	-10.5623
▁الشاب	-10.5632
حش	-10.5633
عجب	-10.5634
▁toop	-10.5636
❤😂	-10.5636
▁السعودية	-10.5637
▁فكري	-10.5638
▁نف	-10.564
▁اخواني	-10.5641
خا	-10.5643
اخر	-10.5643
▁واسع	-10.5644
▁العودة	-10.5648
▁دعو	-10.5649
▁واقيل	-10.565
▁الفرضية	-10.5651
ضي	-10.5652
▁مسؤول	-10.5653
▁ضمن	-10.5656
▁ليكم	-10.5658
▁الوجه	-10.5658
les	-10.5659
سلم	-10.566
▁نتفكر	-10.5662
▁يلزم	-10.5663
▁لحم	-10.5663
▁نشريه	-10.5664
▁الولد	-10.5666
dou	-10.5671
▁واتوب	-10.5672
▁يمد	-10.5673
▁جنات	-10.5673
▁يرزقني	-10.5675
قلة	-10.568
▁المثال	-10.568
أي	-10.5681
▁الاسبوع	-10.5682
▁كالعادة	-10.5683
▁يقلك	-10.5686
▁التعبير	-10.5689
▁يفرحكم	-10.569
باش	-10.5692
▁يغ	-10.5692
رنا	-10.5692
▁تحدث	-10.5696
رقة	-10.5699
▁وترك	-10.5701
▁المنكر	-10.5701
▁عفسة	-10.5702
kaya	-10.5704
▁كاع	-10.5706
▁bzaf	-10.5709
▁باردة	-10.5715
▁متبع	-10.5715
▁مافيهاش	-10.5717
▁دعوت	-10.5717
▁28	-10.5717
chi	-10.5718
▁أكل	-10.572
▁ينصر	-10.572
ver	-10.572
▁راو	-10.5722
▁حطو	-10.5723
▁bli	-10.5726
دج	-10.5728
▁جابت	-10.5731
▁ضيفة	-10.5736
▁بلعباس	-10.5739
▁أبواب	-10.5741
▁الصحراء	-10.5742
▁تصلي	-10.5744
▁مشكورة	-10.5747
برك	-10.5749
▁بقية	-10.5749
▁سابقا	-10.5751
▁مبدع	-10.5753
▁اعتقد	-10.5755
▁الاطفال	-10.5755
▁جاك	-10.5755
▁القنوات	-10.5756
▁الضوء	-10.5759
جمال	-10.5759
بشر	-10.576
▁يجمع	-10.5762
سيد	-10.5763
▁والآخرة	-10.5764
rah	-10.5769
▁كرم	-10.5769
▁والذي	-10.5773
▁فمك	-10.5774
▁Me	-10.5776
▁الانبياء	-10.5777
▁حتان	-10.5778
▁حياتنا	-10.5781
▁العدد	-10.5781
▁نعلم	-10.5781
جات	-10.5781
▁بالضبط	-10.5782
▁حقوق	-10.5784
▁الشريعة	-10.5786
▁لطيف	-10.5786
برا	-10.5788
بية	-10.579
▁التالية	-10.5792
▁دموع	-10.5793
▁حاجا	-10.5793
25	-10.5795
▁ماهوش	-10.5798
😱	-10.5803
🌚	-10.5804
▁2016	-10.5804
▁والب	-10.5804
غسل	-10.5805
▁قصد	-10.5805
ئي	-10.5806
▁شفنا	-10.5809
حزن	-10.5809
▁تقصد	-10.5812
▁جربتها	-10.5814
▁الحن	-10.5821
▁نقولكم	-10.5823
▁أنس	-10.5823
▁الفرنسي	-10.5825
▁حظ	-10.5825
▁أدخل	-10.5825
▁قاد	-10.583
▁قلوب	-10.5831
▁نرجو	-10.5833
▁محب	-10.5834
بون	-10.5834
▁توفي	-10.5834
صبح	-10.5837
▁Bravo	-10.5839
▁كشما	-10.5842
دوا	-10.5843
▁2.	-10.5843
▁الشرك	-10.5845
ونيش	-10.5845
عمر	-10.5845
▁سقما	-10.5846
ذة	-10.585
غفر	-10.5852
▁مهبول	-10.5853
▁اجتماعي	-10.5855
▁الدراسي	-10.5857
▁وأخيرا	-10.586
ائ	-10.586
▁معظم	-10.5864
▁اوكي	-10.5866
▁الرا	-10.5867
▁الفرصة	-10.5873
▁histoire	-10.5873
▁مفيدة	-10.5874
eb	-10.5877
▁ومزال	-10.5878
▁حكمة	-10.5882
▁النهائية	-10.5883
▁صفر	-10.5885
طع	-10.5889
▁الأخرى	-10.5895
▁رمضانك	-10.5899
▁الاحساس	-10.5902
▁خلا	-10.5909
▁صليت	-10.5911
طلع	-10.5913
[	-10.5913
▁خدم	-10.5916
▁بسكرة	-10.5917
▁أعضاء	-10.5917
▁الالتزام	-10.5918
▁أد	-10.5918
▁وعلم	-10.5918
▁الباكلوريا	-10.5918
▁مباركة	-10.5919
▁لمرا	-10.5919
ظلم	-10.592
▁المؤمن	-10.5922
▁😘😘	-10.5922
▁حاس	-10.5924
▁المشروع	-10.5924
▁حاباتو	-10.5926
▁رجاءا	-10.5928
▁الخطأ	-10.5929
فشل	-10.593
▁الهدف	-10.5931
▁امبعد	-10.5931
بول	-10.5946
▁هارب	-10.5946
▁القوة	-10.5951
▁حقق	-10.5952
▁للدار	-10.5957
▁لقا	-10.5957
▁ضر	-10.5958
▁القصيدة	-10.5962
بث	-10.5964
▁ميسي	-10.5969
غني	-10.5971
▁مسكونة	-10.5975
تحصل	-10.5976
مم	-10.5981
▁نروحو	-10.5983
مير	-10.5986
▁وع	-10.5991
▁نفوت	-10.5992
▁عيش	-10.5995
▁ويبارك	-10.5996
▁موعد	-10.5999
▁تابع	-10.6
حنا	-10.6002
▁قضاء	-10.6003
▁نخ	-10.6004
▁رقدت	-10.6004
▁والتقدير	-10.6013
تهاش	-10.6013
▁يحقق	-10.6014
▁سوق	-10.6024
▁قي	-10.6026
▁التقدير	-10.6028
▁عادة	-10.6028
▁😐	-10.6028
صاحب	-10.6031
▁خلينا	-10.6032
▁يشافيها	-10.6033
▁السياسة	-10.6035
مور	-10.6036
▁وعندي	-10.6039
▁قرأ	-10.6039
▁باز	-10.604
تابع	-10.604
▁الاستاد	-10.6041
▁ولما	-10.6041
▁خطرا	-10.6042
▁الشرط	-10.6042
حرف	-10.6048
▁500	-10.6051
▁27	-10.6054
▁تيارت	-10.6056
▁قداه	-10.6059
▁يخلص	-10.6065
▁ديرها	-10.6065
▁فأنت	-10.6068
جام	-10.6068
▁تيليفون	-10.6071
حول	-10.6071
▁للمنتدى	-10.6074
▁نظن	-10.6076
▁يشرح	-10.6078
▁تستعمل	-10.6079
-1	-10.6081
▁con	-10.6081
▁يرفع	-10.6084
▁ملخصات	-10.6085
▁ڨ	-10.6088
▁واعف	-10.6092
▁نديه	-10.6094
جبت	-10.6094
▁ارجع	-10.6094
▁حاكم	-10.6097
ورد	-10.6097
▁ترقد	-10.6099
▁جاز	-10.6101
▁وعدم	-10.6102
قات	-10.6104
▁العرض	-10.6106
▁وحب	-10.6109
▁وغفر	-10.6109
▁الحديثة	-10.6111
▁اللقاء	-10.6118
▁kaml	-10.6121
▁عد	-10.6121
▁العديد	-10.6123
▁ترا	-10.6129
رع	-10.613
ايل	-10.6132
wal	-10.6132
▁تحلي	-10.6133
▁يضر	-10.6134
▁الملائكة	-10.614
▁يهديهم	-10.6141
▁لابد	-10.6141
▁خوفتني	-10.6145
راجع	-10.6146
os	-10.6147
▁فلن	-10.615
سئل	-10.6151
▁عاش	-10.6152
سف	-10.6155
our	-10.6162
▁كرة	-10.6164
▁nt	-10.6164
▁تصور	-10.6168
😇	-10.617
▁كمال	-10.6172
tre	-10.6176
▁اكمل	-10.6177
▁1000	-10.6181
فون	-10.6183
▁نشا	-10.6192
طبق	-10.6194
▁جسد	-10.6195
عاود	-10.6195
▁ok	-10.62
▁صدري	-10.6201
▁يم	-10.6202
ara	-10.6202
▁tani	-10.6205
▁معلاباليش	-10.6208
gi	-10.6211
▁haka	-10.6211
▁المنهجية	-10.6213
▁قالتلي	-10.6215
عون	-10.6219
▁رأيي	-10.6221
▁لفديو	-10.6223
▁frr	-10.6224
▁ونتمنى	-10.6227
▁تخلط	-10.6228
▁المقطع	-10.6228
حذف	-10.6228
▁اسماء	-10.623
▁💗💗	-10.623
تد	-10.6231
▁لزوج	-10.6231
▁كافر	-10.6232
بيل	-10.6233
oh	-10.6235
▁أجركم	-10.6235
▁شافت	-10.6235
▁سارة	-10.6243
ريت	-10.6243
عمل	-10.6243
▁السبورة	-10.6246
▁لاحظت	-10.6248
▁لاباس	-10.6254
ثق	-10.6256
😉	-10.6257
▁بلع	-10.6259
▁الرزق	-10.6262
▁عجب	-10.6263
▁تفرجتو	-10.6264
ارات	-10.6264
▁بيكم	-10.6266
▁سجل	-10.6266
▁نفهمو	-10.6266
▁المواقع	-10.6267
بير	-10.6269
طاع	-10.6269
▁moi	-10.6271
▁يط	-10.6273
▁يمنع	-10.6274
قن	-10.6275
▁اشكرك	-10.6275
▁سبحانك	-10.6276
▁كبر	-10.6276
AL	-10.6276
▁مختلفة	-10.6282
▁raklita	-10.6283
#	-10.6286
▁الامير	-10.6288
▁البيض	-10.629
جملة	-10.6292
▁جعله	-10.6293
تزوج	-10.6293
▁بسيف	-10.6296
▁اسامة	-10.6299
▁الطبخ	-10.63
▁ساعتين	-10.6302
▁يدخلو	-10.6305
▁دع	-10.6306
يتهم	-10.6308
يض	-10.631
▁توضيح	-10.631
▁قادا	-10.6311
▁وبحمده	-10.6312
▁bl	-10.6313
od	-10.6314
قدم	-10.6324
معنى	-10.6325
▁يدعي	-10.6325
هالي	-10.6326
▁خرطي	-10.6328
▁عفو	-10.6331
قب	-10.6333
▁شفتي	-10.6334
▁اجابة	-10.6337
يمة	-10.6339
▁عادل	-10.634
▁même	-10.6341
▁ويحفظك	-10.6342
▁😑	-10.6348
▁الاس	-10.635
رم	-10.6354
▁سمعنا	-10.6356
pi	-10.6356
▁بعضهم	-10.6358
▁يل	-10.636
الت	-10.6363
▁الجيل	-10.6365
▁قادرة	-10.6366
مرة	-10.6369
اكس	-10.6369
▁وهناك	-10.637
▁بون	-10.6372
▁وقف	-10.6375
قعد	-10.6376
▁بسح	-10.6378
▁الصراحة	-10.6381
▁المنطقة	-10.6381
قط	-10.6381
▁ديرلي	-10.6388
سى	-10.6389
▁الخيمة	-10.639
محمد	-10.639
bl	-10.639
▁ضربة	-10.6393
▁أهلها	-10.6393
▁للي	-10.6393
▁فائدة	-10.6393
▁تعليقات	-10.6394
▁والبرد	-10.6396
▁قنات	-10.6396
▁وكذا	-10.6397
▁تطلب	-10.6397
▁أشهر	-10.6399
▁اخواننا	-10.6401
▁التقويم	-10.6402
▁وسلام	-10.6403
ga	-10.6411
▁one	-10.6414
▁تعلق	-10.6414
▁فالدار	-10.6416
ائنا	-10.6417
صنع	-10.6423
▁شب	-10.6424
▁طاحو	-10.6425
▁الكو	-10.6425
▁ذر	-10.6428
إذا	-10.6428
▁داود	-10.6429
▁كثرنا	-10.6429
▁تستاهلي	-10.643
▁سوداء	-10.643
▁بعيدة	-10.6431
▁عود	-10.6433
پ	-10.6433
ااه	-10.6436
▁rana	-10.6442
▁طبيعي	-10.6447
راف	-10.6447
▁الكبيرة	-10.6448
▁بالشفاء	-10.6449
▁مص	-10.6452
حديث	-10.6453
▁ويطول	-10.6453
عباد	-10.6454
برة	-10.6459
▁بأنه	-10.646
▁يربح	-10.6468
▁حكي	-10.6468
▁اهلها	-10.6469
دعاء	-10.647
▁ديتي	-10.6471
▁الجزاءر	-10.6472
▁خطاك	-10.6473
▁الشاملة	-10.6473
كامل	-10.6476
▁بلغ	-10.6477
▁مشهور	-10.6478
نفع	-10.648
مال	-10.648
▁قتلك	-10.6485
▁وتقول	-10.649
▁الأشياء	-10.6492
▁الدرجة	-10.6492
▁تكفي	-10.6493
فرد	-10.6494
▁بعدما	-10.6495
▁جبل	-10.6495
▁زوجي	-10.6495
▁سور	-10.6499
ومن	-10.65
غلط	-10.65
▁لكنه	-10.6501
▁يصبح	-10.6502
▁going	-10.6503
▁المفروض	-10.6505
▁الدكتور	-10.6506
▁اعلى	-10.6509
▁اردت	-10.6511
▁إما	-10.6513
▁ردك	-10.6513
▁مساعدة	-10.6516
▁وندير	-10.6517
▁العنف	-10.652
▁العم	-10.652
لازم	-10.6527
جال	-10.6527
▁قصه	-10.653
▁صلوا	-10.6531
V	-10.6532
▁وبالتوفيق	-10.6533
ورا	-10.6533
▁الطلب	-10.6534
▁كتابه	-10.6534
mn	-10.6536
▁واخ	-10.6537
▁اد	-10.6539
نتي	-10.654
▁😒	-10.6546
▁Raklita	-10.6546
▁حمل	-10.6551
شف	-10.6551
بري	-10.6555
▁خال	-10.6558
▁مظاهر	-10.6561
▁أغلب	-10.6561
▁اسأل	-10.6561
▁@	-10.6562
▁très	-10.6562
▁فكرت	-10.6567
▁بحث	-10.6571
▁كلاش	-10.6573
▁تافه	-10.6573
قرأ	-10.6582
شكل	-10.6582
▁تقولو	-10.6583
▁خاف	-10.6583
▁كملو	-10.6585
طف	-10.6585
▁جب	-10.6589
"،	-10.6598
▁المصدر	-10.6598
▁ديرولي	-10.6607
▁مازلت	-10.6607
▁أيمن	-10.6611
▁صاري	-10.6611
▁يعجبوني	-10.6613
▁الشعور	-10.6614
▁الطبيب	-10.6615
وات	-10.6615
▁الورد	-10.6618
▁حبا	-10.6618
شاف	-10.6619
▁مف	-10.6619
ech	-10.6622
▁(1)	-10.6628
▁وشبيك	-10.6629
▁كول	-10.6629
▁يمر	-10.663
ive	-10.6632
غم	-10.6634
▁الجزاير	-10.6635
▁خصني	-10.6636
فان	-10.6636
▁يمثل	-10.6638
ونس	-10.6639
▁رحنا	-10.664
▁أبا	-10.6643
▁ونفع	-10.6645
▁هاذاك	-10.6646
▁نائل	-10.6649
⁠	-10.665
▁اقتباس	-10.6653
wi	-10.6655
▁نشاط	-10.6655
▁ننسى	-10.6656
▁والق	-10.6657
حين	-10.6658
▁أدعو	-10.6658
▁نربحو	-10.6663
▁videos	-10.6666
نآ	-10.6666
درج	-10.6666
▁ناحية	-10.6666
▁وضعت	-10.6667
ham	-10.667
سؤال	-10.6672
▁غيره	-10.6672
▁لربي	-10.6677
غت	-10.6677
فري	-10.6679
ck	-10.6679
mp	-10.6682
‏	-10.6685
▁الإنجليزية	-10.6688
▁لغير	-10.6692
▁يمكنني	-10.6693
▁وغيرها	-10.6694
ضاف	-10.6696
▁صفحات	-10.6696
▁دينا	-10.6698
▁احيانا	-10.6699
تب	-10.67
▁ياكل	-10.6704
▁lola	-10.6704
شكر	-10.6711
▁اسطوري	-10.6711
▁☺️	-10.6712
▁مزلت	-10.6719
حن	-10.6721
▁زيدلو	-10.6723
▁تسجيل	-10.6723
▁افلام	-10.6726
▁have	-10.6727
▁--	-10.673
▁موتانا	-10.673
▁المشرف	-10.6731
▁عالية	-10.6732
▁بلون	-10.674
▁نيشان	-10.6742
▁الظلم	-10.6743
▁وجعلها	-10.6743
تقد	-10.6743
لكش	-10.6744
▁التاني	-10.6745
▁الصديق	-10.6747
اتنا	-10.6748
▁جزاء	-10.675
▁وكتاه	-10.6752
▁النية	-10.6755
▁حالك	-10.6756
▁نكونو	-10.6757
▁حكا	-10.676
▁الثانوية	-10.6767
▁brk	-10.6768
▁تفوت	-10.6771
▁🌚	-10.6772
▁كسر	-10.6777
▁تعليمي	-10.678
▁دارا	-10.6782
ima	-10.6783
▁عايشة	-10.6785
حرم	-10.6785
ودة	-10.679
▁قرآن	-10.6792
▁ri	-10.6795
▁ويجعلها	-10.6795
▁وسي	-10.6795
▁النصائح	-10.6796
▁الظروف	-10.6808
▁1/	-10.6811
▁حمار	-10.6814
▁يطالب	-10.6815
أستاذ	-10.6816
خلص	-10.6816
X	-10.6826
▁حبيب	-10.6829
aya	-10.683
har	-10.6831
▁بالرغم	-10.6838
▁الذكر	-10.684
▁فاتت	-10.6841
▁فلما	-10.6846
ناه	-10.6847
▁خطوة	-10.6848
▁وقلت	-10.6851
▁ومي	-10.6853
▁مدار	-10.6853
▁سليمان	-10.6853
ass	-10.6853
▁اللسان	-10.6857
عفو	-10.686
صال	-10.6862
▁تكملي	-10.6863
▁وقبل	-10.6865
▁السا	-10.6865
▁اليومية	-10.6865
▁|	-10.6866
▁رابح	-10.6869
▁المناسب	-10.6871
بخل	-10.6871
▁مزيا	-10.6878
ولات	-10.6883
▁الشو	-10.6883
▁keep	-10.6885
▁معين	-10.6885
بها	-10.6888
▁ولاكن	-10.6894
▁داره	-10.6894
▁سبع	-10.6901
▁ذيك	-10.6906
▁بلادك	-10.6907
▁التعب	-10.6908
▁يهم	-10.6911
▁اسلام	-10.6911
▁توقف	-10.6912
▁القادمة	-10.6914
▁وردة	-10.6914
تصريحية	-10.6915
جح	-10.6916
OU	-10.6916
🤗	-10.6916
▁نزعة	-10.6916
▁اكتر	-10.6918
▁باللغة	-10.6919
عر	-10.6919
▁أش	-10.6919
▁الزوجة	-10.6919
▁متر	-10.692
▁بعدي	-10.6923
▁prof	-10.6928
▁واضحة	-10.6929
استغفر	-10.6932
«	-10.6932
▁القليل	-10.6934
▁ونموت	-10.6937
aire	-10.6938
رن	-10.6942
▁تبعث	-10.6942
▁كشغل	-10.6944
صوت	-10.6947
▁طلبي	-10.6953
▁نصر	-10.6954
▁العامة	-10.6956
▁الخطايا	-10.6956
▁تنحي	-10.6958
▁ومش	-10.6959
▁but	-10.6959
▁وبعدها	-10.6959
ركز	-10.696
▁فيسبوك	-10.6961
▁شديد	-10.6964
▁دخلك	-10.6967
▁26	-10.6972
▁وجغرافيا	-10.6977
▁تأتي	-10.6978
ثير	-10.6981
▁مرشح	-10.6981
قابل	-10.6981
🙏🙏	-10.6982
▁نب	-10.6982
▁يحفظها	-10.6983
▁الطرق	-10.6983
قصص	-10.6984
افة	-10.6988
▁نكتبو	-10.6989
▁تدرس	-10.6991
tk	-10.6994
▁تسمى	-10.6995
▁المرء	-10.6996
▁نتحصل	-10.6997
▁نعرفها	-10.6997
▁تعد	-10.6997
▁بقى	-10.6999
▁foor	-10.6999
».	-10.7
▁ماهيش	-10.7001
▁200	-10.7002
▁q	-10.7002
▁حاجه	-10.7003
▁حروف	-10.7007
▁خصنا	-10.7007
com	-10.7007
▁التجربة	-10.7008
▁ايمن	-10.701
▁بالن	-10.7012
▁انظر	-10.7013
liha	-10.7019
▁mar	-10.702
▁جاوبيني	-10.7021
▁كشف	-10.7022
😥	-10.7025
رسول	-10.7025
▁الميت	-10.7028
▁تلفون	-10.7028
تلو	-10.7028
bou	-10.7031
مول	-10.7032
صديق	-10.7032
▁di	-10.7034
▁قدمت	-10.7035
شهد	-10.7036
▁ارى	-10.7037
▁كلهم	-10.7038
▁الظن	-10.7039
▁نخدمو	-10.7046
▁الإخوة	-10.705
عدل	-10.7052
▁ممنوع	-10.7056
▁والثلج	-10.7056
▁نيتك	-10.7057
▁ففي	-10.706
▁مستغانم	-10.7061
▁حاضر	-10.7064
▁واليوم	-10.7064
▁رجاء	-10.7066
tek	-10.7068
▁أساس	-10.7068
▁بنسبة	-10.707
▁باغية	-10.7071
▁خليل	-10.7071
▁يقدرو	-10.7071
فس	-10.7071
▁ورق	-10.7071
lha	-10.7074
▁لوحد	-10.7077
▁الفرح	-10.7078
▁عثمان	-10.7079
▁نسقسي	-10.708
▁مدخل	-10.7082
▁وأم	-10.7084
▁بلال	-10.7085
▁الحدود	-10.7086
▁Wa	-10.7086
▁🤲🏼	-10.7086
▁الخارج	-10.7087
▁REDX	-10.7088
يقة	-10.7089
▁للشعب	-10.7089
▁المميزة	-10.7091
▁باينا	-10.7092
نهار	-10.7093
▁ضيق	-10.7094
▁لبس	-10.7094
▁ضيفتنا	-10.7095
فوا	-10.7095
▁بعت	-10.7096
▁العب	-10.7098
▁أعمال	-10.7099
اسة	-10.71
▁علامات	-10.7102
▁تحبي	-10.7106
▁اكس	-10.7106
▁نشكر	-10.711
▁قريبا	-10.711
▁فهمتش	-10.7112
▁Rani	-10.7115
سأل	-10.7117
▁كين	-10.7122
طن	-10.7124
▁الاحترام	-10.7125
▁والش	-10.7126
حكاية	-10.7126
▁يحفض	-10.7129
▁سني	-10.713
▁خمسة	-10.7132
▁الصيام	-10.7135
فقد	-10.7139
ess	-10.7143
ائهم	-10.7148
▁يطلق	-10.7149
ادعولي	-10.7149
▁الصرح	-10.715
راب	-10.7151
co	-10.7153
▁meilleur	-10.7154
▁es	-10.7154
▁معسكر	-10.7154
»،	-10.7157
▁وحبيبنا	-10.7157
▁💚	-10.7159
سع	-10.7161
حلم	-10.7162
😎	-10.7167
▁كتير	-10.7168
قع	-10.7169
▁لدى	-10.717
▁مهوش	-10.7171
▁ومسلم	-10.7171
▁رمضانكم	-10.7174
▁أثناء	-10.7175
▁wela	-10.7176
▁رايكم	-10.7176
▁للجزائر	-10.718
▁النزعة	-10.7183
▁يرحمك	-10.7185
عات	-10.7188
▁حاولي	-10.7189
▁ونقول	-10.7191
▁العملية	-10.7191
▁نوعا	-10.7194
▁اختار	-10.7197
خلي	-10.7199
▁الظالمين	-10.72
رقي	-10.7202
."	-10.7203
▁امان	-10.7204
▁عشت	-10.7205
▁اعط	-10.7205
▁زوجة	-10.7209
▁أنزل	-10.7212
▁سياسة	-10.7215
▁ااه	-10.7216
▁مقترح	-10.7216
▁يخدمو	-10.7217
▁بعده	-10.7219
▁الأساتذة	-10.7223
▁طل	-10.7224
▁بب	-10.7228
▁ndir	-10.723
que	-10.7231
▁ملح	-10.7233
▁ونجيب	-10.7236
▁وصاي	-10.7237
▁الدوال	-10.7238
▁الشهيد	-10.7239
▁تعرض	-10.7244
▁ولينا	-10.7244
فع	-10.7245
▁مؤ	-10.7247
واحد	-10.7248
▁فيزا	-10.7249
▁خلص	-10.7252
▁مغربي	-10.7253
بز	-10.7253
▁عمره	-10.7254
▁ويرزق	-10.7254
▁لزم	-10.7254
▁كلب	-10.7257
▁حصل	-10.7264
▁يراجع	-10.7265
▁حطي	-10.7266
تور	-10.7266
▁والخ	-10.7267
▁قصير	-10.7271
خلع	-10.7271
خاطر	-10.7273
▁الشا	-10.7274
▁قصيرة	-10.7278
▁compte	-10.7284
▁نبداو	-10.7284
راق	-10.7286
▁كومنتار	-10.7287
▁العزيزة	-10.7289
قاد	-10.7292
▁الادبيين	-10.7294
▁فس	-10.7296
▁الحقيقية	-10.7298
▁قرار	-10.7299
▁كافي	-10.7299
حفض	-10.73
▁السابق	-10.73
عع	-10.7306
vo	-10.7308
▁مرعب	-10.7309
▁عس	-10.7309
▁رخيس	-10.7311
▁حاولت	-10.7314
aha	-10.7315
ناس	-10.7317
بناء	-10.7318
▁الفترة	-10.7318
▁البليدة	-10.732
كشف	-10.732
100	-10.7322
▁رسم	-10.7324
هذه	-10.7329
▁يقدرك	-10.7333
▁فقدت	-10.7335
▁تترك	-10.7341
هرب	-10.7342
خط	-10.7344
▁يولد	-10.7344
▁لحمي	-10.7346
حوس	-10.7347
▁much	-10.7347
▁ظهور	-10.7347
▁يشافي	-10.7349
▁che	-10.735
▁مسجل	-10.735
▁حنان	-10.7351
▁فارغ	-10.7351
▁بجام	-10.7352
▁تنجحي	-10.7352
▁صحيتي	-10.7353
▁الحس	-10.7355
نون	-10.7356
▁ظن	-10.7356
▁تحبين	-10.7359
كرر	-10.736
▁ليها	-10.7363
▁يجزيك	-10.7363
ala	-10.7365
▁بهاد	-10.7365
▁وهوما	-10.7366
rr	-10.7368
▁نسخة	-10.737
لقا	-10.737
▁hkaya	-10.7373
كوم	-10.7377
▁ساحر	-10.7378
▁درب	-10.7378
zi	-10.738
▁ويحفظ	-10.738
▁عملك	-10.7386
▁داو	-10.7386
▁🤔🤔	-10.7387
خلف	-10.7387
▁اسعد	-10.7392
▁فرد	-10.7392
▁الصمت	-10.7394
▁برج	-10.7394
▁or	-10.7396
▁القصه	-10.7397
خة	-10.74
▁اسلوب	-10.74
▁bel	-10.7401
سية	-10.7401
▁تفكير	-10.7401
▁اسالك	-10.7404
▁تعيط	-10.7407
درت	-10.7408
▁الشرق	-10.7412
قين	-10.7412
▁فليس	-10.7413
▁بهاذ	-10.7414
▁مقارنة	-10.7415
بحث	-10.7415
▁يغادر	-10.7417
▁ارزق	-10.7422
ji	-10.7423
▁تعرفو	-10.7423
▁ركز	-10.7424
ré	-10.7424
💀	-10.7425
”	-10.7425
▁dirlna	-10.7429
▁الاستعمار	-10.743
▁اعطينا	-10.7431
▁السم	-10.7435
لية	-10.7437
>	-10.7438
▁انستغرام	-10.7439
بغ	-10.7443
▁تص	-10.7447
▁نجوز	-10.7448
صلي	-10.7448
▁التر	-10.7448
▁مرتو	-10.7449
▁معمر	-10.745
▁يخليكم	-10.7453
▁ذكره	-10.7453
شهاد	-10.7455
▁زينب	-10.7459
▁ماتتمنى	-10.7462
▁ندمت	-10.7465
▁مدخله	-10.7467
ts	-10.7468
lih	-10.7469
▁الرابع	-10.7475
▁é	-10.7477
يخ	-10.748
▁وهاد	-10.7481
▁كينغ	-10.7483
▁حقك	-10.7485
قاتل	-10.7487
tar	-10.749
▁كيفكيف	-10.7493
حذر	-10.7496
▁تبين	-10.7497
زار	-10.7499
▁البلد	-10.7499
▁أسباب	-10.75
▁الاستعارة	-10.7502
▁شرا	-10.7503
▁2013	-10.7503
▁بصوت	-10.7504
ber	-10.7506
▁أفهم	-10.7507
طلاق	-10.751
▁كش	-10.7513
يتش	-10.7518
▁القيام	-10.7521
رط	-10.7521
▁ورايا	-10.7521
▁الاولاد	-10.7522
▁بداو	-10.7522
▁يسلمك	-10.7523
▁مخرج	-10.7525
▁نفتح	-10.7527
جديد	-10.7529
▁الرأي	-10.7534
▁اطفال	-10.7537
▁يقل	-10.7543
▁القص	-10.7543
▁بالذرية	-10.7544
▁هبلت	-10.7545
يري	-10.7546
الق	-10.7551
▁ماتش	-10.7552
▁فرنسي	-10.7554
وجه	-10.7556
▁وأكرم	-10.7556
▁ثق	-10.7557
▁ترحيب	-10.7557
▁تبدأ	-10.7558
حسب	-10.756
لولا	-10.7561
▁للمليون	-10.7561
▁تقويم	-10.7563
▁اشتراك	-10.7563
▁الفتاة	-10.7564
▁بحق	-10.7564
سبب	-10.7565
▁نشكرك	-10.7569
﴾	-10.7573
▁أسم	-10.7574
عودة	-10.7575
صلح	-10.7576
▁الابتدائي	-10.7577
▁الساحر	-10.7579
ique	-10.7579
▁ديني	-10.7579
زق	-10.7586
▁حلول	-10.7587
wel	-10.7588
▁مجاز	-10.7589
▁يتزوج	-10.7591
▁فالا	-10.7594
▁وكأن	-10.7595
▁أعوذ	-10.7596
زير	-10.7599
راكم	-10.7601
الب	-10.7603
▁حكايا	-10.7605
💯	-10.7606
يست	-10.7606
▁//	-10.7609
▁السعر	-10.7609
▁النجوم	-10.761
▁us	-10.7614
▁جهد	-10.7614
▁الاسود	-10.7615
▁العطر	-10.7616
🏼	-10.7618
cette	-10.7619
▁ضو	-10.7624
▁صدقت	-10.7625
▁العشاء	-10.7627
▁مهيش	-10.7631
▁السورة	-10.7632
ابل	-10.7632
▁nas	-10.7633
زاد	-10.7635
أو	-10.7637
بلاد	-10.7637
افية	-10.7638
☺️	-10.764
ريك	-10.7641
جزاك	-10.7641
▁يسعدك	-10.7641
▁bo	-10.7641
▁والهم	-10.7641
▁mt	-10.7643
وكل	-10.7652
▁بحكم	-10.7653
▁ضمير	-10.7656
▁وهكذا	-10.766
J	-10.7662
▁نعتمد	-10.7664
▁mal	-10.7667
▁رحمك	-10.7674
▁الوصف	-10.7674
▁بدلت	-10.7674
▁90	-10.7675
▁والجن	-10.7682
▁العطلة	-10.7683
▁ماعنديش	-10.7685
▁نجاوب	-10.7686
▁عنهما	-10.7686
تس	-10.7686
▁ولازم	-10.7687
▁اذكر	-10.7693
▁فاليوتيوب	-10.7694
▁يحمي	-10.7695
▁خبرة	-10.7695
غلق	-10.7697
▁ألهم	-10.7699
▁خرجلي	-10.77
▁نلقاه	-10.7701
▁دينك	-10.7701
▁بح	-10.7706
ité	-10.7708
▁ناقصة	-10.7709
▁وزوج	-10.771
▁مسا	-10.7711
▁الأطفال	-10.7711
▁howa	-10.7714
▁الضيف	-10.7714
▁هبط	-10.7715
▁والديه	-10.7716
▁أسبوع	-10.7716
▁البال	-10.7717
▁ورحم	-10.772
زول	-10.7722
▁امن	-10.7722
▁بدأ	-10.7723
رحل	-10.7725
صوص	-10.7725
مح	-10.7725
▁شان	-10.7726
▁😎	-10.7728
▁حاج	-10.7728
▁لقصص	-10.7729
▁الطعام	-10.7729
▁امم	-10.7729
▁مج	-10.773
▁تعامل	-10.773
▁القواعد	-10.7731
hou	-10.7731
▁يباركلك	-10.7732
▁لقينا	-10.7733
mar	-10.7733
▁لاشان	-10.7734
▁البقاء	-10.7735
بيك	-10.7736
▁قبول	-10.7737
▁يحبس	-10.7741
ذاك	-10.7741
▁جهاز	-10.7744
▁جانفي	-10.7745
▁وجوه	-10.7745
▁نعيط	-10.7748
▁مشاعر	-10.7748
حرق	-10.7748
▁اسمحلي	-10.7749
▁العلاقة	-10.7749
اصي	-10.775
ke	-10.7751
▁الوا	-10.7753
دوش	-10.7753
able	-10.7755
▁قبر	-10.7756
▁نتاعو	-10.7756
تار	-10.7757
▁جداا	-10.7758
ولد	-10.7762
شو	-10.7763
▁تجيبي	-10.7763
▁أمان	-10.7764
▁نطلع	-10.7765
▁hab	-10.7767
طهر	-10.7769
▁نزله	-10.777
▁تختار	-10.777
▁أنواع	-10.777
▁تدل	-10.7774
▁معندوش	-10.7775
▁الملخص	-10.7775
▁نحلو	-10.778
▁تنسى	-10.778
▁ردود	-10.7781
سهل	-10.7782
▁سكان	-10.7782
أول	-10.7784
▁دات	-10.7784
▁بدي	-10.7785
adi	-10.7785
ساعد	-10.7785
عتبر	-10.7786
▁لقصة	-10.7788
رقد	-10.7789
فاد	-10.7789
▁تجارة	-10.779
▁تاعكم	-10.779
▁son	-10.7795
▁فاطمة	-10.7798
▁متخافيش	-10.7801
▁😇	-10.7804
حالة	-10.7804
▁الواجب	-10.7805
▁inchallah	-10.7807
▁Nchlh	-10.7807
ps	-10.7808
▁درتلك	-10.7808
▁دعالي	-10.7809
▁إذن	-10.7809
▁bsh	-10.7809
▁صيام	-10.7811
▁تعاون	-10.7813
▁يبعث	-10.7815
▁واس	-10.7817
دخول	-10.7819
▁مقود	-10.782
▁كومونتار	-10.782
▁سعادة	-10.7822
▁عقلية	-10.7823
▁Thank	-10.7825
▁ادبية	-10.7825
▁ديال	-10.7825
▁لآ	-10.7827
▁هدية	-10.783
▁وجا	-10.783
عان	-10.7832
فضل	-10.7836
▁الكر	-10.7837
▁Ba	-10.7837
▁أسئلتي	-10.784
ديد	-10.7841
▁أدري	-10.7841
تقدم	-10.7841
▁مراكش	-10.7844
▁الكفار	-10.7845
▁الاسطورة	-10.7848
يعة	-10.785
▁آيات	-10.7854
▁عضوة	-10.7857
▁تدعي	-10.7858
▁قواعد	-10.7859
elle	-10.7861
▁رواحكم	-10.7863
▁وطريقة	-10.7863
▁وعا	-10.7865
▁Un	-10.7866
▁سالم	-10.7869
بش	-10.7869
وأ	-10.7869
ib	-10.7871
▁والمسلمات	-10.7874
صو	-10.7876
▁برد	-10.7881
مية	-10.7881
▁نعطيك	-10.7882
▁ودرت	-10.7884
▁شأن	-10.7886
▁امريكا	-10.7886
▁عبادة	-10.7889
ماي	-10.7889
غرام	-10.789
افضل	-10.7891
▁نسجل	-10.7891
▁تحبو	-10.7895
▁امسى	-10.7896
▁مسكون	-10.7899
▁غالية	-10.7899
▁يؤ	-10.79
▁السيارات	-10.79
▁تبيع	-10.79
▁أشد	-10.7901
صالح	-10.7901
▁back	-10.7901
▁ضل	-10.7902
▁وتن	-10.7907
▁دبر	-10.7908
▁البن	-10.7909
▁أبوني	-10.791
مثال	-10.7911
▁bach	-10.7911
▁فديوهات	-10.7912
سان	-10.7912
ندم	-10.7914
▁🤗	-10.7915
▁dit	-10.7915
▁كوني	-10.7916
▁بخ	-10.7918
▁يفيد	-10.7918
▁اختنا	-10.7918
ساهل	-10.7922
هدف	-10.7923
▁😩	-10.7924
▁المب	-10.7926
▁بصمة	-10.7927
▁يضيع	-10.7927
▁تخيل	-10.7927
▁وبنت	-10.7936
▁السياسية	-10.7937
▁قدامي	-10.7937
▁المرا	-10.7938
قوا	-10.7939
يان	-10.7942
▁tw	-10.7942
▁وسدد	-10.7942
▁حاسب	-10.7945
▁تأ	-10.7947
▁ويشفي	-10.7947
شرب	-10.7949
▁احساس	-10.7951
عرب	-10.7951
▁قلبها	-10.7953
▁الفتنة	-10.796
▁rab	-10.7961
فيه	-10.7961
▁وجهة	-10.7961
▁بمن	-10.7965
١	-10.7965
▁2/	-10.7966
▁راب	-10.7966
▁خطة	-10.7969
▁ممتع	-10.7969
ili	-10.797
▁از	-10.7973
▁بلدية	-10.7974
▁طلة	-10.7976
▁بالإ	-10.7978
🥰🥰	-10.7981
▁ورحمه	-10.7983
ديرو	-10.7986
▁اسلامية	-10.7987
▁احترامي	-10.7987
ليك	-10.7987
▁بينما	-10.7989
▁الدال	-10.7991
▁وندي	-10.7992
▁اعضاء	-10.7996
▁هيه	-10.7996
قس	-10.7997
ran	-10.7998
▁التع	-10.8
▁شق	-10.8006
▁صاح	-10.8007
▁عثيمين	-10.801
▁قلوبهم	-10.801
▁شهيد	-10.801
ائق	-10.8011
▁نكملو	-10.8011
▁تفاصيل	-10.8013
▁شراء	-10.8014
ER	-10.8016
▁gh	-10.8017
ee	-10.8017
▁بقرة	-10.8017
▁توكل	-10.8018
▁نسمعها	-10.8018
▁الحبر	-10.8019
شخص	-10.8025
▁حالتي	-10.8025
ضاء	-10.8028
▁هاذوك	-10.8032
جيل	-10.8033
▁اضحى	-10.8033
▁فراش	-10.8033
قري	-10.8034
▁الدليل	-10.8035
▁ضع	-10.8037
▁اسوء	-10.8037
▁نخلي	-10.804
▁تحدي	-10.8041
▁بالدعاء	-10.8041
ثار	-10.8041
▁أعتقد	-10.8042
▁وكما	-10.8046
▁دارهم	-10.8047
قرب	-10.8048
😩	-10.8049
▁يجازيكم	-10.805
▁😥	-10.8051
▁نحقق	-10.8052
🥺🥺	-10.8052
▁محتاج	-10.8053
▁وقتاه	-10.8054
▁ترقي	-10.8056
▁فريق	-10.8056
جون	-10.8057
▁علمك	-10.8061
▁لقاء	-10.8063
▁النقطة	-10.8063
▁🤍🤍	-10.8063
▁مسعود	-10.8063
▁قلة	-10.8065
▁toi	-10.8065
▁سلك	-10.8066
▁at	-10.8067
▁الامة	-10.8067
طعم	-10.8068
رضي	-10.8069
▁ليكور	-10.8069
▁جامعة	-10.807
▁mes	-10.8071
▁طلبت	-10.8074
we	-10.8075
وربي	-10.8076
▁وتفرح	-10.8078
▁100%	-10.8082
▁خروج	-10.8083
▁Z	-10.8084
▁يدوم	-10.8087
▁خرجو	-10.8088
▁قررت	-10.809
▁الحصة	-10.8092
▁التعامل	-10.8092
▁امثالك	-10.8097
يسر	-10.8097
▁الاستغفار	-10.8099
▁حدا	-10.81
▁أستطيع	-10.8101
▁الخيال	-10.8104
ارب	-10.8105
▁أسلوب	-10.8106
تبادل	-10.8107
▁التخصص	-10.8107
▁يسمح	-10.8108
▁تبحث	-10.8109
▁صرالي	-10.811
ex	-10.8111
▁يأخذ	-10.8113
امر	-10.8113
▁تقضي	-10.8115
راي	-10.8115
▁الجي	-10.8116
▁nous	-10.8117
▁ميمتي	-10.8119
▁قرات	-10.8119
▁مدى	-10.8119
▁تهدري	-10.8124
Z	-10.8125
فرق	-10.8128
▁ويخليك	-10.8128
▁تحرر	-10.8131
كاس	-10.8133
▁صفات	-10.8133
بنت	-10.8137
▁مهتم	-10.8139
▁💓	-10.814
▁أخرجه	-10.8141
▁يملك	-10.8141
▁لماما	-10.8142
▁تتبع	-10.8143
▁يسأل	-10.8145
▁يهديكم	-10.8145
ستي	-10.8146
▁نح	-10.8146
زون	-10.8146
AN	-10.8153
▁يوتوب	-10.8155
▁واقيلا	-10.8156
▁قار	-10.8157
▁عقدة	-10.8158
▁اعطي	-10.8159
▁تنصح	-10.8165
▁بفارغ	-10.8166
▁الحم	-10.8168
▁تكثر	-10.8169
pp	-10.817
▁اليل	-10.817
▁ماقدرتش	-10.8171
▁خت	-10.8173
وتي	-10.8173
39	-10.8174
▁متمني	-10.8175
نغ	-10.8176
▁tes	-10.8177
▁ghi	-10.818
▁ندعي	-10.8181
▁تأخذ	-10.8183
▁بول	-10.8183
▁متزيدش	-10.8183
٠	-10.8186
ايه	-10.8186
▁♥♥	-10.8188
▁كمية	-10.8188
▁قصر	-10.8188
قاع	-10.8191
▁ديالي	-10.8193
▁رحمتك	-10.8194
▁الفساد	-10.8196
طح	-10.8198
ضو	-10.8198
▁وتاني	-10.8199
▁تسلم	-10.8203
andi	-10.8203
▁عاقل	-10.8203
▁أرواح	-10.8204
▁وتع	-10.8206
▁اسمية	-10.821
▁العقيدة	-10.8212
▁اشياء	-10.8216
لالا	-10.8219
▁أحدا	-10.8221
▁حياتها	-10.8222
▁أمة	-10.8222
▁القهوة	-10.8224
▁يتحدث	-10.8229
▁المقالات	-10.823
غيب	-10.823
▁يترك	-10.8231
لاف	-10.8232
وليد	-10.8232
▁بصفة	-10.8232
▁لحال	-10.8234
▁هرب	-10.8234
▁السياقة	-10.8236
▁يشفيه	-10.8236
▁قشيحة	-10.8236
23	-10.8236
▁وشكراا	-10.8237
▁يخو	-10.824
▁🌷	-10.824
▁داعي	-10.8242
▁comment	-10.8243
▁ذالك	-10.8244
رانا	-10.8244
▁نفسية	-10.8244
فيك	-10.8247
داد	-10.8248
▁شوك	-10.825
وقف	-10.8252
مارس	-10.8253
▁ارجوا	-10.8254
▁تزوجت	-10.8263
رمي	-10.8266
▁ونشالله	-10.8266
▁الأس	-10.8267
▁جايح	-10.8267
▁مانعرف	-10.8268
yy	-10.8269
▁ارجوكم	-10.827
❤😢	-10.8271
▁حملة	-10.8272
▁اخذ	-10.8273
▁لخ	-10.8273
▁ثانوية	-10.8274
▁غضب	-10.8275
▁الري	-10.8277
▁مجموع	-10.8278
▁مصطفى	-10.8279
▁ساكن	-10.8281
▁حافظة	-10.8282
▁ويزيد	-10.8282
ألف	-10.8282
نتا	-10.8283
▁just	-10.8284
▁سامع	-10.8286
▁القراءة	-10.8287
قار	-10.829
▁نسنا	-10.8291
🙄	-10.8292
▁عملت	-10.8293
حج	-10.8293
▁الشك	-10.8293
اار	-10.8293
▁انشاءالله	-10.8295
▁لأي	-10.8295
تكلم	-10.8297
▁عيط	-10.8299
رسل	-10.8299
▁معرفت	-10.83
ديش	-10.8301
▁اييه	-10.8304
ko	-10.8306
▁الجيش	-10.8306
▁ويفرح	-10.831
▁وفيها	-10.8311
▁“	-10.8314
▁تعبك	-10.8314
▁قاسم	-10.8314
واجه	-10.8315
▁سلامتك	-10.8316
▁ملايين	-10.8316
▁su	-10.8317
HA	-10.8319
تقبل	-10.8319
رضا	-10.832
▁غني	-10.832
داك	-10.8323
▁الليلة	-10.8325
أت	-10.8328
▁نحفض	-10.8329
جاوب	-10.833
▁مقترحة	-10.8334
عك	-10.8336
▁امري	-10.834
▁yes	-10.8343
▁اسهل	-10.8343
▁طولتي	-10.8345
▁تسمي	-10.8345
▁رجلي	-10.8345
▁لشخص	-10.8347
▁أكتب	-10.8352
▁ادرس	-10.8352
▁محرم	-10.8352
▁توصلي	-10.8353
أمن	-10.8354
▁تنزل	-10.8354
غار	-10.8356
▁آمنوا	-10.8357
▁بالع	-10.8359
▁بشيء	-10.8362
▁خطرات	-10.8362
▁خالص	-10.8364
▁ميش	-10.8364
▁أشياء	-10.8364
وجب	-10.8365
▁أعد	-10.8366
بطل	-10.8366
▁منقول	-10.8369
▁شريعة	-10.8371
▁يغير	-10.8371
▁حسنا	-10.8371
خلو	-10.8373
رأ	-10.8375
طرة	-10.8375
▁المراتب	-10.8381
▁رضى	-10.8382
▁6-	-10.8383
👍👍	-10.8385
ربع	-10.8388
ريف	-10.8388
▁gha	-10.8389
▁ca	-10.8389
▁ydir	-10.839
لغ	-10.8394
▁والشكر	-10.8396
▁ورسوله	-10.8396
▁تبالي	-10.8397
أفضل	-10.8397
نب	-10.8401
go	-10.8404
ودي	-10.8404
▁زيارة	-10.8406
▁تحميل	-10.8411
▁وجب	-10.8415
▁ظالم	-10.8416
▁خصائص	-10.8416
ée	-10.8417
▁راقدة	-10.8418
▁يحبه	-10.8419
▁للإ	-10.8419
▁اح	-10.8419
▁تصدق	-10.842
غول	-10.842
▁قتلها	-10.8421
▁تساعد	-10.8424
▁ضعيفة	-10.8424
▁المفضلة	-10.8425
▁ضيفنا	-10.8425
▁الترمذي	-10.843
24	-10.8431
▁العراق	-10.8433
▁حرية	-10.8433
▁الاعمال	-10.8436
▁ans	-10.8437
▁عشرين	-10.844
▁الأفكار	-10.844
▁بودكاست	-10.8445
جوان	-10.8445
▁وشحال	-10.8446
▁يبيع	-10.8447
▁رعد	-10.8447
جهل	-10.8448
فاف	-10.8448
▁اسرائيل	-10.8448
▁بيناتهم	-10.8448
▁الحكمة	-10.8449
▁from	-10.8449
حاسب	-10.8452
▁فايدة	-10.8452
▁معينة	-10.8453
محتوى	-10.8454
▁احت	-10.8455
▁'	-10.8456
▁ماتو	-10.8457
▁مجيد	-10.8457
▁شارك	-10.8458
▁بث	-10.8462
▁صدقني	-10.8463
▁يضع	-10.8464
ࢪ	-10.8466
▁اومبعد	-10.8466
dk	-10.8471
▁60	-10.8474
▁اليقين	-10.8477
▁باع	-10.8477
يث	-10.8478
😅😂	-10.8479
▁مسجد	-10.8479
▁اخط	-10.848
▁بطريق	-10.848
▁اسألك	-10.8481
خيل	-10.8482
▁يجيك	-10.8482
▁يعمر	-10.8484
شكون	-10.8486
كاين	-10.8488
ميل	-10.849
▁قراي	-10.8491
سنوات	-10.8492
▁نصلي	-10.8494
ng	-10.8494
▁لناس	-10.8497
▁السبت	-10.8499
▁يلعبو	-10.85
▁يعوض	-10.8502
▁يشري	-10.8503
lak	-10.8503
▁😱	-10.8503
▁ré	-10.8505
▁فعلت	-10.8505
26	-10.8506
▁غيرها	-10.8506
▁سكيكدة	-10.8508
▁مض	-10.8508
🔥🔥	-10.8509
▁للمرة	-10.8509
▁الخطرة	-10.8511
▁ns	-10.8511
▁عقلك	-10.8512
▁مبسط	-10.8513
شت	-10.8515
▁للقصص	-10.8515
ىء	-10.8516
▁تحي	-10.8516
▁29	-10.8516
▁يصبرك	-10.8517
▁Hadi	-10.8517
▁قرينا	-10.8517
سس	-10.8518
قيد	-10.8518
هدا	-10.8522
▁لساني	-10.8523
فلا	-10.8523
▁اللعبة	-10.8525
▁حطيلنا	-10.8527
توا	-10.8528
▁بأي	-10.8529
▁فرحا	-10.8531
▁تبسة	-10.8531
▁الحلال	-10.8532
60	-10.8533
▁تقدير	-10.8534
▁اخرج	-10.8535
▁💯	-10.854
▁الرب	-10.854
▁المصطفى	-10.854
▁Top	-10.854
▁»	-10.8544
;	-10.8545
▁وزير	-10.8545
▁جدتي	-10.8545
كلمة	-10.8546
▁قريتها	-10.8546
▁khti	-10.8547
▁ونفس	-10.8547
▁عدا	-10.8547
اكل	-10.8551
▁الشخصي	-10.8552
شق	-10.8555
▁معرض	-10.8555
▁الأمن	-10.8556
٦	-10.8556
▁اسئلتي	-10.8559
▁الصفر	-10.856
▁راجلها	-10.8561
▁الكلب	-10.8562
مدينة	-10.8562
▁عالمية	-10.8563
▁دمتم	-10.8563
▁متابعين	-10.8564
▁ء	-10.8564
▁القوم	-10.8565
té	-10.8567
▁طالع	-10.8571
مشي	-10.8572
ھ	-10.8576
ani	-10.8577
▁لصاحب	-10.8582
باء	-10.8583
▁التوبة	-10.8586
▁ببعض	-10.8589
درة	-10.8593
▁متزوج	-10.8595
▁لقيتها	-10.8597
▁منازع	-10.8598
▁نحفظو	-10.8601
▁تقطع	-10.8604
عنا	-10.861
▁الحجر	-10.8613
▁تعرفت	-10.8615
▁الشريف	-10.8615
🌺	-10.8618
ey	-10.862
▁مرضى	-10.862
▁الاجتماعية	-10.8622
اوية	-10.8624
▁فراق	-10.8624
▁رجعو	-10.8625
▁أبناء	-10.8626
▁طلعولي	-10.8626
ندا	-10.8627
▁تنصحني	-10.8627
▁قاعدين	-10.8632
▁فضله	-10.8632
حص	-10.8633
▁سل	-10.8638
▁صافي	-10.864
ze	-10.864
rs	-10.8642
iha	-10.8642
▁بورك	-10.8643
men	-10.8645
▁ابناء	-10.8647
▁بنية	-10.8652
▁وانتي	-10.8652
▁تاي	-10.8652
سط	-10.8654
تيك	-10.8654
▁والسنة	-10.8656
▁مشاءالله	-10.8657
▁تركت	-10.8658
▁الخاتمة	-10.8659
▁عسى	-10.8659
دروس	-10.8659
▁تشو	-10.8663
▁يماه	-10.8664
▁فهمنا	-10.8666
▁نش	-10.8669
28	-10.8669
▁لى	-10.867
▁st	-10.8671
▁ورب	-10.8671
زان	-10.8672
دعو	-10.8673
▁🤲❤️	-10.8674
▁هز	-10.8675
كول	-10.8675
▁يونس	-10.8675
▁بيضاء	-10.8677
▁يكذب	-10.8678
▁belle	-10.8679
▁ثمن	-10.8679
▁زيدنا	-10.868
▁وسهل	-10.8682
▁مداير	-10.8682
▁ينصح	-10.8682
▁اشف	-10.8683
▁وذكر	-10.8686
▁نسال	-10.8687
▁الردود	-10.8687
▁الاختبار	-10.8689
▁wch	-10.869
▁يقعد	-10.8691
▁رايي	-10.8691
شجع	-10.8693
▁حياتو	-10.8694
NA	-10.8701
▁فركوس	-10.8702
▁مط	-10.8703
▁الشديد	-10.8703
▁اراد	-10.8703
▁haja	-10.8704
▁fr	-10.8704
اكم	-10.8706
▁سيف	-10.8706
فيديوهات	-10.871
▁احتاج	-10.8713
▁رفض	-10.8713
▁يهديه	-10.8713
▁يسما	-10.8713
▁شرعية	-10.8714
شعب	-10.8717
▁صمت	-10.8717
شوق	-10.8718
▁تتزوج	-10.872
اتكم	-10.8721
▁ووفقك	-10.8723
▁المرسلين	-10.8724
تالي	-10.8726
▁المج	-10.8726
▁الضمير	-10.8729
tna	-10.873
▁زينة	-10.8731
▁الطالب	-10.8731
▁نركز	-10.8731
▁وست	-10.8732
▁يعاود	-10.8733
▁فالجزائر	-10.8734
▁مربي	-10.8734
▁مسابقة	-10.8735
▁نوفمبر	-10.8738
▁فالليل	-10.8738
فسد	-10.8738
so	-10.8741
قصد	-10.8741
▁وعمل	-10.8742
▁شهداء	-10.8744
▁kha	-10.8744
▁أعطى	-10.8745
▁تعليقك	-10.8747
▁الظاهرة	-10.8747
▁إليكم	-10.8751
▁قوانين	-10.8755
▁الباطل	-10.8755
▁خلات	-10.8757
▁وعلا	-10.8758
▁جميلا	-10.8759
▁نوصلو	-10.8759
مكان	-10.8759
▁الفيزياء	-10.8763
▁sont	-10.8766
80	-10.8769
▁وأسكنه	-10.8769
سبحان	-10.8771
▁صلاتك	-10.8772
▁الجنان	-10.8778
▁هن	-10.8784
ركب	-10.8787
▁الجمع	-10.8788
▁اسباب	-10.8788
▁لحل	-10.8791
▁التش	-10.8792
بور	-10.8793
▁pr	-10.8802
تعليق	-10.8803
▁لأهل	-10.8804
▁الخروج	-10.8807
كرو	-10.8812
▁الخطاب	-10.8812
▁اللحظة	-10.8813
▁وقيلا	-10.8813
▁خلاه	-10.8814
▁تتعلم	-10.8818
▁لعباسية	-10.8818
▁الفضيل	-10.8819
▁طال	-10.882
lina	-10.8822
▁والعلم	-10.8823
غفل	-10.8825
2023	-10.8825
▁طلق	-10.8827
▁👍🏻	-10.8828
▁ميمونة	-10.8831
▁رواد	-10.8831
22	-10.8835
▁تمثل	-10.8836
بقي	-10.8838
ران	-10.8838
▁وحدا	-10.884
😑	-10.8841
▁الفل	-10.8841
▁El	-10.8842
▁القلم	-10.8842
زوم	-10.8844
▁اية	-10.8844
قود	-10.8846
روا	-10.8847
▁حليب	-10.8848
بسط	-10.8849
مرض	-10.885
▁ذويها	-10.885
▁تعديل	-10.885
▁😌	-10.8851
▁عامل	-10.8851
▁اللخر	-10.8851
▁غنية	-10.8855
ضت	-10.8855
تينا	-10.8857
▁وزاد	-10.8857
▁السوق	-10.8858
▁نافع	-10.8859
▁لام	-10.8862
▁يتعلم	-10.8862
▁مشتركة	-10.8863
▁يسترنا	-10.8864
▁وحدهم	-10.8864
▁وهدا	-10.8865
▁كذاب	-10.8865
▁حللت	-10.8865
▁التمرين	-10.8866
▁الكا	-10.8869
▁نية	-10.887
▁عش	-10.887
▁واسم	-10.8871
▁شاملة	-10.8872
▁🩷	-10.8872
▁مروة	-10.8873
نثر	-10.8874
▁الجر	-10.8874
▁💜💜	-10.8875
▁المعروف	-10.8875
▁لسان	-10.8876
raf	-10.8877
🤩	-10.8878
▁ديننا	-10.8879
▁ندور	-10.8881
فوق	-10.8881
▁مؤتمر	-10.8882
عقد	-10.8884
▁دينار	-10.8886
رام	-10.8888
▁يديه	-10.8889
▁أخو	-10.8891
رغب	-10.8892
▁۞	-10.8894
▁ضيوف	-10.8895
فاس	-10.8895
▁اللا	-10.8895
ستا	-10.8896
▁تنفع	-10.8898
▁بروف	-10.8901
▁سحور	-10.8901
▁غرب	-10.8901
▁مرتين	-10.8902
▁votre	-10.8906
▁يلهم	-10.8907
▁حنين	-10.8907
▁تحفة	-10.8909
حافظ	-10.8911
▁الخميس	-10.8912
▁تلخيص	-10.8913
▁صديقتي	-10.8914
▁متفق	-10.8915
شبه	-10.8916
bel	-10.8921
▁تشعر	-10.8921
▁الجانب	-10.8923
hk	-10.8925
▁يحوس	-10.8925
دري	-10.8931
▁سورتو	-10.8932
▁موش	-10.8934
✨️	-10.8934
▁وارزق	-10.8934
دس	-10.8935
▁اجعلني	-10.8935
ate	-10.8936
ذن	-10.8939
▁اغ	-10.8939
▁wahd	-10.8941
▁وليست	-10.8944
▁الأسبوع	-10.8946
▁بدر	-10.8947
▁نبدل	-10.8949
▁يقري	-10.895
▁وحفظ	-10.895
▁نظري	-10.8951
▁روحه	-10.8952
▁يتحرك	-10.8954
▁ورزق	-10.8956
▁الضعف	-10.8957
قضي	-10.8959
▁جمل	-10.8959
حرام	-10.896
▁كاد	-10.8962
▁يدك	-10.8963
▁صدفة	-10.8967
▁السكر	-10.8967
▁التألق	-10.8967
▁السمانة	-10.8968
▁الرو	-10.8969
▁more	-10.8969
▁الدالة	-10.8975
▁الصالحات	-10.8977
▁متح	-10.8978
▁وكامل	-10.8979
▁يقع	-10.898
قدام	-10.898
▁ah	-10.8981
▁psq	-10.8983
▁بور	-10.8985
▁تضيع	-10.8985
▁قلتلها	-10.8987
لول	-10.8987
▁قلق	-10.899
▁القناص	-10.899
▁بص	-10.899
▁وكثر	-10.899
▁تتحرك	-10.8992
▁مكش	-10.8994
lach	-10.8994
▁وخير	-10.8994
▁فهموني	-10.8997
▁المريض	-10.8997
▁المسلسلات	-10.8998
لش	-10.8999
▁رونالدو	-10.9
▁اشفي	-10.9
▁💞	-10.9005
▁البطريق	-10.9005
▁لج	-10.9009
ابوني	-10.9011
إلى	-10.9011
❣️	-10.9012
▁stp	-10.9013
▁سقسيت	-10.9013
▁الطبيعة	-10.9013
فيها	-10.9014
▁bn	-10.9016
▁للح	-10.9016
▁rahi	-10.9016
الحمد	-10.9017
▁طي	-10.9017
▁عاودي	-10.9017
طير	-10.9019
انه	-10.902
▁تبعي	-10.9024
▁ضغط	-10.9024
▁الغد	-10.9025
▁تصرف	-10.9025
▁2014	-10.9026
▁سماح	-10.9026
▁وأهل	-10.9026
☺	-10.9029
▁حجا	-10.9033
▁تروحي	-10.9034
▁موا	-10.9034
▁نبدأ	-10.9034
▁الزهر	-10.9036
▁بالصح	-10.9038
▁سأل	-10.9038
▁Toop	-10.9039
ربما	-10.9039
سون	-10.904
▁2015	-10.9041
▁ثقافة	-10.9042
عداد	-10.9043
▁فرينة	-10.9044
لاك	-10.9044
▁اللطيف	-10.9044
▁نجحتي	-10.9044
▁خبز	-10.9048
▁الجنه	-10.9048
▁طاقة	-10.9051
▁مررت	-10.9052
▁جيبي	-10.9052
ag	-10.9052
يطة	-10.9054
▁توفر	-10.9054
▁الأستاذة	-10.9055
▁وقتي	-10.9057
سوق	-10.9058
▁الوسط	-10.9058
▁اعمال	-10.9059
▁اليتيم	-10.9059
▁القر	-10.906
▁مابرح	-10.906
▁اربعين	-10.9062
▁نستعرف	-10.9062
▁أكرم	-10.9063
▁حوست	-10.9063
زيت	-10.9063
بيض	-10.9064
21	-10.9065
up	-10.9067
▁حامل	-10.9069
▁حالات	-10.9069
باس	-10.907
▁التفكير	-10.9076
▁علمت	-10.9078
حصن	-10.9079
▁أمن	-10.908
▁hommes	-10.908
▁للفيديو	-10.9083
▁بينكم	-10.9083
▁النعيم	-10.9084
▁ونتوما	-10.9085
▁va	-10.9085
ديا	-10.9094
▁مرح	-10.9095
▁جريمة	-10.9095
▁واغسله	-10.9096
▁مولات	-10.9097
▁ورعاك	-10.9097
▁الهدى	-10.9099
▁don	-10.9099
▁سليم	-10.9099
▁شمال	-10.9101
▁😭💔	-10.9101
▁dahk	-10.9106
حشم	-10.9106
نتظر	-10.9108
fe	-10.9109
▁والعمل	-10.9109
▁صغر	-10.911
▁شهد	-10.9114
▁ضيفا	-10.9118
▁تنمر	-10.912
▁بكثير	-10.9121
▁معاني	-10.9121
▁صا	-10.9122
▁وجهي	-10.9123
▁الحجاب	-10.9124
▁انجليزية	-10.9124
عوض	-10.9125
ريج	-10.9126
آء	-10.9128
▁شكيت	-10.9131
▁باس	-10.9132
▁يوسع	-10.9132
▁غرض	-10.9132
فد	-10.9135
▁نرى	-10.9137
▁فلو	-10.9138
▁نتيا	-10.9139
je	-10.914
▁حجة	-10.9142
وصي	-10.9143
▁ليسي	-10.9144
▁نشارك	-10.9144
▁تقر	-10.9144
▁الرجاء	-10.9147
▁kont	-10.9151
▁المدارس	-10.9152
▁ويت	-10.9153
▁غاضتني	-10.9154
▁القريب	-10.9156
▁rida	-10.9156
▁نفرق	-10.9156
▁pi	-10.9157
عز	-10.9157
▁ml	-10.9159
▁يكره	-10.9161
▁البطاقة	-10.9162
▁who	-10.9163
▁كرب	-10.9165
▁...!	-10.9165
▁الانسانية	-10.9165
▁ورحت	-10.9165
▁الحسنات	-10.9167
▁ماكش	-10.9167
▁لكنها	-10.9168
▁3.	-10.9171
▁مانقدرش	-10.9173
▁رحلة	-10.9175
▁النفسية	-10.9175
▁صايي	-10.9176
▁وربما	-10.9176
ère	-10.9177
بيت	-10.918
▁وصلنا	-10.918
▁شعري	-10.9182
▁مراحش	-10.9183
▁الفضل	-10.9184
▁live	-10.9185
▁مولا	-10.9186
▁الصدق	-10.9187
▁شرع	-10.9191
▁عيان	-10.9193
▁Ki	-10.9196
▁وخلي	-10.9196
ena	-10.9198
▁قتلت	-10.9198
باط	-10.92
▁سماع	-10.9201
قف	-10.9203
op	-10.9203
▁وسم	-10.9206
▁الشرع	-10.9206
▁حضر	-10.9208
▁ولادي	-10.9208
▁الدفع	-10.9211
▁درست	-10.9212
▁what	-10.9213
▁القدير	-10.9214
▁القراية	-10.9214
▁يرزقنا	-10.9215
▁4.	-10.9215
▁يك	-10.9217
▁وماما	-10.9217
▁انتاع	-10.9217
▁شن	-10.9218
▁بلماضي	-10.9218
▁يساعد	-10.9219
▁حيا	-10.922
00	-10.922
▁نصح	-10.9221
قلت	-10.9222
▁سوجيات	-10.9223
👑	-10.9224
▁غم	-10.9225
▁اصبر	-10.9227
▁مكة	-10.9232
ion	-10.9233
▁مساكن	-10.9234
▁أخيرا	-10.9234
▁دخلنا	-10.9234
دول	-10.9234
▁اجعلنا	-10.9238
▁قوت	-10.924
▁نمشي	-10.924
▁الشافي	-10.9245
▁سجين	-10.9245
▁أست	-10.9246
▁الشكل	-10.9246
▁ياسمين	-10.925
▁جداتك	-10.925
ستعمل	-10.9255
ضعف	-10.9257
▁bou	-10.9261
▁صناع	-10.9262
▁يحي	-10.9265
▁المحبة	-10.9265
نصح	-10.9265
عليه	-10.9266
▁ركلط	-10.9267
▁واقف	-10.9269
▁روحت	-10.9272
▁بالفعل	-10.9275
▁العاب	-10.9276
خم	-10.9276
▁والفلسفة	-10.9276
▁تتعب	-10.9277
▁وآله	-10.9278
▁يحصل	-10.9282
٢	-10.9282
🤦	-10.9282
.00	-10.9283
▁مسلمة	-10.9283
▁وقل	-10.9287
▁حبي	-10.9287
▁أولى	-10.929
حرص	-10.9291
▁اعلان	-10.9291
▁البلاء	-10.9294
▁الاف	-10.9295
dir	-10.9296
▁استفسار	-10.9297
شارك	-10.93
â	-10.9301
نوع	-10.9302
▁الحج	-10.9302
tl	-10.9304
▁فك	-10.9305
سات	-10.9305
▁مترشحة	-10.9306
وور	-10.9306
▁جبتيه	-10.9306
جود	-10.9308
▁اطلب	-10.9315
ونها	-10.9316
▁خوها	-10.9316
▁fin	-10.9318
ndi	-10.9319
▁الرياضة	-10.9322
▁تمثيل	-10.9324
سهر	-10.9326
وبي	-10.9328
▁وأهلا	-10.933
▁حسين	-10.933
▁ويوفقنا	-10.933
▁رقية	-10.9331
▁سمي	-10.9334
لزم	-10.9334
▁تحصل	-10.9335
▁المل	-10.9337
ami	-10.9337
▁ويعافيك	-10.9338
ouch	-10.9339
▁بالمنتدى	-10.9339
▁الوصفات	-10.9343
▁اقتصاد	-10.9345
▁والمغفرة	-10.9347
▁السماوات	-10.9347
▁تحاول	-10.9347
نع	-10.9349
عادة	-10.9352
▁مباشر	-10.9353
▁تصيب	-10.9354
▁مقاطع	-10.9355
▁Win	-10.9355
▁عرفة	-10.9359
▁نعود	-10.936
صرف	-10.9364
▁كبيرا	-10.9365
٨	-10.9366
▁شريكي	-10.9372
الى	-10.9376
▁الماسونية	-10.9377
▁الحا	-10.9377
وسط	-10.9379
▁العقلية	-10.9381
▁ادير	-10.9382
▁ostad	-10.9382
▁ٱ	-10.9387
▁ينجحو	-10.9388
▁ak	-10.939
▁بليغ	-10.9391
توقف	-10.9394
ouli	-10.9396
سجل	-10.9397
▁تام	-10.9401
▁نتبعو	-10.9401
▁نمت	-10.9405
▁نحيت	-10.9405
▁اعد	-10.941
▁الطلاب	-10.9411
▁لقيتو	-10.9413
▁😂💔	-10.9415
تحمل	-10.9417
جين	-10.9418
▁بيسة	-10.9419
▁محترم	-10.9419
▁فقير	-10.942
▁شفتك	-10.9423
ڨو	-10.9423
▁التب	-10.9423
▁عودتك	-10.9424
▁fois	-10.9427
▁فظلك	-10.9427
▁قش	-10.9429
بذل	-10.9429
▁واللي	-10.9429
▁ذرية	-10.9429
▁thank	-10.943
ane	-10.943
▁Re	-10.9431
▁الكفر	-10.9432
▁الرقاد	-10.9433
hal	-10.9434
▁الشرعي	-10.9435
▁ترين	-10.9446
▁لهاد	-10.9446
حساب	-10.9447
▁المق	-10.9447
▁الوضع	-10.9449
mat	-10.945
آمين	-10.9453
▁استضافة	-10.9453
▁وفيه	-10.9454
ذبح	-10.9457
▁ادمان	-10.9457
خجل	-10.946
عالم	-10.9463
آخر	-10.9463
▁صدر	-10.9465
▁حسنات	-10.9466
▁جنانك	-10.9467
▁للب	-10.9467
▁مآ	-10.9469
ماس	-10.947
▁الراس	-10.9471
▁وسائل	-10.9473
▁ادري	-10.9473
دش	-10.9474
بقا	-10.9474
▁لكنني	-10.9475
▁حياتهم	-10.9476
▁بذكر	-10.9477
▁١	-10.9481
▁وشكر	-10.9482
uu	-10.9483
سجد	-10.9483
▁يستعمل	-10.9485
زرع	-10.949
▁اكرام	-10.9491
▁mchi	-10.9496
فاي	-10.9497
▁مشكوور	-10.9499
▁نتمنالك	-10.9502
الات	-10.9503
▁ys	-10.9503
▁ادم	-10.9504
▁بنفسك	-10.9504
▁لاعب	-10.9505
▁قلم	-10.9506
ظم	-10.9507
▁Bonne	-10.9507
حصل	-10.9507
▁ودار	-10.951
▁قران	-10.9511
▁معجب	-10.9513
▁لانهم	-10.9513
ans	-10.9514
▁التفاصيل	-10.9515
▁تواريخ	-10.9515
ستمتع	-10.9515
▁واح	-10.9516
▁دورات	-10.9516
▁تتحدث	-10.9517
▁الحروف	-10.9518
▁انسانة	-10.9523
▁لكني	-10.9526
▁يحكو	-10.9526
▁شرق	-10.9529
▁تحرم	-10.9529
نشط	-10.953
فجر	-10.9532
▁الصغار	-10.9532
▁الاختبارات	-10.9533
روع	-10.9534
▁كبرت	-10.9534
▁نفسيا	-10.9535
▁النجاحات	-10.9537
▁مدرت	-10.9538
▁المنام	-10.9539
زهر	-10.9539
اول	-10.9542
▁ظرف	-10.9545
ندي	-10.9546
▁hi	-10.9547
▁حسناتكم	-10.9547
▁بحال	-10.9549
▁دزيري	-10.9549
▁يجيني	-10.9549
▁ولهذا	-10.9553
▁كنتم	-10.9554
طين	-10.9555
سافر	-10.9555
▁خذ	-10.9561
رها	-10.9562
▁رقد	-10.9565
▁hadak	-10.9565
اكيد	-10.9565
لاحظ	-10.9567
▁مشاركات	-10.9567
▁ضروري	-10.9569
▁تاب	-10.9569
▁مدر	-10.957
allah	-10.9571
ance	-10.9572
▁لفظ	-10.9578
▁بتس	-10.9578
🖤🖤	-10.9583
ظن	-10.9583
جرة	-10.9584
▁حضرت	-10.9584
▁يف	-10.9585
دها	-10.9585
▁كورونا	-10.9586
zz	-10.9589
▁وانشاء	-10.9591
▁التلخيص	-10.9591
زيل	-10.9592
شك	-10.9593
▁جوز	-10.9593
▁بينهما	-10.9594
▁تفصلنا	-10.9595
▁ودع	-10.9595
▁سقسي	-10.9598
▁لولاد	-10.9598
▁الجنوب	-10.9599
▁عينيك	-10.96
لهاش	-10.9602
▁قتلني	-10.9609
▁كرا	-10.961
▁لأنهم	-10.9611
▁نك	-10.9612
نصيحة	-10.9612
▁ولايتي	-10.9613
تحقق	-10.9613
▁يبانو	-10.9613
ref	-10.9613
▁سميت	-10.9613
▁وثبت	-10.9616
▁مضحك	-10.9618
▁ابواب	-10.9618
▁hadik	-10.9619
▁الضغط	-10.962
▁والك	-10.9623
▁vu	-10.9624
▁باسك	-10.9627
▁واكثر	-10.9629
وء	-10.9633
▁لعند	-10.9633
▁💖💖	-10.9634
▁الألم	-10.9634
▁أذكر	-10.9634
▁أشكر	-10.9635
lich	-10.9635
▁تبا	-10.9635
💥	-10.9642
▁واختي	-10.9643
bac	-10.9644
▁دوال	-10.9646
▁ينزل	-10.9646
▁تنتهي	-10.9647
▁قطعة	-10.9647
▁بز	-10.9649
▁يأ	-10.965
▁ندعو	-10.965
son	-10.9652
▁وبنات	-10.9652
عني	-10.9653
▁رؤية	-10.9656
▁نقرأ	-10.9659
▁day	-10.9659
▁وعافه	-10.966
▁يسير	-10.966
▁حصلت	-10.9662
▁برح	-10.9663
▁ندخلو	-10.9663
▁حجرك	-10.9663
▁الإست	-10.9666
▁كلية	-10.9666
▁دق	-10.9667
▁يبدأ	-10.9667
▁pa	-10.9668
▁فقر	-10.967
خرى	-10.9671
▁مقام	-10.9672
▁ريان	-10.9672
▁نحسب	-10.9674
▁صبت	-10.9675
▁المروك	-10.9676
▁جه	-10.9678
▁كلامي	-10.9678
▁حرق	-10.9678
▁ولماذا	-10.9682
▁300	-10.9682
▁والأرض	-10.9687
▁ex	-10.9688
▁مكمل	-10.969
دافع	-10.9692
وضع	-10.9693
▁يحس	-10.9696
▁mor	-10.9696
pa	-10.9697
ادا	-10.9697
▁شاعر	-10.9698
▁شدة	-10.9699
nk	-10.9699
▁وعندما	-10.97
😐	-10.9703
▁بالغ	-10.9703
°	-10.9706
▁الخامسة	-10.9706
رواه	-10.9707
▁خب	-10.9707
ارك	-10.9708
▁dj	-10.9709
▁الكوزينة	-10.9712
▁احم	-10.9713
▁تج	-10.9713
▁Kh	-10.9715
▁البشرية	-10.9715
▁اعوذ	-10.9716
شرك	-10.9718
ont	-10.972
▁تملك	-10.9721
▁وتت	-10.9721
▁خدام	-10.9722
▁محبش	-10.9725
▁هاا	-10.9727
▁بط	-10.9728
▁سياسية	-10.9728
▁ذكرى	-10.973
▁فكان	-10.9731
▁فانا	-10.9731
200	-10.9732
▁البيان	-10.9736
▁يحاول	-10.9737
▁الجامع	-10.9738
زد	-10.974
يبي	-10.974
kk	-10.9743
▁يحطو	-10.9747
▁أسامة	-10.9747
▁وتقبل	-10.9749
▁المحل	-10.9749
▁Kada	-10.975
▁المخدرات	-10.9751
شعر	-10.9752
ايب	-10.9753
▁لقطة	-10.9753
▁المنتديات	-10.9754
▁2027	-10.9762
▁فض	-10.9763
▁يج	-10.9764
▁aya	-10.9764
▁3/	-10.9764
سامح	-10.9765
▁استر	-10.9766
▁للأخ	-10.9766
▁اوقات	-10.9766
!؟	-10.977
▁خرجتلي	-10.9771
▁منيتك	-10.9773
▁يعينك	-10.9776
▁اخواتي	-10.978
▁histoires	-10.978
▁المدير	-10.9782
▁متوفر	-10.9782
دقيقة	-10.9784
▁مافي	-10.9785
وجي	-10.9787
▁سؤالك	-10.9788
▁تلقاه	-10.9789
▁ke	-10.9789
حقق	-10.9789
tra	-10.9791
▁كرسي	-10.9792
▁اتق	-10.9792
▁معند	-10.9793
▁كاينين	-10.9794
طرق	-10.9794
▁سمح	-10.9794
▁شبعت	-10.9797
▁بحيث	-10.9798
▁جوار	-10.9798
▁وكيل	-10.9802
مراجعة	-10.9802
▁مونتاج	-10.9809
▁تشوك	-10.9813
▁هاو	-10.9818
▁ارجعي	-10.9821
▁أغفر	-10.9821
▁الشخصيات	-10.9823
بوب	-10.9825
▁الاخرة	-10.9829
▁الابداع	-10.9829
٣	-10.983
▁يدرس	-10.983
▁الريح	-10.9831
ريا	-10.9831
▁صباحكم	-10.9832
▁امكن	-10.9832
▁دعولنا	-10.9836
▁تحول	-10.9838
▁تاريخي	-10.9838
▁مديرش	-10.984
▁يقتلو	-10.9842
▁حكمت	-10.9842
توكل	-10.9843
▁ويسكنه	-10.9843
▁نشوفها	-10.9848
▁تؤ	-10.985
▁يحفظلك	-10.9851
▁راضية	-10.9852
وسة	-10.9854
out	-10.9854
▁chbab	-10.9855
▁وعي	-10.9856
▁En	-10.9857
▁أخبر	-10.9858
▁بالح	-10.9858
▁قصيدة	-10.9858
▁مفتوح	-10.9859
▁تد	-10.9859
▁واسعة	-10.9859
▁كثرت	-10.9861
▁الاتصال	-10.9862
▁السب	-10.9864
▁أشكرك	-10.9864
▁ونزيد	-10.9866
أتمنى	-10.9867
▁يبلغ	-10.9868
▁نقدي	-10.9868
▁بترقيم	-10.987
حبيب	-10.987
▁قولوا	-10.9871
▁تووب	-10.9875
▁تدعو	-10.9876
▁جاءت	-10.9877
▁المونتاج	-10.9879
ساء	-10.9881
▁والج	-10.9881
▁مثواها	-10.9881
▁تبغي	-10.9884
عيط	-10.9885
▁منتخب	-10.9887
▁هشام	-10.9891
▁باباها	-10.9892
▁المؤ	-10.9894
▁احس	-10.9895
حشر	-10.9896
حات	-10.9896
▁مزالو	-10.9896
km	-10.9896
هود	-10.9897
ستمر	-10.9898
▁راوية	-10.9901
▁انفك	-10.9901
▁وتفرحي	-10.9903
وناش	-10.9904
▁وحل	-10.9905
▁No	-10.9909
▁واع	-10.9909
سكر	-10.9909
▁رم	-10.9909
ضاع	-10.991
▁يصح	-10.991
▁سألت	-10.9911
mm	-10.9911
زز	-10.9912
▁طبيبة	-10.9912
▁الصمد	-10.9917
▁هام	-10.9917
▁تيمية	-10.9918
▁Na	-10.992
كما	-10.9921
▁أستاذي	-10.9925
▁وناس	-10.9933
▁منال	-10.9933
غب	-10.9934
▁ab	-10.9935
▁Lah	-10.9937
▁لخاطر	-10.9937
ديك	-10.994
تفوق	-10.994
▁شايف	-10.9942
كمش	-10.9942
▁عسل	-10.9943
▁اقترح	-10.9946
▁الخل	-10.995
▁ألي	-10.9952
رخ	-10.9955
▁غامل	-10.9956
▁وفرح	-10.9957
▁شروط	-10.9958
▁راسو	-10.9958
▁تجاوز	-10.9959
31	-10.9962
فيق	-10.9962
بحر	-10.9962
▁يص	-10.9969
▁توسوست	-10.9969
حظ	-10.997
hab	-10.9973
▁rendu	-10.9973
▁عقوبة	-10.9974
▁والديكم	-10.9974
جمل	-10.9976
▁وجهه	-10.9976
▁واعي	-10.9977
بيان	-10.9977
▁car	-10.9981
ence	-10.9982
▁فيقول	-10.9982
▁خلعتني	-10.9983
أب	-10.9983
ولى	-10.9985
▁ليكيب	-10.9988
▁شااء	-10.999
▁brother	-10.9994
▁المهنة	-10.9996
▁تخص	-10.9998
خرة	-10.9998
▁الاشياء	-10.9998
رود	-11.0004
رجل	-11.0005
▁تفرجتها	-11.0005
▁تقبلي	-11.0005
▁متمكن	-11.0007
▁نجيبوا	-11.0009
▁المسؤولية	-11.001
▁ک	-11.0011
▁إجعل	-11.0012
▁فاني	-11.0013
😒	-11.0015
▁التن	-11.0019
▁وعليك	-11.002
▁الأشخاص	-11.0021
▁النقاط	-11.0021
▁بانو	-11.0022
▁وزو	-11.0024
▁ابداع	-11.0024
ثا	-11.0025
▁الشغل	-11.003
▁ولاو	-11.0035
▁الغا	-11.0036
▁ميساج	-11.0037
▁المطر	-11.0037
لتي	-11.0038
تيها	-11.004
tal	-11.0041
يون	-11.0042
عدم	-11.0043
▁ida	-11.0043
▁).	-11.0044
قش	-11.0044
▁ثالثة	-11.0045
▁Nta	-11.0046
▁po	-11.0047
ارا	-11.005
▁التركيز	-11.005
▁العقلي	-11.0051
وضح	-11.0052
▁تنقص	-11.0052
▁يعوضك	-11.0052
▁صي	-11.0053
▁ابتدائي	-11.0053
كوب	-11.0053
▁دينه	-11.0054
▁زاوج	-11.0055
▁عبدك	-11.0055
▁الأحياء	-11.0057
▁😹😹	-11.0058
🤨	-11.0058
▁<3	-11.0059
سال	-11.006
▁فد	-11.0061
▁عموما	-11.0062
▁تفاعل	-11.0063
صلة	-11.0067
▁اص	-11.0069
▁تحكيلنا	-11.007
سين	-11.007
▁سابق	-11.0072
▁والدين	-11.0072
▁وماذا	-11.0074
ssi	-11.0074
▁الفتن	-11.0076
▁باكلوريا	-11.0077
ثي	-11.0078
▁ويوم	-11.0079
▁التم	-11.0083
▁صرت	-11.0086
▁tae	-11.0088
▁يوتيوبرز	-11.0089
▁ريال	-11.0089
شري	-11.0091
▁وإياكم	-11.0094
▁الغرض	-11.0094
وحدة	-11.0095
sl	-11.0096
هى	-11.0097
▁يزيدو	-11.0099
▁توصيل	-11.0099
▁اقرأ	-11.01
▁اننا	-11.0101
▁وليك	-11.0101
bt	-11.0102
▁تعاودي	-11.0105
▁مجهر	-11.0106
▁العن	-11.011
▁mrc	-11.011
▁BAC	-11.0111
▁وحيد	-11.0111
صدر	-11.0112
▁قلبو	-11.0114
▁صناعة	-11.0115
طبع	-11.0118
فف	-11.012
ويل	-11.012
▁مدا	-11.0121
▁أشرف	-11.0123
kn	-11.0124
▁قهوة	-11.0129
▁يبغي	-11.013
▁الجماعة	-11.0132
▁ولى	-11.0133
قولو	-11.0133
▁الفائدة	-11.0133
▁الشاوية	-11.0134
▁صب	-11.0135
ادعو	-11.0138
▁اج	-11.014
▁كوميدي	-11.0142
▁تخسر	-11.0142
▁البار	-11.0143
تاج	-11.0145
▁كريمة	-11.0145
حاب	-11.0146
▁الفيس	-11.0147
▁الوصول	-11.0149
عندي	-11.015
▁نجم	-11.015
▁ورضا	-11.015
▁مفتاح	-11.0151
▁Si	-11.0154
▁شاه	-11.0155
nc	-11.0156
▁😂😅	-11.0158
▁vie	-11.0159
▁bcp	-11.0164
حث	-11.0164
والد	-11.0166
▁نحبس	-11.0166
▁حوس	-11.0168
▁مالقيت	-11.0168
▁هدوك	-11.0169
▁دب	-11.0169
▁😏	-11.0172
▁وزن	-11.0172
▁مقل	-11.0172
rg	-11.0173
▁تنسا	-11.0175
كاش	-11.0176
▁تاج	-11.0177
▁لفات	-11.0179
▁جزايري	-11.018
▁يعطو	-11.0182
▁تكبر	-11.0187
▁faire	-11.0189
▁ند	-11.0189
▁حاصلة	-11.019
▁الصحه	-11.0192
▁واخت	-11.0192
▁عمله	-11.0193
▁نظرة	-11.0194
▁زايد	-11.0197
▁;	-11.0197
▁سكت	-11.0197
rb	-11.0197
▁الاتحاد	-11.0198
▁المساء	-11.0198
▁احلام	-11.0198
▁الغربية	-11.02
▁يبحث	-11.02
▁ردة	-11.0202
▁تميز	-11.0202
▁ورانا	-11.0202
▁يهبلو	-11.0205
$	-11.0205
▁podcast	-11.0205
▁وايضا	-11.0206
▁طلبة	-11.0206
▁يودي	-11.0207
▁تركيب	-11.0207
🤌	-11.0208
▁صيف	-11.0208
▁محروم	-11.0209
▁ادبيين	-11.0209
▁انما	-11.021
▁مكتبة	-11.0211
باني	-11.0211
ide	-11.0212
شفت	-11.0213
▁كفا	-11.0215
▁ويسهل	-11.0216
▁حنونة	-11.0217
ماذا	-11.0217
▁فنحن	-11.0218
▁سيت	-11.022
ذى	-11.0221
▁الموقف	-11.0222
à	-11.0223
▁دارك	-11.0225
▁خاوتنا	-11.0225
🗿	-11.0228
▁tl	-11.0229
▁الشطر	-11.023
▁جنوب	-11.0231
ap	-11.0232
دوم	-11.0234
رجال	-11.0234
▁has	-11.0236
▁jour	-11.0236
▁آن	-11.0236
ser	-11.0236
▁قو	-11.0237
▁حلقات	-11.0237
qu	-11.0237
▁وينجحك	-11.0239
▁🥀	-11.024
▁وديت	-11.0241
سمي	-11.0242
ومي	-11.0242
▁عادات	-11.0245
‍	-11.0245
▁ونس	-11.0246
▁please	-11.0249
▁صبرينة	-11.025
▁سعي	-11.0253
▁المدة	-11.0253
▁اسماعيل	-11.0254
▁مار	-11.0254
▁مجهودك	-11.0256
▁الفكر	-11.0259
▁chikh	-11.026
▁فر	-11.0264
ستان	-11.0264
▁لد	-11.0266
▁رشح	-11.0266
▁زيرو	-11.0268
▁هربت	-11.027
cu	-11.027
▁مصاب	-11.027
ولاية	-11.0273
▁المغ	-11.0273
▁تلبس	-11.0273
▁مجهود	-11.0274
▁content	-11.0274
خبط	-11.0274
تخب	-11.0274
▁❤️🔥	-11.0276
روم	-11.0276
▁نستطيع	-11.0276
▁ميمتك	-11.0277
▁جامع	-11.0277
▁الايمان	-11.0278
▁عجبت	-11.0279
▁وارحم	-11.0284
▁ره	-11.0284
▁نقارع	-11.0286
▁التف	-11.0287
▁إضافة	-11.0287
▁تعطيني	-11.0289
▁ربا	-11.0289
▁بورنان	-11.0291
▁sou	-11.0292
▁النمط	-11.0294
قلي	-11.0294
دود	-11.0294
نقص	-11.0295
▁الأسود	-11.0295
▁دوري	-11.0296
▁تجمع	-11.0296
▁الحوار	-11.0297
▁طاب	-11.0299
▁ربه	-11.0299
▁koul	-11.03
صورة	-11.0305
▁التفسير	-11.0307
▁الإجتماعي	-11.0311
hach	-11.0312
▁chikour	-11.0313
AR	-11.0314
😫	-11.0316
32	-11.0316
du	-11.0318
نطق	-11.0321
▁الكومونتار	-11.0321
▁يالطيف	-11.0322
▁قض	-11.0323
ئت	-11.0323
يجي	-11.0325
rit	-11.0326
▁الوعي	-11.0326
▁اواه	-11.0327
بب	-11.0327
صعب	-11.0329
▁اعتبر	-11.0329
▁حبيبة	-11.0334
جميع	-11.0336
▁ناض	-11.0337
▁فانت	-11.0338
▁(1	-11.0339
45	-11.0339
▁كرام	-11.0339
😁😁	-11.0339
▁العيش	-11.034
▁ماشفت	-11.0343
▁mas	-11.0344
65	-11.0345
▁خيار	-11.0346
▁مبني	-11.0346
ثمر	-11.0346
▁استغفرالله	-11.0348
▁ندعيلك	-11.0349
ميم	-11.0349
رحمه	-11.0351
🙂🙂	-11.0355
dar	-11.0355
▁البدع	-11.0356
▁ڤاع	-11.0357
▁whd	-11.0357
▁المسيح	-11.036
52	-11.0362
▁الصوالح	-11.0362
▁فنان	-11.0362
▁راجلي	-11.0363
▁تغيب	-11.0364
▁ضحكني	-11.0365
▁يامن	-11.0365
▁يعاون	-11.0367
سمو	-11.0369
▁يعيط	-11.037
نطلق	-11.0371
شيء	-11.0372
▁معروفة	-11.0372
▁تدعم	-11.0372
▁محا	-11.0373
ld	-11.0374
▁طيبا	-11.0375
▁صعوبة	-11.0378
▁قاري	-11.0378
▁لهاذ	-11.0378
▁مقرر	-11.0379
▁ولجميع	-11.038
▁متزوجة	-11.038
▁حكيات	-11.0381
▁تراجع	-11.0383
▁النقاش	-11.0384
lm	-11.0386
▁اسكنه	-11.0389
LA	-11.0391
جيش	-11.0393
▁أسكنه	-11.0395
مواضيع	-11.0399
▁aussi	-11.04
▁دراري	-11.04
▁مود	-11.0401
بالغ	-11.0401
▁ورقلة	-11.0402
▁تطول	-11.0402
▁تفضلي	-11.0406
▁منع	-11.0406
▁2010	-11.0406
▁مسلسلات	-11.0407
▁العدو	-11.041
طيع	-11.0412
▁dis	-11.0413
▁عب	-11.0415
وهمش	-11.0415
▁وزارة	-11.0415
عتمد	-11.042
▁عجبوني	-11.042
▁يحرم	-11.0421
▁المبادرة	-11.0421
▁وعليه	-11.0423
▁مالقيتش	-11.0423
▁كاتبة	-11.0425
حضار	-11.0426
▁أمير	-11.0427
وليش	-11.0427
▁قوا	-11.043
زام	-11.0433
/2	-11.0433
يلا	-11.0433
▁وندخل	-11.0435
▁وفقكم	-11.0435
56	-11.0438
▁بارد	-11.0438
راهم	-11.0439
▁اقصد	-11.0439
▁طير	-11.0442
▁بكثرة	-11.0443
▁وروح	-11.0448
▁2017	-11.0448
▁ويدخل	-11.0448
نسي	-11.045
▁☺	-11.045
▁التوحيد	-11.045
ers	-11.0452
سباب	-11.0453
▁vid	-11.0455
▁تضرب	-11.0457
▁الضرب	-11.0457
▁يديك	-11.0457
▁طايح	-11.046
▁ميلاد	-11.0464
تربية	-11.0465
▁الميلاد	-11.0465
درك	-11.0469
▁تنسي	-11.0469
▁وبعض	-11.047
تلها	-11.0471
▁بيوت	-11.0471
يمين	-11.0473
▁موالف	-11.0474
▁مقدم	-11.0477
▁السجن	-11.0481
روس	-11.0481
▁شجرة	-11.0483
▁شوق	-11.0486
fr	-11.0486
▁Al	-11.0486
ہ	-11.0487
صداق	-11.0487
▁لأجل	-11.0489
▁حو	-11.0492
▁افريل	-11.0492
▁سرا	-11.0492
▁De	-11.0493
▁استعمل	-11.0497
▁دالة	-11.0497
▁الخبز	-11.0497
▁تدخلي	-11.0497
▁تثبت	-11.0499
▁🌺	-11.0499
▁نقد	-11.0505
▁مشا	-11.0505
▁hak	-11.0506
▁يشاء	-11.0508
▁اوت	-11.051
ساب	-11.0511
▁الربح	-11.0511
▁ايها	-11.0514
▁ننصح	-11.0516
▁ويب	-11.0518
▁الذهب	-11.052
▁😱😱	-11.0522
▁مصير	-11.0523
سلسل	-11.0525
جرب	-11.0527
▁التق	-11.0527
▁عاف	-11.053
▁الطرح	-11.053
▁تلقي	-11.0535
▁الطا	-11.0538
✌️	-11.0538
▁قلتها	-11.0539
مرا	-11.054
▁وكن	-11.054
▁التمثيل	-11.054
▁وغيرهم	-11.054
▁العاقبة	-11.0541
فز	-11.0542
▁غاع	-11.0542
ترحم	-11.0543
▁تنوض	-11.0543
▁حضور	-11.0544
▁مروري	-11.0544
▁ننصحكم	-11.0546
▁أولئك	-11.0548
▁طبيعة	-11.055
▁يرقد	-11.0551
جميل	-11.0551
▁زوجته	-11.0551
▁يحسن	-11.0552
▁تقرى	-11.0552
▁مأ	-11.0553
▁مؤخرا	-11.0553
▁شكوبي	-11.0555
▁نتعرف	-11.0557
سحر	-11.0561
bar	-11.0561
زواج	-11.0561
▁يرضي	-11.0562
▁نبعث	-11.0562
تخصص	-11.0563
▁اساسية	-11.0564
▁موراها	-11.0564
▁شرب	-11.0565
▁بومرداس	-11.0565
pl	-11.0568
▁khou	-11.0571
wl	-11.0574
معلومات	-11.0575
▁lo	-11.0577
حضر	-11.0578
▁شكلي	-11.058
▁صراع	-11.0582
▁نورا	-11.0583
▁لاخر	-11.0583
mt	-11.0584
▁الحكومة	-11.0584
▁يسهلك	-11.0585
▁yt	-11.0587
▁الزيت	-11.0589
▁نقي	-11.059
▁يلبس	-11.059
▁يقين	-11.059
واقع	-11.059
▁استطعت	-11.0591
▁اون	-11.0592
ws	-11.0595
▁السيدة	-11.0595
▁طموح	-11.0596
فلسطين	-11.0597
▁cho	-11.0598
lu	-11.0599
▁رجلا	-11.06
EN	-11.0603
▁المك	-11.0603
▁علاج	-11.0604
▁مواضيعك	-11.0605
▁نعاني	-11.0606
▁لحي	-11.0609
sta	-11.0609
▁المض	-11.0609
▁هدرتك	-11.0612
ارد	-11.0617
صدم	-11.0619
٧	-11.0619
▁ياعمري	-11.0619
▁المتحدة	-11.0619
▁سنه	-11.0619
▁خسر	-11.0621
▁يتفرجو	-11.0621
▁الإسلامي	-11.0622
ميت	-11.0624
▁ياجدك	-11.0625
▁وشر	-11.0626
▁وأنتم	-11.0628
تفكر	-11.063
IN	-11.0631
خسر	-11.0634
ولكن	-11.0635
▁التنمر	-11.0639
▁كاب	-11.064
▁نقراه	-11.0641
▁الدجال	-11.0642
▁sh	-11.0643
▁أمرا	-11.0645
▁يفكر	-11.0646
▁زادت	-11.0648
▁المتتاليات	-11.0649
▁غالبا	-11.0651
▁لعن	-11.0651
▁يشعر	-11.0655
غلب	-11.0655
فديو	-11.0655
▁بديتي	-11.0656
غيث	-11.0657
eux	-11.0661
تقل	-11.0661
▁khawti	-11.0664
▁حمدالله	-11.0668
▁معلق	-11.0669
الذي	-11.067
▁اخبار	-11.067
▁داروها	-11.0671
▁lm	-11.0673
▁الطاقة	-11.0673
▁وكلش	-11.0676
▁٢	-11.0676
▁تعبنا	-11.0676
شهادة	-11.0678
▁يده	-11.0679
▁رباك	-11.0679
▁عطلة	-11.068
▁بيده	-11.0682
قضية	-11.0683
▁كلماتك	-11.0686
▁بكتاب	-11.0688
▁حج	-11.0688
▁جبر	-11.0693
▁مرأة	-11.0694
▁مبدعة	-11.0694
▁الأجر	-11.0694
كثير	-11.0696
▁موضوعك	-11.0696
▁فارس	-11.0699
▁عذرا	-11.07
وشكرا	-11.0702
▁كراس	-11.0703
▁باباه	-11.0704
بوني	-11.0705
بلا	-11.0705
▁elle	-11.0706
▁شافو	-11.0706
▁وشفت	-11.0707
▁طحت	-11.0707
طمئن	-11.0709
02	-11.0709
▁الالكترونية	-11.071
▁بكلوريا	-11.0711
تال	-11.0712
يار	-11.0714
▁تحفيز	-11.0719
▁تديه	-11.072
▁🤲❤	-11.0721
▁🫶🏻	-11.0722
تميز	-11.0723
▁اماني	-11.0724
▁مازالت	-11.0726
حاجة	-11.0727
مني	-11.0728
▁فهنا	-11.0729
▁خاتم	-11.0729
▁lh	-11.0731
▁بالتفصيل	-11.0731
▁كيم	-11.0733
▁العا	-11.0734
▁إخوتي	-11.0734
▁will	-11.0737
▁الدجاج	-11.0737
▁المستحيل	-11.0738
▁طاعة	-11.0738
▁منظمة	-11.0739
▁بألف	-11.074
▁بسمة	-11.0741
دات	-11.0742
bal	-11.0742
▁Be	-11.0743
+1	-11.0744
▁sm	-11.0745
▁😂🤣	-11.0745
▁الملح	-11.0746
▁قب	-11.0747
▁كلمت	-11.0747
▁التفاعل	-11.0748
جسد	-11.075
▁نطق	-11.075
تنمر	-11.0751
▁تسمح	-11.0753
▁يبين	-11.0757
▁الرياضي	-11.0758
▁ننسا	-11.0758
▁ذهبت	-11.0759
▁وثاني	-11.076
▁ar	-11.076
ورك	-11.0761
▁اتفق	-11.0761
▁والغ	-11.0761
▁الديني	-11.0763
▁متقدرش	-11.0763
▁عملاق	-11.0764
▁تجيبو	-11.0764
▁النقل	-11.0765
▁Il	-11.0766
اات	-11.0769
ht	-11.0769
▁يتحقق	-11.077
▁يخبر	-11.077
▁فوطو	-11.0772
▁اربع	-11.0772
▁مخي	-11.0772
▁مصادر	-11.0775
▁رادكس	-11.0777
اام	-11.0777
adore	-11.0778
▁قولك	-11.0778
▁بالصبر	-11.0778
rin	-11.0779
47	-11.0779
▁الأسباب	-11.0779
▁ينج	-11.0779
▁شخصيتك	-11.0779
ونتي	-11.078
▁sahbi	-11.0782
سعد	-11.0784
▁الاحسن	-11.0785
روق	-11.0786
▁معامل	-11.0787
▁الراي	-11.0789
▁شالله	-11.0789
عقوب	-11.0791
▁اخطيك	-11.0792
▁قن	-11.0793
هدي	-11.0793
شاء	-11.0796
▁غنا	-11.0796
▁know	-11.0799
طم	-11.0801
▁نوجد	-11.0801
ye	-11.0802
▁الماتش	-11.0802
▁حيوان	-11.0803
ru	-11.0803
▁dert	-11.0804
زلت	-11.0804
بالتوفيق	-11.0805
▁يذهب	-11.0805
▁تقراو	-11.0806
▁قصتك	-11.0806
▁عبادك	-11.0808
▁وماي	-11.0809
عجبني	-11.0811
▁تغني	-11.0813
▁المرضى	-11.0813
▁الصين	-11.0814
▁ويجازيك	-11.0815
▁وعلي	-11.0816
po	-11.0816
AH	-11.0818
▁سفيان	-11.0822
▁توا	-11.0822
▁يرقي	-11.0822
▁سامط	-11.0824
▁حبب	-11.0824
بنا	-11.0829
يكس	-11.0831
فيس	-11.0831
▁انتا	-11.0831
▁عفايس	-11.0831
اشي	-11.0833
▁بركا	-11.0834
▁نطبق	-11.0836
▁خل	-11.0836
▁taw	-11.0838
▁اخترت	-11.0839
▁مبلغ	-11.0841
راض	-11.0841
▁الحظ	-11.0841
خرا	-11.0842
لس	-11.0843
ارع	-11.0844
olo	-11.0846
الح	-11.0847
▁جرح	-11.0847
eme	-11.0851
▁أسمع	-11.0851
▁المرسل	-11.0855
سد	-11.0855
▁هجر	-11.0856
▁عطيت	-11.0857
▁السوجي	-11.086
▁اختلاف	-11.0861
زور	-11.0864
▁سلطان	-11.0865
▁القمر	-11.0865
▁عشرية	-11.0867
▁تأثير	-11.0867
sse	-11.0868
كتر	-11.0868
▁يلد	-11.087
▁محتاجة	-11.0872
جرام	-11.0872
خطر	-11.0873
▁وجعله	-11.0874
▁ينظر	-11.0874
💛	-11.0875
▁مفصل	-11.0876
▁مالقري	-11.0876
▁طو	-11.0878
▁واياكم	-11.0879
▁بالس	-11.088
▁🌹🌹	-11.088
▁الجلال	-11.0881
طرح	-11.0881
▁صاب	-11.0882
▁وسيلة	-11.0882
▁سفر	-11.0884
ضار	-11.0885
▁ثابت	-11.0887
▁عي	-11.0887
طاي	-11.0888
▁شاد	-11.0889
▁about	-11.089
▁أود	-11.0891
▁luck	-11.0892
▁تحتسب	-11.0894
▁ثالثا	-11.0895
▁اتعلم	-11.0897
كفر	-11.0898
فرغ	-11.0901
▁80	-11.0905
oun	-11.0906
▁طبع	-11.0906
😌	-11.0907
▁الشرطة	-11.0907
▁ردا	-11.0908
▁فئة	-11.091
▁التميز	-11.0912
nou	-11.0913
▁قريتو	-11.0914
بوس	-11.0917
▁حبيتي	-11.0917
سكت	-11.0917
▁الاجر	-11.0917
▁وسمو	-11.0921
▁red	-11.0923
▁نعقب	-11.0924
ستغفر	-11.0926
▁شامل	-11.0926
ترا	-11.0926
▁ديرونا	-11.0927
▁العقد	-11.0927
▁frère	-11.0927
▁بلغنا	-11.0927
▁تقلق	-11.0927
▁Cha	-11.093
rak	-11.093
ائف	-11.0932
▁نموذج	-11.0933
▁جوزت	-11.0934
▁شلف	-11.0934
▁حمدلله	-11.0935
▁دوزيام	-11.0936
▁تقليد	-11.0937
▁البركة	-11.0938
▁التصحيح	-11.094
▁trop	-11.0941
▁اق	-11.0942
▁انصحك	-11.0943
ect	-11.0944
▁اشكر	-11.0944
▁يمدو	-11.0944
▁داخلة	-11.0945
▁normal	-11.0946
زينة	-11.095
▁00	-11.0951
▁منتدانا	-11.0951
ريق	-11.0951
▁سوريا	-11.0955
▁النجمة	-11.0956
▁بنور	-11.0957
▁لهجة	-11.0957
▁رحمته	-11.0957
▁وخا	-11.0958
▁وبالتالي	-11.0959
▁chwiya	-11.0959
▁الرمز	-11.0962
جاهل	-11.0962
▁ثقيل	-11.0963
you	-11.0964
▁الأحاديث	-11.0966
▁أليس	-11.0966
٤	-11.0967
▁يتعلق	-11.0968
act	-11.0969
▁سند	-11.0969
تأكد	-11.097
▁طعام	-11.097
▁الفيد	-11.0971
▁قرينة	-11.0973
▁tah	-11.0975
▁ماضي	-11.0976
▁يشهد	-11.0978
▁راائع	-11.0979
▁باري	-11.098
ناء	-11.0983
▁الرئيس	-11.0984
▁الهند	-11.0985
▁تمت	-11.0985
▁يالله	-11.0986
▁يرحموا	-11.0986
▁خليك	-11.0988
▁متأخرة	-11.0988
هبط	-11.0988
▁مغربية	-11.0988
▁نسخ	-11.0989
شير	-11.0989
▁سد	-11.0992
▁ديار	-11.0992
▁كوب	-11.0993
▁بغا	-11.0995
▁للس	-11.0996
▁أمري	-11.0996
▁تنتظر	-11.0996
▁سلاام	-11.0997
▁ممثل	-11.0999
▁أخوات	-11.1001
▁yhfdk	-11.1001
▁سئل	-11.1003
▁تحطلنا	-11.1003
▁محمود	-11.1004
▁نشوفهم	-11.1004
لحصول	-11.1005
تحر	-11.1008
▁وتم	-11.1009
▁الصف	-11.1009
▁متحمس	-11.1009
▁متخافش	-11.1009
▁الاصل	-11.101
عذب	-11.1011
▁tf	-11.1013
توحش	-11.1015
tr	-11.1017
▁إستمر	-11.1018
▁اقراو	-11.1018
عاب	-11.1019
▁تعطينا	-11.1019
▁تعرب	-11.1022
تكون	-11.1023
▁الغنية	-11.1024
يدو	-11.1027
▁مفيهاش	-11.1028
▁شهور	-11.1031
سحب	-11.1032
▁اقوى	-11.1034
▁عميق	-11.1035
المهم	-11.1036
▁الشيعة	-11.1036
😻	-11.1037
▁زم	-11.104
ربا	-11.1041
طون	-11.1041
ائح	-11.1043
▁مغرب	-11.1044
▁شاك	-11.1045
▁منهج	-11.1045
▁الغرفة	-11.1046
▁الجسد	-11.1049
▁بزوج	-11.1051
▁وعافية	-11.1051
RE	-11.1053
ارق	-11.1056
▁45	-11.1058
▁اختاه	-11.1059
▁الابيض	-11.1063
ill	-11.1063
×	-11.1064
رفق	-11.1064
▁اليمن	-11.1066
▁متع	-11.1067
فاك	-11.1068
▁تصنع	-11.107
▁مديت	-11.1072
▁youtube	-11.1073
▁عونك	-11.1074
▁يحق	-11.1076
فنا	-11.1078
▁قريبة	-11.1079
▁اتجاه	-11.108
kch	-11.108
▁وصلى	-11.1084
histoire	-11.1084
▁الجهاد	-11.1085
▁🤩	-11.1085
اخي	-11.1085
▁نخرجو	-11.1087
احي	-11.1089
▁يام	-11.109
▁الاخرين	-11.1093
▁الدينية	-11.1093
▁ووفق	-11.1093
▁سهر	-11.1095
حلي	-11.1096
▁راوي	-11.1096
▁سجن	-11.1098
▁🤣😂	-11.1098
▁متحمسة	-11.1101
▁الربا	-11.1101
▁film	-11.1102
▁صارت	-11.1104
▁الميمز	-11.1106
ازي	-11.1108
▁سابقة	-11.1108
زه	-11.1109
رسال	-11.1111
▁تعييش	-11.1112
▁اتصل	-11.1112
▁اخبر	-11.1112
▁يحضر	-11.1112
▁درو	-11.1112
▁أغ	-11.1113
▁وياك	-11.1114
▁♡	-11.1115
ort	-11.1116
2021	-11.1117
قادر	-11.1117
▁عادت	-11.1119
فرض	-11.1119
رتب	-11.112
🤢	-11.1121
أصل	-11.1122
aba	-11.1123
▁الوفاء	-11.1124
ملك	-11.1125
29	-11.1126
عف	-11.1128
رعاية	-11.1129
▁ضربت	-11.113
▁قراية	-11.1131
▁لتم	-11.1133
▁نكت	-11.1133
▁مشكلتي	-11.1136
▁المه	-11.1137
▁وشكون	-11.1137
▁شعار	-11.114
▁الراب	-11.1141
ضن	-11.1142
▁غاب	-11.1143
):	-11.1145
▁ترفع	-11.1146
▁5.	-11.1151
باه	-11.1154
▁اتباع	-11.1154
▁سامح	-11.1159
▁بنتك	-11.1159
▁يدعم	-11.116
▁قوقل	-11.1161
▁الضر	-11.1163
▁المدية	-11.1163
▁وجبت	-11.1164
افق	-11.1164
▁بحب	-11.1165
RA	-11.1166
▁نتلاقا	-11.1166
▁جدل	-11.1169
▁غائب	-11.117
اكت	-11.1171
قترح	-11.1174
رياضيات	-11.1174
نين	-11.1177
▁ويبعد	-11.1179
▁باللي	-11.1179
▁العار	-11.1179
▁المفيد	-11.118
طه	-11.1181
▁القي	-11.1187
لله	-11.119
▁رخصة	-11.1192
ادر	-11.1192
▁pub	-11.1193
▁زميل	-11.1195
▁وغيره	-11.1196
▁جاري	-11.1196
▁فهمتي	-11.1196
▁الدراسية	-11.1197
▁بطن	-11.1198
▁غاضني	-11.1198
سوء	-11.12
▁نرحب	-11.12
▁نحكيهالك	-11.12
oi	-11.1204
▁الخر	-11.1204
▁ونشاله	-11.1204
▁رامي	-11.1207
▁امرا	-11.1209
▁خم	-11.1211
▁نعطي	-11.1211
▁المشرفين	-11.1211
▁النشر	-11.1214
‍♂️	-11.1215
▁الحرف	-11.1215
بقية	-11.1216
▁بكلمة	-11.1216
▁اللايف	-11.1217
▁يجعلك	-11.1218
▁العلاقات	-11.122
▁بصمت	-11.1222
▁تجوز	-11.1222
▁فايسبوك	-11.1222
▁إمام	-11.1223
▁فراغ	-11.1225
▁جسم	-11.1225
▁عقب	-11.1226
ظا	-11.1226
▁وقفت	-11.123
▁عت	-11.1231
▁رؤوس	-11.1235
لذين	-11.1237
oni	-11.1237
▁النوا	-11.1239
▁فجأة	-11.1239
▁أنفسهم	-11.1239
▁اتبع	-11.1239
▁الامن	-11.1239
▁التا	-11.124
▁خميرة	-11.124
▁nchalah	-11.124
▁كترلنا	-11.1241
بدع	-11.1242
▁وجيت	-11.1244
▁سلف	-11.1249
▁:)	-11.1249
▁خطير	-11.1249
▁وقتو	-11.1249
▁القرأن	-11.1249
نص	-11.1249
▁عرفنا	-11.125
▁ده	-11.125
▁ديسمبر	-11.1251
▁نسي	-11.1252
▁نقراها	-11.1253
▁ينتظر	-11.1254
70	-11.1255
▁لطالما	-11.1255
أل	-11.1257
▁عائلتي	-11.1258
▁تديري	-11.1258
▁قولنا	-11.126
ربط	-11.126
▁سوال	-11.126
▁افعل	-11.1261
▁أضحى	-11.1264
iv	-11.1264
طاح	-11.1265
▁ميم	-11.1265
▁العدل	-11.1266
▁وأكثر	-11.1267
▁قروب	-11.1268
▁التوضيح	-11.1271
▁امس	-11.1273
▁ضوء	-11.1273
حاد	-11.1275
▁faut	-11.1276
▁تعجب	-11.1276
▁وهذي	-11.1277
▁تجاوب	-11.1277
لايك	-11.1278
▁احشم	-11.1279
▁عمها	-11.1279
▁التشبيه	-11.1279
▁دري	-11.1279
طان	-11.128
عوام	-11.1281
▁الاحد	-11.1282
ذنب	-11.1282
▁قولت	-11.1283
▁🥺❤️	-11.1283
هتم	-11.1283
💔💔	-11.1285
▁تحرق	-11.1286
▁dr	-11.1287
▁قااع	-11.1289
▁يسب	-11.1289
▁وكالة	-11.129
رغم	-11.129
▁03	-11.1292
▁نلقاك	-11.1292
▁ميمحو	-11.1292
▁الشام	-11.1296
٩	-11.1297
36	-11.1298
جاد	-11.1299
▁70	-11.13
ist	-11.1303
عصر	-11.1304
▁غرفة	-11.1304
تخلص	-11.1305
مواد	-11.1307
▁سيئة	-11.1307
▁جيران	-11.1307
انك	-11.1308
▁مغرف	-11.1308
▁تقرب	-11.1308
▁فايت	-11.1309
▁الورق	-11.131
▁ge	-11.1312
▁فهذ	-11.1312
▁الخلعة	-11.1312
▁اوك	-11.1313
▁يغني	-11.1313
▁ڤ	-11.1315
▁المسيلة	-11.1316
▁والناس	-11.1317
▁جعلت	-11.1317
▁الفيسبوك	-11.1318
▁والجغرافيا	-11.1318
▁نتابعك	-11.132
ڨر	-11.1321
▁ران	-11.1323
▁القصاص	-11.1323
جري	-11.1323
▁بواش	-11.1324
▁مصطلح	-11.1324
▁رواحهم	-11.1327
▁بمجرد	-11.1328
بلع	-11.1328
غمض	-11.1328
▁وحي	-11.1329
برنامج	-11.1331
شتاق	-11.1331
▁ts	-11.1332
▁نديو	-11.1334
▁عاكف	-11.1334
▁مارانيش	-11.1335
▁والادراك	-11.1335
▁مذكور	-11.1337
▁ميز	-11.1338
wd	-11.1338
▁فكرتني	-11.134
▁دينية	-11.1341
▁للمسلمين	-11.1341
▁حية	-11.1343
▁lma	-11.1344
راكي	-11.1345
▁جابلي	-11.1345
▁نتخيل	-11.1346
▁اصعب	-11.1348
زت	-11.1349
▁قالنا	-11.1349
قريب	-11.135
مز	-11.1352
حى	-11.1352
▁توجه	-11.1355
▁نحبها	-11.1355
▁إبن	-11.1356
عاف	-11.1357
▁ثوب	-11.1358
يء	-11.1359
▁ياشيخ	-11.1359
دمت	-11.1361
▁صدمة	-11.1361
▁كانش	-11.1362
▁يضحكو	-11.1363
▁الوثائق	-11.1363
ريب	-11.1364
الذين	-11.1364
▁احتمال	-11.1364
▁فالله	-11.1365
▁تتمسخر	-11.1365
توقع	-11.1368
▁الخامس	-11.1368
ue	-11.1372
سود	-11.1372
▁متعة	-11.1375
عبر	-11.1379
طيل	-11.138
يمان	-11.1382
فوز	-11.1382
▁بيتك	-11.1387
▁ونحو	-11.1387
عتق	-11.139
▁❣️	-11.1392
▁وراهم	-11.1393
▁غلق	-11.1393
▁المهجري	-11.1394
tel	-11.1396
رتي	-11.1397
▁ممل	-11.1398
▁tra	-11.1398
سيو	-11.1399
▁02	-11.14
▁ونجح	-11.1401
▁story	-11.1406
شحال	-11.1406
▁فندق	-11.1407
▁ارت	-11.1407
▁ورح	-11.1408
سنا	-11.1411
تح	-11.1412
▁ti	-11.1412
▁تجريبي	-11.1413
▁وأحسن	-11.1413
▁Tu	-11.1414
▁العبارة	-11.1414
▁ينورك	-11.1415
عالج	-11.1417
▁مسمى	-11.1417
▁تبعو	-11.1417
▁يختلف	-11.1417
قناة	-11.1417
▁الاساسية	-11.1418
🤭	-11.1419
متابعة	-11.1419
يعطيك	-11.1422
خب	-11.1429
▁قبيل	-11.143
▁لقاو	-11.143
▁اشخاص	-11.143
▁روابط	-11.143
▁Good	-11.143
▁nchouf	-11.1431
ضيق	-11.1432
▁نستعمل	-11.1435
55	-11.1438
▁تزيدي	-11.1439
كريم	-11.1439
▁عيون	-11.144
▁يكبر	-11.144
▁7-	-11.1442
▁nchof	-11.1444
▁داي	-11.1445
جلس	-11.1445
رسم	-11.1446
قبال	-11.1446
وكي	-11.1446
▁حمر	-11.1447
▁05	-11.1448
ملأ	-11.1449
▁رأى	-11.1452
▁🎀	-11.1453
▁français	-11.1454
▁خلل	-11.1457
▁علمنا	-11.1458
▁hiya	-11.1458
ستفيد	-11.1458
▁مرحب	-11.146
▁بنينة	-11.146
▁محاولة	-11.1461
▁أه	-11.1462
؟!!	-11.1462
▁🥹🥹	-11.1466
jo	-11.1467
▁يخلو	-11.1467
▁الحبس	-11.1469
😘😘	-11.1469
سوف	-11.147
▁يسلم	-11.147
▁تصوير	-11.147
جان	-11.1471
▁نحكم	-11.1472
▁كرو	-11.1474
▁الحالي	-11.1474
2020	-11.1475
تمكن	-11.1476
▁تحرمني	-11.1477
▁ومازال	-11.1477
▁رغيس	-11.1478
▁دعيولي	-11.148
▁ms	-11.1481
▁أحلى	-11.1485
▁ريت	-11.1488
▁بالجزائر	-11.1489
▁تختلف	-11.149
▁محتوا	-11.1491
😀	-11.1492
01	-11.1492
▁المطبخ	-11.1492
▁الجسم	-11.1493
▁الاكل	-11.1494
كري	-11.1495
▁اضافة	-11.1496
66	-11.1496
▁يعطيه	-11.1497
ire	-11.1498
ختي	-11.1499
▁تدو	-11.1501
▁والمسلمين	-11.1503
▁جني	-11.1503
▁texte	-11.1507
▁بيدي	-11.1508
▁مدريد	-11.1509
▁متوسطة	-11.151
▁وعم	-11.1512
تغير	-11.1514
▁مادا	-11.1514
▁يوتوبر	-11.1516
🤝	-11.1517
▁فشل	-11.1518
يتنا	-11.1519
بداية	-11.152
▁لقيتك	-11.1521
▁آلله	-11.1521
▁التاريخي	-11.1522
▁تري	-11.1522
ls	-11.1523
▁لهما	-11.1523
▁زهرية	-11.1525
▁الزين	-11.1525
شتري	-11.1527
▁الزهريين	-11.1528
ms	-11.1529
▁اكرم	-11.1529
قون	-11.1529
▁تقييم	-11.1529
▁need	-11.1534
▁بسباب	-11.1536
▁القوانين	-11.1537
▁Fi	-11.1538
▁يقلي	-11.154
▁اجتماعية	-11.154
😏	-11.1541
▁31	-11.1541
▁تطبع	-11.1541
كانت	-11.1542
🤔🤔	-11.1542
▁ومد	-11.1542
AD	-11.1542
▁اللولة	-11.1542
▁يبدل	-11.1543
▁معيا	-11.1543
▁متميز	-11.1544
▁زح	-11.1544
ورو	-11.1546
▁رج	-11.1546
▁ani	-11.1547
▁nn	-11.1547
لغات	-11.1547
▁04	-11.1547
ari	-11.1547
ous	-11.1547
▁الحميد	-11.1547
▁الخلل	-11.1548
▁35	-11.1549
▁✌	-11.155
▁بالدفع	-11.1551
▁عزوجل	-11.1551
▁مزيدا	-11.1553
▁احتراماتي	-11.1553
▁ستة	-11.1554
▁القرار	-11.1554
99	-11.1555
▁امراة	-11.1556
▁كنز	-11.1557
▁مثقف	-11.1557
▁مسي	-11.1558
▁حوا	-11.1558
▁👑	-11.1559
▁OK	-11.156
تمنى	-11.1564
عجز	-11.1565
▁بق	-11.1566
آر	-11.1568
▁صباحا	-11.1568
▁حققت	-11.1568
▁ذكريات	-11.157
lb	-11.1572
▁حابس	-11.1572
▁الموتى	-11.1573
▁!؟	-11.1573
▁قضيت	-11.1574
▁وجهو	-11.1574
تساب	-11.1574
▁🤨	-11.1575
▁بعمل	-11.1576
▁First	-11.1576
▁بعودتك	-11.1576
▁نبات	-11.1577
▁القاضي	-11.1577
▁إنها	-11.1577
آب	-11.1578
جوب	-11.1578
فقه	-11.1582
ثلاث	-11.1586
▁😀	-11.1586
▁المحقق	-11.1586
▁اود	-11.1588
▁جمعية	-11.1588
▁يصراو	-11.1589
▁تنظيم	-11.1592
▁أكن	-11.1592
معدل	-11.1594
▁جينا	-11.1595
▁2018	-11.1596
▁تيزي	-11.1597
ربة	-11.1597
▁✨️	-11.1598
▁خطي	-11.1598
▁الضحكة	-11.1599
▁واين	-11.16
▁jamais	-11.16
▁يشرب	-11.1601
88	-11.1601
fo	-11.1604
▁سوي	-11.1604
▁خيرك	-11.1604
▁😞	-11.1605
▁الاقتصاد	-11.1614
▁❤️🩹	-11.1617
▁مضى	-11.162
▁للن	-11.162
▁خلط	-11.1621
▁أحببت	-11.1622
▁الجار	-11.1622
▁تقع	-11.1623
فطر	-11.1623
حلقة	-11.1627
dh	-11.1629
▁علبالي	-11.163
▁ابيض	-11.1631
كسب	-11.1631
▁أطفال	-11.1632
طابق	-11.1632
▁هند	-11.1634
▁الاقامة	-11.1636
▁المشاهدات	-11.1637
وطن	-11.1638
▁هبل	-11.1639
خمس	-11.164
▁pla	-11.164
قراش	-11.1642
▁سنا	-11.1642
بكي	-11.1645
dz	-11.1645
▁النبوية	-11.1645
▁Zid	-11.1646
🔪	-11.165
▁الميسوم	-11.165
▁باختصار	-11.1651
▁الاختيار	-11.1651
▁غفور	-11.1651
rd	-11.1652
▁مكر	-11.1653
art	-11.1653
▁الادبية	-11.1653
▁برب	-11.1654
▁حفضك	-11.1654
▁ykh	-11.1654
ثور	-11.1657
▁tr	-11.1659
▁جازاك	-11.1663
bda	-11.1665
▁تشكل	-11.1666
بغي	-11.1668
▁كومنت	-11.1669
▁وقتنا	-11.1669
0)	-11.167
▁للحبس	-11.1671
تقول	-11.1675
▁وسا	-11.1675
▁So	-11.1675
▁وطلب	-11.1676
▁الاحمر	-11.1683
▁مليكانا	-11.1684
▁قيس	-11.1685
▁المقام	-11.1686
▁بانتلي	-11.1686
▁الحبيبة	-11.1686
ااع	-11.1686
▁مصيبة	-11.1687
▁الذ	-11.1688
مى	-11.1689
▁العز	-11.169
▁عمران	-11.169
▁الصادق	-11.169
ختار	-11.1691
ظيف	-11.1691
▁الحاكم	-11.1692
علامة	-11.1693
▁دعيلي	-11.1695
▁مساعد	-11.1696
▁مشاهد	-11.1696
🎓	-11.1699
▁🤦	-11.1699
▁النشاط	-11.1699
▁والديها	-11.1699
▁البشير	-11.17
▁فاتو	-11.17
عطيك	-11.1701
tu	-11.1701
▁لمرورك	-11.1702
▁تحمست	-11.1703
حيط	-11.1704
▁by	-11.1704
▁عيباد	-11.1706
▁رأسه	-11.1707
▁الوزارة	-11.1708
iw	-11.171
▁مترشح	-11.1712
فعال	-11.1713
🫀	-11.1715
▁لدينا	-11.1716
▁bar	-11.1717
▁الرسم	-11.1717
▁فهاذ	-11.1722
▁Hada	-11.1722
▁الحالات	-11.1725
ens	-11.1727
ولاد	-11.1727
▁ممبعد	-11.1727
▁ملقيت	-11.1728
▁مقول	-11.1728
صم	-11.1731
كسل	-11.1731
▁Saha	-11.1731
▁وارحمها	-11.1731
تري	-11.1733
▁اذهب	-11.1733
▁روعه	-11.1735
▁التل	-11.1737
ثورة	-11.1737
غضب	-11.1738
▁إدا	-11.1739
تخوف	-11.1741
▁تجارب	-11.1742
▁العرس	-11.1742
iste	-11.1743
▁كائن	-11.1744
▁ونقه	-11.1744
▁يديها	-11.1745
▁وكيفاه	-11.1745
رئ	-11.1745
▁وطنية	-11.1746
▁عينيه	-11.1746
▁Ou	-11.1748
▁دواء	-11.1749
▁الانس	-11.1749
▁الدلالي	-11.175
▁يؤمن	-11.1753
▁اكتبي	-11.1754
▁سف	-11.1755
▁زل	-11.1755
▁الموال	-11.1755
▁الول	-11.176
▁ونهار	-11.176
▁مخطط	-11.1761
▁👌👌	-11.1764
حية	-11.1766
▁درينا	-11.1768
▁حص	-11.1768
▁يتعب	-11.1769
▁يطلعو	-11.1769
▁اخدم	-11.177
سقط	-11.177
▁tb	-11.1771
▁دوام	-11.1771
▁يتفق	-11.1776
تحرك	-11.1778
▁عيطت	-11.1781
رواح	-11.1785
-2	-11.1785
▁ونسمع	-11.1786
▁فارغة	-11.1786
▁أمسى	-11.1787
▁وحش	-11.1789
▁واله	-11.179
▁ذوق	-11.179
▁تحكيها	-11.179
باي	-11.1793
تخرج	-11.1795
▁تليفون	-11.1797
▁خطوات	-11.1798
▁المدائح	-11.1799
▁دراستي	-11.1799
بلوك	-11.1801
one	-11.1802
▁الأسرة	-11.1806
▁أحدكم	-11.1806
▁ديتو	-11.1807
▁وصاحب	-11.1808
▁مجاهد	-11.181
06	-11.1812
▁rap	-11.1812
▁😅❤	-11.1813
باح	-11.1815
▁المز	-11.1816
عدد	-11.1818
عوذ	-11.1819
▁ثلث	-11.1821
▁العبرة	-11.1824
▁اللجنة	-11.1824
▁القضاء	-11.1825
▁مستقبلا	-11.1827
▁التلفاز	-11.1827
▁بالمعروف	-11.1829
▁شفتهم	-11.183
▁Fa	-11.1832
▁روي	-11.1832
▁سررت	-11.1832
▁التاريخية	-11.1834
▁حقه	-11.1836
لأن	-11.1837
▁يعجز	-11.1837
▁القرن	-11.1838
▁roh	-11.1838
جاج	-11.1838
▁يسمعو	-11.184
▁الياس	-11.184
👽	-11.1841
▁بري	-11.1841
حتاج	-11.1845
▁ونصف	-11.1845
بزاف	-11.1849
▁ظاهر	-11.1849
▁المنتخب	-11.185
▁لأحد	-11.185
مرأة	-11.1852
صفر	-11.1854
رضى	-11.1855
ڨل	-11.1855
▁صاحبه	-11.1855
▁تركيا	-11.1857
فخر	-11.1858
▁تلميذة	-11.1859
▁وبلا	-11.186
وريا	-11.186
▁تفرحي	-11.1861
▁khe	-11.1863
▁الثلاث	-11.1866
▁وننجحو	-11.1869
▁علب	-11.1874
▁الطيبين	-11.1875
▁يفت	-11.1878
oud	-11.1879
▁تقوليلي	-11.1879
▁مدي	-11.1881
▁اسكت	-11.1882
رث	-11.1884
▁شياطين	-11.1884
▁يصف	-11.1887
رني	-11.1888
▁الجامعية	-11.1889
▁مزالت	-11.1889
▁عرشه	-11.189
▁فيديواتك	-11.1891
▁دعوات	-11.1891
▁الحيط	-11.1891
▁يحاسب	-11.1892
▁قطعت	-11.1892
▁ho	-11.1893
▁الغضب	-11.1894
AT	-11.1895
▁بشوي	-11.1897
by	-11.1899
▁very	-11.19
▁موال	-11.19
ouh	-11.1901
▁التى	-11.1901
▁رداكس	-11.1902
▁فريد	-11.1902
▁الراحة	-11.1902
سيطر	-11.1903
▁واسكنها	-11.1903
▁عساس	-11.1904
▁الحاسوب	-11.1904
▁نرد	-11.1907
▁نهائيا	-11.1907
ترو	-11.1908
▁كام	-11.1909
▁فيزياء	-11.191
▁ابنتي	-11.1912
▁الفرج	-11.1913
وصف	-11.1913
تخيل	-11.1913
▁تطلق	-11.1914
ction	-11.1916
▁نفسهم	-11.1916
▁بلغت	-11.1917
▁تسب	-11.1917
باقي	-11.1918
▁نقولها	-11.1919
طاج	-11.192
مرات	-11.192
▁حار	-11.1922
▁يزال	-11.1923
▁اتحصل	-11.1923
▁محبي	-11.1924
▁منحسش	-11.1925
▁٣	-11.1926
▁زعم	-11.1928
▁ay	-11.1929
▁150	-11.1929
▁المرحوم	-11.193
▁خياتي	-11.1931
▁اجيب	-11.1931
▁فشلت	-11.1934
▁يدر	-11.1934
▁ميتة	-11.1937
▁اامين	-11.1937
▁طفي	-11.1938
▁بشار	-11.1941
▁تض	-11.1944
ارجو	-11.1945
مستقبل	-11.1946
▁شعل	-11.1946
▁كس	-11.1946
▁أقسم	-11.1947
▁حرج	-11.1947
34	-11.1949
▁بعضاهم	-11.1949
och	-11.1949
تطبيق	-11.1949
نجاح	-11.1949
▁ونور	-11.195
بالي	-11.195
▁تشغيل	-11.195
▁bzzf	-11.195
▁تعيي	-11.1951
❤🤲	-11.1954
▁مافتئ	-11.1955
جتاز	-11.1955
▁مواقف	-11.1955
▁نوعها	-11.1957
▁باغيا	-11.1957
▁فالعالم	-11.1958
ati	-11.1959
▁يكونوا	-11.196
▁تحديد	-11.1961
ازل	-11.1963
💋	-11.1963
▁القل	-11.1964
▁العادات	-11.1966
▁العلاج	-11.1966
▁ينشر	-11.1968
🫡	-11.1968
▁نقر	-11.197
▁المنتج	-11.1972
▁وحط	-11.1974
▁برعاية	-11.1976
▁الكيبوب	-11.1976
▁فوبيا	-11.1976
▁العيب	-11.1977
▁عيا	-11.1978
▁تكتبي	-11.198
▁البيع	-11.1981
▁اشترك	-11.1985
▁non	-11.1988
يسي	-11.1988
▁الكبار	-11.1989
▁العالي	-11.199
▁ويهدي	-11.1991
▁آه	-11.1991
▁السريع	-11.1992
افت	-11.1994
راكش	-11.1995
▁فعله	-11.1995
▁عودت	-11.1997
ساعات	-11.1997
سار	-11.1997
▁نشرب	-11.1998
▁ze	-11.1998
▁ؤ	-11.2
▁بحد	-11.2001
▁🥺💔	-11.2002
▁حلمك	-11.2002
▁الوحدات	-11.2003
وكم	-11.2004
بادر	-11.2005
▁ومان	-11.2006
ياربي	-11.2009
▁مادار	-11.201
▁(1/	-11.201
▁فقلت	-11.201
برد	-11.201
عارض	-11.2011
▁واحسن	-11.2012
خطأ	-11.2013
▁الدواء	-11.2013
▁الظهر	-11.2014
▁يومي	-11.2016
▁direct	-11.2016
▁أنو	-11.2016
ira	-11.2016
▁متأكدة	-11.2018
▁يعي	-11.2019
▁حقل	-11.2021
👏👏	-11.2021
ارض	-11.2021
▁أتى	-11.2022
عندك	-11.2023
▁عباده	-11.2023
▁وأنه	-11.2025
شاعر	-11.2026
▁الانحياز	-11.2026
▁يقرب	-11.2027
احلى	-11.2029
عضو	-11.2032
▁ركليط	-11.2033
ata	-11.2036
▁وقالت	-11.2037
عكس	-11.2037
▁فتئ	-11.2037
انس	-11.2038
▁🗿	-11.2039
▁مبديتش	-11.2039
بغيت	-11.2041
▁حسناته	-11.2042
عتذر	-11.2043
▁مث	-11.2044
▁يوقف	-11.2045
▁تلاقيت	-11.2046
رقم	-11.2047
▁حفر	-11.2048
▁اكتشفت	-11.2049
▁im	-11.2049
🏽	-11.205
▁tri	-11.2051
▁ارحل	-11.2052
▁دزايكو	-11.2052
▁عرفتها	-11.2055
▁إجابة	-11.2056
▁بحول	-11.2057
▁كبش	-11.2059
▁القبور	-11.206
sm	-11.2062
▁يغفرلك	-11.2063
صادف	-11.2064
▁الهي	-11.2067
▁الحركة	-11.2068
▁الربيع	-11.2069
يمي	-11.207
بيس	-11.2071
▁لنفسه	-11.2072
رابط	-11.2073
نحن	-11.2074
fd	-11.2074
▁مقبول	-11.2075
▁nh	-11.2077
▁ونروح	-11.2077
▁راكليتا	-11.2078
▁خوكم	-11.2078
▁والسداد	-11.2078
▁الانتظار	-11.2081
▁تبخل	-11.2081
▁ختيتو	-11.2081
▁تشوكيت	-11.2081
▁نتم	-11.2082
▁نيمو	-11.2082
▁سعاد	-11.2082
▁والر	-11.2085
لتزم	-11.2086
▁مصدق	-11.2086
▁تمييز	-11.2087
قيت	-11.2087
▁والتسامح	-11.2088
الشيخ	-11.2088
▁جودة	-11.2088
▁فرعون	-11.2088
▁غرف	-11.2089
▁comp	-11.209
▁نجمة	-11.2091
مدرسة	-11.2092
▁مالي	-11.2093
▁---	-11.2093
▁أخرج	-11.2093
▁دجاج	-11.2094
▁القرين	-11.2095
▁أقوى	-11.2096
حباب	-11.2096
▁جم	-11.2099
شومبر	-11.2099
bb	-11.2101
▁يفهمو	-11.2101
▁tt	-11.2102
ilna	-11.2102
فاضل	-11.2102
lat	-11.2104
▁ton	-11.2106
▁رقا	-11.2108
شعار	-11.2109
▁توري	-11.2109
▁يصدق	-11.2109
▁الجريمة	-11.211
ويا	-11.2111
▁طار	-11.2112
شباب	-11.2113
▁\	-11.2115
▁01	-11.2116
awd	-11.2116
▁الأو	-11.2116
▁نبيع	-11.2118
▁ومرت	-11.2118
▁والباقي	-11.2119
▁المجموع	-11.2124
صوم	-11.2124
▁كوكب	-11.2125
▁انقطاع	-11.2126
▁partie	-11.2127
▁قلوبكم	-11.2127
▁king	-11.2128
▁أحوال	-11.2129
⭐	-11.2129
▁epson	-11.2129
▁للف	-11.2131
▁بسب	-11.2132
▁ادع	-11.2133
▁المستقيم	-11.2134
تردد	-11.2134
▁تأخر	-11.2134
ماء	-11.2135
▁المطلوب	-11.2136
ڨا	-11.2137
▁نورتي	-11.2138
▁تدع	-11.2138
▁تراه	-11.2139
ماط	-11.2139
▁دكتور	-11.2139
▁بالق	-11.214
▁حجم	-11.2142
▁حابا	-11.2144
▁time	-11.2145
▁وكون	-11.2146
مستوى	-11.2146
▁💛	-11.2146
▁نتاعها	-11.2147
▁700	-11.2149
▁نجاوبو	-11.2149
▁Hi	-11.215
▁وصدق	-11.215
rat	-11.2151
صلاح	-11.2152
▁2008	-11.2153
▁شح	-11.2156
كبير	-11.2163
▁Love	-11.2165
▁عينيا	-11.2165
▁نها	-11.2167
فرش	-11.2167
▁والص	-11.2169
▁Di	-11.217
▁سيري	-11.217
▁بالدين	-11.2171
▁ماكنتش	-11.2171
▁(2	-11.2172
27	-11.2173
دان	-11.2175
▁عاشق	-11.2175
😞	-11.2175
▁نجربها	-11.2176
bu	-11.2177
▁بود	-11.2179
صالة	-11.218
▁المرعبة	-11.2181
ردود	-11.2184
سمى	-11.2188
▁الغيبة	-11.219
▁تخمم	-11.2193
▁سيي	-11.2194
زنة	-11.2194
▁Had	-11.2194
▁مسك	-11.2195
▁وكمل	-11.2196
▁يعتمد	-11.2196
▁منطقي	-11.2197
▁خان	-11.22
▁إيه	-11.2201
yo	-11.2201
رائع	-11.2202
▁يقولوا	-11.2205
▁أق	-11.2205
▁ومنها	-11.2206
▁الظل	-11.2207
▁زوهري	-11.2208
far	-11.2214
ure	-11.2216
▁Rana	-11.2217
ااء	-11.2218
▁أحدهم	-11.2218
▁تحسن	-11.2218
▁البرد	-11.2218
▁يعاني	-11.2219
موا	-11.222
▁إحد	-11.222
نقل	-11.222
▁تنس	-11.222
▁الكوم	-11.2221
▁طراب	-11.2221
▁نطيب	-11.2221
غالي	-11.2221
▁صرالها	-11.2223
use	-11.2224
عظ	-11.2225
تحل	-11.2227
▁يسرا	-11.2227
صراحة	-11.2228
▁وختي	-11.2229
▁نحتاجو	-11.2229
▁مشهورة	-11.2232
▁وبما	-11.2232
غز	-11.2233
▁بالمناسبة	-11.2233
▁خنشلة	-11.2233
رخس	-11.2234
▁الشارع	-11.2235
لج	-11.2235
of	-11.2236
▁سأعود	-11.2238
مسح	-11.224
▁الآيات	-11.2241
▁تفرق	-11.2242
▁يسلك	-11.2244
ضغط	-11.2245
▁أقصد	-11.2245
غة	-11.2246
▁العشر	-11.2246
▁الثقافة	-11.2247
▁السير	-11.2249
هآ	-11.225
▁النافع	-11.225
▁يشارك	-11.2251
كيش	-11.2251
▁الجيد	-11.2251
▁نمط	-11.2252
▁حينما	-11.2252
رمضان	-11.2254
▁يفهمني	-11.2256
ؤمن	-11.2257
ama	-11.2257
▁نديرلك	-11.2257
▁الرحم	-11.2258
▁ذك	-11.2259
▁ضحكة	-11.226
▁العضيم	-11.226
▁وآخر	-11.2264
▁صرح	-11.2266
mes	-11.2266
▁متابعك	-11.2268
▁لقدم	-11.2269
▁منطق	-11.2269
▁حادث	-11.2269
▁تخف	-11.2271
▁تصاور	-11.2272
▁إخوان	-11.2272
AM	-11.2273
علام	-11.2274
اخت	-11.2274
▁ولقد	-11.2275
▁ولمن	-11.2275
▁ڨال	-11.2275
▁مجتمعنا	-11.2276
قلبي	-11.2278
had	-11.2278
ائن	-11.2281
▁روى	-11.2281
🌼	-11.2281
▁بيته	-11.2281
▁متتالية	-11.2283
▁وقعت	-11.2284
▁عالمي	-11.2285
▁مشاريع	-11.2286
عق	-11.2286
كرة	-11.2287
▁خد	-11.2289
صمت	-11.23
▁أربع	-11.2303
▁sujet	-11.2303
ثني	-11.2307
▁تغلط	-11.2308
▁نقرو	-11.2309
لخر	-11.231
▁سرعة	-11.2311
خيب	-11.2311
▁com	-11.2313
قلق	-11.2316
▁الشبه	-11.2316
▁نز	-11.2317
▁لأم	-11.2317
▁الاحداث	-11.2317
▁وكيفاش	-11.2318
▁الغيرة	-11.2321
▁نزيدو	-11.2323
▁mli	-11.2323
▁لبنى	-11.2324
▁وطلع	-11.2324
▁جاوبت	-11.2325
▁أساتذة	-11.2326
بالك	-11.2326
▁جواز	-11.2328
▁lb	-11.2329
▁الامتحانات	-11.2333
خافش	-11.2334
▁احي	-11.2337
▁لعباد	-11.2339
▁يحفدك	-11.2339
▁مورا	-11.234
جمد	-11.2341
▁4/	-11.2343
▁خواف	-11.2343
▁الذاكرة	-11.2346
▁🫡	-11.2346
▁صادق	-11.2348
▁تط	-11.2351
▁يعافينا	-11.2352
▁توفيت	-11.2354
▁ويبقى	-11.2355
▁سرق	-11.2358
▁يقرو	-11.2358
ريد	-11.2358
▁عق	-11.236
▁ديالو	-11.236
تواجد	-11.236
▁MA	-11.2361
▁متوقع	-11.2362
▁❤️🤲	-11.2363
▁ملابس	-11.2363
▁first	-11.2365
خخ	-11.2365
▁وشعر	-11.2366
▁يوو	-11.2368
▁وصححه	-11.2369
▁لغوي	-11.2371
▁مرفوع	-11.2375
▁محال	-11.2376
فاه	-11.2379
▁تعبير	-11.2379
قارن	-11.2381
بغض	-11.2382
غط	-11.2382
ضهر	-11.2384
▁ستجد	-11.2386
ثب	-11.2387
سوا	-11.2387
ï	-11.2388
▁bah	-11.2388
▁فالت	-11.2389
تصل	-11.2392
▁بيناتنا	-11.2392
▁واقعية	-11.2393
▁ودا	-11.2394
▁العضوية	-11.2394
دفن	-11.2396
/20	-11.2396
▁التعلم	-11.2397
▁كتل	-11.2397
44	-11.2399
▁الموجودة	-11.2401
▁طه	-11.2402
شرع	-11.2403
فرة	-11.2404
♡	-11.2404
▁لعلم	-11.2405
▁🫶	-11.2405
▁ختها	-11.2407
▁كرهنا	-11.2408
▁سيدتي	-11.2409
▁أك	-11.2411
سطو	-11.2414
ختلف	-11.2415
98	-11.2415
▁زن	-11.2416
▁حطنا	-11.2416
طباع	-11.2417
▁غرداية	-11.2418
▁محذوف	-11.2418
▁غبي	-11.2419
ملاين	-11.242
▁سمحيلي	-11.2421
خارج	-11.2421
▁رديكس	-11.2421
aja	-11.2421
▁الاشتراك	-11.2423
▁نقدم	-11.2426
▁وجع	-11.2426
الأ	-11.2427
▁انصح	-11.2427
▁بلعقل	-11.243
▁tan	-11.243
▁32	-11.2431
▁وصحا	-11.2433
▁الصداقة	-11.2435
▁ريبوندي	-11.2437
▁بيس	-11.2438
▁قتلي	-11.2438
▁حزينة	-11.2439
▁لبن	-11.2439
▁شرعي	-11.2441
▁aw	-11.2441
▁صحابي	-11.2442
أمين	-11.2444
شاهد	-11.2444
▁Keep	-11.2445
▁الصواب	-11.2445
▁الحضارة	-11.2445
▁مجرب	-11.2447
▁وعمر	-11.2449
likom	-11.2449
هضر	-11.2449
تقني	-11.2451
▁إل	-11.2451
▁اولادي	-11.2452
▁العذاب	-11.2453
▁الأسماء	-11.2453
hr	-11.2454
▁نحضر	-11.2457
▁تعتمد	-11.246
▁سلاح	-11.2461
رقص	-11.2461
▁يصور	-11.2462
▁🤲🥺	-11.2462
▁ليهم	-11.2464
▁لباب	-11.2465
:"	-11.2466
▁نجرب	-11.2467
▁العموم	-11.2469
عياد	-11.2469
عار	-11.247
▁ٱل	-11.2471
▁عطر	-11.2471
▁kamel	-11.2472
▁طاهر	-11.2474
💗💗	-11.2475
▁المتتالية	-11.2477
▁نضرب	-11.2478
▁البيضاء	-11.2481
▁الكبش	-11.2482
تحياتي	-11.2482
▁دود	-11.2483
35	-11.2483
▁قلتلنا	-11.2484
انشاء	-11.2485
باع	-11.2485
▁الخالق	-11.2487
▁بغي	-11.2487
▁تخمام	-11.2489
▁يحت	-11.2489
امك	-11.2489
▁ترجم	-11.249
{	-11.2496
بى	-11.2496
▁طبيعية	-11.2497
رڨ	-11.2498
▁ببساطة	-11.2498
▁اوروبا	-11.2499
▁الجيران	-11.2499
▁السموات	-11.2499
▁النووي	-11.25
▁الأحد	-11.25
cr	-11.25
▁أكمل	-11.2502
▁حقها	-11.2502
حكمة	-11.2503
▁ray	-11.2503
▁التحية	-11.2503
▁لبر	-11.2504
▁وراهي	-11.2504
/30	-11.2505
▁المعارف	-11.2505
🥺🤲	-11.2505
▁كذالك	-11.2509
▁اسك	-11.2509
جية	-11.251
ستحق	-11.251
▁insta	-11.251
▁المرحلة	-11.251
ئات	-11.2511
قبر	-11.2512
طرف	-11.2513
▁مسألة	-11.2514
▁ی	-11.2514
▁hkayat	-11.2515
▁كارت	-11.2515
▁بغض	-11.2516
▁يسعى	-11.2517
▁تتوقف	-11.2518
90	-11.252
ترجم	-11.2525
▁الويجا	-11.2525
▁مظلوم	-11.2525
▁المغفرة	-11.2526
▁ينت	-11.2526
▁الحمام	-11.2528
▁حمام	-11.2528
▁😕	-11.2528
▁وجواب	-11.253
▁الرومانسي	-11.2531
▁طولي	-11.2532
▁sp	-11.2532
▁تذهب	-11.2532
ينغ	-11.2534
▁إليهم	-11.2537
▁للمرأة	-11.2538
▁make	-11.2538
مرانيش	-11.2541
▁تديرلنا	-11.2542
▁تيكتوك	-11.2542
ااف	-11.2542
▁التراب	-11.2543
tli	-11.2547
▁وقاع	-11.2548
🤡	-11.255
▁ترتيب	-11.2551
▁يرسل	-11.2551
ard	-11.2552
فرحة	-11.2552
▁يتوب	-11.2554
حقيقة	-11.2556
▁الخرطي	-11.2558
▁كلماته	-11.256
▁yd	-11.256
طيبة	-11.256
▁حكيلنا	-11.2561
أكيد	-11.2561
▁ونحبك	-11.2565
▁مشفت	-11.2567
▁مقريتش	-11.2568
▁يدافع	-11.2568
خفض	-11.2568
خال	-11.2569
▁عظيمة	-11.257
▁الكامل	-11.257
▁التس	-11.2573
أكل	-11.2574
حلال	-11.2574
iss	-11.2575
▁نورمالمون	-11.2576
▁متأكد	-11.2577
▁ur	-11.2579
▁بومدين	-11.2579
▁really	-11.258
▁التفوق	-11.2581
▁شيماء	-11.2582
▁نرجوا	-11.2585
▁اتفرج	-11.2588
حبة	-11.2588
قمة	-11.2588
▁ثا	-11.2589
▁الحقل	-11.2589
▁هدى	-11.259
▁==	-11.259
تعامل	-11.2592
olna	-11.2593
ash	-11.2596
▁Ad	-11.2596
▁جاوب	-11.26
▁؟!!	-11.2602
▁رفيق	-11.2602
ومات	-11.2602
قلوب	-11.2603
▁الثلاثة	-11.2603
▁تجرب	-11.2604
▁بلادكم	-11.2605
▁اللحم	-11.2605
▁اشتقت	-11.2607
▁المبذولة	-11.2608
▁المغاربة	-11.2612
▁الذات	-11.2612
▁ونحقق	-11.2612
تفسير	-11.2615
▁الابالله	-11.2616
٥	-11.2618
▁بالصلاة	-11.2619
▁ولقيت	-11.262
oum	-11.2621
▁قود	-11.2621
ph	-11.2621
▁يشافيه	-11.2621
▁الصغر	-11.2621
😶	-11.2622
▁لاول	-11.2623
ٱ	-11.2623
nch	-11.2625
▁بكلام	-11.2625
▁اسر	-11.2625
▁المحيط	-11.2625
▁ترجمة	-11.2627
غلى	-11.2627
واسع	-11.2628
▁لولاية	-11.2629
rab	-11.263
▁اقت	-11.263
▁المعدلات	-11.2631
▁هال	-11.2632
▁مزالني	-11.2634
▁ماعليش	-11.2634
▁ويلهم	-11.2635
▁تعك	-11.2636
▁رع	-11.2637
▁رتب	-11.2637
▁علبالك	-11.2637
▁ليكون	-11.2638
▁فيفري	-11.2639
▁ردودك	-11.2639
▁بينها	-11.2639
▁التح	-11.264
▁وأتوب	-11.264
قمر	-11.264
▁ويرضى	-11.2642
▁كور	-11.2642
▁تمنيات	-11.2642
ona	-11.2642
▁فضول	-11.2643
▁الاعلام	-11.2643
▁وإلا	-11.2644
▁بليزز	-11.2645
▁علام	-11.2646
▁قادم	-11.2646
تاكد	-11.2647
▁والحمدلله	-11.2647
▁لأول	-11.2648
▁عملي	-11.2648
▁زبدة	-11.2648
▁لعزيزة	-11.2649
طفي	-11.265
▁أعط	-11.265
ماشاء	-11.2656
▁250	-11.2656
▁تلا	-11.2656
▁والمس	-11.2657
▁bts	-11.2665
▁مشوقة	-11.2665
▁تقدمه	-11.2666
▁كري	-11.2667
▁الوكالة	-11.2667
▁كلامه	-11.2668
انات	-11.2668
▁حذر	-11.2669
▁ريحة	-11.2669
▁متنساش	-11.267
****************	-11.267
▁وطن	-11.2671
▁مربع	-11.2672
▁وخرج	-11.2672
▁كفوا	-11.2672
▁اخوك	-11.2674
جزاير	-11.2674
▁الشركة	-11.2674
▁يسموه	-11.2674
▁نعاودو	-11.2675
علاه	-11.2676
▁العبادة	-11.2677
▁المحترم	-11.2678
▁الفئة	-11.2678
▁too	-11.2679
داخل	-11.268
▁وتحيا	-11.2681
▁الكي	-11.2684
▁يصيب	-11.2685
ise	-11.2686
▁وأدخله	-11.2686
▁انزل	-11.2687
بغا	-11.2687
▁الطر	-11.2691
▁لمرة	-11.2691
liya	-11.2691
▁النصوص	-11.2691
▁أشخاص	-11.2692
نن	-11.2693
خاص	-11.2694
▁مانشوف	-11.2697
▁ويح	-11.2697
tak	-11.2698
▁الفرد	-11.2698
▁الجهد	-11.2699
▁وحقق	-11.2702
reb	-11.2711
ميز	-11.2712
▁حما	-11.2713
kayat	-11.2713
▁لقر	-11.2715
▁روايات	-11.2717
▁نظم	-11.2719
▁خوي	-11.272
▁الصا	-11.272
▁مؤكد	-11.2722
▁yh	-11.2722
▁يسكنه	-11.2722
لط	-11.2723
▁😢💔	-11.2723
▁🤍🤲	-11.2723
▁موس	-11.2726
▁cl	-11.2726
▁ركزي	-11.2729
▁وسمها	-11.273
▁يرجعو	-11.273
▁سببا	-11.2732
وطي	-11.2734
▁قسح	-11.2734
تاب	-11.2736
ON	-11.2736
▁غايا	-11.2736
حيا	-11.2737
▁تحرك	-11.2737
ممكن	-11.2738
▁منصة	-11.2739
▁هات	-11.2741
▁قدرتش	-11.2741
^	-11.2742
▁درجات	-11.2743
▁مخل	-11.2744
▁لتحقيق	-11.2744
▁رقي	-11.2744
♥️♥️	-11.2745
▁مأمن	-11.2745
عى	-11.2747
▁يعين	-11.2747
▁فهمني	-11.2747
▁استخدام	-11.2748
فتاح	-11.2748
▁كافية	-11.2749
tah	-11.275
▁الأحداث	-11.2751
▁احسنت	-11.2751
▁التقدم	-11.2752
▁تفت	-11.2753
▁وافضل	-11.2753
▁حطيتي	-11.2753
▁يجاوبني	-11.2754
▁ماعرفتش	-11.2754
▁اعتذر	-11.2756
▁افعال	-11.2758
▁الدائمة	-11.2758
نظام	-11.276
▁اللقب	-11.2761
▁say	-11.2761
▁صحبه	-11.2762
▁خلقت	-11.2763
▁✌️	-11.2766
▁النسا	-11.2767
▁bezaf	-11.2771
▁يتق	-11.2772
▁تبقا	-11.2778
اسية	-11.2779
sp	-11.2781
تشبيه	-11.2782
برو	-11.2785
حفيظ	-11.2785
▁ابعث	-11.2788
▁أنتظر	-11.2788
▁اكتفي	-11.2788
bab	-11.279
قية	-11.2791
ES	-11.2792
▁فعال	-11.2792
▁المراد	-11.2793
▁دال	-11.2793
قليل	-11.2794
▁خواتي	-11.2795
▁😹	-11.2795
▁تشارك	-11.2796
▁البس	-11.2796
▁ولادها	-11.2797
أر	-11.2797
cc	-11.2798
▁رايحا	-11.2799
▁bdit	-11.2801
▁باديس	-11.2801
▁الطبق	-11.2801
▁اليس	-11.2802
▁الفضول	-11.2804
▁الالم	-11.2805
▁أصاب	-11.2807
▁tous	-11.2807
▁نعيم	-11.2807
ليا	-11.2809
▁قادرين	-11.2809
▁يستاهلو	-11.2809
▁الكرم	-11.281
▁يحيى	-11.2811
▁قرن	-11.2811
إنما	-11.2812
▁لبنتي	-11.2812
▁رحاب	-11.2813
▁حرت	-11.2813
▁".	-11.2814
▁مشبه	-11.2814
صط	-11.2815
▁صندوق	-11.2817
تفاعل	-11.2817
▁بعضها	-11.2822
▁افرح	-11.2822
▁تقوية	-11.2822
▁رجعي	-11.2824
san	-11.2824
😨	-11.2825
▁عائلتك	-11.2826
▁ريفكا	-11.2826
▁صواب	-11.2827
▁حجاب	-11.2828
▁خاسر	-11.2829
تصرف	-11.283
▁البرامج	-11.2832
▁الاثنين	-11.2833
▁Rebi	-11.2833
صغر	-11.2835
▁تشا	-11.2836
▁تصريح	-11.2836
صغير	-11.2838
▁توكلت	-11.2838
▁التغيير	-11.2839
🦋	-11.2841
هولنا	-11.2842
▁ربى	-11.2842
▁ويسكنها	-11.2844
ستوعب	-11.2846
▁صريح	-11.2847
سرد	-11.2847
توسع	-11.2848
▁الثانوي	-11.2848
ربو	-11.285
▁اضن	-11.2851
▁ومر	-11.2851
منا	-11.2853
كتسب	-11.2853
§	-11.2854
▁لاكوست	-11.2854
és	-11.2854
☠️	-11.2854
▁تطيح	-11.2855
▁الحمدالله	-11.2857
يكي	-11.2858
io	-11.2859
▁Mi	-11.286
▁وصلو	-11.2861
▁مخلوق	-11.2862
iz	-11.2862
▁فيكون	-11.2863
▁الذهاب	-11.2863
▁ونشر	-11.2864
قران	-11.2864
▁حاجات	-11.2865
▁جايب	-11.2865
▁الكومنتار	-11.2868
▁rou	-11.2869
تيه	-11.2869
▁الطيبات	-11.287
▁البعد	-11.2874
▁شاهدت	-11.2875
غطي	-11.2875
▁احذر	-11.2876
▁عجوز	-11.2877
▁نحلم	-11.2878
حور	-11.2881
▁خلصت	-11.2883
تجنب	-11.2884
ais	-11.2885
▁اهتمام	-11.2886
▁الاشخاص	-11.2888
شن	-11.2891
▁ظهرت	-11.2892
▁الاسباب	-11.2893
▁بالأخت	-11.2894
▁تدري	-11.2895
إيمان	-11.2895
قيل	-11.2896
▁يفقه	-11.2896
▁يطرح	-11.2897
ثة	-11.2899
▁مؤثر	-11.29
▁ضيعت	-11.2901
▁ومنبعد	-11.2903
عمي	-11.2904
▁أرجوك	-11.2904
جوج	-11.2905
▁الاسلامي	-11.2905
▁للعمل	-11.2906
wli	-11.2906
▁نلعبو	-11.2906
رير	-11.2907
▁اصوات	-11.291
نهاية	-11.291
▁bas	-11.2912
▁نتاوعك	-11.2913
▁أرسل	-11.2913
▁علمه	-11.2915
▁التفاهة	-11.2915
mb	-11.2917
▁زب	-11.2918
▁كثريلنا	-11.2918
46	-11.2918
▁دقيق	-11.2919
▁وقوله	-11.2919
ste	-11.2919
▁للبكالوريا	-11.292
▁وصبر	-11.292
▁حان	-11.2921
▁الغالب	-11.2921
▁اخويا	-11.2921
▁أسعدني	-11.2922
▁nhar	-11.2923
▁حسد	-11.2924
''	-11.2927
▁😔😔	-11.2928
▁الروعة	-11.2929
جتهد	-11.2929
▁To	-11.293
▁راكليط	-11.293
llah	-11.2931
أمر	-11.2931
ida	-11.2933
▁تقولنا	-11.2935
حجب	-11.2935
▁lol	-11.2937
▁vedio	-11.2937
▁لحظات	-11.2938
😄	-11.2938
▁نهائية	-11.2939
▁لتعلم	-11.2941
▁يعجبك	-11.2942
▁بالقرآن	-11.2943
▁تصميم	-11.2945
▁حكايه	-11.2945
▁نخلط	-11.2946
▁المفتاح	-11.2946
تعليم	-11.2947
▁mlih	-11.2947
نف	-11.2949
▁منام	-11.2949
▁اقتراح	-11.295
فيض	-11.2951
▁يريدون	-11.2954
سه	-11.2955
▁تتمناي	-11.2957
▁مكروه	-11.2957
▁دائرة	-11.2958
▁يمين	-11.2958
▁البصر	-11.2959
▁رايت	-11.2959
▁تقلي	-11.296
▁نتابع	-11.2961
▁ham	-11.2964
▁فهمتها	-11.2965
ere	-11.2965
▁تسع	-11.2966
▁حبو	-11.2966
▁دراستك	-11.2966
▁mk	-11.2966
▁وتزيد	-11.2967
▁njib	-11.2967
▁sma	-11.2967
▁قراو	-11.2967
▁أمره	-11.2967
▁والغير	-11.2968
قنا	-11.297
▁ومنه	-11.2974
▁شبع	-11.2975
نشر	-11.2975
▁تماك	-11.2976
▁جدول	-11.2976
▁بنفسه	-11.2977
ستفد	-11.2981
▁نحبكم	-11.2983
▁حش	-11.2983
▁مناسب	-11.2984
▁المبلغ	-11.2984
sk	-11.2984
▁Te	-11.2985
▁مناطق	-11.2986
▁عينك	-11.2987
جيبو	-11.2988
مشاكل	-11.2988
▁عبارات	-11.2988
▁سلعة	-11.2989
mis	-11.299
▁وصول	-11.299
▁ملكة	-11.299
زية	-11.2991
راضي	-11.2992
▁تور	-11.2992
فيت	-11.2994
▁ywf	-11.2995
▁أحي	-11.2996
▁نمووت	-11.2997
jou	-11.2998
▁per	-11.2998
▁الزاوج	-11.2999
▁ديركت	-11.3
خدمة	-11.3001
طريقة	-11.3002
▁بااك	-11.3004
‍♀️	-11.3004
▁يتباع	-11.3008
تحدث	-11.301
اخذ	-11.3011
يغ	-11.3012
▁hd	-11.3013
▁الأكل	-11.3013
▁خاطري	-11.3014
▁مروان	-11.3014
▁💕💕	-11.3015
يمو	-11.3017
▁مدرس	-11.3017
▁يقولولي	-11.3019
سيبيا	-11.3019
نقول	-11.3021
▁قبلها	-11.3022
٫	-11.3022
▁والمدلول	-11.3022
▁الاوائل	-11.3022
حاج	-11.3022
▁فطر	-11.3023
جيت	-11.3023
oc	-11.3024
▁خادم	-11.3026
aj	-11.3027
لاق	-11.3028
▁bs	-11.3029
▁يامات	-11.3029
▁نخلص	-11.3029
▁صبرا	-11.303
▁أيتها	-11.3031
حتسب	-11.3031
bghi	-11.3032
ini	-11.3033
▁انشاله	-11.3035
▁هناا	-11.3037
▁الرأس	-11.3037
▁مثله	-11.3037
▁ela	-11.3038
kan	-11.3039
اوة	-11.3039
▁اط	-11.3042
▁ركي	-11.3043
جبر	-11.3043
▁تعالي	-11.3045
▁اترك	-11.3045
رفض	-11.3047
ذيب	-11.3048
🙆	-11.305
▁lyoum	-11.3051
^^	-11.3051
▁رحمهم	-11.3052
▁ربيع	-11.3053
فاهم	-11.3056
▁لاحقا	-11.3057
▁العروض	-11.3057
عرفت	-11.3059
/10	-11.306
▁حكايت	-11.306
▁الكرة	-11.306
▁مجاني	-11.3062
▁حزب	-11.3063
رؤ	-11.3064
▁تحيتي	-11.3064
▁عبدالله	-11.3064
تذكر	-11.3067
▁أقرأ	-11.3067
شيخ	-11.3068
تقي	-11.307
▁رحل	-11.3071
الية	-11.3072
▁يحرق	-11.3072
▁تسأل	-11.3073
▁يصنع	-11.3074
▁محبين	-11.3075
54	-11.3076
▁نضن	-11.3078
▁ماعلاباليش	-11.3079
▁oustad	-11.3079
▁والدعاء	-11.308
▁ضحية	-11.3081
▁تندم	-11.3082
▁مورال	-11.3085
▁المدرسي	-11.3085
▁رسل	-11.3085
سحق	-11.3087
▁متخوفش	-11.3088
مبر	-11.3088
▁باغيين	-11.3088
▁نهدرو	-11.3089
▁لقوله	-11.3089
▁lha	-11.3089
▁kayn	-11.309
▁ربط	-11.309
قمار	-11.309
▁بغ	-11.3091
▁حك	-11.3092
▁طابع	-11.3094
▁لبيت	-11.3094
▁hado	-11.3096
قصر	-11.3096
▁غو	-11.3099
▁ارسل	-11.31
ايف	-11.31
▁والفت	-11.3101
▁ابداي	-11.3102
▁خوا	-11.3103
▁ادعيو	-11.3104
روك	-11.3105
▁''	-11.3105
اجي	-11.3107
▁الغلطة	-11.3107
▁نلحقو	-11.3108
راقب	-11.3109
😃	-11.3109
▁نط	-11.311
▁غض	-11.311
▁نسمة	-11.3112
▁تخلطت	-11.3114
▁المعرفة	-11.3115
دلال	-11.3115
شان	-11.3116
79	-11.3116
دوك	-11.3117
/0	-11.3118
▁الصبح	-11.3119
▁اجزاء	-11.3119
▁بيتي	-11.312
▁أبحث	-11.3122
▁اعز	-11.3123
▁ywaf	-11.3123
▁مجيب	-11.3123
▁نمد	-11.3123
▁تاوع	-11.3124
▁أقدم	-11.3125
▁يقرى	-11.3126
▁وعدت	-11.3127
▁سامي	-11.3128
▁In	-11.3129
بعض	-11.3129
أيام	-11.313
/1	-11.3132
داير	-11.3132
منع	-11.3133
▁طعم	-11.3134
▁قس	-11.3135
▁وسأ	-11.3137
😓	-11.3138
💫	-11.3138
▁Salam	-11.3139
▁البطل	-11.3141
pt	-11.3141
dy	-11.3141
▁دريلنا	-11.3142
▁خوت	-11.3145
ame	-11.3145
▁يستركم	-11.3147
▁هيئة	-11.3147
غان	-11.315
▁وولاد	-11.3152
▁وتوكل	-11.3157
▁نسناو	-11.3158
48	-11.3159
▁روع	-11.3161
شعل	-11.3162
▁عقبال	-11.3162
▁الحقوق	-11.3162
▁الشم	-11.3163
▁wala	-11.3165
▁تعاني	-11.3166
▁تريكو	-11.3168
▁يولو	-11.3169
▁id	-11.317
▁بكالوريات	-11.317
▁محرز	-11.317
▁دبي	-11.3171
وود	-11.3173
▁مدرتش	-11.3173
sion	-11.3175
▁شكو	-11.3175
▁أمريكا	-11.3178
▁صامط	-11.3178
▁هاجر	-11.3179
لصق	-11.3179
▁وقر	-11.3179
▁الدائم	-11.3179
▁تركز	-11.318
▁الجاهلية	-11.318
▁بالأخ	-11.3181
رجاء	-11.3181
وهو	-11.3181
حمر	-11.3182
▁مضمون	-11.3182
▁عقاب	-11.3183
▁حملت	-11.3183
▁بالب	-11.3184
▁وبرك	-11.3185
▁😶	-11.3185
جواب	-11.3186
▁ويفتح	-11.3186
▁فجر	-11.3186
▁متل	-11.3188
تمارين	-11.3188
طئ	-11.319
05	-11.319
▁سحب	-11.319
▁يحميك	-11.3191
▁😓	-11.3191
▁طريقك	-11.3191
ثلج	-11.3191
▁شكرآ	-11.3191
▁نكذب	-11.3192
▁يمس	-11.3193
غرض	-11.3193
▁الغاز	-11.3193
▁بإسم	-11.3193
▁النفسي	-11.3194
ساس	-11.3194
▁معندكش	-11.3194
▁بعثت	-11.3196
▁نبعثلك	-11.3197
بيه	-11.3198
▁سبة	-11.32
ten	-11.32
▁قرين	-11.3201
▁زهد	-11.3201
rib	-11.3201
افات	-11.3204
▁تطبيقات	-11.3204
ديان	-11.3205
جلسة	-11.3205
▁عاجل	-11.3206
▁مرضت	-11.3208
ast	-11.3209
▁خاطئة	-11.3209
تاه	-11.3209
▁الملخصات	-11.321
عربية	-11.321
خلط	-11.3211
▁العجب	-11.3211
...!	-11.3211
▁تالمو	-11.3214
▁مادرت	-11.3214
▁كب	-11.3216
درو	-11.3217
ندو	-11.3218
▁تكوين	-11.3219
▁نض	-11.3219
▁اقدم	-11.3219
▁جبتها	-11.322
▁مذ	-11.322
▁مراجع	-11.3221
▁غليزان	-11.3222
فرنسية	-11.3223
kha	-11.3223
▁ينتهي	-11.3223
قاوم	-11.3224
😹	-11.3225
▁لجاي	-11.3226
ثمان	-11.3226
CH	-11.3227
صول	-11.3227
▁الركلط	-11.3228
▁المغربي	-11.3231
▁حبت	-11.3235
▁تالية	-11.3236
▁المص	-11.3237
▁القدرة	-11.3237
▁يعقوب	-11.3237
رزاق	-11.324
▁الستر	-11.324
أخلاق	-11.324
▁غاي	-11.3241
▁كونان	-11.3241
صحح	-11.3242
▁محبة	-11.3244
▁mm	-11.3245
NE	-11.3247
▁وماشي	-11.3251
▁English	-11.3251
▁ونبينا	-11.3251
▁ضلم	-11.3252
▁للادبيين	-11.3252
▁الوباء	-11.3252
▁صديقة	-11.3254
ny	-11.3255
▁أمك	-11.3255
▁pc	-11.3255
DA	-11.3255
▁وسام	-11.3256
زح	-11.3258
▁لفت	-11.3259
▁عرفتك	-11.326
rek	-11.3261
لسان	-11.3262
▁والحق	-11.3264
▁نج	-11.3265
ثبت	-11.3265
RI	-11.3266
▁دوا	-11.3267
▁بلم	-11.3267
▁التجريبية	-11.3271
خاوتي	-11.3277
جامع	-11.3278
▁😄	-11.3279
▁خديجة	-11.328
▁ترجعي	-11.3283
▁طعن	-11.3283
▁الإعراب	-11.3284
▁dire	-11.3284
▁المواقف	-11.3285
▁اليمين	-11.3285
▁موجه	-11.3285
▁سلا	-11.3285
▁نقاش	-11.3287
▁mak	-11.3288
▁آت	-11.3289
▁Mar	-11.3289
طرد	-11.329
▁المجالات	-11.329
▁أسر	-11.329
ستفاد	-11.3291
▁تلم	-11.3292
▁لخو	-11.3292
▁فلفيديو	-11.3293
جوع	-11.3293
▁الرضا	-11.3296
طريق	-11.3297
والي	-11.3298
▁مصالح	-11.3299
▁ذائق	-11.3299
▁زيدو	-11.3301
▁نقولوا	-11.3301
▁An	-11.3302
▁الإلكترونية	-11.3303
▁هلا	-11.3304
▁والعياذ	-11.3307
▁نسيي	-11.3308
▁ونقرا	-11.3308
▁العجينة	-11.3309
▁Dirlna	-11.331
▁العقوبة	-11.3313
سما	-11.3314
bk	-11.3315
▁لقراية	-11.3316
2022	-11.3316
▁gal	-11.3316
حتفظ	-11.3316
▁الحصص	-11.3317
زف	-11.3317
▁جايين	-11.3319
▁أفعال	-11.3319
▁يطيب	-11.332
▁احداث	-11.3322
▁لعد	-11.3323
▁بابابوي	-11.3323
▁موراه	-11.3324
▁التجريبي	-11.3324
▁سباب	-11.3326
▁نوح	-11.3327
▁لقات	-11.3331
▁تنسو	-11.3331
▁sam	-11.3332
قناع	-11.3333
▁اتصال	-11.3334
▁البل	-11.3336
▁انتبه	-11.3338
▁انتوما	-11.3339
▁جاتك	-11.3339
ختصر	-11.3341
▁الخطوات	-11.3344
▁ساعد	-11.3345
yat	-11.3347
▁استطاع	-11.3347
lam	-11.3347
مبي	-11.3349
▁القاعدة	-11.335
شترك	-11.3352
▁Se	-11.3353
▁personne	-11.3353
ونص	-11.3354
▁العطاء	-11.3356
▁المصاب	-11.3359
▁قابل	-11.3365
▁ويع	-11.3366
▁الشيئ	-11.3366
▁fort	-11.3367
▁محور	-11.3367
▁الكهف	-11.3368
▁الخالصة	-11.3368
▁وضح	-11.3368
▁ليلا	-11.3369
▁بيوم	-11.337
▁nch	-11.3372
▁سائر	-11.3373
▁اجرك	-11.3374
▁الإبداع	-11.3375
خاطب	-11.3376
hak	-11.3376
خروج	-11.3376
▁الاهتمام	-11.3376
▁Ga	-11.3378
رافق	-11.3379
▁للق	-11.3379
بعيد	-11.3381
▁ماقال	-11.3381
▁يأكل	-11.3383
▁السماح	-11.3385
▁الكونت	-11.3385
▁شريف	-11.3386
هتمام	-11.3386
▁بوس	-11.3388
▁وتعلم	-11.339
▁اكي	-11.339
▁طبخ	-11.3392
han	-11.3392
gue	-11.3393
▁المهدي	-11.3393
▁وانما	-11.3393
ووم	-11.3395
▁برامج	-11.3396
▁واحنا	-11.3398
ثقل	-11.3398
▁أقوال	-11.3399
▁لآخر	-11.34
▁الأجوبة	-11.3402
▁الأر	-11.3402
علن	-11.3402
▁يعلمون	-11.3402
▁والي	-11.3403
▁ويجي	-11.3403
▁خرجنا	-11.3404
تاريخ	-11.3404
برز	-11.3405
▁بحبك	-11.3405
▁ومداد	-11.3406
▁ونرجع	-11.3406
▁مرجع	-11.3408
▁بيضة	-11.3409
▁X	-11.341
▁يحفظو	-11.3414
▁وبكل	-11.3414
▁الفخر	-11.3415
فسر	-11.3416
▁ملييح	-11.3416
▁كاره	-11.3419
▁عندوا	-11.3419
▁تمني	-11.342
rabi	-11.3421
▁بقوله	-11.3422
▁وفقط	-11.3424
▁السلمي	-11.3425
▁تحير	-11.3425
منهجية	-11.3425
▁big	-11.3426
▁الفريق	-11.3428
▁لطلب	-11.3429
▁والبن	-11.343
▁ونجيبو	-11.3431
▁تهلا	-11.3432
▁تكسر	-11.3433
▁كيد	-11.3433
▁الاح	-11.3434
أحسن	-11.3434
▁48	-11.3434
أخ	-11.3436
▁بفيديو	-11.3437
▁السل	-11.3437
▁نزع	-11.3437
▁walid	-11.3437
▁الزنا	-11.3438
▁الحتمية	-11.344
طالما	-11.3442
شور	-11.3442
ouna	-11.3446
▁sc	-11.3447
▁حكيم	-11.3448
▁كيش	-11.345
سول	-11.3452
▁موافقين	-11.3452
▁لطرح	-11.3452
▁سطايفية	-11.3454
▁اسعدني	-11.3455
▁والمؤمنات	-11.3456
▁يدفع	-11.3457
are	-11.3458
▁القبول	-11.3458
▁ديرهم	-11.3459
▁حاشا	-11.3463
تفضل	-11.3464
ستطيع	-11.3464
▁الذكاء	-11.3467
▁يؤدي	-11.3468
▁الحلوة	-11.3468
▁الهوا	-11.3469
▁الود	-11.3474
زايد	-11.3474
▁زرع	-11.3475
▁اللفظ	-11.3475
▁بقلب	-11.3476
▁للان	-11.3476
▁بالجنة	-11.3476
hb	-11.3477
▁وتعب	-11.3478
ig	-11.3479
▁يحوسو	-11.3482
▁زعمة	-11.3482
ac	-11.3484
▁احببت	-11.3484
▁القرءان	-11.3485
▁اللقطة	-11.3485
▁تفو	-11.3486
▁تجاري	-11.3486
▁omegle	-11.3486
▁wahed	-11.3486
▁تلحقي	-11.3487
▁﴾	-11.3488
▁ابا	-11.3488
▁يرزقكم	-11.3489
▁net	-11.3491
hch	-11.3491
▁ينتقم	-11.3493
sah	-11.3493
عقب	-11.3494
▁بالفرنسية	-11.3497
▁الاسف	-11.3497
▁وقلب	-11.3498
▁lkh	-11.3498
▁توحش	-11.3499
▁ريد	-11.35
▁البك	-11.35
▁كار	-11.3501
كوبي	-11.3504
▁ريحت	-11.3504
▁الرواية	-11.3504
▁تؤمن	-11.3505
▁ko	-11.3505
bah	-11.3505
▁يماها	-11.3507
▁تخرط	-11.3507
▁لخرا	-11.3509
▁نتعلمو	-11.351
kr	-11.3511
▁2012	-11.3512
▁أحسنت	-11.3512
▁يشد	-11.3512
▁الزينة	-11.3513
▁want	-11.3514
▁ونكون	-11.3515
حه	-11.3516
▁here	-11.3517
▁الداخل	-11.3517
▁الزهري	-11.3519
▁يحيا	-11.3519
😆	-11.352
ip	-11.3523
💪💪	-11.3523
tin	-11.3524
▁بنتو	-11.3525
▁مذا	-11.3525
▁تأمن	-11.3525
▁وقدر	-11.3525
▁تفقد	-11.3526
▁أصعب	-11.3526
▁الليسي	-11.3526
وعد	-11.3527
▁ونتفرج	-11.3527
bon	-11.3528
▁حبييت	-11.3528
mal	-11.3532
▁تمنع	-11.3532
جيد	-11.3533
▁خلقك	-11.3535
▁المسؤول	-11.3539
▁مقبولة	-11.3539
▁المجاهدين	-11.354
رخص	-11.3541
تز	-11.3542
▁وبا	-11.3543
غد	-11.3544
يوتيوب	-11.3545
▁nti	-11.3546
▁اشهار	-11.3546
▁ندوه	-11.3546
▁قدرة	-11.3547
حوش	-11.355
عيب	-11.3551
▁تشرب	-11.3552
▁الفضاء	-11.3552
▁نعت	-11.3553
pos	-11.3553
▁الجاهل	-11.3553
▁الابيات	-11.3553
▁بالجن	-11.3554
▁نرمال	-11.3554
▁الإقامة	-11.3556
إنا	-11.3557
▁مقلق	-11.3558
▁للنجاح	-11.3558
رور	-11.3558
▁وخويا	-11.3559
▁تدور	-11.3564
سبو	-11.3566
ءة	-11.3567
▁وقول	-11.3568
▁توال	-11.3568
▁ala	-11.3568
▁الحسنة	-11.3572
▁صلة	-11.3573
▁الارمي	-11.3574
زمن	-11.3574
▁الشاشة	-11.3575
▁بلاي	-11.3576
بصر	-11.3576
طبيعة	-11.3578
▁بعضنا	-11.3578
▁فزد	-11.3578
سلف	-11.3579
▁قلو	-11.358
▁الخليج	-11.358
▁داركم	-11.3581
▁مثلي	-11.3582
▁مرسل	-11.3583
ix	-11.3584
نظم	-11.3586
زوز	-11.3586
lit	-11.3586
▁اضرب	-11.3589
▁app	-11.359
▁لر	-11.3592
▁للاخ	-11.3593
▁حصر	-11.3593
res	-11.3594
▁lik	-11.3594
▁الحيوانات	-11.3594
حرب	-11.3595
▁how	-11.3598
داوم	-11.3599
▁يعت	-11.36
▁الإنسانية	-11.3602
▁يتابع	-11.3602
أنت	-11.3602
وندي	-11.3603
▁الكمبيوتر	-11.3604
ادم	-11.3606
▁مساحة	-11.3608
▁Da	-11.3609
▁وحبيت	-11.361
▁الارهاب	-11.3611
▁بشرى	-11.3612
▁يربي	-11.3614
تطور	-11.3614
▁الكاس	-11.3615
▁ردو	-11.3615
▁Moi	-11.3615
▁يمن	-11.3618
▁نذكر	-11.3619
ذور	-11.362
▁ولعل	-11.362
▁الدو	-11.3622
تدبر	-11.3623
▁ces	-11.3623
▁واخر	-11.3624
▁تجاوبني	-11.3626
وقع	-11.3626
تبه	-11.363
▁الإنس	-11.363
خش	-11.3632
▁الفاتحة	-11.3633
▁التصوير	-11.3633
▁ينوض	-11.3634
▁تجبد	-11.3636
▁مواليد	-11.3637
▁سرور	-11.3638
▁الشهرة	-11.3638
سيا	-11.3639
▁متس	-11.3639
▁ثقيلة	-11.364
▁الغاشي	-11.3641
شفاء	-11.3642
▁خطيرة	-11.3642
43	-11.3642
▁😳	-11.3643
▁الأدبية	-11.3644
ريض	-11.3645
▁&	-11.3645
▁ومس	-11.3646
▁السحور	-11.3646
▁مانع	-11.3647
▁dja	-11.3648
▁وليتي	-11.3651
appel	-11.3651
rj	-11.3654
أثر	-11.3654
▁المناسبة	-11.3656
▁بروح	-11.3657
▁وفر	-11.3658
▁وسن	-11.3658
▁...؟	-11.3658
جميلة	-11.3662
▁بشرط	-11.3663
▁YouTube	-11.3663
سلسلة	-11.3663
▁ai	-11.3664
▁لافامي	-11.3665
▁أنفسنا	-11.3665
▁quoi	-11.3665
وكا	-11.3665
▁مراة	-11.3668
▁cv	-11.3668
▁الجبل	-11.3668
▁التبناج	-11.3668
▁كوكو	-11.3669
▁الطبيعية	-11.3671
▁نتمسخر	-11.3671
▁مبرر	-11.3672
▁الحلويات	-11.3673
▁الاساس	-11.3674
▁فرحان	-11.3675
▁الشتاء	-11.3676
▁يعط	-11.3676
▁حبك	-11.3677
▁الحوايج	-11.3677
▁راقدين	-11.3678
▁قت	-11.3678
▁تفر	-11.3678
جلد	-11.368
▁ارسال	-11.3682
▁لمعدل	-11.3682
▁ومنهم	-11.3683
رتفع	-11.3684
▁تشجع	-11.3685
▁وأصبح	-11.3686
▁يدها	-11.3687
جس	-11.3687
خرط	-11.3689
سعى	-11.3689
▁حلق	-11.369
😭💔	-11.369
▁زكريا	-11.3693
▁أربعة	-11.3694
▁والشعر	-11.3694
▁بمناسبة	-11.3695
▁وشبيه	-11.3695
ui	-11.3695
▁فقت	-11.3697
▁قلك	-11.3697
▁الأع	-11.3698
▁زرقاء	-11.3699
▁هابط	-11.37
▁الثلاثاء	-11.3701
🤯	-11.3702
▁حينها	-11.3702
▁جنتك	-11.3703
وحة	-11.3705
▁إسرائيل	-11.3706
49	-11.3706
▁شاكر	-11.3707
▁أشعر	-11.3708
▁قالهم	-11.3708
▁🤲🤍	-11.371
▁ريدا	-11.3711
▁لاحظ	-11.3711
▁كوم	-11.3715
تأثر	-11.3715
▁حفض	-11.3716
مضي	-11.3717
▁سخر	-11.3717
ris	-11.3718
▁مقدر	-11.3719
▁محدد	-11.3721
▁المتعة	-11.3725
▁8-	-11.3725
▁الرجيم	-11.3725
▁والارادة	-11.3725
▁ويرضاه	-11.3725
04	-11.3726
▁nchallah	-11.3726
▁الأقسام	-11.3726
▁الطباعة	-11.3727
▁المساجد	-11.3727
▁اكتوبر	-11.3728
داي	-11.3729
لتقي	-11.3731
سيت	-11.3732
حام	-11.3732
▁كافة	-11.3733
▁صراو	-11.3734
▁لديهم	-11.3734
وذ	-11.3735
دعولي	-11.3736
▁ونسيت	-11.3736
▁ابارك	-11.3738
▁الفشل	-11.3739
▁سار	-11.3741
▁مادي	-11.3743
▁cr	-11.3743
دلك	-11.3744
▁meilleure	-11.3744
روحو	-11.3745
▁قري	-11.3746
▁سدد	-11.3747
▁السبع	-11.3748
▁اكن	-11.3749
▁سطر	-11.375
▁كلاب	-11.375
▁meme	-11.3754
▁الأحيان	-11.3756
دعواتكم	-11.3756
▁بامتياز	-11.3756
▁المقترحة	-11.3756
▁القن	-11.3758
▁يبيعو	-11.3759
راطي	-11.3759
▁دافع	-11.376
TE	-11.376
▁طور	-11.3761
داب	-11.3762
▁أهدر	-11.3763
▁بنتها	-11.3764
عزيز	-11.3765
▁تيوب	-11.3765
▁يشوفها	-11.3766
▁الفن	-11.3766
▁إسلام	-11.3767
قبة	-11.3768
▁مالف	-11.3769
ale	-11.3769
▁مشارك	-11.3769
▁اعادة	-11.3771
▁بواحد	-11.3771
▁تحضر	-11.3771
rm	-11.3772
▁عار	-11.3773
▁مجهودات	-11.3773
▁معدلات	-11.3774
▁تريح	-11.3775
▁راية	-11.378
▁يعرفون	-11.3781
95	-11.3782
يكفي	-11.3784
ct	-11.3785
▁تحلب	-11.3789
▁لخص	-11.3789
▁نظرية	-11.3789
▁حف	-11.3791
▁ساجد	-11.3792
عطاء	-11.3793
▁عبادي	-11.3794
▁ويثبت	-11.3795
▁بوع	-11.3798
▁فطنت	-11.3799
▁بشدة	-11.3799
▁👋	-11.38
▁نديروا	-11.38
▁ولايات	-11.3801
▁يقدرنا	-11.3801
▁أشهد	-11.3803
▁دراسته	-11.3803
▁ناصر	-11.3804
▁شريتو	-11.3804
▁جري	-11.3804
▁يسع	-11.3805
▁تبدلت	-11.3806
▁جبد	-11.3807
▁(2/	-11.3809
▁ياخذ	-11.381
▁لوخرين	-11.381
▁روا	-11.3811
▁نخير	-11.3812
▁مكتوبة	-11.3812
▁الموجود	-11.3812
▁تافهة	-11.3813
▁vd	-11.3814
▁بدينا	-11.3815
حكا	-11.3815
▁ونجاح	-11.3815
▁الاشراف	-11.3817
▁chikor	-11.3817
▁الكافر	-11.3818
▁الصفات	-11.3818
▁وأبدله	-11.3819
▁والثاني	-11.382
نصر	-11.3822
طاف	-11.3823
▁ياكلو	-11.3823
gl	-11.3824
▁أمس	-11.3824
😰	-11.3825
😖	-11.3825
▁نقتل	-11.3825
▁كوبي	-11.3826
نشالله	-11.3827
خمم	-11.3827
▁الذهبي	-11.3829
بكالوريا	-11.383
ight	-11.3832
▁تاتي	-11.3833
عمري	-11.3834
▁عملا	-11.3835
▁الموافقات	-11.3835
▁موضع	-11.3836
96	-11.3836
▁خليها	-11.3836
▁Za	-11.3837
▁👏🏻	-11.3839
سكي	-11.3844
▁êtes	-11.3847
▁المعاصر	-11.3847
▁المحا	-11.3847
▁ذل	-11.3847
▁kayen	-11.3848
▁vidio	-11.3848
▁لبنت	-11.3849
▁معندناش	-11.3849
▁العباسيه	-11.3849
▁بدعة	-11.3849
▁العسكرية	-11.385
▁السنوات	-11.385
▁مسؤولية	-11.3851
▁مهتمة	-11.3853
▁حبسو	-11.3854
▁التوصيل	-11.3854
▁رف	-11.3855
▁دعائكم	-11.3856
né	-11.3857
خشى	-11.3858
▁مخلص	-11.3858
قيمة	-11.3863
▁التسامح	-11.3863
▁وادا	-11.3864
قانون	-11.3865
▁ll	-11.3867
▁ونعرف	-11.3868
نكس	-11.3868
▁بدم	-11.3869
ثن	-11.3869
▁ركزو	-11.387
▁سالي	-11.3871
▁الحسد	-11.3871
روج	-11.3872
▁فاشل	-11.3873
▁الجدد	-11.3874
▁get	-11.3874
▁جمهور	-11.3874
▁راد	-11.3875
بتعد	-11.3875
قرار	-11.3875
▁سبا	-11.3876
▁الممكن	-11.3877
حمي	-11.3878
▁اجتياز	-11.3884
▁تعلمنا	-11.3884
▁وجامي	-11.3885
▁عرق	-11.3886
br	-11.3886
بسيط	-11.3886
▁نيفو	-11.3886
زك	-11.3888
▁تجيني	-11.389
▁للجن	-11.3891
▁monde	-11.3892
issa	-11.3893
▁العسر	-11.3894
jb	-11.3895
▁تتوقع	-11.3895
▁ينور	-11.3895
تمتع	-11.3896
▁😭😂	-11.3897
▁ارحمهم	-11.3902
▁معمرة	-11.3902
▁👇	-11.3902
▁الحجة	-11.3905
▁يقر	-11.3906
07	-11.3906
ice	-11.3906
▁العلمين	-11.3908
صوف	-11.3908
▁بلاغتها	-11.3909
▁أربعين	-11.3912
▁لعم	-11.3914
▁المصحف	-11.3914
▁المنطق	-11.3914
▁عقبة	-11.3914
▁نهبل	-11.3914
تعمق	-11.3915
▁مليئ	-11.3915
▁🙂😂	-11.3916
وص	-11.3916
وقت	-11.3917
▁أشر	-11.3917
0%	-11.3918
▁كومبلي	-11.3919
▁هنالك	-11.3919
▁اعود	-11.392
▁ڨا	-11.3921
▁هبة	-11.3921
مجرد	-11.3923
▁البث	-11.3923
توسل	-11.3923
38	-11.3924
▁Et	-11.3925
▁بدراهم	-11.3926
السلام	-11.3926
رقى	-11.393
تعجب	-11.3932
▁اشت	-11.3935
فكرة	-11.3936
عشر	-11.3936
▁طم	-11.3936
شأ	-11.3937
85	-11.3938
▁تاعه	-11.3938
▁آثار	-11.3939
▁بانت	-11.3941
▁النسخ	-11.3942
500	-11.3943
شحن	-11.3946
▁الذكور	-11.3947
▁hka	-11.3947
▁خيمة	-11.3948
▁تسقسي	-11.395
✔️	-11.395
حترم	-11.3951
▁hk	-11.3953
صنف	-11.3954
لعن	-11.3955
▁بوجود	-11.3956
▁مطولش	-11.3956
▁لسنة	-11.3957
▁فإنها	-11.3958
▁dok	-11.396
▁خطيك	-11.3962
▁تحضير	-11.3964
ér	-11.3965
ديه	-11.3965
▁مؤسس	-11.3966
dam	-11.3967
▁أماني	-11.3969
▁تهدرو	-11.3969
▁رابور	-11.3969
▁تعتقد	-11.3971
▁تستهل	-11.3973
▁الأخر	-11.3975
▁ونفرحوا	-11.3975
▁مذهب	-11.3976
▁ضهر	-11.3977
▁بحل	-11.3978
▁DZ	-11.3979
▁اثناء	-11.3979
▁الفايسبوك	-11.398
▁تجنب	-11.398
▁يض	-11.398
▁2)	-11.3981
طفل	-11.3981
▁عيت	-11.3988
تام	-11.3989
ET	-11.399
▁مسار	-11.3992
فأ	-11.3992
▁حفضت	-11.3993
أخي	-11.3993
nach	-11.3993
نحب	-11.3994
▁خالق	-11.3995
▁مختص	-11.3995
▁الدولي	-11.3996
▁dyal	-11.3997
▁إخ	-11.3998
تحت	-11.3999
بتي	-11.4
▁سعدت	-11.4001
▁مشكيتش	-11.4002
نبغي	-11.4002
▁mazal	-11.4003
▁فضح	-11.4003
▁ينحي	-11.4005
wah	-11.4006
▁بوب	-11.4007
يطا	-11.4007
▁تحرش	-11.4008
▁وفهم	-11.4008
▁ضح	-11.4009
لاه	-11.4012
▁سروال	-11.4014
▁الغربي	-11.4015
▁اعظم	-11.4019
▁رسوله	-11.4019
▁ولادك	-11.4019
مازال	-11.402
دوني	-11.4021
رغ	-11.4022
▁grand	-11.4023
ختم	-11.4023
▁مطالب	-11.4023
▁يجعله	-11.4023
▁وتقدير	-11.4027
▁يعجب	-11.4027
▁تعيد	-11.4028
▁جيهة	-11.403
▁الرك	-11.4031
▁الصفحات	-11.4033
▁عمبالي	-11.4034
▁نيروز	-11.4034
▁حذاري	-11.4034
▁امنيتي	-11.4035
▁تتحصل	-11.4036
▁لايوجد	-11.4036
▁مستعد	-11.4036
▁جنب	-11.4038
▁نام	-11.4038
ملائك	-11.4039
سبت	-11.404
▁وأبو	-11.4041
ster	-11.4045
تخلط	-11.4045
hl	-11.4045
▁فالادب	-11.4046
▁خوه	-11.4046
▁راا	-11.4047
Allah	-11.4048
ضبط	-11.4049
نضم	-11.405
▁بالطبع	-11.405
▁هموم	-11.4051
▁الحص	-11.4051
▁يجبر	-11.4054
خن	-11.4056
▁ايلا	-11.4056
بابا	-11.4057
▁يهبط	-11.4059
▁سبعة	-11.406
jour	-11.4061
صرخ	-11.4062
▁قصت	-11.4063
▁فخ	-11.4063
ille	-11.4066
▁المسألة	-11.4069
▁يقراوه	-11.4069
خدمت	-11.4069
▁منتج	-11.4069
ID	-11.4071
ماشي	-11.4072
▁السلبية	-11.4072
عظيم	-11.4073
▁غالطين	-11.4073
▁ونعاود	-11.4073
▁المعني	-11.4074
يص	-11.4075
mer	-11.4075
مرحبا	-11.4075
▁السائل	-11.4075
▁خدمات	-11.4075
تربح	-11.4076
اخلاق	-11.4078
▁العدالة	-11.408
نصائح	-11.408
▁شافي	-11.4081
▁مطلق	-11.4081
▁ذاته	-11.4082
▁كع	-11.4082
▁حماس	-11.4082
سيون	-11.4082
▁مابقاش	-11.4084
▁متخلف	-11.4084
▁ندم	-11.4085
ack	-11.4086
ouha	-11.4086
▁المشاركات	-11.4087
صت	-11.4087
▁بلخف	-11.4087
😂😅	-11.4087
▁يتيم	-11.409
ديت	-11.409
▁اقعد	-11.4093
▁يتغير	-11.4097
▁يحققلك	-11.4097
▁ياخاوتي	-11.4097
▁🥲💔	-11.4097
▁نم	-11.4098
▁بالذات	-11.4098
▁اعطوني	-11.4101
▁قاس	-11.4103
▁سع	-11.4103
▁الور	-11.4105
▁بينك	-11.4106
▁خطرش	-11.4107
LI	-11.4108
▁Best	-11.4108
▁رابي	-11.4111
▁المعسكر	-11.4112
▁للاستاذ	-11.4112
bit	-11.4112
▁زرت	-11.4114
نشاله	-11.4114
▁تحفظي	-11.4117
▁وينجحكم	-11.412
▁صادقة	-11.412
▁النعم	-11.412
ابه	-11.4122
▁مولود	-11.4124
نجم	-11.4124
▁منشوف	-11.4125
طاب	-11.4126
▁بأنك	-11.4126
▁الاستفادة	-11.4128
▁الهداية	-11.4128
▁الفيديوا	-11.413
▁كتبه	-11.4131
عالي	-11.4131
قراء	-11.4133
▁يصير	-11.4134
متعة	-11.4134
▁خرب	-11.4136
تحف	-11.4136
▁إخواننا	-11.4138
▁مطلع	-11.414
▁التحرش	-11.4143
▁Ka	-11.4144
لقي	-11.4145
▁مؤثرة	-11.4146
▁لرب	-11.4149
▁لوالد	-11.415
صات	-11.4151
▁وجمع	-11.4151
▁قاوي	-11.4152
▁طريقه	-11.4154
▁تجربتك	-11.4154
▁العد	-11.4154
خاصة	-11.4157
▁yah	-11.4159
غري	-11.4159
▁الممتاز	-11.4159
▁تصويرة	-11.4159
جنون	-11.4161
▁زاكي	-11.4164
AB	-11.4165
▁آجل	-11.4165
▁صلاته	-11.4166
▁المنبر	-11.4167
سقس	-11.4168
▁nd	-11.417
▁العجوز	-11.4171
▁اللع	-11.4171
▁يرمز	-11.4172
يكون	-11.4172
▁وابدا	-11.4173
▁ادخلي	-11.4173
▁تيبازة	-11.4173
ner	-11.4173
▁التيليفون	-11.4174
عها	-11.4175
▁متاع	-11.4177
▁غل	-11.4177
▁يكفيني	-11.4177
▁مرتاح	-11.4179
دينا	-11.4179
صفح	-11.418
▁متخ	-11.418
▁مقبرة	-11.4181
▁متعرفش	-11.4181
▁اليها	-11.4183
hd	-11.4183
راط	-11.4184
▁الدا	-11.4186
▁بمعدلات	-11.4186
▁😫	-11.4187
فساد	-11.4187
تعاون	-11.4188
خرين	-11.4188
▁يخلاص	-11.419
▁لمس	-11.419
▁زاوية	-11.4192
لور	-11.4192
▁الاستدعاء	-11.4192
▁زائد	-11.4193
▁يتمناه	-11.4193
صيل	-11.4193
▁تخبر	-11.4193
▁💪🏻	-11.4194
▁إخواني	-11.4194
▁استدعاء	-11.4196
▁سيئاته	-11.4197
مقترحات	-11.4197
▁وذويه	-11.4198
راهي	-11.4199
صفة	-11.4201
▁المشاعر	-11.4202
▁بسهولة	-11.4202
▁احاول	-11.4204
▁وبديت	-11.4208
▁ككل	-11.4209
خطئ	-11.4211
bat	-11.4211
▁لخرة	-11.4212
▁ساهلين	-11.4213
MA	-11.4215
شبع	-11.4215
▁وأحب	-11.4216
▁التطور	-11.4218
▁فماذا	-11.4218
▁عبيد	-11.4218
▁ختو	-11.4219
▁بعلم	-11.422
▁السوء	-11.4222
▁الجهاز	-11.4223
▁thanks	-11.4223
▁وشرح	-11.4225
▁موافق	-11.4226
nes	-11.4227
▁معلوماتك	-11.4227
▁أقسام	-11.4228
lé	-11.4228
▁منكر	-11.4229
جير	-11.423
رفد	-11.423
▁وهاذي	-11.4234
▁يحبون	-11.4235
▁continue	-11.4235
▁فساد	-11.4237
▁🤭	-11.4238
▁فرحنا	-11.424
▁الخطر	-11.424
kou	-11.4242
▁🥲🥲	-11.4242
روحي	-11.4242
▁سلوك	-11.4243
غلي	-11.4243
▁حضورك	-11.4243
▁خيالية	-11.4243
▁نعوض	-11.4245
▁كأنه	-11.4246
▁الكافي	-11.4246
▁مخيفة	-11.4247
▁ben	-11.4247
▁ولذلك	-11.4248
▁😆	-11.4248
خويا	-11.4249
▁اللو	-11.4249
▁بريد	-11.4251
▁1)	-11.4252
فائدة	-11.4252
▁chaîne	-11.4255
▁بززاف	-11.4255
▁هنيئا	-11.4256
فش	-11.4256
▁بوتين	-11.4257
▁نعرفهم	-11.4259
فلس	-11.426
▁حومتي	-11.426
▁اكت	-11.426
▁الڨ	-11.4261
مكن	-11.4261
▁ملقيتوش	-11.4263
▁رحب	-11.4263
▁نحفضو	-11.4265
▁خلاو	-11.4267
😱😱	-11.4268
خوتي	-11.427
▁بلاصتك	-11.427
قان	-11.427
ila	-11.427
▁تشهي	-11.4272
طمع	-11.4272
▁الغربة	-11.4272
▁ختم	-11.4273
khl	-11.4273
فني	-11.4274
▁التحرير	-11.4275
▁تود	-11.4276
خمر	-11.4278
نجلي	-11.4278
▁توضح	-11.428
▁نضيع	-11.4281
ستسلم	-11.4281
▁وينكم	-11.4282
رول	-11.4283
▁اسلوبك	-11.4283
▁5/	-11.4285
▁الحلول	-11.4286
عاش	-11.4286
▁جزائريين	-11.4286
حبيت	-11.4287
▁مخدمتش	-11.4287
lf	-11.4287
▁فلك	-11.4288
▁🤡	-11.429
▁سين	-11.429
إسلام	-11.4291
▁بالمئة	-11.4292
▁bch	-11.4292
▁👀	-11.4294
▁التك	-11.4294
▁السائق	-11.4294
قادة	-11.4298
▁تكرار	-11.4298
اختي	-11.4299
▁يعتقد	-11.4299
▁القوي	-11.43
▁وادخله	-11.4301
▁طلعوا	-11.4302
▁اشيخ	-11.4302
▁تحسين	-11.4302
▁ليما	-11.4304
▁نجوزو	-11.4305
الجزائر	-11.4306
▁الرياضية	-11.4306
dd	-11.4307
وعة	-11.4309
عجل	-11.431
▁يقولنا	-11.431
▁أذ	-11.431
فذ	-11.431
▁نبقى	-11.431
عض	-11.4311
▁متأخر	-11.4311
▁fal	-11.4311
▁حاصل	-11.4312
تدخل	-11.4314
▁المركز	-11.4315
▁حصص	-11.4318
▁بلاصتي	-11.4318
▁والاحترام	-11.4319
🤪	-11.4319
owa	-11.4319
▁يجيو	-11.432
:00	-11.432
ئم	-11.432
▁غلب	-11.4321
مادام	-11.4322
فريقي	-11.4324
مست	-11.4325
▁بجد	-11.4325
▁الأحوال	-11.4325
▁jdid	-11.4325
▁فالعربية	-11.4326
▁سكنات	-11.4328
▁ملفات	-11.433
▁راق	-11.433
▁واعلم	-11.4331
جاهد	-11.4331
▁مجتهد	-11.4332
▁لبو	-11.4332
▁للشيخ	-11.4332
▁Co	-11.4333
▁دائم	-11.4333
▁تهم	-11.4334
▁أجنبية	-11.4334
▁وكلما	-11.4336
▁كندا	-11.4336
غنى	-11.4338
fou	-11.434
▁حفظكم	-11.434
▁✨✨	-11.4341
تنافس	-11.4341
▁سلبية	-11.4341
هولي	-11.4341
▁نعمل	-11.4342
ثوم	-11.4343
▁يآ	-11.4343
gg	-11.4343
▁6.	-11.4344
افكار	-11.4346
▁علق	-11.4346
▁ولدت	-11.4347
▁يبقا	-11.4348
▁تمام	-11.4349
💃	-11.4351
▁الخراطيش	-11.4351
▁مهجر	-11.4351
▁قضايا	-11.4352
▁دن	-11.4353
▁مهابل	-11.4354
▁المجاهد	-11.4356
▁06	-11.4356
▁(3)	-11.4356
▁براك	-11.4356
▁السحرة	-11.4357
▁baba	-11.4358
▁nhab	-11.4361
▁عاونوني	-11.4361
▁ميلة	-11.4361
▁لبابا	-11.4362
▁يخليلك	-11.4364
▁الكم	-11.4364
توني	-11.4365
▁خدع	-11.4365
تاثر	-11.4366
▁زك	-11.4368
▁نرجعو	-11.4369
▁لقلب	-11.437
fhm	-11.4371
▁طلعلي	-11.4371
▁وطني	-11.4372
والا	-11.4373
▁الميزان	-11.4374
▁قامت	-11.4374
رتاح	-11.4374
▁ديروا	-11.4376
iin	-11.4377
▁Part	-11.4377
▁انجاز	-11.4379
▁تركيز	-11.4379
▁تكل	-11.4379
▁لافيديو	-11.4381
▁تشكر	-11.4381
ouni	-11.4382
خام	-11.4382
▁اتمنا	-11.4383
▁wl	-11.4383
▁يديروها	-11.4383
🍯	-11.4384
▁توسويس	-11.4384
▁نحوسو	-11.4385
▁المسلمون	-11.4386
لفظ	-11.4387
كتشف	-11.4388
▁see	-11.4389
▁beli	-11.439
طيلة	-11.4394
▁سيئات	-11.4395
▁ندرس	-11.4395
▁لكبير	-11.4397
@	-11.4397
تواصل	-11.4398
▁كحلة	-11.4398
gha	-11.4398
▁شيخنا	-11.4398
▁الملفات	-11.4399
▁البيوت	-11.4399
▁الاسلوب	-11.44
▁أعداء	-11.44
▁أنصحك	-11.4402
▁مهمش	-11.4403
▁وفهمت	-11.4403
▁يظن	-11.4404
بعاد	-11.4407
روعة	-11.4408
▁شكور	-11.4409
حتي	-11.4409
▁وهيا	-11.441
▁الطابق	-11.441
▁math	-11.4411
▁منصوب	-11.4412
▁خليه	-11.4412
😚	-11.4416
▁بالعلم	-11.4416
▁والأموات	-11.4416
▁مكا	-11.4417
عجبتني	-11.4418
▁مخلط	-11.4419
▁ينتمي	-11.442
▁للغاية	-11.4422
▁مراهش	-11.4422
باد	-11.4423
▁madame	-11.4424
▁تخدمي	-11.4424
▁القطة	-11.4426
اره	-11.4426
▁نحبهم	-11.4428
▁العيون	-11.4428
▁نتاعنا	-11.4429
أما	-11.4429
يزي	-11.4429
▁لعبت	-11.4431
شريعة	-11.4431
ستمع	-11.4432
dja	-11.4433
▁علئ	-11.4433
▁تهبط	-11.4435
▁تتخيل	-11.4436
لهمش	-11.4436
▁mara	-11.4437
▁قاطو	-11.4437
▁للأم	-11.4437
ys	-11.4438
▁توقفت	-11.4441
▁جعلته	-11.4442
رمز	-11.4442
▁نشأ	-11.4443
▁جامعي	-11.4444
▁مدرب	-11.4446
▁يجازيه	-11.4447
▁انتقل	-11.4447
▁لقط	-11.4448
É	-11.4449
▁legend	-11.4449
▁الفصحى	-11.4449
▁تدفع	-11.4449
▁الارادة	-11.4449
▁توجيه	-11.4449
▁تصرالي	-11.445
▁بادن	-11.4451
▁مسحور	-11.4452
▁شابه	-11.4452
سوس	-11.4452
▁امها	-11.4453
▁حنونتي	-11.4454
عوا	-11.4454
إنشاء	-11.4459
▁امورك	-11.4461
▁ندر	-11.4461
▁ترم	-11.4462
وكس	-11.4464
▁ويجب	-11.4464
▁يحفظهم	-11.4464
▁هذوين	-11.4464
▁tkh	-11.4465
▁سنن	-11.4466
76	-11.4467
▁تربي	-11.4467
▁فاسد	-11.4469
ائكم	-11.447
▁raki	-11.4471
نزع	-11.4472
▁حكمو	-11.4474
▁شرحها	-11.4475
حتا	-11.4475
▁الطبيعي	-11.4475
سلط	-11.4476
طش	-11.4476
▁فتحي	-11.4479
▁توحشنااك	-11.4479
▁نقوم	-11.4482
فارق	-11.4484
ign	-11.4484
▁حلنا	-11.4485
▁الشعوب	-11.4486
▁وفتح	-11.4487
▁سموه	-11.4489
رحب	-11.449
▁للموضوع	-11.4493
▁راجعت	-11.4494
▁تانيك	-11.4495
▁ساع	-11.4495
علب	-11.4495
▁استمتعت	-11.4495
▁لحوايج	-11.4496
تواضع	-11.4496
قذ	-11.4496
▁أز	-11.4497
▁وبك	-11.4498
▁mot	-11.45
▁يخبطها	-11.45
جزاء	-11.4501
▁مفر	-11.4502
eq	-11.4503
▁ساهم	-11.4505
حاس	-11.4507
▁شعورك	-11.4507
▁توقعات	-11.4507
صيد	-11.4508
▁لقناة	-11.451
▁والام	-11.451
▁ساكت	-11.4511
قق	-11.4512
▁التيك	-11.4513
▁لمهم	-11.4514
نز	-11.4516
▁مخفتش	-11.4516
▁😥😥	-11.4517
مشكل	-11.4517
دكر	-11.4519
▁اتكلم	-11.4519
▁اسمحيلي	-11.452
▁السكون	-11.452
▁رخيص	-11.452
ici	-11.452
موس	-11.452
▁اختبارات	-11.4521
ème	-11.4521
▁والفكر	-11.4522
▁قرعة	-11.4523
▁صر	-11.4523
▁ila	-11.4526
ew	-11.4527
فطن	-11.4529
حفز	-11.4529
▁حنايا	-11.453
▁ترتاح	-11.4531
▁مفتوحة	-11.4531
حقيق	-11.4532
▁وهب	-11.4533
▁الكنز	-11.4535
▁kifach	-11.4536
▁الانستا	-11.4536
▁فردا	-11.4537
▁😭🤲	-11.4537
مجموع	-11.4538
تلقى	-11.4538
ضمن	-11.4538
▁Wach	-11.4539
▁وخرجت	-11.454
▁الحيوان	-11.4544
ouk	-11.4544
▁يفرجها	-11.4544
▁الغل	-11.4545
🙈	-11.4547
▁السلآم	-11.4547
▁يعيد	-11.4548
▁شوا	-11.4548
▁المهمة	-11.4548
▁يجازي	-11.4549
قولك	-11.4552
موضوع	-11.4553
▁وحذف	-11.4554
رسي	-11.4554
▁rakom	-11.4554
بوا	-11.4555
▁اللعب	-11.4555
▁اسفة	-11.4556
dia	-11.4557
▁التمييز	-11.4557
▁wallah	-11.4558
ity	-11.4559
▁نظيف	-11.4559
▁كمنتار	-11.4559
دولة	-11.456
▁والاست	-11.4563
▁الكار	-11.4565
▁اضغط	-11.4565
▁اصدقاء	-11.4565
▁بلدي	-11.457
تحول	-11.4573
▁رس	-11.4576
دحك	-11.4576
غال	-11.4577
▁مكيش	-11.4577
احسن	-11.458
▁عشوائي	-11.458
▁yr	-11.4581
▁لنفسك	-11.4581
دراسة	-11.4583
▁لحكايا	-11.4584
▁الأخوة	-11.4584
▁😒😒	-11.4586
▁لحب	-11.4587
▁الإعلام	-11.4587
AS	-11.4589
▁التزام	-11.4589
▁الشمال	-11.4589
▁سيرين	-11.459
▁الاشعار	-11.4591
ماهي	-11.4592
▁اسئلتك	-11.4592
هنئ	-11.4593
▁نظرا	-11.4595
🫂	-11.4596
▁ويوفق	-11.4597
▁زوجك	-11.4598
▁سلبيات	-11.4598
▁يهتم	-11.4598
▁احترم	-11.4598
▁salam	-11.4598
▁2000	-11.4599
▁😻	-11.46
▁همك	-11.46
[...]
