<pad>	0
<unk>	0
<s>	0
</s>	0
<0x00>	0
<0x01>	0
<0x02>	0
<0x03>	0
<0x04>	0
<0x05>	0
<0x06>	0
<0x07>	0
<0x08>	0
<0x09>	0
<0x0A>	0
<0x0B>	0
<0x0C>	0
<0x0D>	0
<0x0E>	0
<0x0F>	0
<0x10>	0
<0x11>	0
<0x12>	0
<0x13>	0
<0x14>	0
<0x15>	0
<0x16>	0
<0x17>	0
<0x18>	0
<0x19>	0
<0x1A>	0
<0x1B>	0
<0x1C>	0
<0x1D>	0
<0x1E>	0
<0x1F>	0
<0x20>	0
<0x21>	0
<0x22>	0
<0x23>	0
<0x24>	0
<0x25>	0
<0x26>	0
<0x27>	0
<0x28>	0
<0x29>	0
<0x2A>	0
<0x2B>	0
<0x2C>	0
<0x2D>	0
<0x2E>	0
<0x2F>	0
<0x30>	0
<0x31>	0
<0x32>	0
<0x33>	0
<0x34>	0
<0x35>	0
<0x36>	0
<0x37>	0
<0x38>	0
<0x39>	0
<0x3A>	0
<0x3B>	0
<0x3C>	0
<0x3D>	0
<0x3E>	0
<0x3F>	0
<0x40>	0
<0x41>	0
<0x42>	0
<0x43>	0
<0x44>	0
<0x45>	0
<0x46>	0
<0x47>	0
<0x48>	0
<0x49>	0
<0x4A>	0
<0x4B>	0
<0x4C>	0
<0x4D>	0
<0x4E>	0
<0x4F>	0
<0x50>	0
<0x51>	0
<0x52>	0
<0x53>	0
<0x54>	0
<0x55>	0
<0x56>	0
<0x57>	0
<0x58>	0
<0x59>	0
<0x5A>	0
<0x5B>	0
<0x5C>	0
<0x5D>	0
<0x5E>	0
<0x5F>	0
<0x60>	0
<0x61>	0
<0x62>	0
<0x63>	0
<0x64>	0
<0x65>	0
<0x66>	0
<0x67>	0
<0x68>	0
<0x69>	0
<0x6A>	0
<0x6B>	0
<0x6C>	0
<0x6D>	0
<0x6E>	0
<0x6F>	0
<0x70>	0
<0x71>	0
<0x72>	0
<0x73>	0
<0x74>	0
<0x75>	0
<0x76>	0
<0x77>	0
<0x78>	0
<0x79>	0
<0x7A>	0
<0x7B>	0
<0x7C>	0
<0x7D>	0
<0x7E>	0
<0x7F>	0
<0x80>	0
<0x81>	0
<0x82>	0
<0x83>	0
<0x84>	0
<0x85>	0
<0x86>	0
<0x87>	0
<0x88>	0
<0x89>	0
<0x8A>	0
<0x8B>	0
<0x8C>	0
<0x8D>	0
<0x8E>	0
<0x8F>	0
<0x90>	0
<0x91>	0
<0x92>	0
<0x93>	0
<0x94>	0
<0x95>	0
<0x96>	0
<0x97>	0
<0x98>	0
<0x99>	0
<0x9A>	0
<0x9B>	0
<0x9C>	0
<0x9D>	0
<0x9E>	0
<0x9F>	0
<0xA0>	0
<0xA1>	0
<0xA2>	0
<0xA3>	0
<0xA4>	0
<0xA5>	0
<0xA6>	0
<0xA7>	0
<0xA8>	0
<0xA9>	0
<0xAA>	0
<0xAB>	0
<0xAC>	0
<0xAD>	0
<0xAE>	0
<0xAF>	0
<0xB0>	0
<0xB1>	0
<0xB2>	0
<0xB3>	0
<0xB4>	0
<0xB5>	0
<0xB6>	0
<0xB7>	0
<0xB8>	0
<0xB9>	0
<0xBA>	0
<0xBB>	0
<0xBC>	0
<0xBD>	0
<0xBE>	0
<0xBF>	0
<0xC0>	0
<0xC1>	0
<0xC2>	0
<0xC3>	0
<0xC4>	0
<0xC5>	0
<0xC6>	0
<0xC7>	0
<0xC8>	0
<0xC9>	0
<0xCA>	0
<0xCB>	0
<0xCC>	0
<0xCD>	0
<0xCE>	0
<0xCF>	0
<0xD0>	0
<0xD1>	0
<0xD2>	0
<0xD3>	0
<0xD4>	0
<0xD5>	0
<0xD6>	0
<0xD7>	0
<0xD8>	0
<0xD9>	0
<0xDA>	0
<0xDB>	0
<0xDC>	0
<0xDD>	0
<0xDE>	0
<0xDF>	0
<0xE0>	0
<0xE1>	0
<0xE2>	0
<0xE3>	0
<0xE4>	0
<0xE5>	0
<0xE6>	0
<0xE7>	0
<0xE8>	0
<0xE9>	0
<0xEA>	0
<0xEB>	0
<0xEC>	0
<0xED>	0
<0xEE>	0
<0xEF>	0
<0xF0>	0
<0xF1>	0
<0xF2>	0
<0xF3>	0
<0xF4>	0
<0xF5>	0
<0xF6>	0
<0xF7>	0
<0xF8>	0
<0xF9>	0
<0xFA>	0
<0xFB>	0
<0xFC>	0
<0xFD>	0
<0xFE>	0
<0xFF>	0
▁	-3.66538
▁و	-3.8872
ة	-4.18715
ي	-4.22953
ا	-4.34582
و	-4.44749
ك	-4.4616
▁في	-4.54415
ه	-4.5747
▁من	-4.5932
▁الله	-4.61105
ت	-4.74847
▁ال	-4.82537
▁ت	-5.06966
▁ي	-5.09939
ها	-5.10658
نا	-5.20774
▁م	-5.21904
▁على	-5.26352
▁ا	-5.30439
ش	-5.36171
ين	-5.42578
▁ما	-5.46619
▁ن	-5.49294
ات	-5.50874
.	-5.55149
م	-5.55149
ية	-5.55457
▁ربي	-5.57783
▁لي	-5.61004
▁أ	-5.62885
▁ب	-5.62923
▁لا	-5.63365
]	-5.66932
▁[	-5.67734
▁الم	-5.68157
▁ل	-5.7669
،	-5.77356
هم	-5.77468
MENTION	-5.77865
وا	-5.80247
▁ان	-5.80758
▁انا	-5.85046
ني	-5.88473
▁يا	-5.94818
ن	-5.9889
ال	-6.04127
▁...	-6.0454
▁كل	-6.04866
▁وال	-6.13253
▁،	-6.17458
...	-6.18212
ف	-6.21573
كم	-6.22012
▁أن	-6.24369
▁ف	-6.25584
▁بال	-6.26127
ون	-6.26167
▁مع	-6.27294
ب	-6.29074
▁ولا	-6.30641
▁لل	-6.32983
▁-	-6.33202
▁استاذ	-6.34719
▁هذا	-6.36445
ان	-6.37563
لي	-6.39239
▁.	-6.39536
▁الا	-6.40245
3	-6.40275
د	-6.40951
s	-6.41932
ى	-6.46838
تي	-6.49168
▁شاء	-6.51029
اء	-6.5246
ما	-6.53182
ل	-6.53444
ر	-6.56325
▁كي	-6.56431
▁❤	-6.56498
▁عن	-6.56649
▁غير	-6.56863
ع	-6.58149
ج	-6.58909
▁والله	-6.60073
▁تاع	-6.62232
▁شكرا	-6.62494
▁هو	-6.64226
:	-6.64915
▁اللهم	-6.65263
ص	-6.72362
▁:	-6.73188
ح	-6.7388
ام	-6.74028
▁قال	-6.76884
t	-6.76912
لك	-6.76969
▁عليه	-6.77622
▁(	-6.78307
▁هه	-6.80252
ز	-6.80705
▁يارب	-6.81045
▁عليكم	-6.8216
▁السلام	-6.83299
س	-6.83877
▁كان	-6.84151
❤	-6.8472
▁لم	-6.84831
▁الت	-6.85281
▁بزاف	-6.85767
؟	-6.86747
▁بصح	-6.87237
لا	-6.88486
▁😂😂	-6.8962
▁او	-6.90582
يا	-6.9149
▁الع	-6.91757
▁فيك	-6.92075
▁مت	-6.92412
▁تع	-6.93082
ق	-6.93144
▁؟	-6.93579
▁❤❤	-6.93757
▁حتى	-6.94235
▁ع	-6.94569
▁لك	-6.94749
خ	-6.95541
تك	-6.9605
▁راني	-6.96269
h	-6.96694
)	-6.97536
k	-6.98075
o	-6.98816
▁بارك	-6.99416
▁ون	-6.99919
▁واحد	-7.00202
▁3	-7.00239
دي	-7.00776
a	-7.01138
▁هي	-7.02147
▁وي	-7.02345
غ	-7.02491
▁كامل	-7.03428
ذ	-7.03659
e	-7.03861
ور	-7.04498
▁الأ	-7.04592
▁فال	-7.04625
i	-7.04731
▁إ	-7.05082
▁فيديو	-7.06116
d	-7.06225
b	-7.06974
▁كنت	-7.08731
9	-7.09181
▁لله	-7.11079
▁إن	-7.11526
ض	-7.11689
r	-7.12348
y	-7.12403
اد	-7.13035
ث	-7.13333
وش	-7.14178
ار	-7.15051
ته	-7.1544
▁بعد	-7.16332
7	-7.17041
▁"	-7.17113
▁خير	-7.17559
أ	-7.17737
في	-7.1774
▁وت	-7.18208
u	-7.18238
▁الف	-7.18794
من	-7.18924
▁واش	-7.19356
ط	-7.19709
▁صح	-7.19749
▁أو	-7.20212
n	-7.20959
يل	-7.20985
ير	-7.21041
▁هل	-7.21114
▁😂	-7.2125
▁س	-7.21384
▁عليك	-7.22028
▁باك	-7.23342
بي	-7.23378
▁ام	-7.23679
را	-7.24964
اب	-7.25286
▁الباك	-7.25671
m	-7.2573
يت	-7.25979
ول	-7.27002
f	-7.28138
▁يوم	-7.28704
l	-7.28843
▁انت	-7.30772
▁رب	-7.31876
▁لكن	-7.32639
▁راك	-7.32773
▁مي	-7.32977
اع	-7.3378
▁فيها	-7.33799
▁خويا	-7.34001
😂	-7.34018
ئ	-7.34401
سي	-7.34776
p	-7.36149
لو	-7.38933
ري	-7.39036
2	-7.39097
▁هذه	-7.39951
تها	-7.40085
▁يحفظك	-7.40164
▁وم	-7.40252
▁له	-7.41146
▁فيه	-7.42198
❤❤	-7.42479
▁هنا	-7.43362
▁2	-7.43591
▁كيف	-7.44108
5	-7.44458
▁وأ	-7.44813
▁w	-7.45636
▁بين	-7.45845
وم	-7.45865
▁أنا	-7.45884
▁وين	-7.46067
▁قبل	-7.46121
ست	-7.46185
▁الن	-7.46188
▁ر	-7.46356
g	-7.46483
'	-7.46708
▁برك	-7.47621
▁إلى	-7.47988
يش	-7.48153
▁كاين	-7.48348
▁l	-7.48451
يك	-7.49184
تش	-7.50365
▁باش	-7.51056
▁عندي	-7.51179
▁كيما	-7.51425
▁لولا	-7.51849
▁بلي	-7.52258
4	-7.53077
c	-7.53198
عة	-7.53951
▁ش	-7.54027
w	-7.55072
la	-7.55226
▁عند	-7.55382
▁التي	-7.55467
لنا	-7.5565
▁يكون	-7.56092
▁بن	-7.56509
تو	-7.57216
ou	-7.57297
اس	-7.57954
,	-7.57997
▁m	-7.58322
▁اي	-7.59409
قول	-7.59422
فر	-7.59596
▁وسلم	-7.59699
▁بل	-7.60352
يه	-7.60386
😂😂	-7.60462
▁ح	-7.6052
ch	-7.60628
▁t	-7.61057
▁دير	-7.61165
-	-7.61233
وب	-7.61297
▁b	-7.61706
قل	-7.61718
1	-7.61879
▁راه	-7.6224
▁الق	-7.6291
▁الذي	-7.63041
▁الفيديو	-7.63574
z	-7.63668
اش	-7.64038
/	-7.64125
▁اخي	-7.64216
▁شكون	-7.64294
بر	-7.64421
li	-7.64697
▁ادعولي	-7.65208
▁n	-7.65218
"	-7.65235
اك	-7.65944
▁؟؟	-7.66718
▁ق	-7.6697
ولي	-7.67286
▁f	-7.67361
▁مش	-7.67673
ظ	-7.67678
وه	-7.67883
▁الس	-7.67985
▁الجزائر	-7.68357
؟؟	-7.68421
na	-7.68763
▁خ	-7.68848
▁الإ	-7.69577
▁راح	-7.69639
يب	-7.7047
▁تكون	-7.70503
▁جا	-7.70535
▁كانت	-7.70893
اه	-7.70896
▁الج	-7.71398
اج	-7.71501
اح	-7.71739
فا	-7.71958
عد	-7.72008
▁y	-7.72654
▁كما	-7.73107
j	-7.73543
صر	-7.73727
رة	-7.73854
▁الناس	-7.73907
▁أستاذ	-7.74116
▁وش	-7.74194
▁خيرا	-7.74428
آ	-7.74435
▁الى	-7.74441
▁😢	-7.74651
▁صلى	-7.74915
▁يت	-7.75473
▁مات	-7.76036
ha	-7.7626
▁أم	-7.76369
▁ماشي	-7.76579
جي	-7.76638
6	-7.77086
مل	-7.77292
دا	-7.7737
▁محمد	-7.78002
تم	-7.79068
▁به	-7.79315
وك	-7.7945
▁الح	-7.79475
▁اختي	-7.79535
▁الش	-7.79558
▁حل	-7.79596
جر	-7.80147
▁يعطيك	-7.80344
▁لو	-7.80624
تنا	-7.80634
حي	-7.80794
▁قصة	-7.81024
كل	-7.81079
اف	-7.81515
ra	-7.81594
بل	-7.82328
▁اذا	-7.82646
▁يعني	-7.8337
re	-7.83462
صل	-7.83612
▁دار	-7.83759
خر	-7.83828
▁a	-7.83977
▁ma	-7.84106
▁نتا	-7.84213
▁فضلك	-7.84277
▁فل	-7.84398
8	-7.84417
▁قد	-7.84488
▁ذلك	-7.84952
▁سي	-7.84995
▁عام	-7.85031
حت	-7.85121
با	-7.85167
فت	-7.85175
▁ز	-7.85193
يات	-7.85209
▁لازم	-7.85329
▁عندك	-7.85411
يد	-7.8555
▁غ	-7.8556
يس	-7.85635
ri	-7.85681
مي	-7.85777
▁اليوم	-7.85812
▁فقط	-7.85857
▁امين	-7.85873
وف	-7.85906
رو	-7.85984
وني	-7.86072
بت	-7.86261
▁با	-7.86541
▁رضا	-7.86547
▁)	-7.86557
يم	-7.86565
قت	-7.86702
رب	-7.87343
ربي	-7.87593
▁إلا	-7.8825
▁الخ	-7.88843
▁ص	-7.89421
دو	-7.89436
▁سلام	-7.89747
😢	-7.89828
▁ومن	-7.90134
▁ك	-7.90677
▁ta	-7.90687
er	-7.90923
▁وانا	-7.90999
ود	-7.91134
زي	-7.91202
▁الحمد	-7.91261
▁s	-7.91588
▁la	-7.91839
بة	-7.91981
ء	-7.92038
رق	-7.92105
▁نفس	-7.92257
لم	-7.92599
حب	-7.9267
▁عليها	-7.92814
▁افضل	-7.92895
▁أخي	-7.92972
▁يبارك	-7.92986
▁الي	-7.93056
▁نجيب	-7.93621
اط	-7.93691
▁خو	-7.94411
▁علاه	-7.94606
ؤ	-7.94846
جد	-7.94936
▁فا	-7.95223
▁ختي	-7.9568
▁والم	-7.95697
▁ياربي	-7.96047
▁وما	-7.961
▁بك	-7.96173
مر	-7.96808
▁قلت	-7.96969
▁وقت	-7.9713
نت	-7.97298
▁قصص	-7.97364
▁حنا	-7.97388
▁ط	-7.9745
كون	-7.97761
سم	-7.98289
▁هاد	-7.98522
▁الب	-7.98609
v	-7.9925
▁حاجة	-7.99679
é	-7.99779
▁ديرلنا	-7.99906
لة	-8.00018
▁الخير	-8.00205
▁الص	-8.00217
▁عبد	-8.0023
▁رانا	-8.00249
رد	-8.00374
▁جزاك	-8.00417
فق	-8.00646
in	-8.0094
▁بعض	-8.01127
▁اول	-8.01448
جل	-8.01571
al	-8.01772
مت	-8.01836
▁اسم	-8.0192
▁خاوتي	-8.02035
حل	-8.02261
يف	-8.02365
▁شفت	-8.02753
▁جدا	-8.03335
on	-8.0336
▁ول	-8.03392
▁است	-8.03786
▁5	-8.03794
لها	-8.04116
رض	-8.04127
الله	-8.04363
▁ثم	-8.04404
▁مرة	-8.04447
x	-8.04478
▁كون	-8.04527
دير	-8.0468
وس	-8.04685
▁ليس	-8.04952
▁اللي	-8.05074
▁1	-8.054
▁ورحمة	-8.05534
يق	-8.06767
ar	-8.06812
رت	-8.06976
▁الر	-8.07639
▁وليد	-8.07725
▁يقول	-8.08348
▁العالمين	-8.08914
ma	-8.09241
ائل	-8.09417
▁العام	-8.09515
▁مر	-8.09533
💔	-8.09544
▁نعم	-8.09667
▁تت	-8.0993
عرف	-8.10083
▁c	-8.1028
▁هذي	-8.10442
▁علي	-8.10486
جا	-8.10604
▁تن	-8.10959
▁لنا	-8.11068
وي	-8.11168
▁كمل	-8.11792
▁جن	-8.12232
▁الجن	-8.12665
▁د	-8.12792
ti	-8.13033
▁مليح	-8.13477
▁كتاب	-8.13527
▁وربي	-8.13555
▁الصحة	-8.1364
تني	-8.13788
▁الك	-8.13977
▁علينا	-8.14121
قد	-8.14122
لهم	-8.14736
▁ممكن	-8.14955
▁الغ	-8.15176
▁درت	-8.15193
▁نحبك	-8.15805
▁نت	-8.15944
مة	-8.16061
وها	-8.16434
_	-8.16438
▁والو	-8.16489
قة	-8.1658
▁*	-8.17066
بو	-8.17078
▁9	-8.17319
▁إذا	-8.17621
▁نشوف	-8.17973
▁شيء	-8.18037
▁الجنة	-8.18383
di	-8.18575
▁بلا	-8.18749
▁ندي	-8.19115
▁ج	-8.19116
▁زوج	-8.19122
▁تعالى	-8.19295
رج	-8.19304
طر	-8.19871
الي	-8.19988
▁A	-8.20009
A	-8.2027
▁تم	-8.20321
es	-8.20336
▁وفي	-8.20475
دة	-8.20551
▁وحد	-8.20564
▁انشاء	-8.20631
عود	-8.20705
علم	-8.20852
وال	-8.21373
▁بالمثل	-8.2163
▁لها	-8.21698
▁وهو	-8.22112
▁بالله	-8.22338
▁ندير	-8.224
طي	-8.22405
▁4	-8.22498
سب	-8.2256
▁حكاية	-8.22608
▁رمضان	-8.22655
▁de	-8.22785
▁مثل	-8.22949
▁,	-8.23135
▁ابن	-8.23556
يين	-8.2379
▁الل	-8.24221
اني	-8.24296
😊	-8.24302
ni	-8.24508
▁ولكن	-8.24645
▁تاعك	-8.2507
از	-8.25073
le	-8.25088
▁هدا	-8.25559
▁القصة	-8.2572
ذا	-8.26129
▁❤️	-8.26455
da	-8.26485
فل	-8.26715
▁أي	-8.26979
▁M	-8.26986
▁تقول	-8.27019
▁ثاني	-8.2716
▁البكالوريا	-8.2718
▁رسول	-8.27413
▁ناس	-8.27599
بال	-8.27869
▁كيفاش	-8.28026
اق	-8.28038
تر	-8.28091
▁شر	-8.2812
▁نتاع	-8.28135
قي	-8.28287
▁وكل	-8.28372
عي	-8.28472
له	-8.28568
▁قاع	-8.28824
en	-8.28937
▁سؤال	-8.29241
▁معاك	-8.29294
عت	-8.29538
▁باه	-8.29617
▁تح	-8.29682
▁لباك	-8.29772
el	-8.30157
▁لأن	-8.30236
▁يحفضك	-8.30292
تهم	-8.30367
مو	-8.30741
جب	-8.30892
▁يوفقك	-8.30941
🤲	-8.30959
▁راجعون	-8.3113
▁بها	-8.31274
▁🤲	-8.31298
or	-8.31418
▁شحال	-8.31769
▁les	-8.3199
te	-8.32125
▁يرحم	-8.32316
▁سا	-8.32426
▁راهي	-8.32637
▁الكريم	-8.32865
▁شا	-8.32994
قدر	-8.33139
▁نس	-8.33293
نس	-8.3334
0	-8.33387
▁وبركاته	-8.33475
▁علم	-8.33503
قو	-8.33691
▁خط	-8.33751
صح	-8.34022
▁2025	-8.34086
ba	-8.34106
▁ماشاء	-8.34124
▁مزال	-8.3418
▁مشي	-8.34183
▁جد	-8.34306
▁بو	-8.34307
شي	-8.34347
▁علا	-8.34348
▁حق	-8.34425
▁😅	-8.34547
▁مس	-8.3462
كن	-8.34646
▁7	-8.34719
▁جام	-8.3472
لف	-8.34888
وع	-8.34889
me	-8.34904
▁للم	-8.35149
▁كيفاه	-8.3524
▁هاذي	-8.35248
▁شعر	-8.35352
▁هادي	-8.35358
▁حب	-8.35561
▁آ	-8.35604
▁بزااف	-8.35665
جو	-8.35843
at	-8.35995
زا	-8.3621
رى	-8.36316
دعو	-8.36446
▁B	-8.36524
لت	-8.37245
▁d	-8.37328
▁عمر	-8.37439
▁نحب	-8.37439
▁ولكم	-8.37451
❤️	-8.37471
▁روح	-8.37811
▁شعبة	-8.37913
▁T	-8.38217
▁مح	-8.38323
▁الان	-8.38351
▁سنة	-8.38395
▁وان	-8.38409
▁الموضوع	-8.38525
▁تاني	-8.38547
▁العلم	-8.38585
▁الحق	-8.38586
▁كلش	-8.38715
ro	-8.3873
kh	-8.38876
▁20	-8.39108
عا	-8.39367
ثر	-8.39376
در	-8.40159
▁معدل	-8.40611
كان	-8.40674
▁إليه	-8.40742
حفظ	-8.40771
▁😊	-8.40971
قر	-8.40979
فضل	-8.41037
▁آمين	-8.41362
▁صباح	-8.41395
▁+	-8.41412
ضر	-8.41491
سر	-8.41689
ينا	-8.41715
بغ	-8.41832
▁ya	-8.42107
▁جديد	-8.4212
▁ض	-8.42146
▁عليهم	-8.4231
▁كثر	-8.42314
▁وب	-8.42632
▁نتفرج	-8.42695
خت	-8.42923
▁يدير	-8.42991
غير	-8.43156
دار	-8.43344
سا	-8.43352
رح	-8.43379
😅	-8.43411
▁منها	-8.43486
▁زيد	-8.4371
يع	-8.43974
is	-8.44026
▁لان	-8.44044
▁الو	-8.44244
▁10	-8.44377
حر	-8.44566
▁وحدة	-8.44652
▁😢😢	-8.44672
▁لن	-8.44703
جاب	-8.44758
يز	-8.44921
▁المنتدى	-8.45118
▁ست	-8.45195
▁أنت	-8.45238
فكر	-8.45278
▁لما	-8.45435
دخل	-8.45452
ta	-8.45496
▁وشكرا	-8.45633
▁تعرف	-8.4571
▁نقرا	-8.45896
▁سبحان	-8.45904
جن	-8.45957
▁🙂	-8.46053
00	-8.461
▁العالم	-8.46177
▁جميع	-8.4621
▁ينجحنا	-8.46248
▁الد	-8.46299
▁استاذة	-8.46335
▁نهار	-8.46338
▁ماي	-8.46414
▁روحي	-8.46454
▁لأ	-8.46471
▁p	-8.46653
it	-8.46671
وق	-8.46672
▁عم	-8.46803
كر	-8.46822
▁تحت	-8.46899
كس	-8.46939
▁الوقت	-8.4698
▁fi	-8.46988
▁بالم	-8.47066
▁دا	-8.47302
ak	-8.47413
ذي	-8.47428
▁مان	-8.47492
▁را	-8.47778
▁عليا	-8.47779
▁نعرف	-8.4787
▁راهم	-8.47949
▁يمكن	-8.48091
سل	-8.48184
ذكر	-8.48195
طلب	-8.48296
▁مرحبا	-8.4833
مان	-8.48419
▁صل	-8.48465
ad	-8.48742
I	-8.48759
▁لت	-8.48956
رحم	-8.49135
▁بنت	-8.49192
▁عادي	-8.4924
▁ميزان	-8.49395
بار	-8.49396
طل	-8.4944
▁راكي	-8.49473
▁لكم	-8.49605
رك	-8.49784
طا	-8.49851
بعد	-8.50046
دم	-8.50518
▁le	-8.50574
▁دي	-8.50615
(	-8.50645
️	-8.50698
▁بم	-8.50736
▁li	-8.50753
▁h	-8.50874
▁النبي	-8.5112
▁غي	-8.51185
▁حر	-8.51324
▁حال	-8.51353
▁S	-8.51588
▁قل	-8.51858
▁العظيم	-8.51942
اتك	-8.52017
▁اني	-8.52155
روح	-8.5234
▁حكايات	-8.52341
▁اكثر	-8.52591
مس	-8.52596
▁الز	-8.52678
فة	-8.52754
▁بي	-8.5278
▁عنه	-8.52936
▁محتوى	-8.53
دين	-8.53194
مال	-8.53221
ed	-8.5335
▁أهل	-8.53354
▁مل	-8.53397
▁اليه	-8.53632
▁طريقة	-8.53657
▁استاد	-8.53699
هل	-8.53721
▁شهادة	-8.53738
▁هناك	-8.53764
lo	-8.53803
الم	-8.53838
خير	-8.53844
▁2026	-8.54004
كي	-8.54045
شرف	-8.54256
am	-8.54273
ah	-8.54305
▁g	-8.54322
▁لكل	-8.54414
▁نص	-8.54543
رس	-8.54548
▁تحياتي	-8.54751
▁فلا	-8.54827
ay	-8.55116
▁المن	-8.55123
إ	-8.55489
▁حبيت	-8.5587
🥺	-8.55978
بد	-8.55998
مثل	-8.56058
جة	-8.56154
▁الدين	-8.56417
قص	-8.56496
ڨ	-8.56588
▁عندو	-8.56783
▁النجاح	-8.56822
هن	-8.56881
▁كثيرا	-8.5689
▁حاب	-8.57152
🙂	-8.57154
طب	-8.57423
دل	-8.57454
▁يجي	-8.57528
وان	-8.57552
▁the	-8.57846
▁والا	-8.58049
خف	-8.58136
!	-8.58158
de	-8.58237
▁هكا	-8.5824
▁بابا	-8.58311
قا	-8.5836
▁رعب	-8.58504
بع	-8.58507
😭	-8.5857
شر	-8.5879
bi	-8.58827
▁تو	-8.58982
خرج	-8.59085
▁مد	-8.59216
▁بالتوفيق	-8.59238
▁نشالله	-8.59291
▁رحمة	-8.59427
▁شيخ	-8.59476
▁المهم	-8.59538
بن	-8.5955
▁موضوع	-8.59682
q	-8.59916
▁شخص	-8.6007
▁عمل	-8.601
▁صحيح	-8.60127
▁قول	-8.60215
▁N	-8.60269
▁فر	-8.60413
▁قتل	-8.60644
*	-8.60779
▁علاش	-8.60936
▁بمعدل	-8.61013
▁قلبي	-8.61123
▁جيت	-8.61142
▁هاذ	-8.61516
زيد	-8.61553
▁بأ	-8.61631
ئة	-8.61728
▁الشعر	-8.61801
سو	-8.61885
▁حسناتك	-8.6196
طة	-8.62007
▁6	-8.62398
▁ذكر	-8.62492
▁المسلمين	-8.62522
▁مبروك	-8.62619
▁15	-8.6268
ing	-8.62839
▁نتي	-8.62901
il	-8.62931
▁أفضل	-8.62935
▁مام	-8.63034
به	-8.63085
▁شرح	-8.63141
▁ch	-8.63154
راء	-8.63168
ya	-8.63201
▁خاصة	-8.63375
▁I	-8.63494
▁يحب	-8.63522
▁أختي	-8.63522
▁شي	-8.63591
اتي	-8.63676
▁قر	-8.63705
▁j	-8.63829
▁ديرنا	-8.6395
▁مرا	-8.63969
ايا	-8.64118
دعي	-8.64271
▁الحل	-8.6435
افي	-8.64422
▁تس	-8.64432
▁ننجح	-8.64433
رش	-8.64501
فعل	-8.64704
خوف	-8.64714
▁الط	-8.64736
أن	-8.64921
يلي	-8.65007
راك	-8.65007
▁k	-8.65099
▁شهر	-8.65166
▁حا	-8.65298
▁در	-8.65384
▁رح	-8.65424
▁16	-8.65473
▁عل	-8.65521
▁الثاني	-8.65643
ارة	-8.65644
حد	-8.65668
ضح	-8.657
▁ولي	-8.65709
ne	-8.65847
▁فأ	-8.65924
فهم	-8.65934
▁تق	-8.66231
+	-8.66375
بين	-8.66485
▁you	-8.66615
▁وجه	-8.6681
عن	-8.66857
▁تش	-8.66864
▁الدنيا	-8.66998
▁سر	-8.66999
وت	-8.6705
▁احسن	-8.67053
يح	-8.67081
▁فهمت	-8.67107
قطع	-8.67118
▁سمعت	-8.67151
▁ha	-8.67226
▁القصص	-8.67356
▁بديت	-8.674
▁اما	-8.67525
▁نقول	-8.6756
▁اس	-8.67582
ir	-8.67716
T	-8.6781
صدق	-8.67882
▁حبيبتي	-8.67944
▁جزيلا	-8.67972
▁كر	-8.68009
▁لقيت	-8.68162
▁اع	-8.68178
تابع	-8.68309
▁الشيخ	-8.68521
▁العباسية	-8.68598
▁كبير	-8.68611
▁الصبر	-8.68672
▁حول	-8.68723
نسا	-8.68761
هاش	-8.68789
▁ra	-8.68942
▁نسمع	-8.69096
لق	-8.69151
▁اخت	-8.69178
▁بكل	-8.69536
قرب	-8.69752
طف	-8.69806
▁العربية	-8.69863
▁لق	-8.69955
جار	-8.70031
▁يوفقنا	-8.7004
wa	-8.70237
نزل	-8.70387
an	-8.70406
نجح	-8.70487
▁نحن	-8.70562
حا	-8.70638
▁نقدر	-8.70725
▁أنه	-8.70817
▁لدي	-8.7091
هد	-8.71007
ائي	-8.71009
طو	-8.71044
▁رد	-8.71044
E	-8.71044
▁in	-8.71148
=	-8.71154
▁خلي	-8.71169
جاز	-8.7125
حق	-8.71313
ظن	-8.71371
انا	-8.71655
▁نشاله	-8.71717
URL	-8.71811
▁القرآن	-8.71877
▁لح	-8.71911
▁wa	-8.71952
▁🥺	-8.72108
▁سن	-8.72185
رف	-8.72202
ab	-8.72281
▁الكتاب	-8.72291
▁دخل	-8.723
▁لع	-8.72515
▁hh	-8.72544
▁19	-8.72607
▁فعل	-8.72652
▁17	-8.72665
▁2024	-8.72766
▁D	-8.72806
▁ين	-8.73047
يرة	-8.73049
▁L	-8.73179
ظر	-8.73248
غر	-8.7354
▁سيبيا	-8.73565
▁جماعة	-8.73745
خط	-8.73826
▁الاول	-8.73832
▁الصلاة	-8.73938
▁دو	-8.74036
▁تحب	-8.74053
▁قوة	-8.74205
▁/	-8.74243
▁😭	-8.74431
▁🤣🤣	-8.7446
▁كا	-8.74471
▁اخر	-8.74525
▁طريق	-8.74672
▁مكان	-8.75007
▁يح	-8.75133
▁روعة	-8.75136
▁v	-8.75239
عل	-8.75519
▁دين	-8.75626
ذهب	-8.75636
▁بس	-8.75781
▁أكثر	-8.75808
▁الشعب	-8.75812
▁كو	-8.76015
لى	-8.76068
بس	-8.7652
▁ارجو	-8.76571
قوم	-8.7672
▁ولد	-8.76802
▁الحياة	-8.76853
بط	-8.76857
▁هدي	-8.76861
جز	-8.76861
▁لالا	-8.76879
وض	-8.76904
لح	-8.76934
▁دعولي	-8.7695
ورة	-8.7707
▁مال	-8.77237
▁تحكي	-8.77436
▁اله	-8.77452
▁لوكان	-8.77605
زع	-8.77705
▁to	-8.77706
جم	-8.77769
عين	-8.7786
ائر	-8.77906
▁غا	-8.77929
▁عا	-8.7793
▁فإن	-8.77934
▁بما	-8.77999
▁صاحب	-8.78139
▁بليز	-8.78239
▁بيك	-8.78479
▁أحد	-8.78535
▁وعلى	-8.78685
▁ياارب	-8.78885
▁‪	-8.78974
يها	-8.79047
حسن	-8.79054
ناش	-8.79063
▁اش	-8.79144
ينة	-8.79331
▁فات	-8.79891
▁والت	-8.79902
▁حي	-8.7993
▁جي	-8.79936
▁رحمه	-8.79979
سعد	-8.80033
ائد	-8.80077
▁et	-8.80167
▁يجازيك	-8.8023
▁الحر	-8.8024
▁مشكل	-8.80269
ce	-8.80271
يلة	-8.80417
طور	-8.80575
▁راكليطة	-8.80618
▁ou	-8.80671
راه	-8.80833
▁بيه	-8.80871
فض	-8.80918
قات	-8.80921
▁تشوف	-8.8098
▁ها	-8.81103
ek	-8.81124
▁داير	-8.81136
حرم	-8.81269
سط	-8.81354
يتي	-8.81363
▁ولم	-8.81402
تح	-8.81408
خو	-8.81484
▁السؤال	-8.81688
شكر	-8.81745
▁ذ	-8.81769
كمل	-8.81776
▁بإذن	-8.81835
▁حط	-8.8184
▁وهي	-8.81885
عم	-8.81889
حمل	-8.82109
▁!	-8.82126
سلم	-8.82177
ضي	-8.82213
▁قلب	-8.82286
كتب	-8.82403
D	-8.82411
▁دعوة	-8.82482
🔥	-8.8253
▁بش	-8.82561
ادة	-8.82636
▁علوم	-8.82637
▁معليش	-8.82725
▁فسيح	-8.8274
عاد	-8.82786
▁الام	-8.82808
انة	-8.82855
▁يعرف	-8.82862
فرح	-8.82876
جيب	-8.82891
st	-8.82907
▁W	-8.82916
زل	-8.83006
🏻	-8.83053
على	-8.83234
▁يد	-8.83326
حكم	-8.83444
▁بيها	-8.83541
et	-8.83555
id	-8.83586
طن	-8.83596
تل	-8.83627
بحث	-8.83631
▁وإن	-8.83695
راح	-8.83703
▁re	-8.83898
نفس	-8.83901
فتح	-8.83918
▁بر	-8.83919
▁ليك	-8.84026
O	-8.84027
خي	-8.84045
قبل	-8.8405
سأل	-8.84053
▁رو	-8.84083
ظهر	-8.84086
▁راهو	-8.84095
شاهد	-8.84272
▁فيهم	-8.84312
▁نور	-8.84337
حقق	-8.84346
ثبت	-8.84404
▁ديري	-8.84443
	-8.84443
قام	-8.84487
▁اهلا	-8.84688
تين	-8.85023
وز	-8.85115
▁كلمة	-8.85118
▁قو	-8.85284
راد	-8.85519
▁F	-8.85532
▁الصح	-8.85581
▁مسلم	-8.85589
صف	-8.85745
سام	-8.85768
aw	-8.85768
فو	-8.85876
تلي	-8.85925
▁اللغة	-8.86047
▁الفاضل	-8.86062
سكر	-8.86105
سع	-8.86122
▁جبت	-8.86131
عيش	-8.86143
مع	-8.8625
▁قريت	-8.8633
▁دور	-8.8637
▁دروس	-8.86395
راجع	-8.86397
حو	-8.86485
خلي	-8.86612
كذب	-8.86682
سكن	-8.86683
▁منهم	-8.86685
عجب	-8.86808
▁ايه	-8.86879
▁مكانش	-8.86952
▁آخر	-8.86979
▁صوت	-8.87119
فيد	-8.87159
▁دائما	-8.87185
مام	-8.8736
قدم	-8.87372
رين	-8.87402
جمع	-8.87418
▁اهل	-8.8749
لل	-8.87637
hi	-8.87684
▁تعليق	-8.87757
▁ملي	-8.87821
بدل	-8.87844
sh	-8.8787
غا	-8.87979
▁18	-8.88021
▁‬	-8.88176
▁المت	-8.88212
نى	-8.88245
▁أس	-8.8826
▁اب	-8.88288
يط	-8.88325
▁حابة	-8.88422
✨	-8.88482
as	-8.8857
▁نق	-8.88674
▁يجب	-8.88724
حمد	-8.88843
مد	-8.88852
▁قريب	-8.88856
▁وانت	-8.89025
ونا	-8.89066
▁بح	-8.89082
تمنى	-8.89112
شارك	-8.89144
ولا	-8.89228
▁🤲🏻	-8.89243
▁المس	-8.89326
قعد	-8.89488
▁روحك	-8.89525
▁سيدنا	-8.89641
▁لب	-8.89642
حس	-8.89669
▁عمري	-8.89794
▁درس	-8.89909
se	-8.89953
us	-8.8998
▁C	-8.89997
ve	-8.90139
صاب	-8.90157
▁بكالوريا	-8.90291
رام	-8.9043
مكن	-8.90454
▁نتمنى	-8.90617
▁حفظ	-8.90743
▁جزائري	-8.90786
▁فوق	-8.90901
اري	-8.9097
▁حساب	-8.91117
ـ	-8.91209
▁بالنسبة	-8.91256
👏	-8.91275
رع	-8.91319
▁قناة	-8.91322
!!	-8.91379
▁شباب	-8.91444
▁الاست	-8.9149
بعث	-8.91516
خلص	-8.91621
▁mo	-8.91676
زال	-8.9169
كره	-8.9189
▁ولله	-8.91917
▁إنا	-8.9195
ol	-8.92093
سة	-8.92097
▁مست	-8.92151
▁انسان	-8.92157
غفر	-8.92176
راب	-8.92269
▁حسن	-8.92274
▁لول	-8.92289
▁رائع	-8.92366
▁المشكل	-8.92368
20	-8.92387
ثق	-8.92418
▁يس	-8.9253
وهم	-8.92608
دع	-8.92615
بيع	-8.92676
▁العمل	-8.92688
▁ولاية	-8.92712
▁be	-8.92764
عرض	-8.92835
حتاج	-8.92894
خبر	-8.92927
▁رحم	-8.92939
حن	-8.92994
▁تدي	-8.93181
كثر	-8.93258
M	-8.9332
صبح	-8.9348
▁طا	-8.93529
▁الذين	-8.93539
تفرج	-8.9359
em	-8.93592
▁12	-8.93665
▁جات	-8.93962
باب	-8.93967
▁ماما	-8.93981
▁تجيب	-8.94064
ربع	-8.94119
▁قا	-8.94125
قال	-8.94157
▁هوما	-8.94295
▁تعلم	-8.94298
▁أما	-8.94326
غي	-8.94355
▁صرا	-8.94358
▁تعيش	-8.94362
▁معايا	-8.94397
▁معا	-8.94408
▁وهذا	-8.94433
▁H	-8.94463
عند	-8.94533
تع	-8.94542
▁0	-8.94583
▁ana	-8.94595
▁جعل	-8.94617
🥰	-8.94673
▁أهلا	-8.94929
دام	-8.94934
▁مور	-8.94984
▁مرت	-8.94994
زوج	-8.95047
ائم	-8.9509
▁انو	-8.95114
▁جو	-8.95238
▁ياخو	-8.95259
▁والد	-8.95348
خدم	-8.95536
to	-8.9561
▁ماذا	-8.95627
▁i	-8.95643
ضع	-8.95831
مات	-8.95878
عرب	-8.95919
صلح	-8.95973
▁راجل	-8.96091
▁هذو	-8.96095
▁الحكاية	-8.96111
لكم	-8.96126
علي	-8.96147
😢😢	-8.96293
دعم	-8.96408
▁واصل	-8.96439
ديد	-8.96495
تكم	-8.96647
جه	-8.9668
دى	-8.9671
▁الدار	-8.96911
رفع	-8.96932
▁طلب	-8.97011
▁الرحمن	-8.97056
كور	-8.97143
سلام	-8.97155
ريح	-8.97204
▁نوع	-8.97253
▁وبارك	-8.97254
👍	-8.97256
راق	-8.97272
يدة	-8.97321
تكلم	-8.97333
قع	-8.9734
عمل	-8.97414
▁ساعة	-8.97444
نو	-8.97582
وط	-8.9773
▁الإسلام	-8.97806
▁دون	-8.97824
▁عندما	-8.97902
▁ينجح	-8.98134
فات	-8.98242
💗	-8.9827
▁=	-8.98327
ركز	-8.98329
▁8	-8.98436
▁كم	-8.98453
▁هادا	-8.98486
ترك	-8.98529
▁هاذا	-8.98645
علا	-8.98648
▁sa	-8.98652
▁وليت	-8.98678
▁تجي	-8.9872
▁رضي	-8.98728
▁هم	-8.98741
▁خلق	-8.98767
▁ليوم	-8.98865
▁شوي	-8.98961
▁جميل	-8.99033
▁طيبة	-8.99037
▁بسم	-8.99063
▁اتمنى	-8.99094
▁المع	-8.99126
▁تف	-8.99154
▁كن	-8.99205
▁وكان	-8.99212
▁الاستاذ	-8.99316
بدا	-8.99479
▁تص	-8.99506
▁سم	-8.9956
بات	-8.99613
▁مليون	-8.99633
▁ba	-8.99731
حفض	-8.99833
▁فقد	-8.99924
ho	-8.99994
لحق	-9.00011
لام	-9.00016
فوت	-9.00088
▁P	-9.00149
جامع	-9.00156
S	-9.00227
▁جديدة	-9.00286
🤍	-9.00324
شعر	-9.00491
▁تاريخ	-9.00496
▁نش	-9.00502
عر	-9.00567
▁تب	-9.00573
▁😭😭	-9.00717
▁te	-9.00775
صا	-9.01053
▁عندها	-9.01055
▁فهم	-9.01073
رجع	-9.01076
▁لهم	-9.0111
L	-9.0122
خلع	-9.0131
سى	-9.01335
▁الليل	-9.01404
حم	-9.01404
▁شوية	-9.01551
▁وقال	-9.01599
▁شاف	-9.01602
▁تقدر	-9.01802
قب	-9.01849
▁بقا	-9.02043
▁!!	-9.02071
est	-9.02081
حط	-9.02139
▁ري	-9.02244
▁تحيا	-9.02327
▁يع	-9.02332
▁الرعب	-9.02342
▁cha	-9.02363
شرح	-9.02369
▁بخير	-9.02465
▁حكم	-9.02491
▁كاش	-9.02504
▁والأ	-9.02537
سير	-9.02579
▁أول	-9.02697
عمر	-9.02726
▁خوف	-9.02808
▁انه	-9.02848
▁خلاص	-9.02917
شوف	-9.03072
است	-9.03084
▁شابة	-9.03139
الة	-9.03207
قتل	-9.03219
كش	-9.03278
▁فت	-9.03366
▁الشر	-9.03448
كرم	-9.03478
رسل	-9.03525
حة	-9.03539
خذ	-9.03638
▁نروح	-9.0384
▁dir	-9.03876
▁وليس	-9.03945
▁وإ	-9.03978
▁شاءلله	-9.04223
شبه	-9.04239
▁شوف	-9.04357
▁الأم	-9.04503
▁الطب	-9.04558
يمة	-9.0457
قرأ	-9.04586
▁خرج	-9.04648
▁حيث	-9.04663
▁بد	-9.04708
▁حتا	-9.04761
▁نفهم	-9.04774
mi	-9.04779
▁مواضيع	-9.04793
▁me	-9.04802
▁‏	-9.04809
▁غريب	-9.04837
▁معانا	-9.0487
▁تهدر	-9.05064
وري	-9.05066
رقد	-9.05097
▁فرحة	-9.05249
▁السنة	-9.05285
▁مقترحات	-9.05335
▁شعب	-9.05429
صب	-9.05455
▁فلسطين	-9.05602
▁فيديوهات	-9.0562
طول	-9.05676
▁سيد	-9.05689
▁بدون	-9.05705
▁نورمال	-9.05769
▁كنا	-9.05813
▁خاطر	-9.05875
ليل	-9.05891
▁بأن	-9.05897
دري	-9.05921
لقيت	-9.05947
طلع	-9.06006
▁لايك	-9.06016
▁حسب	-9.06065
▁صدق	-9.06275
جوز	-9.06464
▁ديت	-9.06555
▁أمر	-9.06683
▁يجيب	-9.06684
▁ساهل	-9.06734
▁تعب	-9.06738
▁K	-9.06758
▁الض	-9.06826
▁😍	-9.06897
▁البر	-9.0691
حش	-9.06944
كبر	-9.0695
▁14	-9.06981
▁انك	-9.07034
▁مه	-9.07177
▁وعليكم	-9.07217
🎉	-9.07302
▁قليل	-9.07342
تزوج	-9.07356
قاد	-9.07444
▁تر	-9.07512
وفي	-9.07527
رزق	-9.07593
قرا	-9.07684
طلق	-9.07715
راس	-9.07736
مير	-9.07774
▁نفسي	-9.07845
سان	-9.07943
▁وأن	-9.07984
يوم	-9.08019
ik	-9.08022
▁خوتي	-9.08058
▁اك	-9.08114
▁محل	-9.08186
ساعد	-9.08203
▁ديرو	-9.08208
▁مشاء	-9.08278
والد	-9.08279
▁ايا	-9.0829
▁بت	-9.08325
▁سأ	-9.08462
▁هكذا	-9.08555
أس	-9.08591
انية	-9.08627
درس	-9.0863
▁💔	-9.08655
▁تقرا	-9.08658
صور	-9.08688
▁بدا	-9.08693
▁نع	-9.08763
جاوب	-9.08773
▁شكراا	-9.0881
▁الأخ	-9.08862
ذن	-9.09067
هدر	-9.09122
▁ممتاز	-9.09148
▁كبيرة	-9.09239
▁رجل	-9.0931
▁bac	-9.09357
▁هاك	-9.09398
▁عز	-9.09524
جميع	-9.09575
تبع	-9.09619
▁شكر	-9.09829
▁يقدر	-9.09869
▁🤍	-9.09944
▁يدي	-9.09972
ؤمن	-9.10105
همش	-9.10155
▁ادعو	-9.10183
يتك	-9.10188
▁لقد	-9.10306
قري	-9.10354
حاول	-9.105
▁نبدا	-9.1051
▁مازال	-9.10651
عطي	-9.10778
▁الاسلام	-9.10783
يني	-9.10795
▁نفرح	-9.10812
حص	-9.1085
▁حكا	-9.10862
▁كلام	-9.10869
▁نجيبو	-9.10893
»	-9.10977
زم	-9.10977
▁صالح	-9.11258
▁راكم	-9.11287
▁سورة	-9.11313
خا	-9.11325
خاف	-9.11517
▁نب	-9.11519
شهد	-9.11575
our	-9.11577
▁تخ	-9.11585
▁زعما	-9.1159
مين	-9.11756
▁خا	-9.11765
▁النص	-9.11766
▁يحفظ	-9.11768
nt	-9.11786
▁الجزء	-9.11789
شاء	-9.11796
▁دخلت	-9.11843
▁وجزاك	-9.11948
ادي	-9.11949
تواصل	-9.11956
▁عجبتني	-9.12251
وجه	-9.12415
▁الادب	-9.12427
▁راس	-9.1243
فيديو	-9.12495
▁أبي	-9.12605
نق	-9.12779
رم	-9.13025
غني	-9.13075
▁عودة	-9.13085
وار	-9.13343
▁معنا	-9.13374
▁video	-9.1338
جزاء	-9.13427
▁خر	-9.13517
za	-9.13533
▁أع	-9.13712
▁جميعا	-9.1373
▁أحب	-9.13874
▁وحدي	-9.139
بك	-9.13929
ارات	-9.13958
ضاء	-9.13978
▁مخ	-9.14004
مون	-9.14005
▁طول	-9.14055
▁هيا	-9.14213
▁مثلا	-9.14293
▁سلم	-9.14312
▁الوكيل	-9.14348
▁قرا	-9.14435
op	-9.14509
صول	-9.14509
▁فيكم	-9.14624
▁جاي	-9.14711
▁الكثير	-9.14826
▁ترك	-9.14839
▁أبو	-9.14889
▁الث	-9.1496
▁هادو	-9.14967
▁القمة	-9.15062
سمع	-9.15097
▁القلب	-9.15118
nd	-9.15122
▁قص	-9.15137
اوي	-9.15152
H	-9.15178
▁وقد	-9.15241
vi	-9.15342
▁البي	-9.15346
▁بركاته	-9.15747
وقف	-9.15749
▁عندنا	-9.15784
▁🎉	-9.15814
▁kh	-9.15825
▁نلقا	-9.15985
▁we	-9.16044
حسب	-9.16115
▁هد	-9.16208
▁en	-9.16224
ميل	-9.1635
▁الشخص	-9.16373
▁يخرج	-9.16383
▁تحط	-9.16401
▁تبع	-9.16421
يلنا	-9.1643
؛	-9.16518
▁مبارك	-9.16622
▁السل	-9.16848
▁القر	-9.169
غل	-9.16934
لقا	-9.16961
▁نسيت	-9.17001
ضرب	-9.17093
طرح	-9.17099
▁يست	-9.17154
زة	-9.17208
▁الخط	-9.17315
راف	-9.17445
▁التعليق	-9.17501
نفع	-9.17586
af	-9.17615
ine	-9.1763
▁عدد	-9.17672
▁مقال	-9.17761
▁ابوني	-9.17769
▁والديك	-9.17804
رار	-9.17827
دفع	-9.17854
▁تحية	-9.18046
ka	-9.1821
رقي	-9.18252
نب	-9.18257
▁عين	-9.18305
▁ث	-9.18358
وح	-9.18359
زو	-9.18369
▁مكاش	-9.18424
ut	-9.18549
▁يدخل	-9.18629
▁ثلاث	-9.18717
▁مريض	-9.18878
اغ	-9.18879
باس	-9.18929
▁الرد	-9.19116
▁سب	-9.1913
▁ولاد	-9.19136
اقة	-9.19141
▁الاخت	-9.19332
▁عالم	-9.19353
داء	-9.19394
راض	-9.19426
قم	-9.19472
مشي	-9.19565
▁40	-9.196
فصل	-9.19627
وجد	-9.19632
▁so	-9.19634
▁حياتك	-9.19675
خلط	-9.19794
دب	-9.19815
▁اخو	-9.1986
▁نموت	-9.19922
▁الجلفة	-9.19957
▁رائعة	-9.19965
▁أخرى	-9.20006
▁✨	-9.20049
ولنا	-9.20102
رضى	-9.20152
ولو	-9.20352
▁نكون	-9.20356
▁المغرب	-9.20365
’	-9.20376
▁الجزائري	-9.20506
▁تعيشي	-9.20513
ضا	-9.20514
▁عاد	-9.2056
▁ينجحك	-9.2066
شار	-9.20674
دور	-9.20681
▁الثالث	-9.20719
▁يرحمها	-9.20779
عيد	-9.20811
سف	-9.20876
▁يخليك	-9.20914
▁السي	-9.20945
▁العربي	-9.21004
▁لعزيز	-9.2101
▁حرام	-9.2102
ربح	-9.2107
▁مز	-9.2113
ja	-9.21144
10	-9.21162
▁قاعد	-9.2128
▁اجعل	-9.21303
تعب	-9.21379
gh	-9.21394
▁O	-9.21409
▁ننجحو	-9.21438
خلاص	-9.21489
▁هايل	-9.21539
▁نسقسيك	-9.21563
صار	-9.21581
▁ثق	-9.21588
▁غالط	-9.21654
صيل	-9.21715
لاق	-9.21727
▁بلييز	-9.2175
?	-9.21769
خلو	-9.21786
▁🇩🇿	-9.21816
R	-9.21829
▁100	-9.21844
بارك	-9.21888
▁حم	-9.21895
▁تاعي	-9.21978
▁قسم	-9.22004
▁ايام	-9.22062
طريق	-9.22133
▁يخ	-9.22135
▁R	-9.2217
▁الحديث	-9.22175
▁هاذو	-9.22188
▁بعيد	-9.22354
ظلم	-9.22373
▁مستجابة	-9.22508
▁الحال	-9.22559
؟!	-9.22561
kom	-9.22626
▁ألف	-9.22629
تعلم	-9.22699
▁تخوف	-9.2271
▁يهدر	-9.22729
▁لمن	-9.22784
شهر	-9.22823
رحب	-9.22848
حقيق	-9.22849
▁كتب	-9.22891
▁جر	-9.22987
🖤	-9.23072
طع	-9.23117
▁فرح	-9.23131
💕	-9.23154
▁G	-9.23171
▁الأول	-9.23214
بدأ	-9.23311
ach	-9.23318
نتظر	-9.23424
▁سبب	-9.23523
قيم	-9.23709
▁عاود	-9.23842
صدر	-9.23919
▁ڨاع	-9.2393
▁je	-9.2394
▁يرزقك	-9.23961
▁#	-9.23984
▁خاص	-9.2404
▁اخرى	-9.24199
▁سو	-9.24324
▁مليحة	-9.24364
lna	-9.24383
▁أمين	-9.24418
▁هذاك	-9.24519
▁?	-9.24545
عط	-9.24553
▁وكي	-9.24565
😍	-9.24631
oo	-9.24669
▁بص	-9.24725
▁صغير	-9.24767
قديم	-9.24917
▁ga	-9.24969
▁خلا	-9.25103
▁سعيد	-9.25139
▁قادر	-9.2514
▁E	-9.25144
ونس	-9.25157
▁r	-9.25164
يفة	-9.25204
تس	-9.2531
▁متابع	-9.25324
بقا	-9.25387
▁ونعم	-9.25416
▁قالت	-9.25426
رات	-9.2549
▁جامي	-9.25531
▁🥰	-9.25605
lah	-9.25755
▁اريد	-9.25779
hom	-9.25798
فس	-9.25804
▁داخل	-9.2582
▁❤️❤️	-9.2585
نع	-9.25908
▁الوطن	-9.25929
▁عط	-9.25951
وى	-9.25999
▁عرفت	-9.2604
▁حد	-9.26104
▁رحت	-9.26167
ختي	-9.26175
▁ندخل	-9.262
▁مسكين	-9.26209
شعب	-9.26286
▁اليوتيوب	-9.26302
عظم	-9.26324
▁التوفيق	-9.26348
خص	-9.26429
▁ولو	-9.26477
▁ليلة	-9.26499
▁جيب	-9.26601
لب	-9.26614
▁لفيديو	-9.26621
▁e	-9.26807
لعب	-9.26906
احة	-9.26933
▁ڨ	-9.27041
زلت	-9.27053
▁الاب	-9.27063
▁حياتي	-9.27158
▁والسلام	-9.2733
ضيف	-9.2747
▁جز	-9.27475
▁معاه	-9.27567
▁باقي	-9.27601
ران	-9.27605
حبس	-9.27645
▁يفرحك	-9.2767
▁طاح	-9.27698
سخ	-9.27726
▁عمي	-9.27742
▁لانو	-9.27754
حول	-9.27768
▁ne	-9.2779
▁السر	-9.27808
▁وفلسفة	-9.27829
▁مق	-9.27837
▁نديرو	-9.27852
▁جزء	-9.2796
ent	-9.28033
▁فكرة	-9.28088
أخذ	-9.28182
▁رغم	-9.28208
▁صانع	-9.28309
▁حين	-9.2838
▁vidéo	-9.28438
لات	-9.2849
om	-9.28537
عوض	-9.28537
ستر	-9.28578
▁تعليقي	-9.28582
إن	-9.28617
زين	-9.28636
▁أخ	-9.28677
▁خفت	-9.28683
ولة	-9.28703
ضل	-9.28759
فع	-9.28819
▁عشر	-9.28908
▁يوجد	-9.28973
▁👍	-9.28989
باك	-9.29043
▁نسأل	-9.29066
▁اعلم	-9.29086
▁جميلة	-9.29169
▁تخرج	-9.29176
K	-9.29192
ناس	-9.29253
▁يق	-9.29264
عتبر	-9.29349
▁يجعل	-9.29351
▁باغي	-9.29387
▁فديو	-9.2943
▁التاريخ	-9.29634
ند	-9.29759
▁تفهم	-9.2979
▁الجميع	-9.29807
▁للا	-9.29815
▁ki	-9.2989
▁Ma	-9.29892
سمح	-9.29898
▁ضيف	-9.29932
سنة	-9.29973
▁بلاك	-9.3005
▁ايضا	-9.30085
قصد	-9.30142
▁نفسه	-9.30244
▁شاءالله	-9.30253
▁جاء	-9.30272
قه	-9.30478
▁صحا	-9.30529
اذ	-9.30563
▁فن	-9.30622
▁احد	-9.30624
▁خي	-9.30689
قلب	-9.30701
▁باذن	-9.30744
▁عندهم	-9.30787
▁قدر	-9.30795
▁تلقا	-9.30957
موت	-9.30988
لول	-9.31112
▁ضحك	-9.3112
▁رقم	-9.31122
fi	-9.31128
▁بار	-9.31185
خل	-9.31237
ستعمل	-9.31264
▁الدعاء	-9.31273
نظر	-9.31275
▁بسك	-9.3131
▁بكري	-9.3133
دية	-9.31374
عكس	-9.31431
قاء	-9.31473
▁صار	-9.31575
▁for	-9.31663
هما	-9.31722
▁الدروس	-9.3191
توب	-9.3206
▁نتبع	-9.32147
💪	-9.3225
▁Ya	-9.32255
▁الأس	-9.32319
عاود	-9.32335
▁كانو	-9.32336
sa	-9.32347
▁kho	-9.3237
ولاد	-9.32476
lh	-9.32485
▁عباد	-9.3254
بناء	-9.32554
ie	-9.32635
▁تحل	-9.32867
▁ديال	-9.32879
▁نصيحة	-9.3292
▁ريضا	-9.32922
فك	-9.32995
بكي	-9.33046
▁يشوف	-9.33085
▁يما	-9.33107
▁بان	-9.33119
تعرف	-9.33124
▁تقبل	-9.33149
▁بلاد	-9.33156
▁سلسلة	-9.3316
اللهم	-9.33327
خلف	-9.33362
▁يديرو	-9.33411
▁الجميل	-9.33427
▁مك	-9.33493
▁رأي	-9.33494
▁رياض	-9.33561
▁اداب	-9.33582
قط	-9.33742
▁had	-9.33822
▁el	-9.33837
شري	-9.33925
▁الطيب	-9.33996
▁التح	-9.34021
▁وصل	-9.34089
حضر	-9.3414
▁القناة	-9.34175
▁مم	-9.34189
▁الشي	-9.34214
allah	-9.34216
▁محب	-9.34323
وحد	-9.34478
▁تل	-9.34486
▁«	-9.34506
▁حن	-9.34585
▁تفرجت	-9.34719
▁مشكور	-9.34776
▁الآ	-9.3487
▁الانسان	-9.34876
▁الاخ	-9.3493
▁العلي	-9.34987
▁11	-9.34993
شكرا	-9.35064
▁الإنسان	-9.35086
▁تست	-9.35118
ذر	-9.35125
ter	-9.35128
▁تستاهل	-9.35173
▁لحكاية	-9.35177
▁😅😅	-9.35264
▁اغفر	-9.35273
مار	-9.35402
ضحك	-9.35429
▁خبر	-9.35431
▁جل	-9.35475
روب	-9.35484
مثال	-9.35511
▁ربما	-9.35525
▁تدخل	-9.35543
نطق	-9.35564
▁رجع	-9.35595
▁وزيد	-9.35647
▁ولكل	-9.35657
▁البا	-9.35694
▁ديما	-9.35744
▁دعو	-9.35783
▁رايح	-9.35786
▁مفهمتش	-9.3581
ائق	-9.35831
▁اكبر	-9.35854
غرب	-9.35863
B	-9.35903
▁نخدم	-9.35981
im	-9.35983
▁البيت	-9.3601
▁راكليطا	-9.3603
▁صف	-9.36031
لون	-9.36049
▁بسبب	-9.36068
▁di	-9.36092
▁يش	-9.36092
طيب	-9.36218
ابة	-9.36287
جمل	-9.36289
▁النار	-9.36297
▁كتر	-9.36301
▁pro	-9.36334
▁🤲🤲	-9.36341
ضيع	-9.36362
ok	-9.36504
▁يهدي	-9.36549
هرب	-9.36579
▁ليست	-9.36671
سباب	-9.36733
▁يقرا	-9.36751
▁مؤ	-9.36801
▁أتمنى	-9.36814
▁فهو	-9.36849
▁_	-9.36873
▁يقولو	-9.36946
حافظ	-9.3697
ولك	-9.36979
▁خلال	-9.37041
▁حو	-9.37056
▁الحقيقة	-9.37131
▁باينة	-9.37138
▁الجديد	-9.37169
▁المرأة	-9.37171
▁na	-9.37171
▁سما	-9.37201
000	-9.37204
استاذ	-9.37219
▁طب	-9.37332
▁خص	-9.37395
▁أيضا	-9.37454
▁عضو	-9.37455
▁اصلا	-9.37455
▁تروح	-9.37517
▁pour	-9.37524
▁طيب	-9.3757
▁اجمعين	-9.37712
عوذ	-9.37823
كيف	-9.37831
▁امر	-9.37853
طبق	-9.37902
سمي	-9.37999
طال	-9.38023
▁que	-9.38028
عاف	-9.38028
▁اخ	-9.38054
ci	-9.38084
▁مهم	-9.382
افة	-9.38388
che	-9.38591
▁ريدكس	-9.38621
▁آل	-9.38721
بيض	-9.38727
🤣	-9.38729
بان	-9.38758
▁ماهو	-9.38768
▁لغات	-9.38774
ضة	-9.38799
▁شيكور	-9.38813
▁دعواتكم	-9.38875
دق	-9.38944
▁يشفي	-9.38962
▁con	-9.39099
▁is	-9.39132
▁and	-9.39163
سن	-9.39183
ge	-9.39193
▁سهل	-9.39282
▁دراهم	-9.39351
فاء	-9.39378
▁صديق	-9.39421
▁صغيرة	-9.39488
▁التعليم	-9.395
▁كال	-9.39572
▁أح	-9.39601
qu	-9.39657
▁بفضل	-9.3967
▁جاب	-9.39694
▁نعاود	-9.39739
▁شك	-9.39747
روع	-9.39761
▁عايش	-9.39773
▁بالا	-9.39774
▁قن	-9.39788
طار	-9.39925
بالي	-9.3995
}	-9.3999
عب	-9.4007
ائية	-9.40134
▁اح	-9.40143
▁2023	-9.40183
راني	-9.40252
▁rabi	-9.4032
▁ادب	-9.40424
▁عربية	-9.40491
▁كريم	-9.4053
▁pas	-9.40639
▁al	-9.40726
▁دم	-9.40763
▁نستنا	-9.40826
ki	-9.40875
▁لينا	-9.40932
▁المح	-9.40948
▁fa	-9.40961
▁البن	-9.40984
▁السحر	-9.4101
▁فتح	-9.4101
▁ادا	-9.41029
▁لماذا	-9.41043
be	-9.41064
▁نحس	-9.41075
▁se	-9.41125
سهل	-9.41235
chi	-9.4126
▁صحاب	-9.41294
▁13	-9.41503
▁الكل	-9.41519
▁st	-9.41537
▁فقال	-9.41573
▁ويجعل	-9.4162
▁للجميع	-9.41622
▁الأمر	-9.4165
ولد	-9.41713
bo	-9.41728
▁قدام	-9.41738
مليون	-9.41749
🥹	-9.41787
15	-9.41823
fa	-9.4186
▁لأنه	-9.41922
▁كثير	-9.41941
▁بيت	-9.42035
▁غلط	-9.42078
بير	-9.42106
▁لكي	-9.4211
اسي	-9.42148
▁Ra	-9.42158
▁ماهي	-9.42227
▁🎉🎉	-9.42229
كنت	-9.42314
).	-9.42317
▁باب	-9.42384
▁الرجل	-9.4242
▁الآخر	-9.42456
▁خرجت	-9.42482
▁يرحمو	-9.42623
▁للباك	-9.42636
بقى	-9.4272
ی	-9.42752
خطأ	-9.42893
▁الاخير	-9.4323
▁الدر	-9.43253
▁احب	-9.43291
▁فضلكم	-9.4338
▁صلي	-9.43401
▁أحسن	-9.43452
▁نتوما	-9.43495
ll	-9.43559
صبر	-9.43595
ca	-9.4363
لله	-9.43673
▁o	-9.43693
▁النفس	-9.43707
ومة	-9.43752
▁عدم	-9.43837
لبس	-9.43839
▁القيم	-9.43917
ia	-9.43922
دن	-9.44216
▁نجاح	-9.44219
▁الموت	-9.44227
▁قمة	-9.44238
بدع	-9.44244
لع	-9.4432
يدي	-9.4434
▁da	-9.4445
ضم	-9.44466
▁أعلم	-9.44472
▁الخوف	-9.44621
mo	-9.44635
▁الرسول	-9.44657
عون	-9.44847
▁توحشناك	-9.44964
▁تاعو	-9.44965
قف	-9.44976
▁نفسك	-9.44982
▁جمع	-9.44997
بني	-9.45009
▁نكمل	-9.4501
▁دوك	-9.45045
▁غدوة	-9.45069
▁نظر	-9.45072
سجل	-9.45103
▁باين	-9.45184
رضا	-9.45185
▁des	-9.45282
▁أسأل	-9.45375
قابل	-9.45391
▁طفلة	-9.45404
▁الثانية	-9.45441
▁فى	-9.45567
pp	-9.45658
50	-9.45702
▁تبان	-9.45771
▁استغفر	-9.45801
وبة	-9.45829
▁نشاء	-9.45843
▁زاد	-9.45849
حدث	-9.45871
ريد	-9.45877
نشر	-9.45962
▁تكمل	-9.45995
▁جملة	-9.46117
▁الجزائرية	-9.46144
▁بيهم	-9.46164
min	-9.46185
▁بقي	-9.46219
ائه	-9.46248
▁Hhh	-9.46308
▁الرحيم	-9.4631
▁لعب	-9.46389
▁V	-9.46418
▁المست	-9.46437
▁كذلك	-9.4648
▁تزيد	-9.46505
ré	-9.46523
سك	-9.46606
🙏	-9.46641
▁Ch	-9.46654
▁مرض	-9.46784
▁قادة	-9.46788
▁أستاذة	-9.46802
▁mn	-9.46819
بق	-9.4682
▁الشكر	-9.46961
رأ	-9.47088
▁الآن	-9.47211
▁قط	-9.47368
😭😭	-9.4737
▁♥	-9.47371
eur	-9.47376
▁عبر	-9.47403
▁حسيت	-9.47497
▁العزيز	-9.47547
جماع	-9.47573
▁wlh	-9.47721
ii	-9.47733
▁بإ	-9.47751
ver	-9.47762
tion	-9.47763
▁يوفق	-9.47817
▁بع	-9.47832
▁🔥	-9.47858
▁J	-9.4793
▁بنات	-9.47992
▁الاسئلة	-9.47998
▁مول	-9.48024
▁الكو	-9.48085
▁تهبل	-9.48115
▁عش	-9.48141
عام	-9.48265
▁💗	-9.48273
اوية	-9.4831
جرب	-9.48355
▁يروح	-9.48404
😮😮	-9.48459
سوء	-9.48547
hk	-9.48621
▁ارحم	-9.48625
lk	-9.4872
▁وضع	-9.48771
▁وسهلا	-9.48829
▁فاهم	-9.48831
فرنس	-9.48832
حظ	-9.48919
▁لغ	-9.4905
ظل	-9.49051
▁تأ	-9.49086
▁شف	-9.49132
▁أل	-9.49153
قصص	-9.49167
▁ناجحين	-9.4918
جود	-9.49191
▁بدل	-9.49266
ثم	-9.49281
▁شغل	-9.49311
▁سحر	-9.49321
▁راي	-9.49341
▁Bac	-9.49361
بلي	-9.49433
خطر	-9.49452
زن	-9.49516
▁منذ	-9.4953
▁عنها	-9.49541
▁صراحة	-9.49562
▁عنده	-9.49605
ation	-9.49759
▁الاولى	-9.49804
▁🤣	-9.49838
▁فرحت	-9.49924
😮	-9.49964
▁فري	-9.49968
ظاهر	-9.50077
▁الوحيد	-9.50108
▁نحل	-9.50135
▁الأرض	-9.50194
▁لخر	-9.50195
▁مين	-9.50243
صير	-9.503
▁حرة	-9.50316
جين	-9.50323
جيل	-9.50325
▁شو	-9.50353
دد	-9.50414
▁لهذا	-9.50445
▁nta	-9.5049
▁دقيقة	-9.50622
▁😊😊	-9.50749
ادر	-9.50768
▁جيد	-9.5078
ليس	-9.50931
▁التق	-9.51047
▁معاكم	-9.51081
▁معند	-9.51107
▁فالم	-9.51113
▁Ha	-9.51191
▁الطريقة	-9.51195
▁والحمد	-9.51413
▁لعام	-9.51415
▁سنين	-9.51475
▁برا	-9.51582
▁بلادي	-9.51626
ودة	-9.51634
ساء	-9.51718
سامح	-9.51735
▁المجهر	-9.51819
▁تولي	-9.51872
حكي	-9.5188
ur	-9.51882
زير	-9.5189
جع	-9.51904
▁للأ	-9.51932
▁الاجتماعي	-9.5198
فى	-9.5199
▁فما	-9.5207
جعل	-9.52073
▁حمد	-9.52094
▁اصبح	-9.52119
▁تلك	-9.52132
عتمد	-9.52153
▁السياسي	-9.52239
صنع	-9.52364
▁Y	-9.52366
▁باسكو	-9.52425
▁مغ	-9.52442
▁الاخر	-9.5249
خاص	-9.52695
قار	-9.52715
▁قصد	-9.52744
عبد	-9.52825
▁🥹	-9.52849
▁تنجح	-9.52864
▁صورة	-9.52868
تحصل	-9.53057
▁النهار	-9.53102
ng	-9.53227
▁😍😍	-9.53307
▁نست	-9.53316
▁انتي	-9.53326
▁الكلام	-9.53341
▁علاقة	-9.53364
داد	-9.53371
سئل	-9.53435
▁تدير	-9.53492
▁تبارك	-9.53514
حوس	-9.53576
lou	-9.53597
حترم	-9.53599
▁واه	-9.53627
طالب	-9.53714
دخول	-9.53715
زد	-9.53762
صيب	-9.53773
درت	-9.53873
اخر	-9.53933
▁ابدا	-9.54079
▁والع	-9.54093
يتها	-9.54123
▁الباب	-9.5415
▁المرا	-9.54168
علام	-9.54218
▁برو	-9.54252
▁دعا	-9.54292
▁الحا	-9.54367
▁نقولو	-9.5444
▁قب	-9.54442
▁وجعل	-9.545
زر	-9.54513
حزن	-9.54565
كار	-9.54601
وصف	-9.5468
غلب	-9.54711
صال	-9.54736
▁u	-9.54779
▁روطار	-9.54804
اهر	-9.54812
▁فلسفة	-9.54815
لغ	-9.54938
توقع	-9.54981
▁هك	-9.54983
فار	-9.54985
قض	-9.55028
▁نرقد	-9.55078
▁عيني	-9.55176
16	-9.55176
عقب	-9.55198
▁حديث	-9.552
شكل	-9.55214
▁ذر	-9.5524
سية	-9.5528
do	-9.55357
▁وعند	-9.55374
▁شويا	-9.55383
يحة	-9.55396
▁أصبح	-9.55418
▁صعيب	-9.55421
age	-9.55446
▁مما	-9.55473
▁بالت	-9.55485
ul	-9.55494
▁un	-9.55559
هدا	-9.55639
لن	-9.55779
der	-9.55889
▁نحي	-9.55914
▁فلم	-9.55927
بسيط	-9.55944
▁أكبر	-9.55996
▁يتم	-9.56113
صفح	-9.56187
Z	-9.56245
▁بهذا	-9.56319
▁العرب	-9.56483
▁سهلا	-9.5652
▁redx	-9.56547
🤣🤣	-9.56556
▁حاج	-9.56636
▁دك	-9.5666
▁الثورة	-9.56695
▁{	-9.56754
))	-9.56774
▁ركليطة	-9.56861
▁وحده	-9.56894
tou	-9.56959
▁كلمات	-9.56966
▁الصالح	-9.5711
▁يسر	-9.57141
حساس	-9.57239
▁وبعد	-9.57271
▁الخل	-9.57306
▁يزيد	-9.57422
▁تجد	-9.57449
حصل	-9.57485
▁فم	-9.57607
▁يصبر	-9.57649
▁الرو	-9.57654
th	-9.57697
▁ka	-9.57699
سود	-9.57831
طبع	-9.57867
▁يهديك	-9.57934
▁بغيت	-9.57998
جات	-9.58048
▁U	-9.58072
▁كف	-9.58185
▁ادعي	-9.58241
▁سوف	-9.58293
▁يرزق	-9.58336
▁المحتوى	-9.58402
▁do	-9.58481
▁القسم	-9.58509
▁معنى	-9.58537
دعاء	-9.58541
▁قلبك	-9.58553
▁توصل	-9.58585
عز	-9.58607
▁واو	-9.58608
▁سنوات	-9.58797
سمى	-9.58848
▁نكتب	-9.58911
▁وهل	-9.58967
dr	-9.58983
قى	-9.58986
▁وراني	-9.59021
علوم	-9.59079
▁يعلم	-9.59116
▁أولا	-9.59122
▁لانه	-9.59146
▁فضل	-9.59166
ثن	-9.59167
ستغفر	-9.59192
عتقد	-9.59225
ضعف	-9.59246
▁يحط	-9.59254
رعب	-9.5926
مرأة	-9.59358
مسؤول	-9.59365
▁دارو	-9.59407
▁نحفظ	-9.59411
▁صلاة	-9.59431
▁استمر	-9.59524
دني	-9.59619
▁الباكالوريا	-9.59643
▁🙏	-9.59663
▁الذ	-9.597
▁السيد	-9.59717
▁موجود	-9.59745
▁حالة	-9.59844
tch	-9.59973
💜	-9.59984
♥️	-9.59996
ــ	-9.59998
▁الرا	-9.60065
▁طفل	-9.6007
😘	-9.60075
▁حاس	-9.60113
يسر	-9.60258
▁نقولك	-9.60281
ک	-9.60285
دون	-9.60339
بور	-9.60347
▁مكنية	-9.60404
▁😮	-9.60411
he	-9.60468
▁المواضيع	-9.60484
▁واخ	-9.60494
▁هذيك	-9.60541
خلق	-9.60547
🥲	-9.60586
▁نخاف	-9.60593
▁فان	-9.60624
قلق	-9.60628
▁مسلسل	-9.60646
▁العشرية	-9.60684
▁وإنا	-9.60711
▁،،	-9.60771
حاسب	-9.60794
داب	-9.60856
▁ديريلنا	-9.60882
بح	-9.60886
▁قديم	-9.60899
▁الكريمة	-9.60899
▁no	-9.6091
▁بالأ	-9.60946
رحل	-9.60965
▁كت	-9.60989
💙	-9.61074
▁بلد	-9.61154
iya	-9.61174
▁يطيح	-9.61223
▁ومع	-9.61261
▁الدرس	-9.61296
▁المجتمع	-9.61321
شد	-9.6135
▁الاس	-9.61364
شغل	-9.61441
sta	-9.61462
ess	-9.61603
▁فور	-9.61608
▁الفا	-9.61622
▁خال	-9.61666
ke	-9.61698
▁رزق	-9.61819
▁إله	-9.61869
▁تتم	-9.61895
▁وينجح	-9.6194
ai	-9.6197
▁ضرب	-9.62047
نصح	-9.62076
مكان	-9.62187
▁يغفر	-9.62197
▁تعيشو	-9.62256
سمو	-9.62327
دود	-9.62337
▁يحفظكم	-9.62352
تحدث	-9.62388
▁هوا	-9.62411
if	-9.62462
ic	-9.62494
▁الغرب	-9.62538
▁طلعو	-9.62606
داع	-9.62611
▁سبحانه	-9.62615
U	-9.62733
صوص	-9.62851
عفو	-9.63004
▁أرجو	-9.6306
بعض	-9.63084
▁اجل	-9.63131
▁حقا	-9.63142
▁فلي	-9.63183
▁بداية	-9.63212
▁2021	-9.63234
اسم	-9.63265
▁رك	-9.6331
تميز	-9.63319
سابق	-9.63321
▁شوفي	-9.6334
▁طلع	-9.63381
oul	-9.63418
ائح	-9.63429
باقي	-9.63472
شهاد	-9.63538
قسم	-9.63538
عمار	-9.63542
▁أجمعين	-9.63683
▁مجرد	-9.63687
▁والن	-9.63688
بنت	-9.63738
▁المعلومات	-9.63803
▁💪	-9.63844
▁حلمي	-9.63879
rou	-9.63898
▁الشيطان	-9.6393
▁برنامج	-9.64034
▁وفقك	-9.64054
▁فعلا	-9.64064
كاين	-9.64088
أم	-9.64135
▁((	-9.64155
▁حكي	-9.64171
▁تقدم	-9.6419
▁طبعا	-9.64203
قود	-9.64207
▁يفهم	-9.64222
تلك	-9.64246
▁نشري	-9.64335
▁معاهم	-9.64383
▁يوسف	-9.64392
▁أجل	-9.64415
rk	-9.64444
برك	-9.6448
فون	-9.64567
بلغ	-9.64571
▁يسهل	-9.64662
▁Ana	-9.64699
rr	-9.64732
ائك	-9.64746
▁يوتيوبر	-9.6475
🌹	-9.64752
اساتذة	-9.64783
▁نجي	-9.64786
▁نشر	-9.64828
حشم	-9.6483
▁يجوز	-9.64873
▁هايلة	-9.64908
حذف	-9.64931
جام	-9.64949
▁قناتك	-9.64962
▁كملت	-9.65009
ont	-9.6506
▁راحت	-9.65066
▁ضد	-9.65079
▁تقولي	-9.65167
طرق	-9.65184
▁200	-9.65208
cha	-9.6521
رؤ	-9.65232
💖	-9.65263
▁اعطي	-9.65315
▁نربح	-9.65321
جتمع	-9.65444
▁هذ	-9.65555
▁مشترك	-9.65566
▁اسطورة	-9.65567
C	-9.6558
▁معلومات	-9.65695
▁نحوس	-9.65698
▁الدراسة	-9.65716
P	-9.65808
زان	-9.6581
▁الامر	-9.65817
hab	-9.65821
▁🥲	-9.65954
▁إليك	-9.65983
ائع	-9.66005
si	-9.66011
▁يفرح	-9.66017
▁صور	-9.66037
▁مادة	-9.66038
▁الحمدلله	-9.66071
شعور	-9.66108
ختار	-9.66127
نظم	-9.66149
▁لخ	-9.66254
▁هدر	-9.66263
▁ميلود	-9.66405
ant	-9.6643
nn	-9.665
▁ظل	-9.66576
▁احبك	-9.66706
un	-9.66734
▁التف	-9.66749
▁tr	-9.66756
روس	-9.66779
▁best	-9.66906
▁درك	-9.66978
▁of	-9.67005
هدف	-9.67083
▁اجمل	-9.67088
▁سمع	-9.67289
▁حفظك	-9.6729
ائب	-9.67393
▁الفلسفة	-9.67401
صحيح	-9.67469
▁اسكو	-9.67476
نجليزي	-9.67496
▁قدم	-9.67517
▁عارف	-9.67526
▁رجال	-9.67569
14	-9.67588
فرق	-9.67614
▁السب	-9.67645
▁قبره	-9.67681
▁توك	-9.67701
ائن	-9.67764
pe	-9.67779
▁ذا	-9.6783
مجهود	-9.67922
▁غالي	-9.68018
▁الرائع	-9.68032
عقل	-9.68158
▁لايف	-9.68164
قصة	-9.68217
▁وغير	-9.68239
▁المسلم	-9.68281
قضي	-9.68304
▁حرف	-9.6832
خسر	-9.68341
▁طولت	-9.68369
كسر	-9.68484
%	-9.68591
▁الدولة	-9.68668
12	-9.6869
الف	-9.68732
▁وأنا	-9.68746
نصر	-9.68855
خمم	-9.68894
🫶	-9.6902
سجد	-9.6926
pi	-9.69316
▁قاتل	-9.69344
▁موقع	-9.69382
▁شئ	-9.69409
▁وفقنا	-9.69467
▁العقل	-9.69475
▁ونفرح	-9.69485
▁كفاه	-9.69488
•	-9.69493
👌	-9.69496
▁الحكايات	-9.69546
▁حسبي	-9.69598
▁الصورة	-9.69612
▁الزوج	-9.69644
17	-9.69839
ماذا	-9.69848
▁الطريق	-9.69855
aa	-9.69856
جنب	-9.69896
▁الشرح	-9.69904
22	-9.7
أخلاق	-9.70052
▁يخدم	-9.70193
▁الأسئلة	-9.70252
elle	-9.70294
▁تجرب	-9.703
صلاح	-9.70329
▁فرنسا	-9.70415
افق	-9.70432
▁عرف	-9.70718
▁الأستاذ	-9.70731
▁طويل	-9.70769
▁merci	-9.70793
▁ملخص	-9.70818
▁قضية	-9.70849
▁والسلوان	-9.7088
▁ضحكت	-9.70883
▁توحشنا	-9.7096
▁روحو	-9.70965
▁تسما	-9.70968
هذا	-9.7104
▁الحي	-9.71084
▁مجهوداتك	-9.71231
▁موت	-9.71238
▁rah	-9.71255
فرج	-9.71295
▁رجعت	-9.71339
▁قولي	-9.71415
mou	-9.7148
▁حبيب	-9.71495
▁ورد	-9.71519
▁التر	-9.71607
▁🌹	-9.71614
حال	-9.71672
شخص	-9.71677
▁الجاي	-9.71746
G	-9.71818
▁علمي	-9.71863
♥	-9.71932
▁المد	-9.71977
and	-9.71992
▁حقيقة	-9.71999
▁تمارين	-9.72075
▁إي	-9.72117
▁الصباح	-9.72227
▁bi	-9.72241
▁كملي	-9.7226
نزع	-9.72358
▁تحس	-9.72484
▁شكل	-9.72488
▁تعطي	-9.72503
تأكد	-9.72508
نقل	-9.72606
▁الفيديوهات	-9.72623
▁درنا	-9.72641
▁ناجح	-9.72754
▁هداك	-9.72781
▁he	-9.72837
رمي	-9.72852
▁اسمي	-9.72895
▁صبر	-9.72926
▁اجر	-9.7297
▁الكبير	-9.72975
٠	-9.72999
▁مصطلحات	-9.73118
▁man	-9.73145
▁أيام	-9.73175
▁مميز	-9.73208
مرة	-9.73223
😔	-9.7323
قلت	-9.73239
▁تقدري	-9.73245
▁جال	-9.73319
▁خت	-9.73333
▁الحالة	-9.73376
▁حاول	-9.73385
تخيل	-9.73433
▁الفردوس	-9.73445
▁جب	-9.73521
▁الاجابة	-9.73546
▁وأنت	-9.73564
▁صاحبي	-9.73597
رز	-9.73605
صغر	-9.73654
▁بوركت	-9.73674
▁قولو	-9.7377
لاحظ	-9.73778
صلاة	-9.73787
▁قع	-9.73801
▁الحم	-9.73805
▁ارحمه	-9.73824
أهل	-9.73876
▁تغ	-9.73921
30	-9.73966
▁جناته	-9.73978
▁صرات	-9.73996
▁اعرف	-9.73998
▁ho	-9.74051
ts	-9.74077
▁La	-9.74147
▁حلقة	-9.74152
وضع	-9.74198
وصل	-9.74205
▁رايك	-9.7421
▁حس	-9.74284
ڤ	-9.7439
▁وصلت	-9.74406
▁نزيد	-9.74415
ميمز	-9.74457
اخلاق	-9.74481
ستفاد	-9.74481
ظيف	-9.7449
▁عزيز	-9.74538
▁تجريبية	-9.74572
▁الأولى	-9.7461
▁ذو	-9.74622
▁مض	-9.74692
▁المقال	-9.74696
▁كتبت	-9.74742
▁دعاء	-9.74748
▁الجواب	-9.74766
▁اقرا	-9.74783
▁عذاب	-9.74795
▁رواه	-9.74807
حف	-9.7483
🙄	-9.74889
ريس	-9.74965
💓	-9.74979
▁عجب	-9.75034
▁العلوم	-9.75052
▁ذات	-9.75075
▁شيئا	-9.75239
▁مراجعة	-9.75319
الق	-9.75367
▁قصصك	-9.75381
▁النساء	-9.75425
واحد	-9.7543
▁ابو	-9.75439
▁الواقع	-9.75443
N	-9.75449
▁المرة	-9.75477
ضغط	-9.75541
▁mais	-9.75569
ستمر	-9.7562
بول	-9.75785
قس	-9.75787
🤦	-9.75985
▁ومت	-9.76045
▁الصوت	-9.76184
تعليم	-9.76193
dj	-9.76201
🤔	-9.7625
▁غالب	-9.76353
عراب	-9.7638
جبت	-9.76432
تقبل	-9.7644
▁معاها	-9.76541
▁si	-9.76634
▁مرات	-9.76668
درك	-9.76671
😊😊	-9.76704
ment	-9.76854
شعار	-9.76931
▁أجر	-9.76945
▁rak	-9.76973
▁الرجال	-9.77014
▁ye	-9.7704
😎	-9.77048
▁شب	-9.77049
▁حبس	-9.77067
▁مهما	-9.77097
▁😂❤	-9.77097
😹	-9.77187
▁والديا	-9.77226
ali	-9.77247
ندم	-9.77314
▁ترد	-9.77331
▁لذلك	-9.77336
▁سياسي	-9.77342
▁اسمها	-9.77351
▁نحكي	-9.77371
▁خارج	-9.77391
end	-9.77454
▁لغة	-9.77466
▁والس	-9.77514
تحرك	-9.77521
▁منيش	-9.77626
▁فطورك	-9.7774
غلط	-9.77755
▁تقل	-9.77759
▁يفرج	-9.77777
▁اولا	-9.77784
▁ليل	-9.77804
▁الساعة	-9.77809
▁صعب	-9.77814
▁حدث	-9.77859
▁الحقيقي	-9.77912
جانب	-9.77939
خاطر	-9.77958
▁البقرة	-9.7803
▁**	-9.78107
▁هدو	-9.78129
▁شيئ	-9.78131
▁ضر	-9.78174
▁إنشاء	-9.78292
▁حلم	-9.78401
▁الخر	-9.78414
▁عمرك	-9.78498
جهل	-9.78597
▁تكتب	-9.78608
عجبني	-9.78651
▁ينت	-9.78666
▁خمس	-9.78681
▁مستحيل	-9.78735
▁تخدم	-9.78799
ريف	-9.78822
تعامل	-9.78846
عدد	-9.78859
▁يكن	-9.79036
▁يريد	-9.79065
غلق	-9.79092
▁احت	-9.7915
▁نقلك	-9.79267
تعلق	-9.79327
فشل	-9.79389
▁nch	-9.79499
تغيير	-9.79519
ac	-9.79529
▁يجعلها	-9.79568
▁الحرب	-9.79568
ive	-9.79589
▁سوجي	-9.7959
▁المعدل	-9.79655
▁2022	-9.79708
▁بينا	-9.79737
▁بني	-9.79768
😥	-9.79873
عالم	-9.79901
▁مصر	-9.79908
دراسة	-9.79921
▁دنيا	-9.79934
▁القران	-9.79936
▁نشوفو	-9.80067
▁ملك	-9.80105
▁جزاكم	-9.8022
😅😅	-9.8029
😉	-9.80304
😇	-9.80352
▁أخت	-9.80366
▁à	-9.80479
▁الحب	-9.80505
▁يعطي	-9.80528
💞	-9.80544
أدب	-9.80572
▁عقل	-9.80573
رون	-9.80586
▁بالنجاح	-9.80592
▁courage	-9.80592
▁يدعيلي	-9.80597
▁موفق	-9.80606
18	-9.80642
طيح	-9.80653
🙃	-9.80689
▁فهي	-9.80737
▁❤🎉	-9.8082
صعب	-9.80935
▁par	-9.8096
▁يفتح	-9.80998
ect	-9.81006
▁ويرزق	-9.81179
طح	-9.81245
▁والح	-9.81325
▁go	-9.81379
19	-9.81392
▁يبان	-9.81508
▁طل	-9.81565
غسل	-9.81567
صاحب	-9.81607
😑	-9.81657
▁معرف	-9.81756
🤗	-9.81851
لازم	-9.81869
▁زر	-9.81954
▁وكيف	-9.82014
▁رابط	-9.82029
▁الطيبة	-9.82042
▁~	-9.82123
😒	-9.82487
▁يخي	-9.82503
▁علابالي	-9.82528
F	-9.82591
▁زين	-9.82605
▁Sa	-9.82608
▁2020	-9.82691
▁co	-9.82703
▁اولاد	-9.82712
▁يستر	-9.82746
▁حيقون	-9.82832
▁احكي	-9.82832
▁درا	-9.82838
▁الزواج	-9.82848
▁عيد	-9.82852
▁الرياضيات	-9.82868
~	-9.82889
برد	-9.82899
ly	-9.82918
13	-9.82956
▁بنفس	-9.82997
صط	-9.83
خد	-9.83028
▁يحكي	-9.83049
كامل	-9.83065
🎉🎉	-9.8307
tha	-9.83084
▁ارواح	-9.83368
هبط	-9.83413
فور	-9.83498
فريق	-9.83509
co	-9.83576
مبر	-9.83662
طم	-9.83711
▁يتبع	-9.83765
11	-9.8377
🌸	-9.83819
دس	-9.8394
▁الحاجة	-9.83956
▁فيلم	-9.83981
▁المواد	-9.84014
رور	-9.84042
▁البط	-9.84064
▁مثال	-9.84069
زوم	-9.84203
▁نجحت	-9.84284
▁وهران	-9.84289
▁وراه	-9.84299
lm	-9.84308
▁الدو	-9.84366
▁إسم	-9.84386
ina	-9.84396
▁القط	-9.84416
▁رياضيات	-9.84464
▁صب	-9.84478
▁السم	-9.84494
▁نورمالمو	-9.84522
قراء	-9.84549
▁مقر	-9.84623
▁وقيل	-9.84692
ذب	-9.84746
▁غدوا	-9.84799
▁عاش	-9.84835
غريب	-9.84858
ضن	-9.8487
تنمر	-9.8489
قن	-9.85095
▁au	-9.85102
لزم	-9.85153
▁ja	-9.85158
▁👌	-9.85217
▁30	-9.85262
▁ملاح	-9.85271
▁الصالحة	-9.8528
جاهل	-9.85289
▁العلمية	-9.85339
▁مبعد	-9.8539
▁it	-9.85439
▁الشهر	-9.85465
bou	-9.85524
▁الطفل	-9.85565
Q	-9.85574
▁خايفة	-9.85579
▁وحدك	-9.85586
▁والإ	-9.85596
نهار	-9.85672
▁اجتماعي	-9.85709
ham	-9.8596
▁😔	-9.8597
▁مشروع	-9.86057
▁نتاعك	-9.86076
▁بشر	-9.8611
طبخ	-9.86114
res	-9.86122
|	-9.86132
▁جمال	-9.86137
▁دايما	-9.86147
▁الصحيح	-9.86175
توقف	-9.8625
▁رايحة	-9.86262
▁قيمة	-9.86329
صديق	-9.86338
▁وفقني	-9.86372
١	-9.86437
▁البشر	-9.86441
▁توحشت	-9.86443
رن	-9.86483
▁راقي	-9.8654
أسئلة	-9.86542
▁طالب	-9.86607
▁نهاية	-9.86638
▁يقل	-9.86784
▁دعم	-9.86838
▁♥️	-9.86854
▁يطلع	-9.86872
▁واعر	-9.86878
ran	-9.86879
▁وجود	-9.86942
▁مدة	-9.87001
▁الطا	-9.87053
عاني	-9.87076
▁الأن	-9.87207
💀	-9.87257
▁صاي	-9.87291
▁تخصص	-9.873
▁تفسير	-9.87336
فعال	-9.87358
▁ريداكس	-9.87359
▁vous	-9.8736
طاع	-9.87368
▁مجال	-9.87383
▁هما	-9.87393
▁طرف	-9.87396
▁الاسم	-9.87445
أمن	-9.87447
▁ثالث	-9.87514
▁ساعات	-9.87573
▁1-	-9.87731
dou	-9.8779
▁hada	-9.87793
▁عب	-9.87802
▁؛	-9.87941
gra	-9.87945
▁اكتب	-9.87993
▁لعل	-9.88001
▁نقراو	-9.88071
▁رأيك	-9.88111
▁ناقص	-9.88169
▁خالتي	-9.8821
▁th	-9.88216
▁مانيش	-9.88291
▁العلميين	-9.88339
no	-9.88422
فيق	-9.88436
▁عجبني	-9.88473
▁يبقى	-9.88524
رث	-9.88525
▁سرد	-9.8854
▁نرجع	-9.88544
سوس	-9.88558
توكل	-9.88571
▁فليل	-9.88574
kaya	-9.88591
عامل	-9.88612
ذل	-9.887
صحاب	-9.88748
>	-9.88758
ort	-9.88805
سق	-9.88903
▁تفضل	-9.88936
▁منتدى	-9.88969
▁ميت	-9.8897
▁البو	-9.88972
فلسطين	-9.88983
▁هدرت	-9.89065
💯	-9.89073
▁جنانه	-9.89089
▁كذا	-9.89111
▁وجدت	-9.89196
▁نوصل	-9.89202
hm	-9.89205
▁إنسان	-9.89293
▁ردي	-9.89293
▁نقطة	-9.8935
▁بالضحك	-9.8936
▁يخلي	-9.89368
عجز	-9.89378
art	-9.89392
▁الصغير	-9.89433
▁تطبيق	-9.89441
▁ex	-9.89516
جاج	-9.89528
▁su	-9.8955
▁وصحبه	-9.896
سوق	-9.89629
zid	-9.89649
لعقوبة	-9.89694
زواج	-9.89701
▁بطريقة	-9.89714
ef	-9.89795
▁الكلمات	-9.89837
▁une	-9.89922
نج	-9.89938
▁دارت	-9.89969
لخص	-9.8997
▁بشكل	-9.89971
dk	-9.90019
▁وحنا	-9.90042
▁ويفرح	-9.90059
▁الجمعة	-9.9006
Y	-9.90173
▁est	-9.90242
ثلاث	-9.90311
▁احترام	-9.90357
▁جربت	-9.90421
▁يكفي	-9.9043
▁ذويه	-9.905
▁ونتا	-9.90528
▁كانوا	-9.90532
ستضاف	-9.90543
انستا	-9.90575
^	-9.90603
▁sepia	-9.9071
▁عالي	-9.90727
▁حقيقية	-9.90745
شوق	-9.90884
▁خطرة	-9.90886
▁كثيرة	-9.9093
▁,,	-9.90944
kan	-9.90967
آل	-9.90973
▁بيد	-9.90991
▁يشفيك	-9.91008
▁الدم	-9.91016
▁Merci	-9.9103
▁فمن	-9.91051
ty	-9.91088
▁يتفرج	-9.91102
عذر	-9.91149
▁الارض	-9.91162
▁الفديو	-9.9119
▁تاوعك	-9.91245
▁البناء	-9.91256
▁ليفيديو	-9.91406
▁يرحمهم	-9.91469
شاعر	-9.91582
▁بلغ	-9.91637
▁خدمت	-9.91649
▁ادخل	-9.91971
غن	-9.92016
▁pr	-9.92065
▁واجعل	-9.92109
▁عظم	-9.92115
شرب	-9.92129
حمر	-9.9215
بيل	-9.9216
lik	-9.92195
قرآن	-9.92242
ؤثر	-9.92254
▁حبيبي	-9.92286
▁bon	-9.92313
راج	-9.9236
▁العلماء	-9.92416
▁كاس	-9.92418
▁القيامة	-9.92429
um	-9.9249
نترنت	-9.9252
▁دزاير	-9.9254
▁ندو	-9.92566
ich	-9.92577
▁يرحمه	-9.92587
▁2-	-9.92608
by	-9.92656
▁hadi	-9.92812
ass	-9.9289
▁يقتل	-9.92978
▁السبب	-9.9314
ضاف	-9.93154
▁kif	-9.93169
هود	-9.93177
▁الدول	-9.93177
▁العب	-9.93187
❌	-9.93189
▁اكيد	-9.93229
▁الأدب	-9.93229
ada	-9.93263
▁نقدرو	-9.93263
▁حياته	-9.93265
تكون	-9.93267
تشبيه	-9.93378
🙏🙏	-9.93428
bar	-9.93464
منتدى	-9.93476
▁سور	-9.9352
OU	-9.93542
▁تريد	-9.9366
▁تجعل	-9.93699
▁أحمد	-9.9372
آم	-9.93746
▁mon	-9.93806
▁لدار	-9.93845
▁اميين	-9.9391
▁شخصيا	-9.93914
▁زمان	-9.93947
▁***	-9.9404
🤲🏻	-9.94063
▁واضح	-9.94247
▁الحج	-9.94293
طلاق	-9.94306
▁العضو	-9.9431
▁مدرسة	-9.94331
▁an	-9.94403
▁سمانة	-9.94403
▁العادة	-9.94446
▁تقني	-9.94463
🤩	-9.94507
▁حطيت	-9.94536
🏼	-9.94563
▁نتع	-9.94591
تأخر	-9.94607
▁الرحمان	-9.94626
▁ثانوي	-9.9468
tt	-9.94685
▁يرجع	-9.94687
نعم	-9.94698
▁الفكرة	-9.94742
▁دمت	-9.94862
▁العيد	-9.9487
▁طويلة	-9.94891
▁سواء	-9.95177
▁الوالدين	-9.95183
نوع	-9.95283
ختلف	-9.95321
▁أجمل	-9.9533
▁الفصل	-9.95481
tre	-9.95577
▁يشوفو	-9.9558
▁يضحك	-9.95599
▁تصريحية	-9.9577
aire	-9.95795
▁الحسن	-9.958
▁متى	-9.95804
▁حياة	-9.95905
▁mat	-9.95906
com	-9.95929
ترحيب	-9.95997
▁الفرنسية	-9.96054
▁مختلف	-9.96057
▁الأخير	-9.96132
mar	-9.96136
▁توفيق	-9.9622
▁نبينا	-9.96252
▁رجعوني	-9.96267
▁القادر	-9.96269
قترح	-9.96381
▁عدل	-9.96451
سعادة	-9.96478
▁سبيل	-9.96481
كتاب	-9.96506
è	-9.9651
▁الحكم	-9.96518
٢	-9.96519
▁غادي	-9.96537
▁نسكن	-9.96547
▁رأس	-9.96634
سار	-9.96675
💚	-9.96687
▁شخصية	-9.96713
غضب	-9.96793
ثار	-9.9681
▁❤😊	-9.96813
▁نقص	-9.96819
▁سامية	-9.9685
▁المشبه	-9.96904
▁شاب	-9.96961
▁😁	-9.96989
▁sah	-9.97097
jib	-9.97113
▁مدير	-9.97192
▁علمية	-9.97228
▁فيديوهاتك	-9.97289
▁??	-9.97368
طير	-9.97527
▁راقد	-9.97566
▁نضحك	-9.97595
رغم	-9.97607
▁ضعيف	-9.97616
▁تسمع	-9.97677
جاهد	-9.9769
داخل	-9.97751
▁آله	-9.97752
▁kima	-9.97812
▁نتمنا	-9.97818
▁يصرا	-9.97998
توضيح	-9.98017
▁نفسها	-9.98037
شترك	-9.98055
▁مخل	-9.98118
آن	-9.98224
▁الشرع	-9.98243
أكيد	-9.98257
▁🎉❤	-9.9826
▁عظيم	-9.9833
▁لإ	-9.98357
🌷	-9.98397
غيب	-9.98404
▁اقسم	-9.98408
▁عقلي	-9.98431
▁يسترك	-9.98433
▁أريد	-9.98454
▁عيب	-9.98494
▁واا	-9.98515
per	-9.98594
▁💜	-9.98609
▁ذاك	-9.98676
ck	-9.98677
▁البرنامج	-9.98766
شجع	-9.98815
▁شرحك	-9.98819
▁تبقى	-9.9885
▁الرعد	-9.98853
ique	-9.98854
hal	-9.98899
تقدم	-9.98932
▁✅	-9.98957
ft	-9.98963
▁الواحد	-9.98964
▁دليل	-9.98965
تباع	-9.98986
▁صراتلي	-9.99006
▁عس	-9.99071
▁Rabi	-9.99122
▁مستوى	-9.99183
▁ترى	-9.99206
▁ghir	-9.99207
▁وصفات	-9.99228
زار	-9.99237
▁المميز	-9.99287
▁الكلمة	-9.99288
▁يشافي	-9.9934
ji	-9.99363
kon	-9.99368
☺️	-9.99397
▁الخاص	-9.99437
▁طيح	-9.99535
تجاوز	-9.99567
😐	-9.99612
▁Dir	-9.99645
كشف	-9.99718
▁النوع	-9.99759
اسلوب	-9.99898
معرفة	-9.99933
▁استعارة	-9.99986
▁المبارك	-10.0002
فاق	-10.0008
▁kha	-10.001
▁كلامك	-10.0015
تواجد	-10.0016
aya	-10.0046
▁قلوب	-10.005
ssi	-10.0051
▁الحبيب	-10.0051
صحح	-10.0056
▁تعمل	-10.0057
▁الفرق	-10.0057
ff	-10.0062
مجموع	-10.0067
حداث	-10.0071
▁عربي	-10.0097
ement	-10.0098
▁المزيد	-10.0103
▁جواب	-10.0104
فرض	-10.0104
ركب	-10.0111
alah	-10.0114
▁يعاون	-10.0117
▁نلحق	-10.0118
▁نهدر	-10.0129
زب	-10.0131
▁مادام	-10.0132
tni	-10.0132
▁ترجع	-10.0134
▁الوحدة	-10.0146
▁طالبة	-10.0149
▁اروع	-10.015
▁تقريبا	-10.0156
ضمن	-10.0161
▁صوالح	-10.0161
▁واذا	-10.0165
غار	-10.0166
*****	-10.0172
حرق	-10.0187
▁للأسف	-10.0193
دقيق	-10.0213
▁يكتب	-10.0214
ثناء	-10.0217
▁العفو	-10.0222
▁ومبعد	-10.0224
▁صوتك	-10.023
▁الجملة	-10.0236
wi	-10.0237
▁متابعة	-10.0238
▁بالمعدل	-10.0239
يوتيوب	-10.0253
▁يسمع	-10.0256
‍♀️	-10.0256
▁امتحان	-10.0263
▁الأب	-10.0276
فال	-10.0285
سبب	-10.0288
شير	-10.0292
▁العائلة	-10.0294
▁وميلود	-10.0299
▁اسئلة	-10.0306
▁يعيشك	-10.0308
جلس	-10.0312
▁فرق	-10.0312
tik	-10.0313
حذر	-10.0318
▁راسي	-10.032
mp	-10.0322
▁حسبنا	-10.0322
▁نراجع	-10.0322
▁تذكر	-10.0333
▁اعط	-10.0335
▁خخ	-10.0339
ستفيد	-10.0341
فرد	-10.0348
▁رواح	-10.0353
▁حابين	-10.0354
▁كأن	-10.0355
حاب	-10.0357
▁nchlh	-10.036
▁يوتيوب	-10.0361
▁الخاصة	-10.0369
▁Bon	-10.0378
eux	-10.0379
2025	-10.0382
أفكار	-10.0385
▁للاسف	-10.0387
▁شريت	-10.0388
▁الكر	-10.0399
▁مقدرتش	-10.0402
▁افهم	-10.0404
تفوق	-10.0404
▁تضحك	-10.0406
رسول	-10.0417
▁تربح	-10.0417
histoire	-10.042
▁دولة	-10.0429
حركة	-10.0442
▁يوصل	-10.0445
عاقب	-10.0447
حاضر	-10.0449
▁love	-10.0452
▁الماضي	-10.0454
▁يعمل	-10.046
▁الشيء	-10.0463
▁يلعب	-10.0464
▁يسكن	-10.0466
▁بالاك	-10.0467
▁ملف	-10.047
▁بيض	-10.0477
▁الإجابة	-10.0485
▁مثواه	-10.0488
▁شرع	-10.049
▁الطفلة	-10.0501
▁العاصمة	-10.0502
▁نوض	-10.0507
صوت	-10.051
▁برحمتك	-10.0512
▁😢❤	-10.0517
تلاميذ	-10.0517
مارس	-10.0533
▁ضرك	-10.0539
▁du	-10.0545
تصرف	-10.0547
▁دل	-10.0552
▁الدور	-10.0555
نجم	-10.056
▁مافهمتش	-10.0563
▁تبدا	-10.057
▁بيسك	-10.0572
ite	-10.0577
عان	-10.0585
▁sur	-10.0588
▁part	-10.0589
▁–	-10.0592
سرع	-10.0596
ثاني	-10.0605
ريض	-10.0606
صالح	-10.0624
نور	-10.0625
▁yah	-10.0626
دوم	-10.0629
▁الشباب	-10.0629
درج	-10.063
يارب	-10.0634
▁جيدا	-10.0635
▁البلاد	-10.0636
▁حوايج	-10.064
▁المرور	-10.0651
▁are	-10.0655
▁يخص	-10.0655
ترشح	-10.0657
▁فهل	-10.0657
الجزائر	-10.0661
صد	-10.0665
▁dar	-10.067
▁win	-10.067
حسان	-10.0672
شعل	-10.0673
▁وإذا	-10.0674
▁الامتحان	-10.0675
سكت	-10.0675
▁السابق	-10.0678
▁السلسلة	-10.0686
آآ	-10.0689
▁الحزن	-10.0691
زح	-10.0696
pl	-10.0699
té	-10.07
▁اجد	-10.0704
🇩	-10.071
▁ونفرحو	-10.0715
▁اخوات	-10.072
▁واجب	-10.0721
▁يمد	-10.0723
▁تنصح	-10.0727
مازيغ	-10.0729
▁لست	-10.0741
سقس	-10.0747
▁نجحنا	-10.0747
▁اسمع	-10.0748
▁تخلي	-10.0748
▁tu	-10.075
▁البحر	-10.0751
▁والعافية	-10.0754
▁خدمة	-10.0766
▁فالباك	-10.0768
▁ويعطيك	-10.0768
▁الوصفة	-10.0769
▁Kh	-10.077
▁تلف	-10.0772
▁الفجر	-10.0774
بصح	-10.0778
موضوع	-10.0791
▁المراجعة	-10.0794
بسط	-10.0801
دراك	-10.083
▁الأخت	-10.0833
▁رسالة	-10.0834
ans	-10.0836
آخر	-10.0837
▁صحيت	-10.0844
▁اصل	-10.0845
بشر	-10.0846
▁الناجحين	-10.0849
حج	-10.085
▁السن	-10.0854
😁	-10.0854
▁المق	-10.0855
جسد	-10.0857
▁مباشرة	-10.0861
أستاذ	-10.087
صاص	-10.0872
ستمتع	-10.0878
▁تخاف	-10.088
سليم	-10.0895
man	-10.0899
▁عيدك	-10.0902
واجه	-10.0905
خافش	-10.0906
▁المقترحات	-10.0909
▁الغالية	-10.0919
▁تغير	-10.0923
قيد	-10.0931
رسال	-10.095
▁نحكيلك	-10.0951
▁عدة	-10.0951
▁علامة	-10.0954
▁خالي	-10.0961
▁اسال	-10.0964
▁rani	-10.0965
نجاح	-10.0966
كومونتار	-10.0971
ib	-10.0972
▁واقع	-10.0976
▁معروف	-10.0979
غب	-10.0981
▁comp	-10.0987
مصطلحات	-10.0992
wl	-10.0995
▁أبدا	-10.0996
جبر	-10.0997
mal	-10.0999
▁انتهى	-10.1
▁هاته	-10.1003
▁الراجل	-10.1009
سون	-10.1011
▁زهري	-10.1013
har	-10.1014
ثير	-10.1026
▁نصيب	-10.1032
▁باسم	-10.1035
▁نصائح	-10.1038
▁مريم	-10.104
بقي	-10.104
▁ننصحك	-10.1047
▁البيام	-10.1058
ولوج	-10.106
one	-10.1065
رتب	-10.1075
حضور	-10.1076
▁ينجحكم	-10.1076
ستغل	-10.1077
تواضع	-10.1084
▁قنشوبة	-10.1087
▁الباردة	-10.1094
▁نجحني	-10.1097
▁Redx	-10.11
عار	-10.1101
▁بلادنا	-10.1111
▁واخيرا	-10.1119
▁التالي	-10.1122
▁السوداء	-10.1127
▁هكدا	-10.1129
▁القضية	-10.1129
▁العمر	-10.1137
▁عدت	-10.114
صيف	-10.1149
▁السماء	-10.1154
▁قراءة	-10.1159
▁مفيد	-10.1164
سكو	-10.1179
wal	-10.1185
▁تعاود	-10.1186
▁شرط	-10.1196
▁هب	-10.1197
▁تشبه	-10.1213
كتفي	-10.1215
▁يهبل	-10.1218
رخ	-10.1221
▁القبر	-10.1223
تخصص	-10.1223
تخب	-10.1234
▁الصور	-10.1237
▁النثر	-10.1238
▁الرابط	-10.1242
LA	-10.1242
فديو	-10.1243
▁علابالك	-10.1252
ssa	-10.1253
جزاير	-10.1259
▁نصب	-10.126
😩	-10.1265
روق	-10.1267
??	-10.1269
▁الغيب	-10.1271
▁يوفقكم	-10.1273
دموع	-10.1273
2026	-10.1273
رغب	-10.1274
▁men	-10.1276
حدد	-10.1276
☺	-10.1276
▁المستقبل	-10.1302
مفهوم	-10.1313
▁لحد	-10.1314
صوم	-10.1317
▁مدينة	-10.1327
▁اصحاب	-10.1332
عقوب	-10.1337
▁المدرسة	-10.1341
صفر	-10.1343
▁ويحفظ	-10.1344
▁معنديش	-10.135
▁الغالي	-10.1355
▁أمام	-10.1359
رواح	-10.1364
▁dé	-10.1366
حيط	-10.137
▁روضة	-10.1382
قاعد	-10.1392
شتراك	-10.1392
▁بلاصت	-10.1403
غرام	-10.1406
سورة	-10.1406
▁الحلقة	-10.1419
▁الأعضاء	-10.1429
▁فهذا	-10.143
نحبك	-10.1431
▁التلاميذ	-10.1439
▁fl	-10.1445
▁يطول	-10.1446
▁الواسعة	-10.1452
▁ويرحم	-10.1455
fo	-10.1456
▁معرفتش	-10.1461
▁ياخي	-10.1467
نصيحة	-10.1469
▁الايام	-10.147
▁الضحك	-10.1479
▁الكتب	-10.1492
▁الفكري	-10.1498
▁مبرووك	-10.1506
رمضان	-10.1508
▁my	-10.1508
rah	-10.1514
🩷	-10.152
▁وارحمه	-10.1523
▁حكيت	-10.1537
▁hna	-10.154
▁يقال	-10.1543
دافع	-10.1543
▁معناها	-10.1546
▁انشالله	-10.1546
😏	-10.1547
ani	-10.1548
كثير	-10.1549
▁مساء	-10.155
تقن	-10.1552
ترجم	-10.1566
X	-10.1567
😆	-10.1567
▁25	-10.1575
▁غدا	-10.1579
▁المستعان	-10.1582
✌	-10.1586
▁يشافيك	-10.1588
قاب	-10.1593
▁التص	-10.1594
×	-10.1595
معدل	-10.1596
▁نخرج	-10.1597
استعارة	-10.1601
▁bla	-10.1601
جيد	-10.1601
hak	-10.1607
**	-10.1609
▁لحم	-10.161
ثور	-10.1613
سحر	-10.1615
▁باطل	-10.1621
jo	-10.1622
▁نصف	-10.1637
▁اقامة	-10.1639
▁يخبط	-10.1646
ée	-10.1654
▁يهدينا	-10.1663
بث	-10.1663
تاريخ	-10.1667
que	-10.1669
عشر	-10.1671
urs	-10.1678
شياطين	-10.1688
▁أصحاب	-10.169
▁طبيب	-10.1693
كرر	-10.1693
▁العباد	-10.1693
▁يموت	-10.1693
▁كاتب	-10.17
▁نحتاج	-10.1706
°	-10.1712
▁لبن	-10.1715
تحقق	-10.1717
باكالوريا	-10.1722
▁عباسية	-10.1722
▁تلحق	-10.1724
▁تعجبني	-10.1731
▁استااذ	-10.1733
▁wla	-10.1736
▁لسان	-10.1739
▁حتي	-10.1743
▁نحو	-10.1746
▁قدرت	-10.1755
tra	-10.1766
sse	-10.1785
▁البارح	-10.1788
‏	-10.1797
koum	-10.1798
▁بهذه	-10.1804
ill	-10.1804
▁الأمور	-10.1804
▁ثان	-10.1808
wah	-10.1812
▁ويوفقك	-10.1819
▁The	-10.1821
▁3-	-10.1822
حارب	-10.1824
▁مواد	-10.1826
تذكر	-10.1831
▁انتظار	-10.1833
صلى	-10.1834
▁المهجر	-10.1841
▁نتعلم	-10.1842
▁Sepia	-10.1852
▁مشاكل	-10.1853
فاد	-10.1854
▁خايف	-10.1861
😂❤	-10.1863
▁زمن	-10.1888
بطل	-10.1899
koun	-10.1906
تعاون	-10.1909
▁مرورك	-10.1909
شاف	-10.1914
▁المجال	-10.192
▁الزهر	-10.1925
زيار	-10.1925
خبار	-10.1934
▁جويلية	-10.1936
▁نطالب	-10.1939
▁مقترح	-10.194
▁مكتوب	-10.1941
بحر	-10.1944
‍	-10.195
إخوان	-10.1957
▁pdf	-10.1958
▁وعلاه	-10.1959
ستعمال	-10.1973
ille	-10.1973
▁سبق	-10.1984
▁الطابعة	-10.1986
▁التربية	-10.1989
فقد	-10.1991
▁لبنات	-10.1992
ۡ	-10.1993
▁ممتعة	-10.1994
▁احنا	-10.2
▁خطرا	-10.2033
▁شريك	-10.204
اصي	-10.2044
▁وقتاش	-10.2045
تمسخر	-10.2048
▁متوسط	-10.2059
▁القادم	-10.2063
طان	-10.2067
ربط	-10.2068
إيمان	-10.2071
▁الملف	-10.2084
هتمام	-10.2085
▁المدينة	-10.2086
رفد	-10.2088
🌚	-10.2093
▁جاوبوني	-10.2094
▁تسيير	-10.2109
ze	-10.2117
سؤال	-10.2129
▁شفاء	-10.2132
▁واسكنه	-10.2133
▁البعض	-10.2136
▁continuation	-10.2137
▁سطيف	-10.2137
مساعد	-10.2138
▁الإمام	-10.2141
▁عيدكم	-10.2149
حادث	-10.2159
▁إذ	-10.2166
▁النور	-10.2166
▁المسلسل	-10.2177
▁بنجاح	-10.2178
aime	-10.2193
▁فوور	-10.2201
▁حرب	-10.2201
▁احكيلنا	-10.2203
ابوني	-10.2205
▁قلوبنا	-10.2205
▁ايمان	-10.223
▁فإذا	-10.2239
V	-10.2252
▁ارزقني	-10.2261
خالف	-10.2263
ضاع	-10.2263
▁لحكايات	-10.2274
▁عصر	-10.2275
▁رجاء	-10.2278
▁الجزائريين	-10.2287
يمين	-10.2291
عارف	-10.2294
▁ويغفر	-10.2297
زهر	-10.2299
▁البخاري	-10.2305
❤️❤️	-10.232
▁جاوبني	-10.2322
▁Re	-10.2323
جور	-10.2326
😀	-10.2327
عاب	-10.2333
خرط	-10.234
▁السعادة	-10.2344
▁machi	-10.2344
▁هؤلاء	-10.2349
كومنتار	-10.2356
أمر	-10.2375
▁حسبت	-10.2376
▁Ka	-10.2392
😨	-10.2393
▁طلعت	-10.2396
▁بذلك	-10.2397
▁ادعيولي	-10.2417
▁عيشك	-10.2421
mil	-10.2423
😍😍	-10.2429
علق	-10.2429
❤🎉	-10.243
▁الراحمين	-10.243
▁الاعضاء	-10.2431
▁حاليا	-10.2434
تألق	-10.2436
▁ملاك	-10.2437
▁وصفة	-10.2438
▁your	-10.2447
▁تلعب	-10.2456
أخوات	-10.2462
▁قصتي	-10.2464
▁الشاعر	-10.2468
▁الهاتف	-10.2469
▁الإن	-10.2473
صرف	-10.2486
صناع	-10.2495
▁كحل	-10.2496
▁po	-10.2504
▁نبكي	-10.2507
▁عاون	-10.2516
▁عنوان	-10.2516
▁اساس	-10.2519
▁نظام	-10.2521
▁bro	-10.2527
سهر	-10.2529
45	-10.2531
قناة	-10.2531
▁عبارة	-10.2532
ائف	-10.2559
سعى	-10.256
جوب	-10.2564
HA	-10.2571
▁انصح	-10.2573
ذكار	-10.2579
▁Allah	-10.2583
▁saha	-10.2592
▁المؤمنين	-10.2596
سيل	-10.2609
▁قولولي	-10.2614
mel	-10.2626
▁😊❤	-10.2626
▁افكار	-10.2627
سلسل	-10.2631
ٱ	-10.2631
توحش	-10.2636
▁top	-10.2638
▁bien	-10.2643
▁واقيل	-10.2645
▁حبست	-10.2645
▁دايمن	-10.265
▁اغلب	-10.265
▁can	-10.2654
▁الزمن	-10.2663
رط	-10.2675
▁الهدرة	-10.2676
فسد	-10.268
قريب	-10.2682
▁مرور	-10.269
▁ونحن	-10.2691
▁بنادم	-10.2697
▁قسنطينة	-10.2718
قليل	-10.272
▁كفاش	-10.2721
▁مسكون	-10.2722
▁الانجليزية	-10.2726
ثلج	-10.2726
▁فرصة	-10.2742
▁this	-10.2752
صدم	-10.2755
😄	-10.2771
▁الإيمان	-10.2773
▁مستقبل	-10.2782
▁بلاصة	-10.2784
▁القلوب	-10.2788
▁وشنو	-10.2797
سيد	-10.2806
▁واسع	-10.2814
▁like	-10.2814
▁حكايتي	-10.2824
▁جغرافيا	-10.2825
▁السيبيا	-10.2826
رجل	-10.283
60	-10.2832
شتري	-10.2834
▁حمبوك	-10.2834
▁شابين	-10.2838
غادر	-10.2866
▁منقدرش	-10.2868
▁نريد	-10.2871
▁يستاهل	-10.2872
😱	-10.2879
▁الأيام	-10.2885
▁تلميذ	-10.2888
▁خيال	-10.2889
▁الموسيقى	-10.2891
ais	-10.2901
▁🖤🖤	-10.2903
▁ارمي	-10.292
▁فكرت	-10.2927
▁ديدين	-10.293
فوق	-10.2933
😌	-10.2934
تيليفون	-10.2936
▁عدنا	-10.2937
▁ذنوب	-10.2943
▁حجر	-10.2949
كتشف	-10.2975
🤲🤲	-10.2978
حضار	-10.2979
▁ملاحظة	-10.2983
▁ادعولنا	-10.2984
عادل	-10.2984
✅	-10.2984
▁المعنى	-10.2987
بلاص	-10.3008
▁kada	-10.3031
🥀	-10.3037
▁قوليلي	-10.3049
مشاركات	-10.3049
▁ديجا	-10.3053
▁pla	-10.3061
صداق	-10.3068
▁dz	-10.307
▁Le	-10.3075
خويا	-10.3077
أسلوب	-10.3078
▁الشرط	-10.308
▁صغار	-10.3082
أطفال	-10.3084
▁معلومة	-10.3086
▁يأتي	-10.3088
▁محتواك	-10.3093
▁بمعنى	-10.3108
▁ماكانش	-10.311
<	-10.3116
ڨر	-10.3127
🇩🇿	-10.313
لفظ	-10.3136
▁حاط	-10.3137
ance	-10.3142
🎀	-10.3148
▁كرهت	-10.315
ère	-10.3172
رتاح	-10.3177
AL	-10.3178
رفض	-10.3186
▁الموقع	-10.3191
▁بضحك	-10.3191
▁كثرلنا	-10.3192
زور	-10.3193
▁مفهمت	-10.3212
▁دج	-10.3218
نستغرام	-10.3223
▁الأمير	-10.3228
دروس	-10.3239
▁اخوتي	-10.324
▁ردكس	-10.3241
▁والدينا	-10.325
بخل	-10.3259
▁خاطي	-10.3263
▁السلوان	-10.3268
فلسفة	-10.3275
فطر	-10.3275
😁😁	-10.3276
\	-10.3277
▁اختيار	-10.3286
خامس	-10.3289
md	-10.3294
▁not	-10.3307
شحال	-10.3308
▁قصير	-10.3309
▁لحظة	-10.3319
▁المعلومة	-10.3327
▁آمن	-10.3337
▁أمور	-10.3345
عدل	-10.3359
lha	-10.3362
▁الراقي	-10.3378
▁حمزة	-10.3379
▁السيارة	-10.3382
▁لكتاب	-10.3383
▁ريديكس	-10.3383
▁متمني	-10.3392
كوبي	-10.3396
▁that	-10.3397
شيء	-10.3406
ھ	-10.3449
نتظار	-10.3458
خبي	-10.3462
ستفسار	-10.347
ستخدم	-10.3471
▁إبراهيم	-10.3474
80	-10.3475
▁meilleur	-10.3482
▁حصة	-10.349
▁قانون	-10.3492
▁احلى	-10.3496
▁العلامة	-10.3502
▁تبون	-10.3518
▁والنجاح	-10.3519
حديث	-10.352
▁شمس	-10.3532
▁Wa	-10.3536
▁تجري	-10.3539
صباح	-10.3564
فساد	-10.3567
▁الكرام	-10.3568
▁تمرين	-10.3575
▁هريرة	-10.359
▁بيام	-10.3599
عالج	-10.3616
▁شم	-10.3623
▁تبناج	-10.3624
▁بيان	-10.3628
▁khoya	-10.3629
▁حطلنا	-10.3633
▁qui	-10.3637
▁جيجل	-10.365
▁تافه	-10.3659
جتهد	-10.3663
▁غزة	-10.3665
houm	-10.3674
▁سمحلي	-10.3676
▁bzf	-10.3692
تمثيل	-10.3694
W	-10.3695
خطط	-10.3705
▁We	-10.3718
أكل	-10.3729
▁نتيجة	-10.3738
فتخر	-10.374
▁عييت	-10.3749
▁البداية	-10.376
▁تستحق	-10.3764
rès	-10.3769
▁reda	-10.3772
▁هبل	-10.3775
▁العافية	-10.3778
@	-10.3793
▁beaucoup	-10.3801
▁وخاصة	-10.3809
▁ركليطا	-10.3813
▁البلد	-10.3823
▁bonne	-10.383
▁خصوصا	-10.3836
عطاء	-10.3842
▁وتعالى	-10.3844
ami	-10.3848
▁fiha	-10.386
▁ملاين	-10.3873
مؤسس	-10.3883
▁بكيت	-10.3889
▁نلقى	-10.3914
▁فترة	-10.392
قارب	-10.3921
▁قاس	-10.3923
▁Je	-10.3938
▁اللغوي	-10.3939
عباد	-10.394
AN	-10.395
دليل	-10.3952
عذب	-10.3953
😞	-10.3974
▁دوما	-10.3984
▁بقوة	-10.3987
▁درلنا	-10.3988
▁زعيم	-10.3992
▁الدراسي	-10.3997
🌺	-10.4009
😡	-10.4009
▁سيارة	-10.4019
▁الخدمة	-10.4023
حكايات	-10.403
▁فرونسي	-10.4035
بالتوفيق	-10.4039
▁أدعولي	-10.4044
▁مرشح	-10.4047
▁الشمس	-10.4055
ستغفار	-10.4071
▁كبار	-10.4082
حتسب	-10.4084
▁للناس	-10.4085
▁كارثة	-10.4087
حسد	-10.4096
سلط	-10.4107
▁رابح	-10.4114
▁حقيقي	-10.4124
▁المستوى	-10.4126
▁جهة	-10.4128
▁سيكون	-10.4129
▁^^	-10.4131
😘😘	-10.4133
▁الصفحة	-10.4134
▁ياخويا	-10.4151
▁تماما	-10.4155
سنين	-10.4164
▁يستحق	-10.4182
▁~~	-10.4186
▁كفر	-10.4201
نشاله	-10.424
▁ثورة	-10.425
▁بتوفيق	-10.4256
تحرش	-10.427
▁منتديات	-10.4274
▁المتوسط	-10.4274
صيد	-10.428
طفل	-10.4295
جتماعي	-10.4297
▁ظاهرة	-10.4301
ستقبل	-10.4303
بكالوريا	-10.4303
/0	-10.4306
گ	-10.431
▁رووعة	-10.431
chof	-10.432
▁كاامل	-10.4328
▁4-	-10.433
▁قعدت	-10.435
پ	-10.4355
مقارنة	-10.4364
act	-10.4395
▁الأعلى	-10.4398
▁صفحة	-10.4413
نشالله	-10.4418
▁عباس	-10.4432
ڪ	-10.4436
▁سوى	-10.4437
إسلام	-10.4444
لاعب	-10.4449
▁بلمثل	-10.4452
ذاكر	-10.4457
▁احلام	-10.446
▁زهرة	-10.4478
▁زيدلنا	-10.4486
;	-10.4491
▁قتلتني	-10.4493
ضار	-10.4495
ence	-10.4499
♡	-10.45
▁نرجو	-10.4501
▁الزهد	-10.4504
▁تاكل	-10.4505
[	-10.4526
▁نضت	-10.4533
â	-10.4685
😓	-10.4741
😳	-10.4836
😃	-10.5017
#	-10.5157
😶	-10.5222
😕	-10.5291
✔	-10.5675
🗿	-10.5675
💛	-10.5737
٣	-10.581
﴾	-10.5915
👇	-10.5926
ê	-10.6
﴿	-10.6053
👑	-10.6139
😰	-10.6172
🤨	-10.6603
”	-10.6717
à	-10.6813
💋	-10.7101
😈	-10.7464
🩹	-10.7477
J	-10.7601
🤷	-10.7626
🤮	-10.7803
٤	-10.7867
😫	-10.788
🫡	-10.797
«	-10.8033
ç	-10.8143
💥	-10.8179
↗	-10.8461
🤌	-10.8461
😻	-10.8475
٥	-10.8502
🤭	-10.8543
☠	-10.8709
🤝	-10.8794
😣	-10.8878
😜	-10.8978
🙌	-10.8978
&	-10.9007
î	-10.9036
💫	-10.9079
👻	-10.9108
🤡	-10.9196
ï	-10.921
😋	-10.9225
⭐	-10.924
👽	-10.924
⁠	-10.9403
🦋	-10.9448
🌼	-10.9463
🫀	-10.9878
👋	-11.0132
“	-11.0164
💝	-11.0409
🙋	-11.0426
۞	-11.0849
$	-11.0849
👀	-11.0866
🥳	-11.0918
😵	-11.1041
🤯	-11.1041
😬	-11.1094
😖	-11.1183
ࢪ	-11.1219
٦	-11.1309
☹	-11.1418
😤	-11.1473
😟	-11.1715
٩	-11.1715
🐧	-11.1753
🏽	-11.1905
😚	-11.2002
٨	-11.2119
👎	-11.2139
⬆	-11.2198
🤬	-11.2377
☝	-11.2398
🎓	-11.2418
ô	-11.2705
😪	-11.2768
🥴	-11.281
🤢	-11.2852
💐	-11.2894
ᅠ	-11.2958
٧	-11.2979
🫂	-11.3001
🇦	-11.313
ہ	-11.3239
❎	-11.3283
🇵	-11.3394
🇲	-11.3711
😠	-11.3734
🤧	-11.3968
💩	-11.4063
🧐	-11.4255
🙁	-11.4353
✋	-11.4402
🔪	-11.4402
·	-11.4427
💎	-11.4451
👊	-11.4576
ۚ	-11.5038
🇸	-11.5038
🤎	-11.5038
{	-11.5079
🌝	-11.5118
↖	-11.5332
🐸	-11.5332
ۖ	-11.5386
🕋	-11.5441
💟	-11.5495
🧡	-11.555
❣	-11.5604
§	-11.5606
‌	-11.5634
⚡	-11.5746
👈	-11.5746
🌟	-11.5774
٫	-11.5774
🙆	-11.5803
🔴	-11.586
🤓	-11.5917
É	-11.5946
✊	-11.6061
😲	-11.612
🫠	-11.6238
🌙	-11.6357
😝	-11.6508
🤫	-11.6538
٪	-11.6848
👹	-11.688
—	-11.6943
👩	-11.7039
😿	-11.7039
🤪	-11.7071
💃	-11.7104
🍯	-11.7136
û	-11.7201
🙈	-11.7299
🇧	-11.7366
🕊	-11.7432
😙	-11.7466
💘	-11.76
🤏	-11.7634
🥶	-11.7634
🌿	-11.7669
�	-11.7772
😯	-11.7946
–	-12.3606
▪	-12.7047
‬	-12.9715
♀	-13.204
♂	-13.3101
‪	-13.4218
💨	-13.5637
🇿	-14.2065
