{
  "version": "1.0",
  "truncation": null,
  "padding": null,
  "added_tokens": [
    {
      "id": 0,
      "content": "[PAD]",
      "single_word": false,
      "lstrip": false,
      "rstrip": false,
      "normalized": false,
      "special": true
    },
    {
      "id": 1,
      "content": "[UNK]",
      "single_word": false,
      "lstrip": false,
      "rstrip": false,
      "normalized": false,
      "special": true
    },
    {
      "id": 2,
      "content": "[CLS]",
      "single_word": false,
      "lstrip": false,
      "rstrip": false,
      "normalized": false,
      "special": true
    },
    {
      "id": 3,
      "content": "[SEP]",
      "single_word": false,
      "lstrip": false,
      "rstrip": false,
      "normalized": false,
      "special": true
    },
    {
      "id": 4,
      "content": "[MASK]",
      "single_word": false,
      "lstrip": false,
      "rstrip": false,
      "normalized": false,
      "special": true
    },
    {
      "id": 5,
      "content": "[NEWLINE]",
      "single_word": false,
      "lstrip": false,
      "rstrip": false,
      "normalized": false,
      "special": true
    }
  ],
  "normalizer": null,
  "pre_tokenizer": {
    "type": "WhitespaceSplit"
  },
  "post_processor": null,
  "decoder": {
    "type": "WordPiece",
    "prefix": "##",
    "cleanup": false
  },
  "model": {
    "type": "WordPiece",
    "unk_token": "[UNK]",
    "continuing_subword_prefix": "##",
    "max_input_chars_per_word": 1000,
    "vocab": {
      "[PAD]": 0,
      "[UNK]": 1,
      "[CLS]": 2,
      "[SEP]": 3,
      "[MASK]": 4,
      "[NEWLINE]": 5,
      "\u0000": 6,
      "!": 7,
      "\"": 8,
      "#": 9,
      "$": 10,
      "%": 11,
      "&": 12,
      "'": 13,
      "(": 14,
      ")": 15,
      "*": 16,
      "+": 17,
      ",": 18,
      "-": 19,
      ".": 20,
      "/": 21,
      "0": 22,
      "1": 23,
      "2": 24,
      "3": 25,
      "4": 26,
      "5": 27,
      "6": 28,
      "7": 29,
      "8": 30,
      "9": 31,
      ":": 32,
      ";": 33,
      "<": 34,
      "=": 35,
      ">": 36,
      "?": 37,
      "@": 38,
      "A": 39,
      "B": 40,
      "C": 41,
      "D": 42,
      "E": 43,
      "F": 44,
      "G": 45,
      "H": 46,
      "I": 47,
      "J": 48,
      "K": 49,
      "L": 50,
      "M": 51,
      "N": 52,
      "O": 53,
      "P": 54,
      "Q": 55,
      "R": 56,
      "S": 57,
      "T": 58,
      "U": 59,
      "V": 60,
      "W": 61,
      "X": 62,
      "Y": 63,
      "Z": 64,
      "[": 65,
      "\\": 66,
      "]": 67,
      "^": 68,
      "_": 69,
      "`": 70,
      "a": 71,
      "b": 72,
      "c": 73,
      "d": 74,
      "e": 75,
      "f": 76,
      "g": 77,
      "h": 78,
      "i": 79,
      "j": 80,
      "k": 81,
      "l": 82,
      "m": 83,
      "n": 84,
      "o": 85,
      "p": 86,
      "q": 87,
      "r": 88,
      "s": 89,
      "t": 90,
      "u": 91,
      "v": 92,
      "w": 93,
      "x": 94,
      "y": 95,
      "z": 96,
      "{": 97,
      "|": 98,
      "}": 99,
      "~": 100,
      "": 101,
      "": 102,
      "": 103,
      "": 104,
      "": 105,
      "¡": 106,
      "¢": 107,
      "£": 108,
      "¤": 109,
      "¥": 110,
      "¦": 111,
      "§": 112,
      "©": 113,
      "«": 114,
      "¬": 115,
      "­": 116,
      "®": 117,
      "°": 118,
      "±": 119,
      "¶": 120,
      "·": 121,
      "»": 122,
      "¿": 123,
      "À": 124,
      "Á": 125,
      "Â": 126,
      "Ã": 127,
      "Ä": 128,
      "Å": 129,
      "Æ": 130,
      "Ç": 131,
      "È": 132,
      "É": 133,
      "Ê": 134,
      "Ë": 135,
      "Ì": 136,
      "Í": 137,
      "Î": 138,
      "Ï": 139,
      "Ð": 140,
      "Ñ": 141,
      "Ò": 142,
      "Ó": 143,
      "Ô": 144,
      "Õ": 145,
      "Ö": 146,
      "×": 147,
      "Ø": 148,
      "Ù": 149,
      "Ú": 150,
      "Û": 151,
      "Ü": 152,
      "Ý": 153,
      "Þ": 154,
      "ß": 155,
      "à": 156,
      "á": 157,
      "â": 158,
      "ã": 159,
      "ä": 160,
      "å": 161,
      "æ": 162,
      "ç": 163,
      "è": 164,
      "é": 165,
      "ê": 166,
      "ë": 167,
      "ì": 168,
      "í": 169,
      "î": 170,
      "ï": 171,
      "ð": 172,
      "ñ": 173,
      "ò": 174,
      "ó": 175,
      "ô": 176,
      "õ": 177,
      "ö": 178,
      "÷": 179,
      "ø": 180,
      "ù": 181,
      "ú": 182,
      "û": 183,
      "ü": 184,
      "ý": 185,
      "þ": 186,
      "ÿ": 187,
      "Ā": 188,
      "ā": 189,
      "ă": 190,
      "Ą": 191,
      "ą": 192,
      "ć": 193,
      "Č": 194,
      "č": 195,
      "Ď": 196,
      "ď": 197,
      "Đ": 198,
      "đ": 199,
      "Ē": 200,
      "ē": 201,
      "ĕ": 202,
      "Ė": 203,
      "ė": 204,
      "Ę": 205,
      "ę": 206,
      "ě": 207,
      "ĝ": 208,
      "Ğ": 209,
      "ğ": 210,
      "Ġ": 211,
      "ġ": 212,
      "Ĥ": 213,
      "ĥ": 214,
      "ħ": 215,
      "Ĩ": 216,
      "ĩ": 217,
      "Ī": 218,
      "ī": 219,
      "Į": 220,
      "į": 221,
      "İ": 222,
      "ı": 223,
      "Ĵ": 224,
      "ĵ": 225,
      "Ķ": 226,
      "ķ": 227,
      "ĸ": 228,
      "Ĺ": 229,
      "ĺ": 230,
      "Ļ": 231,
      "ļ": 232,
      "Ľ": 233,
      "ľ": 234,
      "Ł": 235,
      "ł": 236,
      "Ń": 237,
      "ń": 238,
      "ņ": 239,
      "Ň": 240,
      "ň": 241,
      "Ŋ": 242,
      "Ō": 243,
      "ō": 244,
      "ŏ": 245,
      "Ő": 246,
      "Œ": 247,
      "œ": 248,
      "Ŕ": 249,
      "ŕ": 250,
      "Ŗ": 251,
      "Ř": 252,
      "ř": 253,
      "ś": 254,
      "Ŝ": 255,
      "ŝ": 256,
      "Ş": 257,
      "ş": 258,
      "Š": 259,
      "š": 260,
      "ţ": 261,
      "Ť": 262,
      "ť": 263,
      "Ŧ": 264,
      "ŧ": 265,
      "Ũ": 266,
      "ũ": 267,
      "Ū": 268,
      "ū": 269,
      "Ů": 270,
      "ů": 271,
      "ű": 272,
      "Ų": 273,
      "Ŵ": 274,
      "ŵ": 275,
      "ŷ": 276,
      "Ÿ": 277,
      "Ź": 278,
      "ź": 279,
      "ż": 280,
      "Ž": 281,
      "ž": 282,
      "ƈ": 283,
      "Ƒ": 284,
      "ƒ": 285,
      "Ƥ": 286,
      "Ư": 287,
      "ư": 288,
      "Ƴ": 289,
      "Ǘ": 290,
      "Ǥ": 291,
      "ǧ": 292,
      "ǰ": 293,
      "ț": 294,
      "ɑ": 295,
      "ə": 296,
      "ɛ": 297,
      "ɞ": 298,
      "ɢ": 299,
      "ɣ": 300,
      "ɪ": 301,
      "ɱ": 302,
      "ɳ": 303,
      "ɴ": 304,
      "ɵ": 305,
      "ɺ": 306,
      "ʀ": 307,
      "ʂ": 308,
      "ʅ": 309,
      "ʊ": 310,
      "ʌ": 311,
      "ʏ": 312,
      "ʔ": 313,
      "ʕ": 314,
      "ʖ": 315,
      "ʘ": 316,
      "ʙ": 317,
      "ʜ": 318,
      "ʝ": 319,
      "ʟ": 320,
      "ʻ": 321,
      "ʼ": 322,
      "ˆ": 323,
      "ˇ": 324,
      "ˈ": 325,
      "ː": 326,
      "˖": 327,
      "ˬ": 328,
      "˵": 329,
      "˶": 330,
      "˹": 331,
      "˺": 332,
      "̀": 333,
      "́": 334,
      "̃": 335,
      "̄": 336,
      "̅": 337,
      "̆": 338,
      "̇": 339,
      "̈": 340,
      "̊": 341,
      "̋": 342,
      "̌": 343,
      "̍": 344,
      "̐": 345,
      "̚": 346,
      "̜": 347,
      "̝": 348,
      "̣": 349,
      "̤": 350,
      "̥": 351,
      "̧": 352,
      "̨": 353,
      "̩": 354,
      "̫": 355,
      "̬": 356,
      "̭": 357,
      "̮": 358,
      "̯": 359,
      "̲": 360,
      "̳": 361,
      "̴": 362,
      "̶": 363,
      "̷": 364,
      "̸": 365,
      "̽": 366,
      "̿": 367,
      "ͅ": 368,
      "͈": 369,
      "͎": 370,
      "͏": 371,
      "͓": 372,
      "͘": 373,
      "͙": 374,
      "͜": 375,
      "͞": 376,
      "͟": 377,
      "͠": 378,
      "͡": 379,
      "Α": 380,
      "Β": 381,
      "Δ": 382,
      "Ε": 383,
      "Λ": 384,
      "Μ": 385,
      "Π": 386,
      "Σ": 387,
      "Τ": 388,
      "Φ": 389,
      "Ω": 390,
      "ά": 391,
      "έ": 392,
      "ή": 393,
      "ί": 394,
      "α": 395,
      "β": 396,
      "γ": 397,
      "δ": 398,
      "ε": 399,
      "ζ": 400,
      "η": 401,
      "θ": 402,
      "ι": 403,
      "κ": 404,
      "λ": 405,
      "μ": 406,
      "ν": 407,
      "ξ": 408,
      "ο": 409,
      "π": 410,
      "ρ": 411,
      "ς": 412,
      "σ": 413,
      "τ": 414,
      "υ": 415,
      "φ": 416,
      "χ": 417,
      "ψ": 418,
      "ω": 419,
      "ϋ": 420,
      "ό": 421,
      "ύ": 422,
      "ώ": 423,
      "ϻ": 424,
      "Є": 425,
      "Ѕ": 426,
      "Ќ": 427,
      "Ў": 428,
      "А": 429,
      "Б": 430,
      "В": 431,
      "Г": 432,
      "Д": 433,
      "Е": 434,
      "Ж": 435,
      "З": 436,
      "И": 437,
      "К": 438,
      "М": 439,
      "Н": 440,
      "О": 441,
      "П": 442,
      "Р": 443,
      "С": 444,
      "Т": 445,
      "Ф": 446,
      "Х": 447,
      "Ч": 448,
      "Ш": 449,
      "Э": 450,
      "Я": 451,
      "а": 452,
      "б": 453,
      "в": 454,
      "г": 455,
      "д": 456,
      "е": 457,
      "ж": 458,
      "з": 459,
      "и": 460,
      "й": 461,
      "к": 462,
      "л": 463,
      "м": 464,
      "н": 465,
      "о": 466,
      "п": 467,
      "р": 468,
      "с": 469,
      "т": 470,
      "у": 471,
      "ф": 472,
      "х": 473,
      "ц": 474,
      "ч": 475,
      "ш": 476,
      "щ": 477,
      "ъ": 478,
      "ы": 479,
      "ь": 480,
      "э": 481,
      "ю": 482,
      "я": 483,
      "ё": 484,
      "ђ": 485,
      "є": 486,
      "ѕ": 487,
      "і": 488,
      "ј": 489,
      "҈": 490,
      "҉": 491,
      "ғ": 492,
      "қ": 493,
      "ң": 494,
      "ү": 495,
      "ұ": 496,
      "Ҳ": 497,
      "ҳ": 498,
      "ҹ": 499,
      "ҽ": 500,
      "ө": 501,
      "Ӿ": 502,
      "Ԋ": 503,
      "՞": 504,
      "գ": 505,
      "կ": 506,
      "տ": 507,
      "ր": 508,
      "ւ": 509,
      "օ": 510,
      "֒": 511,
      "֪": 512,
      "ִ": 513,
      "ֶ": 514,
      "ָ": 515,
      "ּ": 516,
      "ׂ": 517,
      "א": 518,
      "ב": 519,
      "ג": 520,
      "ד": 521,
      "ה": 522,
      "ו": 523,
      "ז": 524,
      "ח": 525,
      "ט": 526,
      "י": 527,
      "ך": 528,
      "כ": 529,
      "ל": 530,
      "ם": 531,
      "מ": 532,
      "ן": 533,
      "נ": 534,
      "ס": 535,
      "ע": 536,
      "פ": 537,
      "ץ": 538,
      "צ": 539,
      "ק": 540,
      "ר": 541,
      "ש": 542,
      "ת": 543,
      "؁": 544,
      "،": 545,
      "؍": 546,
      "؎": 547,
      "؏": 548,
      "ؐ": 549,
      "ؒ": 550,
      "؛": 551,
      "؜": 552,
      "؟": 553,
      "ء": 554,
      "آ": 555,
      "أ": 556,
      "ؤ": 557,
      "إ": 558,
      "ئ": 559,
      "ا": 560,
      "ب": 561,
      "ة": 562,
      "ت": 563,
      "ث": 564,
      "ج": 565,
      "ح": 566,
      "خ": 567,
      "د": 568,
      "ذ": 569,
      "ر": 570,
      "ز": 571,
      "س": 572,
      "ش": 573,
      "ص": 574,
      "ض": 575,
      "ط": 576,
      "ظ": 577,
      "ع": 578,
      "غ": 579,
      "ـ": 580,
      "ف": 581,
      "ق": 582,
      "ك": 583,
      "ل": 584,
      "م": 585,
      "ن": 586,
      "ه": 587,
      "و": 588,
      "ى": 589,
      "ي": 590,
      "٠": 591,
      "١": 592,
      "٢": 593,
      "٣": 594,
      "٤": 595,
      "٥": 596,
      "٦": 597,
      "٧": 598,
      "٨": 599,
      "٩": 600,
      "٪": 601,
      "٫": 602,
      "٬": 603,
      "٭": 604,
      "ٱ": 605,
      "ٲ": 606,
      "ٳ": 607,
      "ٴ": 608,
      "ٹ": 609,
      "ٺ": 610,
      "ٻ": 611,
      "ټ": 612,
      "ٽ": 613,
      "پ": 614,
      "ٿ": 615,
      "ځ": 616,
      "ڃ": 617,
      "چ": 618,
      "ڈ": 619,
      "ڊ": 620,
      "ڌ": 621,
      "ڍ": 622,
      "ڏ": 623,
      "ڑ": 624,
      "ڒ": 625,
      "ڕ": 626,
      "ږ": 627,
      "ڗ": 628,
      "ژ": 629,
      "ڙ": 630,
      "ڛ": 631,
      "ڜ": 632,
      "ڝ": 633,
      "ڞ": 634,
      "ڟ": 635,
      "ڠ": 636,
      "ڢ": 637,
      "ڣ": 638,
      "ڤ": 639,
      "ڥ": 640,
      "ڦ": 641,
      "ڨ": 642,
      "ک": 643,
      "ڪ": 644,
      "ګ": 645,
      "ڭ": 646,
      "گ": 647,
      "ڰ": 648,
      "ڱ": 649,
      "ڲ": 650,
      "ڳ": 651,
      "ڵ": 652,
      "ڷ": 653,
      "ڸ": 654,
      "ڹ": 655,
      "ں": 656,
      "ڼ": 657,
      "ھ": 658,
      "ۀ": 659,
      "ہ": 660,
      "ۂ": 661,
      "ۃ": 662,
      "ۄ": 663,
      "ۅ": 664,
      "ۆ": 665,
      "ۈ": 666,
      "ۉ": 667,
      "ۋ": 668,
      "ی": 669,
      "ۍ": 670,
      "ێ": 671,
      "ې": 672,
      "ۑ": 673,
      "ے": 674,
      "ۓ": 675,
      "۔": 676,
      "ە": 677,
      "ۖ": 678,
      "ۗ": 679,
      "ۘ": 680,
      "ۙ": 681,
      "ۚ": 682,
      "ۛ": 683,
      "ۜ": 684,
      "۝": 685,
      "۞": 686,
      "۟": 687,
      "۠": 688,
      "ۡ": 689,
      "ۢ": 690,
      "ۣ": 691,
      "ۤ": 692,
      "ۥ": 693,
      "ۦ": 694,
      "ۧ": 695,
      "ۨ": 696,
      "۩": 697,
      "۪": 698,
      "۫": 699,
      "۬": 700,
      "ۭ": 701,
      "۰": 702,
      "۱": 703,
      "۲": 704,
      "۳": 705,
      "۴": 706,
      "۶": 707,
      "۷": 708,
      "۸": 709,
      "۽": 710,
      "۾": 711,
      "ۿ": 712,
      "ܒ": 713,
      "ܓ": 714,
      "ܔ": 715,
      "ܕ": 716,
      "ܗ": 717,
      "ܘ": 718,
      "ܚ": 719,
      "ܛ": 720,
      "ܟ": 721,
      "ܠ": 722,
      "ܡ": 723,
      "ܢ": 724,
      "ܥ": 725,
      "ܦ": 726,
      "ܨ": 727,
      "ܩ": 728,
      "ܭ": 729,
      "ܵ": 730,
      "ܼ": 731,
      "݁": 732,
      "ݛ": 733,
      "ݣ": 734,
      "ݪ": 735,
      "ߘ": 736,
      "߲": 737,
      "߳": 738,
      "ߺ": 739,
      "࠭": 740,
      "ࡅ": 741,
      "ࡋ": 742,
      "࡙": 743,
      "ࢦ": 744,
      "ࢪ": 745,
      "࣪": 746,
      "࣭": 747,
      "ࣰ": 748,
      "ࣱ": 749,
      "ࣲ": 750,
      "ँ": 751,
      "ं": 752,
      "अ": 753,
      "आ": 754,
      "इ": 755,
      "ई": 756,
      "उ": 757,
      "ए": 758,
      "ऐ": 759,
      "औ": 760,
      "क": 761,
      "ख": 762,
      "ग": 763,
      "ङ": 764,
      "च": 765,
      "छ": 766,
      "ज": 767,
      "झ": 768,
      "ट": 769,
      "ठ": 770,
      "ड": 771,
      "ण": 772,
      "त": 773,
      "थ": 774,
      "द": 775,
      "ध": 776,
      "न": 777,
      "प": 778,
      "फ": 779,
      "ब": 780,
      "भ": 781,
      "म": 782,
      "य": 783,
      "र": 784,
      "ल": 785,
      "व": 786,
      "श": 787,
      "ष": 788,
      "स": 789,
      "ह": 790,
      "़": 791,
      "ा": 792,
      "ि": 793,
      "ी": 794,
      "ु": 795,
      "ू": 796,
      "ृ": 797,
      "े": 798,
      "ै": 799,
      "ो": 800,
      "्": 801,
      "।": 802,
      "ই": 803,
      "ঔ": 804,
      "ট": 805,
      "দ": 806,
      "ন": 807,
      "প": 808,
      "ফ": 809,
      "ব": 810,
      "য": 811,
      "র": 812,
      "ল": 813,
      "স": 814,
      "া": 815,
      "ি": 816,
      "ে": 817,
      "্": 818,
      "ৣ": 819,
      "ਊ": 820,
      "ਘ": 821,
      "ਜ": 822,
      "ਸ": 823,
      "ਹ": 824,
      "਼": 825,
      "ੈ": 826,
      "આ": 827,
      "ક": 828,
      "ગ": 829,
      "છ": 830,
      "જ": 831,
      "દ": 832,
      "ન": 833,
      "ફ": 834,
      "મ": 835,
      "ય": 836,
      "ર": 837,
      "લ": 838,
      "સ": 839,
      "હ": 840,
      "ા": 841,
      "િ": 842,
      "ે": 843,
      "ો": 844,
      "્": 845,
      "૮": 846,
      "ଓ": 847,
      "ଘ": 848,
      "୧": 849,
      "୨": 850,
      "ஐ": 851,
      "ஓ": 852,
      "ி": 853,
      "்": 854,
      "ఌ": 855,
      "త": 856,
      "ಠ": 857,
      "ಡ": 858,
      "ಥ": 859,
      "ಸ": 860,
      "ೀ": 861,
      "ೃ": 862,
      "೧": 863,
      "බ": 864,
      "෴": 865,
      "ค": 866,
      "ฅ": 867,
      "ง": 868,
      "จ": 869,
      "ด": 870,
      "ย": 871,
      "อ": 872,
      "ฯ": 873,
      "ั": 874,
      "า": 875,
      "ิ": 876,
      "ฺ": 877,
      "เ": 878,
      "้": 879,
      "๋": 880,
      "๏": 881,
      "๑": 882,
      "๛": 883,
      "ຶ": 884,
      "໋": 885,
      "༄": 886,
      "༆": 887,
      "༈": 888,
      "༉": 889,
      "་": 890,
      "༎": 891,
      "༗": 892,
      "༘": 893,
      "༚": 894,
      "༺": 895,
      "༻": 896,
      "༼": 897,
      "༽": 898,
      "ཌ": 899,
      "ད": 900,
      "ི": 901,
      "ཻ": 902,
      "ྀ": 903,
      "྄": 904,
      "࿐": 905,
      "࿔": 906,
      "၊": 907,
      "။": 908,
      "Ⴆ": 909,
      "Ⴎ": 910,
      "ა": 911,
      "ბ": 912,
      "გ": 913,
      "დ": 914,
      "ე": 915,
      "ვ": 916,
      "ი": 917,
      "ლ": 918,
      "მ": 919,
      "ნ": 920,
      "რ": 921,
      "ს": 922,
      "უ": 923,
      "ფ": 924,
      "ღ": 925,
      "ყ": 926,
      "შ": 927,
      "წ": 928,
      "ხ": 929,
      "ჯ": 930,
      "ᄀ": 931,
      "ᄂ": 932,
      "ᄃ": 933,
      "ᄅ": 934,
      "ᄇ": 935,
      "ᄉ": 936,
      "ᄋ": 937,
      "ᄌ": 938,
      "ᄎ": 939,
      "ᄏ": 940,
      "ᄑ": 941,
      "ᄒ": 942,
      "ᅠ": 943,
      "ᅡ": 944,
      "ᅢ": 945,
      "ᅣ": 946,
      "ᅧ": 947,
      "ᅩ": 948,
      "ᅭ": 949,
      "ᅮ": 950,
      "ᅲ": 951,
      "ᅵ": 952,
      "ሁ": 953,
      "ህ": 954,
      "ለ": 955,
      "ማ": 956,
      "ም": 957,
      "ሳ": 958,
      "ስ": 959,
      "ቃ": 960,
      "ቑ": 961,
      "ቯ": 962,
      "ተ": 963,
      "ቱ": 964,
      "ቴ": 965,
      "ት": 966,
      "ቶ": 967,
      "ነ": 968,
      "ን": 969,
      "አ": 970,
      "እ": 971,
      "ክ": 972,
      "ኽ": 973,
      "ዥ": 974,
      "የ": 975,
      "ዩ": 976,
      "ያ": 977,
      "ይ": 978,
      "ዳ": 979,
      "ድ": 980,
      "ጠ": 981,
      "ጵ": 982,
      "ጽ": 983,
      "ጿ": 984,
      "ፁ": 985,
      "ፂ": 986,
      "ፅ": 987,
      "ፍ": 988,
      "Ꭰ": 989,
      "Ꭱ": 990,
      "Ꭵ": 991,
      "Ꭸ": 992,
      "Ꭺ": 993,
      "Ꭿ": 994,
      "Ꮇ": 995,
      "Ꮋ": 996,
      "Ꮏ": 997,
      "Ꮑ": 998,
      "Ꮤ": 999,
      "Ꮪ": 1000,
      "Ꮬ": 1001,
      "Ꮮ": 1002,
      "Ꮯ": 1003,
      "Ꮸ": 1004,
      "Ꮻ": 1005,
      "Ᏸ": 1006,
      "ᐟ": 1007,
      "ᐠ": 1008,
      "ᑕ": 1009,
      "ᕗ": 1010,
      "ᕙ": 1011,
      "ᕤ": 1012,
      "ᕦ": 1013,
      "ᗒ": 1014,
      "ᗕ": 1015,
      "ᗣ": 1016,
      "ᗩ": 1017,
      "ᗷ": 1018,
      "ក": 1019,
      "ង": 1020,
      "ឆ": 1021,
      "ន": 1022,
      "ល": 1023,
      "ស": 1024,
      "ា": 1025,
      "ំ": 1026,
      "្": 1027,
      "៛": 1028,
      "ᥫ": 1029,
      "ᥬ": 1030,
      "ᨳ": 1031,
      "ᩚ": 1032,
      "᪲": 1033,
      "᭄": 1034,
      "᭡": 1035,
      "ᯅ": 1036,
      "ᰔ": 1037,
      "ᴀ": 1038,
      "ᴄ": 1039,
      "ᴅ": 1040,
      "ᴇ": 1041,
      "ᴋ": 1042,
      "ᴍ": 1043,
      "ᴏ": 1044,
      "ᴖ": 1045,
      "ᴗ": 1046,
      "ᴘ": 1047,
      "ᴛ": 1048,
      "ᴜ": 1049,
      "ᴠ": 1050,
      "ᴥ": 1051,
      "᷂": 1052,
      "᷄": 1053,
      "᷅": 1054,
      "ḋ": 1055,
      "ḍ": 1056,
      "ḏ": 1057,
      "ḥ": 1058,
      "Ṃ": 1059,
      "Ṛ": 1060,
      "ṛ": 1061,
      "ṣ": 1062,
      "ṭ": 1063,
      "ẞ": 1064,
      "ạ": 1065,
      "ả": 1066,
      "ấ": 1067,
      "ẩ": 1068,
      "ẫ": 1069,
      "ắ": 1070,
      "ặ": 1071,
      "Ẹ": 1072,
      "ẹ": 1073,
      "ẽ": 1074,
      "ế": 1075,
      "ề": 1076,
      "ệ": 1077,
      "ị": 1078,
      "ố": 1079,
      "ổ": 1080,
      "Ỗ": 1081,
      "ớ": 1082,
      "ờ": 1083,
      "ợ": 1084,
      "ụ": 1085,
      "ủ": 1086,
      "ứ": 1087,
      "ừ": 1088,
      "ử": 1089,
      "ự": 1090,
      "ἶ": 1091,
      "ᾄ": 1092,
      "ᾶ": 1093,
      "​": 1094,
      "‌": 1095,
      "‍": 1096,
      "‎": 1097,
      "‏": 1098,
      "‐": 1099,
      "–": 1100,
      "—": 1101,
      "―": 1102,
      "‘": 1103,
      "’": 1104,
      "‚": 1105,
      "“": 1106,
      "”": 1107,
      "„": 1108,
      "‟": 1109,
      "†": 1110,
      "‡": 1111,
      "•": 1112,
      "‧": 1113,
      "‪": 1114,
      "‫": 1115,
      "‬": 1116,
      "‮": 1117,
      "‰": 1118,
      "′": 1119,
      "‵": 1120,
      "‸": 1121,
      "‹": 1122,
      "›": 1123,
      "‿": 1124,
      "⁀": 1125,
      "⁃": 1126,
      "⁄": 1127,
      "⁚": 1128,
      "⁠": 1129,
      "⁦": 1130,
      "⁧": 1131,
      "⁩": 1132,
      "⁯": 1133,
      "₩": 1134,
      "₪": 1135,
      "€": 1136,
      "₰": 1137,
      "₹": 1138,
      "⃝": 1139,
      "⃟": 1140,
      "⃠": 1141,
      "⃢": 1142,
      "⃣": 1143,
      "←": 1144,
      "↑": 1145,
      "→": 1146,
      "↓": 1147,
      "↔": 1148,
      "↕": 1149,
      "↖": 1150,
      "↗": 1151,
      "↘": 1152,
      "↙": 1153,
      "↩": 1154,
      "↪": 1155,
      "↫": 1156,
      "↭": 1157,
      "↲": 1158,
      "↳": 1159,
      "↷": 1160,
      "↺": 1161,
      "↼": 1162,
      "⇀": 1163,
      "⇠": 1164,
      "⇣": 1165,
      "⇦": 1166,
      "⇨": 1167,
      "∀": 1168,
      "∂": 1169,
      "∅": 1170,
      "∆": 1171,
      "∇": 1172,
      "√": 1173,
      "∞": 1174,
      "∥": 1175,
      "∩": 1176,
      "≈": 1177,
      "≠": 1178,
      "≡": 1179,
      "≥": 1180,
      "≦": 1181,
      "≧": 1182,
      "⊀": 1183,
      "⊁": 1184,
      "⊂": 1185,
      "⊃": 1186,
      "⊙": 1187,
      "⊡": 1188,
      "⊥": 1189,
      "⊹": 1190,
      "⊿": 1191,
      "⋆": 1192,
      "⋐": 1193,
      "⋑": 1194,
      "⋘": 1195,
      "⋙": 1196,
      "⋞": 1197,
      "⋟": 1198,
      "⌈": 1199,
      "⌉": 1200,
      "⌐": 1201,
      "⌒": 1202,
      "⌓": 1203,
      "⌚": 1204,
      "⌛": 1205,
      "⌣": 1206,
      "⌨": 1207,
      "⍢": 1208,
      "⍨": 1209,
      "⎚": 1210,
      "⏎": 1211,
      "⏏": 1212,
      "⏤": 1213,
      "⏩": 1214,
      "⏪": 1215,
      "⏫": 1216,
      "⏬": 1217,
      "⏭": 1218,
      "⏮": 1219,
      "⏯": 1220,
      "⏰": 1221,
      "⏱": 1222,
      "⏲": 1223,
      "⏳": 1224,
      "⏸": 1225,
      "⏹": 1226,
      "⏺": 1227,
      "⑅": 1228,
      "⑉": 1229,
      "⓵": 1230,
      "⓶": 1231,
      "⓷": 1232,
      "⓿": 1233,
      "─": 1234,
      "━": 1235,
      "│": 1236,
      "┃": 1237,
      "┄": 1238,
      "┅": 1239,
      "┇": 1240,
      "┈": 1241,
      "┊": 1242,
      "┌": 1243,
      "┏": 1244,
      "┐": 1245,
      "┓": 1246,
      "└": 1247,
      "┗": 1248,
      "┘": 1249,
      "┛": 1250,
      "┣": 1251,
      "┫": 1252,
      "┳": 1253,
      "┻": 1254,
      "═": 1255,
      "║": 1256,
      "╔": 1257,
      "╕": 1258,
      "╗": 1259,
      "╚": 1260,
      "╝": 1261,
      "╠": 1262,
      "╣": 1263,
      "╥": 1264,
      "╦": 1265,
      "╩": 1266,
      "╬": 1267,
      "╭": 1268,
      "╮": 1269,
      "╯": 1270,
      "╰": 1271,
      "╱": 1272,
      "╲": 1273,
      "▀": 1274,
      "▂": 1275,
      "▄": 1276,
      "█": 1277,
      "▌": 1278,
      "░": 1279,
      "▒": 1280,
      "▓": 1281,
      "■": 1282,
      "□": 1283,
      "▪": 1284,
      "▫": 1285,
      "▬": 1286,
      "▲": 1287,
      "▶": 1288,
      "►": 1289,
      "▼": 1290,
      "▽": 1291,
      "▿": 1292,
      "◀": 1293,
      "◄": 1294,
      "◇": 1295,
      "◉": 1296,
      "○": 1297,
      "◍": 1298,
      "◎": 1299,
      "●": 1300,
      "◔": 1301,
      "◕": 1302,
      "◖": 1303,
      "◗": 1304,
      "◘": 1305,
      "◜": 1306,
      "◝": 1307,
      "◞": 1308,
      "◠": 1309,
      "◡": 1310,
      "◢": 1311,
      "◣": 1312,
      "◤": 1313,
      "◥": 1314,
      "◦": 1315,
      "◻": 1316,
      "◼": 1317,
      "◽": 1318,
      "◾": 1319,
      "☀": 1320,
      "☁": 1321,
      "☂": 1322,
      "☃": 1323,
      "☄": 1324,
      "★": 1325,
      "☆": 1326,
      "☇": 1327,
      "☉": 1328,
      "☎": 1329,
      "☏": 1330,
      "☑": 1331,
      "☒": 1332,
      "☔": 1333,
      "☕": 1334,
      "☘": 1335,
      "☚": 1336,
      "☛": 1337,
      "☜": 1338,
      "☝": 1339,
      "☞": 1340,
      "☠": 1341,
      "☡": 1342,
      "☢": 1343,
      "☣": 1344,
      "☦": 1345,
      "☪": 1346,
      "☬": 1347,
      "☭": 1348,
      "☮": 1349,
      "☯": 1350,
      "☹": 1351,
      "☺": 1352,
      "☻": 1353,
      "☼": 1354,
      "☽": 1355,
      "☾": 1356,
      "♀": 1357,
      "♂": 1358,
      "♈": 1359,
      "♉": 1360,
      "♊": 1361,
      "♌": 1362,
      "♍": 1363,
      "♎": 1364,
      "♏": 1365,
      "♑": 1366,
      "♓": 1367,
      "♕": 1368,
      "♖": 1369,
      "♚": 1370,
      "♛": 1371,
      "♜": 1372,
      "♞": 1373,
      "♟": 1374,
      "♠": 1375,
      "♡": 1376,
      "♢": 1377,
      "♣": 1378,
      "♤": 1379,
      "♥": 1380,
      "♦": 1381,
      "♧": 1382,
      "♨": 1383,
      "♩": 1384,
      "♪": 1385,
      "♫": 1386,
      "♬": 1387,
      "♭": 1388,
      "♻": 1389,
      "♾": 1390,
      "♿": 1391,
      "⚀": 1392,
      "⚁": 1393,
      "⚆": 1394,
      "⚒": 1395,
      "⚓": 1396,
      "⚔": 1397,
      "⚕": 1398,
      "⚖": 1399,
      "⚘": 1400,
      "⚙": 1401,
      "⚛": 1402,
      "⚜": 1403,
      "⚠": 1404,
      "⚡": 1405,
      "⚧": 1406,
      "⚪": 1407,
      "⚫": 1408,
      "⚰": 1409,
      "⚱": 1410,
      "⚽": 1411,
      "⚾": 1412,
      "⛄": 1413,
      "⛅": 1414,
      "⛈": 1415,
      "⛌": 1416,
      "⛏": 1417,
      "⛑": 1418,
      "⛓": 1419,
      "⛔": 1420,
      "⛪": 1421,
      "⛰": 1422,
      "⛱": 1423,
      "⛷": 1424,
      "⛸": 1425,
      "⛹": 1426,
      "⛺": 1427,
      "⛽": 1428,
      "✂": 1429,
      "✅": 1430,
      "✈": 1431,
      "✉": 1432,
      "✊": 1433,
      "✋": 1434,
      "✌": 1435,
      "✍": 1436,
      "✏": 1437,
      "✒": 1438,
      "✓": 1439,
      "✔": 1440,
      "✖": 1441,
      "✗": 1442,
      "✘": 1443,
      "✝": 1444,
      "✞": 1445,
      "✡": 1446,
      "✦": 1447,
      "✧": 1448,
      "✨": 1449,
      "✩": 1450,
      "✪": 1451,
      "✯": 1452,
      "✰": 1453,
      "✳": 1454,
      "✴": 1455,
      "✷": 1456,
      "✹": 1457,
      "✺": 1458,
      "✽": 1459,
      "✾": 1460,
      "✿": 1461,
      "❀": 1462,
      "❁": 1463,
      "❃": 1464,
      "❄": 1465,
      "❅": 1466,
      "❆": 1467,
      "❇": 1468,
      "❈": 1469,
      "❉": 1470,
      "❊": 1471,
      "❋": 1472,
      "❌": 1473,
      "❍": 1474,
      "❎": 1475,
      "❒": 1476,
      "❓": 1477,
      "❔": 1478,
      "❕": 1479,
      "❖": 1480,
      "❗": 1481,
      "❛": 1482,
      "❝": 1483,
      "❣": 1484,
      "❤": 1485,
      "❥": 1486,
      "❦": 1487,
      "❪": 1488,
      "❫": 1489,
      "❶": 1490,
      "❷": 1491,
      "❸": 1492,
      "❹": 1493,
      "❺": 1494,
      "❻": 1495,
      "❼": 1496,
      "❽": 1497,
      "❾": 1498,
      "❿": 1499,
      "➕": 1500,
      "➖": 1501,
      "➗": 1502,
      "➜": 1503,
      "➝": 1504,
      "➡": 1505,
      "➤": 1506,
      "➰": 1507,
      "➴": 1508,
      "➸": 1509,
      "➿": 1510,
      "⟦": 1511,
      "⟧": 1512,
      "⟨": 1513,
      "⟩": 1514,
      "⟬": 1515,
      "⟭": 1516,
      "⟶": 1517,
      "⠀": 1518,
      "⤴": 1519,
      "⤵": 1520,
      "⤹": 1521,
      "⤾": 1522,
      "⫶": 1523,
      "⬅": 1524,
      "⬆": 1525,
      "⬇": 1526,
      "⬛": 1527,
      "⬜": 1528,
      "⭐": 1529,
      "⭑": 1530,
      "⭕": 1531,
      "ⴰ": 1532,
      "ⴱ": 1533,
      "ⴳ": 1534,
      "ⴷ": 1535,
      "ⴸ": 1536,
      "ⴹ": 1537,
      "ⴻ": 1538,
      "ⴼ": 1539,
      "ⴽ": 1540,
      "ⵀ": 1541,
      "ⵅ": 1542,
      "ⵇ": 1543,
      "ⵉ": 1544,
      "ⵍ": 1545,
      "ⵎ": 1546,
      "ⵏ": 1547,
      "ⵓ": 1548,
      "ⵔ": 1549,
      "ⵖ": 1550,
      "ⵙ": 1551,
      "ⵛ": 1552,
      "ⵜ": 1553,
      "ⵝ": 1554,
      "ⵡ": 1555,
      "ⵢ": 1556,
      "ⵣ": 1557,
      "⸒": 1558,
      "⸝": 1559,
      "⸲": 1560,
      "⸻": 1561,
      "⸼": 1562,
      "⹂": 1563,
      "、": 1564,
      "。": 1565,
      "々": 1566,
      "〆": 1567,
      "〈": 1568,
      "《": 1569,
      "》": 1570,
      "「": 1571,
      "」": 1572,
      "『": 1573,
      "』": 1574,
      "【": 1575,
      "】": 1576,
      "〒": 1577,
      "〖": 1578,
      "〗": 1579,
      "〪": 1580,
      "〬": 1581,
      "〰": 1582,
      "〽": 1583,
      "ぁ": 1584,
      "あ": 1585,
      "い": 1586,
      "う": 1587,
      "ぉ": 1588,
      "お": 1589,
      "か": 1590,
      "が": 1591,
      "き": 1592,
      "ぎ": 1593,
      "く": 1594,
      "こ": 1595,
      "ご": 1596,
      "さ": 1597,
      "ざ": 1598,
      "し": 1599,
      "す": 1600,
      "せ": 1601,
      "そ": 1602,
      "た": 1603,
      "だ": 1604,
      "ち": 1605,
      "っ": 1606,
      "つ": 1607,
      "づ": 1608,
      "て": 1609,
      "で": 1610,
      "と": 1611,
      "ど": 1612,
      "な": 1613,
      "に": 1614,
      "の": 1615,
      "は": 1616,
      "ば": 1617,
      "ぶ": 1618,
      "へ": 1619,
      "ほ": 1620,
      "ま": 1621,
      "め": 1622,
      "も": 1623,
      "や": 1624,
      "ゆ": 1625,
      "よ": 1626,
      "ら": 1627,
      "り": 1628,
      "る": 1629,
      "れ": 1630,
      "わ": 1631,
      "を": 1632,
      "ん": 1633,
      "゙": 1634,
      "゚": 1635,
      "ィ": 1636,
      "イ": 1637,
      "エ": 1638,
      "カ": 1639,
      "ガ": 1640,
      "キ": 1641,
      "コ": 1642,
      "ゴ": 1643,
      "サ": 1644,
      "ザ": 1645,
      "シ": 1646,
      "ジ": 1647,
      "ス": 1648,
      "タ": 1649,
      "チ": 1650,
      "ッ": 1651,
      "ツ": 1652,
      "ヅ": 1653,
      "デ": 1654,
      "ト": 1655,
      "ナ": 1656,
      "ニ": 1657,
      "ネ": 1658,
      "ノ": 1659,
      "ハ": 1660,
      "パ": 1661,
      "ヘ": 1662,
      "メ": 1663,
      "ャ": 1664,
      "ラ": 1665,
      "ル": 1666,
      "レ": 1667,
      "ン": 1668,
      "・": 1669,
      "ー": 1670,
      "ヽ": 1671,
      "ㄘ": 1672,
      "㡦": 1673,
      "㩥": 1674,
      "㩲": 1675,
      "㩳": 1676,
      "㬩": 1677,
      "㭸": 1678,
      "䐺": 1679,
      "䥘": 1680,
      "一": 1681,
      "上": 1682,
      "不": 1683,
      "且": 1684,
      "世": 1685,
      "东": 1686,
      "並": 1687,
      "个": 1688,
      "中": 1689,
      "为": 1690,
      "丿": 1691,
      "乄": 1692,
      "么": 1693,
      "乐": 1694,
      "也": 1695,
      "书": 1696,
      "了": 1697,
      "事": 1698,
      "些": 1699,
      "产": 1700,
      "亮": 1701,
      "人": 1702,
      "什": 1703,
      "今": 1704,
      "他": 1705,
      "付": 1706,
      "以": 1707,
      "们": 1708,
      "会": 1709,
      "似": 1710,
      "佑": 1711,
      "作": 1712,
      "你": 1713,
      "使": 1714,
      "來": 1715,
      "保": 1716,
      "個": 1717,
      "們": 1718,
      "候": 1719,
      "儿": 1720,
      "先": 1721,
      "克": 1722,
      "入": 1723,
      "关": 1724,
      "其": 1725,
      "具": 1726,
      "再": 1727,
      "几": 1728,
      "分": 1729,
      "切": 1730,
      "列": 1731,
      "利": 1732,
      "到": 1733,
      "制": 1734,
      "前": 1735,
      "剝": 1736,
      "割": 1737,
      "力": 1738,
      "功": 1739,
      "加": 1740,
      "动": 1741,
      "努": 1742,
      "劲": 1743,
      "勒": 1744,
      "動": 1745,
      "化": 1746,
      "卄": 1747,
      "卐": 1748,
      "占": 1749,
      "卡": 1750,
      "卲": 1751,
      "厌": 1752,
      "去": 1753,
      "反": 1754,
      "受": 1755,
      "只": 1756,
      "可": 1757,
      "史": 1758,
      "吃": 1759,
      "合": 1760,
      "同": 1761,
      "名": 1762,
      "吗": 1763,
      "吧": 1764,
      "呀": 1765,
      "呢": 1766,
      "周": 1767,
      "味": 1768,
      "呼": 1769,
      "和": 1770,
      "咯": 1771,
      "品": 1772,
      "哈": 1773,
      "哋": 1774,
      "員": 1775,
      "唔": 1776,
      "喜": 1777,
      "営": 1778,
      "嗎": 1779,
      "嘛": 1780,
      "嘿": 1781,
      "国": 1782,
      "國": 1783,
      "在": 1784,
      "场": 1785,
      "圾": 1786,
      "坦": 1787,
      "垃": 1788,
      "城": 1789,
      "基": 1790,
      "場": 1791,
      "塊": 1792,
      "塔": 1793,
      "士": 1794,
      "多": 1795,
      "大": 1796,
      "天": 1797,
      "太": 1798,
      "奪": 1799,
      "好": 1800,
      "如": 1801,
      "子": 1802,
      "存": 1803,
      "孤": 1804,
      "学": 1805,
      "孩": 1806,
      "學": 1807,
      "守": 1808,
      "官": 1809,
      "客": 1810,
      "家": 1811,
      "富": 1812,
      "对": 1813,
      "対": 1814,
      "将": 1815,
      "將": 1816,
      "尋": 1817,
      "小": 1818,
      "尺": 1819,
      "尼": 1820,
      "展": 1821,
      "山": 1822,
      "州": 1823,
      "己": 1824,
      "已": 1825,
      "巴": 1826,
      "巾": 1827,
      "市": 1828,
      "希": 1829,
      "帝": 1830,
      "带": 1831,
      "常": 1832,
      "幸": 1833,
      "度": 1834,
      "开": 1835,
      "式": 1836,
      "弱": 1837,
      "強": 1838,
      "彡": 1839,
      "彩": 1840,
      "很": 1841,
      "得": 1842,
      "快": 1843,
      "念": 1844,
      "忽": 1845,
      "思": 1846,
      "总": 1847,
      "恶": 1848,
      "您": 1849,
      "想": 1850,
      "意": 1851,
      "愚": 1852,
      "愛": 1853,
      "感": 1854,
      "愿": 1855,
      "慢": 1856,
      "慥": 1857,
      "慭": 1858,
      "慲": 1859,
      "慴": 1860,
      "成": 1861,
      "我": 1862,
      "或": 1863,
      "戭": 1864,
      "戺": 1865,
      "戻": 1866,
      "找": 1867,
      "技": 1868,
      "抗": 1869,
      "拉": 1870,
      "拒": 1871,
      "拠": 1872,
      "指": 1873,
      "捕": 1874,
      "捡": 1875,
      "捥": 1876,
      "据": 1877,
      "授": 1878,
      "摡": 1879,
      "摧": 1880,
      "摩": 1881,
      "摮": 1882,
      "摲": 1883,
      "攞": 1884,
      "攣": 1885,
      "攺": 1886,
      "放": 1887,
      "教": 1888,
      "散": 1889,
      "敤": 1890,
      "敧": 1891,
      "敩": 1892,
      "敮": 1893,
      "数": 1894,
      "整": 1895,
      "文": 1896,
      "斯": 1897,
      "斷": 1898,
      "方": 1899,
      "族": 1900,
      "无": 1901,
      "日": 1902,
      "昣": 1903,
      "是": 1904,
      "昸": 1905,
      "時": 1906,
      "景": 1907,
      "晳": 1908,
      "更": 1909,
      "最": 1910,
      "會": 1911,
      "月": 1912,
      "有": 1913,
      "望": 1914,
      "木": 1915,
      "末": 1916,
      "本": 1917,
      "札": 1918,
      "术": 1919,
      "村": 1920,
      "条": 1921,
      "来": 1922,
      "杫": 1923,
      "杯": 1924,
      "极": 1925,
      "果": 1926,
      "样": 1927,
      "核": 1928,
      "桃": 1929,
      "棕": 1930,
      "椭": 1931,
      "楍": 1932,
      "楤": 1933,
      "楬": 1934,
      "楳": 1935,
      "樣": 1936,
      "欢": 1937,
      "歌": 1938,
      "正": 1939,
      "歷": 1940,
      "死": 1941,
      "殺": 1942,
      "毀": 1943,
      "每": 1944,
      "毒": 1945,
      "氏": 1946,
      "民": 1947,
      "气": 1948,
      "気": 1949,
      "氭": 1950,
      "求": 1951,
      "汦": 1952,
      "汩": 1953,
      "汰": 1954,
      "汽": 1955,
      "沙": 1956,
      "活": 1957,
      "测": 1958,
      "浩": 1959,
      "海": 1960,
      "清": 1961,
      "温": 1962,
      "湡": 1963,
      "湥": 1964,
      "湩": 1965,
      "湵": 1966,
      "湾": 1967,
      "満": 1968,
      "漂": 1969,
      "漭": 1970,
      "潃": 1971,
      "潔": 1972,
      "潢": 1973,
      "潬": 1974,
      "潭": 1975,
      "潲": 1976,
      "潴": 1977,
      "瀲": 1978,
      "灌": 1979,
      "灩": 1980,
      "灬": 1981,
      "灭": 1982,
      "灯": 1983,
      "点": 1984,
      "為": 1985,
      "無": 1986,
      "然": 1987,
      "煙": 1988,
      "煮": 1989,
      "燉": 1990,
      "營": 1991,
      "爭": 1992,
      "爱": 1993,
      "爻": 1994,
      "牔": 1995,
      "牡": 1996,
      "牣": 1997,
      "牥": 1998,
      "牧": 1999,
      "物": 2000,
      "牯": 2001,
      "牰": 2002,
      "牴": 2003,
      "特": 2004,
      "狡": 2005,
      "猨": 2006,
      "猾": 2007,
      "獩": 2008,
      "獭": 2009,
      "獯": 2010,
      "獵": 2011,
      "玛": 2012,
      "琨": 2013,
      "瑮": 2014,
      "瑲": 2015,
      "生": 2016,
      "用": 2017,
      "田": 2018,
      "由": 2019,
      "申": 2020,
      "画": 2021,
      "界": 2022,
      "略": 2023,
      "畩": 2024,
      "畯": 2025,
      "発": 2026,
      "發": 2027,
      "的": 2028,
      "益": 2029,
      "盘": 2030,
      "相": 2031,
      "看": 2032,
      "真": 2033,
      "睯": 2034,
      "硰": 2035,
      "示": 2036,
      "社": 2037,
      "祈": 2038,
      "祝": 2039,
      "神": 2040,
      "祡": 2041,
      "禁": 2042,
      "私": 2043,
      "秋": 2044,
      "种": 2045,
      "科": 2046,
      "秘": 2047,
      "称": 2048,
      "種": 2049,
      "空": 2050,
      "窮": 2051,
      "立": 2052,
      "类": 2053,
      "精": 2054,
      "絕": 2055,
      "繼": 2056,
      "續": 2057,
      "线": 2058,
      "给": 2059,
      "绝": 2060,
      "翻": 2061,
      "老": 2062,
      "者": 2063,
      "而": 2064,
      "肉": 2065,
      "腐": 2066,
      "自": 2067,
      "至": 2068,
      "色": 2069,
      "芳": 2070,
      "苗": 2071,
      "莫": 2072,
      "菜": 2073,
      "落": 2074,
      "蒂": 2075,
      "蔬": 2076,
      "虐": 2077,
      "融": 2078,
      "被": 2079,
      "褐": 2080,
      "西": 2081,
      "要": 2082,
      "視": 2083,
      "见": 2084,
      "视": 2085,
      "解": 2086,
      "認": 2087,
      "誕": 2088,
      "說": 2089,
      "調": 2090,
      "識": 2091,
      "讨": 2092,
      "训": 2093,
      "记": 2094,
      "译": 2095,
      "说": 2096,
      "谢": 2097,
      "谷": 2098,
      "豆": 2099,
      "豹": 2100,
      "貧": 2101,
      "質": 2102,
      "费": 2103,
      "贾": 2104,
      "走": 2105,
      "起": 2106,
      "趣": 2107,
      "跟": 2108,
      "路": 2109,
      "蹄": 2110,
      "車": 2111,
      "车": 2112,
      "这": 2113,
      "迫": 2114,
      "通": 2115,
      "運": 2116,
      "遭": 2117,
      "那": 2118,
      "部": 2119,
      "都": 2120,
      "鄉": 2121,
      "里": 2122,
      "重": 2123,
      "野": 2124,
      "金": 2125,
      "鎮": 2126,
      "银": 2127,
      "長": 2128,
      "防": 2129,
      "院": 2130,
      "雅": 2131,
      "雑": 2132,
      "需": 2133,
      "音": 2134,
      "願": 2135,
      "類": 2136,
      "领": 2137,
      "频": 2138,
      "额": 2139,
      "食": 2140,
      "養": 2141,
      "香": 2142,
      "马": 2143,
      "骂": 2144,
      "默": 2145,
      "ꈍ": 2146,
      "꒦": 2147,
      "꒰": 2148,
      "꒱": 2149,
      "꒳": 2150,
      "꒷": 2151,
      "꙳": 2152,
      "ꜝ": 2153,
      "ꜱ": 2154,
      "ꞈ": 2155,
      "꧁": 2156,
      "꧂": 2157,
      "ꪆ": 2158,
      "ꪖ": 2159,
      "ꫝ": 2160,
      "꫟": 2161,
      "가": 2162,
      "감": 2163,
      "강": 2164,
      "개": 2165,
      "거": 2166,
      "건": 2167,
      "걸": 2168,
      "것": 2169,
      "게": 2170,
      "겠": 2171,
      "겨": 2172,
      "겼": 2173,
      "경": 2174,
      "계": 2175,
      "고": 2176,
      "광": 2177,
      "구": 2178,
      "국": 2179,
      "귀": 2180,
      "그": 2181,
      "글": 2182,
      "금": 2183,
      "기": 2184,
      "길": 2185,
      "까": 2186,
      "께": 2187,
      "꼰": 2188,
      "나": 2189,
      "난": 2190,
      "날": 2191,
      "남": 2192,
      "내": 2193,
      "너": 2194,
      "널": 2195,
      "네": 2196,
      "녀": 2197,
      "년": 2198,
      "녕": 2199,
      "눈": 2200,
      "늋": 2201,
      "는": 2202,
      "능": 2203,
      "늦": 2204,
      "니": 2205,
      "님": 2206,
      "다": 2207,
      "단": 2208,
      "달": 2209,
      "답": 2210,
      "당": 2211,
      "대": 2212,
      "더": 2213,
      "데": 2214,
      "도": 2215,
      "독": 2216,
      "동": 2217,
      "두": 2218,
      "둪": 2219,
      "드": 2220,
      "든": 2221,
      "들": 2222,
      "듯": 2223,
      "디": 2224,
      "따": 2225,
      "때": 2226,
      "땐": 2227,
      "뜨": 2228,
      "뜬": 2229,
      "뜻": 2230,
      "라": 2231,
      "랄": 2232,
      "람": 2233,
      "랍": 2234,
      "랐": 2235,
      "랑": 2236,
      "래": 2237,
      "러": 2238,
      "레": 2239,
      "로": 2240,
      "롤": 2241,
      "롸": 2242,
      "료": 2243,
      "루": 2244,
      "룮": 2245,
      "룰": 2246,
      "를": 2247,
      "름": 2248,
      "릅": 2249,
      "리": 2250,
      "림": 2251,
      "마": 2252,
      "만": 2253,
      "많": 2254,
      "말": 2255,
      "맛": 2256,
      "망": 2257,
      "맡": 2258,
      "멍": 2259,
      "며": 2260,
      "면": 2261,
      "명": 2262,
      "모": 2263,
      "몰": 2264,
      "못": 2265,
      "무": 2266,
      "문": 2267,
      "물": 2268,
      "뭐": 2269,
      "미": 2270,
      "바": 2271,
      "방": 2272,
      "밴": 2273,
      "버": 2274,
      "번": 2275,
      "변": 2276,
      "별": 2277,
      "보": 2278,
      "복": 2279,
      "봐": 2280,
      "봤": 2281,
      "부": 2282,
      "브": 2283,
      "비": 2284,
      "빕": 2285,
      "뿌": 2286,
      "사": 2287,
      "살": 2288,
      "삶": 2289,
      "상": 2290,
      "색": 2291,
      "생": 2292,
      "서": 2293,
      "선": 2294,
      "성": 2295,
      "세": 2296,
      "소": 2297,
      "속": 2298,
      "송": 2299,
      "쇼": 2300,
      "숏": 2301,
      "수": 2302,
      "스": 2303,
      "습": 2304,
      "시": 2305,
      "신": 2306,
      "십": 2307,
      "싶": 2308,
      "쎄": 2309,
      "아": 2310,
      "악": 2311,
      "안": 2312,
      "않": 2313,
      "알": 2314,
      "았": 2315,
      "액": 2316,
      "야": 2317,
      "어": 2318,
      "언": 2319,
      "업": 2320,
      "없": 2321,
      "엇": 2322,
      "었": 2323,
      "에": 2324,
      "엑": 2325,
      "여": 2326,
      "연": 2327,
      "영": 2328,
      "예": 2329,
      "오": 2330,
      "온": 2331,
      "올": 2332,
      "옹": 2333,
      "왜": 2334,
      "요": 2335,
      "용": 2336,
      "우": 2337,
      "운": 2338,
      "워": 2339,
      "월": 2340,
      "유": 2341,
      "으": 2342,
      "은": 2343,
      "을": 2344,
      "음": 2345,
      "의": 2346,
      "이": 2347,
      "인": 2348,
      "일": 2349,
      "입": 2350,
      "있": 2351,
      "잊": 2352,
      "자": 2353,
      "잘": 2354,
      "장": 2355,
      "재": 2356,
      "저": 2357,
      "전": 2358,
      "젊": 2359,
      "정": 2360,
      "제": 2361,
      "젠": 2362,
      "족": 2363,
      "존": 2364,
      "좋": 2365,
      "죠": 2366,
      "주": 2367,
      "죽": 2368,
      "줄": 2369,
      "중": 2370,
      "즃": 2371,
      "즐": 2372,
      "증": 2373,
      "지": 2374,
      "진": 2375,
      "짓": 2376,
      "째": 2377,
      "채": 2378,
      "천": 2379,
      "첫": 2380,
      "청": 2381,
      "체": 2382,
      "쳤": 2383,
      "최": 2384,
      "춋": 2385,
      "추": 2386,
      "축": 2387,
      "출": 2388,
      "취": 2389,
      "츄": 2390,
      "친": 2391,
      "카": 2392,
      "콤": 2393,
      "큰": 2394,
      "타": 2395,
      "탄": 2396,
      "태": 2397,
      "터": 2398,
      "테": 2399,
      "튜": 2400,
      "트": 2401,
      "팍": 2402,
      "팔": 2403,
      "펴": 2404,
      "편": 2405,
      "포": 2406,
      "프": 2407,
      "플": 2408,
      "피": 2409,
      "필": 2410,
      "하": 2411,
      "한": 2412,
      "할": 2413,
      "함": 2414,
      "합": 2415,
      "핳": 2416,
      "해": 2417,
      "했": 2418,
      "행": 2419,
      "향": 2420,
      "혈": 2421,
      "협": 2422,
      "호": 2423,
      "환": 2424,
      "활": 2425,
      "회": 2426,
      "효": 2427,
      "훛": 2428,
      "휴": 2429,
      "흩": 2430,
      "흫": 2431,
      "": 2432,
      "": 2433,
      "": 2434,
      "": 2435,
      "": 2436,
      "": 2437,
      "": 2438,
      "": 2439,
      "": 2440,
      "": 2441,
      "": 2442,
      "": 2443,
      "": 2444,
      "": 2445,
      "": 2446,
      "": 2447,
      "": 2448,
      "": 2449,
      "": 2450,
      "": 2451,
      "": 2452,
      "": 2453,
      "": 2454,
      "": 2455,
      "": 2456,
      "": 2457,
      "": 2458,
      "": 2459,
      "": 2460,
      "": 2461,
      "": 2462,
      "": 2463,
      "": 2464,
      "": 2465,
      "": 2466,
      "": 2467,
      "": 2468,
      "﮼": 2469,
      "﴾": 2470,
      "﴿": 2471,
      "﷽": 2472,
      "︎": 2473,
      "️": 2474,
      "﻿": 2475,
      "￼": 2476,
      "�": 2477,
      "𐙚": 2478,
      "𐫥": 2479,
      "𐬛": 2480,
      "𐬠": 2481,
      "𐭦": 2482,
      "𑸌": 2483,
      "𒋨": 2484,
      "𒐫": 2485,
      "𓁹": 2486,
      "𓂀": 2487,
      "𓂃": 2488,
      "𓂺": 2489,
      "𓃵": 2490,
      "𓆉": 2491,
      "𓆏": 2492,
      "𓆩": 2493,
      "𓆪": 2494,
      "𓇼": 2495,
      "𓋼": 2496,
      "𓍊": 2497,
      "𓍢": 2498,
      "𓏲": 2499,
      "𓏺": 2500,
      "𓽤": 2501,
      "𔘓": 2502,
      "𖣘": 2503,
      "𖤐": 2504,
      "𖦹": 2505,
      "𖹭": 2506,
      "𝄞": 2507,
      "𝕅": 2508,
      "🀄": 2509,
      "🃏": 2510,
      "🅐": 2511,
      "🅑": 2512,
      "🅒": 2513,
      "🅥": 2514,
      "🅰": 2515,
      "🅱": 2516,
      "🅲": 2517,
      "🅳": 2518,
      "🅶": 2519,
      "🅷": 2520,
      "🅸": 2521,
      "🅻": 2522,
      "🅾": 2523,
      "🅿": 2524,
      "🆁": 2525,
      "🆃": 2526,
      "🆈": 2527,
      "🆎": 2528,
      "🆑": 2529,
      "🆒": 2530,
      "🆓": 2531,
      "🆔": 2532,
      "🆕": 2533,
      "🆖": 2534,
      "🆗": 2535,
      "🆘": 2536,
      "🆙": 2537,
      "🆚": 2538,
      "🇦": 2539,
      "🇧": 2540,
      "🇨": 2541,
      "🇩": 2542,
      "🇪": 2543,
      "🇫": 2544,
      "🇬": 2545,
      "🇭": 2546,
      "🇮": 2547,
      "🇯": 2548,
      "🇰": 2549,
      "🇱": 2550,
      "🇲": 2551,
      "🇳": 2552,
      "🇴": 2553,
      "🇵": 2554,
      "🇶": 2555,
      "🇷": 2556,
      "🇸": 2557,
      "🇹": 2558,
      "🇺": 2559,
      "🇻": 2560,
      "🇼": 2561,
      "🇽": 2562,
      "🇾": 2563,
      "🇿": 2564,
      "🌀": 2565,
      "🌁": 2566,
      "🌂": 2567,
      "🌃": 2568,
      "🌄": 2569,
      "🌅": 2570,
      "🌆": 2571,
      "🌇": 2572,
      "🌈": 2573,
      "🌉": 2574,
      "🌊": 2575,
      "🌋": 2576,
      "🌌": 2577,
      "🌍": 2578,
      "🌎": 2579,
      "🌏": 2580,
      "🌐": 2581,
      "🌑": 2582,
      "🌒": 2583,
      "🌓": 2584,
      "🌔": 2585,
      "🌕": 2586,
      "🌖": 2587,
      "🌗": 2588,
      "🌘": 2589,
      "🌙": 2590,
      "🌚": 2591,
      "🌛": 2592,
      "🌜": 2593,
      "🌝": 2594,
      "🌞": 2595,
      "🌟": 2596,
      "🌠": 2597,
      "🌡": 2598,
      "🌤": 2599,
      "🌥": 2600,
      "🌦": 2601,
      "🌧": 2602,
      "🌨": 2603,
      "🌩": 2604,
      "🌪": 2605,
      "🌫": 2606,
      "🌬": 2607,
      "🌭": 2608,
      "🌮": 2609,
      "🌯": 2610,
      "🌰": 2611,
      "🌱": 2612,
      "🌲": 2613,
      "🌳": 2614,
      "🌴": 2615,
      "🌵": 2616,
      "🌶": 2617,
      "🌷": 2618,
      "🌸": 2619,
      "🌹": 2620,
      "🌺": 2621,
      "🌻": 2622,
      "🌼": 2623,
      "🌽": 2624,
      "🌾": 2625,
      "🌿": 2626,
      "🍀": 2627,
      "🍁": 2628,
      "🍂": 2629,
      "🍃": 2630,
      "🍄": 2631,
      "🍅": 2632,
      "🍆": 2633,
      "🍇": 2634,
      "🍉": 2635,
      "🍊": 2636,
      "🍋": 2637,
      "🍌": 2638,
      "🍍": 2639,
      "🍎": 2640,
      "🍏": 2641,
      "🍑": 2642,
      "🍒": 2643,
      "🍓": 2644,
      "🍔": 2645,
      "🍕": 2646,
      "🍖": 2647,
      "🍗": 2648,
      "🍚": 2649,
      "🍛": 2650,
      "🍜": 2651,
      "🍝": 2652,
      "🍞": 2653,
      "🍟": 2654,
      "🍠": 2655,
      "🍡": 2656,
      "🍢": 2657,
      "🍣": 2658,
      "🍤": 2659,
      "🍥": 2660,
      "🍦": 2661,
      "🍧": 2662,
      "🍨": 2663,
      "🍩": 2664,
      "🍪": 2665,
      "🍫": 2666,
      "🍬": 2667,
      "🍭": 2668,
      "🍮": 2669,
      "🍯": 2670,
      "🍰": 2671,
      "🍱": 2672,
      "🍲": 2673,
      "🍳": 2674,
      "🍴": 2675,
      "🍵": 2676,
      "🍶": 2677,
      "🍷": 2678,
      "🍸": 2679,
      "🍹": 2680,
      "🍺": 2681,
      "🍻": 2682,
      "🍼": 2683,
      "🍽": 2684,
      "🍾": 2685,
      "🍿": 2686,
      "🎀": 2687,
      "🎁": 2688,
      "🎂": 2689,
      "🎃": 2690,
      "🎄": 2691,
      "🎅": 2692,
      "🎆": 2693,
      "🎇": 2694,
      "🎈": 2695,
      "🎉": 2696,
      "🎊": 2697,
      "🎋": 2698,
      "🎌": 2699,
      "🎎": 2700,
      "🎏": 2701,
      "🎐": 2702,
      "🎑": 2703,
      "🎒": 2704,
      "🎓": 2705,
      "🎖": 2706,
      "🎗": 2707,
      "🎙": 2708,
      "🎞": 2709,
      "🎟": 2710,
      "🎡": 2711,
      "🎢": 2712,
      "🎣": 2713,
      "🎤": 2714,
      "🎥": 2715,
      "🎦": 2716,
      "🎧": 2717,
      "🎨": 2718,
      "🎩": 2719,
      "🎫": 2720,
      "🎬": 2721,
      "🎭": 2722,
      "🎮": 2723,
      "🎯": 2724,
      "🎰": 2725,
      "🎱": 2726,
      "🎲": 2727,
      "🎳": 2728,
      "🎴": 2729,
      "🎵": 2730,
      "🎶": 2731,
      "🎷": 2732,
      "🎸": 2733,
      "🎹": 2734,
      "🎺": 2735,
      "🎻": 2736,
      "🎼": 2737,
      "🎾": 2738,
      "🏀": 2739,
      "🏁": 2740,
      "🏂": 2741,
      "🏃": 2742,
      "🏄": 2743,
      "🏅": 2744,
      "🏆": 2745,
      "🏇": 2746,
      "🏈": 2747,
      "🏊": 2748,
      "🏋": 2749,
      "🏌": 2750,
      "🏍": 2751,
      "🏎": 2752,
      "🏔": 2753,
      "🏕": 2754,
      "🏖": 2755,
      "🏗": 2756,
      "🏘": 2757,
      "🏙": 2758,
      "🏚": 2759,
      "🏛": 2760,
      "🏜": 2761,
      "🏝": 2762,
      "🏞": 2763,
      "🏟": 2764,
      "🏠": 2765,
      "🏡": 2766,
      "🏢": 2767,
      "🏣": 2768,
      "🏤": 2769,
      "🏥": 2770,
      "🏦": 2771,
      "🏧": 2772,
      "🏨": 2773,
      "🏩": 2774,
      "🏫": 2775,
      "🏬": 2776,
      "🏭": 2777,
      "🏮": 2778,
      "🏯": 2779,
      "🏰": 2780,
      "🏳": 2781,
      "🏴": 2782,
      "🏵": 2783,
      "🏷": 2784,
      "🏹": 2785,
      "🏺": 2786,
      "🏻": 2787,
      "🏼": 2788,
      "🏽": 2789,
      "🏾": 2790,
      "🏿": 2791,
      "🐀": 2792,
      "🐁": 2793,
      "🐂": 2794,
      "🐃": 2795,
      "🐄": 2796,
      "🐅": 2797,
      "🐆": 2798,
      "🐇": 2799,
      "🐈": 2800,
      "🐉": 2801,
      "🐊": 2802,
      "🐋": 2803,
      "🐌": 2804,
      "🐍": 2805,
      "🐎": 2806,
      "🐏": 2807,
      "🐐": 2808,
      "🐑": 2809,
      "🐒": 2810,
      "🐓": 2811,
      "🐔": 2812,
      "🐕": 2813,
      "🐖": 2814,
      "🐗": 2815,
      "🐘": 2816,
      "🐙": 2817,
      "🐚": 2818,
      "🐛": 2819,
      "🐜": 2820,
      "🐝": 2821,
      "🐞": 2822,
      "🐟": 2823,
      "🐠": 2824,
      "🐡": 2825,
      "🐢": 2826,
      "🐣": 2827,
      "🐤": 2828,
      "🐥": 2829,
      "🐦": 2830,
      "🐧": 2831,
      "🐨": 2832,
      "🐩": 2833,
      "🐪": 2834,
      "🐫": 2835,
      "🐬": 2836,
      "🐭": 2837,
      "🐮": 2838,
      "🐯": 2839,
      "🐰": 2840,
      "🐱": 2841,
      "🐲": 2842,
      "🐳": 2843,
      "🐴": 2844,
      "🐵": 2845,
      "🐶": 2846,
      "🐷": 2847,
      "🐸": 2848,
      "🐹": 2849,
      "🐺": 2850,
      "🐻": 2851,
      "🐼": 2852,
      "🐽": 2853,
      "🐾": 2854,
      "🐿": 2855,
      "👀": 2856,
      "👁": 2857,
      "👂": 2858,
      "👃": 2859,
      "👄": 2860,
      "👅": 2861,
      "👆": 2862,
      "👇": 2863,
      "👈": 2864,
      "👉": 2865,
      "👊": 2866,
      "👋": 2867,
      "👌": 2868,
      "👍": 2869,
      "👎": 2870,
      "👏": 2871,
      "👐": 2872,
      "👑": 2873,
      "👒": 2874,
      "👓": 2875,
      "👔": 2876,
      "👕": 2877,
      "👖": 2878,
      "👗": 2879,
      "👘": 2880,
      "👙": 2881,
      "👚": 2882,
      "👛": 2883,
      "👝": 2884,
      "👞": 2885,
      "👟": 2886,
      "👠": 2887,
      "👡": 2888,
      "👢": 2889,
      "👣": 2890,
      "👤": 2891,
      "👥": 2892,
      "👦": 2893,
      "👧": 2894,
      "👨": 2895,
      "👩": 2896,
      "👪": 2897,
      "👫": 2898,
      "👬": 2899,
      "👭": 2900,
      "👮": 2901,
      "👯": 2902,
      "👰": 2903,
      "👱": 2904,
      "👳": 2905,
      "👴": 2906,
      "👵": 2907,
      "👶": 2908,
      "👷": 2909,
      "👸": 2910,
      "👹": 2911,
      "👺": 2912,
      "👻": 2913,
      "👼": 2914,
      "👽": 2915,
      "👾": 2916,
      "👿": 2917,
      "💀": 2918,
      "💁": 2919,
      "💂": 2920,
      "💃": 2921,
      "💄": 2922,
      "💅": 2923,
      "💆": 2924,
      "💇": 2925,
      "💉": 2926,
      "💊": 2927,
      "💋": 2928,
      "💌": 2929,
      "💍": 2930,
      "💎": 2931,
      "💏": 2932,
      "💐": 2933,
      "💑": 2934,
      "💒": 2935,
      "💓": 2936,
      "💔": 2937,
      "💕": 2938,
      "💖": 2939,
      "💗": 2940,
      "💘": 2941,
      "💙": 2942,
      "💚": 2943,
      "💛": 2944,
      "💜": 2945,
      "💝": 2946,
      "💞": 2947,
      "💟": 2948,
      "💠": 2949,
      "💡": 2950,
      "💢": 2951,
      "💣": 2952,
      "💤": 2953,
      "💥": 2954,
      "💦": 2955,
      "💧": 2956,
      "💨": 2957,
      "💩": 2958,
      "💪": 2959,
      "💫": 2960,
      "💬": 2961,
      "💭": 2962,
      "💮": 2963,
      "💯": 2964,
      "💰": 2965,
      "💱": 2966,
      "💲": 2967,
      "💳": 2968,
      "💴": 2969,
      "💵": 2970,
      "💶": 2971,
      "💷": 2972,
      "💸": 2973,
      "💹": 2974,
      "💺": 2975,
      "💻": 2976,
      "💼": 2977,
      "💽": 2978,
      "💾": 2979,
      "💿": 2980,
      "📀": 2981,
      "📁": 2982,
      "📂": 2983,
      "📃": 2984,
      "📄": 2985,
      "📅": 2986,
      "📆": 2987,
      "📈": 2988,
      "📉": 2989,
      "📊": 2990,
      "📋": 2991,
      "📌": 2992,
      "📍": 2993,
      "📎": 2994,
      "📏": 2995,
      "📐": 2996,
      "📑": 2997,
      "📒": 2998,
      "📓": 2999,
      "📔": 3000,
      "📕": 3001,
      "📖": 3002,
      "📗": 3003,
      "📘": 3004,
      "📙": 3005,
      "📚": 3006,
      "📛": 3007,
      "📜": 3008,
      "📝": 3009,
      "📞": 3010,
      "📟": 3011,
      "📠": 3012,
      "📡": 3013,
      "📢": 3014,
      "📣": 3015,
      "📤": 3016,
      "📦": 3017,
      "📧": 3018,
      "📨": 3019,
      "📩": 3020,
      "📯": 3021,
      "📰": 3022,
      "📱": 3023,
      "📲": 3024,
      "📳": 3025,
      "📵": 3026,
      "📶": 3027,
      "📷": 3028,
      "📸": 3029,
      "📹": 3030,
      "📺": 3031,
      "📻": 3032,
      "📽": 3033,
      "📿": 3034,
      "🔀": 3035,
      "🔁": 3036,
      "🔂": 3037,
      "🔃": 3038,
      "🔄": 3039,
      "🔅": 3040,
      "🔆": 3041,
      "🔇": 3042,
      "🔈": 3043,
      "🔉": 3044,
      "🔊": 3045,
      "🔋": 3046,
      "🔌": 3047,
      "🔍": 3048,
      "🔎": 3049,
      "🔐": 3050,
      "🔑": 3051,
      "🔒": 3052,
      "🔓": 3053,
      "🔔": 3054,
      "🔕": 3055,
      "🔖": 3056,
      "🔗": 3057,
      "🔘": 3058,
      "🔙": 3059,
      "🔚": 3060,
      "🔛": 3061,
      "🔜": 3062,
      "🔝": 3063,
      "🔞": 3064,
      "🔟": 3065,
      "🔠": 3066,
      "🔡": 3067,
      "🔢": 3068,
      "🔣": 3069,
      "🔤": 3070,
      "🔥": 3071,
      "🔦": 3072,
      "🔧": 3073,
      "🔨": 3074,
      "🔩": 3075,
      "🔪": 3076,
      "🔫": 3077,
      "🔬": 3078,
      "🔭": 3079,
      "🔮": 3080,
      "🔯": 3081,
      "🔰": 3082,
      "🔱": 3083,
      "🔲": 3084,
      "🔳": 3085,
      "🔴": 3086,
      "🔵": 3087,
      "🔶": 3088,
      "🔷": 3089,
      "🔸": 3090,
      "🔹": 3091,
      "🔺": 3092,
      "🔻": 3093,
      "🔼": 3094,
      "🔽": 3095,
      "🕉": 3096,
      "🕊": 3097,
      "🕋": 3098,
      "🕌": 3099,
      "🕎": 3100,
      "🕐": 3101,
      "🕑": 3102,
      "🕒": 3103,
      "🕓": 3104,
      "🕔": 3105,
      "🕕": 3106,
      "🕖": 3107,
      "🕘": 3108,
      "🕙": 3109,
      "🕚": 3110,
      "🕛": 3111,
      "🕜": 3112,
      "🕝": 3113,
      "🕞": 3114,
      "🕟": 3115,
      "🕠": 3116,
      "🕡": 3117,
      "🕣": 3118,
      "🕥": 3119,
      "🕦": 3120,
      "🕧": 3121,
      "🕯": 3122,
      "🕰": 3123,
      "🕳": 3124,
      "🕴": 3125,
      "🕵": 3126,
      "🕶": 3127,
      "🕷": 3128,
      "🕸": 3129,
      "🕹": 3130,
      "🕺": 3131,
      "🖇": 3132,
      "🖊": 3133,
      "🖋": 3134,
      "🖌": 3135,
      "🖍": 3136,
      "🖎": 3137,
      "🖐": 3138,
      "🖑": 3139,
      "🖒": 3140,
      "🖓": 3141,
      "🖕": 3142,
      "🖖": 3143,
      "🖤": 3144,
      "🖥": 3145,
      "🖨": 3146,
      "🖱": 3147,
      "🖲": 3148,
      "🖼": 3149,
      "🗂": 3150,
      "🗑": 3151,
      "🗒": 3152,
      "🗓": 3153,
      "🗝": 3154,
      "🗞": 3155,
      "🗡": 3156,
      "🗣": 3157,
      "🗨": 3158,
      "🗯": 3159,
      "🗳": 3160,
      "🗺": 3161,
      "🗻": 3162,
      "🗼": 3163,
      "🗽": 3164,
      "🗾": 3165,
      "🗿": 3166,
      "😀": 3167,
      "😁": 3168,
      "😂": 3169,
      "😃": 3170,
      "😄": 3171,
      "😅": 3172,
      "😆": 3173,
      "😇": 3174,
      "😈": 3175,
      "😉": 3176,
      "😊": 3177,
      "😋": 3178,
      "😌": 3179,
      "😍": 3180,
      "😎": 3181,
      "😏": 3182,
      "😐": 3183,
      "😑": 3184,
      "😒": 3185,
      "😓": 3186,
      "😔": 3187,
      "😕": 3188,
      "😖": 3189,
      "😗": 3190,
      "😘": 3191,
      "😙": 3192,
      "😚": 3193,
      "😛": 3194,
      "😜": 3195,
      "😝": 3196,
      "😞": 3197,
      "😟": 3198,
      "😠": 3199,
      "😡": 3200,
      "😢": 3201,
      "😣": 3202,
      "😤": 3203,
      "😥": 3204,
      "😦": 3205,
      "😧": 3206,
      "😨": 3207,
      "😩": 3208,
      "😪": 3209,
      "😫": 3210,
      "😬": 3211,
      "😭": 3212,
      "😮": 3213,
      "😯": 3214,
      "😰": 3215,
      "😱": 3216,
      "😲": 3217,
      "😳": 3218,
      "😴": 3219,
      "😵": 3220,
      "😶": 3221,
      "😷": 3222,
      "😸": 3223,
      "😹": 3224,
      "😺": 3225,
      "😻": 3226,
      "😼": 3227,
      "😽": 3228,
      "😾": 3229,
      "😿": 3230,
      "🙀": 3231,
      "🙁": 3232,
      "🙂": 3233,
      "🙃": 3234,
      "🙄": 3235,
      "🙅": 3236,
      "🙆": 3237,
      "🙇": 3238,
      "🙈": 3239,
      "🙉": 3240,
      "🙊": 3241,
      "🙋": 3242,
      "🙌": 3243,
      "🙍": 3244,
      "🙎": 3245,
      "🙏": 3246,
      "🚀": 3247,
      "🚁": 3248,
      "🚂": 3249,
      "🚃": 3250,
      "🚆": 3251,
      "🚈": 3252,
      "🚊": 3253,
      "🚌": 3254,
      "🚐": 3255,
      "🚑": 3256,
      "🚒": 3257,
      "🚓": 3258,
      "🚔": 3259,
      "🚕": 3260,
      "🚖": 3261,
      "🚗": 3262,
      "🚘": 3263,
      "🚙": 3264,
      "🚚": 3265,
      "🚛": 3266,
      "🚜": 3267,
      "🚠": 3268,
      "🚢": 3269,
      "🚣": 3270,
      "🚤": 3271,
      "🚥": 3272,
      "🚦": 3273,
      "🚧": 3274,
      "🚨": 3275,
      "🚩": 3276,
      "🚪": 3277,
      "🚫": 3278,
      "🚬": 3279,
      "🚮": 3280,
      "🚯": 3281,
      "🚰": 3282,
      "🚲": 3283,
      "🚳": 3284,
      "🚴": 3285,
      "🚵": 3286,
      "🚶": 3287,
      "🚷": 3288,
      "🚸": 3289,
      "🚹": 3290,
      "🚺": 3291,
      "🚼": 3292,
      "🚽": 3293,
      "🚾": 3294,
      "🛀": 3295,
      "🛁": 3296,
      "🛃": 3297,
      "🛇": 3298,
      "🛋": 3299,
      "🛌": 3300,
      "🛍": 3301,
      "🛎": 3302,
      "🛏": 3303,
      "🛐": 3304,
      "🛑": 3305,
      "🛒": 3306,
      "🛕": 3307,
      "🛗": 3308,
      "🛞": 3309,
      "🛠": 3310,
      "🛡": 3311,
      "🛢": 3312,
      "🛣": 3313,
      "🛤": 3314,
      "🛥": 3315,
      "🛩": 3316,
      "🛫": 3317,
      "🛬": 3318,
      "🛳": 3319,
      "🛶": 3320,
      "🛸": 3321,
      "🛹": 3322,
      "🟠": 3323,
      "🟡": 3324,
      "🟢": 3325,
      "🟣": 3326,
      "🟤": 3327,
      "🟥": 3328,
      "🟦": 3329,
      "🟧": 3330,
      "🟨": 3331,
      "🟩": 3332,
      "🟪": 3333,
      "🟫": 3334,
      "🟰": 3335,
      "🤌": 3336,
      "🤍": 3337,
      "🤎": 3338,
      "🤏": 3339,
      "🤐": 3340,
      "🤑": 3341,
      "🤒": 3342,
      "🤓": 3343,
      "🤔": 3344,
      "🤕": 3345,
      "🤖": 3346,
      "🤗": 3347,
      "🤘": 3348,
      "🤙": 3349,
      "🤚": 3350,
      "🤛": 3351,
      "🤜": 3352,
      "🤝": 3353,
      "🤞": 3354,
      "🤟": 3355,
      "🤠": 3356,
      "🤡": 3357,
      "🤢": 3358,
      "🤣": 3359,
      "🤤": 3360,
      "🤥": 3361,
      "🤦": 3362,
      "🤧": 3363,
      "🤨": 3364,
      "🤩": 3365,
      "🤪": 3366,
      "🤫": 3367,
      "🤬": 3368,
      "🤭": 3369,
      "🤮": 3370,
      "🤯": 3371,
      "🤰": 3372,
      "🤱": 3373,
      "🤲": 3374,
      "🤳": 3375,
      "🤴": 3376,
      "🤵": 3377,
      "🤶": 3378,
      "🤷": 3379,
      "🤸": 3380,
      "🤹": 3381,
      "🤺": 3382,
      "🤼": 3383,
      "🤽": 3384,
      "🥀": 3385,
      "🥁": 3386,
      "🥂": 3387,
      "🥃": 3388,
      "🥄": 3389,
      "🥅": 3390,
      "🥇": 3391,
      "🥈": 3392,
      "🥉": 3393,
      "🥊": 3394,
      "🥋": 3395,
      "🥎": 3396,
      "🥏": 3397,
      "🥐": 3398,
      "🥑": 3399,
      "🥒": 3400,
      "🥔": 3401,
      "🥕": 3402,
      "🥖": 3403,
      "🥗": 3404,
      "🥘": 3405,
      "🥙": 3406,
      "🥚": 3407,
      "🥛": 3408,
      "🥜": 3409,
      "🥝": 3410,
      "🥞": 3411,
      "🥟": 3412,
      "🥢": 3413,
      "🥣": 3414,
      "🥤": 3415,
      "🥥": 3416,
      "🥦": 3417,
      "🥧": 3418,
      "🥨": 3419,
      "🥩": 3420,
      "🥪": 3421,
      "🥬": 3422,
      "🥭": 3423,
      "🥯": 3424,
      "🥰": 3425,
      "🥱": 3426,
      "🥲": 3427,
      "🥳": 3428,
      "🥴": 3429,
      "🥵": 3430,
      "🥶": 3431,
      "🥷": 3432,
      "🥸": 3433,
      "🥹": 3434,
      "🥺": 3435,
      "🥼": 3436,
      "🥽": 3437,
      "🥾": 3438,
      "🥿": 3439,
      "🦀": 3440,
      "🦁": 3441,
      "🦂": 3442,
      "🦃": 3443,
      "🦄": 3444,
      "🦅": 3445,
      "🦆": 3446,
      "🦇": 3447,
      "🦈": 3448,
      "🦉": 3449,
      "🦊": 3450,
      "🦋": 3451,
      "🦍": 3452,
      "🦎": 3453,
      "🦏": 3454,
      "🦐": 3455,
      "🦑": 3456,
      "🦒": 3457,
      "🦓": 3458,
      "🦔": 3459,
      "🦕": 3460,
      "🦖": 3461,
      "🦗": 3462,
      "🦙": 3463,
      "🦚": 3464,
      "🦜": 3465,
      "🦝": 3466,
      "🦟": 3467,
      "🦠": 3468,
      "🦢": 3469,
      "🦥": 3470,
      "🦦": 3471,
      "🦧": 3472,
      "🦩": 3473,
      "🦪": 3474,
      "🦫": 3475,
      "🦬": 3476,
      "🦭": 3477,
      "🦮": 3478,
      "🦯": 3479,
      "🦰": 3480,
      "🦲": 3481,
      "🦳": 3482,
      "🦴": 3483,
      "🦵": 3484,
      "🦶": 3485,
      "🦷": 3486,
      "🦸": 3487,
      "🦹": 3488,
      "🦺": 3489,
      "🦻": 3490,
      "🦼": 3491,
      "🦾": 3492,
      "🧀": 3493,
      "🧁": 3494,
      "🧂": 3495,
      "🧃": 3496,
      "🧄": 3497,
      "🧅": 3498,
      "🧆": 3499,
      "🧈": 3500,
      "🧊": 3501,
      "🧋": 3502,
      "🧌": 3503,
      "🧍": 3504,
      "🧎": 3505,
      "🧏": 3506,
      "🧐": 3507,
      "🧑": 3508,
      "🧒": 3509,
      "🧓": 3510,
      "🧔": 3511,
      "🧕": 3512,
      "🧖": 3513,
      "🧗": 3514,
      "🧘": 3515,
      "🧙": 3516,
      "🧚": 3517,
      "🧛": 3518,
      "🧜": 3519,
      "🧝": 3520,
      "🧞": 3521,
      "🧟": 3522,
      "🧠": 3523,
      "🧡": 3524,
      "🧢": 3525,
      "🧣": 3526,
      "🧤": 3527,
      "🧥": 3528,
      "🧦": 3529,
      "🧨": 3530,
      "🧩": 3531,
      "🧪": 3532,
      "🧬": 3533,
      "🧭": 3534,
      "🧮": 3535,
      "🧯": 3536,
      "🧰": 3537,
      "🧱": 3538,
      "🧲": 3539,
      "🧳": 3540,
      "🧴": 3541,
      "🧶": 3542,
      "🧷": 3543,
      "🧸": 3544,
      "🧹": 3545,
      "🧺": 3546,
      "🧻": 3547,
      "🧼": 3548,
      "🧽": 3549,
      "🧾": 3550,
      "🧿": 3551,
      "🩰": 3552,
      "🩱": 3553,
      "🩲": 3554,
      "🩳": 3555,
      "🩴": 3556,
      "🩵": 3557,
      "🩶": 3558,
      "🩷": 3559,
      "🩸": 3560,
      "🩹": 3561,
      "🩺": 3562,
      "🩻": 3563,
      "🪁": 3564,
      "🪄": 3565,
      "🪎": 3566,
      "🪏": 3567,
      "🪐": 3568,
      "🪑": 3569,
      "🪓": 3570,
      "🪔": 3571,
      "🪕": 3572,
      "🪖": 3573,
      "🪘": 3574,
      "🪙": 3575,
      "🪚": 3576,
      "🪛": 3577,
      "🪞": 3578,
      "🪠": 3579,
      "🪡": 3580,
      "🪢": 3581,
      "🪣": 3582,
      "🪥": 3583,
      "🪦": 3584,
      "🪧": 3585,
      "🪨": 3586,
      "🪩": 3587,
      "🪫": 3588,
      "🪬": 3589,
      "🪮": 3590,
      "🪰": 3591,
      "🪳": 3592,
      "🪴": 3593,
      "🪵": 3594,
      "🪶": 3595,
      "🪷": 3596,
      "🪸": 3597,
      "🪹": 3598,
      "🪺": 3599,
      "🪻": 3600,
      "🪼": 3601,
      "🪽": 3602,
      "🪿": 3603,
      "🫀": 3604,
      "🫁": 3605,
      "🫂": 3606,
      "🫄": 3607,
      "🫅": 3608,
      "🫆": 3609,
      "🫏": 3610,
      "🫐": 3611,
      "🫑": 3612,
      "🫒": 3613,
      "🫓": 3614,
      "🫔": 3615,
      "🫕": 3616,
      "🫖": 3617,
      "🫗": 3618,
      "🫙": 3619,
      "🫚": 3620,
      "🫠": 3621,
      "🫡": 3622,
      "🫢": 3623,
      "🫣": 3624,
      "🫤": 3625,
      "🫥": 3626,
      "🫦": 3627,
      "🫧": 3628,
      "🫨": 3629,
      "🫩": 3630,
      "🫪": 3631,
      "🫰": 3632,
      "🫱": 3633,
      "🫲": 3634,
      "🫳": 3635,
      "🫴": 3636,
      "🫵": 3637,
      "🫶": 3638,
      "🫷": 3639,
      "🫸": 3640,
      "󠁢": 3641,
      "󠁣": 3642,
      "󠁥": 3643,
      "󠁧": 3644,
      "󠁬": 3645,
      "󠁮": 3646,
      "󠁳": 3647,
      "󠁴": 3648,
      "󠁷": 3649,
      "󠁿": 3650,
      "##ل": 3651,
      "##ن": 3652,
      "##ح": 3653,
      "##ي": 3654,
      "##a": 3655,
      "##s": 3656,
      "##f": 3657,
      "##t": 3658,
      "##e": 3659,
      "##k": 3660,
      "##إ": 3661,
      "##ض": 3662,
      "##ا": 3663,
      "##ف": 3664,
      "##ة": 3665,
      "##ب": 3666,
      "##ه": 3667,
      "##.": 3668,
      "##ر": 3669,
      "##ت": 3670,
      "##و": 3671,
      "##خ": 3672,
      "##😣": 3673,
      "##أ": 3674,
      "##ك": 3675,
      "##ث": 3676,
      "##م": 3677,
      "##ق": 3678,
      "##🤍": 3679,
      "##❤": 3680,
      "##‍": 3681,
      "##🔥": 3682,
      "##ع": 3683,
      "##🤩": 3684,
      "##🌹": 3685,
      "##س": 3686,
      "##ط": 3687,
      "##،": 3688,
      "##1": 3689,
      "##2": 3690,
      "##-": 3691,
      "##3": 3692,
      "##:": 3693,
      "##p": 3694,
      "##🌷": 3695,
      "##6": 3696,
      "##5": 3697,
      "##9": 3698,
      "##)": 3699,
      "##n": 3700,
      "##i": 3701,
      "##l": 3702,
      "##\"": 3703,
      "##0": 3704,
      "##د": 3705,
      "##ش": 3706,
      "##A": 3707,
      "##E": 3708,
      "##F": 3709,
      "##ج": 3710,
      "##/": 3711,
      "##7": 3712,
      "##💐": 3713,
      "##٤": 3714,
      "##٧": 3715,
      "##~": 3716,
      "##ص": 3717,
      "##(": 3718,
      "##آ": 3719,
      "##♥": 3720,
      "##ذ": 3721,
      "##ظ": 3722,
      "##غ": 3723,
      "##😊": 3724,
      "##؟": 3725,
      "##”": 3726,
      "##ى": 3727,
      "##m": 3728,
      "##r": 3729,
      "##?": 3730,
      "##o": 3731,
      "##g": 3732,
      "##😶": 3733,
      "##!": 3734,
      "##w": 3735,
      "##4": 3736,
      "##😓": 3737,
      "##y": 3738,
      "##😂": 3739,
      "##d": 3740,
      "##u": 3741,
      "##b": 3742,
      "##h": 3743,
      "##💗": 3744,
      "##c": 3745,
      "##🦋": 3746,
      "##🤲": 3747,
      "##ز": 3748,
      "##,": 3749,
      "##_": 3750,
      "##😢": 3751,
      "##»": 3752,
      "##🙂": 3753,
      "##ؤ": 3754,
      "##₪": 3755,
      "##😇": 3756,
      "##💪": 3757,
      "##j": 3758,
      "##8": 3759,
      "##}": 3760,
      "##ئ": 3761,
      "##🇵": 3762,
      "##🎉": 3763,
      "##é": 3764,
      "##+": 3765,
      "##ء": 3766,
      "##v": 3767,
      "##️": 3768,
      "##🤎": 3769,
      "##Z": 3770,
      "##Y": 3771,
      "##O": 3772,
      "##H": 3773,
      "##R": 3774,
      "##J": 3775,
      "##S": 3776,
      "##Q": 3777,
      "##V": 3778,
      "##W": 3779,
      "##G": 3780,
      "##B": 3781,
      "##I": 3782,
      "##K": 3783,
      "##z": 3784,
      "##X": 3785,
      "##P": 3786,
      "##x": 3787,
      "##ک": 3788,
      "##T": 3789,
      "##>": 3790,
      "##$": 3791,
      "##❣": 3792,
      "##🇲": 3793,
      "##🇷": 3794,
      "##☑": 3795,
      "##L": 3796,
      "##U": 3797,
      "##😻": 3798,
      "##q": 3799,
      "##😍": 3800,
      "##ڨ": 3801,
      "##😚": 3802,
      "##😘": 3803,
      "##💔": 3804,
      "##×": 3805,
      "##٫": 3806,
      "##'": 3807,
      "##👌": 3808,
      "##🤣": 3809,
      "##🌸": 3810,
      "##؛": 3811,
      "##ۡ": 3812,
      "##🌡": 3813,
      "##😮": 3814,
      "##]": 3815,
      "##✖": 3816,
      "##🤗": 3817,
      "##C": 3818,
      "##😔": 3819,
      "##🙁": 3820,
      "##ی": 3821,
      "##⚙": 3822,
      "##😭": 3823,
      "##😅": 3824,
      "##👏": 3825,
      "##✊": 3826,
      "##🇩": 3827,
      "##*": 3828,
      "##🏻": 3829,
      "##🥺": 3830,
      "##🕹": 3831,
      "##🗿": 3832,
      "##ـ": 3833,
      "##©": 3834,
      "##⭐": 3835,
      "##🤭": 3836,
      "##🧊": 3837,
      "##👍": 3838,
      "##‏": 3839,
      "##🫁": 3840,
      "##😋": 3841,
      "##✔": 3842,
      "##٩": 3843,
      "##﴾": 3844,
      "##«": 3845,
      "##N": 3846,
      "##M": 3847,
      "##پ": 3848,
      "##😜": 3849,
      "##💞": 3850,
      "##💜": 3851,
      "##▶": 3852,
      "##🔮": 3853,
      "##=": 3854,
      "##🐮": 3855,
      "##😏": 3856,
      "##🤦": 3857,
      "##♀": 3858,
      "##🙄": 3859,
      "##🤪": 3860,
      "##🌚": 3861,
      "##😒": 3862,
      "##D": 3863,
      "##è": 3864,
      "##🧐": 3865,
      "##✨": 3866,
      "##💚": 3867,
      "##♡": 3868,
      "##😎": 3869,
      "##✌": 3870,
      "##â": 3871,
      "##٦": 3872,
      "##❌": 3873,
      "##⁩": 3874,
      "##🤡": 3875,
      "##🔪": 3876,
      "##😰": 3877,
      "##😡": 3878,
      "##🖤": 3879,
      "##😗": 3880,
      "##[": 3881,
      "##🥰": 3882,
      "##💓": 3883,
      "##٠": 3884,
      "##🇿": 3885,
      "##🇪": 3886,
      "##🇦": 3887,
      "##🤏": 3888,
      "##🇱": 3889,
      "##👮": 3890,
      "##♂": 3891,
      "##^": 3892,
      "##ï": 3893,
      "##·": 3894,
      "##🙏": 3895,
      "##😝": 3896,
      "##🤔": 3897,
      "##😧": 3898,
      "##✅": 3899,
      "###": 3900,
      "##٥": 3901,
      "##🌍": 3902,
      "##꧂": 3903,
      "##✡": 3904,
      "##👹": 3905,
      "##💩": 3906,
      "##É": 3907,
      "##٢": 3908,
      "##😥": 3909,
      "##💧": 3910,
      "##🍓": 3911,
      "##🌻": 3912,
      "##😱": 3913,
      "##👻": 3914,
      "##💙": 3915,
      "##§": 3916,
      "##„": 3917,
      "##ھ": 3918,
      "##ٹ": 3919,
      "##±": 3920,
      "##🍯": 3921,
      "##😐": 3922,
      "##🕳": 3923,
      "##ۖ": 3924,
      "##💕": 3925,
      "##💖": 3926,
      "##😌": 3927,
      "##🔴": 3928,
      "##🤓": 3929,
      "##☺": 3930,
      "##⬅": 3931,
      "##ڪ": 3932,
      "##👈": 3933,
      "##👉": 3934,
      "##🖒": 3935,
      "##😁": 3936,
      "##😉": 3937,
      "##ڤ": 3938,
      "##🌺": 3939,
      "##’": 3940,
      "##̨": 3941,
      "##̍": 3942,
      "##ڕ": 3943,
      "##ٻ": 3944,
      "##ۧ": 3945,
      "##ڛ": 3946,
      "##ۣ": 3947,
      "##ٿ": 3948,
      "##ۉ": 3949,
      "##ۨ": 3950,
      "##☠": 3951,
      "##🥀": 3952,
      "##↖": 3953,
      "##🥲": 3954,
      "##🤌": 3955,
      "##💯": 3956,
      "##🥹": 3957,
      "##🎓": 3958,
      "##🐸": 3959,
      "##🎀": 3960,
      "##🇰": 3961,
      "##😹": 3962,
      "##🥵": 3963,
      "##🤢": 3964,
      "##🫀": 3965,
      "##|": 3966,
      "##💫": 3967,
      "##🏼": 3968,
      "##😀": 3969,
      "##😯": 3970,
      "##١": 3971,
      "##🔋": 3972,
      "##🙃": 3973,
      "##😕": 3974,
      "##🌼": 3975,
      "##¶": 3976,
      "##﴿": 3977,
      "##🥳": 3978,
      "##😑": 3979,
      "##;": 3980,
      "##🙌": 3981,
      "##{": 3982,
      "##🌈": 3983,
      "##🤫": 3984,
      "##🫶": 3985,
      "##👋": 3986,
      "##😫": 3987,
      "##🤝": 3988,
      "##🇧": 3989,
      "##🏵": 3990,
      "##↗": 3991,
      "##💃": 3992,
      "##ˆ": 3993,
      "##ڑ": 3994,
      "##🙉": 3995,
      "##🤑": 3996,
      "##🌝": 3997,
      "##🙈": 3998,
      "##📿": 3999,
      "##🧿": 4000,
      "##🤮": 4001,
      "##☹": 4002,
      "##🗞": 4003,
      "##👑": 4004,
      "##🏾": 4005,
      "##•": 4006,
      "##☝": 4007,
      "##💟": 4008,
      "##🍒": 4009,
      "##≡": 4010,
      "##‚": 4011,
      "##†": 4012,
      "##🤯": 4013,
      "##گ": 4014,
      "##\\": 4015,
      "##😞": 4016,
      "##👽": 4017,
      "##🐧": 4018,
      "##づ": 4019,
      "##🥴": 4020,
      "##٣": 4021,
      "##🤐": 4022,
      "##😄": 4023,
      "##💝": 4024,
      "##😈": 4025,
      "##😠": 4026,
      "##😩": 4027,
      "##😆": 4028,
      "##": 4029,
      "##🩹": 4030,
      "##🎅": 4031,
      "##‌": 4032,
      "##¥": 4033,
      "##ࢪ": 4034,
      "##💛": 4035,
      "##👨": 4036,
      "##🔬": 4037,
      "##ो": 4038,
      "##💀": 4039,
      "##👿": 4040,
      "##☆": 4041,
      "##😤": 4042,
      "##%": 4043,
      "##à": 4044,
      "##🍃": 4045,
      "##📍": 4046,
      "##🩵": 4047,
      "##<": 4048,
      "##🥯": 4049,
      "##🥞": 4050,
      "##🤧": 4051,
      "##🇴": 4052,
      "##😳": 4053,
      "##🇸": 4054,
      "##👀": 4055,
      "##😃": 4056,
      "##¬": 4057,
      "##🏫": 4058,
      "##°": 4059,
      "##😵": 4060,
      "##😟": 4061,
      "##😪": 4062,
      "##😙": 4063,
      "##💥": 4064,
      "##🏆": 4065,
      "##🫡": 4066,
      "##﻿": 4067,
      "##🙋": 4068,
      "##🏳": 4069,
      "##🤷": 4070,
      "##ࢦ": 4071,
      "##۬": 4072,
      "##╲": 4073,
      "##╭": 4074,
      "##‿": 4075,
      "##╮": 4076,
      "##╱": 4077,
      "##î": 4078,
      "##☬": 4079,
      "##⋞": 4080,
      "##🫂": 4081,
      "##🧠": 4082,
      "##“": 4083,
      "##ہ": 4084,
      "##👇": 4085,
      "##۝": 4086,
      "##■": 4087,
      "##□": 4088,
      "##》": 4089,
      "##▽": 4090,
      "##🎧": 4091,
      "##Ť": 4092,
      "##Ž": 4093,
      "##마": 4094,
      "##워": 4095,
      "##요": 4096,
      "##&": 4097,
      "##٨": 4098,
      "##🐏": 4099,
      "##🐑": 4100,
      "##ཌ": 4101,
      "##༈": 4102,
      "##☪": 4103,
      "##👊": 4104,
      "##🌨": 4105,
      "##🎊": 4106,
      "##💋": 4107,
      "##🌎": 4108,
      "##😷": 4109,
      "##🦄": 4110,
      "##🌿": 4111,
      "##⁄": 4112,
      "##🔰": 4113,
      "##🛑": 4114,
      "##🤨": 4115,
      "##⁠": 4116,
      "##◍": 4117,
      "##ᴗ": 4118,
      "##👸": 4119,
      "##🐊": 4120,
      "##☔": 4121,
      "##👐": 4122,
      "##🤙": 4123,
      "##🙆": 4124,
      "##🗣": 4125,
      "##¦": 4126,
      "##¢": 4127,
      "##😲": 4128,
      "##¤": 4129,
      "##🫤": 4130,
      "##🤕": 4131,
      "##⚠": 4132,
      "##ṣ": 4133,
      "##🩷": 4134,
      "##🚈": 4135,
      "##🍄": 4136,
      "##چ": 4137,
      "##🏍": 4138,
      "##ı": 4139,
      "##Ç": 4140,
      "##👩": 4141,
      "##🇹": 4142,
      "##🇳": 4143,
      "##🧜": 4144,
      "##č": 4145,
      "##⚡": 4146,
      "##🌙": 4147,
      "##ۥ": 4148,
      "##∇": 4149,
      "##💨": 4150,
      "##🥶": 4151,
      "##🕯": 4152,
      "##@": 4153,
      "##ê": 4154,
      "##🌟": 4155,
      "##🤟": 4156,
      "##🧡": 4157,
      "##👤": 4158,
      "##🐱": 4159,
      "##ᄋ": 4160,
      "##ᄒ": 4161,
      "##라": 4162,
      "##ᅩ": 4163,
      "##호": 4164,
      "##£": 4165,
      "##‘": 4166,
      "##👁": 4167,
      "##👄": 4168,
      "##🖐": 4169,
      "##‬": 4170,
      "##🚀": 4171,
      "##⬆": 4172,
      "##↕": 4173,
      "##↙": 4174,
      "##🪫": 4175,
      "##ٱ": 4176,
      "##🍑": 4177,
      "##ۚ": 4178,
      "##ô": 4179,
      "##✍": 4180,
      "##ێ": 4181,
      "##ە": 4182,
      "##🤜": 4183,
      "##😨": 4184,
      "##♦": 4185,
      "##🟠": 4186,
      "##⚫": 4187,
      "##💘": 4188,
      "##☘": 4189,
      "##🌌": 4190,
      "##⌚": 4191,
      "##🕷": 4192,
      "##⬛": 4193,
      "##đ": 4194,
      "##ā": 4195,
      "##ņ": 4196,
      "##😸": 4197,
      "##👫": 4198,
      "##💏": 4199,
      "##🚫": 4200,
      "##🦁": 4201,
      "##🎈": 4202,
      "##ó": 4203,
      "##í": 4204,
      "##۟": 4205,
      "##👺": 4206,
      "##♓": 4207,
      "##👎": 4208,
      "##🩶": 4209,
      "##🕺": 4210,
      "##🪐": 4211,
      "##☄": 4212,
      "##🧟": 4213,
      "##🪦": 4214,
      "##🐖": 4215,
      "##र": 4216,
      "##्": 4217,
      "##ष": 4218,
      "##›": 4219,
      "##€": 4220,
      "##‹": 4221,
      "##🥇": 4222,
      "##😿": 4223,
      "##💌": 4224,
      "##🌫": 4225,
      "##у": 4226,
      "##д": 4227,
      "##ь": 4228,
      "##т": 4229,
      "##е": 4230,
      "##🌾": 4231,
      "##🕋": 4232,
      "##٪": 4233,
      "##۔": 4234,
      "##🌠": 4235,
      "##ç": 4236,
      "##🤬": 4237,
      "##🏜": 4238,
      "##😴": 4239,
      "##ٴ": 4240,
      "##💮": 4241,
      "##💅": 4242,
      "##ۓ": 4243,
      "##😺": 4244,
      "##–": 4245,
      "##💊": 4246,
      "##®": 4247,
      "##🍁": 4248,
      "##": 4249,
      "##✓": 4250,
      "##⚘": 4251,
      "##🅿": 4252,
      "##ۤ": 4253,
      "##̸": 4254,
      "##🖖": 4255,
      "##🌳": 4256,
      "##🌲": 4257,
      "##🌴": 4258,
      "##🍀": 4259,
      "##🏴": 4260,
      "##🚶": 4261,
      "##͎": 4262,
      "##б": 4263,
      "##л": 4264,
      "##и": 4265,
      "##к": 4266,
      "##а": 4267,
      "##ц": 4268,
      "##🪻": 4269,
      "##음": 4270,
      "##ë": 4271,
      "##🔫": 4272,
      "##🤞": 4273,
      "##🔒": 4274,
      "##💲": 4275,
      "##⌐": 4276,
      "##🖋": 4277,
      "##💎": 4278,
      "##ۛ": 4279,
      "##🧑": 4280,
      "##ै": 4281,
      "##ं": 4282,
      "##🦾": 4283,
      "##æ": 4284,
      "##🫰": 4285,
      "##📸": 4286,
      "##ा": 4287,
      "##ण": 4288,
      "##ߺ": 4289,
      "##ו": 4290,
      "##ܒ": 4291,
      "##߲": 4292,
      "##ࡅ": 4293,
      "##𐫥": 4294,
      "##💰": 4295,
      "##�": 4296,
      "##⬜": 4297,
      "##🟥": 4298,
      "##🛶": 4299,
      "##͓": 4300,
      "##̽": 4301,
      "##🐯": 4302,
      "##나": 4303,
      "##입": 4304,
      "##니": 4305,
      "##다": 4306,
      "##⛅": 4307,
      "##🏅": 4308,
      "##🎾": 4309,
      "##̥": 4310,
      "##̬": 4311,
      "##̩": 4312,
      "##💠": 4313,
      "##♻": 4314,
      "##û": 4315,
      "##😼": 4316,
      "##о": 4317,
      "##г": 4318,
      "##щ": 4319,
      "##с": 4320,
      "##в": 4321,
      "##︎": 4322,
      "##🍂": 4323,
      "##‪": 4324,
      "##🔗": 4325,
      "##✋": 4326,
      "##。": 4327,
      "##⋆": 4328,
      "##🇬": 4329,
      "##😬": 4330,
      "##🔺": 4331,
      "##👼": 4332,
      "##🤤": 4333,
      "##😖": 4334,
      "##Д": 4335,
      "##й": 4336,
      "##н": 4337,
      "##ы": 4338,
      "##편": 4339,
      "##ے": 4340,
      "##🌪": 4341,
      "##💵": 4342,
      "##🕸": 4343,
      "##💢": 4344,
      "##⌣": 4345,
      "##ಥ": 4346,
      "##❗": 4347,
      "##➰": 4348,
      "##⃣": 4349,
      "##🟩": 4350,
      "##🪷": 4351,
      "##🍮": 4352,
      "##🍖": 4353,
      "##⏫": 4354,
      "##⏏": 4355,
      "##🏽": 4356,
      "##🐰": 4357,
      "##🦇": 4358,
      "##😦": 4359,
      "##ⴻ": 4360,
      "##ⴼ": 4361,
      "##🕶": 4362,
      "##🦯": 4363,
      "##사": 4364,
      "##합": 4365,
      "##ۃ": 4366,
      "##ử": 4367,
      "##🧢": 4368,
      "##💭": 4369,
      "##ۅ": 4370,
      "##🙊": 4371,
      "##🧣": 4372,
      "##ڜ": 4373,
      "##ۗ": 4374,
      "##🙇": 4375,
      "##★": 4376,
      "##̌": 4377,
      "##⚽": 4378,
      "##ĺ": 4379,
      "##😛": 4380,
      "##á": 4381,
      "##わ": 4382,
      "##た": 4383,
      "##し": 4384,
      "##は": 4385,
      "##ほ": 4386,
      "##ん": 4387,
      "##と": 4388,
      "##う": 4389,
      "##に": 4390,
      "##あ": 4391,
      "##い": 4392,
      "##🐷": 4393,
      "##🐬": 4394,
      "##⚔": 4395,
      "##🐼": 4396,
      "##ö": 4397,
      "##🔍": 4398,
      "##💉": 4399,
      "##れ": 4400,
      "##ジ": 4401,
      "##ン": 4402,
      "##が": 4403,
      "##発": 4404,
      "##て": 4405,
      "##る": 4406,
      "##音": 4407,
      "##で": 4408,
      "##す": 4409,
      "##📊": 4410,
      "##🧬": 4411,
      "##ⵛ": 4412,
      "##ⴰ": 4413,
      "##ⵡ": 4414,
      "##ⵉ": 4415,
      "##ⵝ": 4416,
      "##ݣ": 4417,
      "##🤴": 4418,
      "##🫵": 4419,
      "##̲": 4420,
      "##̣": 4421,
      "##̐": 4422,
      "##​": 4423,
      "##¡": 4424,
      "##🕊": 4425,
      "##❎": 4426,
      "##📚": 4427,
      "##⚓": 4428,
      "##❓": 4429,
      "##👆": 4430,
      "##√": 4431,
      "##р": 4432,
      "##🎂": 4433,
      "##œ": 4434,
      "##Ã": 4435,
      "##🧸": 4436,
      "##࡙": 4437,
      "##ܦ": 4438,
      "##߳": 4439,
      "##🎖": 4440,
      "##☕": 4441,
      "##📢": 4442,
      "##🍥": 4443,
      "##🫨": 4444,
      "##🌱": 4445,
      "##🚒": 4446,
      "##—": 4447,
      "##ж": 4448,
      "##👦": 4449,
      "##ğ": 4450,
      "##🇨": 4451,
      "##∩": 4452,
      "##🦍": 4453,
      "##म": 4454,
      "##😽": 4455,
      "##🐒": 4456,
      "##🍏": 4457,
      "##🐎": 4458,
      "##❫": 4459,
      "##💦": 4460,
      "##❔": 4461,
      "##🥉": 4462,
      "##🙎": 4463,
      "##ヽ": 4464,
      "##🦮": 4465,
      "##ø": 4466,
      "##🍺": 4467,
      "##≠": 4468,
      "##ᴖ": 4469,
      "##🦭": 4470,
      "##Ń": 4471,
      "##🫥": 4472,
      "##═": 4473,
      "##❀": 4474,
      "##🍫": 4475,
      "##👶": 4476,
      "##✧": 4477,
      "##🫢": 4478,
      "##🌀": 4479,
      "##🌑": 4480,
      "##ü": 4481,
      "##🍷": 4482,
      "##🫣": 4483,
      "##🔱": 4484,
      "##🏿": 4485,
      "##♠": 4486,
      "##♕": 4487,
      "##꧁": 4488,
      "##🐌": 4489,
      "##ş": 4490,
      "##ክ": 4491,
      "##ን": 4492,
      "##ያ": 4493,
      "##ቱ": 4494,
      "##ም": 4495,
      "##🎨": 4496,
      "##‎": 4497,
      "##ł": 4498,
      "##ķ": 4499,
      "##ۦ": 4500,
      "##✈": 4501,
      "##ã": 4502,
      "##🎹": 4503,
      "##◕": 4504,
      "##ω": 4505,
      "##ლ": 4506,
      "##🏢": 4507,
      "##🖕": 4508,
      "##Œ": 4509,
      "##🍾": 4510,
      "##¿": 4511,
      "##स": 4512,
      "##💬": 4513,
      "##🤥": 4514,
      "##👴": 4515,
      "##🎩": 4516,
      "##Ā": 4517,
      "##🎺": 4518,
      "##ᅠ": 4519,
      "##🗡": 4520,
      "##🧕": 4521,
      "##⛓": 4522,
      "##ે": 4523,
      "##🥼": 4524,
      "##🔔": 4525,
      "##⏬": 4526,
      "##÷": 4527,
      "##゚": 4528,
      "##🍋": 4529,
      "##💁": 4530,
      "##🙍": 4531,
      "##🫧": 4532,
      "##ụ": 4533,
      "##◉": 4534,
      "##⌓": 4535,
      "##🧁": 4536,
      "##⤾": 4537,
      "##📯": 4538,
      "##💿": 4539,
      "##📕": 4540,
      "##ƒ": 4541,
      "##╥": 4542,
      "##🎃": 4543,
      "##🪓": 4544,
      "##🪶": 4545,
      "##蒂": 4546,
      "##贾": 4547,
      "##🔻": 4548,
      "##🧚": 4549,
      "##은": 4550,
      "##💣": 4551,
      "##🚤": 4552,
      "##👕": 4553,
      "##🪄": 4554,
      "##🐐": 4555,
      "##름": 4556,
      "##답": 4557,
      "##습": 4558,
      "##🤳": 4559,
      "##": 4560,
      "##🐤": 4561,
      "##🐥": 4562,
      "##📋": 4563,
      "##🖇": 4564,
      "##🎤": 4565,
      "##`": 4566,
      "##📌": 4567,
      "##✰": 4568,
      "##🦕": 4569,
      "##💍": 4570,
      "##◠": 4571,
      "##・": 4572,
      "##ć": 4573,
      "##🇫": 4574,
      "##🤠": 4575,
      "##🍗": 4576,
      "##🫩": 4577,
      "##❕": 4578,
      "##🔎": 4579,
      "##♊": 4580,
      "##♑": 4581,
      "##⌛": 4582,
      "##⚧": 4583,
      "##۪": 4584,
      "##🤘": 4585,
      "##🍟": 4586,
      "##ṭ": 4587,
      "##ל": 4588,
      "##י": 4589,
      "##ב": 4590,
      "##כ": 4591,
      "##ם": 4592,
      "##🇶": 4593,
      "##Ꮇ": 4594,
      "##Ň": 4595,
      "##🆙": 4596,
      "##≈": 4597,
      "##📓": 4598,
      "##🌏": 4599,
      "##ژ": 4600,
      "##🌧": 4601,
      "##⭕": 4602,
      "##♍": 4603,
      "##🚯": 4604,
      "##🗯": 4605,
      "##🅱": 4606,
      "##申": 4607,
      "##🎦": 4608,
      "##🆚": 4609,
      "##秘": 4610,
      "##可": 4611,
      "##🚸": 4612,
      "##⚜": 4613,
      "##☢": 4614,
      "##指": 4615,
      "##❇": 4616,
      "##🆕": 4617,
      "##🆓": 4618,
      "##🔛": 4619,
      "##🔣": 4620,
      "##空": 4621,
      "##コ": 4622,
      "##🆖": 4623,
      "##🔢": 4624,
      "##☯": 4625,
      "##◽": 4626,
      "##◾": 4627,
      "##🗨": 4628,
      "##▫": 4629,
      "##◼": 4630,
      "##💼": 4631,
      "##●": 4632,
      "##⛑": 4633,
      "##ೃ": 4634,
      "##࿔": 4635,
      "##🫑": 4636,
      "##ù": 4637,
      "##य": 4638,
      "##ल": 4639,
      "##ᕗ": 4640,
      "##🤚": 4641,
      "##🫠": 4642,
      "##⁦": 4643,
      "##⛈": 4644,
      "##🎑": 4645,
      "##🏠": 4646,
      "##░": 4647,
      "##♨": 4648,
      "##ۢ": 4649,
      "##🔞": 4650,
      "##∆": 4651,
      "##っ": 4652,
      "##長": 4653,
      "##動": 4654,
      "##画": 4655,
      "##を": 4656,
      "##作": 4657,
      "##く": 4658,
      "##だ": 4659,
      "##さ": 4660,
      "##🔐": 4661,
      "##🥱": 4662,
      "##🇮": 4663,
      "##🍉": 4664,
      "##ś": 4665,
      "##ǰ": 4666,
      "##👪": 4667,
      "##👰": 4668,
      "##🦩": 4669,
      "##🥂": 4670,
      "##🩸": 4671,
      "##İ": 4672,
      "##🔵": 4673,
      "##٬": 4674,
      "##ă": 4675,
      "##ḥ": 4676,
      "##♣": 4677,
      "##람": 4678,
      "##들": 4679,
      "##━": 4680,
      "##┗": 4681,
      "##♿": 4682,
      "##🎁": 4683,
      "##↓": 4684,
      "##ۆ": 4685,
      "##🥽": 4686,
      "##☁": 4687,
      "##😾": 4688,
      "##‡": 4689,
      "##🔝": 4690,
      "##🎭": 4691,
      "##👓": 4692,
      "##⁃": 4693,
      "##ט": 4694,
      "##ּ": 4695,
      "##🥥": 4696,
      "##🔓": 4697,
      "##주": 4698,
      "##𖦹": 4699,
      "##‧": 4700,
      "##𖹭": 4701,
      "##苗": 4702,
      "##木": 4703,
      "##𐙚": 4704,
      "##🆒": 4705,
      "##🐈": 4706,
      "##☀": 4707,
      "##🪨": 4708,
      "##♪": 4709,
      "##💻": 4710,
      "##🟢": 4711,
      "##🟡": 4712,
      "##🥢": 4713,
      "##📣": 4714,
      "##🐕": 4715,
      "##⚕": 4716,
      "##🦷": 4717,
      "##⬇": 4718,
      "##🍿": 4719,
      "##Į": 4720,
      "##리": 4721,
      "##를": 4722,
      "##🔸": 4723,
      "##🥛": 4724,
      "##ࣲ": 4725,
      "##한": 4726,
      "##테": 4727,
      "##🙀": 4728,
      "##🍬": 4729,
      "##ĵ": 4730,
      "##🔹": 4731,
      "##╝": 4732,
      "##👧": 4733,
      "##🔊": 4734,
      "##👗": 4735,
      "##ಠ": 4736,
      "##ง": 4737,
      "##̀": 4738,
      "##́": 4739,
      "##🚜": 4740,
      "##з": 4741,
      "##‰": 4742,
      "##м": 4743,
      "##♾": 4744,
      "##": 4745,
      "##🖓": 4746,
      "##ი": 4747,
      "##მ": 4748,
      "##하": 4749,
      "##⓿": 4750,
      "##❺": 4751,
      "##📄": 4752,
      "##🐔": 4753,
      "##🦲": 4754,
      "##📆": 4755,
      "##Β": 4756,
      "##Č": 4757,
      "##È": 4758,
      "##🐢": 4759,
      "##📒": 4760,
      "##े": 4761,
      "##।": 4762,
      "##🦦": 4763,
      "##아": 4764,
      "##◡": 4765,
      "##🌥": 4766,
      "##؏": 4767,
      "##🛳": 4768,
      "##🌊": 4769,
      "##💸": 4770,
      "##𔘓": 4771,
      "##𓏺": 4772,
      "##⤹": 4773,
      "##🇾": 4774,
      "##🐺": 4775,
      "##ั": 4776,
      "##❄": 4777,
      "##장": 4778,
      "##✝": 4779,
      "##Ŕ": 4780,
      "##ì": 4781,
      "##Ñ": 4782,
      "##🪼": 4783,
      "##🪸": 4784,
      "##🦔": 4785,
      "##🦅": 4786,
      "##☞": 4787,
      "##∀": 4788,
      "##ۭ": 4789,
      "##🥁": 4790,
      "##ế": 4791,
      "##♫": 4792,
      "##α": 4793,
      "##☛": 4794,
      "##🆗": 4795,
      "##🔙": 4796,
      "##🏦": 4797,
      "##레": 4798,
      "##스": 4799,
      "##타": 4800,
      "##인": 4801,
      "##→": 4802,
      "##я": 4803,
      "##🏃": 4804,
      "##🎬": 4805,
      "##💳": 4806,
      "##ર": 4807,
      "##મ": 4808,
      "##🐉": 4809,
      "##🎮": 4810,
      "##🫪": 4811,
      "##🎼": 4812,
      "##ۘ": 4813,
      "##🫦": 4814,
      "##을": 4815,
      "##ä": 4816,
      "##께": 4817,
      "##길": 4818,
      "##📩": 4819,
      "##◄": 4820,
      "##🏝": 4821,
      "##⟧": 4822,
      "##⟦": 4823,
      "##🅰": 4824,
      "##🅻": 4825,
      "##🅶": 4826,
      "##🦳": 4827,
      "##🙅": 4828,
      "##🏺": 4829,
      "##➡": 4830,
      "##🦂": 4831,
      "##ڈ": 4832,
      "##🐝": 4833,
      "##🥚": 4834,
      "##ġ": 4835,
      "##ں": 4836,
      "##《": 4837,
      "##◇": 4838,
      "##♧": 4839,
      "##▪": 4840,
      "##○": 4841,
      "##🚩": 4842,
      "##지": 4843,
      "##🍹": 4844,
      "##🎆": 4845,
      "##🤖": 4846,
      "##": 4847,
      "##⃢": 4848,
      "##🏊": 4849,
      "##ۍ": 4850,
      "##🏡": 4851,
      "##〒": 4852,
      "##📖": 4853,
      "##⏱": 4854,
      "##🍡": 4855,
      "##🐣": 4856,
      "##å": 4857,
      "##ξ": 4858,
      "##ስ": 4859,
      "##ተ": 4860,
      "##የ": 4861,
      "##ۀ": 4862,
      "##📝": 4863,
      "##🚪": 4864,
      "##🔭": 4865,
      "##₹": 4866,
      "##🌞": 4867,
      "##⛔": 4868,
      "##": 4869,
      "##ị": 4870,
      "##🔘": 4871,
      "##🚨": 4872,
      "##נ": 4873,
      "##🐅": 4874,
      "##🚘": 4875,
      "##🦐": 4876,
      "##🤒": 4877,
      "##☻": 4878,
      "##": 4879,
      "##न": 4880,
      "##↘": 4881,
      "##➕": 4882,
      "##ݛ": 4883,
      "##🩰": 4884,
      "##რ": 4885,
      "##ა": 4886,
      "##ფ": 4887,
      "##ე": 4888,
      "##🦆": 4889,
      "##🫲": 4890,
      "##늋": 4891,
      "##여": 4892,
      "##츄": 4893,
      "##야": 4894,
      "##내": 4895,
      "##즃": 4896,
      "##룮": 4897,
      "##태": 4898,
      "##옹": 4899,
      "##ᄎ": 4900,
      "##👳": 4901,
      "##🧔": 4902,
      "##⇦": 4903,
      "##📺": 4904,
      "##ά": 4905,
      "##ŕ": 4906,
      "##♛": 4907,
      "##👾": 4908,
      "##̶": 4909,
      "##🍇": 4910,
      "##Ƒ": 4911,
      "##Ğ": 4912,
      "##ϋ": 4913,
      "##β": 4914,
      "##Ќ": 4915,
      "##ú": 4916,
      "##බ": 4917,
      "##ρ": 4918,
      "##ۜ": 4919,
      "##무": 4920,
      "##🎇": 4921,
      "##ᅧ": 4922,
      "##🧃": 4923,
      "##Σ": 4924,
      "##🕌": 4925,
      "##į": 4926,
      "##🍭": 4927,
      "##🔖": 4928,
      "##၊": 4929,
      "##။": 4930,
      "##ō": 4931,
      "##콤": 4932,
      "##۰": 4933,
      "##ࣱ": 4934,
      "##🌕": 4935,
      "##ᴀ": 4936,
      "##ᴍ": 4937,
      "##ᴇ": 4938,
      "##ʀ": 4939,
      "##シ": 4940,
      "##🛌": 4941,
      "##🍨": 4942,
      "##🍩": 4943,
      "##🥪": 4944,
      "##🌯": 4945,
      "##🍝": 4946,
      "##유": 4947,
      "##🐂": 4948,
      "##🎶": 4949,
      "##녕": 4950,
      "##세": 4951,
      "##❷": 4952,
      "##ệ": 4953,
      "##🦖": 4954,
      "##🍕": 4955,
      "##🤸": 4956,
      "##🌆": 4957,
      "##ր": 4958,
      "##տ": 4959,
      "##ւ": 4960,
      "##կ": 4961,
      "##գ": 4962,
      "##օ": 4963,
      "##🐜": 4964,
      "##ღ": 4965,
      "##🎸": 4966,
      "##🚮": 4967,
      "##🫖": 4968,
      "##Ú": 4969,
      "##🔅": 4970,
      "##∞": 4971,
      "##⊙": 4972,
      "##ח": 4973,
      "##ר": 4974,
      "##🥐": 4975,
      "##ò": 4976,
      "##ू": 4977,
      "##ँ": 4978,
      "##🍰": 4979,
      "##⚰": 4980,
      "##": 4981,
      "##🍅": 4982,
      "##🥊": 4983,
      "##🌜": 4984,
      "##운": 4985,
      "##λ": 4986,
      "##ν": 4987,
      "##↔": 4988,
      "##↩": 4989,
      "##↪": 4990,
      "##⤴": 4991,
      "##⤵": 4992,
      "##🔃": 4993,
      "##🔄": 4994,
      "##📜": 4995,
      "##🥸": 4996,
      "##μ": 4997,
      "##Ω": 4998,
      "##🖑": 4999,
      "##õ": 5000,
      "##Ø": 5001,
      "##🧾": 5002,
      "##👬": 5003,
      "##🧄": 5004,
      "##🤛": 5005,
      "##ο": 5006,
      "##υ": 5007,
      "##κ": 5008,
      "##ᾶ": 5009,
      "##ς": 5010,
      "##🎣": 5011,
      "##🃏": 5012,
      "##💡": 5013,
      "##想": 5014,
      "##認": 5015,
      "##識": 5016,
      "##你": 5017,
      "##๑": 5018,
      "##🍞": 5019,
      "##💤": 5020,
      "##청": 5021,
      "##⏳": 5022,
      "##👥": 5023,
      "##🦴": 5024,
      "##🕛": 5025,
      "##🫴": 5026,
      "##🤱": 5027,
      "##Ü": 5028,
      "##📱": 5029,
      "##🧤": 5030,
      "##ń": 5031,
      "##🟪": 5032,
      "##고": 5033,
      "##‟": 5034,
      "##🐞": 5035,
      "##Ǘ": 5036,
      "##🌋": 5037,
      "##🦀": 5038,
      "##秋": 5039,
      "##田": 5040,
      "##ナ": 5041,
      "##タ": 5042,
      "##な": 5043,
      "##🌛": 5044,
      "##ڢ": 5045,
      "##᭡": 5046,
      "##ृ": 5047,
      "##प": 5048,
      "##क": 5049,
      "##⊿": 5050,
      "##∥": 5051,
      "##📡": 5052,
      "##┈": 5053,
      "##✿": 5054,
      "##❁": 5055,
      "##🐇": 5056,
      "##ٺ": 5057,
      "##Ô": 5058,
      "##Ū": 5059,
      "##👅": 5060,
      "##त": 5061,
      "##ι": 5062,
      "##ी": 5063,
      "##🐚": 5064,
      "##є": 5065,
      "##𓋼": 5066,
      "##𓍊": 5067,
      "##𓇼": 5068,
      "##𓏲": 5069,
      "##ੈ": 5070,
      "##✩": 5071,
      "##ţ": 5072,
      "##🧺": 5073,
      "##🇭": 5074,
      "##서": 5075,
      "##🐵": 5076,
      "##🇼": 5077,
      "##🍲": 5078,
      "##À": 5079,
      "##ß": 5080,
      "##🔇": 5081,
      "##ٽ": 5082,
      "##ら": 5083,
      "##ま": 5084,
      "##や": 5085,
      "##の": 5086,
      "##そ": 5087,
      "##х": 5088,
      "##🏭": 5089,
      "##☎": 5090,
      "##አ": 5091,
      "##ñ": 5092,
      "##द": 5093,
      "##ۂ": 5094,
      "##🚬": 5095,
      "##Â": 5096,
      "##Î": 5097,
      "##カ": 5098,
      "##ネ": 5099,
      "##キ": 5100,
      "##🫷": 5101,
      "##🍔": 5102,
      "##🏹": 5103,
      "##Ł": 5104,
      "##Æ": 5105,
      "##🍸": 5106,
      "##ۈ": 5107,
      "##ۋ": 5108,
      "##🍆": 5109,
      "##ڥ": 5110,
      "##ⵔ": 5111,
      "##ⵀ": 5112,
      "##ⴹ": 5113,
      "##╬": 5114,
      "##📲": 5115,
      "##🪥": 5116,
      "##Ē": 5117,
      "##🩺": 5118,
      "##🪩": 5119,
      "##🧞": 5120,
      "##ڷ": 5121,
      "##ڲ": 5122,
      "##ږ": 5123,
      "##ą": 5124,
      "##어": 5125,
      "##🇺": 5126,
      "##🦠": 5127,
      "##🐄": 5128,
      "##ܚ": 5129,
      "##࠭": 5130,
      "##ܭ": 5131,
      "##୨": 5132,
      "##୧": 5133,
      "##📷": 5134,
      "##國": 5135,
      "##不": 5136,
      "##是": 5137,
      "##汽": 5138,
      "##車": 5139,
      "##🎥": 5140,
      "##🦹": 5141,
      "##▼": 5142,
      "##ܩ": 5143,
      "##🛸": 5144,
      "##☣": 5145,
      "##┓": 5146,
      "##─": 5147,
      "##┏": 5148,
      "##󠁧": 5149,
      "##󠁢": 5150,
      "##󠁥": 5151,
      "##󠁮": 5152,
      "##󠁿": 5153,
      "##゙": 5154,
      "##천": 5155,
      "##Λ": 5156,
      "##🗾": 5157,
      "##👵": 5158,
      "##🎐": 5159,
      "##א": 5160,
      "##ך": 5161,
      "##🥤": 5162,
      "##ڵ": 5163,
      "##爱": 5164,
      "##🥝": 5165,
      "##📛": 5166,
      "##▬": 5167,
      "##へ": 5168,
      "##ぉ": 5169,
      "##🔑": 5170,
      "##🦈": 5171,
      "##ε": 5172,
      "##ύ": 5173,
      "##θ": 5174,
      "##η": 5175,
      "##ע": 5176,
      "##ק": 5177,
      "##Ù": 5178,
      "##๏": 5179,
      "##ʌ": 5180,
      "##☂": 5181,
      "##τ": 5182,
      "##ί": 5183,
      "##연": 5184,
      "##🚣": 5185,
      "##📁": 5186,
      "##🍊": 5187,
      "##모": 5188,
      "##쎄": 5189,
      "##📵": 5190,
      "##Ẹ": 5191,
      "##Ð": 5192,
      "##≦": 5193,
      "##Ď": 5194,
      "##ⴳ": 5195,
      "##ⵢ": 5196,
      "##ⵏ": 5197,
      "##Ĥ": 5198,
      "##🐻": 5199,
      "##": 5200,
      "##기": 5201,
      "##가": 5202,
      "##ʖ": 5203,
      "##ા": 5204,
      "##ગ": 5205,
      "##‐": 5206,
      "##🧏": 5207,
      "##Đ": 5208,
      "##🐁": 5209,
      "##⋙": 5210,
      "##┛": 5211,
      "##╩": 5212,
      "##ೀ": 5213,
      "##╯": 5214,
      "##╰": 5215,
      "##Ư": 5216,
      "##Ą": 5217,
      "##Ƴ": 5218,
      "##랑": 5219,
      "##업": 5220,
      "##🏇": 5221,
      "##🗒": 5222,
      "##্": 5223,
      "##য": 5224,
      "##া": 5225,
      "##ল": 5226,
      "##ে": 5227,
      "##স": 5228,
      "##ট": 5229,
      "##ই": 5230,
      "##ন": 5231,
      "##🚰": 5232,
      "##🪞": 5233,
      "##🏛": 5234,
      "##": 5235,
      "##益": 5236,
      "##Û": 5237,
      "##﷽": 5238,
      "##🥷": 5239,
      "##ɛ": 5240,
      "##❥": 5241,
      "##ि": 5242,
      "##🕴": 5243,
      "##დ": 5244,
      "##ჯ": 5245,
      "##🚷": 5246,
      "##ū": 5247,
      "##🐀": 5248,
      "##🆔": 5249,
      "##ď": 5250,
      "##ฅ": 5251,
      "##ĕ": 5252,
      "##ē": 5253,
      "##말": 5254,
      "##🦓": 5255,
      "##🐙": 5256,
      "##⛄": 5257,
      "##📉": 5258,
      "##로": 5259,
      "##드": 5260,
      "##는": 5261,
      "##신": 5262,
      "##데": 5263,
      "##۞": 5264,
      "##ڊ": 5265,
      "##🐭": 5266,
      "##의": 5267,
      "##송": 5268,
      "##함": 5269,
      "##봐": 5270,
      "##▄": 5271,
      "##█": 5272,
      "##▀": 5273,
      "##🩴": 5274,
      "##🧷": 5275,
      "##🔁": 5276,
      "##ľ": 5277,
      "##ɪ": 5278,
      "##🦜": 5279,
      "##👞": 5280,
      "##정": 5281,
      "##이": 5282,
      "##🥋": 5283,
      "##š": 5284,
      "##🕐": 5285,
      "##⏰": 5286,
      "##ė": 5287,
      "##🌓": 5288,
      "##【": 5289,
      "##͜": 5290,
      "##￼": 5291,
      "##🐪": 5292,
      "##♉": 5293,
      "##Ỗ": 5294,
      "##Ř": 5295,
      "##𓽤": 5296,
      "##❉": 5297,
      "##🔨": 5298,
      "##🟦": 5299,
      "##🎵": 5300,
      "##🪵": 5301,
      "##🕘": 5302,
      "##؁": 5303,
      "##🦵": 5304,
      "##σ": 5305,
      "##👚": 5306,
      "##🦸": 5307,
      "##👯": 5308,
      "##🔷": 5309,
      "##🦢": 5310,
      "##🌬": 5311,
      "##👂": 5312,
      "##؜": 5313,
      "##🌭": 5314,
      "##ớ": 5315,
      "##ʼ": 5316,
      "##γ": 5317,
      "##π": 5318,
      "##ώ": 5319,
      "##ю": 5320,
      "##❶": 5321,
      "##Ó": 5322,
      "##🔧": 5323,
      "##ノ": 5324,
      "##彡": 5325,
      "##┻": 5326,
      "##🫓": 5327,
      "##༆": 5328,
      "##༄": 5329,
      "##🧨": 5330,
      "##ᄉ": 5331,
      "##ᄃ": 5332,
      "##ᄀ": 5333,
      "##쇼": 5334,
      "##춋": 5335,
      "##ᄅ": 5336,
      "##숏": 5337,
      "##료": 5338,
      "##ᅭ": 5339,
      "##펴": 5340,
      "##п": 5341,
      "##💑": 5342,
      "##🥑": 5343,
      "##ẩ": 5344,
      "##ⵣ": 5345,
      "##🌶": 5346,
      "##🥄": 5347,
      "##ڃ": 5348,
      "##⚪": 5349,
      "##☃": 5350,
      "##🎻": 5351,
      "##ጠ": 5352,
      "##ይ": 5353,
      "##ቃ": 5354,
      "##ለ": 5355,
      "##ሁ": 5356,
      "##⚆": 5357,
      "##ᴥ": 5358,
      "##◗": 5359,
      "##🫱": 5360,
      "##🦑": 5361,
      "##Ê": 5362,
      "##🎒": 5363,
      "##🌃": 5364,
      "##Ĩ": 5365,
      "##🧀": 5366,
      "##🐋": 5367,
      "##ắ": 5368,
      "##🍻": 5369,
      "##🐦": 5370,
      "##̮": 5371,
      "##∂": 5372,
      "##⛏": 5373,
      "##🥙": 5374,
      "##ٲ": 5375,
      "##✾": 5376,
      "##🌤": 5377,
      "##і": 5378,
      "##🔽": 5379,
      "##🧹": 5380,
      "##ự": 5381,
      "##📹": 5382,
      "##": 5383,
      "##☽": 5384,
      "##❦": 5385,
      "##𓂀": 5386,
      "##𓆉": 5387,
      "##☏": 5388,
      "##ఌ": 5389,
      "##🐗": 5390,
      "##🚐": 5391,
      "##ܨ": 5392,
      "##Ī": 5393,
      "##🪽": 5394,
      "##〈": 5395,
      "##🐴": 5396,
      "##🛫": 5397,
      "##常": 5398,
      "##国": 5399,
      "##家": 5400,
      "##如": 5401,
      "##果": 5402,
      "##技": 5403,
      "##术": 5404,
      "##路": 5405,
      "##线": 5406,
      "##💆": 5407,
      "##👝": 5408,
      "##ŧ": 5409,
      "##ť": 5410,
      "##ÿ": 5411,
      "##ŷ": 5412,
      "##ű": 5413,
      "##ð": 5414,
      "##ĥ": 5415,
      "##ļ": 5416,
      "##ž": 5417,
      "##ź": 5418,
      "##ż": 5419,
      "##ň": 5420,
      "##ぁ": 5421,
      "##̭": 5422,
      "##͠": 5423,
      "##🦉": 5424,
      "##۩": 5425,
      "##◀": 5426,
      "##ố": 5427,
      "##𒐫": 5428,
      "##🪡": 5429,
      "##←": 5430,
      "##ۙ": 5431,
      "##व": 5432,
      "##🐶": 5433,
      "##🕓": 5434,
      "##ꈍ": 5435,
      "##力": 5436,
      "##り": 5437,
      "##진": 5438,
      "##ಸ": 5439,
      "##💄": 5440,
      "##♖": 5441,
      "##🎗": 5442,
      "##ࡋ": 5443,
      "##ज": 5444,
      "##़": 5445,
      "##🛬": 5446,
      "##♤": 5447,
      "##⚛": 5448,
      "##🧱": 5449,
      "##ө": 5450,
      "##ה": 5451,
      "##": 5452,
      "##✪": 5453,
      "##🇻": 5454,
      "##🍌": 5455,
      "##⛪": 5456,
      "##🎯": 5457,
      "##Т": 5458,
      "##А": 5459,
      "##Р": 5460,
      "##🐆": 5461,
      "##δ": 5462,
      "##Ä": 5463,
      "##ह": 5464,
      "##Ж": 5465,
      "##Ĺ": 5466,
      "##✹": 5467,
      "##❒": 5468,
      "##바": 5469,
      "##̫": 5470,
      "##🐛": 5471,
      "##给": 5472,
      "##要": 5473,
      "##的": 5474,
      "##生": 5475,
      "##活": 5476,
      "##🪑": 5477,
      "##̈": 5478,
      "##什": 5479,
      "##么": 5480,
      "##意": 5481,
      "##思": 5482,
      "##ת": 5483,
      "##ʂ": 5484,
      "##ᄏ": 5485,
      "##🛩": 5486,
      "##🛥": 5487,
      "##🔕": 5488,
      "##દ": 5489,
      "##🥕": 5490,
      "##灬": 5491,
      "##🫳": 5492,
      "##🐾": 5493,
      "##🐍": 5494,
      "##∅": 5495,
      "##ु": 5496,
      "##ध": 5497,
      "##ग": 5498,
      "##फ": 5499,
      "##ड": 5500,
      "##🚥": 5501,
      "##̷": 5502,
      "##┳": 5503,
      "##φ": 5504,
      "##ή": 5505,
      "##🦥": 5506,
      "##哈": 5507,
      "##末": 5508,
      "##额": 5509,
      "##度": 5510,
      "##🗽": 5511,
      "##🔦": 5512,
      "##🧙": 5513,
      "##Ԋ": 5514,
      "##琨": 5515,
      "##灯": 5516,
      "##㡦": 5517,
      "##捥": 5518,
      "##㬩": 5519,
      "##慢": 5520,
      "##正": 5521,
      "##牧": 5522,
      "##畯": 5523,
      "##摮": 5524,
      "##椭": 5525,
      "##慭": 5526,
      "##敧": 5527,
      "##獭": 5528,
      "##氭": 5529,
      "##湩": 5530,
      "##慥": 5531,
      "##摡": 5532,
      "##敩": 5533,
      "##瑮": 5534,
      "##楬": 5535,
      "##敮": 5536,
      "##牡": 5537,
      "##札": 5538,
      "##慲": 5539,
      "##楤": 5540,
      "##湥": 5541,
      "##潴": 5542,
      "##昣": 5543,
      "##昸": 5544,
      "##攣": 5545,
      "##散": 5546,
      "##戻": 5547,
      "##捡": 5548,
      "##杫": 5549,
      "##潲": 5550,
      "##湵": 5551,
      "##浩": 5552,
      "##条": 5553,
      "##㩥": 5554,
      "##汩": 5555,
      "##整": 5556,
      "##㩲": 5557,
      "##牰": 5558,
      "##杯": 5559,
      "##摩": 5560,
      "##䐺": 5561,
      "##䥘": 5562,
      "##牔": 5563,
      "##湡": 5564,
      "##晳": 5565,
      "##牯": 5566,
      "##楍": 5567,
      "##牣": 5568,
      "##獯": 5569,
      "##景": 5570,
      "##猨": 5571,
      "##慴": 5572,
      "##瑲": 5573,
      "##潃": 5574,
      "##潬": 5575,
      "##卲": 5576,
      "##牴": 5577,
      "##獩": 5578,
      "##汰": 5579,
      "##祡": 5580,
      "##戺": 5581,
      "##潭": 5582,
      "##潢": 5583,
      "##摲": 5584,
      "##牥": 5585,
      "##爭": 5586,
      "##畩": 5587,
      "##㩳": 5588,
      "##瀲": 5589,
      "##㭸": 5590,
      "##漭": 5591,
      "##戭": 5592,
      "##敤": 5593,
      "##獵": 5594,
      "##呼": 5595,
      "##硰": 5596,
      "##❻": 5597,
      "##🌔": 5598,
      "##ъ": 5599,
      "##🧌": 5600,
      "##פ": 5601,
      "##ז": 5602,
      "##ặ": 5603,
      "##💂": 5604,
      "##🏈": 5605,
      "##श": 5606,
      "##ठ": 5607,
      "##❖": 5608,
      "##🔶": 5609,
      "##랍": 5610,
      "##만": 5611,
      "##📞": 5612,
      "##ს": 5613,
      "##📙": 5614,
      "##📘": 5615,
      "##ᩚ": 5616,
      "##ᰔ": 5617,
      "##🥏": 5618,
      "##✦": 5619,
      "##✏": 5620,
      "##🐹": 5621,
      "##ᕙ": 5622,
      "##☉": 5623,
      "##ਊ": 5624,
      "##👭": 5625,
      "##】": 5626,
      "##ᕤ": 5627,
      "##ш": 5628,
      "##🦧": 5629,
      "##🗑": 5630,
      "##Ş": 5631,
      "##ყ": 5632,
      "##ვ": 5633,
      "##ხ": 5634,
      "##🥗": 5635,
      "##Ý": 5636,
      "##🎙": 5637,
      "##🗝": 5638,
      "##ნ": 5639,
      "##✴": 5640,
      "##𑸌": 5641,
      "##Ò": 5642,
      "##Õ": 5643,
      "##쳤": 5644,
      "##ܔ": 5645,
      "##҉": 5646,
      "##Ï": 5647,
      "##🎄": 5648,
      "##👣": 5649,
      "##📨": 5650,
      "##🌦": 5651,
      "##📽": 5652,
      "##༻": 5653,
      "##🥖": 5654,
      "##ぎ": 5655,
      "##お": 5656,
      "##거": 5657,
      "##🧛": 5658,
      "##🪴": 5659,
      "##✉": 5660,
      "##🔼": 5661,
      "##╔": 5662,
      "##╗": 5663,
      "##║": 5664,
      "##ⵍ": 5665,
      "##ⵜ": 5666,
      "##ⵎ": 5667,
      "##⚒": 5668,
      "##🫆": 5669,
      "##🍳": 5670,
      "##🏁": 5671,
      "##🦎": 5672,
      "##♟": 5673,
      "##ד": 5674,
      "##༘": 5675,
      "##✂": 5676,
      "##ܓ": 5677,
      "##❛": 5678,
      "##┌": 5679,
      "##┘": 5680,
      "##◖": 5681,
      "##ᕦ": 5682,
      "##🅐": 5683,
      "##🅒": 5684,
      "##🥾": 5685,
      "##🦺": 5686,
      "##➖": 5687,
      "##해": 5688,
      "##🖥": 5689,
      "##里": 5690,
      "##将": 5691,
      "##会": 5692,
      "##成": 5693,
      "##为": 5694,
      "##一": 5695,
      "##名": 5696,
      "##👖": 5697,
      "##🏙": 5698,
      "##Ў": 5699,
      "##Ŝ": 5700,
      "##ࣰ": 5701,
      "##ס": 5702,
      "##˺": 5703,
      "##🤰": 5704,
      "##걸": 5705,
      "##🕔": 5706,
      "##보": 5707,
      "##╦": 5708,
      "##מ": 5709,
      "##⏪": 5710,
      "##향": 5711,
      "##⊡": 5712,
      "##🕖": 5713,
      "##ẽ": 5714,
      "##ן": 5715,
      "##च": 5716,
      "##छ": 5717,
      "##ч": 5718,
      "##⛰": 5719,
      "##🍪": 5720,
      "##⊃": 5721,
      "##🔉": 5722,
      "##۷": 5723,
      "##❸": 5724,
      "##ĸ": 5725,
      "##〽": 5726,
      "##₩": 5727,
      "##🍚": 5728,
      "##감": 5729,
      "##👃": 5730,
      "##🚲": 5731,
      "##ᴘ": 5732,
      "##Ų": 5733,
      "##Ŋ": 5734,
      "##′": 5735,
      "##⟩": 5736,
      "##🕵": 5737,
      "##🕣": 5738,
      "##۫": 5739,
      "##⟨": 5740,
      "##💹": 5741,
      "##ɴ": 5742,
      "##ᴅ": 5743,
      "##🎟": 5744,
      "##🐽": 5745,
      "##𐭦": 5746,
      "##ħ": 5747,
      "##孤": 5748,
      "##儿": 5749,
      "##院": 5750,
      "##盘": 5751,
      "##数": 5752,
      "##据": 5753,
      "##۽": 5754,
      "##🏄": 5755,
      "##到": 5756,
      "##食": 5757,
      "##物": 5758,
      "##以": 5759,
      "##為": 5760,
      "##那": 5761,
      "##些": 5762,
      "##被": 5763,
      "##拒": 5764,
      "##絕": 5765,
      "##人": 5766,
      "##只": 5767,
      "##吃": 5768,
      "##垃": 5769,
      "##圾": 5770,
      "##相": 5771,
      "##反": 5772,
      "##他": 5773,
      "##們": 5774,
      "##學": 5775,
      "##會": 5776,
      "##了": 5777,
      "##在": 5778,
      "##忽": 5779,
      "##視": 5780,
      "##肉": 5781,
      "##類": 5782,
      "##和": 5783,
      "##蔬": 5784,
      "##菜": 5785,
      "##中": 5786,
      "##尋": 5787,
      "##找": 5788,
      "##營": 5789,
      "##養": 5790,
      "##🔀": 5791,
      "##せ": 5792,
      "##🛐": 5793,
      "##✷": 5794,
      "##🏀": 5795,
      "##🇯": 5796,
      "##̤": 5797,
      "##ʅ": 5798,
      "##🧓": 5799,
      "##ɑ": 5800,
      "##ɺ": 5801,
      "##🆘": 5802,
      "##📈": 5803,
      "##ट": 5804,
      "##🅷": 5805,
      "##ꫝ": 5806,
      "##卄": 5807,
      "##҈": 5808,
      "##⃠": 5809,
      "##🔜": 5810,
      "##💷": 5811,
      "##ʟ": 5812,
      "##ŏ": 5813,
      "##📃": 5814,
      "##睯": 5815,
      "##攺": 5816,
      "##灩": 5817,
      "##楳": 5818,
      "##ؒ": 5819,
      "##🍜": 5820,
      "##ᴜ": 5821,
      "##ݪ": 5822,
      "##ғ": 5823,
      "##ҹ": 5824,
      "##🏘": 5825,
      "##ṛ": 5826,
      "##👷": 5827,
      "##🪧": 5828,
      "##월": 5829,
      "##별": 5830,
      "##、": 5831,
      "##": 5832,
      "##ẫ": 5833,
      "##🏔": 5834,
      "##🎲": 5835,
      "##ᴏ": 5836,
      "##ⵙ": 5837,
      "##▂": 5838,
      "##용": 5839,
      "##친": 5840,
      "##󠁷": 5841,
      "##󠁬": 5842,
      "##󠁳": 5843,
      "##\u0000": 5844,
      "##อ": 5845,
      "##้": 5846,
      "##ī": 5847,
      "##ấ": 5848,
      "##▿": 5849,
      "##◻": 5850,
      "##◝": 5851,
      "##": 5852,
      "##ʔ": 5853,
      "##ạ": 5854,
      "##ů": 5855,
      "##🇽": 5856,
      "##┣": 5857,
      "##┫": 5858,
      "##🌘": 5859,
      "##제": 5860,
      "##由": 5861,
      "##巴": 5862,
      "##勒": 5863,
      "##斯": 5864,
      "##坦": 5865,
      "##🍧": 5866,
      "##🌁": 5867,
      "##愛": 5868,
      "##Á": 5869,
      "##ę": 5870,
      "##太": 5871,
      "##🌒": 5872,
      "##🥒": 5873,
      "##▒": 5874,
      "##授": 5875,
      "##愿": 5876,
      "##上": 5877,
      "##帝": 5878,
      "##保": 5879,
      "##佑": 5880,
      "##您": 5881,
      "##ګ": 5882,
      "##문": 5883,
      "##에": 5884,
      "##⑉": 5885,
      "##액": 5886,
      "##👙": 5887,
      "##❊": 5888,
      "##殺": 5889,
      "##🪔": 5890,
      "##📗": 5891,
      "##Š": 5892,
      "##ě": 5893,
      "##🚗": 5894,
      "##🖍": 5895,
      "##咯": 5896,
      "##恶": 5897,
      "##⍢": 5898,
      "##⃝": 5899,
      "##☚": 5900,
      "##👠": 5901,
      "##": 5902,
      "##👒": 5903,
      "##🧍": 5904,
      "##🤺": 5905,
      "##🚕": 5906,
      "##ř": 5907,
      "##র": 5908,
      "##ি": 5909,
      "##Ÿ": 5910,
      "##᪲": 5911,
      "##╣": 5912,
      "##┃": 5913,
      "##ʕ": 5914,
      "##🪖": 5915,
      "##𓍢": 5916,
      "##ִ": 5917,
      "##໋": 5918,
      "##͙": 5919,
      "##֒": 5920,
      "##🥔": 5921,
      "##🏌": 5922,
      "##ڏ": 5923,
      "##🍎": 5924,
      "##˶": 5925,
      "##ฺ": 5926,
      "##♩": 5927,
      "##ዩ": 5928,
      "##ቑ": 5929,
      "##ጿ": 5930,
      "##ድ": 5931,
      "##ፁ": 5932,
      "##ኽ": 5933,
      "##ፅ": 5934,
      "##ፍ": 5935,
      "##吧": 5936,
      "##去": 5937,
      "##ڳ": 5938,
      "##༎": 5939,
      "##ຶ": 5940,
      "##📎": 5941,
      "##📏": 5942,
      "##ー": 5943,
      "##🌵": 5944,
      "##┐": 5945,
      "##◣": 5946,
      "##◢": 5947,
      "##┇": 5948,
      "##🍴": 5949,
      "##🎴": 5950,
      "##🍼": 5951,
      "##🐃": 5952,
      "##С": 5953,
      "##Ш": 5954,
      "##ό": 5955,
      "##러": 5956,
      "##면": 5957,
      "##🏖": 5958,
      "##෴": 5959,
      "##қ": 5960,
      "##Δ": 5961,
      "##엇": 5962,
      "##까": 5963,
      "##🧦": 5964,
      "##ɵ": 5965,
      "##᷄": 5966,
      "##ˬ": 5967,
      "##᷅": 5968,
      "##🧼": 5969,
      "##⏺": 5970,
      "##🦏": 5971,
      "##🐘": 5972,
      "##🟰": 5973,
      "##〰": 5974,
      "##💱": 5975,
      "##🔳": 5976,
      "##🔲": 5977,
      "##🚽": 5978,
      "##ዳ": 5979,
      "##ነ": 5980,
      "##ሳ": 5981,
      "##⇀": 5982,
      "##‸": 5983,
      "##↼": 5984,
      "##‵": 5985,
      "##🏞": 5986,
      "##🌐": 5987,
      "##🕚": 5988,
      "##🕥": 5989,
      "##🪚": 5990,
      "##🦻": 5991,
      "##🚴": 5992,
      "##Ů": 5993,
      "##♚": 5994,
      "##˖": 5995,
      "##🖊": 5996,
      "##🎷": 5997,
      "##⚖": 5998,
      "##": 5999,
      "##🧒": 6000,
      "##ツ": 6001,
      "##🚚": 6002,
      "##谢": 6003,
      "##带": 6004,
      "##来": 6005,
      "##精": 6006,
      "##彩": 6007,
      "##而": 6008,
      "##有": 6009,
      "##趣": 6010,
      "##视": 6011,
      "##频": 6012,
      "##我": 6013,
      "##们": 6014,
      "##希": 6015,
      "##望": 6016,
      "##更": 6017,
      "##多": 6018,
      "##这": 6019,
      "##真": 6020,
      "##喜": 6021,
      "##欢": 6022,
      "##展": 6023,
      "##示": 6024,
      "##动": 6025,
      "##类": 6026,
      "##🪰": 6027,
      "##ᴠ": 6028,
      "##🚧": 6029,
      "##🩻": 6030,
      "##둪": 6031,
      "##프": 6032,
      "##ᄑ": 6033,
      "##𓁹": 6034,
      "##💶": 6035,
      "##ⴱ": 6036,
      "##ⴷ": 6037,
      "##ⵓ": 6038,
      "##🔯": 6039,
      "##🥣": 6040,
      "##🫐": 6041,
      "##🚙": 6042,
      "##भ": 6043,
      "##𓆪": 6044,
      "##포": 6045,
      "##χ": 6046,
      "##ए": 6047,
      "##ʻ": 6048,
      "##ң": 6049,
      "##🧎": 6050,
      "##🧘": 6051,
      "##ұ": 6052,
      "##🫅": 6053,
      "##🛢": 6054,
      "##⛽": 6055,
      "##⚁": 6056,
      "##ש": 6057,
      "##🧝": 6058,
      "##ϻ": 6059,
      "##⚾": 6060,
      "##🪕": 6061,
      "##🌅": 6062,
      "##哋": 6063,
      "##唔": 6064,
      "##៛": 6065,
      "##ฯ": 6066,
      "##미": 6067,
      "##회": 6068,
      "##독": 6069,
      "##ᄇ": 6070,
      "##일": 6071,
      "##🐨": 6072,
      "##ټ": 6073,
      "##ڦ": 6074,
      "##◤": 6075,
      "##默": 6076,
      "##念": 6077,
      "##也": 6078,
      "##点": 6079,
      "##小": 6080,
      "##孩": 6081,
      "##子": 6082,
      "##气": 6083,
      "##温": 6084,
      "##州": 6085,
      "##官": 6086,
      "##场": 6087,
      "##合": 6088,
      "##同": 6089,
      "##书": 6090,
      "##记": 6091,
      "##🕰": 6092,
      "##🧰": 6093,
      "##ஐ": 6094,
      "##🚹": 6095,
      "##╕": 6096,
      "##며": 6097,
      "##🐟": 6098,
      "##경": 6099,
      "##ё": 6100,
      "##🕒": 6101,
      "##🐩": 6102,
      "##も": 6103,
      "##ご": 6104,
      "##ざ": 6105,
      "##🍽": 6106,
      "##": 6107,
      "##έ": 6108,
      "##╚": 6109,
      "##ې": 6110,
      "##꒳": 6111,
      "##称": 6112,
      "##世": 6113,
      "##界": 6114,
      "##ۿ": 6115,
      "##ʏ": 6116,
      "##‫": 6117,
      "##": 6118,
      "##➸": 6119,
      "##🔚": 6120,
      "##ब": 6121,
      "##『": 6122,
      "##样": 6123,
      "##总": 6124,
      "##教": 6125,
      "##训": 6126,
      "##讨": 6127,
      "##厌": 6128,
      "##至": 6129,
      "##自": 6130,
      "##己": 6131,
      "##ʘ": 6132,
      "##۠": 6133,
      "##๋": 6134,
      "##͡": 6135,
      "##강": 6136,
      "##೧": 6137,
      "##࣭": 6138,
      "##𝄞": 6139,
      "##🛠": 6140,
      "##🥧": 6141,
      "##➜": 6142,
      "##🛎": 6143,
      "##🎞": 6144,
      "##🥈": 6145,
      "##得": 6146,
      "##無": 6147,
      "##祝": 6148,
      "##Ļ": 6149,
      "##🦊": 6150,
      "##ิ": 6151,
      "##存": 6152,
      "##願": 6153,
      "##迫": 6154,
      "##使": 6155,
      "##剝": 6156,
      "##奪": 6157,
      "##或": 6158,
      "##摧": 6159,
      "##毀": 6160,
      "##基": 6161,
      "##本": 6162,
      "##需": 6163,
      "##求": 6164,
      "##種": 6165,
      "##方": 6166,
      "##式": 6167,
      "##並": 6168,
      "##繼": 6169,
      "##續": 6170,
      "##將": 6171,
      "##其": 6172,
      "##𝕅": 6173,
      "##融": 6174,
      "##入": 6175,
      "##斷": 6176,
      "##發": 6177,
      "##社": 6178,
      "##ጵ": 6179,
      "##ጽ": 6180,
      "##ቯ": 6181,
      "##ፂ": 6182,
      "##ዥ": 6183,
      "##↷": 6184,
      "##🍵": 6185,
      "##ڟ": 6186,
      "##": 6187,
      "##🦚": 6188,
      "##ད": 6189,
      "##ג": 6190,
      "##릅": 6191,
      "##👔": 6192,
      "##🤽": 6193,
      "##Ƥ": 6194,
      "##🍍": 6195,
      "##⏲": 6196,
      "##ư": 6197,
      "##ờ": 6198,
      "##Б": 6199,
      "##개": 6200,
      "##🪬": 6201,
      "##ڠ": 6202,
      "##🎎": 6203,
      "##̳": 6204,
      "##̜": 6205,
      "##̋": 6206,
      "##༉": 6207,
      "##Ō": 6208,
      "##🏚": 6209,
      "##랄": 6210,
      "##🥨": 6211,
      "##🌮": 6212,
      "##褐": 6213,
      "##色": 6214,
      "##产": 6215,
      "##最": 6216,
      "##好": 6217,
      "##东": 6218,
      "##西": 6219,
      "##게": 6220,
      "##Ö": 6221,
      "##Ő": 6222,
      "##ү": 6223,
      "##🏥": 6224,
      "##💒": 6225,
      "##🏬": 6226,
      "##🛤": 6227,
      "##ə": 6228,
      "##腐": 6229,
      "##放": 6230,
      "##눈": 6231,
      "##̅": 6232,
      "##🥭": 6233,
      "##🚔": 6234,
      "##🍶": 6235,
      "##🟧": 6236,
      "##🟫": 6237,
      "##🟣": 6238,
      "##🟤": 6239,
      "##뿌": 6240,
      "##듯": 6241,
      "##🫏": 6242,
      "##Ꭵ": 6243,
      "##Ꭿ": 6244,
      "##광": 6245,
      "##𓂺": 6246,
      "##Ĵ": 6247,
      "##车": 6248,
      "##很": 6249,
      "##漂": 6250,
      "##亮": 6251,
      "##海": 6252,
      "##豹": 6253,
      "##년": 6254,
      "##단": 6255,
      "##🅲": 6256,
      "##Α": 6257,
      "##ƈ": 6258,
      "##ŝ": 6259,
      "##۴": 6260,
      "##ڹ": 6261,
      "##🚑": 6262,
      "##능": 6263,
      "##ザ": 6264,
      "##々": 6265,
      "##対": 6266,
      "##イ": 6267,
      "##ス": 6268,
      "##ラ": 6269,
      "##エ": 6270,
      "##ル": 6271,
      "##占": 6272,
      "##拠": 6273,
      "##よ": 6274,
      "##虐": 6275,
      "##今": 6276,
      "##起": 6277,
      "##こ": 6278,
      "##⛷": 6279,
      "##🏂": 6280,
      "##🧪": 6281,
      "##客": 6282,
      "##湾": 6283,
      "##💴": 6284,
      "##🩲": 6285,
      "##🧥": 6286,
      "##看": 6287,
      "##ả": 6288,
      "##있": 6289,
      "##਼": 6290,
      "##ਸ": 6291,
      "##⸲": 6292,
      "##할": 6293,
      "##명": 6294,
      "##Є": 6295,
      "##✒": 6296,
      "##생": 6297,
      "##님": 6298,
      "##🎌": 6299,
      "##대": 6300,
      "##체": 6301,
      "##┅": 6302,
      "##🥅": 6303,
      "##🐓": 6304,
      "##🌽": 6305,
      "##🧅": 6306,
      "##🫚": 6307,
      "##🀄": 6308,
      "##⌨": 6309,
      "##🗓": 6310,
      "##🕧": 6311,
      "##🟨": 6312,
      "##🆑": 6313,
      "##🅾": 6314,
      "##🆎": 6315,
      "##営": 6316,
      "##禁": 6317,
      "##割": 6318,
      "##満": 6319,
      "##月": 6320,
      "##⏯": 6321,
      "##⏭": 6322,
      "##⏩": 6323,
      "##🔂": 6324,
      "##⏮": 6325,
      "##⏸": 6326,
      "##⏹": 6327,
      "##✳": 6328,
      "##サ": 6329,
      "##🔤": 6330,
      "##🔟": 6331,
      "##🏧": 6332,
      "##🛗": 6333,
      "##➿": 6334,
      "##엑": 6335,
      "##국": 6336,
      "##🫸": 6337,
      "##ứ": 6338,
      "##Ꮋ": 6339,
      "##더": 6340,
      "##도": 6341,
      "##Ⴆ": 6342,
      "##📀": 6343,
      "##⌉": 6344,
      "##₰": 6345,
      "##🌩": 6346,
      "##🧋": 6347,
      "##٭": 6348,
      "##📟": 6349,
      "##🧂": 6350,
      "##者": 6351,
      "##说": 6352,
      "##事": 6353,
      "##🅸": 6354,
      "##🆁": 6355,
      "##🆃": 6356,
      "##🅳": 6357,
      "##🆈": 6358,
      "##В": 6359,
      "##Ф": 6360,
      "##": 6361,
      "##̯": 6362,
      "##🖎": 6363,
      "##📳": 6364,
      "##💇": 6365,
      "##ổ": 6366,
      "##؎": 6367,
      "##Ѕ": 6368,
      "##ѕ": 6369,
      "##겨": 6370,
      "##📻": 6371,
      "##👟": 6372,
      "##ᐠ": 6373,
      "##ꞈ": 6374,
      "##ᐟ": 6375,
      "##谷": 6376,
      "##歌": 6377,
      "##翻": 6378,
      "##译": 6379,
      "##ᗒ": 6380,
      "##ᗩ": 6381,
      "##ᗕ": 6382,
      "##📑": 6383,
      "##🔆": 6384,
      "##🪹": 6385,
      "##日": 6386,
      "##🥟": 6387,
      "##⟬": 6388,
      "##⟭": 6389,
      "##უ": 6390,
      "##ბ": 6391,
      "##✗": 6392,
      "##탄": 6393,
      "##소": 6394,
      "##᭄": 6395,
      "##👱": 6396,
      "##🍛": 6397,
      "##🚊": 6398,
      "##🚦": 6399,
      "##♌": 6400,
      "##♎": 6401,
      "##♏": 6402,
      "##🔡": 6403,
      "##⸝": 6404,
      "##パ": 6405,
      "##ト": 6406,
      "##ᅣ": 6407,
      "##녀": 6408,
      "##ủ": 6409,
      "##⛹": 6410,
      "##ڝ": 6411,
      "##つ": 6412,
      "##༼": 6413,
      "##🐫": 6414,
      "##✯": 6415,
      "##』": 6416,
      "##Ꮤ": 6417,
      "##立": 6418,
      "##🌗": 6419,
      "##ᅮ": 6420,
      "##ᄂ": 6421,
      "##か": 6422,
      "##雑": 6423,
      "##巾": 6424,
      "##個": 6425,
      "##歷": 6426,
      "##史": 6427,
      "##強": 6428,
      "##◔": 6429,
      "##☦": 6430,
      "##랐": 6431,
      "##🌰": 6432,
      "##🚳": 6433,
      "##◎": 6434,
      "##❹": 6435,
      "##ⵇ": 6436,
      "##🏩": 6437,
      "##デ": 6438,
      "##ィ": 6439,
      "##ャ": 6440,
      "##우": 6441,
      "##": 6442,
      "##♈": 6443,
      "##ꪆ": 6444,
      "##ڣ": 6445,
      "##ਹ": 6446,
      "##ਜ": 6447,
      "##🦶": 6448,
      "##ڸ": 6449,
      "##피": 6450,
      "##트": 6451,
      "##🐠": 6452,
      "##겼": 6453,
      "##네": 6454,
      "##̴": 6455,
      "##༗": 6456,
      "##྄": 6457,
      "##ཻ": 6458,
      "##✽": 6459,
      "##🧴": 6460,
      "##👢": 6461,
      "##দ": 6462,
      "##̿": 6463,
      "##̃": 6464,
      "##ڍ": 6465,
      "##﮼": 6466,
      "##🧻": 6467,
      "##þ": 6468,
      "##清": 6469,
      "##潔": 6470,
      "##切": 6471,
      "##塊": 6472,
      "##調": 6473,
      "##味": 6474,
      "##燉": 6475,
      "##野": 6476,
      "##品": 6477,
      "##市": 6478,
      "##場": 6479,
      "##略": 6480,
      "##部": 6481,
      "##分": 6482,
      "##用": 6483,
      "##且": 6484,
      "##芳": 6485,
      "##香": 6486,
      "##煙": 6487,
      "##山": 6488,
      "##核": 6489,
      "##桃": 6490,
      "##豆": 6491,
      "##科": 6492,
      "##灌": 6493,
      "##來": 6494,
      "##煮": 6495,
      "##時": 6496,
      "##候": 6497,
      "##⁚": 6498,
      "##જ": 6499,
      "##⁀": 6500,
      "##➴": 6501,
      "##ꜱ": 6502,
      "##림": 6503,
      "##ζ": 6504,
      "##­": 6505,
      "##🥎": 6506,
      "##ψ": 6507,
      "##🦪": 6508,
      "##복": 6509,
      "##צ": 6510,
      "##۶": 6511,
      "##ન": 6512,
      "##ଓ": 6513,
      "##似": 6514,
      "##文": 6515,
      "##化": 6516,
      "##无": 6517,
      "##关": 6518,
      "##ׂ": 6519,
      "##િ": 6520,
      "##ય": 6521,
      "##ો": 6522,
      "##્": 6523,
      "##લ": 6524,
      "##ફ": 6525,
      "##ક": 6526,
      "##સ": 6527,
      "##͘": 6528,
      "##ҳ": 6529,
      "##Ҳ": 6530,
      "##영": 6531,
      "##🌄": 6532,
      "##ץ": 6533,
      "##⠀": 6534,
      "##ᴄ": 6535,
      "##ᴋ": 6536,
      "##👡": 6537,
      "##🍢": 6538,
      "##🖼": 6539,
      "##⁯": 6540,
      "##Ė": 6541,
      "##Ӿ": 6542,
      "##래": 6543,
      "##Ì": 6544,
      "##吗": 6545,
      "##🏷": 6546,
      "##↺": 6547,
      "##𐬠": 6548,
      "##შ": 6549,
      "##ֶ": 6550,
      "##ָ": 6551,
      "##𓂃": 6552,
      "##🚵": 6553,
      "##Π": 6554,
      "##〪": 6555,
      "##〬": 6556,
      "##⸼": 6557,
      "##🌖": 6558,
      "##겠": 6559,
      "##☇": 6560,
      "##⛸": 6561,
      "##꒱": 6562,
      "##Ꮑ": 6563,
      "##Ꮻ": 6564,
      "##⊁": 6565,
      "##ܛ": 6566,
      "##ܢ": 6567,
      "##ܟ": 6568,
      "##ܠ": 6569,
      "##ܡ": 6570,
      "##ܥ": 6571,
      "##ܕ": 6572,
      "##ܼ": 6573,
      "##ܵ": 6574,
      "##📔": 6575,
      "##🦒": 6576,
      "##ᥫ": 6577,
      "##🪏": 6578,
      "##🦙": 6579,
      "##͈": 6580,
      "##⛱": 6581,
      "##ヘ": 6582,
      "##֪": 6583,
      "##ф": 6584,
      "##۲": 6585,
      "##󠁣": 6586,
      "##󠁴": 6587,
      "##ڰ": 6588,
      "##🚓": 6589,
      "##め": 6590,
      "##ᴛ": 6591,
      "##̝": 6592,
      "##̚": 6593,
      "##🪢": 6594,
      "##🦰": 6595,
      "##⹂": 6596,
      "##📧": 6597,
      "##ི": 6598,
      "##Ꮪ": 6599,
      "##Ꮮ": 6600,
      "##Ꮏ": 6601,
      "##✞": 6602,
      "##ঔ": 6603,
      "##ৣ": 6604,
      "##❅": 6605,
      "##Ꮬ": 6606,
      "##见": 6607,
      "##악": 6608,
      "##ڱ": 6609,
      "##든": 6610,
      "##❋": 6611,
      "##🏗": 6612,
      "##ý": 6613,
      "##것": 6614,
      "##͟": 6615,
      "##͞": 6616,
      "##📠": 6617,
      "##⊥": 6618,
      "##🕟": 6619,
      "##루": 6620,
      "##気": 6621,
      "##毒": 6622,
      "##ㄘ": 6623,
      "##ᗣ": 6624,
      "##│": 6625,
      "##▌": 6626,
      "##༺": 6627,
      "##都": 6628,
      "##利": 6629,
      "##玛": 6630,
      "##尼": 6631,
      "##メ": 6632,
      "##⛌": 6633,
      "##🚃": 6634,
      "##": 6635,
      "##": 6636,
      "##⁧": 6637,
      "##튜": 6638,
      "##버": 6639,
      "##𖣘": 6640,
      "##ڗ": 6641,
      "##ᅲ": 6642,
      "##🤹": 6643,
      "##십": 6644,
      "##시": 6645,
      "##오": 6646,
      "##🗼": 6647,
      "##꒦": 6648,
      "##ङ": 6649,
      "##Ŧ": 6650,
      "##🍣": 6651,
      "##🏰": 6652,
      "##重": 6653,
      "##每": 6654,
      "##周": 6655,
      "##制": 6656,
      "##几": 6657,
      "##个": 6658,
      "##🛁": 6659,
      "##ば": 6660,
      "##🏋": 6661,
      "##성": 6662,
      "##🧶": 6663,
      "##🥘": 6664,
      "##レ": 6665,
      "##チ": 6666,
      "##解": 6667,
      "##ũ": 6668,
      "##🍦": 6669,
      "##死": 6670,
      "##拉": 6671,
      "##克": 6672,
      "##塔": 6673,
      "##📰": 6674,
      "##༽": 6675,
      "##ợ": 6676,
      "##🏣": 6677,
      "##ừ": 6678,
      "##࣪": 6679,
      "##გ": 6680,
      "##☮": 6681,
      "##۾": 6682,
      "##디": 6683,
      "##呢": 6684,
      "##🎳": 6685,
      "##走": 6686,
      "##开": 6687,
      "##🚼": 6688,
      "##🫙": 6689,
      "##ማ": 6690,
      "##ቴ": 6691,
      "##ህ": 6692,
      "##🕦": 6693,
      "##🧽": 6694,
      "##≧": 6695,
      "##ˇ": 6696,
      "##🎫": 6697,
      "##자": 6698,
      "##상": 6699,
      "##었": 6700,
      "##ᗷ": 6701,
      "##ᑕ": 6702,
      "##ᾄ": 6703,
      "##ḋ": 6704,
      "##🥿": 6705,
      "##ڒ": 6706,
      "##ڌ": 6707,
      "##ት": 6708,
      "##ʝ": 6709,
      "##ҽ": 6710,
      "##ɳ": 6711,
      "##ᯅ": 6712,
      "##❃": 6713,
      "##🏯": 6714,
      "##널": 6715,
      "##🍱": 6716,
      "##ẹ": 6717,
      "##ʜ": 6718,
      "##ꪖ": 6719,
      "##天": 6720,
      "##金": 6721,
      "##银": 6722,
      "##前": 6723,
      "##꫟": 6724,
      "##इ": 6725,
      "##̆": 6726,
      "##◦": 6727,
      "##꒰": 6728,
      "##⑅": 6729,
      "##༚": 6730,
      "##ۑ": 6731,
      "##ಡ": 6732,
      "##┊": 6733,
      "##ย": 6734,
      "##ニ": 6735,
      "##🪳": 6736,
      "##✘": 6737,
      "##跟": 6738,
      "##樣": 6739,
      "##嗎": 6740,
      "##𖤐": 6741,
      "##◞": 6742,
      "##ڭ": 6743,
      "##」": 6744,
      "##具": 6745,
      "##狡": 6746,
      "##猾": 6747,
      "##特": 6748,
      "##質": 6749,
      "##捕": 6750,
      "##落": 6751,
      "##氏": 6752,
      "##族": 6753,
      "##城": 6754,
      "##鎮": 6755,
      "##鄉": 6756,
      "##村": 6757,
      "##弱": 6758,
      "##防": 6759,
      "##守": 6760,
      "##貧": 6761,
      "##窮": 6762,
      "##員": 6763,
      "##귀": 6764,
      "##Ũ": 6765,
      "##🤵": 6766,
      "##ⵅ": 6767,
      "##ḍ": 6768,
      "##🚾": 6769,
      "##爻": 6770,
      "##ッ": 6771,
      "##🧈": 6772,
      "##❈": 6773,
      "##⊹": 6774,
      "##⸒": 6775,
      "##ⴸ": 6776,
      "##Ꭸ": 6777,
      "##Ꭰ": 6778,
      "##ܘ": 6779,
      "##": 6780,
      "##흫": 6781,
      "##◜": 6782,
      "##🦟": 6783,
      "##🕎": 6784,
      "##►": 6785,
      "##╠": 6786,
      "##Ë": 6787,
      "##Ę": 6788,
      "##🛣": 6789,
      "##ؐ": 6790,
      "##马": 6791,
      "##蹄": 6792,
      "##ἶ": 6793,
      "##ĩ": 6794,
      "##◘": 6795,
      "##🕕": 6796,
      "##🕡": 6797,
      "##🚂": 6798,
      "##学": 6799,
      "##士": 6800,
      "##功": 6801,
      "##🖲": 6802,
      "##🖨": 6803,
      "##ǧ": 6804,
      "##🪙": 6805,
      "##았": 6806,
      "##快": 6807,
      "##乐": 6808,
      "##속": 6809,
      "##🪁": 6810,
      "##🧳": 6811,
      "##💺": 6812,
      "##으": 6813,
      "##부": 6814,
      "##터": 6815,
      "##⌈": 6816,
      "##🦗": 6817,
      "##۳": 6818,
      "##ᄌ": 6819,
      "##☾": 6820,
      "##⋑": 6821,
      "##已": 6822,
      "##브": 6823,
      "##🌂": 6824,
      "##🕜": 6825,
      "##🧗": 6826,
      "##🧭": 6827,
      "##沙": 6828,
      "##民": 6829,
      "##遭": 6830,
      "##受": 6831,
      "##列": 6832,
      "##领": 6833,
      "##种": 6834,
      "##灭": 6835,
      "##绝": 6836,
      "##对": 6837,
      "##抗": 6838,
      "##🛡": 6839,
      "##🔠": 6840,
      "##ề": 6841,
      "##⃟": 6842,
      "##Ꭱ": 6843,
      "##Ꭺ": 6844,
      "##Ꮯ": 6845,
      "##Ⴎ": 6846,
      "##🏮": 6847,
      "##𓃵": 6848,
      "##물": 6849,
      "##♞": 6850,
      "##째": 6851,
      "##🚁": 6852,
      "##🚠": 6853,
      "##🚛": 6854,
      "##했": 6855,
      "##ɞ": 6856,
      "##🐡": 6857,
      "##👘": 6858,
      "##ڞ": 6859,
      "##🩱": 6860,
      "##า": 6861,
      "##ด": 6862,
      "##จ": 6863,
      "##🗻": 6864,
      "##🧩": 6865,
      "##្": 6866,
      "##ល": 6867,
      "##ង": 6868,
      "##ឆ": 6869,
      "##ន": 6870,
      "##ា": 6871,
      "##ំ": 6872,
      "##ស": 6873,
      "##ក": 6874,
      "##⇣": 6875,
      "##젠": 6876,
      "##་": 6877,
      "##࿐": 6878,
      "##⎚": 6879,
      "##私": 6880,
      "##先": 6881,
      "##き": 6882,
      "##🖱": 6883,
      "##🥩": 6884,
      "##🎢": 6885,
      "##‮": 6886,
      "##ⴽ": 6887,
      "##И": 6888,
      "##🍤": 6889,
      "##🛕": 6890,
      "##롤": 6891,
      "##❆": 6892,
      "##ᥬ": 6893,
      "##꼰": 6894,
      "##神": 6895,
      "##ち": 6896,
      "##幸": 6897,
      "##運": 6898,
      "##祈": 6899,
      "##ぶ": 6900,
      "##": 6901,
      "##족": 6902,
      "##🛇": 6903,
      "##Μ": 6904,
      "##Ч": 6905,
      "##؍": 6906,
      "ال": 6907,
      "##ال": 6908,
      "##له": 6909,
      "##نا": 6910,
      "##لي": 6911,
      "في": 6912,
      "##لا": 6913,
      "##ان": 6914,
      "من": 6915,
      "الله": 6916,
      "##ين": 6917,
      "##ها": 6918,
      "##ار": 6919,
      "##ير": 6920,
      "##ما": 6921,
      "الم": 6922,
      "##بي": 6923,
      "##لى": 6924,
      "##ات": 6925,
      "##ية": 6926,
      "##را": 6927,
      "##دي": 6928,
      "##ون": 6929,
      "وال": 6930,
      "##وا": 6931,
      "##هم": 6932,
      "##ست": 6933,
      "##ري": 6934,
      "##..": 6935,
      "##لم": 6936,
      "##ول": 6937,
      "على": 6938,
      "##اب": 6939,
      "ما": 6940,
      "##تي": 6941,
      "##ام": 6942,
      "##كم": 6943,
      "علي": 6944,
      "الع": 6945,
      "##اء": 6946,
      "عن": 6947,
      "##اك": 6948,
      "ان": 6949,
      "##ذا": 6950,
      "##ني": 6951,
      "##اع": 6952,
      "لي": 6953,
      "##ور": 6954,
      "لا": 6955,
      "##حم": 6956,
      "أن": 6957,
      "مع": 6958,
      "بال": 6959,
      "##لك": 6960,
      "##يا": 6961,
      "الس": 6962,
      "الأ": 6963,
      "##في": 6964,
      "##اد": 6965,
      "وا": 6966,
      "##ائ": 6967,
      "##وم": 6968,
      "الج": 6969,
      "الح": 6970,
      "الت": 6971,
      "الق": 6972,
      "##يد": 6973,
      "ربي": 6974,
      "تع": 6975,
      "##لام": 6976,
      "##اذ": 6977,
      "الب": 6978,
      "الا": 6979,
      "##فر": 6980,
      "##من": 6981,
      "##لة": 6982,
      "##اه": 6983,
      "##رو": 6984,
      "##رك": 6985,
      "##حد": 6986,
      "##اف": 6987,
      "است": 6988,
      "##عد": 6989,
      "الش": 6990,
      "##قد": 6991,
      "##رة": 6992,
      "كي": 6993,
      "##ON": 6994,
      "يا": 6995,
      "##EN": 6996,
      "##TI": 6997,
      "##TION": 6998,
      "##MEN": 6999,
      "[MEN": 7000,
      "##TION]": 7001,
      "[MENTION]": 7002,
      "##لو": 7003,
      "##مي": 7004,
      "##نت": 7005,
      "انا": 7006,
      "...": 7007,
      "##صح": 7008,
      "##يت": 7009,
      "كل": 7010,
      "##اني": 7011,
      "الن": 7012,
      "ولا": 7013,
      "##بة": 7014,
      "##وف": 7015,
      "##ود": 7016,
      "##عة": 7017,
      "##رف": 7018,
      "عليه": 7019,
      "كان": 7020,
      "لل": 7021,
      "قال": 7022,
      "الك": 7023,
      "##سلم": 7024,
      "##تو": 7025,
      "##اح": 7026,
      "##رج": 7027,
      "الد": 7028,
      "##كون": 7029,
      "##رب": 7030,
      "##كن": 7031,
      "هذا": 7032,
      "##سم": 7033,
      "##سي": 7034,
      "##قي": 7035,
      "##اي": 7036,
      "##...": 7037,
      "##قة": 7038,
      "##بر": 7039,
      "يع": 7040,
      "وي": 7041,
      "##كر": 7042,
      "##دا": 7043,
      "وأ": 7044,
      "##حب": 7045,
      "##ارك": 7046,
      "##ته": 7047,
      "##مة": 7048,
      "##اج": 7049,
      "##عو": 7050,
      "##يب": 7051,
      "##مر": 7052,
      "##قت": 7053,
      "الص": 7054,
      "##دة": 7055,
      "الخ": 7056,
      "تح": 7057,
      "الف": 7058,
      "اخ": 7059,
      "##ديو": 7060,
      "عند": 7061,
      "##تك": 7062,
      "الإ": 7063,
      "أو": 7064,
      "هو": 7065,
      "استاذ": 7066,
      "يح": 7067,
      "##اش": 7068,
      "##يك": 7069,
      "##لت": 7070,
      "##اس": 7071,
      "##نة": 7072,
      "##ou": 7073,
      "وت": 7074,
      "##او": 7075,
      "##كرا": 7076,
      "##يم": 7077,
      "نت": 7078,
      "##وج": 7079,
      "##قول": 7080,
      "هذ": 7081,
      "وه": 7082,
      "مت": 7083,
      "الذ": 7084,
      "تاع": 7085,
      "##مع": 7086,
      "غير": 7087,
      "##رح": 7088,
      "شاء": 7089,
      "##حمد": 7090,
      "إلى": 7091,
      "##فس": 7092,
      "بن": 7093,
      "##بد": 7094,
      "##لق": 7095,
      "##كي": 7096,
      "##رحم": 7097,
      "لم": 7098,
      "ون": 7099,
      "##تى": 7100,
      "##ضي": 7101,
      "##لب": 7102,
      "مش": 7103,
      "##عم": 7104,
      "##بل": 7105,
      "الو": 7106,
      "##كل": 7107,
      "##فظ": 7108,
      "##حي": 7109,
      "##فض": 7110,
      "إن": 7111,
      "وب": 7112,
      "يار": 7113,
      "وسلم": 7114,
      "والله": 7115,
      "##صة": 7116,
      "##حة": 7117,
      "##عي": 7118,
      "##لنا": 7119,
      "##سب": 7120,
      "##ربي": 7121,
      "##فة": 7122,
      "اللهم": 7123,
      "##عب": 7124,
      "وج": 7125,
      "الي": 7126,
      "شكرا": 7127,
      "##تب": 7128,
      "له": 7129,
      "##وي": 7130,
      "الط": 7131,
      "أخ": 7132,
      "اب": 7133,
      "##وع": 7134,
      "##ha": 7135,
      "##قال": 7136,
      "يج": 7137,
      "بز": 7138,
      "##مين": 7139,
      "##در": 7140,
      "دير": 7141,
      "##كان": 7142,
      "حتى": 7143,
      "خير": 7144,
      "لو": 7145,
      "وع": 7146,
      "وم": 7147,
      "##حك": 7148,
      "##شي": 7149,
      "##فت": 7150,
      "##وت": 7151,
      "صلى": 7152,
      "##--": 7153,
      "##صل": 7154,
      "##أن": 7155,
      "الر": 7156,
      "فال": 7157,
      "##ثر": 7158,
      "20": 7159,
      "السلام": 7160,
      "##مل": 7161,
      "##زائ": 7162,
      "ول": 7163,
      "##زي": 7164,
      "لك": 7165,
      "##يخ": 7166,
      "ين": 7167,
      "##قو": 7168,
      "يت": 7169,
      "##es": 7170,
      "##لها": 7171,
      "نش": 7172,
      "بعد": 7173,
      "##نس": 7174,
      "##حت": 7175,
      "##خل": 7176,
      "عليكم": 7177,
      "او": 7178,
      "##ورة": 7179,
      "به": 7180,
      "##عل": 7181,
      "اد": 7182,
      "##طي": 7183,
      "بع": 7184,
      "##on": 7185,
      "هه": 7186,
      "كيف": 7187,
      "التي": 7188,
      "رو": 7189,
      "النا": 7190,
      "##خر": 7191,
      "ذلك": 7192,
      "فيك": 7193,
      "هي": 7194,
      "راك": 7195,
      "##رض": 7196,
      "##إن": 7197,
      "##مت": 7198,
      "هذه": 7199,
      "##la": 7200,
      "يارب": 7201,
      "##امل": 7202,
      "نج": 7203,
      "##يات": 7204,
      "##دير": 7205,
      "##هر": 7206,
      "خو": 7207,
      "لله": 7208,
      "رب": 7209,
      "واحد": 7210,
      "فيه": 7211,
      "##اط": 7212,
      "وش": 7213,
      "##تاب": 7214,
      "بزاف": 7215,
      "##يرة": 7216,
      "بصح": 7217,
      "علا": 7218,
      "بي": 7219,
      "##الي": 7220,
      "##لس": 7221,
      "بين": 7222,
      "##كا": 7223,
      "تو": 7224,
      "الث": 7225,
      "را": 7226,
      "##هل": 7227,
      "الذي": 7228,
      "##بت": 7229,
      "##دو": 7230,
      "##er": 7231,
      "😂😂": 7232,
      "##خص": 7233,
      "##عت": 7234,
      "##ضا": 7235,
      "مو": 7236,
      "##رت": 7237,
      "##in": 7238,
      "فيها": 7239,
      "##سلام": 7240,
      "##عا": 7241,
      "فيديو": 7242,
      "❤❤": 7243,
      "##سن": 7244,
      "##an": 7245,
      "تج": 7246,
      "تق": 7247,
      "هنا": 7248,
      "أي": 7249,
      "##ch": 7250,
      "##بح": 7251,
      "راني": 7252,
      "ولي": 7253,
      "##الى": 7254,
      "##جح": 7255,
      "بارك": 7256,
      "مي": 7257,
      "##قط": 7258,
      "##لف": 7259,
      "كنت": 7260,
      "الجزائ": 7261,
      "نح": 7262,
      "##سول": 7263,
      "##دم": 7264,
      "اي": 7265,
      "يخ": 7266,
      "##وب": 7267,
      "شي": 7268,
      "##ارة": 7269,
      "اس": 7270,
      "مس": 7271,
      "صح": 7272,
      "##**": 7273,
      "الغ": 7274,
      "بل": 7275,
      "إلا": 7276,
      "يوم": 7277,
      "202": 7278,
      "##ثل": 7279,
      "##ستاذ": 7280,
      "هل": 7281,
      "##وني": 7282,
      "##فضل": 7283,
      "مح": 7284,
      "تت": 7285,
      "##ولي": 7286,
      "راه": 7287,
      "يب": 7288,
      "أم": 7289,
      "يش": 7290,
      "##الم": 7291,
      "مر": 7292,
      "##en": 7293,
      "##الله": 7294,
      "وح": 7295,
      "##قل": 7296,
      "بلي": 7297,
      "##تها": 7298,
      "ام": 7299,
      "##ريا": 7300,
      "تعالى": 7301,
      "##ينة": 7302,
      "##ابة": 7303,
      "تب": 7304,
      "نفس": 7305,
      "##هد": 7306,
      "كما": 7307,
      "##00": 7308,
      "##صر": 7309,
      "##ar": 7310,
      "##شر": 7311,
      "بك": 7312,
      "انت": 7313,
      "ومن": 7314,
      "كامل": 7315,
      "وين": 7316,
      "##از": 7317,
      "قد": 7318,
      "مج": 7319,
      "##وك": 7320,
      "يحفظ": 7321,
      "الباك": 7322,
      "باك": 7323,
      "لكن": 7324,
      "##فيديو": 7325,
      "عليك": 7326,
      "واش": 7327,
      "رحم": 7328,
      "##مات": 7329,
      "اج": 7330,
      "##سة": 7331,
      "##يش": 7332,
      "يكون": 7333,
      "##علم": 7334,
      "الز": 7335,
      "##ادي": 7336,
      "عبد": 7337,
      "ثم": 7338,
      "##رد": 7339,
      "نس": 7340,
      "بلا": 7341,
      "##فهم": 7342,
      "الناس": 7343,
      "##مكن": 7344,
      "عم": 7345,
      "ابن": 7346,
      "##يل": 7347,
      "##وس": 7348,
      "##شاء": 7349,
      "##طة": 7350,
      "يد": 7351,
      "##الو": 7352,
      "##ماء": 7353,
      "أنا": 7354,
      "##عولي": 7355,
      "مب": 7356,
      "الصح": 7357,
      "##li": 7358,
      "##ثير": 7359,
      "##به": 7360,
      "قص": 7361,
      "##وق": 7362,
      "##وفق": 7363,
      "تش": 7364,
      "##حر": 7365,
      "قبل": 7366,
      "محمد": 7367,
      "سي": 7368,
      "نق": 7369,
      "وحد": 7370,
      "##رى": 7371,
      "برك": 7372,
      "لب": 7373,
      "##اته": 7374,
      "فض": 7375,
      "تخ": 7376,
      "حس": 7377,
      "##وض": 7378,
      "ملي": 7379,
      "جمي": 7380,
      "##قا": 7381,
      "##ir": 7382,
      "الجزائر": 7383,
      "##غير": 7384,
      "##هو": 7385,
      "كا": 7386,
      "##عرف": 7387,
      "##راء": 7388,
      "أس": 7389,
      "رسول": 7390,
      "##الك": 7391,
      "##جب": 7392,
      "##ti": 7393,
      "##نات": 7394,
      "إلي": 7395,
      "با": 7396,
      "كانت": 7397,
      "##زم": 7398,
      "تن": 7399,
      "القر": 7400,
      "##ادة": 7401,
      "أب": 7402,
      "##الة": 7403,
      "##تش": 7404,
      "##آن": 7405,
      "##فع": 7406,
      "##فق": 7407,
      "والم": 7408,
      "##عر": 7409,
      "خويا": 7410,
      "##na": 7411,
      "اح": 7412,
      "يق": 7413,
      "##ra": 7414,
      "عنه": 7415,
      "##وه": 7416,
      "##==": 7417,
      "##ليل": 7418,
      "اك": 7419,
      "بد": 7420,
      "##ديث": 7421,
      "جز": 7422,
      "##رس": 7423,
      "وس": 7424,
      "وما": 7425,
      "##وة": 7426,
      "وهو": 7427,
      "يس": 7428,
      "##خت": 7429,
      "إذا": 7430,
      "##ad": 7431,
      "الل": 7432,
      "رج": 7433,
      "##اص": 7434,
      "بعض": 7435,
      "##رق": 7436,
      "يقول": 7437,
      "##ذلك": 7438,
      "يحفظك": 7439,
      "##يني": 7440,
      "بم": 7441,
      "وص": 7442,
      "ولك": 7443,
      "##قدر": 7444,
      "##فرج": 7445,
      "##لهم": 7446,
      "##اري": 7447,
      "بالم": 7448,
      "##وش": 7449,
      "وق": 7450,
      "وك": 7451,
      "لأن": 7452,
      "##وات": 7453,
      "النبي": 7454,
      "معا": 7455,
      "##is": 7456,
      "نص": 7457,
      "مات": 7458,
      "##هي": 7459,
      "##----": 7460,
      "##ah": 7461,
      "##❤❤": 7462,
      "المش": 7463,
      "##زيد": 7464,
      "##غفر": 7465,
      "وإ": 7466,
      "عندي": 7467,
      "##__": 7468,
      "لع": 7469,
      "هاد": 7470,
      "باش": 7471,
      "##لاة": 7472,
      "##ريم": 7473,
      "لولا": 7474,
      "تس": 7475,
      "أج": 7476,
      "تكون": 7477,
      "##ربية": 7478,
      "فت": 7479,
      "الان": 7480,
      "##مام": 7481,
      "##al": 7482,
      "الى": 7483,
      "##اق": 7484,
      "كيما": 7485,
      "##ديد": 7486,
      "مست": 7487,
      "دار": 7488,
      "##زق": 7489,
      "يست": 7490,
      "بها": 7491,
      "##تم": 7492,
      "##حق": 7493,
      "##om": 7494,
      "الحمد": 7495,
      "راح": 7496,
      "تم": 7497,
      "##امة": 7498,
      "##رم": 7499,
      "؟؟": 7500,
      "المج": 7501,
      "وفي": 7502,
      "هاذ": 7503,
      "الفيديو": 7504,
      "نحب": 7505,
      "العلم": 7506,
      "يرحم": 7507,
      "فإن": 7508,
      "يوفق": 7509,
      "##دى": 7510,
      "للم": 7511,
      "أك": 7512,
      "##حو": 7513,
      "أنه": 7514,
      "##هلا": 7515,
      "##لية": 7516,
      "##منى": 7517,
      "##سان": 7518,
      "##وز": 7519,
      "##رأ": 7520,
      "##ak": 7521,
      "##or": 7522,
      "عليها": 7523,
      "أستاذ": 7524,
      "حبي": 7525,
      "##اجة": 7526,
      "##ؤال": 7527,
      "ات": 7528,
      "##ظر": 7529,
      "وان": 7530,
      "##id": 7531,
      "الفر": 7532,
      "##الوريا": 7533,
      "كاين": 7534,
      "##نى": 7535,
      "##طل": 7536,
      "##خير": 7537,
      "##رام": 7538,
      "##ريق": 7539,
      "##ed": 7540,
      "كتاب": 7541,
      "##بع": 7542,
      "##با": 7543,
      "دي": 7544,
      "##ذه": 7545,
      "ليس": 7546,
      "الرا": 7547,
      "لأ": 7548,
      "##طيك": 7549,
      "##ريد": 7550,
      "##ه،": 7551,
      "اسم": 7552,
      "المس": 7553,
      "##الح": 7554,
      "لق": 7555,
      "اليوم": 7556,
      "عب": 7557,
      "لما": 7558,
      "##ولة": 7559,
      "##ند": 7560,
      "##😂😂": 7561,
      "فأ": 7562,
      "خيرا": 7563,
      "##اريخ": 7564,
      "##بية": 7565,
      "##فيق": 7566,
      "شكون": 7567,
      "المسلم": 7568,
      "##؟؟": 7569,
      "المع": 7570,
      "##زال": 7571,
      "##ab": 7572,
      "ادعولي": 7573,
      "حي": 7574,
      "##el": 7575,
      "الآ": 7576,
      "يعني": 7577,
      "بأ": 7578,
      "اختي": 7579,
      "شيء": 7580,
      "لها": 7581,
      "نجيب": 7582,
      "مق": 7583,
      "مك": 7584,
      "##مان": 7585,
      "##هار": 7586,
      "خط": 7587,
      "##فا": 7588,
      "##غي": 7589,
      "اخي": 7590,
      "##عون": 7591,
      "فقط": 7592,
      "المن": 7593,
      "##لال": 7594,
      "كب": 7595,
      "الإسلام": 7596,
      "عام": 7597,
      "منها": 7598,
      "وقال": 7599,
      "علم": 7600,
      "##جر": 7601,
      "##رحمة": 7602,
      "##لات": 7603,
      "##غة": 7604,
      "##it": 7605,
      "##وية": 7606,
      "لنا": 7607,
      "شع": 7608,
      "اش": 7609,
      "يه": 7610,
      "كثير": 7611,
      "راج": 7612,
      "وقد": 7613,
      "##انية": 7614,
      "فلا": 7615,
      "فر": 7616,
      "أع": 7617,
      "##at": 7618,
      "##اعة": 7619,
      "تص": 7620,
      "أبي": 7621,
      "##راج": 7622,
      "##دل": 7623,
      "الأم": 7624,
      "والت": 7625,
      "##علي": 7626,
      "رضي": 7627,
      "##ضع": 7628,
      "أحد": 7629,
      "قصة": 7630,
      "##واب": 7631,
      "##كس": 7632,
      "وقت": 7633,
      "المت": 7634,
      "كم": 7635,
      "##a3": 7636,
      "##as": 7637,
      "##ay": 7638,
      "##ناء": 7639,
      "مد": 7640,
      "سبح": 7641,
      "منه": 7642,
      "وخ": 7643,
      "ولكن": 7644,
      "لت": 7645,
      "لان": 7646,
      "##نيا": 7647,
      "سبحان": 7648,
      "##ده": 7649,
      "ماشي": 7650,
      "##re": 7651,
      "##ريقة": 7652,
      "اذا": 7653,
      "##كو": 7654,
      "##le": 7655,
      "##هات": 7656,
      "##الا": 7657,
      "اع": 7658,
      "سنة": 7659,
      "نن": 7660,
      "مث": 7661,
      "الجنة": 7662,
      "##وان": 7663,
      "القرآن": 7664,
      "##am": 7665,
      "##ذكر": 7666,
      "قصص": 7667,
      "دا": 7668,
      "روا": 7669,
      "عل": 7670,
      "##سر": 7671,
      "يص": 7672,
      "منا": 7673,
      "##روح": 7674,
      "##كاية": 7675,
      "يو": 7676,
      "##دين": 7677,
      "مص": 7678,
      "##دت": 7679,
      "##المين": 7680,
      "##تر": 7681,
      "##ضر": 7682,
      "##اله": 7683,
      "19": 7684,
      "##يدة": 7685,
      "##لين": 7686,
      "لازم": 7687,
      "فضلك": 7688,
      "امين": 7689,
      "##❤️": 7690,
      "وإن": 7691,
      "الشيخ": 7692,
      "##زة": 7693,
      "##فك": 7694,
      "رضا": 7695,
      "قل": 7696,
      "سلام": 7697,
      "البي": 7698,
      "جام": 7699,
      "اللي": 7700,
      "أخي": 7701,
      "##اتك": 7702,
      "##لمة": 7703,
      "##الب": 7704,
      "مرة": 7705,
      "رم": 7706,
      "الخير": 7707,
      "##مس": 7708,
      "وانا": 7709,
      "أهل": 7710,
      "خاو": 7711,
      "##طا": 7712,
      "قلت": 7713,
      "والأ": 7714,
      "##قع": 7715,
      "عندك": 7716,
      "##قيقة": 7717,
      "يعطيك": 7718,
      "##زل": 7719,
      "فقال": 7720,
      "ينجح": 7721,
      "##باح": 7722,
      "##ظيم": 7723,
      "بالله": 7724,
      "الاست": 7725,
      "##جة": 7726,
      "رأ": 7727,
      "أص": 7728,
      "##قى": 7729,
      "قري": 7730,
      "نتا": 7731,
      "##يف": 7732,
      "أح": 7733,
      "بش": 7734,
      "##وال": 7735,
      "##اصة": 7736,
      "حك": 7737,
      "رحمه": 7738,
      "##مال": 7739,
      "سن": 7740,
      "##جاح": 7741,
      "##ذن": 7742,
      "##طر": 7743,
      "صحي": 7744,
      "باب": 7745,
      "افضل": 7746,
      "تست": 7747,
      "##he": 7748,
      "ياربي": 7749,
      "##ميع": 7750,
      "ندير": 7751,
      "وأن": 7752,
      "##وله": 7753,
      "لن": 7754,
      "مخ": 7755,
      "الذين": 7756,
      "##يح": 7757,
      "قاع": 7758,
      "##راه": 7759,
      "قال:": 7760,
      "##ضان": 7761,
      "الدين": 7762,
      "يبارك": 7763,
      "عمر": 7764,
      "حاجة": 7765,
      "ذكر": 7766,
      "##وص": 7767,
      "❤️": 7768,
      "##هما": 7769,
      "حنا": 7770,
      "##قص": 7771,
      "علاه": 7772,
      "مكان": 7773,
      "##ثة": 7774,
      "ختي": 7775,
      "ورحمة": 7776,
      "##ؤمن": 7777,
      "##دق": 7778,
      "##فرح": 7779,
      "فهم": 7780,
      "##لاد": 7781,
      "وكان": 7782,
      "##حال": 7783,
      "نب": 7784,
      "زوج": 7785,
      "##ضحك": 7786,
      "##حش": 7787,
      "عليهم": 7788,
      "العب": 7789,
      "العالمين": 7790,
      "##كت": 7791,
      "##جد": 7792,
      "##ودة": 7793,
      "إليه": 7794,
      "##ac": 7795,
      "##ئة": 7796,
      "##سمع": 7797,
      "##).": 7798,
      "شخص": 7799,
      "##il": 7800,
      "تد": 7801,
      "بت": 7802,
      "فل": 7803,
      "مثل": 7804,
      "حم": 7805,
      "الوا": 7806,
      "##ارب": 7807,
      "##عدل": 7808,
      "دعو": 7809,
      "نشوف": 7810,
      "موا": 7811,
      "##فو": 7812,
      "ور": 7813,
      "كون": 7814,
      "سب": 7815,
      "##ياة": 7816,
      "##اض": 7817,
      "رانا": 7818,
      "##****": 7819,
      "ديرلنا": 7820,
      "##زا": 7821,
      "جزاك": 7822,
      "##نية": 7823,
      "##قب": 7824,
      "حيات": 7825,
      "##لوب": 7826,
      "المنت": 7827,
      "علينا": 7828,
      "بإ": 7829,
      "##ادر": 7830,
      "##لاح": 7831,
      "اص": 7832,
      "لح": 7833,
      "##عاء": 7834,
      "نور": 7835,
      "جدا": 7836,
      "الكريم": 7837,
      "خاوتي": 7838,
      "الام": 7839,
      "##روس": 7840,
      "##ذي": 7841,
      "المسلمين": 7842,
      "بس": 7843,
      "##لاق": 7844,
      "وف": 7845,
      "العام": 7846,
      "##دد": 7847,
      "ولم": 7848,
      "##99": 7849,
      "نعم": 7850,
      "بما": 7851,
      "الرج": 7852,
      "ير": 7853,
      "قول": 7854,
      "##ديك": 7855,
      "##طف": 7856,
      "قت": 7857,
      "##غل": 7858,
      "لهم": 7859,
      "حق": 7860,
      "الشي": 7861,
      "نقول": 7862,
      "##طو": 7863,
      "المح": 7864,
      "ود": 7865,
      "المست": 7866,
      "رمضان": 7867,
      "##خي": 7868,
      "سمع": 7869,
      "##بيا": 7870,
      "##مو": 7871,
      "تحت": 7872,
      "يك": 7873,
      "##ta": 7874,
      "تك": 7875,
      "الصلاة": 7876,
      "la": 7877,
      "تأ": 7878,
      "يدير": 7879,
      "نخ": 7880,
      "الحديث": 7881,
      "##راك": 7882,
      "اول": 7883,
      "الجن": 7884,
      "##قر": 7885,
      "يمكن": 7886,
      "فرح": 7887,
      "##ضاء": 7888,
      "حب": 7889,
      "بح": 7890,
      "##جي": 7891,
      "وهذا": 7892,
      "البك": 7893,
      "##توى": 7894,
      "نتاع": 7895,
      "##وضوع": 7896,
      "فقد": 7897,
      "الض": 7898,
      "##ائل": 7899,
      "##زوج": 7900,
      "أش": 7901,
      "##====": 7902,
      "##اسية": 7903,
      "الحق": 7904,
      "تف": 7905,
      "صاح": 7906,
      "##20": 7907,
      "هم": 7908,
      "تعلي": 7909,
      "وربي": 7910,
      "##تنا": 7911,
      "##فات": 7912,
      "##زان": 7913,
      "##عين": 7914,
      "الصحة": 7915,
      "اله": 7916,
      "الأس": 7917,
      "##بط": 7918,
      "هذي": 7919,
      "##اية": 7920,
      "##ايات": 7921,
      "ممكن": 7922,
      "جميع": 7923,
      "##ظم": 7924,
      "وكل": 7925,
      "##أل": 7926,
      "بق": 7927,
      "##تا": 7928,
      "10": 7929,
      "وبرك": 7930,
      "##ro": 7931,
      "##لاء": 7932,
      "أما": 7933,
      "رائ": 7934,
      "منهم": 7935,
      "##هود": 7936,
      "أنت": 7937,
      "##طين": 7938,
      "##يبة": 7939,
      "والو": 7940,
      "##ik": 7941,
      "شر": 7942,
      "ست": 7943,
      "##ناة": 7944,
      "فا": 7945,
      "##te": 7946,
      "مليح": 7947,
      "##توفيق": 7948,
      "الدنيا": 7949,
      "##باب": 7950,
      "##قدم": 7951,
      "هناك": 7952,
      "##وها": 7953,
      "##طان": 7954,
      "##ضيع": 7955,
      "##جل": 7956,
      "##هادة": 7957,
      "##فل": 7958,
      "الاس": 7959,
      "التو": 7960,
      "##ho": 7961,
      "اق": 7962,
      "فع": 7963,
      "مسلم": 7964,
      "##يام": 7965,
      "لكم": 7966,
      "##رات": 7967,
      "ته": 7968,
      "مل": 7969,
      "##ئلة": 7970,
      "##الية": 7971,
      "##افة": 7972,
      "نحبك": 7973,
      "##تما": 7974,
      "وهي": 7975,
      "##طب": 7976,
      "والع": 7977,
      "حال": 7978,
      "أد": 7979,
      "##ya": 7980,
      "de": 7981,
      "القصة": 7982,
      "قلب": 7983,
      "والس": 7984,
      "نع": 7985,
      "وليد": 7986,
      "##ذب": 7987,
      "يحفض": 7988,
      "##خذ": 7989,
      "##رية": 7990,
      "بأن": 7991,
      "##رش": 7992,
      "القص": 7993,
      "هك": 7994,
      "##جابة": 7995,
      "الرحم": 7996,
      "##im": 7997,
      "##حبا": 7998,
      "الكتاب": 7999,
      "سيد": 8000,
      "ننجح": 8001,
      "ma": 8002,
      "بص": 8003,
      "اني": 8004,
      "انشاء": 8005,
      "##روك": 8006,
      "ار": 8007,
      "##ناتك": 8008,
      "##رجو": 8009,
      "##lah": 8010,
      "حكاية": 8011,
      "راي": 8012,
      "تاعك": 8013,
      "نست": 8014,
      "(1": 8015,
      "بالمثل": 8016,
      "##بتي": 8017,
      "##our": 8018,
      "##ارات": 8019,
      "تقول": 8020,
      "##لسفة": 8021,
      "وبركاته": 8022,
      "##عية": 8023,
      "شرح": 8024,
      "هدا": 8025,
      "العالم": 8026,
      "##رنا": 8027,
      "مان": 8028,
      "ماشاء": 8029,
      "حد": 8030,
      "صحيح": 8031,
      "أكثر": 8032,
      "##ماعة": 8033,
      "نف": 8034,
      "##قترح": 8035,
      "##يس": 8036,
      "الموا": 8037,
      "زيد": 8038,
      "##خو": 8039,
      "الظ": 8040,
      "يم": 8041,
      "##ضة": 8042,
      "ندي": 8043,
      "##قم": 8044,
      "##لاص": 8045,
      "##يرا": 8046,
      "##ومة": 8047,
      "المص": 8048,
      "العل": 8049,
      "المد": 8050,
      "ند": 8051,
      "السنة": 8052,
      "##قات": 8053,
      "##زيز": 8054,
      "الاع": 8055,
      "##افي": 8056,
      "##em": 8057,
      "وعلى": 8058,
      "باه": 8059,
      "حيث": 8060,
      "ناس": 8061,
      "الموضوع": 8062,
      "رك": 8063,
      "##روف": 8064,
      "##تهم": 8065,
      "راكلي": 8066,
      "حل": 8067,
      "##يمان": 8068,
      "##راد": 8069,
      "أمر": 8070,
      "الوقت": 8071,
      "حفظ": 8072,
      "كيفاش": 8073,
      "##--------": 8074,
      "دخ": 8075,
      "##____": 8076,
      "##لله": 8077,
      "##راف": 8078,
      "##نان": 8079,
      "كثيرا": 8080,
      "كتب": 8081,
      "##راب": 8082,
      "##et": 8083,
      "معاك": 8084,
      "الما": 8085,
      "آخر": 8086,
      "اه": 8087,
      "شيخ": 8088,
      "##غم": 8089,
      "حاب": 8090,
      "أت": 8091,
      "البكالوريا": 8092,
      "نقرا": 8093,
      "لباك": 8094,
      "طل": 8095,
      "الاخ": 8096,
      "يحب": 8097,
      "راهي": 8098,
      "كلام": 8099,
      "هادي": 8100,
      "راجعون": 8101,
      "يأ": 8102,
      "les": 8103,
      "السؤال": 8104,
      "مشي": 8105,
      "دون": 8106,
      "##ريب": 8107,
      "يوفقك": 8108,
      "روح": 8109,
      "جاء": 8110,
      "العظيم": 8111,
      "##ليش": 8112,
      "شحال": 8113,
      "##ولى": 8114,
      "للا": 8115,
      "ري": 8116,
      "شفت": 8117,
      "أبو": 8118,
      "##ركة": 8119,
      "##lh": 8120,
      "##رائ": 8121,
      "##ااف": 8122,
      "##انا": 8123,
      "بط": 8124,
      "##سل": 8125,
      "##حدث": 8126,
      "خرج": 8127,
      "##قيق": 8128,
      "ولكم": 8129,
      "##تهى": 8130,
      "2025": 8131,
      "كمل": 8132,
      "والن": 8133,
      "##واء": 8134,
      "##ولا": 8135,
      "##اتي": 8136,
      "شعبة": 8137,
      "خلق": 8138,
      "##واج": 8139,
      "وفق": 8140,
      "استاذة": 8141,
      "يط": 8142,
      "##فه": 8143,
      "الثاني": 8144,
      "كيفاه": 8145,
      "المنتدى": 8146,
      "##حية": 8147,
      "العربية": 8148,
      "##st": 8149,
      "حسب": 8150,
      "بزااف": 8151,
      "##كرة": 8152,
      "نتي": 8153,
      "رواه": 8154,
      "##ent": 8155,
      "الشر": 8156,
      "أفضل": 8157,
      "##دك": 8158,
      "##ia": 8159,
      "تاريخ": 8160,
      "##وتي": 8161,
      "موض": 8162,
      "##شة": 8163,
      "جديد": 8164,
      "خاصة": 8165,
      "صباح": 8166,
      "وجه": 8167,
      "##حا": 8168,
      "##تني": 8169,
      "وط": 8170,
      "##ve": 8171,
      "لكل": 8172,
      "حديث": 8173,
      "دين": 8174,
      "وحدة": 8175,
      "آمين": 8176,
      "##وجد": 8177,
      "##وى": 8178,
      "المغ": 8179,
      "الأخ": 8180,
      "15": 8181,
      "عليا": 8182,
      "للأ": 8183,
      "رحمة": 8184,
      "تط": 8185,
      "سؤال": 8186,
      "سع": 8187,
      "##ضية": 8188,
      "##صحاب": 8189,
      "ديري": 8190,
      "##عمل": 8191,
      "بنت": 8192,
      "ها": 8193,
      "##ره": 8194,
      "##رجع": 8195,
      "##يحة": 8196,
      "##ur": 8197,
      "##ديدة": 8198,
      "تاني": 8199,
      "خال": 8200,
      "مال": 8201,
      "vid": 8202,
      "الجزائري": 8203,
      "##ياتي": 8204,
      "أول": 8205,
      "##انة": 8206,
      "##دار": 8207,
      "نعرف": 8208,
      "##اهل": 8209,
      "شهادة": 8210,
      "##وار": 8211,
      "عز": 8212,
      "النص": 8213,
      "بدي": 8214,
      "نتفرج": 8215,
      "##قف": 8216,
      "المهم": 8217,
      "عق": 8218,
      "##عه": 8219,
      "##فتح": 8220,
      "طريقة": 8221,
      "😢😢": 8222,
      "روحي": 8223,
      "تر": 8224,
      "يحفضك": 8225,
      "دائ": 8226,
      "وير": 8227,
      "وشكرا": 8228,
      "##يين": 8229,
      "درت": 8230,
      "##ne": 8231,
      "رح": 8232,
      "عرف": 8233,
      "الجز": 8234,
      "##ناس": 8235,
      "مرحبا": 8236,
      "فهو": 8237,
      "مزال": 8238,
      "التعلي": 8239,
      "قر": 8240,
      "ولو": 8241,
      "##UR": 8242,
      "الحياة": 8243,
      "انتهى": 8244,
      "راكي": 8245,
      "##كمل": 8246,
      "عج": 8247,
      "وز": 8248,
      "جا": 8249,
      "فيهم": 8250,
      "قب": 8251,
      "16": 8252,
      "شهر": 8253,
      "18": 8254,
      "##يز": 8255,
      "أيضا": 8256,
      "ينجحنا": 8257,
      "موضوع": 8258,
      "##جا": 8259,
      "راهم": 8260,
      "ثلا": 8261,
      "هد": 8262,
      "##يه": 8263,
      "##فاء": 8264,
      "##حات": 8265,
      "نهار": 8266,
      "والح": 8267,
      "جزي": 8268,
      "كثر": 8269,
      "##oo": 8270,
      "درا": 8271,
      "هاذي": 8272,
      "لاب": 8273,
      "##تمع": 8274,
      "##tion": 8275,
      "ميزان": 8276,
      "مما": 8277,
      "##نسان": 8278,
      "##لمي": 8279,
      "le": 8280,
      "ch": 8281,
      "##صلى": 8282,
      "##ri": 8283,
      "يعرف": 8284,
      "اليه": 8285,
      "اكثر": 8286,
      "##ونا": 8287,
      "يجب": 8288,
      "حكم": 8289,
      "##نب": 8290,
      "##مج": 8291,
      "##وء": 8292,
      "in": 8293,
      "مؤ": 8294,
      "طريق": 8295,
      "##ابع": 8296,
      "شيئ": 8297,
      "##URL": 8298,
      "##ناه": 8299,
      "##URL]": 8300,
      "اخت": 8301,
      "[URL]": 8302,
      "منك": 8303,
      "##اهد": 8304,
      "تعرف": 8305,
      "الرحمن": 8306,
      "ترك": 8307,
      "رد": 8308,
      "##لاب": 8309,
      "##خرة": 8310,
      "تعيش": 8311,
      "((": 8312,
      "مه": 8313,
      "##ue": 8314,
      "معدل": 8315,
      "##ورك": 8316,
      "##بعد": 8317,
      "طب": 8318,
      "##كيف": 8319,
      "حول": 8320,
      "##سيح": 8321,
      "ومع": 8322,
      "توحش": 8323,
      "كث": 8324,
      "##عوا": 8325,
      "##بير": 8326,
      "##ها،": 8327,
      "##ليك": 8328,
      "نحن": 8329,
      "تحياتي": 8330,
      "##ملة": 8331,
      "محتوى": 8332,
      "كلش": 8333,
      "للج": 8334,
      "17": 8335,
      "النجاح": 8336,
      "مام": 8337,
      "##ظة": 8338,
      "##قبل": 8339,
      "##هاش": 8340,
      "در": 8341,
      "تل": 8342,
      "##روع": 8343,
      "2026": 8344,
      "##ذة": 8345,
      "##وفي": 8346,
      "ليك": 8347,
      "##سك": 8348,
      "##سبب": 8349,
      "##bi": 8350,
      "you": 8351,
      "##ذر": 8352,
      "##طار": 8353,
      "سورة": 8354,
      "لغ": 8355,
      "وغير": 8356,
      "##سى": 8357,
      "##ing": 8358,
      "منت": 8359,
      "ممت": 8360,
      "قوة": 8361,
      "كلمة": 8362,
      "12": 8363,
      "li": 8364,
      "بكل": 8365,
      "##بيل": 8366,
      "جد": 8367,
      "##يمة": 8368,
      "قلبي": 8369,
      "خص": 8370,
      "had": 8371,
      "عادي": 8372,
      "سم": 8373,
      "تلك": 8374,
      "يل": 8375,
      "نفسه": 8376,
      "وصح": 8377,
      "بج": 8378,
      "the": 8379,
      "##ناك": 8380,
      "##est": 8381,
      "رس": 8382,
      "##جاب": 8383,
      "اما": 8384,
      "الأرض": 8385,
      "والج": 8386,
      "أختي": 8387,
      "هاي": 8388,
      "##ديم": 8389,
      "غي": 8390,
      "نظ": 8391,
      "##ولنا": 8392,
      "رعب": 8393,
      "##هاد": 8394,
      "كن": 8395,
      "شعر": 8396,
      "فات": 8397,
      "##اوب": 8398,
      "##نسبة": 8399,
      "فه": 8400,
      "عندو": 8401,
      "كف": 8402,
      "الوط": 8403,
      "##ذاب": 8404,
      "بالتوفيق": 8405,
      "كبير": 8406,
      "##سط": 8407,
      "النس": 8408,
      "##حل": 8409,
      "بالت": 8410,
      "عندما": 8411,
      "الشعر": 8412,
      "نشالله": 8413,
      "أه": 8414,
      "##عمال": 8415,
      "حين": 8416,
      "وليس": 8417,
      "جماعة": 8418,
      "##يتك": 8419,
      "علاش": 8420,
      "اللغة": 8421,
      "واع": 8422,
      "##رفة": 8423,
      "##زن": 8424,
      "والش": 8425,
      "والص": 8426,
      "##عن": 8427,
      "##معين": 8428,
      "أعلم": 8429,
      "##الت": 8430,
      "الصبر": 8431,
      "##الث": 8432,
      "السيا": 8433,
      "##بيه": 8434,
      "##فيد": 8435,
      "نز": 8436,
      "سبحانه": 8437,
      "##ية،": 8438,
      "##ek": 8439,
      "السي": 8440,
      "صرا": 8441,
      "##هن": 8442,
      "الأمر": 8443,
      "ماي": 8444,
      "##ni": 8445,
      "##رأة": 8446,
      "##ci": 8447,
      "جزائ": 8448,
      "##aw": 8449,
      "لج": 8450,
      "تعلم": 8451,
      "مبروك": 8452,
      "بدا": 8453,
      "لمن": 8454,
      "أحمد": 8455,
      "فإ": 8456,
      "##عبة": 8457,
      "ثاني": 8458,
      "جن": 8459,
      "والإ": 8460,
      "##لفة": 8461,
      "##هور": 8462,
      "تحب": 8463,
      "##ابت": 8464,
      "ديرنا": 8465,
      "##حين": 8466,
      "القصص": 8467,
      "مار": 8468,
      "##اكم": 8469,
      "##nd": 8470,
      "قوله": 8471,
      "نم": 8472,
      "قدر": 8473,
      "##ميز": 8474,
      "عا": 8475,
      "المب": 8476,
      "مرا": 8477,
      "العمل": 8478,
      "##هة": 8479,
      "خاط": 8480,
      "##فسير": 8481,
      "الأن": 8482,
      "ونت": 8483,
      "##لكم": 8484,
      "##ئك": 8485,
      "##باك": 8486,
      "##افية": 8487,
      "fi": 8488,
      "زع": 8489,
      "##يته": 8490,
      "فوق": 8491,
      "وعلي": 8492,
      "عنها": 8493,
      "##ديه": 8494,
      "(2": 8495,
      "##بات": 8496,
      "ta3": 8497,
      "##قترحات": 8498,
      "مز": 8499,
      "بمعدل": 8500,
      "للت": 8501,
      "##لاف": 8502,
      "مغ": 8503,
      "##ذك": 8504,
      "##فار": 8505,
      "دائما": 8506,
      "يرزق": 8507,
      "##خاري": 8508,
      "أخرى": 8509,
      "إنا": 8510,
      "جزيلا": 8511,
      "فلي": 8512,
      "المؤمن": 8513,
      "##/1": 8514,
      "الأول": 8515,
      "عين": 8516,
      "حبيبتي": 8517,
      "النار": 8518,
      "احت": 8519,
      "صد": 8520,
      "العباسية": 8521,
      "الرسول": 8522,
      "##اعد": 8523,
      "الشعب": 8524,
      "##عك": 8525,
      "بالنسبة": 8526,
      "##ارج": 8527,
      "أحب": 8528,
      "##ma": 8529,
      "نقدر": 8530,
      "بإذن": 8531,
      "يف": 8532,
      "##ep": 8533,
      "وجل": 8534,
      "##بار": 8535,
      "استاد": 8536,
      "يوفقنا": 8537,
      "##يري": 8538,
      "مط": 8539,
      "##راءة": 8540,
      "حسناتك": 8541,
      "ورا": 8542,
      "جي": 8543,
      "الإنسان": 8544,
      "ثان": 8545,
      "##صار": 8546,
      "خل": 8547,
      "##قوله": 8548,
      "حط": 8549,
      "##!!": 8550,
      "##علها": 8551,
      "اعت": 8552,
      "طول": 8553,
      "##املة": 8554,
      "##ئل": 8555,
      "دعوة": 8556,
      "الخط": 8557,
      "سيدنا": 8558,
      "##ol": 8559,
      "خلي": 8560,
      "##قسي": 8561,
      "ou": 8562,
      "##ابعة": 8563,
      "المنا": 8564,
      "14": 8565,
      "الاد": 8566,
      "انه": 8567,
      "قالت": 8568,
      "##عود": 8569,
      "احسن": 8570,
      "##اول": 8571,
      "نشاله": 8572,
      "العلماء": 8573,
      "##سا": 8574,
      "ماذا": 8575,
      "##طيع": 8576,
      "الاسلام": 8577,
      "##لسلة": 8578,
      "سأ": 8579,
      "الاج": 8580,
      "جيت": 8581,
      "2024": 8582,
      "علوم": 8583,
      "##ذهب": 8584,
      "الأع": 8585,
      "##نو": 8586,
      "حبيت": 8587,
      "hh": 8588,
      "صغ": 8589,
      "شري": 8590,
      "##لسطين": 8591,
      "البخاري": 8592,
      "بالأ": 8593,
      "🤣🤣": 8594,
      "نو": 8595,
      "هكا": 8596,
      "لقد": 8597,
      "والسلام": 8598,
      "##نين": 8599,
      "سيبيا": 8600,
      "##قه": 8601,
      "##فلة": 8602,
      "لخ": 8603,
      "نبي": 8604,
      "روعة": 8605,
      "##نسا": 8606,
      "ريا": 8607,
      "عاد": 8608,
      "##يتها": 8609,
      "##)،": 8610,
      "خلال": 8611,
      "يجي": 8612,
      "أق": 8613,
      "الفاض": 8614,
      "مشك": 8615,
      "والا": 8616,
      "وار": 8617,
      "##اهر": 8618,
      "et": 8619,
      "##هب": 8620,
      "##لقا": 8621,
      "بغ": 8622,
      "##ظهر": 8623,
      "فما": 8624,
      "##ناش": 8625,
      "نوع": 8626,
      "انك": 8627,
      "وتع": 8628,
      "ولاية": 8629,
      "صل": 8630,
      "الرجل": 8631,
      "طلب": 8632,
      "##ضح": 8633,
      "ريد": 8634,
      "تعي": 8635,
      "الأمير": 8636,
      "يغ": 8637,
      "لوكان": 8638,
      "فيما": 8639,
      "عدد": 8640,
      "عي": 8641,
      "دعولي": 8642,
      "سمعت": 8643,
      "تحكي": 8644,
      "الفت": 8645,
      "حكايات": 8646,
      "!!": 8647,
      "##بيب": 8648,
      "##ازيك": 8649,
      "##صول": 8650,
      "قط": 8651,
      "ضحك": 8652,
      "بليز": 8653,
      "##قين": 8654,
      "ياخو": 8655,
      "خد": 8656,
      "المخ": 8657,
      "##بو": 8658,
      "##ge": 8659,
      "##نسية": 8660,
      "معنا": 8661,
      "##جز": 8662,
      "يعلم": 8663,
      "بيه": 8664,
      "احب": 8665,
      "الليل": 8666,
      "الدار": 8667,
      "شك": 8668,
      "بيك": 8669,
      "##جبني": 8670,
      "الدرا": 8671,
      "نسمع": 8672,
      "##abi": 8673,
      "##معة": 8674,
      "##بك": 8675,
      "##us": 8676,
      "لالا": 8677,
      "##ريف": 8678,
      "##دنا": 8679,
      "201": 8680,
      "سلم": 8681,
      "##هم،": 8682,
      "اهلا": 8683,
      "##ont": 8684,
      "بديت": 8685,
      "ملا": 8686,
      "عش": 8687,
      "##قية": 8688,
      "كنا": 8689,
      "to": 8690,
      "ya": 8691,
      "kh": 8692,
      "##لومات": 8693,
      "##سية": 8694,
      "بالن": 8695,
      "##ه.": 8696,
      "ألف": 8697,
      "بيها": 8698,
      "دروس": 8699,
      "##202": 8700,
      "واست": 8701,
      "عائ": 8702,
      "راكليطة": 8703,
      "##حمل": 8704,
      "ارحم": 8705,
      "وآ": 8706,
      "والدي": 8707,
      "##صف": 8708,
      "كال": 8709,
      "جميعا": 8710,
      "بسم": 8711,
      "فسيح": 8712,
      "رقم": 8713,
      "##ce": 8714,
      "al": 8715,
      "شف": 8716,
      "المرأة": 8717,
      "##كيل": 8718,
      "##os": 8719,
      "إب": 8720,
      "##يدا": 8721,
      "##ضو": 8722,
      "##عادة": 8723,
      "القلب": 8724,
      "الاول": 8725,
      "الإمام": 8726,
      "##سف": 8727,
      "معليش": 8728,
      "الكثير": 8729,
      "نك": 8730,
      "والد": 8731,
      "##بتني": 8732,
      "المه": 8733,
      "التاريخ": 8734,
      "صالح": 8735,
      "##لود": 8736,
      "تعالى:": 8737,
      "يكن": 8738,
      "العق": 8739,
      "راهو": 8740,
      "ماما": 8741,
      "فق": 8742,
      "ناج": 8743,
      "##نه": 8744,
      "مري": 8745,
      "##سو": 8746,
      "##واه": 8747,
      "##خرج": 8748,
      "انو": 8749,
      "##me": 8750,
      "11": 8751,
      "##لط": 8752,
      "##اكل": 8753,
      "وبارك": 8754,
      "المر": 8755,
      "cha": 8756,
      "عمري": 8757,
      "ويج": 8758,
      "##كره": 8759,
      "##تماعي": 8760,
      "نط": 8761,
      "لحك": 8762,
      "الحل": 8763,
      "اخر": 8764,
      "وث": 8765,
      "دخل": 8766,
      "محت": 8767,
      "##وجه": 8768,
      "ساعة": 8769,
      "خوف": 8770,
      "أهلا": 8771,
      "شباب": 8772,
      "##وما": 8773,
      "ولله": 8774,
      "مكانش": 8775,
      "العربي": 8776,
      "الشخص": 8777,
      "حابة": 8778,
      "##حيد": 8779,
      "جات": 8780,
      "لأنه": 8781,
      "##توب": 8782,
      "فمن": 8783,
      "##أة": 8784,
      "كبيرة": 8785,
      "لقيت": 8786,
      "صف": 8787,
      "بدون": 8788,
      "##درسة": 8789,
      "##حس": 8790,
      "الرح": 8791,
      "عيد": 8792,
      "ايه": 8793,
      "الله،": 8794,
      "##سباب": 8795,
      "جديدة": 8796,
      "قناة": 8797,
      "##امي": 8798,
      "المؤ": 8799,
      "نجح": 8800,
      "فيكم": 8801,
      "طوي": 8802,
      "##زع": 8803,
      "بالع": 8804,
      "##ريمة": 8805,
      "شيئا": 8806,
      "عمل": 8807,
      "##يج": 8808,
      "حساب": 8809,
      "##نع": 8810,
      "الطب": 8811,
      "##af": 8812,
      "##راهيم": 8813,
      "سيا": 8814,
      "التع": 8815,
      "مثلا": 8816,
      "🤲🏻": 8817,
      "اف": 8818,
      "صوت": 8819,
      "ضي": 8820,
      "##جلي": 8821,
      "روحك": 8822,
      "##di": 8823,
      "##ضيات": 8824,
      "ولد": 8825,
      "طيبة": 8826,
      "فن": 8827,
      "القي": 8828,
      "رجل": 8829,
      "يشوف": 8830,
      "##اركة": 8831,
      "نتمنى": 8832,
      "الار": 8833,
      "##حن": 8834,
      "بني": 8835,
      "##ؤلاء": 8836,
      "##وجود": 8837,
      "##اتب": 8838,
      "فعل": 8839,
      "##حان": 8840,
      "التح": 8841,
      "##ire": 8842,
      "واج": 8843,
      "##ين،": 8844,
      "فإذا": 8845,
      "الحس": 8846,
      "لش": 8847,
      "##9999": 8848,
      "ليلة": 8849,
      "سر": 8850,
      "وله": 8851,
      "##ربح": 8852,
      "أست": 8853,
      "عدم": 8854,
      "انسان": 8855,
      "##رجة": 8856,
      "نها": 8857,
      "تي": 8858,
      "الفي": 8859,
      "درس": 8860,
      "مليون": 8861,
      "فى": 8862,
      "##فهمتش": 8863,
      "##راق": 8864,
      "يجازيك": 8865,
      "##زية": 8866,
      "الدعاء": 8867,
      "راب": 8868,
      "##ائي": 8869,
      "##دية": 8870,
      "تقو": 8871,
      "بو": 8872,
      "الحك": 8873,
      "##to": 8874,
      "##طور": 8875,
      "##cha": 8876,
      "كذلك": 8877,
      "13": 8878,
      "إله": 8879,
      "##فى": 8880,
      "عندها": 8881,
      "هوما": 8882,
      "مخت": 8883,
      "ايا": 8884,
      "##دوا": 8885,
      "##========": 8886,
      "خي": 8887,
      "عشر": 8888,
      "ويت": 8889,
      "##ضافة": 8890,
      "##منا": 8891,
      "أولا": 8892,
      "مرت": 8893,
      "الرد": 8894,
      "نفسي": 8895,
      "الكلام": 8896,
      "##ونة": 8897,
      "معايا": 8898,
      "يشفي": 8899,
      "واب": 8900,
      "بخير": 8901,
      "حدث": 8902,
      "##0000": 8903,
      "غال": 8904,
      "صاحب": 8905,
      "يجوز": 8906,
      "##نسي": 8907,
      "be": 8908,
      "يخرج": 8909,
      "شعب": 8910,
      "مني": 8911,
      "ليست": 8912,
      "مض": 8913,
      "واس": 8914,
      "أنها": 8915,
      "##مار": 8916,
      "##طلع": 8917,
      "وعن": 8918,
      "بر": 8919,
      "الجواب": 8920,
      "##خلي": 8921,
      "##تين": 8922,
      "حسن": 8923,
      "يؤ": 8924,
      "ana": 8925,
      "رائع": 8926,
      "لات": 8927,
      "##واصل": 8928,
      "كانوا": 8929,
      "الحكاية": 8930,
      "شكراا": 8931,
      "##اوية": 8932,
      "اتمنى": 8933,
      "العرب": 8934,
      "##ظن": 8935,
      "##ويا": 8936,
      "##خلص": 8937,
      "##دوة": 8938,
      "التج": 8939,
      "امر": 8940,
      "لدي": 8941,
      "##لامة": 8942,
      "##********": 8943,
      "أف": 8944,
      "\"ال": 8945,
      "هكذا": 8946,
      "لد": 8947,
      "##حه": 8948,
      "بسبب": 8949,
      "الصالح": 8950,
      "##ach": 8951,
      "##عض": 8952,
      "(ال": 8953,
      "الشيطان": 8954,
      "ليوم": 8955,
      "باس": 8956,
      "##))": 8957,
      "##ميل": 8958,
      "الاستاذ": 8959,
      "##دام": 8960,
      "البيت": 8961,
      "##وتيوب": 8962,
      "واحدة": 8963,
      "##قيل": 8964,
      "عنا": 8965,
      "##رنامج": 8966,
      "مهم": 8967,
      "التس": 8968,
      "##طورة": 8969,
      "##جم": 8970,
      "بكالوريا": 8971,
      "بهذا": 8972,
      "##قاد": 8973,
      "##اتكم": 8974,
      "##افظ": 8975,
      "سما": 8976,
      "شوية": 8977,
      "##دب": 8978,
      "##عام": 8979,
      "##da": 8980,
      "##ous": 8981,
      "تجي": 8982,
      "##عاود": 8983,
      "بان": 8984,
      "##بال": 8985,
      "##ليم": 8986,
      "صلاة": 8987,
      "المو": 8988,
      "الآية": 8989,
      "##ارية": 8990,
      "وبعد": 8991,
      "##حدة": 8992,
      "يهدي": 8993,
      "red": 8994,
      "إس": 8995,
      "فلم": 8996,
      "فس": 8997,
      "##قتل": 8998,
      "وسلمصلى": 8999,
      "##ثبت": 9000,
      "تغ": 9001,
      "3la": 9002,
      "##راجعة": 9003,
      "##بدأ": 9004,
      "##😢😢": 9005,
      "ثلاث": 9006,
      "كاش": 9007,
      "##تكلم": 9008,
      "##صلح": 9009,
      "شوي": 9010,
      "##داد": 9011,
      "😭😭": 9012,
      "تعليق": 9013,
      "دع": 9014,
      "منذ": 9015,
      "ki": 9016,
      "بابا": 9017,
      "يجيب": 9018,
      "مقال": 9019,
      "##ترك": 9020,
      "##kh": 9021,
      "عباد": 9022,
      "ياارب": 9023,
      "الرعب": 9024,
      "##لان": 9025,
      "تقد": 9026,
      "حر": 9027,
      "اقت": 9028,
      "##وائ": 9029,
      "عودة": 9030,
      "##ot": 9031,
      "نه": 9032,
      "لس": 9033,
      "##لوان": 9034,
      "الجزء": 9035,
      "##وهم": 9036,
      "##صي": 9037,
      "شوف": 9038,
      "فو": 9039,
      "##قرة": 9040,
      "##ائر": 9041,
      "الجزائرية": 9042,
      "##صد": 9043,
      "وإذا": 9044,
      "قريب": 9045,
      "وعليكم": 9046,
      "زي": 9047,
      "ينت": 9048,
      "##eo": 9049,
      "##اة": 9050,
      "الكل": 9051,
      "الثانية": 9052,
      "شابة": 9053,
      "##الف": 9054,
      "##خرين": 9055,
      "##نش": 9056,
      "تفرج": 9057,
      "##ائق": 9058,
      "وبين": 9059,
      "صو": 9060,
      "نفهم": 9061,
      "فإنه": 9062,
      "فلسطين": 9063,
      "تشوف": 9064,
      "وو": 9065,
      "يتب": 9066,
      "بالج": 9067,
      "وعد": 9068,
      "رجع": 9069,
      "##erci": 9070,
      "يوجد": 9071,
      "القادر": 9072,
      "ويس": 9073,
      "هدي": 9074,
      "تاعي": 9075,
      "مواضيع": 9076,
      "المط": 9077,
      "احد": 9078,
      "بار": 9079,
      "تلق": 9080,
      "عندنا": 9081,
      "##روج": 9082,
      "فرحة": 9083,
      "com": 9084,
      "##ضرب": 9085,
      "هيا": 9086,
      "##عيلي": 9087,
      "وات": 9088,
      "##طق": 9089,
      "تدي": 9090,
      "قلوب": 9091,
      "##يادة": 9092,
      "النساء": 9093,
      "سام": 9094,
      "##راس": 9095,
      "نسقسي": 9096,
      "##ba": 9097,
      "قسم": 9098,
      "جمع": 9099,
      "خاص": 9100,
      "معنى": 9101,
      "بالك": 9102,
      "وأما": 9103,
      "شاف": 9104,
      "هذاك": 9105,
      "بركاته": 9106,
      "شاءلله": 9107,
      "##ونت": 9108,
      "##ولو": 9109,
      "لايك": 9110,
      "الجام": 9111,
      "##أس": 9112,
      "النفس": 9113,
      "عالم": 9114,
      "الآن": 9115,
      "راس": 9116,
      "##فكار": 9117,
      "ملك": 9118,
      "##طقة": 9119,
      "##اهرة": 9120,
      "سبب": 9121,
      "دخلت": 9122,
      "##اوي": 9123,
      "خلاص": 9124,
      "والخ": 9125,
      "##قيم": 9126,
      "داير": 9127,
      "وليت": 9128,
      "100": 9129,
      "هاك": 9130,
      "فك": 9131,
      "##صب": 9132,
      "الوال": 9133,
      "وانت": 9134,
      "السب": 9135,
      "##لاه": 9136,
      "نتو": 9137,
      "المق": 9138,
      "##جحك": 9139,
      "##بياء": 9140,
      "re": 9141,
      "مرض": 9142,
      "##ani": 9143,
      "نورمال": 9144,
      "الأولى": 9145,
      "هر": 9146,
      "بخ": 9147,
      "أكبر": 9148,
      "##ine": 9149,
      "##لامي": 9150,
      "أصحاب": 9151,
      "تقدر": 9152,
      "ركلي": 9153,
      "والب": 9154,
      "يفر": 9155,
      "شكر": 9156,
      "ممتاز": 9157,
      "عنده": 9158,
      "##بلغ": 9159,
      "متو": 9160,
      "ميم": 9161,
      "مشاء": 9162,
      "قلي": 9163,
      "الحقيقة": 9164,
      "المغرب": 9165,
      "فان": 9166,
      "en": 9167,
      "جزء": 9168,
      "##خصص": 9169,
      "حرام": 9170,
      "نر": 9171,
      "الجميع": 9172,
      "خوتي": 9173,
      "عندهم": 9174,
      "ني": 9175,
      "##وبة": 9176,
      "رغم": 9177,
      "وهم": 9178,
      "الحكم": 9179,
      "يوتي": 9180,
      "مقد": 9181,
      "راكم": 9182,
      "##قطع": 9183,
      "يوس": 9184,
      "##ونس": 9185,
      "اغ": 9186,
      "##راي": 9187,
      "الحال": 9188,
      "##aha": 9189,
      "القيامة": 9190,
      "عمي": 9191,
      "البار": 9192,
      "تفسير": 9193,
      "الطيب": 9194,
      "تجيب": 9195,
      "وحدي": 9196,
      "جميل": 9197,
      "##ولك": 9198,
      "فيديوهات": 9199,
      "يدخل": 9200,
      "ساع": 9201,
      "الفاضل": 9202,
      "فهمت": 9203,
      "لف": 9204,
      "الجلفة": 9205,
      "عط": 9206,
      "##au": 9207,
      "##ديق": 9208,
      "نا": 9209,
      "مقترحات": 9210,
      "##ow": 9211,
      "صغير": 9212,
      "فرنسا": 9213,
      "صحا": 9214,
      "ممن": 9215,
      "##اديث": 9216,
      "معانا": 9217,
      "يسم": 9218,
      "الموت": 9219,
      "نبدا": 9220,
      "##10": 9221,
      "الوكيل": 9222,
      "##رين": 9223,
      "سل": 9224,
      "هاذا": 9225,
      "الريا": 9226,
      "##ارف": 9227,
      "بذلك": 9228,
      "##درس": 9229,
      "بيت": 9230,
      "وتو": 9231,
      "زعما": 9232,
      "وسلم:": 9233,
      "والف": 9234,
      "##ومي": 9235,
      "فديو": 9236,
      "ربما": 9237,
      "##نف": 9238,
      "40": 9239,
      "لكي": 9240,
      "إني": 9241,
      "عجبتني": 9242,
      "##مه": 9243,
      "##بيت": 9244,
      "تحية": 9245,
      "تخرج": 9246,
      "##عله": 9247,
      "مازال": 9248,
      "مشكل": 9249,
      "##بين": 9250,
      "سعيد": 9251,
      "فكرة": 9252,
      "جاب": 9253,
      "القب": 9254,
      "مسك": 9255,
      "##hh": 9256,
      "نكون": 9257,
      "(3": 9258,
      "##].": 9259,
      "الإيمان": 9260,
      "دور": 9261,
      "قولي": 9262,
      "##اث": 9263,
      "##راجع": 9264,
      "##جه": 9265,
      "dir": 9266,
      "رائعة": 9267,
      "يدي": 9268,
      "##شرية": 9269,
      "الرحيم": 9270,
      "##حفظ": 9271,
      "##وري": 9272,
      "صرات": 9273,
      "القمة": 9274,
      "اعلم": 9275,
      "وكي": 9276,
      "##ضل": 9277,
      "##انون": 9278,
      "بكر": 9279,
      "هؤلاء": 9280,
      "إنما": 9281,
      "ارجو": 9282,
      "##راض": 9283,
      "##مد": 9284,
      "##يع": 9285,
      "##شف": 9286,
      "لهذا": 9287,
      "لماذا": 9288,
      "وجز": 9289,
      "##55": 9290,
      "الاب": 9291,
      "وأنا": 9292,
      "وغ": 9293,
      "جاي": 9294,
      "kho": 9295,
      "وضع": 9296,
      "##si": 9297,
      "يريد": 9298,
      "بنا": 9299,
      "الباب": 9300,
      "##شياء": 9301,
      "bac": 9302,
      "##اتذة": 9303,
      "تحيا": 9304,
      "كت": 9305,
      "##ولد": 9306,
      "##قطة": 9307,
      "##طلحات": 9308,
      "##ابقة": 9309,
      "##________": 9310,
      "##قون": 9311,
      "استغفر": 9312,
      "##وجي": 9313,
      "محل": 9314,
      "للع": 9315,
      "##اذن": 9316,
      "أمين": 9317,
      "إذ": 9318,
      "الحي": 9319,
      "الثورة": 9320,
      "##se": 9321,
      "me": 9322,
      "التوفيق": 9323,
      "##لوك": 9324,
      "يعت": 9325,
      "صلي": 9326,
      "لذلك": 9327,
      "أحسن": 9328,
      "##خرى": 9329,
      "كلها": 9330,
      "##نوب": 9331,
      "العم": 9332,
      "##موع": 9333,
      "لينا": 9334,
      "مف": 9335,
      "##سام": 9336,
      "عاي": 9337,
      "هريرة": 9338,
      "##حسن": 9339,
      "##تكم": 9340,
      "اخرى": 9341,
      "يزيد": 9342,
      "ايضا": 9343,
      "جاوب": 9344,
      "نفسك": 9345,
      "أيام": 9346,
      "وذلك": 9347,
      "جميلة": 9348,
      "أنك": 9349,
      "الدولة": 9350,
      "داي": 9351,
      "نروح": 9352,
      "مين": 9353,
      "طال": 9354,
      "القول": 9355,
      "##طيف": 9356,
      "الهد": 9357,
      "##عات": 9358,
      "السحر": 9359,
      "علاب": 9360,
      "التش": 9361,
      "مالك": 9362,
      "مكاش": 9363,
      "عث": 9364,
      "##ربة": 9365,
      "بات": 9366,
      "كثيرة": 9367,
      "كانو": 9368,
      "وهل": 9369,
      "يرحمها": 9370,
      "قبر": 9371,
      "قتل": 9372,
      "ابت": 9373,
      "##افر": 9374,
      "##صلي": 9375,
      "تعيشي": 9376,
      "مليحة": 9377,
      "الحم": 9378,
      "##جيب": 9379,
      "ويع": 9380,
      "##رفع": 9381,
      "ليا": 9382,
      "حياتك": 9383,
      "وجود": 9384,
      "طيب": 9385,
      "par": 9386,
      "##ئي": 9387,
      "السماء": 9388,
      "ينجحك": 9389,
      "##llah": 9390,
      "##ختي": 9391,
      "##عارة": 9392,
      "فج": 9393,
      "ايام": 9394,
      "##عث": 9395,
      "🇩🇿": 9396,
      "اغفر": 9397,
      "##ليا": 9398,
      "حياتي": 9399,
      "معاه": 9400,
      "##همش": 9401,
      "التف": 9402,
      "##اطل": 9403,
      "##عوذ": 9404,
      "مجهود": 9405,
      "قائ": 9406,
      "يتم": 9407,
      "نحكي": 9408,
      "ورد": 9409,
      "سبيل": 9410,
      "##اعر": 9411,
      "جامي": 9412,
      "التص": 9413,
      "##de": 9414,
      "##الحة": 9415,
      "الأمة": 9416,
      "##ركز": 9417,
      "##غراف": 9418,
      "ملاح": 9419,
      "##طفال": 9420,
      "##ارت": 9421,
      "بلييز": 9422,
      "##----------------": 9423,
      "المؤمنين": 9424,
      "##ريح": 9425,
      "مستجابة": 9426,
      "قالوا": 9427,
      "حتا": 9428,
      "##ألك": 9429,
      "ألا": 9430,
      "##يكور": 9431,
      "إنه": 9432,
      "تفهم": 9433,
      "هادا": 9434,
      "معه": 9435,
      "اريد": 9436,
      "##قامة": 9437,
      "نموت": 9438,
      "باقي": 9439,
      "بالإ": 9440,
      "##عوة": 9441,
      "زاد": 9442,
      "##\".": 9443,
      "##ui": 9444,
      "صورة": 9445,
      "##بري": 9446,
      "كله": 9447,
      "##اكس": 9448,
      "فهذا": 9449,
      "الملك": 9450,
      "طاح": 9451,
      "##ضى": 9452,
      "##ديش": 9453,
      "المشكل": 9454,
      "##ميين": 9455,
      "منكم": 9456,
      "بسي": 9457,
      "والق": 9458,
      "برا": 9459,
      "عذاب": 9460,
      "الألب": 9461,
      "تخوف": 9462,
      "##تبار": 9463,
      "##جيل": 9464,
      "جزائري": 9465,
      "##gh": 9466,
      "يحت": 9467,
      "يما": 9468,
      "##اللهم": 9469,
      "##ها.": 9470,
      "حالة": 9471,
      "##حكم": 9472,
      "##شك": 9473,
      "المجتمع": 9474,
      "##زاير": 9475,
      "صان": 9476,
      "نلق": 9477,
      "##واد": 9478,
      "##ونية": 9479,
      "##قق": 9480,
      "لإ": 9481,
      "الصحابة": 9482,
      "##ثار": 9483,
      "##است": 9484,
      "التق": 9485,
      "لط": 9486,
      "##عار": 9487,
      "سلسلة": 9488,
      "نصيحة": 9489,
      "❤️❤️": 9490,
      "##fi": 9491,
      "يقدر": 9492,
      "الزوج": 9493,
      "جعل": 9494,
      "الولا": 9495,
      "وإنما": 9496,
      "ڨاع": 9497,
      "لفيديو": 9498,
      "##ليون": 9499,
      "لانو": 9500,
      "1-": 9501,
      "##هاب": 9502,
      "##ala": 9503,
      "أين": 9504,
      "صغيرة": 9505,
      "وض": 9506,
      "النب": 9507,
      "تجري": 9508,
      "خفت": 9509,
      "##ريات": 9510,
      "فهي": 9511,
      "العزيز": 9512,
      "كو": 9513,
      "وأنت": 9514,
      "تعليقي": 9515,
      "##اعدة": 9516,
      "قام": 9517,
      "##نك": 9518,
      "##صاد": 9519,
      "واد": 9520,
      "صدق": 9521,
      "الدروس": 9522,
      "je": 9523,
      "خاي": 9524,
      "[ال": 9525,
      "نل": 9526,
      "رحت": 9527,
      "سنوات": 9528,
      "##داية": 9529,
      "وجزاك": 9530,
      "وفلسفة": 9531,
      "هذو": 9532,
      "أتمنى": 9533,
      "انها": 9534,
      "ونعم": 9535,
      "##جرة": 9536,
      "جملة": 9537,
      "السل": 9538,
      "ابوني": 9539,
      "فلما": 9540,
      "ومر": 9541,
      "بمع": 9542,
      "جنا": 9543,
      "غريب": 9544,
      "##جن": 9545,
      "##لسل": 9546,
      "الانسان": 9547,
      "for": 9548,
      "فم": 9549,
      "آل": 9550,
      "##واع": 9551,
      "##غرافيا": 9552,
      "حكاي": 9553,
      "mo": 9554,
      "ديت": 9555,
      "الطريقة": 9556,
      "تهدر": 9557,
      "##واك": 9558,
      "مم": 9559,
      "أجل": 9560,
      "##طاء": 9561,
      "إبراهيم": 9562,
      "##30": 9563,
      "##جليزية": 9564,
      "التحر": 9565,
      "##ارين": 9566,
      "##خة": 9567,
      "يعيش": 9568,
      "راجل": 9569,
      "##بلي": 9570,
      "##دون": 9571,
      "تاعو": 9572,
      "الطريق": 9573,
      "يوسف": 9574,
      "والك": 9575,
      "vidé": 9576,
      "مبارك": 9577,
      "باذن": 9578,
      "الرب": 9579,
      "##أك": 9580,
      "جل": 9581,
      "المدينة": 9582,
      "الماء": 9583,
      "الخوف": 9584,
      "حقيقة": 9585,
      "##روب": 9586,
      "##حث": 9587,
      "الور": 9588,
      "والديك": 9589,
      "##ثال": 9590,
      "بلاد": 9591,
      "and": 9592,
      "##سبوع": 9593,
      "بلاك": 9594,
      "##صحيح": 9595,
      "##pp": 9596,
      "للإ": 9597,
      "شاءالله": 9598,
      "تبارك": 9599,
      "is": 9600,
      "الرجال": 9601,
      "بكري": 9602,
      "كلما": 9603,
      "##شيخ": 9604,
      "##قوة": 9605,
      "التن": 9606,
      "ياا": 9607,
      "##وبر": 9608,
      "##ثم": 9609,
      "الثالث": 9610,
      "حاج": 9611,
      "يرزقك": 9612,
      "اكبر": 9613,
      "يوما": 9614,
      "l'": 9615,
      "##سه": 9616,
      "نسيت": 9617,
      "والحمد": 9618,
      "الساعة": 9619,
      "بالش": 9620,
      "تنا": 9621,
      "##راو": 9622,
      "لاح": 9623,
      "تقدم": 9624,
      "##كنه": 9625,
      "2-": 9626,
      "##داء": 9627,
      "te": 9628,
      "صحة": 9629,
      "ماهو": 9630,
      "##♥️": 9631,
      "ولكل": 9632,
      "سواء": 9633,
      "امت": 9634,
      "##15": 9635,
      "ارزق": 9636,
      "th": 9637,
      "شاب": 9638,
      "##فون": 9639,
      "##جية": 9640,
      "el": 9641,
      "##يتش": 9642,
      "محب": 9643,
      "الأح": 9644,
      "انتي": 9645,
      "##ابق": 9646,
      "##epia": 9647,
      "##oum": 9648,
      "##أت": 9649,
      "##بحث": 9650,
      "عربية": 9651,
      "القناة": 9652,
      "فقال:": 9653,
      "حقا": 9654,
      "##عى": 9655,
      "عنهم": 9656,
      "##قدرش": 9657,
      "الاخت": 9658,
      "هدر": 9659,
      "##ائح": 9660,
      "حلي": 9661,
      "##كرم": 9662,
      "وتعالى": 9663,
      "ياك": 9664,
      "احكي": 9665,
      "video": 9666,
      "الألباني": 9667,
      "أط": 9668,
      "##دها": 9669,
      "##هرة": 9670,
      "هوا": 9671,
      "يعطي": 9672,
      "ذات": 9673,
      "##ie": 9674,
      "للش": 9675,
      "##انب": 9676,
      "##زائر": 9677,
      "لعزيز": 9678,
      "النهار": 9679,
      "##out": 9680,
      "##19": 9681,
      "##فيه": 9682,
      "##ina": 9683,
      "##قدرو": 9684,
      "اجمعين": 9685,
      "##a7": 9686,
      "لص": 9687,
      "اداب": 9688,
      "الكريمة": 9689,
      "##رع": 9690,
      "##جال": 9691,
      "ريضا": 9692,
      "بالح": 9693,
      "انش": 9694,
      "سوف": 9695,
      "ماني": 9696,
      "للح": 9697,
      "يقال": 9698,
      "su": 9699,
      "😅😅": 9700,
      "##/2": 9701,
      "بالس": 9702,
      "للجميع": 9703,
      "يخليك": 9704,
      "لحكاية": 9705,
      "##غط": 9706,
      "بور": 9707,
      "##عيش": 9708,
      "##ana": 9709,
      "أيها": 9710,
      "علاقة": 9711,
      "كفر": 9712,
      "آمن": 9713,
      "معرف": 9714,
      "##لوه": 9715,
      "نخدم": 9716,
      "ماك": 9717,
      "##ركات": 9718,
      "##ريعة": 9719,
      "بلغ": 9720,
      "لعب": 9721,
      "نجاح": 9722,
      "فيا": 9723,
      "والث": 9724,
      "fr": 9725,
      "باينة": 9726,
      "##ربت": 9727,
      "🤲🤲": 9728,
      "we": 9729,
      "pour": 9730,
      "##اوى": 9731,
      "لغات": 9732,
      "حاس": 9733,
      "مفهمتش": 9734,
      "اشت": 9735,
      "rak": 9736,
      "بهم": 9737,
      "جيب": 9738,
      "اليوتيوب": 9739,
      "أخذ": 9740,
      "فتح": 9741,
      "الشكر": 9742,
      "ضد": 9743,
      "وحده": 9744,
      "قوم": 9745,
      "أجمعين": 9746,
      "أغ": 9747,
      "معي": 9748,
      "##روا": 9749,
      "شئ": 9750,
      "يز": 9751,
      "pro": 9752,
      "ضعي": 9753,
      "##kay": 9754,
      "وزيد": 9755,
      "##يانا": 9756,
      "راكليطا": 9757,
      "طبي": 9758,
      "عبر": 9759,
      "##ارس": 9760,
      "الأمور": 9761,
      "lo": 9762,
      "الاش": 9763,
      "قريت": 9764,
      "بالد": 9765,
      "##ة،": 9766,
      "##بنا": 9767,
      "طالب": 9768,
      "يلي": 9769,
      "اصلا": 9770,
      "القيم": 9771,
      "موقع": 9772,
      "##ونه": 9773,
      "سنين": 9774,
      "pas": 9775,
      "##ونك": 9776,
      "القسم": 9777,
      "##برا": 9778,
      "##مير": 9779,
      "ديما": 9780,
      "##ib": 9781,
      "##اوز": 9782,
      "أنهم": 9783,
      "أستاذة": 9784,
      "m3": 9785,
      "##11": 9786,
      "وتح": 9787,
      "دراهم": 9788,
      "تما": 9789,
      "##يمين": 9790,
      "تدير": 9791,
      "##ضب": 9792,
      "##ation": 9793,
      "##مش": 9794,
      "##قاء": 9795,
      "أخرج": 9796,
      "صور": 9797,
      "عباس": 9798,
      "قاد": 9799,
      "دعاء": 9800,
      "des": 9801,
      "##ليس": 9802,
      "الحالة": 9803,
      "##حقق": 9804,
      "ننجحو": 9805,
      "للباك": 9806,
      "بداية": 9807,
      "مجرد": 9808,
      "صراحة": 9809,
      "2023": 9810,
      "##سكر": 9811,
      "ريدكس": 9812,
      "##مانة": 9813,
      "دعواتكم": 9814,
      "##بيين": 9815,
      "برحم": 9816,
      "##عان": 9817,
      "يجعل": 9818,
      "جبت": 9819,
      "دو": 9820,
      "نعاود": 9821,
      "cont": 9822,
      "##طيح": 9823,
      "رأي": 9824,
      "فري": 9825,
      "اين": 9826,
      "نفرح": 9827,
      "العلوم": 9828,
      "هادو": 9829,
      "##خيص": 9830,
      "نجيبو": 9831,
      "التعليق": 9832,
      "st": 9833,
      "حا": 9834,
      "أني": 9835,
      "العاص": 9836,
      "##لاميذ": 9837,
      "لول": 9838,
      "الشع": 9839,
      "تقبل": 9840,
      "الاسئلة": 9841,
      "##chi": 9842,
      "خلا": 9843,
      "رجال": 9844,
      "##حيل": 9845,
      "ويد": 9846,
      "الأستاذ": 9847,
      "يشافي": 9848,
      "##يوم": 9849,
      "##خوف": 9850,
      "##حكام": 9851,
      "قمة": 9852,
      "ثلاثة": 9853,
      "##تلي": 9854,
      "بب": 9855,
      "فضلكم": 9856,
      "عاود": 9857,
      "##خلو": 9858,
      "🎉🎉": 9859,
      "الطفل": 9860,
      "nch": 9861,
      "##sh": 9862,
      "أرب": 9863,
      "يغفر": 9864,
      "يفهم": 9865,
      "إي": 9866,
      "فط": 9867,
      "rabi": 9868,
      "قادة": 9869,
      "صار": 9870,
      "##ديات": 9871,
      "إخ": 9872,
      "##برة": 9873,
      "البقرة": 9874,
      "bi": 9875,
      "تخل": 9876,
      "أث": 9877,
      "فينا": 9878,
      "##ائلة": 9879,
      "##ada": 9880,
      "وعند": 9881,
      "##ذين": 9882,
      "ومي": 9883,
      "##que": 9884,
      "##مني": 9885,
      "مكن": 9886,
      "السر": 9887,
      "اط": 9888,
      "##قيقي": 9889,
      "##سين": 9890,
      "ورس": 9891,
      "##شوف": 9892,
      "إست": 9893,
      "##غر": 9894,
      "##قرا": 9895,
      "##ماع": 9896,
      "وصف": 9897,
      "قادر": 9898,
      "آله": 9899,
      "طفلة": 9900,
      "هاذو": 9901,
      "##هري": 9902,
      "##ut": 9903,
      "##ته،": 9904,
      "دقيقة": 9905,
      "سير": 9906,
      "وصل": 9907,
      "##راحة": 9908,
      "ندخل": 9909,
      "واصل": 9910,
      "التأ": 9911,
      "##ant": 9912,
      "إسم": 9913,
      "المل": 9914,
      "##ذف": 9915,
      "البد": 9916,
      "##ئيس": 9917,
      "195": 9918,
      "تولي": 9919,
      "وكيف": 9920,
      "قرأ": 9921,
      "bon": 9922,
      "شيكور": 9923,
      "عائشة": 9924,
      "فش": 9925,
      "واه": 9926,
      "♥️": 9927,
      "##طبي": 9928,
      "الاولى": 9929,
      "نض": 9930,
      "200": 9931,
      "##غيير": 9932,
      "حرة": 9933,
      "معن": 9934,
      "نتوما": 9935,
      "معك": 9936,
      "##لد": 9937,
      "تز": 9938,
      "وإنا": 9939,
      "اولا": 9940,
      "يفرحك": 9941,
      "مرو": 9942,
      "##باء": 9943,
      "يهدر": 9944,
      "موسى": 9945,
      "الفرنسية": 9946,
      "الملا": 9947,
      "الله.": 9948,
      "##قوبة": 9949,
      "مرات": 9950,
      "الوطني": 9951,
      "نستنا": 9952,
      "بيد": 9953,
      "غدوة": 9954,
      "عدة": 9955,
      "##الات": 9956,
      "##؟!": 9957,
      "##الج": 9958,
      "ومت": 9959,
      "نشاء": 9960,
      "##ظار": 9961,
      "فعلا": 9962,
      "العبد": 9963,
      "ادعو": 9964,
      "##صيل": 9965,
      "##ابل": 9966,
      "ثانيا": 9967,
      "سعد": 9968,
      "##بدل": 9969,
      "الآخر": 9970,
      "##47": 9971,
      "بيهم": 9972,
      "نسقسيك": 9973,
      "##4)": 9974,
      "داخل": 9975,
      "المك": 9976,
      "الصحيح": 9977,
      "مدينة": 9978,
      "فهل": 9979,
      "عاش": 9980,
      "##ران": 9981,
      "##ضيف": 9982,
      "قات": 9983,
      "##lo": 9984,
      "إليك": 9985,
      "##طن": 9986,
      "##اتو": 9987,
      "الرائ": 9988,
      "##رسل": 9989,
      "##oura": 9990,
      "##دخل": 9991,
      "،،": 9992,
      "##دوس": 9993,
      "##~~": 9994,
      "وهذه": 9995,
      "30": 9996,
      "وسهلا": 9997,
      "##لاش": 9998,
      "##قيقية": 9999,
      "وابن": 10000,
      "##ديمة": 10001,
      "##الق": 10002,
      "الإست": 10003,
      "الاسم": 10004,
      "##ريس": 10005,
      "قدم": 10006,
      "اجعل": 10007,
      "##ارا": 10008,
      "الصف": 10009,
      "فالم": 10010,
      "نديرو": 10011,
      "اللغ": 10012,
      "يفرح": 10013,
      "وصحبه": 10014,
      "طبعا": 10015,
      "ادا": 10016,
      "ميت": 10017,
      "نتبع": 10018,
      "##اشرة": 10019,
      "قلبك": 10020,
      "باي": 10021,
      "##خاص": 10022,
      "gh": 10023,
      "المجهر": 10024,
      "تنت": 10025,
      "خبر": 10026,
      "##ويه": 10027,
      "كوم": 10028,
      "الحب": 10029,
      "ne": 10030,
      "Hhh": 10031,
      "##عيد": 10032,
      "bz": 10033,
      "##ونسي": 10034,
      "الحسن": 10035,
      "نبينا": 10036,
      "الدراسة": 10037,
      "توحشناك": 10038,
      "##12": 10039,
      "المال": 10040,
      "الأش": 10041,
      "الحرب": 10042,
      "ياو": 10043,
      "الأب": 10044,
      "ماع": 10045,
      "تقري": 10046,
      "تحط": 10047,
      "الزواج": 10048,
      "بشكل": 10049,
      "ذاك": 10050,
      "أنفس": 10051,
      "an": 10052,
      "##hat": 10053,
      "wlh": 10054,
      "أمام": 10055,
      "سك": 10056,
      "مهما": 10057,
      "جع": 10058,
      "##طيني": 10059,
      "خاطر": 10060,
      "##ية.": 10061,
      "##تيه": 10062,
      "مدة": 10063,
      "##جاج": 10064,
      "منو": 10065,
      "##اتها": 10066,
      "بنفس": 10067,
      "حياة": 10068,
      "حرف": 10069,
      "الصورة": 10070,
      "Red": 10071,
      "المعلومات": 10072,
      "ناجحين": 10073,
      "سهلا": 10074,
      "ظهر": 10075,
      "ارج": 10076,
      "وكذلك": 10077,
      "بلادي": 10078,
      "😊😊": 10079,
      "##رضى": 10080,
      "حو": 10081,
      "رزق": 10082,
      "بأس": 10083,
      "##أي": 10084,
      "##الها": 10085,
      "##راة": 10086,
      "معاكم": 10087,
      "##بيض": 10088,
      "##مم": 10089,
      "للك": 10090,
      "لغة": 10091,
      "##عها": 10092,
      "وأس": 10093,
      "يرحمو": 10094,
      "##ينه": 10095,
      "الحر": 10096,
      "ظل": 10097,
      "الكبير": 10098,
      "##be": 10099,
      "##ss": 10100,
      "لعام": 10101,
      "برنامج": 10102,
      "الادب": 10103,
      "تدخل": 10104,
      "##صور": 10105,
      "##😭😭": 10106,
      "mn": 10107,
      "مصر": 10108,
      "محم": 10109,
      "ضع": 10110,
      "توك": 10111,
      "##فية": 10112,
      "...و": 10113,
      "##لوريا": 10114,
      "##ديا": 10115,
      "ديرو": 10116,
      "##اره": 10117,
      "ab": 10118,
      "##بغي": 10119,
      "ولما": 10120,
      "الفرنسي": 10121,
      "##رمذي": 10122,
      "مور": 10123,
      "##ميم": 10124,
      "##16": 10125,
      "يتع": 10126,
      "المواضيع": 10127,
      "فلسفة": 10128,
      "##احة": 10129,
      "الخلق": 10130,
      "##ولية": 10131,
      "فاهم": 10132,
      "حلو": 10133,
      "السيد": 10134,
      "فكان": 10135,
      "الجمعة": 10136,
      "صحاب": 10137,
      "التعليم": 10138,
      "##حتاج": 10139,
      "rah": 10140,
      "##ائد": 10141,
      "النق": 10142,
      "ويقول": 10143,
      "##ئية": 10144,
      "وكانت": 10145,
      "##kom": 10146,
      "##الثة": 10147,
      "نقل": 10148,
      "كأن": 10149,
      "##فرحو": 10150,
      "***": 10151,
      "بنات": 10152,
      "😍😍": 10153,
      "شويا": 10154,
      "الكتب": 10155,
      "تقولي": 10156,
      "##زو": 10157,
      "حكا": 10158,
      "نسأل": 10159,
      "ادعي": 10160,
      "رؤ": 10161,
      "الأسئلة": 10162,
      "##ــ": 10163,
      "المقال": 10164,
      "والآ": 10165,
      "دليل": 10166,
      "مادة": 10167,
      "الحد": 10168,
      "هذيك": 10169,
      "تبان": 10170,
      "##فاع": 10171,
      "##نون": 10172,
      "بغير": 10173,
      "##بحت": 10174,
      "السلف": 10175,
      "##قوى": 10176,
      "حض": 10177,
      "كريم": 10178,
      "##1)": 10179,
      "والمع": 10180,
      "سؤ": 10181,
      "تزيد": 10182,
      "نرقد": 10183,
      "كتر": 10184,
      "العلمية": 10185,
      "الواقع": 10186,
      "of": 10187,
      "##ذاك": 10188,
      "##صلت": 10189,
      "3-": 10190,
      "تض": 10191,
      "سحر": 10192,
      "بعدها": 10193,
      "شغل": 10194,
      "##حلي": 10195,
      "يعمل": 10196,
      "الخاصة": 10197,
      "##سمى": 10198,
      "الإسلامية": 10199,
      "الموق": 10200,
      "أهم": 10201,
      "وبال": 10202,
      "سج": 10203,
      "يتو": 10204,
      "الوص": 10205,
      "##33": 10206,
      "العين": 10207,
      "ربك": 10208,
      "##هداء": 10209,
      "##fd": 10210,
      "بالف": 10211,
      "للن": 10212,
      "Bac": 10213,
      "بوا": 10214,
      "##اخ": 10215,
      "داود": 10216,
      "روطار": 10217,
      "##end": 10218,
      "##ئكة": 10219,
      "##ali": 10220,
      "##ارع": 10221,
      "اهل": 10222,
      "ترى": 10223,
      "##ريحية": 10224,
      "##000": 10225,
      "##خيرا": 10226,
      "لاي": 10227,
      "##رتش": 10228,
      "##ima": 10229,
      "##'a": 10230,
      "##ليه": 10231,
      "que": 10232,
      "عمرو": 10233,
      "الفق": 10234,
      "غيره": 10235,
      "يقوم": 10236,
      "الدرس": 10237,
      "ماش": 10238,
      "##18": 10239,
      "باسكو": 10240,
      "##قتك": 10241,
      "يدل": 10242,
      "أبدا": 10243,
      "وراني": 10244,
      "الخد": 10245,
      "وسي": 10246,
      "بهذه": 10247,
      "##يرو": 10248,
      "اث": 10249,
      "redx": 10250,
      "ماتت": 10251,
      "الرس": 10252,
      "شا": 10253,
      "##بيك": 10254,
      "للس": 10255,
      "##قوق": 10256,
      "##ائدة": 10257,
      "##17": 10258,
      "السياسي": 10259,
      "نكتب": 10260,
      "كش": 10261,
      "##توش": 10262,
      "أصبح": 10263,
      "برو": 10264,
      "تيم": 10265,
      "بعيد": 10266,
      "بشر": 10267,
      "نحفظ": 10268,
      "##خدم": 10269,
      "##حرار": 10270,
      "فكر": 10271,
      "موت": 10272,
      "توا": 10273,
      "البلاد": 10274,
      "ولاد": 10275,
      "ويب": 10276,
      "ماهي": 10277,
      "واو": 10278,
      "##ess": 10279,
      "نخاف": 10280,
      "ركليطة": 10281,
      "25": 10282,
      "ماب": 10283,
      "للق": 10284,
      "بالص": 10285,
      "##سات": 10286,
      "المحتوى": 10287,
      "##ظي": 10288,
      "##نوات": 10289,
      "##oud": 10290,
      "المسجد": 10291,
      "قعد": 10292,
      "قضية": 10293,
      "وجد": 10294,
      "##and": 10295,
      "##هه": 10296,
      "يعا": 10297,
      "##hom": 10298,
      "اللا": 10299,
      "القران": 10300,
      "تاو": 10301,
      "##خاف": 10302,
      "هما": 10303,
      "##ثي": 10304,
      "كتابه": 10305,
      "##ريك": 10306,
      "الصباح": 10307,
      "فور": 10308,
      "تريد": 10309,
      "##هيد": 10310,
      "##منت": 10311,
      "يحفظكم": 10312,
      "ومسلم": 10313,
      "خرجت": 10314,
      "الاجتماعي": 10315,
      "معل": 10316,
      "##زام": 10317,
      "العيد": 10318,
      "##ille": 10319,
      "شوفي": 10320,
      "##وعة": 10321,
      "خفي": 10322,
      "قراءة": 10323,
      "##جاز": 10324,
      "(ص": 10325,
      "##فن": 10326,
      "##اكت": 10327,
      "ونفرح": 10328,
      "##كثر": 10329,
      "البحر": 10330,
      "vidéo": 10331,
      "##🤣🤣": 10332,
      "جنان": 10333,
      "كره": 10334,
      "##موعة": 10335,
      "##فين": 10336,
      "##ساب": 10337,
      "ترج": 10338,
      "##6)": 10339,
      "هايل": 10340,
      "##راش": 10341,
      "##جع": 10342,
      "##han": 10343,
      "نشري": 10344,
      "الانت": 10345,
      "فب": 10346,
      "##افع": 10347,
      "متى": 10348,
      "الفلسفة": 10349,
      "##ويل": 10350,
      "يأتي": 10351,
      "##oul": 10352,
      "الشرح": 10353,
      "العشرية": 10354,
      "اض": 10355,
      "للد": 10356,
      "##سيقى": 10357,
      "تنس": 10358,
      "الجديد": 10359,
      "##زيل": 10360,
      "العلا": 10361,
      "ليل": 10362,
      "قالك": 10363,
      "تمر": 10364,
      "##ائج": 10365,
      "يبقى": 10366,
      "ديريلنا": 10367,
      "##مبر": 10368,
      "الحاجة": 10369,
      "حلمي": 10370,
      "ثالث": 10371,
      "قا": 10372,
      "طرف": 10373,
      "كملي": 10374,
      "تروح": 10375,
      "##ظمة": 10376,
      "عد": 10377,
      "عف": 10378,
      "درك": 10379,
      "##ais": 10380,
      "نهاية": 10381,
      "##كري": 10382,
      "الباكالوريا": 10383,
      "##لل": 10384,
      "##aj": 10385,
      "كر": 10386,
      "##فاق": 10387,
      "ضرب": 10388,
      "ويش": 10389,
      "عما": 10390,
      "##14": 10391,
      "2021": 10392,
      "أعظم": 10393,
      "**": 10394,
      "عايش": 10395,
      "بكم": 10396,
      "هايلة": 10397,
      "زمان": 10398,
      "كام": 10399,
      "الطيبة": 10400,
      "أريد": 10401,
      "##صال": 10402,
      "مجال": 10403,
      "الفرق": 10404,
      "##غرام": 10405,
      "##نا،": 10406,
      "المرة": 10407,
      "الآخرة": 10408,
      "أل": 10409,
      "الاحت": 10410,
      "معاهم": 10411,
      "##ين.": 10412,
      "ورب": 10413,
      "علما": 10414,
      "##وام": 10415,
      "##ستي": 10416,
      "اليهود": 10417,
      "فار": 10418,
      "##وايج": 10419,
      "قدام": 10420,
      "مشكور": 10421,
      "##99999999": 10422,
      "فاع": 10423,
      "##2)": 10424,
      "مكنية": 10425,
      "##ظام": 10426,
      "النها": 10427,
      "##وداء": 10428,
      "جال": 10429,
      "الهم": 10430,
      "قو": 10431,
      "وها": 10432,
      "##أم": 10433,
      "الشيء": 10434,
      "متابع": 10435,
      "البر": 10436,
      "للو": 10437,
      "نظر": 10438,
      "مريم": 10439,
      "الات": 10440,
      "القبر": 10441,
      "un": 10442,
      "##ا،": 10443,
      "الصوت": 10444,
      "يرد": 10445,
      "المعنى": 10446,
      "##شكرا": 10447,
      "بالق": 10448,
      "إنك": 10449,
      "يخدم": 10450,
      "ونا": 10451,
      "بعث": 10452,
      "لاك": 10453,
      "##طع": 10454,
      "نفسها": 10455,
      "الأنبياء": 10456,
      "مريض": 10457,
      "قيل": 10458,
      "الفردوس": 10459,
      "نحوس": 10460,
      "السبب": 10461,
      "Ana": 10462,
      "##فرق": 10463,
      "الحمدلله": 10464,
      "يوتيوبر": 10465,
      "##كش": 10466,
      "##mi": 10467,
      "إنسان": 10468,
      "##فاد": 10469,
      "##ألة": 10470,
      "##مري": 10471,
      "##a9": 10472,
      "عنهما": 10473,
      "إليها": 10474,
      "kha": 10475,
      "##شيء": 10476,
      "خارج": 10477,
      "تعا": 10478,
      "ملخص": 10479,
      "عيس": 10480,
      "عربي": 10481,
      "##5)": 10482,
      "ناق": 10483,
      "##كرك": 10484,
      "اسطورة": 10485,
      "السما": 10486,
      "3li": 10487,
      "##خله": 10488,
      "(4": 10489,
      "ثبت": 10490,
      "الامر": 10491,
      "تعت": 10492,
      "يض": 10493,
      "##ابي": 10494,
      "##اهم": 10495,
      "##انيا": 10496,
      "##ستا": 10497,
      "##ly": 10498,
      "##ظل": 10499,
      "ويوفق": 10500,
      "اجمل": 10501,
      ",,": 10502,
      "##راح": 10503,
      "؟!": 10504,
      "##بدو": 10505,
      "قيمة": 10506,
      "منيش": 10507,
      "con": 10508,
      "أر": 10509,
      "هداك": 10510,
      "عيش": 10511,
      "الأص": 10512,
      "##ter": 10513,
      "##حاق": 10514,
      "تقرا": 10515,
      "سهل": 10516,
      "##oun": 10517,
      "قرا": 10518,
      "عيني": 10519,
      "##ورو": 10520,
      "الصالحة": 10521,
      "##خرا": 10522,
      "اللق": 10523,
      "نحو": 10524,
      "أخبر": 10525,
      "حلقة": 10526,
      "ينا": 10527,
      "##حياء": 10528,
      "تا": 10529,
      "##لبس": 10530,
      "نقولو": 10531,
      "ميلود": 10532,
      "حسيت": 10533,
      "best": 10534,
      "##رر": 10535,
      "الشرك": 10536,
      "إنشاء": 10537,
      "صاحبي": 10538,
      "nta": 10539,
      "##3)": 10540,
      "قناتك": 10541,
      "ماكان": 10542,
      "##\"،": 10543,
      "وفقنا": 10544,
      "لايف": 10545,
      "تستاهل": 10546,
      "##طاقة": 10547,
      "عضو": 10548,
      "##ديت": 10549,
      "الاجابة": 10550,
      "##//": 10551,
      "##هاتك": 10552,
      "قليل": 10553,
      "##تباع": 10554,
      "##المو": 10555,
      "##صبح": 10556,
      "##vo": 10557,
      "##يران": 10558,
      "عرض": 10559,
      "اعرف": 10560,
      "##ger": 10561,
      "##حصل": 10562,
      "نجي": 10563,
      "##ثرة": 10564,
      "أنس": 10565,
      "خلف": 10566,
      "والط": 10567,
      "كفاه": 10568,
      "يذكر": 10569,
      "يقت": 10570,
      "الكلمات": 10571,
      "الحكايات": 10572,
      "##طينة": 10573,
      "البشر": 10574,
      "راحت": 10575,
      "النوع": 10576,
      "أهله": 10577,
      "يفتح": 10578,
      "##قام": 10579,
      "خمس": 10580,
      "عص": 10581,
      "##على": 10582,
      "##لاث": 10583,
      "tr": 10584,
      "سيدي": 10585,
      "يكتب": 10586,
      "يديرو": 10587,
      "اسمها": 10588,
      "المواد": 10589,
      "عرفت": 10590,
      "وقيل": 10591,
      "##زلت": 10592,
      "##هم.": 10593,
      "دولة": 10594,
      "رواية": 10595,
      "حفظك": 10596,
      "علماء": 10597,
      "بناء": 10598,
      "معرفة": 10599,
      "غلط": 10600,
      "الكلمة": 10601,
      "##طفى": 10602,
      "##عدك": 10603,
      "خس": 10604,
      "تعيشو": 10605,
      "البط": 10606,
      "مستوى": 10607,
      "عيسى": 10608,
      "مراجعة": 10609,
      "العباد": 10610,
      "صحيحة": 10611,
      "نقولك": 10612,
      "المتو": 10613,
      "وارحم": 10614,
      "##كتور": 10615,
      "تقدري": 10616,
      "حكي": 10617,
      "آية": 10618,
      "والوا": 10619,
      "والسلوان": 10620,
      "##ائب": 10621,
      "باسم": 10622,
      "بغيت": 10623,
      "تطبي": 10624,
      "المقد": 10625,
      "يهديك": 10626,
      "رسالة": 10627,
      "عثمان": 10628,
      "تؤ": 10629,
      "تسما": 10630,
      "حلم": 10631,
      "عود": 10632,
      "اسمي": 10633,
      "##زاء": 10634,
      "##ناها": 10635,
      "مصطلحات": 10636,
      "نحس": 10637,
      "وحتى": 10638,
      "ساهل": 10639,
      "العلي": 10640,
      "قصصك": 10641,
      "))": 10642,
      "##ياطين": 10643,
      "يحط": 10644,
[...]
