{
  "version": "1.0",
  "truncation": null,
  "padding": null,
  "added_tokens": [
    {
      "id": 0,
      "content": "<pad>",
      "single_word": false,
      "lstrip": false,
      "rstrip": false,
      "normalized": false,
      "special": true
    },
    {
      "id": 2,
      "content": "<s>",
      "single_word": false,
      "lstrip": false,
      "rstrip": false,
      "normalized": false,
      "special": true
    },
    {
      "id": 3,
      "content": "</s>",
      "single_word": false,
      "lstrip": false,
      "rstrip": false,
      "normalized": false,
      "special": true
    }
  ],
  "normalizer": {
    "type": "Sequence",
    "normalizers": [
      {
        "type": "Strip",
        "strip_left": false,
        "strip_right": true
      },
      {
        "type": "Replace",
        "pattern": {
          "Regex": " {2,}"
        },
        "content": "▁"
      }
    ]
  },
  "pre_tokenizer": {
    "type": "Metaspace",
    "replacement": "▁",
    "prepend_scheme": "always",
    "split": true
  },
  "post_processor": null,
  "decoder": {
    "type": "Sequence",
    "decoders": [
      {
        "type": "Metaspace",
        "replacement": "▁",
        "prepend_scheme": "always",
        "split": true
      },
      {
        "type": "ByteFallback"
      },
      {
        "type": "Fuse"
      }
    ]
  },
  "model": {
    "type": "Unigram",
    "unk_id": 1,
    "vocab": [
      [
        "<pad>",
        0.0
      ],
      [
        "<unk>",
        0.0
      ],
      [
        "<s>",
        0.0
      ],
      [
        "</s>",
        0.0
      ],
      [
        "<0x00>",
        0.0
      ],
      [
        "<0x01>",
        0.0
      ],
      [
        "<0x02>",
        0.0
      ],
      [
        "<0x03>",
        0.0
      ],
      [
        "<0x04>",
        0.0
      ],
      [
        "<0x05>",
        0.0
      ],
      [
        "<0x06>",
        0.0
      ],
      [
        "<0x07>",
        0.0
      ],
      [
        "<0x08>",
        0.0
      ],
      [
        "<0x09>",
        0.0
      ],
      [
        "<0x0A>",
        0.0
      ],
      [
        "<0x0B>",
        0.0
      ],
      [
        "<0x0C>",
        0.0
      ],
      [
        "<0x0D>",
        0.0
      ],
      [
        "<0x0E>",
        0.0
      ],
      [
        "<0x0F>",
        0.0
      ],
      [
        "<0x10>",
        0.0
      ],
      [
        "<0x11>",
        0.0
      ],
      [
        "<0x12>",
        0.0
      ],
      [
        "<0x13>",
        0.0
      ],
      [
        "<0x14>",
        0.0
      ],
      [
        "<0x15>",
        0.0
      ],
      [
        "<0x16>",
        0.0
      ],
      [
        "<0x17>",
        0.0
      ],
      [
        "<0x18>",
        0.0
      ],
      [
        "<0x19>",
        0.0
      ],
      [
        "<0x1A>",
        0.0
      ],
      [
        "<0x1B>",
        0.0
      ],
      [
        "<0x1C>",
        0.0
      ],
      [
        "<0x1D>",
        0.0
      ],
      [
        "<0x1E>",
        0.0
      ],
      [
        "<0x1F>",
        0.0
      ],
      [
        "<0x20>",
        0.0
      ],
      [
        "<0x21>",
        0.0
      ],
      [
        "<0x22>",
        0.0
      ],
      [
        "<0x23>",
        0.0
      ],
      [
        "<0x24>",
        0.0
      ],
      [
        "<0x25>",
        0.0
      ],
      [
        "<0x26>",
        0.0
      ],
      [
        "<0x27>",
        0.0
      ],
      [
        "<0x28>",
        0.0
      ],
      [
        "<0x29>",
        0.0
      ],
      [
        "<0x2A>",
        0.0
      ],
      [
        "<0x2B>",
        0.0
      ],
      [
        "<0x2C>",
        0.0
      ],
      [
        "<0x2D>",
        0.0
      ],
      [
        "<0x2E>",
        0.0
      ],
      [
        "<0x2F>",
        0.0
      ],
      [
        "<0x30>",
        0.0
      ],
      [
        "<0x31>",
        0.0
      ],
      [
        "<0x32>",
        0.0
      ],
      [
        "<0x33>",
        0.0
      ],
      [
        "<0x34>",
        0.0
      ],
      [
        "<0x35>",
        0.0
      ],
      [
        "<0x36>",
        0.0
      ],
      [
        "<0x37>",
        0.0
      ],
      [
        "<0x38>",
        0.0
      ],
      [
        "<0x39>",
        0.0
      ],
      [
        "<0x3A>",
        0.0
      ],
      [
        "<0x3B>",
        0.0
      ],
      [
        "<0x3C>",
        0.0
      ],
      [
        "<0x3D>",
        0.0
      ],
      [
        "<0x3E>",
        0.0
      ],
      [
        "<0x3F>",
        0.0
      ],
      [
        "<0x40>",
        0.0
      ],
      [
        "<0x41>",
        0.0
      ],
      [
        "<0x42>",
        0.0
      ],
      [
        "<0x43>",
        0.0
      ],
      [
        "<0x44>",
        0.0
      ],
      [
        "<0x45>",
        0.0
      ],
      [
        "<0x46>",
        0.0
      ],
      [
        "<0x47>",
        0.0
      ],
      [
        "<0x48>",
        0.0
      ],
      [
        "<0x49>",
        0.0
      ],
      [
        "<0x4A>",
        0.0
      ],
      [
        "<0x4B>",
        0.0
      ],
      [
        "<0x4C>",
        0.0
      ],
      [
        "<0x4D>",
        0.0
      ],
      [
        "<0x4E>",
        0.0
      ],
      [
        "<0x4F>",
        0.0
      ],
      [
        "<0x50>",
        0.0
      ],
      [
        "<0x51>",
        0.0
      ],
      [
        "<0x52>",
        0.0
      ],
      [
        "<0x53>",
        0.0
      ],
      [
        "<0x54>",
        0.0
      ],
      [
        "<0x55>",
        0.0
      ],
      [
        "<0x56>",
        0.0
      ],
      [
        "<0x57>",
        0.0
      ],
      [
        "<0x58>",
        0.0
      ],
      [
        "<0x59>",
        0.0
      ],
      [
        "<0x5A>",
        0.0
      ],
      [
        "<0x5B>",
        0.0
      ],
      [
        "<0x5C>",
        0.0
      ],
      [
        "<0x5D>",
        0.0
      ],
      [
        "<0x5E>",
        0.0
      ],
      [
        "<0x5F>",
        0.0
      ],
      [
        "<0x60>",
        0.0
      ],
      [
        "<0x61>",
        0.0
      ],
      [
        "<0x62>",
        0.0
      ],
      [
        "<0x63>",
        0.0
      ],
      [
        "<0x64>",
        0.0
      ],
      [
        "<0x65>",
        0.0
      ],
      [
        "<0x66>",
        0.0
      ],
      [
        "<0x67>",
        0.0
      ],
      [
        "<0x68>",
        0.0
      ],
      [
        "<0x69>",
        0.0
      ],
      [
        "<0x6A>",
        0.0
      ],
      [
        "<0x6B>",
        0.0
      ],
      [
        "<0x6C>",
        0.0
      ],
      [
        "<0x6D>",
        0.0
      ],
      [
        "<0x6E>",
        0.0
      ],
      [
        "<0x6F>",
        0.0
      ],
      [
        "<0x70>",
        0.0
      ],
      [
        "<0x71>",
        0.0
      ],
      [
        "<0x72>",
        0.0
      ],
      [
        "<0x73>",
        0.0
      ],
      [
        "<0x74>",
        0.0
      ],
      [
        "<0x75>",
        0.0
      ],
      [
        "<0x76>",
        0.0
      ],
      [
        "<0x77>",
        0.0
      ],
      [
        "<0x78>",
        0.0
      ],
      [
        "<0x79>",
        0.0
      ],
      [
        "<0x7A>",
        0.0
      ],
      [
        "<0x7B>",
        0.0
      ],
      [
        "<0x7C>",
        0.0
      ],
      [
        "<0x7D>",
        0.0
      ],
      [
        "<0x7E>",
        0.0
      ],
      [
        "<0x7F>",
        0.0
      ],
      [
        "<0x80>",
        0.0
      ],
      [
        "<0x81>",
        0.0
      ],
      [
        "<0x82>",
        0.0
      ],
      [
        "<0x83>",
        0.0
      ],
      [
        "<0x84>",
        0.0
      ],
      [
        "<0x85>",
        0.0
      ],
      [
        "<0x86>",
        0.0
      ],
      [
        "<0x87>",
        0.0
      ],
      [
        "<0x88>",
        0.0
      ],
      [
        "<0x89>",
        0.0
      ],
      [
        "<0x8A>",
        0.0
      ],
      [
        "<0x8B>",
        0.0
      ],
      [
        "<0x8C>",
        0.0
      ],
      [
        "<0x8D>",
        0.0
      ],
      [
        "<0x8E>",
        0.0
      ],
      [
        "<0x8F>",
        0.0
      ],
      [
        "<0x90>",
        0.0
      ],
      [
        "<0x91>",
        0.0
      ],
      [
        "<0x92>",
        0.0
      ],
      [
        "<0x93>",
        0.0
      ],
      [
        "<0x94>",
        0.0
      ],
      [
        "<0x95>",
        0.0
      ],
      [
        "<0x96>",
        0.0
      ],
      [
        "<0x97>",
        0.0
      ],
      [
        "<0x98>",
        0.0
      ],
      [
        "<0x99>",
        0.0
      ],
      [
        "<0x9A>",
        0.0
      ],
      [
        "<0x9B>",
        0.0
      ],
      [
        "<0x9C>",
        0.0
      ],
      [
        "<0x9D>",
        0.0
      ],
      [
        "<0x9E>",
        0.0
      ],
      [
        "<0x9F>",
        0.0
      ],
      [
        "<0xA0>",
        0.0
      ],
      [
        "<0xA1>",
        0.0
      ],
      [
        "<0xA2>",
        0.0
      ],
      [
        "<0xA3>",
        0.0
      ],
      [
        "<0xA4>",
        0.0
      ],
      [
        "<0xA5>",
        0.0
      ],
      [
        "<0xA6>",
        0.0
      ],
      [
        "<0xA7>",
        0.0
      ],
      [
        "<0xA8>",
        0.0
      ],
      [
        "<0xA9>",
        0.0
      ],
      [
        "<0xAA>",
        0.0
      ],
      [
        "<0xAB>",
        0.0
      ],
      [
        "<0xAC>",
        0.0
      ],
      [
        "<0xAD>",
        0.0
      ],
      [
        "<0xAE>",
        0.0
      ],
      [
        "<0xAF>",
        0.0
      ],
      [
        "<0xB0>",
        0.0
      ],
      [
        "<0xB1>",
        0.0
      ],
      [
        "<0xB2>",
        0.0
      ],
      [
        "<0xB3>",
        0.0
      ],
      [
        "<0xB4>",
        0.0
      ],
      [
        "<0xB5>",
        0.0
      ],
      [
        "<0xB6>",
        0.0
      ],
      [
        "<0xB7>",
        0.0
      ],
      [
        "<0xB8>",
        0.0
      ],
      [
        "<0xB9>",
        0.0
      ],
      [
        "<0xBA>",
        0.0
      ],
      [
        "<0xBB>",
        0.0
      ],
      [
        "<0xBC>",
        0.0
      ],
      [
        "<0xBD>",
        0.0
      ],
      [
        "<0xBE>",
        0.0
      ],
      [
        "<0xBF>",
        0.0
      ],
      [
        "<0xC0>",
        0.0
      ],
      [
        "<0xC1>",
        0.0
      ],
      [
        "<0xC2>",
        0.0
      ],
      [
        "<0xC3>",
        0.0
      ],
      [
        "<0xC4>",
        0.0
      ],
      [
        "<0xC5>",
        0.0
      ],
      [
        "<0xC6>",
        0.0
      ],
      [
        "<0xC7>",
        0.0
      ],
      [
        "<0xC8>",
        0.0
      ],
      [
        "<0xC9>",
        0.0
      ],
      [
        "<0xCA>",
        0.0
      ],
      [
        "<0xCB>",
        0.0
      ],
      [
        "<0xCC>",
        0.0
      ],
      [
        "<0xCD>",
        0.0
      ],
      [
        "<0xCE>",
        0.0
      ],
      [
        "<0xCF>",
        0.0
      ],
      [
        "<0xD0>",
        0.0
      ],
      [
        "<0xD1>",
        0.0
      ],
      [
        "<0xD2>",
        0.0
      ],
      [
        "<0xD3>",
        0.0
      ],
      [
        "<0xD4>",
        0.0
      ],
      [
        "<0xD5>",
        0.0
      ],
      [
        "<0xD6>",
        0.0
      ],
      [
        "<0xD7>",
        0.0
      ],
      [
        "<0xD8>",
        0.0
      ],
      [
        "<0xD9>",
        0.0
      ],
      [
        "<0xDA>",
        0.0
      ],
      [
        "<0xDB>",
        0.0
      ],
      [
        "<0xDC>",
        0.0
      ],
      [
        "<0xDD>",
        0.0
      ],
      [
        "<0xDE>",
        0.0
      ],
      [
        "<0xDF>",
        0.0
      ],
      [
        "<0xE0>",
        0.0
      ],
      [
        "<0xE1>",
        0.0
      ],
      [
        "<0xE2>",
        0.0
      ],
      [
        "<0xE3>",
        0.0
      ],
      [
        "<0xE4>",
        0.0
      ],
      [
        "<0xE5>",
        0.0
      ],
      [
        "<0xE6>",
        0.0
      ],
      [
        "<0xE7>",
        0.0
      ],
      [
        "<0xE8>",
        0.0
      ],
      [
        "<0xE9>",
        0.0
      ],
      [
        "<0xEA>",
        0.0
      ],
      [
        "<0xEB>",
        0.0
      ],
      [
        "<0xEC>",
        0.0
      ],
      [
        "<0xED>",
        0.0
      ],
      [
        "<0xEE>",
        0.0
      ],
      [
        "<0xEF>",
        0.0
      ],
      [
        "<0xF0>",
        0.0
      ],
      [
        "<0xF1>",
        0.0
      ],
      [
        "<0xF2>",
        0.0
      ],
      [
        "<0xF3>",
        0.0
      ],
      [
        "<0xF4>",
        0.0
      ],
      [
        "<0xF5>",
        0.0
      ],
      [
        "<0xF6>",
        0.0
      ],
      [
        "<0xF7>",
        0.0
      ],
      [
        "<0xF8>",
        0.0
      ],
      [
        "<0xF9>",
        0.0
      ],
      [
        "<0xFA>",
        0.0
      ],
      [
        "<0xFB>",
        0.0
      ],
      [
        "<0xFC>",
        0.0
      ],
      [
        "<0xFD>",
        0.0
      ],
      [
        "<0xFE>",
        0.0
      ],
      [
        "<0xFF>",
        0.0
      ],
      [
        "▁و",
        -3.8489279747009277
      ],
      [
        "▁",
        -4.139932632446289
      ],
      [
        "ة",
        -4.392738342285156
      ],
      [
        "▁في",
        -4.42937707901001
      ],
      [
        "ي",
        -4.438398361206055
      ],
      [
        "▁الله",
        -4.490607738494873
      ],
      [
        "▁من",
        -4.502340793609619
      ],
      [
        "ا",
        -4.517765045166016
      ],
      [
        "ه",
        -4.647308349609375
      ],
      [
        "و",
        -4.672485828399658
      ],
      [
        "ك",
        -4.7279815673828125
      ],
      [
        "ت",
        -5.047677993774414
      ],
      [
        "▁على",
        -5.140318393707275
      ],
      [
        "ها",
        -5.170637130737305
      ],
      [
        "▁ال",
        -5.241487979888916
      ],
      [
        "نا",
        -5.337789535522461
      ],
      [
        "▁ما",
        -5.413950443267822
      ],
      [
        "▁ربي",
        -5.452909469604492
      ],
      [
        ".",
        -5.460148811340332
      ],
      [
        "▁لي",
        -5.513518333435059
      ],
      [
        "▁ت",
        -5.539384841918945
      ],
      [
        "]",
        -5.547540187835693
      ],
      [
        "▁[",
        -5.5545430183410645
      ],
      [
        "▁ي",
        -5.565767765045166
      ],
      [
        "ش",
        -5.579178810119629
      ],
      [
        "▁لا",
        -5.585697650909424
      ],
      [
        "ين",
        -5.58684778213501
      ],
      [
        "MENTION",
        -5.655954360961914
      ],
      [
        "،",
        -5.6756486892700195
      ],
      [
        "▁م",
        -5.718265056610107
      ],
      [
        "▁انا",
        -5.718929767608643
      ],
      [
        "ات",
        -5.723667621612549
      ],
      [
        "▁ب",
        -5.726963520050049
      ],
      [
        "▁ان",
        -5.750836372375488
      ],
      [
        "▁ا",
        -5.753042221069336
      ],
      [
        "ية",
        -5.777162075042725
      ],
      [
        "هم",
        -5.781215667724609
      ],
      [
        "م",
        -5.840183258056641
      ],
      [
        "▁ل",
        -5.865886688232422
      ],
      [
        "▁يا",
        -5.885252952575684
      ],
      [
        "▁...",
        -5.914651393890381
      ],
      [
        "▁ن",
        -5.923032760620117
      ],
      [
        "▁كل",
        -5.970394134521484
      ],
      [
        "وا",
        -5.971734523773193
      ],
      [
        "▁،",
        -6.037494659423828
      ],
      [
        "▁الم",
        -6.051724433898926
      ],
      [
        "ني",
        -6.061513900756836
      ],
      [
        "...",
        -6.068727016448975
      ],
      [
        "▁أ",
        -6.137397766113281
      ],
      [
        "▁وال",
        -6.172736167907715
      ],
      [
        "▁-",
        -6.21901798248291
      ],
      [
        "▁ولا",
        -6.2236456871032715
      ],
      [
        "▁أن",
        -6.230717182159424
      ],
      [
        "▁هذا",
        -6.243768215179443
      ],
      [
        "▁استاذ",
        -6.246363639831543
      ],
      [
        "▁.",
        -6.250694274902344
      ],
      [
        "ال",
        -6.285696506500244
      ],
      [
        "▁مع",
        -6.287944793701172
      ],
      [
        "3",
        -6.337734222412109
      ],
      [
        "▁ف",
        -6.3527116775512695
      ],
      [
        "▁شاء",
        -6.386409759521484
      ],
      [
        "▁لل",
        -6.390981197357178
      ],
      [
        "▁بال",
        -6.399595737457275
      ],
      [
        "ون",
        -6.408644199371338
      ],
      [
        "كم",
        -6.426669120788574
      ],
      [
        "ن",
        -6.427978038787842
      ],
      [
        "▁غير",
        -6.442755222320557
      ],
      [
        "▁كي",
        -6.464324474334717
      ],
      [
        "▁والله",
        -6.476921558380127
      ],
      [
        "▁❤",
        -6.490480422973633
      ],
      [
        "▁شكرا",
        -6.503414630889893
      ],
      [
        "▁عن",
        -6.514602184295654
      ],
      [
        "▁هو",
        -6.520191192626953
      ],
      [
        "▁اللهم",
        -6.520813941955566
      ],
      [
        ":",
        -6.535754680633545
      ],
      [
        "ى",
        -6.543610095977783
      ],
      [
        "▁الا",
        -6.5614447593688965
      ],
      [
        "▁تاع",
        -6.59885835647583
      ],
      [
        "▁:",
        -6.599166393280029
      ],
      [
        "s",
        -6.6302289962768555
      ],
      [
        "▁عليه",
        -6.656524658203125
      ],
      [
        "▁هه",
        -6.678455352783203
      ],
      [
        "▁(",
        -6.683351039886475
      ],
      [
        "لي",
        -6.687923431396484
      ],
      [
        "▁يارب",
        -6.6898064613342285
      ],
      [
        "▁عليكم",
        -6.698141098022461
      ],
      [
        "▁السلام",
        -6.709587574005127
      ],
      [
        "▁كان",
        -6.719181060791016
      ],
      [
        "▁بزاف",
        -6.734742641448975
      ],
      [
        "تي",
        -6.7633538246154785
      ],
      [
        "▁😂😂",
        -6.768901824951172
      ],
      [
        "▁فيك",
        -6.769789218902588
      ],
      [
        "؟",
        -6.771273136138916
      ],
      [
        "ان",
        -6.782536029815674
      ],
      [
        "▁بصح",
        -6.784006118774414
      ],
      [
        "▁❤❤",
        -6.809132099151611
      ],
      [
        "▁؟",
        -6.814399719238281
      ],
      [
        "▁لم",
        -6.818213939666748
      ],
      [
        "▁حتى",
        -6.820246696472168
      ],
      [
        "▁او",
        -6.820930004119873
      ],
      [
        "▁راني",
        -6.8384222984313965
      ],
      [
        "ب",
        -6.844120025634766
      ],
      [
        "▁قال",
        -6.847156524658203
      ],
      [
        "▁لك",
        -6.847417831420898
      ],
      [
        "اء",
        -6.859067916870117
      ],
      [
        "❤",
        -6.859158039093018
      ],
      [
        "▁بارك",
        -6.869702339172363
      ],
      [
        "▁3",
        -6.875664234161377
      ],
      [
        "ف",
        -6.881593227386475
      ],
      [
        "▁تع",
        -6.889053821563721
      ],
      [
        "ل",
        -6.891647815704346
      ],
      [
        "ر",
        -6.896359443664551
      ],
      [
        "▁هي",
        -6.8977437019348145
      ],
      [
        ")",
        -6.9060869216918945
      ],
      [
        "ما",
        -6.935012340545654
      ],
      [
        "▁واحد",
        -6.953335285186768
      ],
      [
        "▁كامل",
        -6.957632064819336
      ],
      [
        "▁لله",
        -6.982614994049072
      ],
      [
        "▁فيديو",
        -6.991711616516113
      ],
      [
        "▁كنت",
        -6.997781753540039
      ],
      [
        "لك",
        -7.004623889923096
      ],
      [
        "a",
        -7.01639461517334
      ],
      [
        "▁وي",
        -7.021039962768555
      ],
      [
        "▁مت",
        -7.029613018035889
      ],
      [
        "▁فال",
        -7.030070781707764
      ],
      [
        "▁إن",
        -7.038067817687988
      ],
      [
        "▁\"",
        -7.044149875640869
      ],
      [
        "د",
        -7.0474700927734375
      ],
      [
        "▁خير",
        -7.050515651702881
      ],
      [
        "t",
        -7.059110641479492
      ],
      [
        "▁واش",
        -7.066010475158691
      ],
      [
        "▁هل",
        -7.084298610687256
      ],
      [
        "9",
        -7.092915058135986
      ],
      [
        "▁أو",
        -7.095191478729248
      ],
      [
        "▁عليك",
        -7.09733772277832
      ],
      [
        "▁باك",
        -7.104830265045166
      ],
      [
        "▁😂",
        -7.114161968231201
      ],
      [
        "▁بعد",
        -7.123695373535156
      ],
      [
        "▁الباك",
        -7.132464408874512
      ],
      [
        "7",
        -7.150351047515869
      ],
      [
        "ع",
        -7.162818431854248
      ],
      [
        "تك",
        -7.166061878204346
      ],
      [
        "ور",
        -7.190093040466309
      ],
      [
        "e",
        -7.197269916534424
      ],
      [
        "▁لكن",
        -7.202812671661377
      ],
      [
        "▁فيها",
        -7.206470966339111
      ],
      [
        "▁خويا",
        -7.216591835021973
      ],
      [
        "▁وت",
        -7.220836639404297
      ],
      [
        "▁مي",
        -7.222117900848389
      ],
      [
        "ج",
        -7.22299861907959
      ],
      [
        "k",
        -7.227153301239014
      ],
      [
        "وش",
        -7.229029178619385
      ],
      [
        "▁راك",
        -7.231853008270264
      ],
      [
        "س",
        -7.234790802001953
      ],
      [
        "يا",
        -7.238874435424805
      ],
      [
        "▁الت",
        -7.254444122314453
      ],
      [
        "ته",
        -7.255624294281006
      ],
      [
        "▁صح",
        -7.264162063598633
      ],
      [
        "y",
        -7.264623165130615
      ],
      [
        "▁هذه",
        -7.277157783508301
      ],
      [
        "▁يحفظك",
        -7.278913497924805
      ],
      [
        "▁ون",
        -7.284268856048584
      ],
      [
        "▁انت",
        -7.2858381271362305
      ],
      [
        "▁فيه",
        -7.2890543937683105
      ],
      [
        "▁له",
        -7.2951765060424805
      ],
      [
        "▁أنا",
        -7.307492256164551
      ],
      [
        "❤❤",
        -7.311472415924072
      ],
      [
        "o",
        -7.312948226928711
      ],
      [
        "▁هنا",
        -7.313344955444336
      ],
      [
        "ام",
        -7.319916725158691
      ],
      [
        "▁قبل",
        -7.3331618309021
      ],
      [
        "▁إ",
        -7.33427095413208
      ],
      [
        "▁وين",
        -7.340821266174316
      ],
      [
        "▁ام",
        -7.345325946807861
      ],
      [
        "▁برك",
        -7.349857330322266
      ],
      [
        "▁إلى",
        -7.357406139373779
      ],
      [
        "▁يوم",
        -7.368436813354492
      ],
      [
        "d",
        -7.373103618621826
      ],
      [
        "▁رب",
        -7.37489128112793
      ],
      [
        "▁الف",
        -7.376547813415527
      ],
      [
        "i",
        -7.3851094245910645
      ],
      [
        "▁عندي",
        -7.38582181930542
      ],
      [
        "▁باش",
        -7.385960578918457
      ],
      [
        "😂",
        -7.388912677764893
      ],
      [
        "▁كيما",
        -7.390629768371582
      ],
      [
        "▁l",
        -7.391542911529541
      ],
      [
        "ز",
        -7.392824172973633
      ],
      [
        "▁بين",
        -7.393192768096924
      ],
      [
        "▁لولا",
        -7.393421173095703
      ],
      [
        "m",
        -7.394915580749512
      ],
      [
        "▁التي",
        -7.40075159072876
      ],
      [
        "ص",
        -7.403088092803955
      ],
      [
        "▁الأ",
        -7.408886909484863
      ],
      [
        "▁بلي",
        -7.410510063171387
      ],
      [
        "r",
        -7.413150310516357
      ],
      [
        "لا",
        -7.417415618896484
      ],
      [
        "تها",
        -7.423480987548828
      ],
      [
        "▁يكون",
        -7.4352521896362305
      ],
      [
        "h",
        -7.439346790313721
      ],
      [
        "▁كاين",
        -7.439531326293945
      ],
      [
        "في",
        -7.441102027893066
      ],
      [
        "n",
        -7.441230773925781
      ],
      [
        "▁w",
        -7.444242477416992
      ],
      [
        "'",
        -7.451757431030273
      ],
      [
        "من",
        -7.453996181488037
      ],
      [
        "▁عند",
        -7.466402053833008
      ],
      [
        "خ",
        -7.466827392578125
      ],
      [
        "▁وسلم",
        -7.470808982849121
      ],
      [
        "لو",
        -7.472982406616211
      ],
      [
        "▁اي",
        -7.4754486083984375
      ],
      [
        "😂😂",
        -7.491088390350342
      ],
      [
        "▁بن",
        -7.493952751159668
      ],
      [
        "▁وم",
        -7.502405643463135
      ],
      [
        "▁الذي",
        -7.5055155754089355
      ],
      [
        "أ",
        -7.519649982452393
      ],
      [
        "▁شكون",
        -7.52061653137207
      ],
      [
        "ح",
        -7.520987510681152
      ],
      [
        "▁بل",
        -7.527863502502441
      ],
      [
        "▁ادعولي",
        -7.5300984382629395
      ],
      [
        "دي",
        -7.530148029327393
      ],
      [
        "b",
        -7.532583713531494
      ],
      [
        "▁؟؟",
        -7.547633171081543
      ],
      [
        ",",
        -7.550390720367432
      ],
      [
        "▁الفيديو",
        -7.5587239265441895
      ],
      [
        "2",
        -7.560678958892822
      ],
      [
        "▁الجزائر",
        -7.562871932983398
      ],
      [
        "▁ع",
        -7.566227436065674
      ],
      [
        "ط",
        -7.567968845367432
      ],
      [
        "▁راح",
        -7.56851053237915
      ],
      [
        "▁اخي",
        -7.572933197021484
      ],
      [
        "▁كيف",
        -7.575170993804932
      ],
      [
        "w",
        -7.575953960418701
      ],
      [
        "▁راه",
        -7.579265117645264
      ],
      [
        "▁كانت",
        -7.581066131591797
      ],
      [
        "يت",
        -7.582215785980225
      ],
      [
        "تش",
        -7.587177753448486
      ],
      [
        "\"",
        -7.595015048980713
      ],
      [
        "؟؟",
        -7.595433712005615
      ],
      [
        "▁دير",
        -7.600616455078125
      ],
      [
        "لنا",
        -7.602615833282471
      ],
      [
        "▁الى",
        -7.607208728790283
      ],
      [
        "▁2",
        -7.607512950897217
      ],
      [
        "▁😢",
        -7.613073348999023
      ],
      [
        "l",
        -7.6135101318359375
      ],
      [
        "▁الناس",
        -7.615128040313721
      ],
      [
        "▁خيرا",
        -7.617987632751465
      ],
      [
        "▁m",
        -7.6187872886657715
      ],
      [
        "-",
        -7.623745918273926
      ],
      [
        "▁صلى",
        -7.625180721282959
      ],
      [
        "5",
        -7.62802267074585
      ],
      [
        "▁كما",
        -7.628432273864746
      ],
      [
        "▁ماشي",
        -7.6423821449279785
      ],
      [
        "▁مش",
        -7.646803379058838
      ],
      [
        "f",
        -7.652263641357422
      ],
      [
        "▁محمد",
        -7.656686782836914
      ],
      [
        "1",
        -7.659649848937988
      ],
      [
        "la",
        -7.662849426269531
      ],
      [
        "▁الع",
        -7.664679527282715
      ],
      [
        "▁اختي",
        -7.6697587966918945
      ],
      [
        "ئ",
        -7.671292304992676
      ],
      [
        "▁أستاذ",
        -7.675909519195557
      ],
      [
        "▁قصة",
        -7.682896614074707
      ],
      [
        "▁يت",
        -7.682923793792725
      ],
      [
        "▁تكون",
        -7.683454513549805
      ],
      [
        "اب",
        -7.685792446136475
      ],
      [
        "▁به",
        -7.688875198364258
      ],
      [
        "▁وأ",
        -7.6900715827941895
      ],
      [
        "يل",
        -7.690215587615967
      ],
      [
        "▁س",
        -7.690318584442139
      ],
      [
        "▁t",
        -7.6909966468811035
      ],
      [
        "▁اذا",
        -7.702643394470215
      ],
      [
        "▁وش",
        -7.7048726081848145
      ],
      [
        "▁يعني",
        -7.711289405822754
      ],
      [
        "c",
        -7.711562633514404
      ],
      [
        "▁فضلك",
        -7.719935417175293
      ],
      [
        "ق",
        -7.7222208976745605
      ],
      [
        "▁ذلك",
        -7.726441383361816
      ],
      [
        "▁لازم",
        -7.729066848754883
      ],
      [
        "▁)",
        -7.729787349700928
      ],
      [
        "▁اليوم",
        -7.733973979949951
      ],
      [
        "▁امين",
        -7.734052658081055
      ],
      [
        "▁فقط",
        -7.735511302947998
      ],
      [
        "ض",
        -7.737637996673584
      ],
      [
        "▁رضا",
        -7.739436626434326
      ],
      [
        "▁نتا",
        -7.740490436553955
      ],
      [
        "▁لو",
        -7.745038986206055
      ],
      [
        "ير",
        -7.748260974884033
      ],
      [
        "p",
        -7.751623630523682
      ],
      [
        "▁يعطيك",
        -7.755486488342285
      ],
      [
        "▁إلا",
        -7.758373260498047
      ],
      [
        "▁سلام",
        -7.769326686859131
      ],
      [
        "ذ",
        -7.770967960357666
      ],
      [
        "يه",
        -7.774129867553711
      ],
      [
        "▁وانا",
        -7.782881736755371
      ],
      [
        "ث",
        -7.7856292724609375
      ],
      [
        "▁عندك",
        -7.7876787185668945
      ],
      [
        "▁الحمد",
        -7.788440227508545
      ],
      [
        "u",
        -7.793493747711182
      ],
      [
        "▁عليها",
        -7.798530101776123
      ],
      [
        "▁نفس",
        -7.799492835998535
      ],
      [
        "▁ك",
        -7.800012111663818
      ],
      [
        "▁افضل",
        -7.8049139976501465
      ],
      [
        "تنا",
        -7.811373710632324
      ],
      [
        "غ",
        -7.817542552947998
      ],
      [
        "▁نجيب",
        -7.820766925811768
      ],
      [
        "▁علاه",
        -7.82214879989624
      ],
      [
        "▁ومن",
        -7.824018955230713
      ],
      [
        "▁أم",
        -7.82498025894165
      ],
      [
        "آ",
        -7.8257737159729
      ],
      [
        "▁ختي",
        -7.826968193054199
      ],
      [
        "▁ياربي",
        -7.8287177085876465
      ],
      [
        "▁n",
        -7.83330774307251
      ],
      [
        "▁أخي",
        -7.837342739105225
      ],
      [
        "▁الي",
        -7.840361595153809
      ],
      [
        "j",
        -7.845038414001465
      ],
      [
        "يش",
        -7.846898078918457
      ],
      [
        "▁قصص",
        -7.849643707275391
      ],
      [
        "▁يبارك",
        -7.851272106170654
      ],
      [
        "وه",
        -7.85897970199585
      ],
      [
        "▁la",
        -7.863225936889648
      ],
      [
        "▁a",
        -7.865856170654297
      ],
      [
        "ار",
        -7.866762161254883
      ],
      [
        "4",
        -7.871318340301514
      ],
      [
        "▁حاجة",
        -7.872994899749756
      ],
      [
        "▁ta",
        -7.873168468475342
      ],
      [
        "▁y",
        -7.874563694000244
      ],
      [
        "▁دار",
        -7.874768257141113
      ],
      [
        "▁ديرلنا",
        -7.875400066375732
      ],
      [
        "▁الخير",
        -7.87601900100708
      ],
      [
        "▁فل",
        -7.8769965171813965
      ],
      [
        "▁قد",
        -7.878508567810059
      ],
      [
        "▁رانا",
        -7.87922477722168
      ],
      [
        "▁جزاك",
        -7.883773326873779
      ],
      [
        "▁حنا",
        -7.884206295013428
      ],
      [
        "▁مات",
        -7.887928009033203
      ],
      [
        "▁وما",
        -7.888345241546631
      ],
      [
        "▁بك",
        -7.888363838195801
      ],
      [
        "▁f",
        -7.890048980712891
      ],
      [
        "ch",
        -7.8915300369262695
      ],
      [
        "▁هاد",
        -7.892119407653809
      ],
      [
        "▁ma",
        -7.892268657684326
      ],
      [
        "▁خاوتي",
        -7.896827697753906
      ],
      [
        "▁اللي",
        -7.898372173309326
      ],
      [
        "na",
        -7.898634910583496
      ],
      [
        "g",
        -7.900402545928955
      ],
      [
        "▁الإ",
        -7.902005195617676
      ],
      [
        "▁مرة",
        -7.906505584716797
      ],
      [
        "اح",
        -7.912011623382568
      ],
      [
        "▁بعض",
        -7.916622638702393
      ],
      [
        "يك",
        -7.916686534881592
      ],
      [
        "اد",
        -7.916895866394043
      ],
      [
        "وني",
        -7.92581033706665
      ],
      [
        "وم",
        -7.927863597869873
      ],
      [
        "▁ليس",
        -7.92812442779541
      ],
      [
        "▁ورحمة",
        -7.932560920715332
      ],
      [
        "▁اول",
        -7.935394763946533
      ],
      [
        "تو",
        -7.941462516784668
      ],
      [
        "عة",
        -7.951052665710449
      ],
      [
        "اش",
        -7.956507682800293
      ],
      [
        "▁سي",
        -7.957235813140869
      ],
      [
        "ربي",
        -7.963525295257568
      ],
      [
        "▁العام",
        -7.964371204376221
      ],
      [
        "▁العالمين",
        -7.965642929077148
      ],
      [
        "▁ثم",
        -7.965987682342529
      ],
      [
        "▁عبد",
        -7.966541767120361
      ],
      [
        "▁قلت",
        -7.967110633850098
      ],
      [
        "▁جدا",
        -7.972866058349609
      ],
      [
        "▁لنا",
        -7.973199844360352
      ],
      [
        "▁علي",
        -7.97357702255249
      ],
      [
        "ري",
        -7.974730014801025
      ],
      [
        "جي",
        -7.978827476501465
      ],
      [
        "z",
        -7.9822096824646
      ],
      [
        "▁هذي",
        -7.9840474128723145
      ],
      [
        "▁عام",
        -7.990986347198486
      ],
      [
        "▁الن",
        -7.995492458343506
      ],
      [
        "▁با",
        -8.000536918640137
      ],
      [
        "يات",
        -8.007941246032715
      ],
      [
        "▁وربي",
        -8.007996559143066
      ],
      [
        "بي",
        -8.009130477905273
      ],
      [
        "▁كون",
        -8.009597778320312
      ],
      [
        "ول",
        -8.01111888885498
      ],
      [
        "▁الصحة",
        -8.011518478393555
      ],
      [
        "▁فا",
        -8.012476921081543
      ],
      [
        "را",
        -8.01467227935791
      ],
      [
        "▁مليح",
        -8.01516056060791
      ],
      [
        "▁علينا",
        -8.017687797546387
      ],
      [
        "😢",
        -8.02416706085205
      ],
      [
        "▁ممكن",
        -8.025960922241211
      ],
      [
        "▁نحبك",
        -8.028406143188477
      ],
      [
        "▁تت",
        -8.03176212310791
      ],
      [
        "ra",
        -8.031989097595215
      ],
      [
        "سي",
        -8.033905982971191
      ],
      [
        "▁خو",
        -8.037775993347168
      ],
      [
        "▁وليد",
        -8.039931297302246
      ],
      [
        "▁جا",
        -8.04004955291748
      ],
      [
        "re",
        -8.04043197631836
      ],
      [
        "▁*",
        -8.042743682861328
      ],
      [
        "▁إذا",
        -8.053479194641113
      ],
      [
        "اس",
        -8.053738594055176
      ],
      [
        "▁الجنة",
        -8.054937362670898
      ],
      [
        "▁شيء",
        -8.055659294128418
      ],
      [
        "▁وفي",
        -8.058364868164062
      ],
      [
        "▁ندي",
        -8.059321403503418
      ],
      [
        "قول",
        -8.059600830078125
      ],
      [
        "v",
        -8.060615539550781
      ],
      [
        "دا",
        -8.06096363067627
      ],
      [
        "▁زوج",
        -8.061736106872559
      ],
      [
        "▁والو",
        -8.062644004821777
      ],
      [
        "/",
        -8.065696716308594
      ],
      [
        "▁وقت",
        -8.067656517028809
      ],
      [
        "ha",
        -8.069992065429688
      ],
      [
        "▁تعالى",
        -8.070243835449219
      ],
      [
        "6",
        -8.07228946685791
      ],
      [
        "▁5",
        -8.072553634643555
      ],
      [
        "اه",
        -8.076062202453613
      ],
      [
        "al",
        -8.078472137451172
      ],
      [
        "▁است",
        -8.080246925354004
      ],
      [
        "li",
        -8.08036994934082
      ],
      [
        "ولي",
        -8.083354949951172
      ],
      [
        "مي",
        -8.083545684814453
      ],
      [
        "ست",
        -8.085114479064941
      ],
      [
        "▁,",
        -8.088722229003906
      ],
      [
        "_",
        -8.089888572692871
      ],
      [
        "▁بالمثل",
        -8.092986106872559
      ],
      [
        "وك",
        -8.093605041503906
      ],
      [
        "لها",
        -8.097441673278809
      ],
      [
        "▁بالله",
        -8.097978591918945
      ],
      [
        "▁لها",
        -8.098645210266113
      ],
      [
        "▁9",
        -8.099326133728027
      ],
      [
        "▁حكاية",
        -8.101186752319336
      ],
      [
        "er",
        -8.101570129394531
      ],
      [
        "8",
        -8.1026029586792
      ],
      [
        "▁1",
        -8.107989311218262
      ],
      [
        "▁تاعك",
        -8.110116958618164
      ],
      [
        "▁بلا",
        -8.110422134399414
      ],
      [
        "▁نعم",
        -8.113160133361816
      ],
      [
        "لة",
        -8.120410919189453
      ],
      [
        "اك",
        -8.122172355651855
      ],
      [
        "▁كمل",
        -8.123580932617188
      ],
      [
        "رب",
        -8.12755012512207
      ],
      [
        "ء",
        -8.127690315246582
      ],
      [
        "▁ولكن",
        -8.12775993347168
      ],
      [
        "▁هدا",
        -8.127788543701172
      ],
      [
        "▁de",
        -8.131976127624512
      ],
      [
        "▁القصة",
        -8.13447093963623
      ],
      [
        "ri",
        -8.141489028930664
      ],
      [
        "▁تقول",
        -8.142297744750977
      ],
      [
        "▁4",
        -8.142495155334473
      ],
      [
        "▁الس",
        -8.144429206848145
      ],
      [
        "▁والم",
        -8.146851539611816
      ],
      [
        "▁ناس",
        -8.14692211151123
      ],
      [
        "▁انشاء",
        -8.147578239440918
      ],
      [
        "▁البكالوريا",
        -8.148775100708008
      ],
      [
        "▁رسول",
        -8.14900016784668
      ],
      [
        "▁نشوف",
        -8.153688430786133
      ],
      [
        "اج",
        -8.155105590820312
      ],
      [
        "▁كيفاش",
        -8.156996726989746
      ],
      [
        "▁وهو",
        -8.15738296508789
      ],
      [
        "▁نتاع",
        -8.159939765930176
      ],
      [
        "ظ",
        -8.160079956054688
      ],
      [
        "▁وكل",
        -8.163079261779785
      ],
      [
        "▁كتاب",
        -8.16535758972168
      ],
      [
        "وها",
        -8.165822982788086
      ],
      [
        "▁رمضان",
        -8.166579246520996
      ],
      [
        "▁معاك",
        -8.167951583862305
      ],
      [
        "▁باه",
        -8.16797924041748
      ],
      [
        "x",
        -8.169472694396973
      ],
      [
        "▁ص",
        -8.172050476074219
      ],
      [
        "▁لباك",
        -8.17440414428711
      ],
      [
        "▁ز",
        -8.175680160522461
      ],
      [
        "يد",
        -8.17603588104248
      ],
      [
        "▁قاع",
        -8.176159858703613
      ],
      [
        "▁❤️",
        -8.1805419921875
      ],
      [
        "دو",
        -8.18103313446045
      ],
      [
        "▁يوفقك",
        -8.185464859008789
      ],
      [
        "▁b",
        -8.188467025756836
      ],
      [
        "▁راجعون",
        -8.188865661621094
      ],
      [
        "▁شفت",
        -8.190293312072754
      ],
      [
        "▁A",
        -8.19189167022705
      ],
      [
        "▁شحال",
        -8.19368839263916
      ],
      [
        "▁راهي",
        -8.196096420288086
      ],
      [
        "ود",
        -8.196367263793945
      ],
      [
        "▁les",
        -8.19796371459961
      ],
      [
        "▁مشي",
        -8.199438095092773
      ],
      [
        "▁يرحم",
        -8.200700759887695
      ],
      [
        "تم",
        -8.206396102905273
      ],
      [
        "جر",
        -8.207915306091309
      ],
      [
        "▁ندير",
        -8.20804214477539
      ],
      [
        "▁الكريم",
        -8.2092924118042
      ],
      [
        "▁ش",
        -8.211400032043457
      ],
      [
        "▁وبركاته",
        -8.212050437927246
      ],
      [
        "▁وان",
        -8.214090347290039
      ],
      [
        "▁تم",
        -8.214224815368652
      ],
      [
        "▁مزال",
        -8.216331481933594
      ],
      [
        "▁2025",
        -8.216469764709473
      ],
      [
        "▁يقول",
        -8.217259407043457
      ],
      [
        "▁ابن",
        -8.218560218811035
      ],
      [
        "حل",
        -8.221027374267578
      ],
      [
        "▁ماشاء",
        -8.221626281738281
      ],
      [
        "رة",
        -8.225508689880371
      ],
      [
        "▁حب",
        -8.225831985473633
      ],
      [
        "▁كيفاه",
        -8.229275703430176
      ],
      [
        "صر",
        -8.231949806213379
      ],
      [
        "ma",
        -8.233464241027832
      ],
      [
        "▁بزااف",
        -8.233945846557617
      ],
      [
        "▁7",
        -8.235028266906738
      ],
      [
        "يم",
        -8.235713005065918
      ],
      [
        "▁غ",
        -8.236403465270996
      ],
      [
        "▁مثل",
        -8.237041473388672
      ],
      [
        "▁الحق",
        -8.239121437072754
      ],
      [
        "ou",
        -8.242064476013184
      ],
      [
        "▁ر",
        -8.242279052734375
      ],
      [
        "▁جام",
        -8.24314022064209
      ],
      [
        "▁ولكم",
        -8.250875473022461
      ],
      [
        "وب",
        -8.254315376281738
      ],
      [
        "▁سنة",
        -8.25450325012207
      ],
      [
        "▁شعبة",
        -8.256447792053223
      ],
      [
        "▁تاني",
        -8.259678840637207
      ],
      [
        "▁الموضوع",
        -8.262035369873047
      ],
      [
        "▁c",
        -8.2628173828125
      ],
      [
        "▁ماي",
        -8.266486167907715
      ],
      [
        "▁بها",
        -8.267623901367188
      ],
      [
        "فت",
        -8.268560409545898
      ],
      [
        "▁ح",
        -8.270965576171875
      ],
      [
        "يب",
        -8.271821022033691
      ],
      [
        "▁😊",
        -8.272271156311035
      ],
      [
        "بر",
        -8.272709846496582
      ],
      [
        "▁أي",
        -8.274033546447754
      ],
      [
        "▁نت",
        -8.27496337890625
      ],
      [
        "رو",
        -8.275480270385742
      ],
      [
        "▁الجن",
        -8.275630950927734
      ],
      [
        "▁معدل",
        -8.280397415161133
      ],
      [
        "▁منها",
        -8.28554916381836
      ],
      [
        "▁الق",
        -8.288785934448242
      ],
      [
        "▁صباح",
        -8.28988265991211
      ],
      [
        "▁آمين",
        -8.292207717895508
      ],
      [
        "▁+",
        -8.292403221130371
      ],
      [
        "▁عليهم",
        -8.294478416442871
      ],
      [
        "وال",
        -8.294610977172852
      ],
      [
        "عد",
        -8.295923233032227
      ],
      [
        "▁يدير",
        -8.296025276184082
      ],
      [
        "▁اني",
        -8.298650741577148
      ],
      [
        "▁s",
        -8.298667907714844
      ],
      [
        "▁ya",
        -8.30186939239502
      ],
      [
        "in",
        -8.302078247070312
      ],
      [
        "▁جديد",
        -8.30327320098877
      ],
      [
        "▁خ",
        -8.305464744567871
      ],
      [
        "▁يحفضك",
        -8.307676315307617
      ],
      [
        "▁حق",
        -8.309714317321777
      ],
      [
        "لهم",
        -8.309957504272461
      ],
      [
        "اع",
        -8.312263488769531
      ],
      [
        "▁🤲",
        -8.312390327453613
      ],
      [
        "▁استاذة",
        -8.315181732177734
      ],
      [
        "ti",
        -8.31567096710205
      ],
      [
        "▁وحدة",
        -8.317782402038574
      ],
      [
        "▁😢😢",
        -8.318414688110352
      ],
      [
        "فا",
        -8.324028015136719
      ],
      [
        "▁M",
        -8.32473373413086
      ],
      [
        "▁المنتدى",
        -8.327022552490234
      ],
      [
        "▁😅",
        -8.327737808227539
      ],
      [
        "▁سؤال",
        -8.328021049499512
      ],
      [
        "▁جميع",
        -8.331149101257324
      ],
      [
        "▁الان",
        -8.331382751464844
      ],
      [
        "زي",
        -8.333060264587402
      ],
      [
        "▁وشكرا",
        -8.333805084228516
      ],
      [
        "تني",
        -8.336156845092773
      ],
      [
        "▁نقرا",
        -8.336390495300293
      ],
      [
        "▁روحي",
        -8.337143898010254
      ],
      [
        "▁نهار",
        -8.337968826293945
      ],
      [
        "▁ينجحنا",
        -8.33863639831543
      ],
      [
        "مت",
        -8.345659255981445
      ],
      [
        "▁الوقت",
        -8.34744644165039
      ],
      [
        "▁وحد",
        -8.348116874694824
      ],
      [
        "▁لن",
        -8.350665092468262
      ],
      [
        "يس",
        -8.35148811340332
      ],
      [
        "▁عليا",
        -8.351713180541992
      ],
      [
        "▁شعر",
        -8.352465629577637
      ],
      [
        "وي",
        -8.352662086486816
      ],
      [
        "▁هاذي",
        -8.353302955627441
      ],
      [
        "▁لكم",
        -8.354559898376465
      ],
      [
        "▁راهم",
        -8.354881286621094
      ],
      [
        "وس",
        -8.356583595275879
      ],
      [
        "▁تحت",
        -8.357892990112305
      ],
      [
        "حي",
        -8.358076095581055
      ],
      [
        "▁الخ",
        -8.358417510986328
      ],
      [
        "▁أنت",
        -8.360039710998535
      ],
      [
        "▁10",
        -8.360179901123047
      ],
      [
        "▁روح",
        -8.360489845275879
      ],
      [
        "▁مرحبا",
        -8.361605644226074
      ],
      [
        "▁راكي",
        -8.365167617797852
      ],
      [
        "▁حل",
        -8.366397857666016
      ],
      [
        "😊",
        -8.366867065429688
      ],
      [
        "▁ول",
        -8.370269775390625
      ],
      [
        "▁ميزان",
        -8.371138572692871
      ],
      [
        "▁لما",
        -8.374885559082031
      ],
      [
        "▁الج",
        -8.37551498413086
      ],
      [
        "▁الب",
        -8.381795883178711
      ],
      [
        "❤️",
        -8.38196849822998
      ],
      [
        "▁العلم",
        -8.384673118591309
      ],
      [
        "بل",
        -8.390280723571777
      ],
      [
        "▁النبي",
        -8.390533447265625
      ],
      [
        "😅",
        -8.392401695251465
      ],
      [
        "كل",
        -8.392775535583496
      ],
      [
        "(",
        -8.392987251281738
      ],
      [
        "▁اليه",
        -8.394713401794434
      ],
      [
        "▁إليه",
        -8.395425796508789
      ],
      [
        "▁العظيم",
        -8.396530151367188
      ],
      [
        "▁تن",
        -8.397408485412598
      ],
      [
        "تهم",
        -8.398180961608887
      ],
      [
        "es",
        -8.398552894592285
      ],
      [
        "▁اكثر",
        -8.400654792785645
      ],
      [
        "بو",
        -8.40290355682373
      ],
      [
        "▁علا",
        -8.405030250549316
      ],
      [
        "يف",
        -8.40650463104248
      ],
      [
        "▁محتوى",
        -8.40658187866211
      ],
      [
        "▁هناك",
        -8.407079696655273
      ],
      [
        "▁d",
        -8.407730102539062
      ],
      [
        "▁طريقة",
        -8.409963607788086
      ],
      [
        "▁2026",
        -8.415441513061523
      ],
      [
        "▁شهادة",
        -8.416555404663086
      ],
      [
        "اط",
        -8.41762638092041
      ],
      [
        "▁هادي",
        -8.422636985778809
      ],
      [
        "▁الش",
        -8.424617767333984
      ],
      [
        "▁تحياتي",
        -8.424976348876953
      ],
      [
        "با",
        -8.426074981689453
      ],
      [
        "▁لكل",
        -8.42712688446045
      ],
      [
        "▁شا",
        -8.427886009216309
      ],
      [
        "الله",
        -8.431634902954102
      ],
      [
        "▁li",
        -8.43185806274414
      ],
      [
        "اف",
        -8.43431568145752
      ],
      [
        "▁ولي",
        -8.435614585876465
      ],
      [
        "▁الغ",
        -8.435870170593262
      ],
      [
        "▁حبيت",
        -8.437600135803223
      ],
      [
        "▁نتفرج",
        -8.437827110290527
      ],
      [
        "▁عندو",
        -8.437889099121094
      ],
      [
        "▁الدين",
        -8.438030242919922
      ],
      [
        "▁حاب",
        -8.442182540893555
      ],
      [
        "▁كلش",
        -8.443177223205566
      ],
      [
        "▁سا",
        -8.443483352661133
      ],
      [
        "▁النجاح",
        -8.444912910461426
      ],
      [
        "▁كثيرا",
        -8.44532585144043
      ],
      [
        "حب",
        -8.446505546569824
      ],
      [
        "▁ست",
        -8.447622299194336
      ],
      [
        "بت",
        -8.447721481323242
      ],
      [
        "▁يجي",
        -8.447867393493652
      ],
      [
        "▁المهم",
        -8.449883460998535
      ],
      [
        "▁وب",
        -8.452557563781738
      ],
      [
        "▁حال",
        -8.452692985534668
      ],
      [
        "▁كثر",
        -8.456331253051758
      ],
      [
        "▁رعب",
        -8.456487655639648
      ],
      [
        "▁the",
        -8.456727027893066
      ],
      [
        "▁مام",
        -8.457401275634766
      ],
      [
        "▁le",
        -8.459352493286133
      ],
      [
        "é",
        -8.460564613342285
      ],
      [
        "▁اسم",
        -8.462584495544434
      ],
      [
        "▁سبحان",
        -8.462761878967285
      ],
      [
        "▁لأن",
        -8.46341323852539
      ],
      [
        "لم",
        -8.463425636291504
      ],
      [
        "▁بالتوفيق",
        -8.46661376953125
      ],
      [
        "▁رحمة",
        -8.466923713684082
      ],
      [
        "▁نشالله",
        -8.468592643737793
      ],
      [
        "▁بي",
        -8.469103813171387
      ],
      [
        "▁شيخ",
        -8.471538543701172
      ],
      [
        "▁عادي",
        -8.471814155578613
      ],
      [
        "q",
        -8.47182559967041
      ],
      [
        "▁موضوع",
        -8.472001075744629
      ],
      [
        "😭",
        -8.4722318649292
      ],
      [
        "▁مان",
        -8.472336769104004
      ],
      [
        "▁نتي",
        -8.4723482131958
      ],
      [
        "له",
        -8.476285934448242
      ],
      [
        "▁عنه",
        -8.477788925170898
      ],
      [
        "وف",
        -8.477875709533691
      ],
      [
        "▁جيت",
        -8.480730056762695
      ],
      [
        "▁جن",
        -8.481718063354492
      ],
      [
        "▁العالم",
        -8.483297348022461
      ],
      [
        "▁قلبي",
        -8.48359203338623
      ],
      [
        "at",
        -8.483922004699707
      ],
      [
        "▁علاش",
        -8.484245300292969
      ],
      [
        "▁بمعدل",
        -8.487336158752441
      ],
      [
        "▁علم",
        -8.4876708984375
      ],
      [
        "▁د",
        -8.491860389709473
      ],
      [
        "▁الشعر",
        -8.493175506591797
      ],
      [
        "▁🙂",
        -8.49351692199707
      ],
      [
        "بة",
        -8.494369506835938
      ],
      [
        "مة",
        -8.495495796203613
      ],
      [
        "▁شرح",
        -8.495925903320312
      ],
      [
        "▁حسناتك",
        -8.496838569641113
      ],
      [
        "▁درت",
        -8.49741268157959
      ],
      [
        "▁بو",
        -8.497448921203613
      ],
      [
        "اني",
        -8.498915672302246
      ],
      [
        "جا",
        -8.500136375427246
      ],
      [
        "▁لت",
        -8.501461029052734
      ],
      [
        "▁المسلمين",
        -8.502285957336426
      ],
      [
        "يين",
        -8.50267219543457
      ],
      [
        "كون",
        -8.503795623779297
      ],
      [
        "▁ط",
        -8.504234313964844
      ],
      [
        "▁مبروك",
        -8.504446983337402
      ],
      [
        "▁أفضل",
        -8.505029678344727
      ],
      [
        "▁هاذ",
        -8.50514030456543
      ],
      [
        "▁للم",
        -8.508206367492676
      ],
      [
        "▁أختي",
        -8.50853443145752
      ],
      [
        "▁ثاني",
        -8.508749961853027
      ],
      [
        "▁خاصة",
        -8.509432792663574
      ],
      [
        "💔",
        -8.510695457458496
      ],
      [
        "▁ديرنا",
        -8.513206481933594
      ],
      [
        "!",
        -8.513245582580566
      ],
      [
        "ؤ",
        -8.513775825500488
      ],
      [
        "ed",
        -8.515260696411133
      ],
      [
        "▁S",
        -8.518332481384277
      ],
      [
        "▁T",
        -8.518556594848633
      ],
      [
        "▁مر",
        -8.51877498626709
      ],
      [
        "ينا",
        -8.520304679870605
      ],
      [
        "▁تعرف",
        -8.521833419799805
      ],
      [
        "*",
        -8.52360725402832
      ],
      [
        "🤲",
        -8.525921821594238
      ],
      [
        "▁16",
        -8.527031898498535
      ],
      [
        "▁الثاني",
        -8.535436630249023
      ],
      [
        "رد",
        -8.53584098815918
      ],
      [
        "▁15",
        -8.538080215454102
      ],
      [
        "▁استاد",
        -8.539624214172363
      ],
      [
        "di",
        -8.543011665344238
      ],
      [
        "▁لقيت",
        -8.543486595153809
      ],
      [
        "▁you",
        -8.543989181518555
      ],
      [
        "▁نعرف",
        -8.544909477233887
      ],
      [
        "▁احسن",
        -8.545910835266113
      ],
      [
        "▁حول",
        -8.54751968383789
      ],
      [
        "▁بنت",
        -8.548262596130371
      ],
      [
        "▁الدنيا",
        -8.548511505126953
      ],
      [
        "▁القصص",
        -8.548728942871094
      ],
      [
        "▁B",
        -8.54924201965332
      ],
      [
        "▁نحب",
        -8.550217628479004
      ],
      [
        "دة",
        -8.552407264709473
      ],
      [
        "▁اله",
        -8.553390502929688
      ],
      [
        "▁بديت",
        -8.553923606872559
      ],
      [
        "▁حبيبتي",
        -8.55644416809082
      ],
      [
        "▁جزيلا",
        -8.556591033935547
      ],
      [
        "▁شي",
        -8.55774211883545
      ],
      [
        "▁زيد",
        -8.55793571472168
      ],
      [
        "▁شخص",
        -8.558752059936523
      ],
      [
        "ya",
        -8.559463500976562
      ],
      [
        "▁ننجح",
        -8.559599876403809
      ],
      [
        "ta",
        -8.559792518615723
      ],
      [
        "رت",
        -8.561076164245605
      ],
      [
        "قو",
        -8.56174373626709
      ],
      [
        "▁الصبر",
        -8.561885833740234
      ],
      [
        "▁العباسية",
        -8.562548637390137
      ],
      [
        "▁الشيخ",
        -8.563289642333984
      ],
      [
        "هل",
        -8.56632137298584
      ],
      [
        "▁كبير",
        -8.568121910095215
      ],
      [
        "لت",
        -8.568951606750488
      ],
      [
        "قت",
        -8.569170951843262
      ],
      [
        "ar",
        -8.57080078125
      ],
      [
        "▁ق",
        -8.570855140686035
      ],
      [
        "▁العربية",
        -8.574748992919922
      ],
      [
        "رق",
        -8.576016426086426
      ],
      [
        "شي",
        -8.576526641845703
      ],
      [
        "▁يوفقنا",
        -8.576823234558105
      ],
      [
        "▁نقدر",
        -8.57762336730957
      ],
      [
        "▁دخل",
        -8.580201148986816
      ],
      [
        "فل",
        -8.58082103729248
      ],
      [
        "▁لان",
        -8.581062316894531
      ],
      [
        "▁عمر",
        -8.58263111114502
      ],
      [
        "it",
        -8.584680557250977
      ],
      [
        "▁نحن",
        -8.585349082946777
      ],
      [
        "▁الح",
        -8.586137771606445
      ],
      [
        "▁فلا",
        -8.588210105895996
      ],
      [
        "كي",
        -8.588772773742676
      ],
      [
        "▁آ",
        -8.591777801513672
      ],
      [
        "▁نشاله",
        -8.592806816101074
      ],
      [
        "▁سن",
        -8.594541549682617
      ],
      [
        "▁القرآن",
        -8.594572067260742
      ],
      [
        "▁6",
        -8.59512996673584
      ],
      [
        "URL",
        -8.595415115356445
      ],
      [
        "▁رد",
        -8.597294807434082
      ],
      [
        "▁17",
        -8.598954200744629
      ],
      [
        "▁غي",
        -8.599834442138672
      ],
      [
        "▁اما",
        -8.60030746459961
      ],
      [
        "▁2024",
        -8.603405952453613
      ],
      [
        "▁hh",
        -8.60512638092041
      ],
      [
        "اق",
        -8.605731010437012
      ],
      [
        "▁قوة",
        -8.609192848205566
      ],
      [
        "مو",
        -8.610360145568848
      ],
      [
        "▁😭",
        -8.610796928405762
      ],
      [
        "▁I",
        -8.61347484588623
      ],
      [
        "▁نقول",
        -8.613502502441406
      ],
      [
        "▁هكا",
        -8.614243507385254
      ],
      [
        "▁سيبيا",
        -8.614543914794922
      ],
      [
        "▁الصلاة",
        -8.61483097076416
      ],
      [
        "▁مكان",
        -8.616928100585938
      ],
      [
        "▁🤣🤣",
        -8.617818832397461
      ],
      [
        "▁جماعة",
        -8.618576049804688
      ],
      [
        "el",
        -8.618785858154297
      ],
      [
        "رحم",
        -8.618983268737793
      ],
      [
        "▁نص",
        -8.619179725646973
      ],
      [
        "▁أنه",
        -8.6209716796875
      ],
      [
        "تر",
        -8.623085975646973
      ],
      [
        "▁روعة",
        -8.628238677978516
      ],
      [
        "▁يمكن",
        -8.630037307739258
      ],
      [
        "طر",
        -8.630227088928223
      ],
      [
        "▁هم",
        -8.631584167480469
      ],
      [
        "▁بما",
        -8.631617546081543
      ],
      [
        "ni",
        -8.631896018981934
      ],
      [
        "▁أكثر",
        -8.632173538208008
      ],
      [
        "▁الشعب",
        -8.634432792663574
      ],
      [
        "دين",
        -8.634981155395508
      ],
      [
        "▁عمل",
        -8.6417818069458
      ],
      [
        "▁فهمت",
        -8.641939163208008
      ],
      [
        "▁را",
        -8.6431884765625
      ],
      [
        "مر",
        -8.644737243652344
      ],
      [
        "▁الحياة",
        -8.645268440246582
      ],
      [
        "مل",
        -8.645282745361328
      ],
      [
        "▁19",
        -8.645781517028809
      ],
      [
        "▁اخر",
        -8.64610481262207
      ],
      [
        "▁قل",
        -8.648149490356445
      ],
      [
        "▁دعولي",
        -8.648329734802246
      ],
      [
        "در",
        -8.648374557495117
      ],
      [
        "▁لالا",
        -8.65070629119873
      ],
      [
        "▁الاول",
        -8.651161193847656
      ],
      [
        "▁حكايات",
        -8.65126895904541
      ],
      [
        "عت",
        -8.652302742004395
      ],
      [
        "▁أهل",
        -8.6524019241333
      ],
      [
        "▁مس",
        -8.654136657714844
      ],
      [
        "▁لوكان",
        -8.654444694519043
      ],
      [
        "قد",
        -8.655171394348145
      ],
      [
        "▁وعلى",
        -8.65534782409668
      ],
      [
        "▁ولم",
        -8.655515670776367
      ],
      [
        "▁مد",
        -8.655545234680176
      ],
      [
        "دير",
        -8.657750129699707
      ],
      [
        "فر",
        -8.657896041870117
      ],
      [
        "▁بم",
        -8.658160209655762
      ],
      [
        "ذا",
        -8.659018516540527
      ],
      [
        "انا",
        -8.66091537475586
      ],
      [
        "▁دي",
        -8.66238784790039
      ],
      [
        "▁بكل",
        -8.662934303283691
      ],
      [
        "يز",
        -8.665337562561035
      ],
      [
        "▁بليز",
        -8.665664672851562
      ],
      [
        "▁الز",
        -8.66613483428955
      ],
      [
        "▁et",
        -8.666268348693848
      ],
      [
        "روح",
        -8.666309356689453
      ],
      [
        "وت",
        -8.666714668273926
      ],
      [
        "ضر",
        -8.666821479797363
      ],
      [
        "▁‪",
        -8.666954040527344
      ],
      [
        "قل",
        -8.66720962524414
      ],
      [
        "▁شهر",
        -8.668073654174805
      ],
      [
        "ak",
        -8.6691255569458
      ],
      [
        "▁مل",
        -8.674144744873047
      ],
      [
        "مان",
        -8.675527572631836
      ],
      [
        "▁h",
        -8.677577018737793
      ],
      [
        "▁بيه",
        -8.680922508239746
      ],
      [
        "en",
        -8.683152198791504
      ],
      [
        "عا",
        -8.6843900680542
      ],
      [
        "طا",
        -8.684456825256348
      ],
      [
        "▁راكليطة",
        -8.684969902038574
      ],
      [
        "▁!",
        -8.685941696166992
      ],
      [
        "▁ج",
        -8.68717098236084
      ],
      [
        "▁وهي",
        -8.687870025634766
      ],
      [
        "▁دين",
        -8.690445899963379
      ],
      [
        "▁بأ",
        -8.692296028137207
      ],
      [
        "▁السؤال",
        -8.693486213684082
      ],
      [
        "▁بإذن",
        -8.696563720703125
      ],
      [
        "▁يعرف",
        -8.696646690368652
      ],
      [
        "▁علوم",
        -8.696656227111816
      ],
      [
        "▁دعوة",
        -8.698220252990723
      ],
      [
        "▁/",
        -8.698468208312988
      ],
      [
        "▁نسمع",
        -8.700156211853027
      ],
      [
        "▁فسيح",
        -8.704744338989258
      ],
      [
        "▁معليش",
        -8.705183029174805
      ],
      [
        "le",
        -8.705446243286133
      ],
      [
        "ئة",
        -8.706084251403809
      ],
      [
        "▁راهو",
        -8.706318855285645
      ],
      [
        "▁بيها",
        -8.706936836242676
      ],
      [
        "سم",
        -8.708600044250488
      ],
      [
        "▁فيهم",
        -8.71098518371582
      ],
      [
        "▁قول",
        -8.711977005004883
      ],
      [
        "ad",
        -8.71407413482666
      ],
      [
        "▁بيك",
        -8.71461009979248
      ],
      [
        "▁اهلا",
        -8.718565940856934
      ],
      [
        "فق",
        -8.72020435333252
      ],
      [
        "قر",
        -8.720850944519043
      ],
      [
        "▁لأ",
        -8.722298622131348
      ],
      [
        "▁يحب",
        -8.722480773925781
      ],
      [
        "ونا",
        -8.723233222961426
      ],
      [
        "الم",
        -8.723652839660645
      ],
      [
        "▁كلمة",
        -8.725111961364746
      ],
      [
        "▁والا",
        -8.726354598999023
      ],
      [
        "تين",
        -8.727251052856445
      ],
      [
        "جد",
        -8.7282133102417
      ],
      [
        "▁وجه",
        -8.729191780090332
      ],
      [
        "▁ايه",
        -8.729752540588379
      ],
      [
        "▁حر",
        -8.729982376098633
      ],
      [
        "️",
        -8.730485916137695
      ],
      [
        "▁منهم",
        -8.733839988708496
      ],
      [
        "▁تحكي",
        -8.7343111038208
      ],
      [
        "🙂",
        -8.736620903015137
      ],
      [
        "▁fi",
        -8.736635208129883
      ],
      [
        "ڨ",
        -8.73676586151123
      ],
      [
        "▁اللغة",
        -8.737709045410156
      ],
      [
        "▁j",
        -8.737726211547852
      ],
      [
        "0",
        -8.738177299499512
      ],
      [
        "رح",
        -8.738255500793457
      ],
      [
        "▁دروس",
        -8.738763809204102
      ],
      [
        "ing",
        -8.742155075073242
      ],
      [
        "صح",
        -8.74348258972168
      ],
      [
        "▁آخر",
        -8.744339942932129
      ],
      [
        "▁صوت",
        -8.745595932006836
      ],
      [
        "▁مكانش",
        -8.745746612548828
      ],
      [
        "▁تحب",
        -8.749714851379395
      ],
      [
        "▁دائما",
        -8.750232696533203
      ],
      [
        "▁الو",
        -8.750443458557129
      ],
      [
        "+",
        -8.750481605529785
      ],
      [
        "يق",
        -8.751092910766602
      ],
      [
        "▁يجب",
        -8.752854347229004
      ],
      [
        "▁فات",
        -8.752887725830078
      ],
      [
        "▁18",
        -8.753726959228516
      ],
      [
        "از",
        -8.7548246383667
      ],
      [
        "▁أحد",
        -8.75518798828125
      ],
      [
        "▁ليك",
        -8.75528621673584
      ],
      [
        "▁درس",
        -8.75619888305664
      ],
      [
        "▁اس",
        -8.756875038146973
      ],
      [
        "▁حابة",
        -8.757020950317383
      ],
      [
        "▁‬",
        -8.758907318115234
      ],
      [
        "اتك",
        -8.76141357421875
      ],
      [
        "▁قريب",
        -8.761638641357422
      ],
      [
        "▁صحيح",
        -8.761816024780273
      ],
      [
        "▁الكتاب",
        -8.762593269348145
      ],
      [
        "▁صل",
        -8.763237953186035
      ],
      [
        "an",
        -8.763279914855957
      ],
      [
        "▁مح",
        -8.763802528381348
      ],
      [
        "▁عمري",
        -8.763959884643555
      ],
      [
        "▁سمعت",
        -8.764424324035645
      ],
      [
        "▁روحك",
        -8.765869140625
      ],
      [
        "ba",
        -8.76636791229248
      ],
      [
        "▁🤲🏻",
        -8.76636791229248
      ],
      [
        "▁ذكر",
        -8.767617225646973
      ],
      [
        "▁إنا",
        -8.770244598388672
      ],
      [
        "✨",
        -8.771444320678711
      ],
      [
        "▁سيدنا",
        -8.772200584411621
      ],
      [
        "▁كم",
        -8.775036811828613
      ],
      [
        "عرف",
        -8.775275230407715
      ],
      [
        "▁D",
        -8.776577949523926
      ],
      [
        "▁بابا",
        -8.776987075805664
      ],
      [
        "▁بكالوريا",
        -8.778189659118652
      ],
      [
        "يلي",
        -8.779223442077637
      ],
      [
        "ناش",
        -8.779401779174805
      ],
      [
        "▁نتمنى",
        -8.779816627502441
      ],
      [
        "رك",
        -8.780233383178711
      ],
      [
        "عي",
        -8.78043270111084
      ],
      [
        "da",
        -8.782212257385254
      ],
      [
        "فة",
        -8.782388687133789
      ],
      [
        "▁فوق",
        -8.783024787902832
      ],
      [
        "ay",
        -8.783098220825195
      ],
      [
        "▁بالم",
        -8.784193992614746
      ],
      [
        "▁المن",
        -8.785039901733398
      ],
      [
        "▁سر",
        -8.785553932189941
      ],
      [
        "▁تدي",
        -8.786225318908691
      ],
      [
        "▁حسن",
        -8.786587715148926
      ],
      [
        "▁يجازيك",
        -8.787803649902344
      ],
      [
        "▁قناة",
        -8.787841796875
      ],
      [
        "▁قتل",
        -8.787924766540527
      ],
      [
        "▁wa",
        -8.788348197937012
      ],
      [
        "ـ",
        -8.789352416992188
      ],
      [
        "▁حساب",
        -8.790521621704102
      ],
      [
        "▁طريق",
        -8.790797233581543
      ],
      [
        "▁بالنسبة",
        -8.7910737991333
      ],
      [
        "▁ولاية",
        -8.791080474853516
      ],
      [
        "▁ولله",
        -8.792457580566406
      ],
      [
        "▁شباب",
        -8.794787406921387
      ],
      [
        "▁رحمه",
        -8.795592308044434
      ],
      [
        "ah",
        -8.795787811279297
      ],
      [
        "▁ماما",
        -8.795961380004883
      ],
      [
        "نت",
        -8.79669189453125
      ],
      [
        "عاد",
        -8.796882629394531
      ],
      [
        "▁انسان",
        -8.800235748291016
      ],
      [
        "▁ch",
        -8.800948143005371
      ],
      [
        "لف",
        -8.803533554077148
      ],
      [
        "نس",
        -8.804953575134277
      ],
      [
        "▁رائع",
        -8.805264472961426
      ],
      [
        "ائل",
        -8.80661392211914
      ],
      [
        "▁الذين",
        -8.808589935302734
      ],
      [
        "▁رو",
        -8.810981750488281
      ],
      [
        "te",
        -8.811311721801758
      ],
      [
        "▁الك",
        -8.814424514770508
      ],
      [
        "ذكر",
        -8.815645217895508
      ],
      [
        "▁هوما",
        -8.815648078918457
      ],
      [
        "▁12",
        -8.816010475158691
      ],
      [
        "▁معا",
        -8.816311836242676
      ],
      [
        "▁طلب",
        -8.816424369812012
      ],
      [
        "فهم",
        -8.818563461303711
      ],
      [
        "▁أهلا",
        -8.81933307647705
      ],
      [
        "▁تعيش",
        -8.819409370422363
      ],
      [
        "▁معايا",
        -8.819725036621094
      ],
      [
        "▁وهذا",
        -8.819831848144531
      ],
      [
        "▁8",
        -8.819928169250488
      ],
      [
        "▁الل",
        -8.821158409118652
      ],
      [
        "▁مست",
        -8.821503639221191
      ],
      [
        "علم",
        -8.82194995880127
      ],
      [
        "▁عل",
        -8.822334289550781
      ],
      [
        "سل",
        -8.822824478149414
      ],
      [
        "▁ماذا",
        -8.82392692565918
      ],
      [
        "جب",
        -8.82459831237793
      ],
      [
        "ارة",
        -8.82715129852295
      ],
      [
        "▁ana",
        -8.827155113220215
      ],
      [
        "يتي",
        -8.828238487243652
      ],
      [
        "▁ياخو",
        -8.82857894897461
      ],
      [
        "▁كو",
        -8.829590797424316
      ],
      [
        "هاش",
        -8.830340385437012
      ],
      [
        "=",
        -8.830428123474121
      ],
      [
        "▁أما",
        -8.830485343933105
      ],
      [
        "وع",
        -8.831607818603516
      ],
      [
        "▁الحل",
        -8.831850051879883
      ],
      [
        "لق",
        -8.833017349243164
      ],
      [
        "▁لهم",
        -8.834528923034668
      ],
      [
        "▁بش",
        -8.83564281463623
      ],
      [
        "▁الدار",
        -8.836408615112305
      ],
      [
        "▁الحكاية",
        -8.837780952453613
      ],
      [
        "▁راجل",
        -8.839722633361816
      ],
      [
        "▁رح",
        -8.840804100036621
      ],
      [
        "الي",
        -8.841632843017578
      ],
      [
        "▁نوع",
        -8.842146873474121
      ],
      [
        "▁جد",
        -8.843124389648438
      ],
      [
        "▁ها",
        -8.843289375305176
      ],
      [
        "▁دون",
        -8.843780517578125
      ],
      [
        "▁C",
        -8.84389877319336
      ],
      [
        "▁الصح",
        -8.845165252685547
      ],
      [
        "▁وبارك",
        -8.845967292785645
      ],
      [
        "▁الرحمن",
        -8.847832679748535
      ],
      [
        "▁مرا",
        -8.84793472290039
      ],
      [
        "😢😢",
        -8.849225997924805
      ],
      [
        "or",
        -8.850735664367676
      ],
      [
        "صدق",
        -8.850754737854004
      ],
      [
        "خت",
        -8.85279369354248
      ],
      [
        "▁ساعة",
        -8.853696823120117
      ],
      [
        "▁عندما",
        -8.854140281677246
      ],
      [
        "on",
        -8.854368209838867
      ],
      [
        "▁المت",
        -8.855504989624023
      ],
      [
        "▁بسم",
        -8.857291221618652
      ],
      [
        "▁وليت",
        -8.857589721679688
      ],
      [
        "▁هاذا",
        -8.859530448913574
      ],
      [
        "▁فعل",
        -8.859685897827148
      ],
      [
        "wa",
        -8.859703063964844
      ],
      [
        "▁ليوم",
        -8.860082626342773
      ],
      [
        "▁تجي",
        -8.860125541687012
      ],
      [
        "▁مليون",
        -8.860758781433105
      ],
      [
        "حت",
        -8.86083984375
      ],
      [
        "راه",
        -8.861098289489746
      ],
      [
        "رج",
        -8.863604545593262
      ],
      [
        "▁رضي",
        -8.86372184753418
      ],
      [
        "ذي",
        -8.864635467529297
      ],
      [
        "▁طيبة",
        -8.865724563598633
      ],
      [
        "▁اتمنى",
        -8.866342544555664
      ],
      [
        "▁شوي",
        -8.86795711517334
      ],
      [
        "▁انك",
        -8.869196891784668
      ],
      [
        "▁ياارب",
        -8.869732856750488
      ],
      [
        "▁هدي",
        -8.870198249816895
      ],
      [
        "▁جميل",
        -8.87375259399414
      ],
      [
        "▁جديدة",
        -8.874882698059082
      ],
      [
        "قال",
        -8.8751802444458
      ],
      [
        "▁😭😭",
        -8.878700256347656
      ],
      [
        "كن",
        -8.878905296325684
      ],
      [
        "▁قريت",
        -8.879043579101562
      ],
      [
        "▁تاريخ",
        -8.879334449768066
      ],
      [
        "شر",
        -8.880660057067871
      ],
      [
        "▁ولد",
        -8.881387710571289
      ],
      [
        "▁الليل",
        -8.882400512695312
      ],
      [
        "▁عندها",
        -8.883885383605957
      ],
      [
        "▁!!",
        -8.883953094482422
      ],
      [
        "يها",
        -8.88471794128418
      ],
      [
        "خر",
        -8.885072708129883
      ],
      [
        "ir",
        -8.885576248168945
      ],
      [
        "شعر",
        -8.886147499084473
      ],
      [
        "▁لع",
        -8.886313438415527
      ],
      [
        "▁قلب",
        -8.887438774108887
      ],
      [
        "bi",
        -8.88748836517334
      ],
      [
        "يح",
        -8.887685775756836
      ],
      [
        "▁شوية",
        -8.888834953308105
      ],
      [
        "ro",
        -8.88915729522705
      ],
      [
        "▁مرت",
        -8.889935493469238
      ],
      [
        "▁وقال",
        -8.891709327697754
      ],
      [
        "▁تقدر",
        -8.891913414001465
      ],
      [
        "جل",
        -8.892383575439453
      ],
      [
        "▁خلاص",
        -8.89281177520752
      ],
      [
        "▁F",
        -8.892851829528809
      ],
      [
        "مثل",
        -8.895123481750488
      ],
      [
        "▁تعليق",
        -8.895981788635254
      ],
      [
        "▁تحيا",
        -8.897385597229004
      ],
      [
        "▁فت",
        -8.897791862487793
      ],
      [
        "▁الرعب",
        -8.897798538208008
      ],
      [
        "▁كاش",
        -8.897956848144531
      ],
      [
        "بعد",
        -8.898274421691895
      ],
      [
        "قي",
        -8.898836135864258
      ],
      [
        "▁ايا",
        -8.89932632446289
      ],
      [
        "▁بخير",
        -8.899473190307617
      ],
      [
        "▁وإن",
        -8.900047302246094
      ],
      [
        "et",
        -8.90130615234375
      ],
      [
        "خير",
        -8.90330982208252
      ],
      [
        "▁تس",
        -8.90402889251709
      ],
      [
        "▁انو",
        -8.904184341430664
      ],
      [
        "me",
        -8.904413223266602
      ],
      [
        "▁20",
        -8.905096054077148
      ],
      [
        "سب",
        -8.906797409057617
      ],
      [
        "حسن",
        -8.906879425048828
      ],
      [
        "▁شابة",
        -8.906886100769043
      ],
      [
        "▁جي",
        -8.908140182495117
      ],
      [
        "00",
        -8.90874195098877
      ],
      [
        "▁فأ",
        -8.909895896911621
      ],
      [
        "▁الر",
        -8.910167694091797
      ],
      [
        "▁وليس",
        -8.910774230957031
      ],
      [
        "وهم",
        -8.91083812713623
      ],
      [
        "▁نروح",
        -8.912139892578125
      ],
      [
        "▁H",
        -8.91260814666748
      ],
      [
        "▁فإن",
        -8.914446830749512
      ],
      [
        "جيب",
        -8.91483211517334
      ],
      [
        "▁يدي",
        -8.915657997131348
      ],
      [
        "▁ديري",
        -8.916414260864258
      ],
      [
        "طور",
        -8.917041778564453
      ],
      [
        "▁شر",
        -8.918953895568848
      ],
      [
        "▁شعب",
        -8.91977596282959
      ],
      [
        "▁شاءلله",
        -8.919960021972656
      ],
      [
        "am",
        -8.920278549194336
      ],
      [
        "▁ou",
        -8.920282363891602
      ],
      [
        "▁k",
        -8.921673774719238
      ],
      [
        "▁‏",
        -8.922401428222656
      ],
      [
        "▁0",
        -8.923020362854004
      ],
      [
        "kh",
        -8.923042297363281
      ],
      [
        "▁مواضيع",
        -8.923140525817871
      ],
      [
        "▁حيث",
        -8.9231538772583
      ],
      [
        "▁نفهم",
        -8.923914909362793
      ],
      [
        "▁معانا",
        -8.924294471740723
      ],
      [
        "▁تهدر",
        -8.924745559692383
      ],
      [
        "▁فلسطين",
        -8.924856185913086
      ],
      [
        "يني",
        -8.92540454864502
      ],
      [
        "▁مسلم",
        -8.926594734191895
      ],
      [
        "▁السنة",
        -8.92660140991211
      ],
      [
        "▁فرحة",
        -8.927931785583496
      ],
      [
        "عود",
        -8.928269386291504
      ],
      [
        "▁مقترحات",
        -8.928787231445312
      ],
      [
        "▁حسب",
        -8.930150985717773
      ],
      [
        "▁صاحب",
        -8.930525779724121
      ],
      [
        "▁N",
        -8.931333541870117
      ],
      [
        "▁انه",
        -8.932038307189941
      ],
      [
        "▁العمل",
        -8.932218551635742
      ],
      [
        "▁بدون",
        -8.932708740234375
      ],
      [
        "▁بأن",
        -8.933587074279785
      ],
      [
        "▁لايك",
        -8.93391227722168
      ],
      [
        "▁فيديوهات",
        -8.93437385559082
      ],
      [
        "▁نورمال",
        -8.936010360717773
      ],
      [
        "دخل",
        -8.93645191192627
      ],
      [
        "ce",
        -8.936530113220215
      ],
      [
        "ek",
        -8.937392234802246
      ],
      [
        "▁وانت",
        -8.937444686889648
      ],
      [
        "▁تش",
        -8.93825912475586
      ],
      [
        "▁😍",
        -8.938526153564453
      ],
      [
        "دار",
        -8.938774108886719
      ],
      [
        "▁محل",
        -8.939220428466797
      ],
      [
        "▁وأن",
        -8.939915657043457
      ],
      [
        "▁جات",
        -8.940224647521973
      ],
      [
        "🥺",
        -8.940313339233398
      ],
      [
        "▁شكراا",
        -8.942089080810547
      ],
      [
        "قة",
        -8.942991256713867
      ],
      [
        "▁re",
        -8.943297386169434
      ],
      [
        "▁نفسي",
        -8.945433616638184
      ],
      [
        "lo",
        -8.945576667785645
      ],
      [
        "هن",
        -8.947562217712402
      ],
      [
        "▁14",
        -8.947831153869629
      ],
      [
        "▁W",
        -8.948517799377441
      ],
      [
        "▁وعليكم",
        -8.949782371520996
      ],
      [
        "طل",
        -8.952813148498535
      ],
      [
        "▁لقد",
        -8.953878402709961
      ],
      [
        "كس",
        -8.95513916015625
      ],
      [
        "▁الص",
        -8.955229759216309
      ],
      [
        "سر",
        -8.955720901489258
      ],
      [
        "▁خوتي",
        -8.955792427062988
      ],
      [
        "▁شكر",
        -8.955974578857422
      ],
      [
        "▁والت",
        -8.958444595336914
      ],
      [
        "▁تح",
        -8.958918571472168
      ],
      [
        "▁دو",
        -8.959392547607422
      ],
      [
        "🎉",
        -8.959486961364746
      ],
      [
        "▁=",
        -8.961480140686035
      ],
      [
        "▁مال",
        -8.962069511413574
      ],
      [
        "▁نور",
        -8.962525367736816
      ],
      [
        "▁هكذا",
        -8.962869644165039
      ],
      [
        "▁to",
        -8.963872909545898
      ],
      [
        "▁رجل",
        -8.964632034301758
      ],
      [
        "قدر",
        -8.965240478515625
      ],
      [
        "▁كبيرة",
        -8.965359687805176
      ],
      [
        "▁يقدر",
        -8.966157913208008
      ],
      [
        "▁in",
        -8.967988014221191
      ],
      [
        "▁مشكل",
        -8.96900463104248
      ],
      [
        "▁ha",
        -8.972503662109375
      ],
      [
        "خرج",
        -8.972648620605469
      ],
      [
        "est",
        -8.97380256652832
      ],
      [
        "▁فيكم",
        -8.974449157714844
      ],
      [
        "▁كن",
        -8.975153923034668
      ],
      [
        "▁سب",
        -8.978494644165039
      ],
      [
        "▁نبدا",
        -8.97896957397461
      ],
      [
        "▁قر",
        -8.979057312011719
      ],
      [
        "▁تجيب",
        -8.979116439819336
      ],
      [
        "▁g",
        -8.979512214660645
      ],
      [
        "▁سورة",
        -8.980090141296387
      ],
      [
        "تكم",
        -8.980137825012207
      ],
      [
        "▁L",
        -8.980510711669922
      ],
      [
        "فو",
        -8.981719017028809
      ],
      [
        "مس",
        -8.98183536529541
      ],
      [
        "زا",
        -8.982427597045898
      ],
      [
        "▁مازال",
        -8.983936309814453
      ],
      [
        "▁راكم",
        -8.986165046691895
      ],
      [
        "سا",
        -8.986465454101562
      ],
      [
        "E",
        -8.986538887023926
      ],
      [
        "اتي",
        -8.986994743347168
      ],
      [
        "ولا",
        -8.987189292907715
      ],
      [
        "▁أبي",
        -8.988086700439453
      ],
      [
        "▁أول",
        -8.989952087402344
      ],
      [
        "aw",
        -8.990126609802246
      ],
      [
        "▁فهم",
        -8.990196228027344
      ],
      [
        "▁كلام",
        -8.99051284790039
      ],
      [
        "▁دخلت",
        -8.991778373718262
      ],
      [
        "رقي",
        -8.994070053100586
      ],
      [
        "▁الجزء",
        -8.994610786437988
      ],
      [
        "▁أمر",
        -8.994709014892578
      ],
      [
        "رى",
        -8.995092391967773
      ],
      [
        "▁سلم",
        -8.997335433959961
      ],
      [
        "▁وقد",
        -8.99856948852539
      ],
      [
        "▁سم",
        -8.998964309692383
      ],
      [
        "نى",
        -8.999375343322754
      ],
      [
        "▁هيا",
        -9.00072956085205
      ],
      [
        "▁زعما",
        -9.000988960266113
      ],
      [
        "T",
        -9.00159740447998
      ],
      [
        "▁الط",
        -9.001933097839355
      ],
      [
        "ضح",
        -9.00228500366211
      ],
      [
        "▁طول",
        -9.002761840820312
      ],
      [
        "▁عجبتني",
        -9.003108978271484
      ],
      [
        "▁وحدي",
        -9.003568649291992
      ],
      [
        "▁ين",
        -9.004016876220703
      ],
      [
        "il",
        -9.004093170166016
      ],
      [
        "بن",
        -9.004315376281738
      ],
      [
        "▁فقد",
        -9.009614944458008
      ],
      [
        "▁جميعا",
        -9.010391235351562
      ],
      [
        "▁عودة",
        -9.010976791381836
      ],
      [
        "▁مثلا",
        -9.011330604553223
      ],
      [
        "▁لول",
        -9.012274742126465
      ],
      [
        "▁اخت",
        -9.012746810913086
      ],
      [
        "▁عين",
        -9.012887001037598
      ],
      [
        "ائي",
        -9.013453483581543
      ],
      [
        "▁حكم",
        -9.016921043395996
      ],
      [
        "is",
        -9.017297744750977
      ],
      [
        "به",
        -9.018990516662598
      ],
      [
        "▁عز",
        -9.019125938415527
      ],
      [
        "▁الوكيل",
        -9.020746231079102
      ],
      [
        "▁P",
        -9.021382331848145
      ],
      [
        "يرة",
        -9.022578239440918
      ],
      [
        "▁الكثير",
        -9.02379322052002
      ],
      [
        "▁🎉",
        -9.025303840637207
      ],
      [
        "▁القلب",
        -9.025691986083984
      ],
      [
        "▁القمة",
        -9.02768611907959
      ],
      [
        "🤍",
        -9.027755737304688
      ],
      [
        "طو",
        -9.02780532836914
      ],
      [
        "حق",
        -9.028048515319824
      ],
      [
        "▁شاف",
        -9.029556274414062
      ],
      [
        "سمع",
        -9.030975341796875
      ],
      [
        "وق",
        -9.031206130981445
      ],
      [
        "▁عندنا",
        -9.031473159790039
      ],
      [
        "يع",
        -9.033337593078613
      ],
      [
        "▁الفاضل",
        -9.033544540405273
      ],
      [
        "▁حد",
        -9.034055709838867
      ],
      [
        "▁بركاته",
        -9.035032272338867
      ],
      [
        "لكم",
        -9.035357475280762
      ],
      [
        "▁خوف",
        -9.037195205688477
      ],
      [
        "▁هذو",
        -9.038588523864746
      ],
      [
        "قام",
        -9.038678169250488
      ],
      [
        "جن",
        -9.04051399230957
      ],
      [
        "▁مبارك",
        -9.040620803833008
      ],
      [
        "▁لدي",
        -9.042285919189453
      ],
      [
        "M",
        -9.042522430419922
      ],
      [
        "▁خلق",
        -9.043522834777832
      ],
      [
        "▁عدد",
        -9.045370101928711
      ],
      [
        "▁ولاد",
        -9.045783042907715
      ],
      [
        "قرا",
        -9.046000480651855
      ],
      [
        "▁حي",
        -9.048395156860352
      ],
      [
        "راس",
        -9.048888206481934
      ],
      [
        "▁تاعي",
        -9.049139976501465
      ],
      [
        "غني",
        -9.050153732299805
      ],
      [
        "راء",
        -9.05062198638916
      ],
      [
        "عل",
        -9.050647735595703
      ],
      [
        "▁دور",
        -9.050814628601074
      ],
      [
        "▁ابوني",
        -9.050929069519043
      ],
      [
        "؛",
        -9.051753044128418
      ],
      [
        "!!",
        -9.051816940307617
      ],
      [
        "مع",
        -9.05185604095459
      ],
      [
        "I",
        -9.051858901977539
      ],
      [
        "رسل",
        -9.052726745605469
      ],
      [
        "▁يدخل",
        -9.05342960357666
      ],
      [
        "▁صرا",
        -9.053742408752441
      ],
      [
        "▁تحية",
        -9.054349899291992
      ],
      [
        "▁خرج",
        -9.054414749145508
      ],
      [
        "▁نسيت",
        -9.054739952087402
      ],
      [
        "▁v",
        -9.055537223815918
      ],
      [
        "قص",
        -9.056510925292969
      ],
      [
        "صف",
        -9.056985855102539
      ],
      [
        "▁تعلم",
        -9.057626724243164
      ],
      [
        "se",
        -9.05789852142334
      ],
      [
        "▁ملي",
        -9.057924270629883
      ],
      [
        "▁te",
        -9.058757781982422
      ],
      [
        "حا",
        -9.059545516967773
      ],
      [
        "كش",
        -9.060346603393555
      ],
      [
        "▁نق",
        -9.060562133789062
      ],
      [
        "وز",
        -9.06075382232666
      ],
      [
        "▁مكاش",
        -9.061205863952637
      ],
      [
        "▁مك",
        -9.061399459838867
      ],
      [
        "▁الام",
        -9.063955307006836
      ],
      [
        "▁الإسلام",
        -9.064156532287598
      ],
      [
        "▁✨",
        -9.06427001953125
      ],
      [
        "▁ارجو",
        -9.065563201904297
      ],
      [
        "اوي",
        -9.068114280700684
      ],
      [
        "▁be",
        -9.071192741394043
      ],
      [
        "▁نكون",
        -9.071267127990723
      ],
      [
        "▁en",
        -9.072202682495117
      ],
      [
        "ورة",
        -9.072284698486328
      ],
      [
        "▁رائعة",
        -9.073148727416992
      ],
      [
        "▁سأ",
        -9.073686599731445
      ],
      [
        "▁نموت",
        -9.073925971984863
      ],
      [
        "▁حياتك",
        -9.074586868286133
      ],
      [
        "▁الجزائري",
        -9.074905395507812
      ],
      [
        "▁والديك",
        -9.075629234313965
      ],
      [
        "طي",
        -9.075767517089844
      ],
      [
        "▁عالم",
        -9.075965881347656
      ],
      [
        "▁الجلفة",
        -9.076887130737305
      ],
      [
        "▁واصل",
        -9.077664375305176
      ],
      [
        "▁أخرى",
        -9.077956199645996
      ],
      [
        "▁هذاك",
        -9.078109741210938
      ],
      [
        "▁دا",
        -9.078341484069824
      ],
      [
        "▁ينجحك",
        -9.078781127929688
      ],
      [
        "▁تعيشي",
        -9.0789794921875
      ],
      [
        "▁المغرب",
        -9.079547882080078
      ],
      [
        "نة",
        -9.080872535705566
      ],
      [
        "’",
        -9.081049919128418
      ],
      [
        "▁يرحمها",
        -9.083148956298828
      ],
      [
        "▁الحال",
        -9.083320617675781
      ],
      [
        "▁رحم",
        -9.083365440368652
      ],
      [
        "▁كتب",
        -9.084555625915527
      ],
      [
        "يوم",
        -9.085136413574219
      ],
      [
        "جاب",
        -9.08531379699707
      ],
      [
        "\r",
        -9.08559513092041
      ],
      [
        "▁العربي",
        -9.085763931274414
      ],
      [
        "▁ra",
        -9.086167335510254
      ],
      [
        "▁40",
        -9.086182594299316
      ],
      [
        "▁لعزيز",
        -9.087776184082031
      ],
      [
        "▁تف",
        -9.088396072387695
      ],
      [
        "▁يد",
        -9.088497161865234
      ],
      [
        "▁حرام",
        -9.08859634399414
      ],
      [
        "▁كر",
        -9.088747024536133
      ],
      [
        "شكر",
        -9.089213371276855
      ],
      [
        "▁قسم",
        -9.08928394317627
      ],
      [
        "▁بت",
        -9.090853691101074
      ],
      [
        "de",
        -9.092188835144043
      ],
      [
        "▁🇩🇿",
        -9.092351913452148
      ],
      [
        "حة",
        -9.09279727935791
      ],
      [
        "نفس",
        -9.092818260192871
      ],
      [
        "▁حتا",
        -9.092979431152344
      ],
      [
        "▁i",
        -9.093099594116211
      ],
      [
        "راك",
        -9.093219757080078
      ],
      [
        "▁بلييز",
        -9.094562530517578
      ],
      [
        "همش",
        -9.095107078552246
      ],
      [
        "▁هاذو",
        -9.095389366149902
      ],
      [
        "▁تخوف",
        -9.096101760864258
      ],
      [
        "A",
        -9.097505569458008
      ],
      [
        "▁المشكل",
        -9.098125457763672
      ],
      [
        "▁الحديث",
        -9.098138809204102
      ],
      [
        "▁ديت",
        -9.098191261291504
      ],
      [
        "او",
        -9.098487854003906
      ],
      [
        "▁ايام",
        -9.098774909973145
      ],
      [
        "بار",
        -9.098904609680176
      ],
      [
        "▁مشاء",
        -9.099353790283203
      ],
      [
        "▁داير",
        -9.100045204162598
      ],
      [
        "▁مستجابة",
        -9.10236930847168
      ],
      [
        "ne",
        -9.103364944458008
      ],
      [
        "▁ترك",
        -9.10415267944336
      ],
      [
        "?",
        -9.104253768920898
      ],
      [
        "تابع",
        -9.105226516723633
      ],
      [
        "▁بس",
        -9.105579376220703
      ],
      [
        "om",
        -9.10566520690918
      ],
      [
        "▁سبب",
        -9.106201171875
      ],
      [
        "تلي",
        -9.106764793395996
      ],
      [
        "▁خاص",
        -9.106950759887695
      ],
      [
        "▁الأول",
        -9.107229232788086
      ],
      [
        "▁هادا",
        -9.107900619506836
      ],
      [
        "حد",
        -9.108064651489258
      ],
      [
        "▁يرزقك",
        -9.108287811279297
      ],
      [
        "▁لمن",
        -9.110057830810547
      ],
      [
        "ضي",
        -9.110260009765625
      ],
      [
        "▁مليحة",
        -9.112091064453125
      ],
      [
        "وري",
        -9.112574577331543
      ],
      [
        "بات",
        -9.113035202026367
      ],
      [
        "▁?",
        -9.113262176513672
      ],
      [
        "▁أمين",
        -9.11364459991455
      ],
      [
        "طلب",
        -9.114303588867188
      ],
      [
        "▁عاد",
        -9.114392280578613
      ],
      [
        "▁#",
        -9.114551544189453
      ],
      [
        "▁ڨاع",
        -9.116106986999512
      ],
      [
        "▁me",
        -9.116536140441895
      ],
      [
        "▁حط",
        -9.116661071777344
      ],
      [
        "▁sa",
        -9.116866111755371
      ],
      [
        "ادي",
        -9.118316650390625
      ],
      [
        "ترك",
        -9.118317604064941
      ],
      [
        "رض",
        -9.118342399597168
      ],
      [
        "علي",
        -9.11872673034668
      ],
      [
        "▁اخرى",
        -9.119545936584473
      ],
      [
        "▁تشوف",
        -9.119670867919922
      ],
      [
        "▁اهل",
        -9.119902610778809
      ],
      [
        "▁ألف",
        -9.120556831359863
      ],
      [
        "▁شوف",
        -9.121464729309082
      ],
      [
        "▁je",
        -9.122488021850586
      ],
      [
        "▁جامي",
        -9.123008728027344
      ],
      [
        "جمع",
        -9.123108863830566
      ],
      [
        "▁خاطر",
        -9.12498950958252
      ],
      [
        "▁اع",
        -9.125720977783203
      ],
      [
        "لح",
        -9.126263618469238
      ],
      [
        "▁ونعم",
        -9.126477241516113
      ],
      [
        "▁داخل",
        -9.126699447631836
      ],
      [
        "▁رحت",
        -9.12695598602295
      ],
      [
        "وط",
        -9.129020690917969
      ],
      [
        "▁صغير",
        -9.1294584274292
      ],
      [
        "▁قدر",
        -9.129643440246582
      ],
      [
        "▁يست",
        -9.129880905151367
      ],
      [
        "▁وكان",
        -9.130474090576172
      ],
      [
        "▁تر",
        -9.130542755126953
      ],
      [
        "▁كنا",
        -9.132165908813477
      ],
      [
        "▁❤️❤️",
        -9.13226318359375
      ],
      [
        "▁اريد",
        -9.132782936096191
      ],
      [
        "😍",
        -9.132882118225098
      ],
      [
        "▁مو",
        -9.133026123046875
      ],
      [
        "▁💔",
        -9.133109092712402
      ],
      [
        "▁ندخل",
        -9.13321590423584
      ],
      [
        "▁قادر",
        -9.133406639099121
      ],
      [
        "بين",
        -9.133971214294434
      ],
      [
        "كر",
        -9.13470458984375
      ],
      [
        "سو",
        -9.13491153717041
      ],
      [
        "▁الرد",
        -9.135050773620605
      ],
      [
        "▁ليلة",
        -9.135736465454102
      ],
      [
        "▁بدا",
        -9.137871742248535
      ],
      [
        "▁اليوتيوب",
        -9.138102531433105
      ],
      [
        "كتب",
        -9.138364791870117
      ],
      [
        "▁يس",
        -9.138758659362793
      ],
      [
        "id",
        -9.138833045959473
      ],
      [
        "▁لانو",
        -9.13968563079834
      ],
      [
        "▁عرفت",
        -9.139760971069336
      ],
      [
        "▁التوفيق",
        -9.140787124633789
      ],
      [
        "▁باقي",
        -9.142027854919434
      ],
      [
        "▁عا",
        -9.142132759094238
      ],
      [
        "بال",
        -9.142434120178223
      ],
      [
        "▁لفيديو",
        -9.142902374267578
      ],
      [
        "▁يجيب",
        -9.142932891845703
      ],
      [
        "وان",
        -9.144155502319336
      ],
      [
        "▁تو",
        -9.144159317016602
      ],
      [
        "عين",
        -9.144181251525879
      ],
      [
        "▁G",
        -9.144312858581543
      ],
      [
        "ايا",
        -9.145963668823242
      ],
      [
        "زيد",
        -9.146101951599121
      ],
      [
        "▁حين",
        -9.147335052490234
      ],
      [
        "▁نديرو",
        -9.147871017456055
      ],
      [
        "▁والسلام",
        -9.149127006530762
      ],
      [
        "▁ينجح",
        -9.14921760559082
      ],
      [
        "▁معاه",
        -9.150751113891602
      ],
      [
        "دع",
        -9.150790214538574
      ],
      [
        "▁ديرو",
        -9.15109634399414
      ],
      [
        "▁رغم",
        -9.151703834533691
      ],
      [
        "▁el",
        -9.152070045471191
      ],
      [
        "▁حياتي",
        -9.152332305908203
      ],
      [
        "▁وفلسفة",
        -9.152482032775879
      ],
      [
        "جو",
        -9.154000282287598
      ],
      [
        "▁جزء",
        -9.154138565063477
      ],
      [
        "▁صحا",
        -9.155244827270508
      ],
      [
        "▁تعليقي",
        -9.156704902648926
      ],
      [
        "▁اعلم",
        -9.15719223022461
      ],
      [
        "▁الاستاذ",
        -9.157800674438477
      ],
      [
        "عمر",
        -9.158283233642578
      ],
      [
        "صل",
        -9.16002082824707
      ],
      [
        "▁فكرة",
        -9.161336898803711
      ],
      [
        "▁يوجد",
        -9.16235065460205
      ],
      [
        "▁خلي",
        -9.163131713867188
      ],
      [
        "▁فديو",
        -9.163848876953125
      ],
      [
        "▁الادب",
        -9.163872718811035
      ],
      [
        "لل",
        -9.163878440856934
      ],
      [
        "▁احد",
        -9.163934707641602
      ],
      [
        "▁ki",
        -9.164642333984375
      ],
      [
        "▁تخرج",
        -9.164694786071777
      ],
      [
        "▁تعب",
        -9.164963722229004
      ],
      [
        "▁جميلة",
        -9.165120124816895
      ],
      [
        "▁خفت",
        -9.165251731872559
      ],
      [
        "▁جزائري",
        -9.165281295776367
      ],
      [
        "زع",
        -9.165881156921387
      ],
      [
        "طن",
        -9.166088104248047
      ],
      [
        "وح",
        -9.166778564453125
      ],
      [
        "▁يجعل",
        -9.167586326599121
      ],
      [
        "▁الجميع",
        -9.167707443237305
      ],
      [
        "▁بلاك",
        -9.168593406677246
      ],
      [
        "شاء",
        -9.16919231414795
      ],
      [
        "عمل",
        -9.169403076171875
      ],
      [
        "▁باغي",
        -9.170029640197754
      ],
      [
        "gh",
        -9.170928001403809
      ],
      [
        "قا",
        -9.170969009399414
      ],
      [
        "ضع",
        -9.170981407165527
      ],
      [
        "شهد",
        -9.17116928100586
      ],
      [
        "▁التاريخ",
        -9.172467231750488
      ],
      [
        "▁p",
        -9.17309284210205
      ],
      [
        "زوج",
        -9.173410415649414
      ],
      [
        "▁حم",
        -9.173529624938965
      ],
      [
        "عم",
        -9.174056053161621
      ],
      [
        "مات",
        -9.174440383911133
      ],
      [
        "قلب",
        -9.17479133605957
      ],
      [
        "▁كانو",
        -9.17586612701416
      ],
      [
        "▁جاء",
        -9.175938606262207
      ],
      [
        "▁خط",
        -9.176186561584473
      ],
      [
        "▁صار",
        -9.177690505981445
      ],
      [
        "▁ايضا",
        -9.177816390991211
      ],
      [
        "▁شاءالله",
        -9.178177833557129
      ],
      [
        "▁اب",
        -9.17822551727295
      ],
      [
        "▁عم",
        -9.179113388061523
      ],
      [
        "▁غريب",
        -9.180119514465332
      ],
      [
        "حفظ",
        -9.180237770080566
      ],
      [
        "ولو",
        -9.180519104003906
      ],
      [
        "ol",
        -9.181553840637207
      ],
      [
        "▁وصل",
        -9.18195915222168
      ],
      [
        "قطع",
        -9.182159423828125
      ],
      [
        "▁Ma",
        -9.1835355758667
      ],
      [
        "▁ولو",
        -9.18356990814209
      ],
      [
        "▁عندهم",
        -9.183849334716797
      ],
      [
        "▁نفسه",
        -9.184724807739258
      ],
      [
        "▁باذن",
        -9.185954093933105
      ],
      [
        "▁ض",
        -9.1860990524292
      ],
      [
        "▁الدعاء",
        -9.18647289276123
      ],
      [
        "ab",
        -9.186874389648438
      ],
      [
        "▁🥺",
        -9.186991691589355
      ],
      [
        "رار",
        -9.187431335449219
      ],
      [
        "▁video",
        -9.189918518066406
      ],
      [
        "▁تقبل",
        -9.190217018127441
      ],
      [
        "▁قالت",
        -9.190628051757812
      ],
      [
        "▁رقم",
        -9.190701484680176
      ],
      [
        "▁مور",
        -9.190860748291016
      ],
      [
        "وض",
        -9.192981719970703
      ],
      [
        "▁بكري",
        -9.19347858428955
      ],
      [
        "▁نجيبو",
        -9.193953514099121
      ],
      [
        "▁البر",
        -9.194268226623535
      ],
      [
        "▁الدروس",
        -9.19511890411377
      ],
      [
        "to",
        -9.196657180786133
      ],
      [
        "غر",
        -9.19798469543457
      ],
      [
        "▁نصيحة",
        -9.198391914367676
      ],
      [
        "▁عباد",
        -9.19849681854248
      ],
      [
        "▁الأخ",
        -9.198748588562012
      ],
      [
        "رجع",
        -9.199128150939941
      ],
      [
        "▁ضحك",
        -9.199150085449219
      ],
      [
        "▁معنا",
        -9.200785636901855
      ],
      [
        "▁bac",
        -9.201815605163574
      ],
      [
        "اللهم",
        -9.203146934509277
      ],
      [
        "▁يشوف",
        -9.203925132751465
      ],
      [
        "O",
        -9.204690933227539
      ],
      [
        "راد",
        -9.205275535583496
      ],
      [
        "▁ba",
        -9.205891609191895
      ],
      [
        "▁ريضا",
        -9.206249237060547
      ],
      [
        "ائد",
        -9.208837509155273
      ],
      [
        "▁سلسلة",
        -9.208864212036133
      ],
      [
        "▁مين",
        -9.210532188415527
      ],
      [
        "▁اداب",
        -9.21054744720459
      ],
      [
        "▁يش",
        -9.211291313171387
      ],
      [
        "▁خبر",
        -9.21142292022705
      ],
      [
        "خوف",
        -9.212130546569824
      ],
      [
        "▁منك",
        -9.212920188903809
      ],
      [
        "أن",
        -9.213114738464355
      ],
      [
        "▁طا",
        -9.214017868041992
      ],
      [
        "▁وزيد",
        -9.214018821716309
      ],
      [
        "▁يديرو",
        -9.21562385559082
      ],
      [
        "▁🤍",
        -9.215749740600586
      ],
      [
        "▁رجع",
        -9.21617603302002
      ],
      [
        "ده",
        -9.216300964355469
      ],
      [
        "▁الطيب",
        -9.216523170471191
      ],
      [
        "تل",
        -9.217440605163574
      ],
      [
        "▁القناة",
        -9.217641830444336
      ],
      [
        "ذر",
        -9.217884063720703
      ],
      [
        "هما",
        -9.218318939208984
      ],
      [
        "▁وجزاك",
        -9.219013214111328
      ],
      [
        "▁«",
        -9.220200538635254
      ],
      [
        "▁11",
        -9.220232963562012
      ],
      [
        "▁جبت",
        -9.220233917236328
      ],
      [
        "▁سيد",
        -9.220587730407715
      ],
      [
        "▁يخليك",
        -9.221524238586426
      ],
      [
        "▁النص",
        -9.222077369689941
      ],
      [
        "▁ادعو",
        -9.222139358520508
      ],
      [
        "عجب",
        -9.22327709197998
      ],
      [
        "▁كا",
        -9.223649978637695
      ],
      [
        "▁اغفر",
        -9.223992347717285
      ],
      [
        "▁😅😅",
        -9.22400188446045
      ],
      [
        "S",
        -9.224791526794434
      ],
      [
        "تعرف",
        -9.225107192993164
      ],
      [
        "شكرا",
        -9.226173400878906
      ],
      [
        "سف",
        -9.226448059082031
      ],
      [
        "▁تدخل",
        -9.226590156555176
      ],
      [
        "طيب",
        -9.227559089660645
      ],
      [
        "▁الانسان",
        -9.227945327758789
      ],
      [
        "▁لحكاية",
        -9.228514671325684
      ],
      [
        "▁والأ",
        -9.229207038879395
      ],
      [
        "▁الإنسان",
        -9.229506492614746
      ],
      [
        "▁عمي",
        -9.229978561401367
      ],
      [
        "▁اكبر",
        -9.23114013671875
      ],
      [
        "▁o",
        -9.232085227966309
      ],
      [
        "▁جل",
        -9.232123374938965
      ],
      [
        "▁ديما",
        -9.232442855834961
      ],
      [
        "▁هاك",
        -9.232583999633789
      ],
      [
        "▁ربما",
        -9.233247756958008
      ],
      [
        "D",
        -9.233511924743652
      ],
      [
        "▁ليست",
        -9.233930587768555
      ],
      [
        "▁ات",
        -9.234715461730957
      ],
      [
        "▁ولكل",
        -9.234851837158203
      ],
      [
        "▁مفهمتش",
        -9.23504638671875
      ],
      [
        "▁النار",
        -9.235801696777344
      ],
      [
        "▁الاسلام",
        -9.23654842376709
      ],
      [
        "▁cha",
        -9.236748695373535
      ],
      [
        "▁🤲🤲",
        -9.236862182617188
      ],
      [
        "▁ga",
        -9.23735523223877
      ],
      [
        "ve",
        -9.237564086914062
      ],
      [
        "▁بسبب",
        -9.23771858215332
      ],
      [
        "رش",
        -9.238072395324707
      ],
      [
        "بد",
        -9.238133430480957
      ],
      [
        "يلة",
        -9.23831558227539
      ],
      [
        "▁راكليطا",
        -9.238865852355957
      ],
      [
        "حاول",
        -9.239252090454102
      ],
      [
        "جة",
        -9.239349365234375
      ],
      [
        "وار",
        -9.239535331726074
      ],
      [
        "▁اجعل",
        -9.239542961120605
      ],
      [
        "▁البيت",
        -9.23985481262207
      ],
      [
        "قدم",
        -9.240659713745117
      ],
      [
        "▁_",
        -9.241134643554688
      ],
      [
        "▁لب",
        -9.241182327270508
      ],
      [
        "▁أتمنى",
        -9.242754936218262
      ],
      [
        "ine",
        -9.242785453796387
      ],
      [
        "فضل",
        -9.242898941040039
      ],
      [
        "وية",
        -9.242956161499023
      ],
      [
        "▁خلال",
        -9.24334716796875
      ],
      [
        "💗",
        -9.243814468383789
      ],
      [
        "▁مخ",
        -9.243887901306152
      ],
      [
        "حكم",
        -9.244312286376953
      ],
      [
        "▁تروح",
        -9.244338989257812
      ],
      [
        "▁لينا",
        -9.244365692138672
      ],
      [
        "▁الث",
        -9.244582176208496
      ],
      [
        "🏻",
        -9.244966506958008
      ],
      [
        "▁فهو",
        -9.245009422302246
      ],
      [
        "طة",
        -9.245094299316406
      ],
      [
        "▁باينة",
        -9.24510669708252
      ],
      [
        "▁المرأة",
        -9.245232582092285
      ],
      [
        "▁وإ",
        -9.246350288391113
      ],
      [
        "▁جو",
        -9.246431350708008
      ],
      [
        "▁هادو",
        -9.246556282043457
      ],
      [
        "يدي",
        -9.246578216552734
      ],
      [
        "زم",
        -9.246660232543945
      ],
      [
        "▁اصلا",
        -9.246878623962402
      ],
      [
        "▁طيب",
        -9.24720573425293
      ],
      [
        "▁المع",
        -9.2492036819458
      ],
      [
        "▁is",
        -9.249396324157715
      ],
      [
        "عيد",
        -9.24985122680664
      ],
      [
        "▁الحقيقة",
        -9.249917030334473
      ],
      [
        "▁we",
        -9.250272750854492
      ],
      [
        "▁صالح",
        -9.250293731689453
      ],
      [
        "▁أيضا",
        -9.251581192016602
      ],
      [
        "▁لكي",
        -9.251959800720215
      ],
      [
        "▁تق",
        -9.252579689025879
      ],
      [
        "▁اجمعين",
        -9.254395484924316
      ],
      [
        "▁عضو",
        -9.255167007446289
      ],
      [
        "شرف",
        -9.25593090057373
      ],
      [
        "▁na",
        -9.25651741027832
      ],
      [
        "طار",
        -9.256580352783203
      ],
      [
        "▁كال",
        -9.257320404052734
      ],
      [
        "بس",
        -9.258284568786621
      ],
      [
        "نع",
        -9.25905990600586
      ],
      [
        "حو",
        -9.259062767028809
      ],
      [
        "▁ادا",
        -9.259157180786133
      ],
      [
        "تعلم",
        -9.259201049804688
      ],
      [
        "صا",
        -9.260150909423828
      ],
      [
        "سة",
        -9.26148509979248
      ],
      [
        "بدا",
        -9.261994361877441
      ],
      [
        "▁ريدكس",
        -9.263541221618652
      ],
      [
        "▁تل",
        -9.263630867004395
      ],
      [
        "▁ne",
        -9.264606475830078
      ],
      [
        "▁شيكور",
        -9.265263557434082
      ],
      [
        "مام",
        -9.265609741210938
      ],
      [
        "تعب",
        -9.266032218933105
      ],
      [
        "▁لغات",
        -9.26638126373291
      ],
      [
        "▁الأمر",
        -9.267046928405762
      ],
      [
        "hom",
        -9.267473220825195
      ],
      [
        "▁ننجحو",
        -9.267884254455566
      ],
      [
        "▁دعواتكم",
        -9.268031120300293
      ],
      [
        "▁صغيرة",
        -9.268827438354492
      ],
      [
        "رين",
        -9.269107818603516
      ],
      [
        "▁جر",
        -9.269671440124512
      ],
      [
        "لام",
        -9.270369529724121
      ],
      [
        "▁نعاود",
        -9.272318840026855
      ],
      [
        "ند",
        -9.273133277893066
      ],
      [
        "▁تاعو",
        -9.2733154296875
      ],
      [
        "▁دراهم",
        -9.273439407348633
      ],
      [
        "▁ري",
        -9.27500057220459
      ],
      [
        "▁R",
        -9.275898933410645
      ],
      [
        "فكر",
        -9.276154518127441
      ],
      [
        "▁يح",
        -9.276510238647461
      ],
      [
        "اري",
        -9.276514053344727
      ],
      [
        "▁صحاب",
        -9.276534080505371
      ],
      [
        "▁Ya",
        -9.276749610900879
      ],
      [
        "ادة",
        -9.276803970336914
      ],
      [
        "▁2023",
        -9.277453422546387
      ],
      [
        "دم",
        -9.27960205078125
      ],
      [
        "▁and",
        -9.279696464538574
      ],
      [
        "kom",
        -9.280094146728516
      ],
      [
        "جز",
        -9.28017807006836
      ],
      [
        "▁باب",
        -9.281745910644531
      ],
      [
        "شار",
        -9.282151222229004
      ],
      [
        "▁13",
        -9.282322883605957
      ],
      [
        "sh",
        -9.283834457397461
      ],
      [
        "▁كريم",
        -9.284260749816895
      ],
      [
        "▁دم",
        -9.284980773925781
      ],
      [
        "▁rabi",
        -9.285008430480957
      ],
      [
        "▁السحر",
        -9.285136222839355
      ],
      [
        "سك",
        -9.285780906677246
      ],
      [
        "▁لماذا",
        -9.286755561828613
      ],
      [
        "▁عربية",
        -9.28700065612793
      ],
      [
        "ذهب",
        -9.287060737609863
      ],
      [
        "▁so",
        -9.287162780761719
      ],
      [
        "▁در",
        -9.28731632232666
      ],
      [
        "▁pas",
        -9.287899017333984
      ],
      [
        "ll",
        -9.28857707977295
      ],
      [
        "انة",
        -9.288924217224121
      ],
      [
        "وى",
        -9.290224075317383
      ],
      [
        "▁للجميع",
        -9.2918062210083
      ],
      [
        "▁pour",
        -9.291839599609375
      ],
      [
        "▁فقال",
        -9.29222297668457
      ],
      [
        "نو",
        -9.293292999267578
      ],
      [
        "▁🎉🎉",
        -9.293463706970215
      ],
      [
        "▁كثير",
        -9.294576644897461
      ],
      [
        "ائم",
        -9.295056343078613
      ],
      [
        "▁يخرج",
        -9.295058250427246
      ],
      [
        "nd",
        -9.295509338378906
      ],
      [
        "كبر",
        -9.296675682067871
      ],
      [
        "▁يرحمو",
        -9.296746253967285
      ],
      [
        "▁يقولو",
        -9.29715633392334
      ],
      [
        "▁سما",
        -9.297287940979004
      ],
      [
        "▁التعليق",
        -9.297595977783203
      ],
      [
        "▁حا",
        -9.298131942749023
      ],
      [
        "غير",
        -9.298552513122559
      ],
      [
        "▁الرجل",
        -9.299057960510254
      ],
      [
        "▁الاخ",
        -9.299420356750488
      ],
      [
        "▁وكي",
        -9.299638748168945
      ],
      [
        "▁قدام",
        -9.299925804138184
      ],
      [
        "000",
        -9.300382614135742
      ],
      [
        "هرب",
        -9.300467491149902
      ],
      [
        "جه",
        -9.300980567932129
      ],
      [
        "مين",
        -9.301697731018066
      ],
      [
        "▁نلقا",
        -9.302867889404297
      ],
      [
        "▁للباك",
        -9.302990913391113
      ],
      [
        "▁الحر",
        -9.303057670593262
      ],
      [
        "▁بيت",
        -9.304086685180664
      ],
      [
        "ی",
        -9.304823875427246
      ],
      [
        "▁فرح",
        -9.305102348327637
      ],
      [
        "رف",
        -9.30536937713623
      ],
      [
        "▁النفس",
        -9.305618286132812
      ],
      [
        "▁فضلكم",
        -9.30562973022461
      ],
      [
        "▁أحسن",
        -9.306059837341309
      ],
      [
        "ينة",
        -9.30685806274414
      ],
      [
        "▁الموت",
        -9.307291984558105
      ],
      [
        "ja",
        -9.307531356811523
      ],
      [
        "ناس",
        -9.307826042175293
      ],
      [
        "بان",
        -9.307851791381836
      ],
      [
        "▁ممتاز",
        -9.308675765991211
      ],
      [
        "إن",
        -9.309593200683594
      ],
      [
        "▁الخوف",
        -9.310223579406738
      ],
      [
        "▁الد",
        -9.311543464660645
      ],
      [
        "▁نتوما",
        -9.312307357788086
      ],
      [
        "▁بد",
        -9.312444686889648
      ],
      [
        "كان",
        -9.312520980834961
      ],
      [
        "▁أعلم",
        -9.31317138671875
      ],
      [
        "▁عدم",
        -9.313201904296875
      ],
      [
        "▁فى",
        -9.313308715820312
      ],
      [
        "▁dir",
        -9.313756942749023
      ],
      [
        "بك",
        -9.314103126525879
      ],
      [
        "▁يفرحك",
        -9.314220428466797
      ],
      [
        "▁نجاح",
        -9.314569473266602
      ],
      [
        "▁حفظ",
        -9.314803123474121
      ],
      [
        "▁نفسك",
        -9.315159797668457
      ],
      [
        "خلي",
        -9.31596565246582
      ],
      [
        "ولنا",
        -9.316478729248047
      ],
      [
        "خدم",
        -9.31767463684082
      ],
      [
        "خط",
        -9.318157196044922
      ],
      [
        "▁جاي",
        -9.318864822387695
      ],
      [
        "▁تست",
        -9.319243431091309
      ],
      [
        "ضم",
        -9.319290161132812
      ],
      [
        "▁يق",
        -9.320344924926758
      ],
      [
        "حش",
        -9.320450782775879
      ],
      [
        "فات",
        -9.321195602416992
      ],
      [
        "▁الرسول",
        -9.32129955291748
      ],
      [
        "▁نكمل",
        -9.321380615234375
      ],
      [
        "دن",
        -9.321946144104004
      ],
      [
        "▁تب",
        -9.322230339050293
      ],
      [
        "حط",
        -9.322349548339844
      ],
      [
        "▁نسقسيك",
        -9.322772979736328
      ],
      [
        "ثق",
        -9.322933197021484
      ],
      [
        "▁احب",
        -9.323841094970703
      ],
      [
        "as",
        -9.324918746948242
      ],
      [
        "fi",
        -9.325026512145996
      ],
      [
        "▁الثانية",
        -9.325207710266113
      ],
      [
        "كمل",
        -9.325413703918457
      ],
      [
        "▁توحشناك",
        -9.325422286987305
      ],
      [
        "صبر",
        -9.325550079345703
      ],
      [
        "▁أستاذة",
        -9.32557487487793
      ],
      [
        "▁قمة",
        -9.325732231140137
      ],
      [
        "▁نا",
        -9.325907707214355
      ],
      [
        "احة",
        -9.326178550720215
      ],
      [
        "على",
        -9.326318740844727
      ],
      [
        "▁منذ",
        -9.326465606689453
      ],
      [
        "▁فري",
        -9.327110290527344
      ],
      [
        "▁نفرح",
        -9.327317237854004
      ],
      [
        "▁محب",
        -9.327601432800293
      ],
      [
        "▁غدوة",
        -9.327898979187012
      ],
      [
        "زين",
        -9.327906608581543
      ],
      [
        "▁طفلة",
        -9.328791618347168
      ],
      [
        "خو",
        -9.329185485839844
      ],
      [
        "▁الجزائرية",
        -9.330329895019531
      ],
      [
        "خف",
        -9.33112907409668
      ],
      [
        "▁تلك",
        -9.331335067749023
      ],
      [
        "فعل",
        -9.331405639648438
      ],
      [
        "هدر",
        -9.331683158874512
      ],
      [
        "▁هايل",
        -9.33191967010498
      ],
      [
        "▁des",
        -9.332144737243652
      ],
      [
        "▁for",
        -9.33296012878418
      ],
      [
        "▁بالا",
        -9.33389949798584
      ],
      [
        "▁زاد",
        -9.334888458251953
      ],
      [
        "▁الشكر",
        -9.337136268615723
      ],
      [
        "▁بيهم",
        -9.33717155456543
      ],
      [
        "▁K",
        -9.338445663452148
      ],
      [
        "▁يهدر",
        -9.339282989501953
      ],
      [
        "▁ني",
        -9.339399337768555
      ],
      [
        "ائق",
        -9.339428901672363
      ],
      [
        "▁الرحيم",
        -9.340385437011719
      ],
      [
        "▁Hhh",
        -9.340781211853027
      ],
      [
        "▁تخ",
        -9.34138298034668
      ],
      [
        "إ",
        -9.341902732849121
      ],
      [
        "▁كذلك",
        -9.342096328735352
      ],
      [
        "▁جملة",
        -9.342729568481445
      ],
      [
        "▁الآن",
        -9.345536231994629
      ],
      [
        "▁يحفظ",
        -9.345632553100586
      ],
      [
        "▁ث",
        -9.346253395080566
      ],
      [
        "▁بر",
        -9.346978187561035
      ],
      [
        ").",
        -9.347116470336914
      ],
      [
        "▁بعيد",
        -9.3475341796875
      ],
      [
        "▁تزيد",
        -9.34778881072998
      ],
      [
        "▁الشي",
        -9.348101615905762
      ],
      [
        "▁قادة",
        -9.348149299621582
      ],
      [
        "▁نب",
        -9.34868049621582
      ],
      [
        "دى",
        -9.349123001098633
      ],
      [
        "رقد",
        -9.350995063781738
      ],
      [
        "▁عنها",
        -9.351168632507324
      ],
      [
        "خبر",
        -9.351187705993652
      ],
      [
        "▁مرض",
        -9.352338790893555
      ],
      [
        "▁واه",
        -9.352485656738281
      ],
      [
        "▁نشاء",
        -9.352860450744629
      ],
      [
        "▁J",
        -9.353006362915039
      ],
      [
        "▁انتي",
        -9.353185653686523
      ],
      [
        "▁بنات",
        -9.353293418884277
      ],
      [
        "صب",
        -9.353302955627441
      ],
      [
        "▁العزيز",
        -9.353736877441406
      ],
      [
        "▁r",
        -9.354179382324219
      ],
      [
        "▁wlh",
        -9.354388236999512
      ],
      [
        "▁حسيت",
        -9.354533195495605
      ],
      [
        "🙏",
        -9.3546781539917
      ],
      [
        "▁mn",
        -9.355046272277832
      ],
      [
        "▁لح",
        -9.355058670043945
      ],
      [
        "▁الكو",
        -9.35644817352295
      ],
      [
        "▁شغل",
        -9.358072280883789
      ],
      [
        "▁الاسئلة",
        -9.358349800109863
      ],
      [
        "بقا",
        -9.359743118286133
      ],
      [
        "▁حرة",
        -9.359867095947266
      ],
      [
        "▁المس",
        -9.36004638671875
      ],
      [
        "▁مما",
        -9.360208511352539
      ],
      [
        "😭😭",
        -9.36037826538086
      ],
      [
        "▁mo",
        -9.360556602478027
      ],
      [
        "em",
        -9.361546516418457
      ],
      [
        "▁سحر",
        -9.364123344421387
      ],
      [
        "▁راس",
        -9.364266395568848
      ],
      [
        "زو",
        -9.364339828491211
      ],
      [
        "▁تقرا",
        -9.364503860473633
      ],
      [
        "▁الأم",
        -9.364873886108398
      ],
      [
        "▁باين",
        -9.365273475646973
      ],
      [
        "▁وسهلا",
        -9.365452766418457
      ],
      [
        "▁آل",
        -9.36564826965332
      ],
      [
        "▁بان",
        -9.366301536560059
      ],
      [
        "فع",
        -9.366534233093262
      ],
      [
        "»",
        -9.366707801818848
      ],
      [
        "▁ناجحين",
        -9.367340087890625
      ],
      [
        "ضيف",
        -9.36746883392334
      ],
      [
        "حضر",
        -9.367828369140625
      ],
      [
        "hi",
        -9.367859840393066
      ],
      [
        "سنة",
        -9.367884635925293
      ],
      [
        "▁بقا",
        -9.369690895080566
      ],
      [
        "▁برا",
        -9.370651245117188
      ],
      [
        "▁تولي",
        -9.371275901794434
      ],
      [
        "▁عنده",
        -9.373115539550781
      ],
      [
        "▁ذ",
        -9.374356269836426
      ],
      [
        "جوز",
        -9.37491512298584
      ],
      [
        "▁صراحة",
        -9.374995231628418
      ],
      [
        "جار",
        -9.375358581542969
      ],
      [
        "▁الاولى",
        -9.375406265258789
      ],
      [
        "فتح",
        -9.37541675567627
      ],
      [
        "زن",
        -9.375711441040039
      ],
      [
        "▁Bac",
        -9.375779151916504
      ],
      [
        "▁فرحت",
        -9.37579345703125
      ],
      [
        "▁الطب",
        -9.376470565795898
      ],
      [
        "▁الأرض",
        -9.376566886901855
      ],
      [
        "▁😊😊",
        -9.37757396697998
      ],
      [
        "ثر",
        -9.378003120422363
      ],
      [
        "▁يع",
        -9.379979133605957
      ],
      [
        "▁لهذا",
        -9.380722999572754
      ],
      [
        "صاب",
        -9.380827903747559
      ],
      [
        "▁كتر",
        -9.38095760345459
      ],
      [
        "▁تدير",
        -9.382725715637207
      ],
      [
        "طول",
        -9.384181022644043
      ],
      [
        "ائر",
        -9.384222030639648
      ],
      [
        "طف",
        -9.384331703186035
      ],
      [
        "▁kho",
        -9.384737968444824
      ],
      [
        "▁معاكم",
        -9.385077476501465
      ],
      [
        "▁بلادي",
        -9.385372161865234
      ],
      [
        "▁المح",
        -9.386281967163086
      ],
      [
        "▁سنين",
        -9.38663387298584
      ],
      [
        "▁الطريقة",
        -9.386816024780273
      ],
      [
        "▁nta",
        -9.387354850769043
      ],
      [
        "▁دقيقة",
        -9.3877534866333
      ],
      [
        "بارك",
        -9.387779235839844
      ],
      [
        "▁لعام",
        -9.388128280639648
      ],
      [
        "ent",
        -9.388319969177246
      ],
      [
        "▁الاست",
        -9.38951301574707
      ],
      [
        "نق",
        -9.391411781311035
      ],
      [
        "▁que",
        -9.392390251159668
      ],
      [
        "▁قا",
        -9.392659187316895
      ],
      [
        "mo",
        -9.392701148986816
      ],
      [
        "فرح",
        -9.393529891967773
      ],
      [
        "▁الكل",
        -9.394046783447266
      ],
      [
        "▁تنجح",
        -9.39441204071045
      ],
      [
        "▁يخ",
        -9.394976615905762
      ],
      [
        "oo",
        -9.395002365112305
      ],
      [
        "صار",
        -9.395366668701172
      ],
      [
        "▁المجهر",
        -9.395485877990723
      ],
      [
        "صلح",
        -9.396385192871094
      ],
      [
        "نطق",
        -9.39688777923584
      ],
      [
        "▁kh",
        -9.397955894470215
      ],
      [
        "رات",
        -9.398008346557617
      ],
      [
        "▁se",
        -9.39955997467041
      ],
      [
        "رس",
        -9.399843215942383
      ],
      [
        "▁السياسي",
        -9.399861335754395
      ],
      [
        "▁فما",
        -9.401326179504395
      ],
      [
        "▁مهم",
        -9.401447296142578
      ],
      [
        "▁باسكو",
        -9.401481628417969
      ],
      [
        "زل",
        -9.402446746826172
      ],
      [
        "هد",
        -9.402908325195312
      ],
      [
        "▁الباب",
        -9.40368938446045
      ],
      [
        "▁ساهل",
        -9.403848648071289
      ],
      [
        "قري",
        -9.404484748840332
      ],
      [
        "▁صورة",
        -9.40498161315918
      ],
      [
        "دل",
        -9.4055814743042
      ],
      [
        "▁😍😍",
        -9.405834197998047
      ],
      [
        "فك",
        -9.406142234802246
      ],
      [
        "▁النهار",
        -9.406147956848145
      ],
      [
        "▁هك",
        -9.407553672790527
      ],
      [
        "▁تبارك",
        -9.407654762268066
      ],
      [
        "▁سو",
        -9.407868385314941
      ],
      [
        "افة",
        -9.408649444580078
      ],
      [
        "▁الكلام",
        -9.411303520202637
      ],
      [
        "حسب",
        -9.411524772644043
      ],
      [
        "نسا",
        -9.412321090698242
      ],
      [
        "▁علاقة",
        -9.412559509277344
      ],
      [
        "▁نحس",
        -9.414052963256836
      ],
      [
        "خذ",
        -9.41730785369873
      ],
      [
        "▁كف",
        -9.417895317077637
      ],
      [
        "▁جيب",
        -9.418021202087402
      ],
      [
        "▁فلسفة",
        -9.418045043945312
      ],
      [
        "سخ",
        -9.418391227722168
      ],
      [
        "كرم",
        -9.41999340057373
      ],
      [
        "دية",
        -9.420414924621582
      ],
      [
        "▁عيني",
        -9.420843124389648
      ],
      [
        "▁نقولو",
        -9.42110824584961
      ],
      [
        "lh",
        -9.4215087890625
      ],
      [
        "▁نرقد",
        -9.423986434936523
      ],
      [
        "است",
        -9.424128532409668
      ],
      [
        "ضرب",
        -9.424321174621582
      ],
      [
        "ولك",
        -9.424339294433594
      ],
      [
        "▁يما",
        -9.424543380737305
      ],
      [
        "شوف",
        -9.424763679504395
      ],
      [
        "ia",
        -9.424886703491211
      ],
      [
        "L",
        -9.424894332885742
      ],
      [
        "▁حديث",
        -9.425079345703125
      ],
      [
        "▁روطار",
        -9.42533016204834
      ],
      [
        "زال",
        -9.425528526306152
      ],
      [
        "غا",
        -9.425533294677734
      ],
      [
        "▁شويا",
        -9.426691055297852
      ],
      [
        "▁had",
        -9.428243637084961
      ],
      [
        "حقق",
        -9.428318977355957
      ],
      [
        "▁للا",
        -9.429338455200195
      ],
      [
        "▁السل",
        -9.429757118225098
      ],
      [
        "▁شك",
        -9.430123329162598
      ],
      [
        "▁أبو",
        -9.430155754089355
      ],
      [
        "🤣",
        -9.430282592773438
      ],
      [
        "ميل",
        -9.430621147155762
      ],
      [
        "حص",
        -9.431150436401367
      ],
      [
        "فى",
        -9.43116283416748
      ],
      [
        "▁طب",
        -9.431714057922363
      ],
      [
        "▁العرب",
        -9.43220329284668
      ],
      [
        "▁تحط",
        -9.432592391967773
      ],
      [
        "▁أكبر",
        -9.433637619018555
      ],
      [
        "حكي",
        -9.433647155761719
      ],
      [
        "▁راي",
        -9.435279846191406
      ],
      [
        "طبع",
        -9.435582160949707
      ],
      [
        "▁سهلا",
        -9.43608283996582
      ],
      [
        "▁اه",
        -9.436132431030273
      ],
      [
        "لقا",
        -9.436248779296875
      ],
      [
        "ii",
        -9.43625259399414
      ],
      [
        "صير",
        -9.437192916870117
      ],
      [
        "▁100",
        -9.437345504760742
      ],
      [
        "▁بار",
        -9.438180923461914
      ],
      [
        "جم",
        -9.438968658447266
      ],
      [
        "ولة",
        -9.43899917602539
      ],
      [
        "▁بهذا",
        -9.439252853393555
      ],
      [
        "نه",
        -9.439558029174805
      ],
      [
        "تفرج",
        -9.439798355102539
      ],
      [
        "▁يزيد",
        -9.440469741821289
      ],
      [
        "▁التح",
        -9.44087028503418
      ],
      [
        "▁نو",
        -9.441178321838379
      ],
      [
        "سلام",
        -9.441288948059082
      ],
      [
        "رضا",
        -9.44195556640625
      ],
      [
        "▁redx",
        -9.442767143249512
      ],
      [
        "ستر",
        -9.44278335571289
      ],
      [
        "أس",
        -9.442793846130371
      ],
      [
        "اغ",
        -9.443017959594727
      ],
      [
        "▁فلم",
        -9.443401336669922
      ],
      [
        "▁{",
        -9.443502426147461
      ],
      [
        "تبع",
        -9.445068359375
      ],
      [
        "▁الثورة",
        -9.445525169372559
      ],
      [
        "tch",
        -9.445817947387695
      ],
      [
        "▁ركليطة",
        -9.445853233337402
      ],
      [
        "ثبت",
        -9.447047233581543
      ],
      [
        "حم",
        -9.448486328125
      ],
      [
        "▁حس",
        -9.44865608215332
      ],
      [
        "لات",
        -9.44906997680664
      ],
      [
        "▁هوا",
        -9.449161529541016
      ],
      [
        "▁خرجت",
        -9.449187278747559
      ],
      [
        "روب",
        -9.450186729431152
      ],
      [
        "▁يعلم",
        -9.450578689575195
      ],
      [
        "▁نخدم",
        -9.451359748840332
      ],
      [
        "▁قلبك",
        -9.451698303222656
      ],
      [
        "🤣🤣",
        -9.45217227935791
      ],
      [
        "mi",
        -9.452762603759766
      ],
      [
        "بع",
        -9.453067779541016
      ],
      [
        "👍",
        -9.453423500061035
      ],
      [
        "🥹",
        -9.453959465026855
      ],
      [
        "▁أحب",
        -9.454350471496582
      ],
      [
        "حر",
        -9.454727172851562
      ],
      [
        "▁نس",
        -9.455303192138672
      ],
      [
        "▁اا",
        -9.456097602844238
      ],
      [
        "▁وهل",
        -9.456246376037598
      ],
      [
        "ho",
        -9.456977844238281
      ],
      [
        "▁صلاة",
        -9.457812309265137
      ],
      [
        "▁القسم",
        -9.457937240600586
      ],
      [
        "▁يحط",
        -9.458222389221191
      ],
      [
        "▁ارحم",
        -9.45836067199707
      ],
      [
        "ضحك",
        -9.458532333374023
      ],
      [
        "فاء",
        -9.459074974060059
      ],
      [
        "▁سوف",
        -9.45922565460205
      ],
      [
        "▁لق",
        -9.45922565460205
      ],
      [
        "عن",
        -9.459485054016113
      ],
      [
        "▁غالط",
        -9.45959758758545
      ],
      [
        "قبل",
        -9.459661483764648
      ],
      [
        "▁السيد",
        -9.46017074584961
      ],
      [
        "▁المحتوى",
        -9.460701942443848
      ],
      [
        "▁توصل",
        -9.460740089416504
      ],
      [
        "▁تستاهل",
        -9.46080207824707
      ],
      [
        "▁أس",
        -9.4612398147583
      ],
      [
        "▁دارو",
        -9.461325645446777
      ],
      [
        "غرب",
        -9.461413383483887
      ],
      [
        "▁نحفظ",
        -9.461572647094727
      ],
      [
        "▁وراني",
        -9.461709022521973
      ],
      [
        "▁سنوات",
        -9.461992263793945
      ],
      [
        "حن",
        -9.462092399597168
      ],
      [
        "▁اخ",
        -9.462663650512695
      ],
      [
        "سن",
        -9.462952613830566
      ],
      [
        "▁un",
        -9.463445663452148
      ],
      [
        "▁لأنه",
        -9.4641695022583
      ],
      [
        "😮",
        -9.464571952819824
      ],
      [
        "طرح",
        -9.464902877807617
      ],
      [
        "▁🙏",
        -9.465425491333008
      ],
      [
        "فيديو",
        -9.465876579284668
      ],
      [
        "▁vidéo",
        -9.465924263000488
      ],
      [
        "▁معنى",
        -9.466086387634277
      ],
      [
        "▁بغيت",
        -9.46611499786377
      ],
      [
        "دفع",
        -9.466858863830566
      ],
      [
        "ki",
        -9.467312812805176
      ],
      [
        "▁كلمات",
        -9.46760082244873
      ],
      [
        "▁حالة",
        -9.468159675598145
      ],
      [
        "▁ضرب",
        -9.469005584716797
      ],
      [
        "H",
        -9.469558715820312
      ],
      [
        "vi",
        -9.469864845275879
      ],
      [
        "▁الباكالوريا",
        -9.469963073730469
      ],
      [
        "ريح",
        -9.470263481140137
      ],
      [
        "▁هذيك",
        -9.47083854675293
      ],
      [
        "▁نتبع",
        -9.471426010131836
      ],
      [
        "▁فان",
        -9.472289085388184
      ],
      [
        "▁مشكور",
        -9.472588539123535
      ],
      [
        "▁وإنا",
        -9.473274230957031
      ],
      [
        "▁لف",
        -9.473325729370117
      ],
      [
        "الة",
        -9.473885536193848
      ],
      [
        "▁نخاف",
        -9.474608421325684
      ],
      [
        "▁تفرجت",
        -9.475303649902344
      ],
      [
        "▁طفل",
        -9.475329399108887
      ],
      [
        "▁تفهم",
        -9.475423812866211
      ],
      [
        "▁الكريمة",
        -9.475954055786133
      ],
      [
        "ــ",
        -9.477316856384277
      ],
      [
        "اص",
        -9.477588653564453
      ],
      [
        "▁انها",
        -9.47828483581543
      ],
      [
        "بغ",
        -9.478901863098145
      ],
      [
        "باك",
        -9.479333877563477
      ],
      [
        "▁الدرس",
        -9.47961711883545
      ],
      [
        "▁الحي",
        -9.480008125305176
      ],
      [
        "ک",
        -9.480151176452637
      ],
      [
        "▁حن",
        -9.480995178222656
      ],
      [
        "▁المواضيع",
        -9.48102855682373
      ],
      [
        "بدأ",
        -9.481746673583984
      ],
      [
        "مد",
        -9.48184871673584
      ],
      [
        "طب",
        -9.482159614562988
      ],
      [
        "▁مسلسل",
        -9.482582092285156
      ],
      [
        "▁الشر",
        -9.483020782470703
      ],
      [
        "▁Y",
        -9.483518600463867
      ],
      [
        "كثر",
        -9.484509468078613
      ],
      [
        "▁بلاد",
        -9.484585762023926
      ],
      [
        "▁اين",
        -9.484713554382324
      ],
      [
        "▁العشرية",
        -9.485264778137207
      ],
      [
        "▁ديريلنا",
        -9.485472679138184
      ],
      [
        "💜",
        -9.486428260803223
      ],
      [
        "▁مكنية",
        -9.487174034118652
      ],
      [
        "غل",
        -9.487196922302246
      ],
      [
        "▁المجتمع",
        -9.488975524902344
      ],
      [
        "قسم",
        -9.48917293548584
      ],
      [
        "▁يغفر",
        -9.489555358886719
      ],
      [
        "يدة",
        -9.489624977111816
      ],
      [
        "▁نشر",
        -9.489642143249512
      ],
      [
        "قض",
        -9.490041732788086
      ],
      [
        "ter",
        -9.490175247192383
      ],
      [
        "▁يحفظكم",
        -9.49072265625
      ],
      [
        "▁🥰",
        -9.491341590881348
      ],
      [
        "sa",
        -9.491687774658203
      ],
      [
        "🥲",
        -9.49246883392334
      ],
      [
        "▁الغرب",
        -9.492814064025879
      ],
      [
        "▁إله",
        -9.493425369262695
      ],
      [
        "▁واو",
        -9.493721961975098
      ],
      [
        "حمد",
        -9.494513511657715
      ],
      [
        "▁حقا",
        -9.494582176208496
      ],
      [
        "▁،،",
        -9.494986534118652
      ],
      [
        "▁تعيشو",
        -9.495161056518555
      ],
      [
        "▁فر",
        -9.495235443115234
      ],
      [
        "عاود",
        -9.4968843460083
      ],
      [
        "رضى",
        -9.497100830078125
      ],
      [
        "▁O",
        -9.497228622436523
      ],
      [
        "▁سبحانه",
        -9.49743366241455
      ],
      [
        "خل",
        -9.49755573272705
      ],
      [
        "10",
        -9.497559547424316
      ],
      [
        "سأل",
        -9.49841022491455
      ],
      [
        "▁شوفي",
        -9.498859405517578
      ],
      [
        "حس",
        -9.499228477478027
      ],
      [
        "🥰",
        -9.499944686889648
      ],
      [
        "▁واحدة",
        -9.500925064086914
      ],
      [
        "بدل",
        -9.501391410827637
      ],
      [
        "▁صلي",
        -9.501852035522461
      ],
      [
        "دعو",
        -9.501904487609863
      ],
      [
        "سمح",
        -9.502943992614746
      ],
      [
        "صول",
        -9.5029878616333
      ],
      [
        "▁اجل",
        -9.503129005432129
      ],
      [
        "رام",
        -9.503291130065918
      ],
      [
        "▁ماهو",
        -9.503684043884277
      ],
      [
        "▁فعلا",
        -9.50409984588623
      ],
      [
        "▁كملت",
        -9.504166603088379
      ],
      [
        "▁تقدم",
        -9.504377365112305
      ],
      [
        "▁ياا",
        -9.504411697387695
      ],
      [
        "▁عرف",
        -9.504470825195312
      ],
      [
        "سكر",
        -9.504536628723145
      ],
      [
        "st",
        -9.504786491394043
      ],
      [
        "▁استغفر",
        -9.505786895751953
      ],
      [
        "نيش",
        -9.505794525146484
      ],
      [
        "20",
        -9.5064115524292
      ],
      [
        "▁بداية",
        -9.506828308105469
      ],
      [
        "▁da",
        -9.507241249084473
      ],
      [
        "▁أجل",
        -9.507729530334473
      ],
      [
        "▁امر",
        -9.508343696594238
      ],
      [
        "▁مريض",
        -9.508439064025879
      ],
      [
        "fa",
        -9.508772850036621
      ],
      [
        "▁نجي",
        -9.509041786193848
      ],
      [
        "▁أنك",
        -9.509733200073242
      ],
      [
        "▁اش",
        -9.509733200073242
      ],
      [
        "▁أرجو",
        -9.510710716247559
      ],
      [
        "▁تجد",
        -9.510943412780762
      ],
      [
        "▁مجرد",
        -9.511364936828613
      ],
      [
        "وجه",
        -9.511466979980469
      ],
      [
        "▁يفهم",
        -9.511528968811035
      ],
      [
        "▁ڨ",
        -9.511614799499512
      ],
      [
        "سير",
        -9.512164115905762
      ],
      [
        "▁حلمي",
        -9.512435913085938
      ],
      [
        "▁2021",
        -9.512486457824707
      ],
      [
        "▁راحت",
        -9.512789726257324
      ],
      [
        "▁قرا",
        -9.512872695922852
      ],
      [
        "صور",
        -9.513351440429688
      ],
      [
        "▁تقولي",
        -9.513569831848145
      ],
      [
        "▁ثلاث",
        -9.513864517211914
      ],
      [
        "▁أجمعين",
        -9.51411247253418
      ],
      [
        "كار",
        -9.514544486999512
      ],
      [
        "▁برنامج",
        -9.515556335449219
      ],
      [
        "▁درك",
        -9.515580177307129
      ],
      [
        "🔥",
        -9.51572322845459
      ],
      [
        "lk",
        -9.515735626220703
      ],
      [
        "▁المعلومات",
        -9.516522407531738
      ],
      [
        "▁الشيطان",
        -9.516600608825684
      ],
      [
        "▁فور",
        -9.516606330871582
      ],
      [
        "▁هايلة",
        -9.517598152160645
      ],
      [
        "▁يسهل",
        -9.518654823303223
      ],
      [
        "▁ماهي",
        -9.518814086914062
      ],
      [
        "▁خا",
        -9.518826484680176
      ],
      [
        "▁طبعا",
        -9.519014358520508
      ],
      [
        "▁((",
        -9.519184112548828
      ],
      [
        "دت",
        -9.519208908081055
      ],
      [
        "▁معاهم",
        -9.51939868927002
      ],
      [
        "▁حفظك",
        -9.519596099853516
      ],
      [
        "▁يجوز",
        -9.519728660583496
      ],
      [
        "▁اسمي",
        -9.51994514465332
      ],
      [
        "▁يوسف",
        -9.521187782287598
      ],
      [
        "▁ضد",
        -9.521478652954102
      ],
      [
        "لب",
        -9.521953582763672
      ],
      [
        "▁مادة",
        -9.522109985351562
      ],
      [
        "▁القر",
        -9.523321151733398
      ],
      [
        "▁مه",
        -9.523630142211914
      ],
      [
        "▁Ana",
        -9.523679733276367
      ],
      [
        "بقى",
        -9.52403736114502
      ],
      [
        "وفي",
        -9.525619506835938
      ],
      [
        "▁🤣",
        -9.525806427001953
      ],
      [
        "▁أت",
        -9.525811195373535
      ],
      [
        "▁طلع",
        -9.526362419128418
      ],
      [
        "▁bi",
        -9.526449203491211
      ],
      [
        "▁الاخت",
        -9.527037620544434
      ],
      [
        "▁🥲",
        -9.52711296081543
      ],
      [
        "▁e",
        -9.527155876159668
      ],
      [
        "▁بإ",
        -9.527491569519043
      ],
      [
        "U",
        -9.528298377990723
      ],
      [
        "▁الدراسة",
        -9.529425621032715
      ],
      [
        "يتك",
        -9.529460906982422
      ],
      [
        "▁نحوس",
        -9.529855728149414
      ],
      [
        "ارات",
        -9.53013801574707
      ],
      [
        "▁مشترك",
        -9.530227661132812
      ],
      [
        "▁سعيد",
        -9.530472755432129
      ],
      [
        "اخر",
        -9.530558586120605
      ],
      [
        "عرض",
        -9.530821800231934
      ],
      [
        "علام",
        -9.531264305114746
      ],
      [
        "بلغ",
        -9.531867980957031
      ],
      [
        "ياء",
        -9.532608985900879
      ],
      [
        "▁اسطورة",
        -9.532968521118164
      ],
      [
        "▁ويجعل",
        -9.533737182617188
      ],
      [
        "يمة",
        -9.53437328338623
      ],
      [
        "▁والحمد",
        -9.537467002868652
      ],
      [
        "▁قناتك",
        -9.537612915039062
      ],
      [
        "▁الحمدلله",
        -9.537775039672852
      ],
      [
        "▁معلومات",
        -9.537884712219238
      ],
      [
        "hk",
        -9.537976264953613
      ],
      [
        "كور",
        -9.539189338684082
      ],
      [
        "▁هذ",
        -9.539445877075195
      ],
      [
        "تلك",
        -9.53991985321045
      ],
      [
        "انية",
        -9.540111541748047
      ],
      [
        "ur",
        -9.540223121643066
      ],
      [
        "▁نش",
        -9.540534019470215
      ],
      [
        "▁بدل",
        -9.540783882141113
      ],
      [
        "▁احبك",
        -9.540827751159668
      ],
      [
        "▁رايح",
        -9.540870666503906
      ],
      [
        "▁ميلود",
        -9.541304588317871
      ],
      [
        "▁صحة",
        -9.54141616821289
      ],
      [
        "▁😮",
        -9.541874885559082
      ],
      [
        "C",
        -9.541929244995117
      ],
      [
        "راني",
        -9.543073654174805
      ],
      [
        "▁اجمل",
        -9.543615341186523
      ],
      [
        "P",
        -9.544707298278809
      ],
      [
        "ليس",
        -9.545082092285156
      ],
      [
        "رم",
        -9.545677185058594
      ],
      [
        "▁best",
        -9.545913696289062
      ],
      [
        "طلع",
        -9.546196937561035
      ],
      [
        "▁ليل",
        -9.54676628112793
      ],
      [
        "▁وأنا",
        -9.547021865844727
      ],
      [
        "▁si",
        -9.548223495483398
      ],
      [
        "▁الفلسفة",
        -9.54865837097168
      ],
      [
        "K",
        -9.549088478088379
      ],
      [
        "▁اسكو",
        -9.550040245056152
      ],
      [
        "▁of",
        -9.550127029418945
      ],
      [
        "تع",
        -9.550222396850586
      ],
      [
        "▁بني",
        -9.55121898651123
      ],
      [
        "▁تلقا",
        -9.551227569580078
      ],
      [
        "▁سهل",
        -9.551665306091309
      ],
      [
        "▁والد",
        -9.551748275756836
      ],
      [
        "▁لايف",
        -9.55307674407959
      ],
      [
        "▁نظر",
        -9.55315113067627
      ],
      [
        "▁الشخص",
        -9.553885459899902
      ],
      [
        "وصل",
        -9.554272651672363
      ],
      [
        "▁المسلم",
        -9.55438232421875
      ],
      [
        "▁رك",
        -9.554496765136719
      ],
      [
        "▁🥹",
        -9.55481243133545
      ],
      [
        "▁طولت",
        -9.555343627929688
      ],
      [
        "▁قولي",
        -9.55739974975586
      ],
      [
        "▁رجال",
        -9.557964324951172
      ],
      [
        "طبق",
        -9.559382438659668
      ],
      [
        "▁♥",
        -9.55972671508789
      ],
      [
        "▁مز",
        -9.560213088989258
      ],
      [
        "أم",
        -9.560659408569336
      ],
      [
        "▁الدولة",
        -9.561453819274902
      ],
      [
        "▁الشرح",
        -9.562280654907227
      ],
      [
        "▁بالأ",
        -9.562833786010742
      ],
      [
        "▁الثالث",
        -9.563167572021484
      ],
      [
        "ai",
        -9.563562393188477
      ],
      [
        "▁تكمل",
        -9.56379222869873
      ],
      [
        "عر",
        -9.563828468322754
      ],
      [
        "▁الزوج",
        -9.564119338989258
      ],
      [
        "▁يتم",
        -9.565439224243164
      ],
      [
        "▁جعل",
        -9.565673828125
      ],
      [
        "▁يسر",
        -9.565937042236328
      ],
      [
        "▁حسبي",
        -9.566116333007812
      ],
      [
        "لى",
        -9.566242218017578
      ],
      [
        "▁العقل",
        -9.566831588745117
      ],
      [
        "▁كملي",
        -9.566973686218262
      ],
      [
        "▁أولا",
        -9.568467140197754
      ],
      [
        "اسم",
        -9.569279670715332
      ],
      [
        "▁العلي",
        -9.569631576538086
      ],
      [
        "▁الطريق",
        -9.569879531860352
      ],
      [
        "▁عنا",
        -9.570273399353027
      ],
      [
        "▁روحو",
        -9.571063041687012
      ],
      [
        "▁شكل",
        -9.571162223815918
      ],
      [
        "عقل",
        -9.571195602416992
      ],
      [
        "▁الحكايات",
        -9.5713529586792
      ],
      [
        "طع",
        -9.572245597839355
      ],
      [
        "▁كفاه",
        -9.57231330871582
      ],
      [
        "▁الصورة",
        -9.572460174560547
      ],
      [
        "▁ونفرح",
        -9.57262134552002
      ],
      [
        "▁موقع",
        -9.573535919189453
      ],
      [
        "برك",
        -9.574007034301758
      ],
      [
        "▁الأسئلة",
        -9.57455825805664
      ],
      [
        "▁وفقك",
        -9.57486343383789
      ],
      [
        "im",
        -9.57541561126709
      ],
      [
        "▁ومع",
        -9.575422286987305
      ],
      [
        "رحل",
        -9.575725555419922
      ],
      [
        "▁الفا",
        -9.576531410217285
      ],
      [
        "▁ورد",
        -9.57780647277832
      ],
      [
        "▁أع",
        -9.577901840209961
      ],
      [
        "▁جال",
        -9.578561782836914
      ],
      [
        "▁وفقنا",
        -9.57863712310791
      ],
      [
        "▁do",
        -9.578642845153809
      ],
      [
        "aa",
        -9.579061508178711
      ],
      [
        "قتل",
        -9.579487800598145
      ],
      [
        "▁فرنسا",
        -9.580652236938477
      ],
      [
        "▁ابدا",
        -9.581871032714844
      ],
      [
        "▁الأستاذ",
        -9.582810401916504
      ],
      [
        "▁والع",
        -9.583343505859375
      ],
      [
        "▁تسما",
        -9.583572387695312
      ],
      [
        "▁غا",
        -9.584181785583496
      ],
      [
        "عطي",
        -9.584525108337402
      ],
      [
        "▁هد",
        -9.584589958190918
      ],
      [
        "▁merci",
        -9.585227966308594
      ],
      [
        "▁قضية",
        -9.585417747497559
      ],
      [
        "ذل",
        -9.585699081420898
      ],
      [
        "▁والسلوان",
        -9.586101531982422
      ],
      [
        "ريد",
        -9.586374282836914
      ],
      [
        "اقة",
        -9.587104797363281
      ],
      [
        "▁رجعت",
        -9.587692260742188
      ],
      [
        "▁طويل",
        -9.588109016418457
      ],
      [
        "▁نسأل",
        -9.588452339172363
      ],
      [
        "▁يهدي",
        -9.58852767944336
      ],
      [
        "مون",
        -9.58864974975586
      ],
      [
        "▁صدق",
        -9.588723182678223
      ],
      [
        "▁قولو",
        -9.588728904724121
      ],
      [
        "▁توحشنا",
        -9.588828086853027
      ],
      [
        "زير",
        -9.589507102966309
      ],
      [
        "▁مجهوداتك",
        -9.58960247039795
      ],
      [
        "استاذ",
        -9.589995384216309
      ],
      [
        "▁وضع",
        -9.590211868286133
      ],
      [
        "خا",
        -9.590367317199707
      ],
      [
        "ant",
        -9.590581893920898
      ],
      [
        "ضا",
        -9.590888977050781
      ],
      [
        "ci",
        -9.591719627380371
      ],
      [
        "▁تعطي",
        -9.591893196105957
      ],
      [
        "امة",
        -9.591955184936523
      ],
      [
        "▁يهديك",
        -9.592915534973145
      ],
      [
        "▁هداك",
        -9.593183517456055
      ],
      [
        "رع",
        -9.593578338623047
      ],
      [
        "▁درنا",
        -9.593761444091797
      ],
      [
        "▁بالت",
        -9.594253540039062
      ],
      [
        "قرب",
        -9.594590187072754
      ],
      [
        "حشم",
        -9.59531021118164
      ],
      [
        "eur",
        -9.595787048339844
      ],
      [
        "قب",
        -9.596329689025879
      ],
      [
        "▁مصطلحات",
        -9.596460342407227
      ],
      [
        "دد",
        -9.596760749816895
      ],
      [
        "▁الصباح",
        -9.59812068939209
      ],
      [
        "▁صاحبي",
        -9.598865509033203
      ],
      [
        "راح",
        -9.598925590515137
      ],
      [
        "ka",
        -9.598952293395996
      ],
      [
        "▁ملك",
        -9.599410057067871
      ],
      [
        "▁اعرف",
        -9.599540710449219
      ],
      [
        "دني",
        -9.600275039672852
      ],
      [
        "▁تمارين",
        -9.600491523742676
      ],
      [
        "▁ليا",
        -9.601611137390137
      ],
      [
        "▁نقولك",
        -9.602322578430176
      ],
      [
        "▁الفيديوهات",
        -9.60239028930664
      ],
      [
        "ابة",
        -9.60247802734375
      ],
      [
        "▁حقيقة",
        -9.60254192352295
      ],
      [
        "▁تقدري",
        -9.603121757507324
      ],
      [
        "▁بص",
        -9.603178977966309
      ],
      [
        "▁مسكين",
        -9.603493690490723
      ],
      [
        "تميز",
        -9.604226112365723
      ],
      [
        "▁وأنت",
        -9.604971885681152
      ],
      [
        "▁وعند",
        -9.605124473571777
      ],
      [
        "داء",
        -9.605359077453613
      ],
      [
        "اض",
        -9.605971336364746
      ],
      [
        "داب",
        -9.606032371520996
      ],
      [
        "عط",
        -9.606426239013672
      ],
      [
        "سلم",
        -9.60654067993164
      ],
      [
        "▁فالم",
        -9.60706615447998
      ],
      [
        "٠",
        -9.607282638549805
      ],
      [
        "▁ذات",
        -9.60728931427002
      ],
      [
        "▁الحالة",
        -9.607297897338867
      ],
      [
        "ثم",
        -9.607403755187988
      ],
      [
        "▁قع",
        -9.607855796813965
      ],
      [
        "▁صرات",
        -9.607945442199707
      ],
      [
        "▁دعاء",
        -9.60807991027832
      ],
      [
        "صيب",
        -9.608783721923828
      ],
      [
        "راض",
        -9.608973503112793
      ],
      [
        "▁💗",
        -9.609440803527832
      ],
      [
        "▁فتح",
        -9.60962200164795
      ],
      [
        "▁fa",
        -9.609827995300293
      ],
      [
        "تحصل",
        -9.610162734985352
      ],
      [
        "ظيف",
        -9.611238479614258
      ],
      [
        "عيش",
        -9.611242294311523
      ],
      [
        "▁حلم",
        -9.611259460449219
      ],
      [
        "▁الفردوس",
        -9.611749649047852
      ],
      [
        "▁أيام",
        -9.612120628356934
      ],
      [
        "▁نزيد",
        -9.6129732131958
      ],
      [
        "▁رياض",
        -9.613011360168457
      ],
      [
        "مكن",
        -9.613518714904785
      ],
      [
        "▁الاجابة",
        -9.61423397064209
      ],
      [
        "▁قو",
        -9.614344596862793
      ],
      [
        "▁وصلت",
        -9.614477157592773
      ],
      [
        "▁الامر",
        -9.614575386047363
      ],
      [
        "▁rak",
        -9.616143226623535
      ],
      [
        "▁اف",
        -9.61624813079834
      ],
      [
        "▁قصصك",
        -9.616436958312988
      ],
      [
        "▁نع",
        -9.617624282836914
      ],
      [
        "زة",
        -9.617683410644531
      ],
      [
        "▁قالك",
        -9.618294715881348
      ],
      [
        "▁حبس",
        -9.618916511535645
      ],
      [
        "▁منيش",
        -9.618952751159668
      ],
      [
        "▁بوركت",
        -9.619315147399902
      ],
      [
        "▁كتبت",
        -9.6199369430542
      ],
      [
        "دور",
        -9.620476722717285
      ],
      [
        "▁المرة",
        -9.620758056640625
      ],
      [
        "▁جناته",
        -9.621186256408691
      ],
      [
        "▁عذاب",
        -9.621716499328613
      ],
      [
        "خلف",
        -9.622197151184082
      ],
      [
        "▁حلقة",
        -9.622386932373047
      ],
      [
        "▁العلوم",
        -9.622573852539062
      ],
      [
        "جعل",
        -9.622750282287598
      ],
      [
        "▁الأولى",
        -9.623418807983398
      ],
      [
        "▁فيما",
        -9.623888969421387
      ],
      [
        "▁مرات",
        -9.624563217163086
      ],
      [
        "▁رواه",
        -9.624567985534668
      ],
      [
        "▁تجريبية",
        -9.625377655029297
      ],
      [
        "▁عشر",
        -9.62549114227295
      ],
      [
        "▁الجواب",
        -9.62690258026123
      ],
      [
        "▁شيئا",
        -9.627680778503418
      ],
      [
        "جاز",
        -9.628923416137695
      ],
      [
        "قيم",
        -9.629096031188965
      ],
      [
        "▁فلي",
        -9.629755973815918
      ],
      [
        "يلنا",
        -9.631143569946289
      ],
      [
        "▁هدو",
        -9.631199836730957
      ],
      [
        "G",
        -9.631351470947266
      ],
      [
        "دق",
        -9.631742477416992
      ],
      [
        "▁بح",
        -9.632373809814453
      ],
      [
        "▁mais",
        -9.63241958618164
      ],
      [
        "▁الأس",
        -9.63326644897461
      ],
      [
        "▁مهما",
        -9.633502960205078
      ],
      [
        "▁الواقع",
        -9.633890151977539
      ],
      [
        "▁الصوت",
        -9.634040832519531
      ],
      [
        "▁النساء",
        -9.634939193725586
      ],
      [
        "▁حدث",
        -9.634949684143066
      ],
      [
        "▁مراجعة",
        -9.63507080078125
      ],
      [
        "▁الاس",
        -9.635626792907715
      ],
      [
        "ضغط",
        -9.636935234069824
      ],
      [
        "▁اولا",
        -9.63740062713623
      ],
      [
        "▁معاها",
        -9.637746810913086
      ],
      [
        "ation",
        -9.637914657592773
      ],
      [
        "▁عمرك",
        -9.6383638381958
      ],
      [
        "th",
        -9.639678001403809
      ],
      [
        "▁غالب",
        -9.640637397766113
      ],
      [
        "نشر",
        -9.641319274902344
      ],
      [
        "▁خلا",
        -9.64146614074707
      ],
      [
        "▁أب",
        -9.642224311828613
      ],
      [
        "مال",
        -9.642325401306152
      ],
      [
        "▁عبر",
        -9.642555236816406
      ],
      [
        "▁اسمها",
        -9.642558097839355
      ],
      [
        "عتمد",
        -9.643031120300293
      ],
      [
        "▁لغة",
        -9.643207550048828
      ],
      [
        "▁😂❤",
        -9.643331527709961
      ],
      [
        "ge",
        -9.643436431884766
      ],
      [
        "حبس",
        -9.643656730651855
      ],
      [
        "▁أين",
        -9.643743515014648
      ],
      [
        "▁صانع",
        -9.644287109375
      ],
      [
        "راق",
        -9.644450187683105
      ],
      [
        "▁القط",
        -9.644499778747559
      ],
      [
        "▁يكن",
        -9.645608901977539
      ],
      [
        "lah",
        -9.64564323425293
      ],
      [
        "▁أل",
        -9.645771026611328
      ],
      [
        "فصل",
        -9.64761734008789
      ],
      [
        "▁ja",
        -9.648139953613281
      ],
      [
        "نظر",
        -9.649097442626953
      ],
      [
        "😹",
        -9.649170875549316
      ],
      [
        "▁الرجال",
        -9.649292945861816
      ],
      [
        "تأكد",
        -9.649441719055176
      ],
      [
        "▁يفرج",
        -9.65058708190918
      ],
      [
        "▁لذلك",
        -9.65061092376709
      ],
      [
        "▁اك",
        -9.65086841583252
      ],
      [
        "خلط",
        -9.651341438293457
      ],
      [
        "▁ير",
        -9.6521577835083
      ],
      [
        "؟!",
        -9.652186393737793
      ],
      [
        "مكان",
        -9.652201652526855
      ],
      [
        "▁سياسي",
        -9.652795791625977
      ],
      [
        "😊😊",
        -9.65329360961914
      ],
      [
        "▁وجل",
        -9.65333080291748
      ],
      [
        "▁تكتب",
        -9.65361213684082
      ],
      [
        "ik",
        -9.65396499633789
      ],
      [
        "▁خارج",
        -9.654394149780273
      ],
      [
        "▁اح",
        -9.654823303222656
      ],
      [
        "▁الحقيقي",
        -9.655216217041016
      ],
      [
        "غلق",
        -9.65549087524414
      ],
      [
        "▁والديا",
        -9.655588150024414
      ],
      [
        "▁تخدم",
        -9.656163215637207
      ],
      [
        "▁نشوفو",
        -9.656587600708008
      ],
      [
        "▁دوك",
        -9.656942367553711
      ],
      [
        "▁الساعة",
        -9.657354354858398
      ],
      [
        "▁التر",
        -9.657394409179688
      ],
      [
        "ره",
        -9.657763481140137
      ],
      [
        "بلي",
        -9.658041000366211
      ],
      [
        "▁شو",
        -9.659339904785156
      ],
      [
        "▁البقرة",
        -9.659409523010254
      ],
      [
        "▁نحل",
        -9.659958839416504
      ],
      [
        "▁لغ",
        -9.661035537719727
      ],
      [
        "قلت",
        -9.66295051574707
      ],
      [
        "▁يريد",
        -9.663064956665039
      ],
      [
        "▁إنشاء",
        -9.663698196411133
      ],
      [
        "▁شيئ",
        -9.664661407470703
      ],
      [
        "▁man",
        -9.66526985168457
      ],
      [
        "خاطر",
        -9.665360450744629
      ],
      [
        "af",
        -9.66576099395752
      ],
      [
        "▁مستحيل",
        -9.665836334228516
      ],
      [
        "▁عقل",
        -9.66659164428711
      ],
      [
        "▁يو",
        -9.667411804199219
      ],
      [
        "▁الحرب",
        -9.667474746704102
      ],
      [
        "▁البي",
        -9.668233871459961
      ],
      [
        "▁خمس",
        -9.668509483337402
      ],
      [
        "▁يروح",
        -9.669517517089844
      ],
      [
        "▁دع",
        -9.6695556640625
      ],
      [
        "طيح",
        -9.669879913330078
      ],
      [
        "اته",
        -9.669891357421875
      ],
      [
        "▁قط",
        -9.670730590820312
      ],
      [
        "▁لانه",
        -9.670799255371094
      ],
      [
        "▁المعدل",
        -9.670859336853027
      ],
      [
        "▁معك",
        -9.671487808227539
      ],
      [
        "▁مصر",
        -9.671743392944336
      ],
      [
        "▁الحم",
        -9.672019958496094
      ],
      [
        "فيد",
        -9.672430992126465
      ],
      [
        "▁جمع",
        -9.672971725463867
      ],
      [
        "▁وحده",
        -9.673223495483398
      ],
      [
        "▁القران",
        -9.673429489135742
      ],
      [
        "▁يجعلها",
        -9.673826217651367
      ],
      [
        "▁جزاكم",
        -9.673912048339844
      ],
      [
        "B",
        -9.67402172088623
      ],
      [
        "▁Ch",
        -9.674931526184082
      ],
      [
        "▁يفتح",
        -9.67570686340332
      ],
      [
        "▁دنيا",
        -9.676054954528809
      ],
      [
        "لازم",
        -9.676362991333008
      ],
      [
        "▁à",
        -9.676727294921875
      ],
      [
        "▁2022",
        -9.676834106445312
      ],
      [
        "▁it",
        -9.677539825439453
      ],
      [
        "che",
        -9.678030014038086
      ],
      [
        "▁تبع",
        -9.678335189819336
      ],
      [
        "▁الكر",
        -9.678979873657227
      ],
      [
        "▁المال",
        -9.679261207580566
      ],
      [
        "▁❤🎉",
        -9.67969036102295
      ],
      [
        "▁وفق",
        -9.68034553527832
      ],
      [
        "▁خر",
        -9.680736541748047
      ],
      [
        "▁عيد",
        -9.68099308013916
      ],
      [
        "▁فهي",
        -9.6824369430542
      ],
      [
        "💞",
        -9.682743072509766
      ],
      [
        "▁تتم",
        -9.682780265808105
      ],
      [
        "do",
        -9.682792663574219
      ],
      [
        "صعب",
        -9.6829252243042
      ],
      [
        "▁بالنجاح",
        -9.683014869689941
      ],
      [
        "▁لخ",
        -9.683175086975098
      ],
      [
        "▁courage",
        -9.68322467803955
      ],
      [
        "▁نن",
        -9.685222625732422
      ],
      [
        "دعم",
        -9.685537338256836
      ],
      [
        "▁يدعيلي",
        -9.685583114624023
      ],
      [
        "▁الماء",
        -9.685745239257812
      ],
      [
        "▁قالو",
        -9.685821533203125
      ],
      [
        "▁المش",
        -9.68589973449707
      ],
      [
        "▁فيلم",
        -9.686359405517578
      ],
      [
        "▁مق",
        -9.688173294067383
      ],
      [
        "▁تبان",
        -9.688387870788574
      ],
      [
        "▁يبان",
        -9.688532829284668
      ],
      [
        "دون",
        -9.688568115234375
      ],
      [
        "غسل",
        -9.688817024230957
      ],
      [
        "بية",
        -9.689291000366211
      ],
      [
        "▁~",
        -9.689372062683105
      ],
      [
        "😅😅",
        -9.689486503601074
      ],
      [
        "▁E",
        -9.690142631530762
      ],
      [
        "قه",
        -9.690384864807129
      ],
      [
        "▁الجميل",
        -9.69054889678955
      ],
      [
        "عالم",
        -9.691116333007812
      ],
      [
        "▁ثق",
        -9.691680908203125
      ],
      [
        "درس",
        -9.691730499267578
      ],
      [
        "▁بسك",
        -9.692724227905273
      ],
      [
        "ليش",
        -9.692900657653809
      ],
      [
        "▁مثال",
        -9.692904472351074
      ],
      [
        "▁الطيبة",
        -9.693097114562988
      ],
      [
        "▁يب",
        -9.694092750549316
      ],
      [
        "11",
        -9.694546699523926
      ],
      [
        "▁ادب",
        -9.69534683227539
      ],
      [
        "الف",
        -9.695439338684082
      ],
      [
        "▁di",
        -9.695464134216309
      ],
      [
        "▁اولاد",
        -9.69567584991455
      ],
      [
        "▁ديال",
        -9.69604778289795
      ],
      [
        "▁بشر",
        -9.696246147155762
      ],
      [
        "▁شف",
        -9.696318626403809
      ],
      [
        "▁ka",
        -9.696503639221191
      ],
      [
        "▁يخي",
        -9.69716739654541
      ],
      [
        "خلاص",
        -9.698341369628906
      ],
      [
        "▁👍",
        -9.698760986328125
      ],
      [
        "بحث",
        -9.698974609375
      ],
      [
        "▁طلعو",
        -9.699122428894043
      ],
      [
        "▁وجعل",
        -9.699176788330078
      ],
      [
        "رفع",
        -9.700456619262695
      ],
      [
        "▁الزواج",
        -9.700484275817871
      ],
      [
        "نتظر",
        -9.700882911682129
      ],
      [
        "▁رابط",
        -9.700994491577148
      ],
      [
        "▁وبعد",
        -9.701034545898438
      ],
      [
        "▁ذو",
        -9.701288223266602
      ],
      [
        "▁احكي",
        -9.702061653137207
      ],
      [
        "سهل",
        -9.702635765075684
      ],
      [
        "▁بنفس",
        -9.702685356140137
      ],
      [
        "▁يحكي",
        -9.703146934509277
      ],
      [
        "حك",
        -9.703385353088379
      ],
      [
        "▁**",
        -9.70339298248291
      ],
      [
        "lou",
        -9.704621315002441
      ],
      [
        "▁الرياضيات",
        -9.704708099365234
      ],
      [
        "▁وحدك",
        -9.705049514770508
      ],
      [
        "▁ميت",
        -9.705141067504883
      ],
      [
        "▁حيقون",
        -9.705660820007324
      ],
      [
        "15",
        -9.705796241760254
      ],
      [
        "▁علابالي",
        -9.70592212677002
      ],
      [
        "▁وكيف",
        -9.705997467041016
      ],
      [
        "▁2020",
        -9.70716667175293
      ],
      [
        "▁دعم",
        -9.707670211791992
      ],
      [
        "▁المد",
        -9.708455085754395
      ],
      [
        "▁صور",
        -9.708535194396973
      ],
      [
        "▁طل",
        -9.708820343017578
      ],
      [
        "▁إسم",
        -9.708828926086426
      ],
      [
        "خص",
        -9.709181785583496
      ],
      [
        "حفض",
        -9.709511756896973
      ],
      [
        "عبد",
        -9.710073471069336
      ],
      [
        "رن",
        -9.710829734802246
      ],
      [
        "▁مدة",
        -9.71086311340332
      ],
      [
        "▁للت",
        -9.711121559143066
      ],
      [
        "روس",
        -9.712384223937988
      ],
      [
        "F",
        -9.71253490447998
      ],
      [
        "غلب",
        -9.713082313537598
      ],
      [
        "▁قليل",
        -9.714719772338867
      ],
      [
        "▁يعطي",
        -9.714938163757324
      ],
      [
        "he",
        -9.715051651000977
      ],
      [
        "rou",
        -9.715279579162598
      ],
      [
        "~",
        -9.715497970581055
      ],
      [
        "بح",
        -9.71591854095459
      ],
      [
        "▁par",
        -9.71657657623291
      ],
      [
        "🎉🎉",
        -9.717350959777832
      ],
      [
        "▁الصالحة",
        -9.717772483825684
      ],
      [
        "▁مبعد",
        -9.718117713928223
      ],
      [
        "جبت",
        -9.718141555786133
      ],
      [
        "▁هما",
        -9.718281745910645
      ],
      [
        "▁خص",
        -9.718496322631836
      ],
      [
        "▁المواد",
        -9.718827247619629
      ],
      [
        "طلق",
        -9.718847274780273
      ],
      [
        "▁فاهم",
        -9.719139099121094
      ],
      [
        "باب",
        -9.719381332397461
      ],
      [
        "افق",
        -9.719632148742676
      ],
      [
        "▁رياضيات",
        -9.72018051147461
      ],
      [
        "▁الاخر",
        -9.720541954040527
      ],
      [
        "▁نستنا",
        -9.720542907714844
      ],
      [
        "تنمر",
        -9.721456527709961
      ],
      [
        "▁رأيك",
        -9.721463203430176
      ],
      [
        "▁الشهر",
        -9.72172737121582
      ],
      [
        "▁مول",
        -9.721930503845215
      ],
      [
        "▁ومت",
        -9.722095489501953
      ],
      [
        "▁الاجتماعي",
        -9.722166061401367
      ],
      [
        "▁فن",
        -9.722280502319336
      ],
      [
        "غو",
        -9.72248649597168
      ],
      [
        "▁نورمالمو",
        -9.72248649597168
      ],
      [
        "▁وهران",
        -9.723274230957031
      ],
      [
        "▁طالب",
        -9.723586082458496
      ],
      [
        "▁تان",
        -9.72396469116211
      ],
      [
        "▁الجديد",
        -9.724601745605469
      ],
      [
        "▁الحاجة",
        -9.72508716583252
      ],
      [
        "▁غدوا",
        -9.725339889526367
      ],
      [
        "▁تحس",
        -9.725354194641113
      ],
      [
        "بط",
        -9.726238250732422
      ],
      [
        "▁نتاعك",
        -9.726449966430664
      ],
      [
        "▁السر",
        -9.72707462310791
      ],
      [
        "▁200",
        -9.727680206298828
      ],
      [
        "▁♥️",
        -9.72785758972168
      ],
      [
        "▁لعل",
        -9.728571891784668
      ],
      [
        "▁وقيل",
        -9.729015350341797
      ],
      [
        "be",
        -9.729515075683594
      ],
      [
        "▁رايحة",
        -9.72962760925293
      ],
      [
        "▁يوما",
        -9.730249404907227
      ],
      [
        "▁البو",
        -9.730297088623047
      ],
      [
        "عز",
        -9.730499267578125
      ],
      [
        "▁خايفة",
        -9.730847358703613
      ],
      [
        "▁يوتيوبر",
        -9.731550216674805
      ],
      [
        "▁ملاح",
        -9.731888771057129
      ],
      [
        "▁العلمية",
        -9.731918334960938
      ],
      [
        "▁معي",
        -9.73226547241211
      ],
      [
        "▁ذا",
        -9.732941627502441
      ],
      [
        "▁وجود",
        -9.733508110046387
      ],
      [
        "▁قاعد",
        -9.733661651611328
      ],
      [
        "▁الطفل",
        -9.733685493469238
      ],
      [
        "▁يشفي",
        -9.734031677246094
      ],
      [
        "تس",
        -9.734297752380371
      ],
      [
        "▁الدم",
        -9.735167503356934
      ],
      [
        "▁ظل",
        -9.735210418701172
      ],
      [
        "si",
        -9.735370635986328
      ],
      [
        "▁نحي",
        -9.735403060913086
      ],
      [
        "▁الاسم",
        -9.735733985900879
      ],
      [
        "صبح",
        -9.735851287841797
      ],
      [
        "▁البشر",
        -9.736075401306152
      ],
      [
        "▁يطلع",
        -9.736432075500488
      ],
      [
        "▁u",
        -9.736611366271973
      ],
      [
        "▁بفضل",
        -9.737388610839844
      ],
      [
        "▁z",
        -9.737417221069336
      ],
      [
        "▁دارت",
        -9.737954139709473
      ],
      [
        "▁؛",
        -9.73803997039795
      ],
      [
        "▁تخصص",
        -9.738153457641602
      ],
      [
        "▁دايما",
        -9.738663673400879
      ],
      [
        "🌹",
        -9.73900318145752
      ],
      [
        "▁الحب",
        -9.739408493041992
      ],
      [
        "▁حمد",
        -9.739537239074707
      ],
      [
        "▁مشروع",
        -9.739752769470215
      ],
      [
        "▁con",
        -9.739771842956543
      ],
      [
        "▁بلد",
        -9.740655899047852
      ],
      [
        "ضل",
        -9.741111755371094
      ],
      [
        "وجد",
        -9.741713523864746
      ],
      [
        "لغ",
        -9.741985321044922
      ],
      [
        "▁نهاية",
        -9.742530822753906
      ],
      [
        "▁rah",
        -9.742548942565918
      ],
      [
        "ائب",
        -9.742693901062012
      ],
      [
        "▁تفسير",
        -9.742788314819336
      ],
      [
        "▁أخ",
        -9.742879867553711
      ],
      [
        "قابل",
        -9.743099212646484
      ],
      [
        "▁وفقني",
        -9.74329662322998
      ],
      [
        "▁عجبني",
        -9.743511199951172
      ],
      [
        "▁نكتب",
        -9.743885040283203
      ],
      [
        "▁الدي",
        -9.74436092376709
      ],
      [
        "▁البا",
        -9.744535446166992
      ],
      [
        "age",
        -9.744747161865234
      ],
      [
        "دعي",
        -9.745055198669434
      ],
      [
        "▁هدرت",
        -9.74515438079834
      ],
      [
        "▁تفضل",
        -9.745487213134766
      ],
      [
        "فعال",
        -9.745927810668945
      ],
      [
        "▁al",
        -9.746018409729004
      ],
      [
        "نقل",
        -9.746281623840332
      ],
      [
        "رية",
        -9.746539115905762
      ],
      [
        "▁راقي",
        -9.746597290039062
      ],
      [
        "▁جمال",
        -9.746814727783203
      ],
      [
        "ولاد",
        -9.746846199035645
      ],
      [
        "عاني",
        -9.746920585632324
      ],
      [
        "جات",
        -9.747030258178711
      ],
      [
        "▁قيمة",
        -9.747062683105469
      ],
      [
        "اث",
        -9.747139930725098
      ],
      [
        "سق",
        -9.747303009033203
      ],
      [
        "▁يقرا",
        -9.747391700744629
      ],
      [
        "▁منتدى",
        -9.747861862182617
      ],
      [
        "▁باي",
        -9.748825073242188
      ],
      [
        "يته",
        -9.748990058898926
      ],
      [
        "▁دك",
        -9.749093055725098
      ],
      [
        "▁نقراو",
        -9.749250411987305
      ],
      [
        "▁طرف",
        -9.749907493591309
      ],
      [
        "▁نجحت",
        -9.750051498413086
      ],
      [
        "▁الاب",
        -9.750418663024902
      ],
      [
        "عند",
        -9.750659942626953
      ],
      [
        "▁مقر",
        -9.75066089630127
      ],
      [
        "▁تحل",
        -9.750875473022461
      ],
      [
        "▁ريداكس",
        -9.750906944274902
      ],
      [
        "كامل",
        -9.750944137573242
      ],
      [
        "▁vous",
        -9.750944137573242
      ],
      [
        "سية",
        -9.751273155212402
      ],
      [
        "نهار",
        -9.751763343811035
      ],
      [
        "ارك",
        -9.752281188964844
      ],
      [
        "▁اكتب",
        -9.752344131469727
      ],
      [
        "صة",
        -9.753363609313965
      ],
      [
        "▁1-",
        -9.754009246826172
      ],
      [
        "▁الوحيد",
        -9.754032135009766
      ],
      [
        "▁est",
        -9.754250526428223
      ],
      [
        "▁الأن",
        -9.754334449768066
      ],
      [
        "ic",
        -9.754347801208496
      ],
      [
        "▁منكم",
        -9.754448890686035
      ],
      [
        "خلع",
        -9.754725456237793
      ],
      [
        "▁توك",
        -9.754932403564453
      ],
      [
        "▁ياك",
        -9.754971504211426
      ],
      [
        "▁ثالث",
        -9.755287170410156
      ],
      [
        "▁فليل",
        -9.755744934082031
      ],
      [
        "درك",
        -9.756338119506836
      ],
      [
        "▁التعليم",
        -9.756722450256348
      ],
      [
        "شكل",
        -9.75675106048584
      ],
      [
        "رحب",
        -9.757107734680176
      ],
      [
        "▁يبقى",
        -9.75751781463623
      ],
      [
        "▁ساعات",
        -9.75757122039795
      ],
      [
        "▁نرجع",
        -9.757661819458008
      ],
      [
        "▁نح",
        -9.757960319519043
      ],
      [
        "▁خالتي",
        -9.758398056030273
      ],
      [
        "▁مجال",
        -9.758413314819336
      ],
      [
        "▁ناقص",
        -9.758509635925293
      ],
      [
        "نج",
        -9.759073257446289
      ],
      [
        "حمر",
        -9.759703636169434
      ],
      [
        "▁المست",
        -9.759750366210938
      ],
      [
        "سكن",
        -9.760281562805176
      ],
      [
        "}",
        -9.76048755645752
      ],
      [
        "طال",
        -9.760894775390625
      ],
      [
        "ربح",
        -9.761789321899414
      ],
      [
        "▁الرا",
        -9.761958122253418
      ],
      [
        "نجح",
        -9.762678146362305
      ],
      [
        "▁العلميين",
        -9.763856887817383
      ],
      [
        "قوم",
        -9.764082908630371
      ],
      [
        "غفر",
        -9.76412582397461
      ],
      [
        "▁مانيش",
        -9.764311790466309
      ],
      [
        "▁U",
        -9.764755249023438
      ],
      [
        "ظهر",
        -9.764830589294434
      ],
      [
        "حاسب",
        -9.7653169631958
      ],
      [
        "lna",
        -9.766039848327637
      ],
      [
        "▁30",
        -9.76622486114502
      ],
      [
        "صرا",
        -9.766494750976562
      ],
      [
        "▁عظم",
        -9.76721477508545
      ],
      [
        "▁ye",
        -9.767494201660156
      ],
      [
        "▁الاخير",
        -9.76771354675293
      ],
      [
        "▁جنانه",
        -9.768099784851074
      ],
      [
        "▁كانوا",
        -9.768447875976562
      ],
      [
        "▁متابع",
        -9.768754959106445
      ],
      [
        "▁إنسان",
        -9.768972396850586
      ],
      [
        "our",
        -9.769076347351074
      ],
      [
        "ستفاد",
        -9.769089698791504
      ],
      [
        "زد",
        -9.769217491149902
      ],
      [
        "▁قطع",
        -9.769716262817383
      ],
      [
        "▁بالضحك",
        -9.769817352294922
      ],
      [
        "▁he",
        -9.770766258239746
      ],
      [
        "▁مم",
        -9.771134376525879
      ],
      [
        "شرح",
        -9.771590232849121
      ],
      [
        "12",
        -9.771751403808594
      ],
      [
        "سام",
        -9.771989822387695
      ],
      [
        "▁V",
        -9.772436141967773
      ],
      [
        "روا",
        -9.772443771362305
      ],
      [
        "▁كيفك",
        -9.7725191116333
      ],
      [
        "▁فمن",
        -9.77294921875
      ],
      [
        "▁نقطة",
        -9.773213386535645
      ],
      [
        "R",
        -9.773439407348633
      ],
      [
        "▁وصحبه",
        -9.773496627807617
      ],
      [
        "▁اصبح",
        -9.774168014526367
      ],
      [
        "حرم",
        -9.77428913116455
      ],
      [
        "يهم",
        -9.774452209472656
      ],
      [
        "▁بشكل",
        -9.774455070495605
      ],
      [
        "▁وحنا",
        -9.77481746673584
      ],
      [
        "▁والف",
        -9.774835586547852
      ],
      [
        "عظم",
        -9.774922370910645
      ],
      [
        "▁تطبيق",
        -9.775019645690918
      ],
      [
        "▁يشفيك",
        -9.775591850280762
      ],
      [
        "ly",
        -9.775694847106934
      ],
      [
        "▁الكلمات",
        -9.776054382324219
      ],
      [
        "توقع",
        -9.776416778564453
      ],
      [
        "▁يتفرج",
        -9.777132987976074
      ],
      [
        "💪",
        -9.777368545532227
      ],
      [
        "👌",
        -9.777477264404297
      ],
      [
        "خاف",
        -9.77754020690918
      ],
      [
        "▁La",
        -9.778274536132812
      ],
      [
        "▁جاب",
        -9.778543472290039
      ],
      [
        "▁البناء",
        -9.778548240661621
      ],
      [
        "▁عط",
        -9.778746604919434
      ],
      [
        "رمي",
        -9.779097557067871
      ],
      [
        "▁بطريقة",
        -9.779306411743164
      ],
      [
        "🫶",
        -9.780145645141602
      ],
      [
        "tha",
        -9.780243873596191
      ],
      [
        "▁يكفي",
        -9.780649185180664
      ],
      [
        "▁الارض",
        -9.780780792236328
      ],
      [
        "▁une",
        -9.780832290649414
      ],
      [
        "▁كثيرة",
        -9.781776428222656
      ],
      [
        "عرب",
        -9.782024383544922
      ],
      [
        "▁الجمعة",
        -9.78215503692627
      ],
      [
        "and",
        -9.782771110534668
      ],
      [
        "▁ادخل",
        -9.7828369140625
      ],
      [
        "▁حقيقية",
        -9.782855033874512
      ],
      [
        "▁السي",
        -9.78312873840332
      ],
      [
        "▁عاود",
        -9.783173561096191
      ],
      [
        "والله",
        -9.78323745727539
      ],
      [
        "بني",
        -9.783245086669922
      ],
      [
        "مه",
        -9.783390998840332
      ],
      [
        "▁ذويه",
        -9.783982276916504
      ],
      [
        "▁sepia",
        -9.78439712524414
      ],
      [
        "ريس",
        -9.784905433654785
      ],
      [
        "▁أسأل",
        -9.784905433654785
      ],
      [
        "ach",
        -9.7850980758667
      ],
      [
        "▁كاس",
        -9.785228729248047
      ],
      [
        "▁صاي",
        -9.7855224609375
      ],
      [
        "▁الض",
        -9.78614330291748
      ],
      [
        "طاع",
        -9.786148071289062
      ],
      [
        "شهر",
        -9.787200927734375
      ],
      [
        "▁Merci",
        -9.787596702575684
      ],
      [
        "16",
        -9.78792953491211
      ],
      [
        "دك",
        -9.78808307647705
      ],
      [
        "راجع",
        -9.788130760192871
      ],
      [
        "lik",
        -9.788293838500977
      ],
      [
        "▁شرف",
        -9.788646697998047
      ],
      [
        "▁وله",
        -9.788680076599121
      ],
      [
        "▁ليفيديو",
        -9.788872718811035
      ],
      [
        "ضاء",
        -9.78907299041748
      ],
      [
        "▁يصبر",
        -9.78912353515625
      ],
      [
        "▁وجد",
        -9.789501190185547
      ],
      [
        "تح",
        -9.789645195007324
      ],
      [
        "▁يرحمهم",
        -9.790630340576172
      ],
      [
        "▁حبيبي",
        -9.791213989257812
      ],
      [
        "يتها",
        -9.791467666625977
      ],
      [
        "اوية",
        -9.791991233825684
      ],
      [
        "▁الدول",
        -9.79241943359375
      ],
      [
        "▁🌹",
        -9.7924222946167
      ],
      [
        "▁وجدت",
        -9.792505264282227
      ],
      [
        "تاع",
        -9.7927885055542
      ],
      [
        "اسي",
        -9.792878150939941
      ],
      [
        "▁,,",
        -9.793313980102539
      ],
      [
        "nt",
        -9.794099807739258
      ],
      [
        "▁وصح",
        -9.794416427612305
      ],
      [
        "▁خطرة",
        -9.794576644897461
      ],
      [
        "عجز",
        -9.79572868347168
      ],
      [
        "امي",
        -9.796005249023438
      ],
      [
        "▁بلغ",
        -9.796059608459473
      ],
      [
        "▁رايك",
        -9.797087669372559
      ],
      [
        "▁إليك",
        -9.797097206115723
      ],
      [
        "شغل",
        -9.797127723693848
      ],
      [
        "خي",
        -9.797170639038086
      ],
      [
        "dj",
        -9.7977876663208
      ],
      [
        "▁تاوعك",
        -9.79804801940918
      ],
      [
        "▁دزاير",
        -9.798060417175293
      ],
      [
        "▁واجعل",
        -9.798155784606934
      ],
      [
        "صال",
        -9.798260688781738
      ],
      [
        "▁لعب",
        -9.7982759475708
      ],
      [
        "▁قص",
        -9.798373222351074
      ],
      [
        "بير",
        -9.798462867736816
      ],
      [
        "😔",
        -9.798648834228516
      ],
      [
        "▁العلماء",
        -9.79891300201416
      ],
      [
        "▁يرزق",
        -9.799033164978027
      ],
      [
        "▁عش",
        -9.800406455993652
      ],
      [
        "▁2-",
        -9.801704406738281
      ],
      [
        "▁الأدب",
        -9.802400588989258
      ],
      [
        "ندم",
        -9.80245304107666
      ],
      [
        "▁ذهب",
        -9.802814483642578
      ],
      [
        "▁الخل",
        -9.80371379852295
      ],
      [
        "▁نجح",
        -9.80389404296875
      ],
      [
        "▁السبب",
        -9.804300308227539
      ],
      [
        "▁يرحمه",
        -9.804614067077637
      ],
      [
        "))",
        -9.804676055908203
      ],
      [
        "▁القيامة",
        -9.805715560913086
      ],
      [
        "سئل",
        -9.805769920349121
      ],
      [
        "▁مدير",
        -9.805877685546875
      ],
      [
        "بيع",
        -9.806036949157715
      ],
      [
        "▁تريد",
        -9.80687427520752
      ],
      [
        "▁أحمد",
        -9.807303428649902
      ],
      [
        "▁صديق",
        -9.80738639831543
      ],
      [
        "▁bon",
        -9.80776596069336
      ],
      [
        "▁لدار",
        -9.808398246765137
      ],
      [
        "تق",
        -9.80870532989502
      ],
      [
        "خطر",
        -9.808880805969238
      ],
      [
        "سى",
        -9.80914306640625
      ],
      [
        "▁تجعل",
        -9.809351921081543
      ],
      [
        "اذ",
        -9.809379577636719
      ],
      [
        "▁بالك",
        -9.809488296508789
      ],
      [
        "شارك",
        -9.8101167678833
      ],
      [
        "ران",
        -9.810712814331055
      ],
      [
        "▁نقص",
        -9.811447143554688
      ],
      [
        "ماذا",
        -9.811722755432129
      ],
      [
        "▁العيد",
        -9.812082290649414
      ],
      [
        "▁اكيد",
        -9.812551498413086
      ],
      [
        "نظم",
        -9.814009666442871
      ],
      [
        "مار",
        -9.814452171325684
      ],
      [
        "▁تقني",
        -9.814515113830566
      ],
      [
        "▁عجب",
        -9.814852714538574
      ],
      [
        "▁an",
        -9.814990997314453
      ],
      [
        "▁زمان",
        -9.815669059753418
      ],
      [
        "▁يرجع",
        -9.81571102142334
      ],
      [
        "▁الحكم",
        -9.816198348999023
      ],
      [
        "▁مدرسة",
        -9.81650447845459
      ],
      [
        "فال",
        -9.816688537597656
      ],
      [
        "▁اميين",
        -9.816692352294922
      ],
      [
        "▁الفصل",
        -9.816763877868652
      ],
      [
        "▁بعدها",
        -9.816926002502441
      ],
      [
        "▁خي",
        -9.817509651184082
      ],
      [
        "▁شاب",
        -9.81829833984375
      ],
      [
        "▁العادة",
        -9.819019317626953
      ],
      [
        "▁نقدرو",
        -9.8190279006958
      ],
      [
        "iya",
        -9.81908893585205
      ],
      [
        "اهر",
        -9.819295883178711
      ],
      [
        "17",
        -9.819561958312988
      ],
      [
        "▁صبر",
        -9.8196439743042
      ],
      [
        "صم",
        -9.819887161254883
      ],
      [
        "nn",
        -9.82024097442627
      ],
      [
        "راف",
        -9.82034683227539
      ],
      [
        "جمل",
        -9.821070671081543
      ],
      [
        "قط",
        -9.82109260559082
      ],
      [
        "▁تأ",
        -9.821196556091309
      ],
      [
        "▁سمانة",
        -9.82121467590332
      ],
      [
        "داع",
        -9.821860313415527
      ],
      [
        "▁ثانوي",
        -9.821946144104004
      ],
      [
        "تقدم",
        -9.822117805480957
      ],
      [
        "▁ضر",
        -9.822134017944336
      ],
      [
        "▁العضو",
        -9.822312355041504
      ],
      [
        "حزن",
        -9.822521209716797
      ],
      [
        "يط",
        -9.822571754455566
      ],
      [
        "▁طويلة",
        -9.822587966918945
      ],
      [
        "حمل",
        -9.822967529296875
      ],
      [
        "▁الرحمان",
        -9.823508262634277
      ],
      [
        "وبة",
        -9.823660850524902
      ],
      [
        "▁الفكرة",
        -9.824193000793457
      ],
      [
        "▁والن",
        -9.82427978515625
      ],
      [
        "▁متى",
        -9.825499534606934
      ],
      [
        "ختلف",
        -9.825565338134766
      ],
      [
        "OU",
        -9.825632095336914
      ],
      [
        "أهل",
        -9.825675010681152
      ],
      [
        "هذا",
        -9.825750350952148
      ],
      [
        "لحق",
        -9.825920104980469
      ],
      [
        "▁لخر",
        -9.826092720031738
      ],
      [
        "▁يوفق",
        -9.826172828674316
      ],
      [
        "▁أجمل",
        -9.826210021972656
      ],
      [
        "▁no",
        -9.826485633850098
      ],
      [
        "▁أنها",
        -9.8267822265625
      ],
      [
        "خد",
        -9.826810836791992
      ],
      [
        "🤲🏻",
        -9.826871871948242
      ],
      [
        "حرق",
        -9.826981544494629
      ],
      [
        "▁يضحك",
        -9.827115058898926
      ],
      [
        "طلاق",
        -9.827564239501953
      ],
      [
        "▁سواء",
        -9.827628135681152
      ],
      [
        "ديد",
        -9.827852249145508
      ],
      [
        "▁خدمت",
        -9.828666687011719
      ],
      [
        "قصد",
        -9.828705787658691
      ],
      [
        "♥️",
        -9.828756332397461
      ],
      [
        "قى",
        -9.829280853271484
      ],
      [
        "▁يشوفو",
        -9.830056190490723
      ],
      [
        "قعد",
        -9.83036994934082
      ],
      [
        "▁يخلي",
        -9.830452919006348
      ],
      [
        "ng",
        -9.83057975769043
      ],
      [
        "دام",
        -9.8306245803833
      ],
      [
        "▁الوالدين",
        -9.831130027770996
      ],
      [
        "▁تصريحية",
        -9.831352233886719
      ],
      [
        "▁عدل",
        -9.831372261047363
      ],
      [
        "قات",
        -9.831748008728027
      ],
      [
        "▁وغير",
        -9.832009315490723
      ],
      [
        "▁صحيحة",
        -9.832331657409668
      ],
      [
        "▁ذاك",
        -9.832429885864258
      ],
      [
        "▁علمية",
        -9.832660675048828
      ],
      [
        "▁نسكن",
        -9.832762718200684
      ],
      [
        "▁والإ",
        -9.833932876586914
      ],
      [
        "لول",
        -9.834175109863281
      ],
      [
        "فاق",
        -9.834508895874023
      ],
      [
        "▁ابو",
        -9.83488655090332
      ],
      [
        "يبة",
        -9.835680961608887
      ],
      [
        "ss",
        -9.835800170898438
      ],
      [
        "ment",
        -9.83581256866455
      ],
      [
        "▁الفرنسية",
        -9.836346626281738
      ],
      [
        "▁حياة",
        -9.83660888671875
      ],
      [
        "za",
        -9.837019920349121
      ],
      [
        "▁إي",
        -9.837282180786133
      ],
      [
        "▁حطيت",
        -9.837568283081055
      ],
      [
        "عب",
        -9.838229179382324
      ],
      [
        "19",
        -9.838385581970215
      ],
      [
        "▁جز",
        -9.838635444641113
      ],
      [
        "ضيع",
        -9.838739395141602
      ],
      [
        "▁غادي",
        -9.839315414428711
      ],
      [
        "▁رجعوني",
        -9.839864730834961
      ],
      [
        "▁😁",
        -9.839969635009766
      ],
      [
        "ive",
        -9.840120315551758
      ],
      [
        "▁شخصية",
        -9.840128898620605
      ],
      [
        "▁المشبه",
        -9.840371131896973
      ],
      [
        "▁سبيل",
        -9.840721130371094
      ],
      [
        "غلط",
        -9.840799331665039
      ],
      [
        "▁القادر",
        -9.841221809387207
      ],
      [
        "عام",
        -9.841521263122559
      ],
      [
        "30",
        -9.84171199798584
      ],
      [
        "un",
        -9.842286109924316
      ],
      [
        "▁رأس",
        -9.842401504516602
      ],
      [
        "صنع",
        -9.842470169067383
      ],
      [
        "▁نبينا",
        -9.842649459838867
      ],
      [
        "غي",
        -9.842704772949219
      ],
      [
        "آن",
        -9.842745780944824
      ],
      [
        "حاب",
        -9.842793464660645
      ],
      [
        "▁ونتا",
        -9.8428955078125
      ],
      [
        "▁نتع",
        -9.84293270111084
      ],
      [
        "مثال",
        -9.843069076538086
      ],
      [
        "▁??",
        -9.843083381652832
      ],
      [
        "▁يسترك",
        -9.843090057373047
      ],
      [
        "لبس",
        -9.843904495239258
      ],
      [
        "▁فيديوهاتك",
        -9.843915939331055
      ],
      [
        "▁ترى",
        -9.845073699951172
      ],
      [
        "ver",
        -9.845573425292969
      ],
      [
        "ina",
        -9.845993041992188
      ],
      [
        "سعادة",
        -9.846150398254395
      ],
      [
        "غضب",
        -9.846953392028809
      ],
      [
        "▁نربح",
        -9.847015380859375
      ],
      [
        "ضن",
        -9.847134590148926
      ],
      [
        "▁تسمع",
        -9.84794807434082
      ],
      [
        "▁الآ",
        -9.847977638244629
      ],
[...]
