<pad>	0
<unk>	0
<s>	0
</s>	0
<0x00>	0
<0x01>	0
<0x02>	0
<0x03>	0
<0x04>	0
<0x05>	0
<0x06>	0
<0x07>	0
<0x08>	0
<0x09>	0
<0x0A>	0
<0x0B>	0
<0x0C>	0
<0x0D>	0
<0x0E>	0
<0x0F>	0
<0x10>	0
<0x11>	0
<0x12>	0
<0x13>	0
<0x14>	0
<0x15>	0
<0x16>	0
<0x17>	0
<0x18>	0
<0x19>	0
<0x1A>	0
<0x1B>	0
<0x1C>	0
<0x1D>	0
<0x1E>	0
<0x1F>	0
<0x20>	0
<0x21>	0
<0x22>	0
<0x23>	0
<0x24>	0
<0x25>	0
<0x26>	0
<0x27>	0
<0x28>	0
<0x29>	0
<0x2A>	0
<0x2B>	0
<0x2C>	0
<0x2D>	0
<0x2E>	0
<0x2F>	0
<0x30>	0
<0x31>	0
<0x32>	0
<0x33>	0
<0x34>	0
<0x35>	0
<0x36>	0
<0x37>	0
<0x38>	0
<0x39>	0
<0x3A>	0
<0x3B>	0
<0x3C>	0
<0x3D>	0
<0x3E>	0
<0x3F>	0
<0x40>	0
<0x41>	0
<0x42>	0
<0x43>	0
<0x44>	0
<0x45>	0
<0x46>	0
<0x47>	0
<0x48>	0
<0x49>	0
<0x4A>	0
<0x4B>	0
<0x4C>	0
<0x4D>	0
<0x4E>	0
<0x4F>	0
<0x50>	0
<0x51>	0
<0x52>	0
<0x53>	0
<0x54>	0
<0x55>	0
<0x56>	0
<0x57>	0
<0x58>	0
<0x59>	0
<0x5A>	0
<0x5B>	0
<0x5C>	0
<0x5D>	0
<0x5E>	0
<0x5F>	0
<0x60>	0
<0x61>	0
<0x62>	0
<0x63>	0
<0x64>	0
<0x65>	0
<0x66>	0
<0x67>	0
<0x68>	0
<0x69>	0
<0x6A>	0
<0x6B>	0
<0x6C>	0
<0x6D>	0
<0x6E>	0
<0x6F>	0
<0x70>	0
<0x71>	0
<0x72>	0
<0x73>	0
<0x74>	0
<0x75>	0
<0x76>	0
<0x77>	0
<0x78>	0
<0x79>	0
<0x7A>	0
<0x7B>	0
<0x7C>	0
<0x7D>	0
<0x7E>	0
<0x7F>	0
<0x80>	0
<0x81>	0
<0x82>	0
<0x83>	0
<0x84>	0
<0x85>	0
<0x86>	0
<0x87>	0
<0x88>	0
<0x89>	0
<0x8A>	0
<0x8B>	0
<0x8C>	0
<0x8D>	0
<0x8E>	0
<0x8F>	0
<0x90>	0
<0x91>	0
<0x92>	0
<0x93>	0
<0x94>	0
<0x95>	0
<0x96>	0
<0x97>	0
<0x98>	0
<0x99>	0
<0x9A>	0
<0x9B>	0
<0x9C>	0
<0x9D>	0
<0x9E>	0
<0x9F>	0
<0xA0>	0
<0xA1>	0
<0xA2>	0
<0xA3>	0
<0xA4>	0
<0xA5>	0
<0xA6>	0
<0xA7>	0
<0xA8>	0
<0xA9>	0
<0xAA>	0
<0xAB>	0
<0xAC>	0
<0xAD>	0
<0xAE>	0
<0xAF>	0
<0xB0>	0
<0xB1>	0
<0xB2>	0
<0xB3>	0
<0xB4>	0
<0xB5>	0
<0xB6>	0
<0xB7>	0
<0xB8>	0
<0xB9>	0
<0xBA>	0
<0xBB>	0
<0xBC>	0
<0xBD>	0
<0xBE>	0
<0xBF>	0
<0xC0>	0
<0xC1>	0
<0xC2>	0
<0xC3>	0
<0xC4>	0
<0xC5>	0
<0xC6>	0
<0xC7>	0
<0xC8>	0
<0xC9>	0
<0xCA>	0
<0xCB>	0
<0xCC>	0
<0xCD>	0
<0xCE>	0
<0xCF>	0
<0xD0>	0
<0xD1>	0
<0xD2>	0
<0xD3>	0
<0xD4>	0
<0xD5>	0
<0xD6>	0
<0xD7>	0
<0xD8>	0
<0xD9>	0
<0xDA>	0
<0xDB>	0
<0xDC>	0
<0xDD>	0
<0xDE>	0
<0xDF>	0
<0xE0>	0
<0xE1>	0
<0xE2>	0
<0xE3>	0
<0xE4>	0
<0xE5>	0
<0xE6>	0
<0xE7>	0
<0xE8>	0
<0xE9>	0
<0xEA>	0
<0xEB>	0
<0xEC>	0
<0xED>	0
<0xEE>	0
<0xEF>	0
<0xF0>	0
<0xF1>	0
<0xF2>	0
<0xF3>	0
<0xF4>	0
<0xF5>	0
<0xF6>	0
<0xF7>	0
<0xF8>	0
<0xF9>	0
<0xFA>	0
<0xFB>	0
<0xFC>	0
<0xFD>	0
<0xFE>	0
<0xFF>	0
▁و	-3.84893
▁	-4.13993
ة	-4.39274
▁في	-4.42938
ي	-4.4384
▁الله	-4.49061
▁من	-4.50234
ا	-4.51777
ه	-4.64731
و	-4.67249
ك	-4.72798
ت	-5.04768
▁على	-5.14032
ها	-5.17064
▁ال	-5.24149
نا	-5.33779
▁ما	-5.41395
▁ربي	-5.45291
.	-5.46015
▁لي	-5.51352
▁ت	-5.53938
]	-5.54754
▁[	-5.55454
▁ي	-5.56577
ش	-5.57918
▁لا	-5.5857
ين	-5.58685
MENTION	-5.65595
،	-5.67565
▁م	-5.71827
▁انا	-5.71893
ات	-5.72367
▁ب	-5.72696
▁ان	-5.75084
▁ا	-5.75304
ية	-5.77716
هم	-5.78122
م	-5.84018
▁ل	-5.86589
▁يا	-5.88525
▁...	-5.91465
▁ن	-5.92303
▁كل	-5.97039
وا	-5.97173
▁،	-6.03749
▁الم	-6.05172
ني	-6.06151
...	-6.06873
▁أ	-6.1374
▁وال	-6.17274
▁-	-6.21902
▁ولا	-6.22365
▁أن	-6.23072
▁هذا	-6.24377
▁استاذ	-6.24636
▁.	-6.25069
ال	-6.2857
▁مع	-6.28794
3	-6.33773
▁ف	-6.35271
▁شاء	-6.38641
▁لل	-6.39098
▁بال	-6.3996
ون	-6.40864
كم	-6.42667
ن	-6.42798
▁غير	-6.44276
▁كي	-6.46432
▁والله	-6.47692
▁❤	-6.49048
▁شكرا	-6.50341
▁عن	-6.5146
▁هو	-6.52019
▁اللهم	-6.52081
:	-6.53575
ى	-6.54361
▁الا	-6.56144
▁تاع	-6.59886
▁:	-6.59917
s	-6.63023
▁عليه	-6.65652
▁هه	-6.67846
▁(	-6.68335
لي	-6.68792
▁يارب	-6.68981
▁عليكم	-6.69814
▁السلام	-6.70959
▁كان	-6.71918
▁بزاف	-6.73474
تي	-6.76335
▁😂😂	-6.7689
▁فيك	-6.76979
؟	-6.77127
ان	-6.78254
▁بصح	-6.78401
▁❤❤	-6.80913
▁؟	-6.8144
▁لم	-6.81821
▁حتى	-6.82025
▁او	-6.82093
▁راني	-6.83842
ب	-6.84412
▁قال	-6.84716
▁لك	-6.84742
اء	-6.85907
❤	-6.85916
▁بارك	-6.8697
▁3	-6.87566
ف	-6.88159
▁تع	-6.88905
ل	-6.89165
ر	-6.89636
▁هي	-6.89774
)	-6.90609
ما	-6.93501
▁واحد	-6.95334
▁كامل	-6.95763
▁لله	-6.98261
▁فيديو	-6.99171
▁كنت	-6.99778
لك	-7.00462
a	-7.01639
▁وي	-7.02104
▁مت	-7.02961
▁فال	-7.03007
▁إن	-7.03807
▁"	-7.04415
د	-7.04747
▁خير	-7.05052
t	-7.05911
▁واش	-7.06601
▁هل	-7.0843
9	-7.09292
▁أو	-7.09519
▁عليك	-7.09734
▁باك	-7.10483
▁😂	-7.11416
▁بعد	-7.1237
▁الباك	-7.13246
7	-7.15035
ع	-7.16282
تك	-7.16606
ور	-7.19009
e	-7.19727
▁لكن	-7.20281
▁فيها	-7.20647
▁خويا	-7.21659
▁وت	-7.22084
▁مي	-7.22212
ج	-7.223
k	-7.22715
وش	-7.22903
▁راك	-7.23185
س	-7.23479
يا	-7.23887
▁الت	-7.25444
ته	-7.25562
▁صح	-7.26416
y	-7.26462
▁هذه	-7.27716
▁يحفظك	-7.27891
▁ون	-7.28427
▁انت	-7.28584
▁فيه	-7.28905
▁له	-7.29518
▁أنا	-7.30749
❤❤	-7.31147
o	-7.31295
▁هنا	-7.31334
ام	-7.31992
▁قبل	-7.33316
▁إ	-7.33427
▁وين	-7.34082
▁ام	-7.34533
▁برك	-7.34986
▁إلى	-7.35741
▁يوم	-7.36844
d	-7.3731
▁رب	-7.37489
▁الف	-7.37655
i	-7.38511
▁عندي	-7.38582
▁باش	-7.38596
😂	-7.38891
▁كيما	-7.39063
▁l	-7.39154
ز	-7.39282
▁بين	-7.39319
▁لولا	-7.39342
m	-7.39492
▁التي	-7.40075
ص	-7.40309
▁الأ	-7.40889
▁بلي	-7.41051
r	-7.41315
لا	-7.41742
تها	-7.42348
▁يكون	-7.43525
h	-7.43935
▁كاين	-7.43953
في	-7.4411
n	-7.44123
▁w	-7.44424
'	-7.45176
من	-7.454
▁عند	-7.4664
خ	-7.46683
▁وسلم	-7.47081
لو	-7.47298
▁اي	-7.47545
😂😂	-7.49109
▁بن	-7.49395
▁وم	-7.50241
▁الذي	-7.50552
أ	-7.51965
▁شكون	-7.52062
ح	-7.52099
▁بل	-7.52786
▁ادعولي	-7.5301
دي	-7.53015
b	-7.53258
▁؟؟	-7.54763
,	-7.55039
▁الفيديو	-7.55872
2	-7.56068
▁الجزائر	-7.56287
▁ع	-7.56623
ط	-7.56797
▁راح	-7.56851
▁اخي	-7.57293
▁كيف	-7.57517
w	-7.57595
▁راه	-7.57927
▁كانت	-7.58107
يت	-7.58222
تش	-7.58718
"	-7.59502
؟؟	-7.59543
▁دير	-7.60062
لنا	-7.60262
▁الى	-7.60721
▁2	-7.60751
▁😢	-7.61307
l	-7.61351
▁الناس	-7.61513
▁خيرا	-7.61799
▁m	-7.61879
-	-7.62375
▁صلى	-7.62518
5	-7.62802
▁كما	-7.62843
▁ماشي	-7.64238
▁مش	-7.6468
f	-7.65226
▁محمد	-7.65669
1	-7.65965
la	-7.66285
▁الع	-7.66468
▁اختي	-7.66976
ئ	-7.67129
▁أستاذ	-7.67591
▁قصة	-7.6829
▁يت	-7.68292
▁تكون	-7.68345
اب	-7.68579
▁به	-7.68888
▁وأ	-7.69007
يل	-7.69022
▁س	-7.69032
▁t	-7.691
▁اذا	-7.70264
▁وش	-7.70487
▁يعني	-7.71129
c	-7.71156
▁فضلك	-7.71994
ق	-7.72222
▁ذلك	-7.72644
▁لازم	-7.72907
▁)	-7.72979
▁اليوم	-7.73397
▁امين	-7.73405
▁فقط	-7.73551
ض	-7.73764
▁رضا	-7.73944
▁نتا	-7.74049
▁لو	-7.74504
ير	-7.74826
p	-7.75162
▁يعطيك	-7.75549
▁إلا	-7.75837
▁سلام	-7.76933
ذ	-7.77097
يه	-7.77413
▁وانا	-7.78288
ث	-7.78563
▁عندك	-7.78768
▁الحمد	-7.78844
u	-7.79349
▁عليها	-7.79853
▁نفس	-7.79949
▁ك	-7.80001
▁افضل	-7.80491
تنا	-7.81137
غ	-7.81754
▁نجيب	-7.82077
▁علاه	-7.82215
▁ومن	-7.82402
▁أم	-7.82498
آ	-7.82577
▁ختي	-7.82697
▁ياربي	-7.82872
▁n	-7.83331
▁أخي	-7.83734
▁الي	-7.84036
j	-7.84504
يش	-7.8469
▁قصص	-7.84964
▁يبارك	-7.85127
وه	-7.85898
▁la	-7.86323
▁a	-7.86586
ار	-7.86676
4	-7.87132
▁حاجة	-7.87299
▁ta	-7.87317
▁y	-7.87456
▁دار	-7.87477
▁ديرلنا	-7.8754
▁الخير	-7.87602
▁فل	-7.877
▁قد	-7.87851
▁رانا	-7.87922
▁جزاك	-7.88377
▁حنا	-7.88421
▁مات	-7.88793
▁وما	-7.88835
▁بك	-7.88836
▁f	-7.89005
ch	-7.89153
▁هاد	-7.89212
▁ma	-7.89227
▁خاوتي	-7.89683
▁اللي	-7.89837
na	-7.89863
g	-7.9004
▁الإ	-7.90201
▁مرة	-7.90651
اح	-7.91201
▁بعض	-7.91662
يك	-7.91669
اد	-7.9169
وني	-7.92581
وم	-7.92786
▁ليس	-7.92812
▁ورحمة	-7.93256
▁اول	-7.93539
تو	-7.94146
عة	-7.95105
اش	-7.95651
▁سي	-7.95724
ربي	-7.96353
▁العام	-7.96437
▁العالمين	-7.96564
▁ثم	-7.96599
▁عبد	-7.96654
▁قلت	-7.96711
▁جدا	-7.97287
▁لنا	-7.9732
▁علي	-7.97358
ري	-7.97473
جي	-7.97883
z	-7.98221
▁هذي	-7.98405
▁عام	-7.99099
▁الن	-7.99549
▁با	-8.00054
يات	-8.00794
▁وربي	-8.008
بي	-8.00913
▁كون	-8.0096
ول	-8.01112
▁الصحة	-8.01152
▁فا	-8.01248
را	-8.01467
▁مليح	-8.01516
▁علينا	-8.01769
😢	-8.02417
▁ممكن	-8.02596
▁نحبك	-8.02841
▁تت	-8.03176
ra	-8.03199
سي	-8.03391
▁خو	-8.03778
▁وليد	-8.03993
▁جا	-8.04005
re	-8.04043
▁*	-8.04274
▁إذا	-8.05348
اس	-8.05374
▁الجنة	-8.05494
▁شيء	-8.05566
▁وفي	-8.05836
▁ندي	-8.05932
قول	-8.0596
v	-8.06062
دا	-8.06096
▁زوج	-8.06174
▁والو	-8.06264
/	-8.0657
▁وقت	-8.06766
ha	-8.06999
▁تعالى	-8.07024
6	-8.07229
▁5	-8.07255
اه	-8.07606
al	-8.07847
▁است	-8.08025
li	-8.08037
ولي	-8.08335
مي	-8.08355
ست	-8.08511
▁,	-8.08872
_	-8.08989
▁بالمثل	-8.09299
وك	-8.09361
لها	-8.09744
▁بالله	-8.09798
▁لها	-8.09865
▁9	-8.09933
▁حكاية	-8.10119
er	-8.10157
8	-8.1026
▁1	-8.10799
▁تاعك	-8.11012
▁بلا	-8.11042
▁نعم	-8.11316
لة	-8.12041
اك	-8.12217
▁كمل	-8.12358
رب	-8.12755
ء	-8.12769
▁ولكن	-8.12776
▁هدا	-8.12779
▁de	-8.13198
▁القصة	-8.13447
ri	-8.14149
▁تقول	-8.1423
▁4	-8.1425
▁الس	-8.14443
▁والم	-8.14685
▁ناس	-8.14692
▁انشاء	-8.14758
▁البكالوريا	-8.14878
▁رسول	-8.149
▁نشوف	-8.15369
اج	-8.15511
▁كيفاش	-8.157
▁وهو	-8.15738
▁نتاع	-8.15994
ظ	-8.16008
▁وكل	-8.16308
▁كتاب	-8.16536
وها	-8.16582
▁رمضان	-8.16658
▁معاك	-8.16795
▁باه	-8.16798
x	-8.16947
▁ص	-8.17205
▁لباك	-8.1744
▁ز	-8.17568
يد	-8.17604
▁قاع	-8.17616
▁❤️	-8.18054
دو	-8.18103
▁يوفقك	-8.18546
▁b	-8.18847
▁راجعون	-8.18887
▁شفت	-8.19029
▁A	-8.19189
▁شحال	-8.19369
▁راهي	-8.1961
ود	-8.19637
▁les	-8.19796
▁مشي	-8.19944
▁يرحم	-8.2007
تم	-8.2064
جر	-8.20792
▁ندير	-8.20804
▁الكريم	-8.20929
▁ش	-8.2114
▁وبركاته	-8.21205
▁وان	-8.21409
▁تم	-8.21422
▁مزال	-8.21633
▁2025	-8.21647
▁يقول	-8.21726
▁ابن	-8.21856
حل	-8.22103
▁ماشاء	-8.22163
رة	-8.22551
▁حب	-8.22583
▁كيفاه	-8.22928
صر	-8.23195
ma	-8.23346
▁بزااف	-8.23395
▁7	-8.23503
يم	-8.23571
▁غ	-8.2364
▁مثل	-8.23704
▁الحق	-8.23912
ou	-8.24206
▁ر	-8.24228
▁جام	-8.24314
▁ولكم	-8.25088
وب	-8.25432
▁سنة	-8.2545
▁شعبة	-8.25645
▁تاني	-8.25968
▁الموضوع	-8.26204
▁c	-8.26282
▁ماي	-8.26649
▁بها	-8.26762
فت	-8.26856
▁ح	-8.27097
يب	-8.27182
▁😊	-8.27227
بر	-8.27271
▁أي	-8.27403
▁نت	-8.27496
رو	-8.27548
▁الجن	-8.27563
▁معدل	-8.2804
▁منها	-8.28555
▁الق	-8.28879
▁صباح	-8.28988
▁آمين	-8.29221
▁+	-8.2924
▁عليهم	-8.29448
وال	-8.29461
عد	-8.29592
▁يدير	-8.29603
▁اني	-8.29865
▁s	-8.29867
▁ya	-8.30187
in	-8.30208
▁جديد	-8.30327
▁خ	-8.30546
▁يحفضك	-8.30768
▁حق	-8.30971
لهم	-8.30996
اع	-8.31226
▁🤲	-8.31239
▁استاذة	-8.31518
ti	-8.31567
▁وحدة	-8.31778
▁😢😢	-8.31841
فا	-8.32403
▁M	-8.32473
▁المنتدى	-8.32702
▁😅	-8.32774
▁سؤال	-8.32802
▁جميع	-8.33115
▁الان	-8.33138
زي	-8.33306
▁وشكرا	-8.33381
تني	-8.33616
▁نقرا	-8.33639
▁روحي	-8.33714
▁نهار	-8.33797
▁ينجحنا	-8.33864
مت	-8.34566
▁الوقت	-8.34745
▁وحد	-8.34812
▁لن	-8.35067
يس	-8.35149
▁عليا	-8.35171
▁شعر	-8.35247
وي	-8.35266
▁هاذي	-8.3533
▁لكم	-8.35456
▁راهم	-8.35488
وس	-8.35658
▁تحت	-8.35789
حي	-8.35808
▁الخ	-8.35842
▁أنت	-8.36004
▁10	-8.36018
▁روح	-8.36049
▁مرحبا	-8.36161
▁راكي	-8.36517
▁حل	-8.3664
😊	-8.36687
▁ول	-8.37027
▁ميزان	-8.37114
▁لما	-8.37489
▁الج	-8.37551
▁الب	-8.3818
❤️	-8.38197
▁العلم	-8.38467
بل	-8.39028
▁النبي	-8.39053
😅	-8.3924
كل	-8.39278
(	-8.39299
▁اليه	-8.39471
▁إليه	-8.39543
▁العظيم	-8.39653
▁تن	-8.39741
تهم	-8.39818
es	-8.39855
▁اكثر	-8.40065
بو	-8.4029
▁علا	-8.40503
يف	-8.4065
▁محتوى	-8.40658
▁هناك	-8.40708
▁d	-8.40773
▁طريقة	-8.40996
▁2026	-8.41544
▁شهادة	-8.41656
اط	-8.41763
▁هادي	-8.42264
▁الش	-8.42462
▁تحياتي	-8.42498
با	-8.42607
▁لكل	-8.42713
▁شا	-8.42789
الله	-8.43163
▁li	-8.43186
اف	-8.43432
▁ولي	-8.43561
▁الغ	-8.43587
▁حبيت	-8.4376
▁نتفرج	-8.43783
▁عندو	-8.43789
▁الدين	-8.43803
▁حاب	-8.44218
▁كلش	-8.44318
▁سا	-8.44348
▁النجاح	-8.44491
▁كثيرا	-8.44533
حب	-8.44651
▁ست	-8.44762
بت	-8.44772
▁يجي	-8.44787
▁المهم	-8.44988
▁وب	-8.45256
▁حال	-8.45269
▁كثر	-8.45633
▁رعب	-8.45649
▁the	-8.45673
▁مام	-8.4574
▁le	-8.45935
é	-8.46056
▁اسم	-8.46258
▁سبحان	-8.46276
▁لأن	-8.46341
لم	-8.46343
▁بالتوفيق	-8.46661
▁رحمة	-8.46692
▁نشالله	-8.46859
▁بي	-8.4691
▁شيخ	-8.47154
▁عادي	-8.47181
q	-8.47183
▁موضوع	-8.472
😭	-8.47223
▁مان	-8.47234
▁نتي	-8.47235
له	-8.47629
▁عنه	-8.47779
وف	-8.47788
▁جيت	-8.48073
▁جن	-8.48172
▁العالم	-8.4833
▁قلبي	-8.48359
at	-8.48392
▁علاش	-8.48425
▁بمعدل	-8.48734
▁علم	-8.48767
▁د	-8.49186
▁الشعر	-8.49318
▁🙂	-8.49352
بة	-8.49437
مة	-8.4955
▁شرح	-8.49593
▁حسناتك	-8.49684
▁درت	-8.49741
▁بو	-8.49745
اني	-8.49892
جا	-8.50014
▁لت	-8.50146
▁المسلمين	-8.50229
يين	-8.50267
كون	-8.5038
▁ط	-8.50423
▁مبروك	-8.50445
▁أفضل	-8.50503
▁هاذ	-8.50514
▁للم	-8.50821
▁أختي	-8.50853
▁ثاني	-8.50875
▁خاصة	-8.50943
💔	-8.5107
▁ديرنا	-8.51321
!	-8.51325
ؤ	-8.51378
ed	-8.51526
▁S	-8.51833
▁T	-8.51856
▁مر	-8.51877
ينا	-8.5203
▁تعرف	-8.52183
*	-8.52361
🤲	-8.52592
▁16	-8.52703
▁الثاني	-8.53544
رد	-8.53584
▁15	-8.53808
▁استاد	-8.53962
di	-8.54301
▁لقيت	-8.54349
▁you	-8.54399
▁نعرف	-8.54491
▁احسن	-8.54591
▁حول	-8.54752
▁بنت	-8.54826
▁الدنيا	-8.54851
▁القصص	-8.54873
▁B	-8.54924
▁نحب	-8.55022
دة	-8.55241
▁اله	-8.55339
▁بديت	-8.55392
▁حبيبتي	-8.55644
▁جزيلا	-8.55659
▁شي	-8.55774
▁زيد	-8.55794
▁شخص	-8.55875
ya	-8.55946
▁ننجح	-8.5596
ta	-8.55979
رت	-8.56108
قو	-8.56174
▁الصبر	-8.56189
▁العباسية	-8.56255
▁الشيخ	-8.56329
هل	-8.56632
▁كبير	-8.56812
لت	-8.56895
قت	-8.56917
ar	-8.5708
▁ق	-8.57086
▁العربية	-8.57475
رق	-8.57602
شي	-8.57653
▁يوفقنا	-8.57682
▁نقدر	-8.57762
▁دخل	-8.5802
فل	-8.58082
▁لان	-8.58106
▁عمر	-8.58263
it	-8.58468
▁نحن	-8.58535
▁الح	-8.58614
▁فلا	-8.58821
كي	-8.58877
▁آ	-8.59178
▁نشاله	-8.59281
▁سن	-8.59454
▁القرآن	-8.59457
▁6	-8.59513
URL	-8.59542
▁رد	-8.59729
▁17	-8.59895
▁غي	-8.59983
▁اما	-8.60031
▁2024	-8.60341
▁hh	-8.60513
اق	-8.60573
▁قوة	-8.60919
مو	-8.61036
▁😭	-8.6108
▁I	-8.61347
▁نقول	-8.6135
▁هكا	-8.61424
▁سيبيا	-8.61454
▁الصلاة	-8.61483
▁مكان	-8.61693
▁🤣🤣	-8.61782
▁جماعة	-8.61858
el	-8.61879
رحم	-8.61898
▁نص	-8.61918
▁أنه	-8.62097
تر	-8.62309
▁روعة	-8.62824
▁يمكن	-8.63004
طر	-8.63023
▁هم	-8.63158
▁بما	-8.63162
ni	-8.6319
▁أكثر	-8.63217
▁الشعب	-8.63443
دين	-8.63498
▁عمل	-8.64178
▁فهمت	-8.64194
▁را	-8.64319
مر	-8.64474
▁الحياة	-8.64527
مل	-8.64528
▁19	-8.64578
▁اخر	-8.6461
▁قل	-8.64815
▁دعولي	-8.64833
در	-8.64837
▁لالا	-8.65071
▁الاول	-8.65116
▁حكايات	-8.65127
عت	-8.6523
▁أهل	-8.6524
▁مس	-8.65414
▁لوكان	-8.65444
قد	-8.65517
▁وعلى	-8.65535
▁ولم	-8.65552
▁مد	-8.65555
دير	-8.65775
فر	-8.6579
▁بم	-8.65816
ذا	-8.65902
انا	-8.66092
▁دي	-8.66239
▁بكل	-8.66293
يز	-8.66534
▁بليز	-8.66566
▁الز	-8.66613
▁et	-8.66627
روح	-8.66631
وت	-8.66671
ضر	-8.66682
▁‪	-8.66695
قل	-8.66721
▁شهر	-8.66807
ak	-8.66913
▁مل	-8.67414
مان	-8.67553
▁h	-8.67758
▁بيه	-8.68092
en	-8.68315
عا	-8.68439
طا	-8.68446
▁راكليطة	-8.68497
▁!	-8.68594
▁ج	-8.68717
▁وهي	-8.68787
▁دين	-8.69045
▁بأ	-8.6923
▁السؤال	-8.69349
▁بإذن	-8.69656
▁يعرف	-8.69665
▁علوم	-8.69666
▁دعوة	-8.69822
▁/	-8.69847
▁نسمع	-8.70016
▁فسيح	-8.70474
▁معليش	-8.70518
le	-8.70545
ئة	-8.70608
▁راهو	-8.70632
▁بيها	-8.70694
سم	-8.7086
▁فيهم	-8.71099
▁قول	-8.71198
ad	-8.71407
▁بيك	-8.71461
▁اهلا	-8.71857
فق	-8.7202
قر	-8.72085
▁لأ	-8.7223
▁يحب	-8.72248
ونا	-8.72323
الم	-8.72365
▁كلمة	-8.72511
▁والا	-8.72635
تين	-8.72725
جد	-8.72821
▁وجه	-8.72919
▁ايه	-8.72975
▁حر	-8.72998
️	-8.73049
▁منهم	-8.73384
▁تحكي	-8.73431
🙂	-8.73662
▁fi	-8.73664
ڨ	-8.73677
▁اللغة	-8.73771
▁j	-8.73773
0	-8.73818
رح	-8.73826
▁دروس	-8.73876
ing	-8.74216
صح	-8.74348
▁آخر	-8.74434
▁صوت	-8.7456
▁مكانش	-8.74575
▁تحب	-8.74971
▁دائما	-8.75023
▁الو	-8.75044
+	-8.75048
يق	-8.75109
▁يجب	-8.75285
▁فات	-8.75289
▁18	-8.75373
از	-8.75482
▁أحد	-8.75519
▁ليك	-8.75529
▁درس	-8.7562
▁اس	-8.75688
▁حابة	-8.75702
▁‬	-8.75891
اتك	-8.76141
▁قريب	-8.76164
▁صحيح	-8.76182
▁الكتاب	-8.76259
▁صل	-8.76324
an	-8.76328
▁مح	-8.7638
▁عمري	-8.76396
▁سمعت	-8.76442
▁روحك	-8.76587
ba	-8.76637
▁🤲🏻	-8.76637
▁ذكر	-8.76762
▁إنا	-8.77024
✨	-8.77144
▁سيدنا	-8.7722
▁كم	-8.77504
عرف	-8.77528
▁D	-8.77658
▁بابا	-8.77699
▁بكالوريا	-8.77819
يلي	-8.77922
ناش	-8.7794
▁نتمنى	-8.77982
رك	-8.78023
عي	-8.78043
da	-8.78221
فة	-8.78239
▁فوق	-8.78302
ay	-8.7831
▁بالم	-8.78419
▁المن	-8.78504
▁سر	-8.78555
▁تدي	-8.78623
▁حسن	-8.78659
▁يجازيك	-8.7878
▁قناة	-8.78784
▁قتل	-8.78792
▁wa	-8.78835
ـ	-8.78935
▁حساب	-8.79052
▁طريق	-8.7908
▁بالنسبة	-8.79107
▁ولاية	-8.79108
▁ولله	-8.79246
▁شباب	-8.79479
▁رحمه	-8.79559
ah	-8.79579
▁ماما	-8.79596
نت	-8.79669
عاد	-8.79688
▁انسان	-8.80024
▁ch	-8.80095
لف	-8.80353
نس	-8.80495
▁رائع	-8.80526
ائل	-8.80661
▁الذين	-8.80859
▁رو	-8.81098
te	-8.81131
▁الك	-8.81442
ذكر	-8.81565
▁هوما	-8.81565
▁12	-8.81601
▁معا	-8.81631
▁طلب	-8.81642
فهم	-8.81856
▁أهلا	-8.81933
▁تعيش	-8.81941
▁معايا	-8.81973
▁وهذا	-8.81983
▁8	-8.81993
▁الل	-8.82116
▁مست	-8.8215
علم	-8.82195
▁عل	-8.82233
سل	-8.82282
▁ماذا	-8.82393
جب	-8.8246
ارة	-8.82715
▁ana	-8.82716
يتي	-8.82824
▁ياخو	-8.82858
▁كو	-8.82959
هاش	-8.83034
=	-8.83043
▁أما	-8.83049
وع	-8.83161
▁الحل	-8.83185
لق	-8.83302
▁لهم	-8.83453
▁بش	-8.83564
▁الدار	-8.83641
▁الحكاية	-8.83778
▁راجل	-8.83972
▁رح	-8.8408
الي	-8.84163
▁نوع	-8.84215
▁جد	-8.84312
▁ها	-8.84329
▁دون	-8.84378
▁C	-8.8439
▁الصح	-8.84517
▁وبارك	-8.84597
▁الرحمن	-8.84783
▁مرا	-8.84793
😢😢	-8.84923
or	-8.85074
صدق	-8.85075
خت	-8.85279
▁ساعة	-8.8537
▁عندما	-8.85414
on	-8.85437
▁المت	-8.8555
▁بسم	-8.85729
▁وليت	-8.85759
▁هاذا	-8.85953
▁فعل	-8.85969
wa	-8.8597
▁ليوم	-8.86008
▁تجي	-8.86013
▁مليون	-8.86076
حت	-8.86084
راه	-8.8611
رج	-8.8636
▁رضي	-8.86372
ذي	-8.86464
▁طيبة	-8.86572
▁اتمنى	-8.86634
▁شوي	-8.86796
▁انك	-8.8692
▁ياارب	-8.86973
▁هدي	-8.8702
▁جميل	-8.87375
▁جديدة	-8.87488
قال	-8.87518
▁😭😭	-8.8787
كن	-8.87891
▁قريت	-8.87904
▁تاريخ	-8.87933
شر	-8.88066
▁ولد	-8.88139
▁الليل	-8.8824
▁عندها	-8.88389
▁!!	-8.88395
يها	-8.88472
خر	-8.88507
ir	-8.88558
شعر	-8.88615
▁لع	-8.88631
▁قلب	-8.88744
bi	-8.88749
يح	-8.88769
▁شوية	-8.88883
ro	-8.88916
▁مرت	-8.88994
▁وقال	-8.89171
▁تقدر	-8.89191
جل	-8.89238
▁خلاص	-8.89281
▁F	-8.89285
مثل	-8.89512
▁تعليق	-8.89598
▁تحيا	-8.89739
▁فت	-8.89779
▁الرعب	-8.8978
▁كاش	-8.89796
بعد	-8.89827
قي	-8.89884
▁ايا	-8.89933
▁بخير	-8.89947
▁وإن	-8.90005
et	-8.90131
خير	-8.90331
▁تس	-8.90403
▁انو	-8.90418
me	-8.90441
▁20	-8.9051
سب	-8.9068
حسن	-8.90688
▁شابة	-8.90689
▁جي	-8.90814
00	-8.90874
▁فأ	-8.9099
▁الر	-8.91017
▁وليس	-8.91077
وهم	-8.91084
▁نروح	-8.91214
▁H	-8.91261
▁فإن	-8.91445
جيب	-8.91483
▁يدي	-8.91566
▁ديري	-8.91641
طور	-8.91704
▁شر	-8.91895
▁شعب	-8.91978
▁شاءلله	-8.91996
am	-8.92028
▁ou	-8.92028
▁k	-8.92167
▁‏	-8.9224
▁0	-8.92302
kh	-8.92304
▁مواضيع	-8.92314
▁حيث	-8.92315
▁نفهم	-8.92391
▁معانا	-8.92429
▁تهدر	-8.92475
▁فلسطين	-8.92486
يني	-8.9254
▁مسلم	-8.92659
▁السنة	-8.9266
▁فرحة	-8.92793
عود	-8.92827
▁مقترحات	-8.92879
▁حسب	-8.93015
▁صاحب	-8.93053
▁N	-8.93133
▁انه	-8.93204
▁العمل	-8.93222
▁بدون	-8.93271
▁بأن	-8.93359
▁لايك	-8.93391
▁فيديوهات	-8.93437
▁نورمال	-8.93601
دخل	-8.93645
ce	-8.93653
ek	-8.93739
▁وانت	-8.93744
▁تش	-8.93826
▁😍	-8.93853
دار	-8.93877
▁محل	-8.93922
▁وأن	-8.93992
▁جات	-8.94022
🥺	-8.94031
▁شكراا	-8.94209
قة	-8.94299
▁re	-8.9433
▁نفسي	-8.94543
lo	-8.94558
هن	-8.94756
▁14	-8.94783
▁W	-8.94852
▁وعليكم	-8.94978
طل	-8.95281
▁لقد	-8.95388
كس	-8.95514
▁الص	-8.95523
سر	-8.95572
▁خوتي	-8.95579
▁شكر	-8.95597
▁والت	-8.95844
▁تح	-8.95892
▁دو	-8.95939
🎉	-8.95949
▁=	-8.96148
▁مال	-8.96207
▁نور	-8.96253
▁هكذا	-8.96287
▁to	-8.96387
▁رجل	-8.96463
قدر	-8.96524
▁كبيرة	-8.96536
▁يقدر	-8.96616
▁in	-8.96799
▁مشكل	-8.969
▁ha	-8.9725
خرج	-8.97265
est	-8.9738
▁فيكم	-8.97445
▁كن	-8.97515
▁سب	-8.97849
▁نبدا	-8.97897
▁قر	-8.97906
▁تجيب	-8.97912
▁g	-8.97951
▁سورة	-8.98009
تكم	-8.98014
▁L	-8.98051
فو	-8.98172
مس	-8.98184
زا	-8.98243
▁مازال	-8.98394
▁راكم	-8.98617
سا	-8.98647
E	-8.98654
اتي	-8.98699
ولا	-8.98719
▁أبي	-8.98809
▁أول	-8.98995
aw	-8.99013
▁فهم	-8.9902
▁كلام	-8.99051
▁دخلت	-8.99178
رقي	-8.99407
▁الجزء	-8.99461
▁أمر	-8.99471
رى	-8.99509
▁سلم	-8.99734
▁وقد	-8.99857
▁سم	-8.99896
نى	-8.99938
▁هيا	-9.00073
▁زعما	-9.00099
T	-9.0016
▁الط	-9.00193
ضح	-9.00229
▁طول	-9.00276
▁عجبتني	-9.00311
▁وحدي	-9.00357
▁ين	-9.00402
il	-9.00409
بن	-9.00432
▁فقد	-9.00961
▁جميعا	-9.01039
▁عودة	-9.01098
▁مثلا	-9.01133
▁لول	-9.01227
▁اخت	-9.01275
▁عين	-9.01289
ائي	-9.01345
▁حكم	-9.01692
is	-9.0173
به	-9.01899
▁عز	-9.01913
▁الوكيل	-9.02075
▁P	-9.02138
يرة	-9.02258
▁الكثير	-9.02379
▁🎉	-9.0253
▁القلب	-9.02569
▁القمة	-9.02769
🤍	-9.02776
طو	-9.02781
حق	-9.02805
▁شاف	-9.02956
سمع	-9.03098
وق	-9.03121
▁عندنا	-9.03147
يع	-9.03334
▁الفاضل	-9.03354
▁حد	-9.03406
▁بركاته	-9.03503
لكم	-9.03536
▁خوف	-9.0372
▁هذو	-9.03859
قام	-9.03868
جن	-9.04051
▁مبارك	-9.04062
▁لدي	-9.04229
M	-9.04252
▁خلق	-9.04352
▁عدد	-9.04537
▁ولاد	-9.04578
قرا	-9.046
▁حي	-9.0484
راس	-9.04889
▁تاعي	-9.04914
غني	-9.05015
راء	-9.05062
عل	-9.05065
▁دور	-9.05081
▁ابوني	-9.05093
؛	-9.05175
!!	-9.05182
مع	-9.05186
I	-9.05186
رسل	-9.05273
▁يدخل	-9.05343
▁صرا	-9.05374
▁تحية	-9.05435
▁خرج	-9.05441
▁نسيت	-9.05474
▁v	-9.05554
قص	-9.05651
صف	-9.05699
▁تعلم	-9.05763
se	-9.0579
▁ملي	-9.05792
▁te	-9.05876
حا	-9.05955
كش	-9.06035
▁نق	-9.06056
وز	-9.06075
▁مكاش	-9.06121
▁مك	-9.0614
▁الام	-9.06396
▁الإسلام	-9.06416
▁✨	-9.06427
▁ارجو	-9.06556
اوي	-9.06811
▁be	-9.07119
▁نكون	-9.07127
▁en	-9.0722
ورة	-9.07228
▁رائعة	-9.07315
▁سأ	-9.07369
▁نموت	-9.07393
▁حياتك	-9.07459
▁الجزائري	-9.07491
▁والديك	-9.07563
طي	-9.07577
▁عالم	-9.07597
▁الجلفة	-9.07689
▁واصل	-9.07766
▁أخرى	-9.07796
▁هذاك	-9.07811
▁دا	-9.07834
▁ينجحك	-9.07878
▁تعيشي	-9.07898
▁المغرب	-9.07955
نة	-9.08087
’	-9.08105
▁يرحمها	-9.08315
▁الحال	-9.08332
▁رحم	-9.08337
▁كتب	-9.08456
يوم	-9.08514
جاب	-9.08531
	-9.0856
▁العربي	-9.08576
▁ra	-9.08617
▁40	-9.08618
▁لعزيز	-9.08778
▁تف	-9.0884
▁يد	-9.0885
▁حرام	-9.0886
▁كر	-9.08875
شكر	-9.08921
▁قسم	-9.08928
▁بت	-9.09085
de	-9.09219
▁🇩🇿	-9.09235
حة	-9.0928
نفس	-9.09282
▁حتا	-9.09298
▁i	-9.0931
راك	-9.09322
▁بلييز	-9.09456
همش	-9.09511
▁هاذو	-9.09539
▁تخوف	-9.0961
A	-9.09751
▁المشكل	-9.09813
▁الحديث	-9.09814
▁ديت	-9.09819
او	-9.09849
▁ايام	-9.09877
بار	-9.0989
▁مشاء	-9.09935
▁داير	-9.10005
▁مستجابة	-9.10237
ne	-9.10336
▁ترك	-9.10415
?	-9.10425
تابع	-9.10523
▁بس	-9.10558
om	-9.10567
▁سبب	-9.1062
تلي	-9.10676
▁خاص	-9.10695
▁الأول	-9.10723
▁هادا	-9.1079
حد	-9.10806
▁يرزقك	-9.10829
▁لمن	-9.11006
ضي	-9.11026
▁مليحة	-9.11209
وري	-9.11257
بات	-9.11304
▁?	-9.11326
▁أمين	-9.11364
طلب	-9.1143
▁عاد	-9.11439
▁#	-9.11455
▁ڨاع	-9.11611
▁me	-9.11654
▁حط	-9.11666
▁sa	-9.11687
ادي	-9.11832
ترك	-9.11832
رض	-9.11834
علي	-9.11873
▁اخرى	-9.11955
▁تشوف	-9.11967
▁اهل	-9.1199
▁ألف	-9.12056
▁شوف	-9.12146
▁je	-9.12249
▁جامي	-9.12301
جمع	-9.12311
▁خاطر	-9.12499
▁اع	-9.12572
لح	-9.12626
▁ونعم	-9.12648
▁داخل	-9.1267
▁رحت	-9.12696
وط	-9.12902
▁صغير	-9.12946
▁قدر	-9.12964
▁يست	-9.12988
▁وكان	-9.13047
▁تر	-9.13054
▁كنا	-9.13217
▁❤️❤️	-9.13226
▁اريد	-9.13278
😍	-9.13288
▁مو	-9.13303
▁💔	-9.13311
▁ندخل	-9.13322
▁قادر	-9.13341
بين	-9.13397
كر	-9.1347
سو	-9.13491
▁الرد	-9.13505
▁ليلة	-9.13574
▁بدا	-9.13787
▁اليوتيوب	-9.1381
كتب	-9.13836
▁يس	-9.13876
id	-9.13883
▁لانو	-9.13969
▁عرفت	-9.13976
▁التوفيق	-9.14079
▁باقي	-9.14203
▁عا	-9.14213
بال	-9.14243
▁لفيديو	-9.1429
▁يجيب	-9.14293
وان	-9.14416
▁تو	-9.14416
عين	-9.14418
▁G	-9.14431
ايا	-9.14596
زيد	-9.1461
▁حين	-9.14734
▁نديرو	-9.14787
▁والسلام	-9.14913
▁ينجح	-9.14922
▁معاه	-9.15075
دع	-9.15079
▁ديرو	-9.1511
▁رغم	-9.1517
▁el	-9.15207
▁حياتي	-9.15233
▁وفلسفة	-9.15248
جو	-9.154
▁جزء	-9.15414
▁صحا	-9.15524
▁تعليقي	-9.1567
▁اعلم	-9.15719
▁الاستاذ	-9.1578
عمر	-9.15828
صل	-9.16002
▁فكرة	-9.16134
▁يوجد	-9.16235
▁خلي	-9.16313
▁فديو	-9.16385
▁الادب	-9.16387
لل	-9.16388
▁احد	-9.16393
▁ki	-9.16464
▁تخرج	-9.16469
▁تعب	-9.16496
▁جميلة	-9.16512
▁خفت	-9.16525
▁جزائري	-9.16528
زع	-9.16588
طن	-9.16609
وح	-9.16678
▁يجعل	-9.16759
▁الجميع	-9.16771
▁بلاك	-9.16859
شاء	-9.16919
عمل	-9.1694
▁باغي	-9.17003
gh	-9.17093
قا	-9.17097
ضع	-9.17098
شهد	-9.17117
▁التاريخ	-9.17247
▁p	-9.17309
زوج	-9.17341
▁حم	-9.17353
عم	-9.17406
مات	-9.17444
قلب	-9.17479
▁كانو	-9.17587
▁جاء	-9.17594
▁خط	-9.17619
▁صار	-9.17769
▁ايضا	-9.17782
▁شاءالله	-9.17818
▁اب	-9.17823
▁عم	-9.17911
▁غريب	-9.18012
حفظ	-9.18024
ولو	-9.18052
ol	-9.18155
▁وصل	-9.18196
قطع	-9.18216
▁Ma	-9.18354
▁ولو	-9.18357
▁عندهم	-9.18385
▁نفسه	-9.18472
▁باذن	-9.18595
▁ض	-9.1861
▁الدعاء	-9.18647
ab	-9.18687
▁🥺	-9.18699
رار	-9.18743
▁video	-9.18992
▁تقبل	-9.19022
▁قالت	-9.19063
▁رقم	-9.1907
▁مور	-9.19086
وض	-9.19298
▁بكري	-9.19348
▁نجيبو	-9.19395
▁البر	-9.19427
▁الدروس	-9.19512
to	-9.19666
غر	-9.19798
▁نصيحة	-9.19839
▁عباد	-9.1985
▁الأخ	-9.19875
رجع	-9.19913
▁ضحك	-9.19915
▁معنا	-9.20079
▁bac	-9.20182
اللهم	-9.20315
▁يشوف	-9.20393
O	-9.20469
راد	-9.20528
▁ba	-9.20589
▁ريضا	-9.20625
ائد	-9.20884
▁سلسلة	-9.20886
▁مين	-9.21053
▁اداب	-9.21055
▁يش	-9.21129
▁خبر	-9.21142
خوف	-9.21213
▁منك	-9.21292
أن	-9.21311
▁طا	-9.21402
▁وزيد	-9.21402
▁يديرو	-9.21562
▁🤍	-9.21575
▁رجع	-9.21618
ده	-9.2163
▁الطيب	-9.21652
تل	-9.21744
▁القناة	-9.21764
ذر	-9.21788
هما	-9.21832
▁وجزاك	-9.21901
▁«	-9.2202
▁11	-9.22023
▁جبت	-9.22023
▁سيد	-9.22059
▁يخليك	-9.22152
▁النص	-9.22208
▁ادعو	-9.22214
عجب	-9.22328
▁كا	-9.22365
▁اغفر	-9.22399
▁😅😅	-9.224
S	-9.22479
تعرف	-9.22511
شكرا	-9.22617
سف	-9.22645
▁تدخل	-9.22659
طيب	-9.22756
▁الانسان	-9.22795
▁لحكاية	-9.22851
▁والأ	-9.22921
▁الإنسان	-9.22951
▁عمي	-9.22998
▁اكبر	-9.23114
▁o	-9.23209
▁جل	-9.23212
▁ديما	-9.23244
▁هاك	-9.23258
▁ربما	-9.23325
D	-9.23351
▁ليست	-9.23393
▁ات	-9.23472
▁ولكل	-9.23485
▁مفهمتش	-9.23505
▁النار	-9.2358
▁الاسلام	-9.23655
▁cha	-9.23675
▁🤲🤲	-9.23686
▁ga	-9.23736
ve	-9.23756
▁بسبب	-9.23772
رش	-9.23807
بد	-9.23813
يلة	-9.23832
▁راكليطا	-9.23887
حاول	-9.23925
جة	-9.23935
وار	-9.23954
▁اجعل	-9.23954
▁البيت	-9.23985
قدم	-9.24066
▁_	-9.24113
▁لب	-9.24118
▁أتمنى	-9.24275
ine	-9.24279
فضل	-9.2429
وية	-9.24296
▁خلال	-9.24335
💗	-9.24381
▁مخ	-9.24389
حكم	-9.24431
▁تروح	-9.24434
▁لينا	-9.24437
▁الث	-9.24458
🏻	-9.24497
▁فهو	-9.24501
طة	-9.24509
▁باينة	-9.24511
▁المرأة	-9.24523
▁وإ	-9.24635
▁جو	-9.24643
▁هادو	-9.24656
يدي	-9.24658
زم	-9.24666
▁اصلا	-9.24688
▁طيب	-9.24721
▁المع	-9.2492
▁is	-9.2494
عيد	-9.24985
▁الحقيقة	-9.24992
▁we	-9.25027
▁صالح	-9.25029
▁أيضا	-9.25158
▁لكي	-9.25196
▁تق	-9.25258
▁اجمعين	-9.2544
▁عضو	-9.25517
شرف	-9.25593
▁na	-9.25652
طار	-9.25658
▁كال	-9.25732
بس	-9.25828
نع	-9.25906
حو	-9.25906
▁ادا	-9.25916
تعلم	-9.2592
صا	-9.26015
سة	-9.26149
بدا	-9.26199
▁ريدكس	-9.26354
▁تل	-9.26363
▁ne	-9.26461
▁شيكور	-9.26526
مام	-9.26561
تعب	-9.26603
▁لغات	-9.26638
▁الأمر	-9.26705
hom	-9.26747
▁ننجحو	-9.26788
▁دعواتكم	-9.26803
▁صغيرة	-9.26883
رين	-9.26911
▁جر	-9.26967
لام	-9.27037
▁نعاود	-9.27232
ند	-9.27313
▁تاعو	-9.27332
▁دراهم	-9.27344
▁ري	-9.275
▁R	-9.2759
فكر	-9.27615
▁يح	-9.27651
اري	-9.27651
▁صحاب	-9.27653
▁Ya	-9.27675
ادة	-9.2768
▁2023	-9.27745
دم	-9.2796
▁and	-9.2797
kom	-9.28009
جز	-9.28018
▁باب	-9.28175
شار	-9.28215
▁13	-9.28232
sh	-9.28383
▁كريم	-9.28426
▁دم	-9.28498
▁rabi	-9.28501
▁السحر	-9.28514
سك	-9.28578
▁لماذا	-9.28676
▁عربية	-9.287
ذهب	-9.28706
▁so	-9.28716
▁در	-9.28732
▁pas	-9.2879
ll	-9.28858
انة	-9.28892
وى	-9.29022
▁للجميع	-9.29181
▁pour	-9.29184
▁فقال	-9.29222
نو	-9.29329
▁🎉🎉	-9.29346
▁كثير	-9.29458
ائم	-9.29506
▁يخرج	-9.29506
nd	-9.29551
كبر	-9.29668
▁يرحمو	-9.29675
▁يقولو	-9.29716
▁سما	-9.29729
▁التعليق	-9.2976
▁حا	-9.29813
غير	-9.29855
▁الرجل	-9.29906
▁الاخ	-9.29942
▁وكي	-9.29964
▁قدام	-9.29993
000	-9.30038
هرب	-9.30047
جه	-9.30098
مين	-9.3017
▁نلقا	-9.30287
▁للباك	-9.30299
▁الحر	-9.30306
▁بيت	-9.30409
ی	-9.30482
▁فرح	-9.3051
رف	-9.30537
▁النفس	-9.30562
▁فضلكم	-9.30563
▁أحسن	-9.30606
ينة	-9.30686
▁الموت	-9.30729
ja	-9.30753
ناس	-9.30783
بان	-9.30785
▁ممتاز	-9.30868
إن	-9.30959
▁الخوف	-9.31022
▁الد	-9.31154
▁نتوما	-9.31231
▁بد	-9.31244
كان	-9.31252
▁أعلم	-9.31317
▁عدم	-9.3132
▁فى	-9.31331
▁dir	-9.31376
بك	-9.3141
▁يفرحك	-9.31422
▁نجاح	-9.31457
▁حفظ	-9.3148
▁نفسك	-9.31516
خلي	-9.31597
ولنا	-9.31648
خدم	-9.31767
خط	-9.31816
▁جاي	-9.31886
▁تست	-9.31924
ضم	-9.31929
▁يق	-9.32034
حش	-9.32045
فات	-9.3212
▁الرسول	-9.3213
▁نكمل	-9.32138
دن	-9.32195
▁تب	-9.32223
حط	-9.32235
▁نسقسيك	-9.32277
ثق	-9.32293
▁احب	-9.32384
as	-9.32492
fi	-9.32503
▁الثانية	-9.32521
كمل	-9.32541
▁توحشناك	-9.32542
صبر	-9.32555
▁أستاذة	-9.32557
▁قمة	-9.32573
▁نا	-9.32591
احة	-9.32618
على	-9.32632
▁منذ	-9.32647
▁فري	-9.32711
▁نفرح	-9.32732
▁محب	-9.3276
▁غدوة	-9.3279
زين	-9.32791
▁طفلة	-9.32879
خو	-9.32919
▁الجزائرية	-9.33033
خف	-9.33113
▁تلك	-9.33134
فعل	-9.33141
هدر	-9.33168
▁هايل	-9.33192
▁des	-9.33214
▁for	-9.33296
▁بالا	-9.3339
▁زاد	-9.33489
▁الشكر	-9.33714
▁بيهم	-9.33717
▁K	-9.33845
▁يهدر	-9.33928
▁ني	-9.3394
ائق	-9.33943
▁الرحيم	-9.34039
▁Hhh	-9.34078
▁تخ	-9.34138
إ	-9.3419
▁كذلك	-9.3421
▁جملة	-9.34273
▁الآن	-9.34554
▁يحفظ	-9.34563
▁ث	-9.34625
▁بر	-9.34698
).	-9.34712
▁بعيد	-9.34753
▁تزيد	-9.34779
▁الشي	-9.3481
▁قادة	-9.34815
▁نب	-9.34868
دى	-9.34912
رقد	-9.351
▁عنها	-9.35117
خبر	-9.35119
▁مرض	-9.35234
▁واه	-9.35249
▁نشاء	-9.35286
▁J	-9.35301
▁انتي	-9.35319
▁بنات	-9.35329
صب	-9.3533
▁العزيز	-9.35374
▁r	-9.35418
▁wlh	-9.35439
▁حسيت	-9.35453
🙏	-9.35468
▁mn	-9.35505
▁لح	-9.35506
▁الكو	-9.35645
▁شغل	-9.35807
▁الاسئلة	-9.35835
بقا	-9.35974
▁حرة	-9.35987
▁المس	-9.36005
▁مما	-9.36021
😭😭	-9.36038
▁mo	-9.36056
em	-9.36155
▁سحر	-9.36412
▁راس	-9.36427
زو	-9.36434
▁تقرا	-9.3645
▁الأم	-9.36487
▁باين	-9.36527
▁وسهلا	-9.36545
▁آل	-9.36565
▁بان	-9.3663
فع	-9.36653
»	-9.36671
▁ناجحين	-9.36734
ضيف	-9.36747
حضر	-9.36783
hi	-9.36786
سنة	-9.36788
▁بقا	-9.36969
▁برا	-9.37065
▁تولي	-9.37128
▁عنده	-9.37312
▁ذ	-9.37436
جوز	-9.37492
▁صراحة	-9.375
جار	-9.37536
▁الاولى	-9.37541
فتح	-9.37542
زن	-9.37571
▁Bac	-9.37578
▁فرحت	-9.37579
▁الطب	-9.37647
▁الأرض	-9.37657
▁😊😊	-9.37757
ثر	-9.378
▁يع	-9.37998
▁لهذا	-9.38072
صاب	-9.38083
▁كتر	-9.38096
▁تدير	-9.38273
طول	-9.38418
ائر	-9.38422
طف	-9.38433
▁kho	-9.38474
▁معاكم	-9.38508
▁بلادي	-9.38537
▁المح	-9.38628
▁سنين	-9.38663
▁الطريقة	-9.38682
▁nta	-9.38735
▁دقيقة	-9.38775
بارك	-9.38778
▁لعام	-9.38813
ent	-9.38832
▁الاست	-9.38951
نق	-9.39141
▁que	-9.39239
▁قا	-9.39266
mo	-9.3927
فرح	-9.39353
▁الكل	-9.39405
▁تنجح	-9.39441
▁يخ	-9.39498
oo	-9.395
صار	-9.39537
▁المجهر	-9.39549
صلح	-9.39639
نطق	-9.39689
▁kh	-9.39796
رات	-9.39801
▁se	-9.39956
رس	-9.39984
▁السياسي	-9.39986
▁فما	-9.40133
▁مهم	-9.40145
▁باسكو	-9.40148
زل	-9.40245
هد	-9.40291
▁الباب	-9.40369
▁ساهل	-9.40385
قري	-9.40448
▁صورة	-9.40498
دل	-9.40558
▁😍😍	-9.40583
فك	-9.40614
▁النهار	-9.40615
▁هك	-9.40755
▁تبارك	-9.40765
▁سو	-9.40787
افة	-9.40865
▁الكلام	-9.4113
حسب	-9.41152
نسا	-9.41232
▁علاقة	-9.41256
▁نحس	-9.41405
خذ	-9.41731
▁كف	-9.4179
▁جيب	-9.41802
▁فلسفة	-9.41805
سخ	-9.41839
كرم	-9.41999
دية	-9.42041
▁عيني	-9.42084
▁نقولو	-9.42111
lh	-9.42151
▁نرقد	-9.42399
است	-9.42413
ضرب	-9.42432
ولك	-9.42434
▁يما	-9.42454
شوف	-9.42476
ia	-9.42489
L	-9.42489
▁حديث	-9.42508
▁روطار	-9.42533
زال	-9.42553
غا	-9.42553
▁شويا	-9.42669
▁had	-9.42824
حقق	-9.42832
▁للا	-9.42934
▁السل	-9.42976
▁شك	-9.43012
▁أبو	-9.43016
🤣	-9.43028
ميل	-9.43062
حص	-9.43115
فى	-9.43116
▁طب	-9.43171
▁العرب	-9.4322
▁تحط	-9.43259
▁أكبر	-9.43364
حكي	-9.43365
▁راي	-9.43528
طبع	-9.43558
▁سهلا	-9.43608
▁اه	-9.43613
لقا	-9.43625
ii	-9.43625
صير	-9.43719
▁100	-9.43735
▁بار	-9.43818
جم	-9.43897
ولة	-9.439
▁بهذا	-9.43925
نه	-9.43956
تفرج	-9.4398
▁يزيد	-9.44047
▁التح	-9.44087
▁نو	-9.44118
سلام	-9.44129
رضا	-9.44196
▁redx	-9.44277
ستر	-9.44278
أس	-9.44279
اغ	-9.44302
▁فلم	-9.4434
▁{	-9.4435
تبع	-9.44507
▁الثورة	-9.44553
tch	-9.44582
▁ركليطة	-9.44585
ثبت	-9.44705
حم	-9.44849
▁حس	-9.44866
لات	-9.44907
▁هوا	-9.44916
▁خرجت	-9.44919
روب	-9.45019
▁يعلم	-9.45058
▁نخدم	-9.45136
▁قلبك	-9.4517
🤣🤣	-9.45217
mi	-9.45276
بع	-9.45307
👍	-9.45342
🥹	-9.45396
▁أحب	-9.45435
حر	-9.45473
▁نس	-9.4553
▁اا	-9.4561
▁وهل	-9.45625
ho	-9.45698
▁صلاة	-9.45781
▁القسم	-9.45794
▁يحط	-9.45822
▁ارحم	-9.45836
ضحك	-9.45853
فاء	-9.45907
▁سوف	-9.45923
▁لق	-9.45923
عن	-9.45949
▁غالط	-9.4596
قبل	-9.45966
▁السيد	-9.46017
▁المحتوى	-9.4607
▁توصل	-9.46074
▁تستاهل	-9.4608
▁أس	-9.46124
▁دارو	-9.46133
غرب	-9.46141
▁نحفظ	-9.46157
▁وراني	-9.46171
▁سنوات	-9.46199
حن	-9.46209
▁اخ	-9.46266
سن	-9.46295
▁un	-9.46345
▁لأنه	-9.46417
😮	-9.46457
طرح	-9.4649
▁🙏	-9.46543
فيديو	-9.46588
▁vidéo	-9.46592
▁معنى	-9.46609
▁بغيت	-9.46611
دفع	-9.46686
ki	-9.46731
▁كلمات	-9.4676
▁حالة	-9.46816
▁ضرب	-9.46901
H	-9.46956
vi	-9.46986
▁الباكالوريا	-9.46996
ريح	-9.47026
▁هذيك	-9.47084
▁نتبع	-9.47143
▁فان	-9.47229
▁مشكور	-9.47259
▁وإنا	-9.47327
▁لف	-9.47333
الة	-9.47389
▁نخاف	-9.47461
▁تفرجت	-9.4753
▁طفل	-9.47533
▁تفهم	-9.47542
▁الكريمة	-9.47595
ــ	-9.47732
اص	-9.47759
▁انها	-9.47828
بغ	-9.4789
باك	-9.47933
▁الدرس	-9.47962
▁الحي	-9.48001
ک	-9.48015
▁حن	-9.481
▁المواضيع	-9.48103
بدأ	-9.48175
مد	-9.48185
طب	-9.48216
▁مسلسل	-9.48258
▁الشر	-9.48302
▁Y	-9.48352
كثر	-9.48451
▁بلاد	-9.48459
▁اين	-9.48471
▁العشرية	-9.48526
▁ديريلنا	-9.48547
💜	-9.48643
▁مكنية	-9.48717
غل	-9.4872
▁المجتمع	-9.48898
قسم	-9.48917
▁يغفر	-9.48956
يدة	-9.48962
▁نشر	-9.48964
قض	-9.49004
ter	-9.49018
▁يحفظكم	-9.49072
▁🥰	-9.49134
sa	-9.49169
🥲	-9.49247
▁الغرب	-9.49281
▁إله	-9.49343
▁واو	-9.49372
حمد	-9.49451
▁حقا	-9.49458
▁،،	-9.49499
▁تعيشو	-9.49516
▁فر	-9.49524
عاود	-9.49688
رضى	-9.4971
▁O	-9.49723
▁سبحانه	-9.49743
خل	-9.49756
10	-9.49756
سأل	-9.49841
▁شوفي	-9.49886
حس	-9.49923
🥰	-9.49994
▁واحدة	-9.50093
بدل	-9.50139
▁صلي	-9.50185
دعو	-9.5019
سمح	-9.50294
صول	-9.50299
▁اجل	-9.50313
رام	-9.50329
▁ماهو	-9.50368
▁فعلا	-9.5041
▁كملت	-9.50417
▁تقدم	-9.50438
▁ياا	-9.50441
▁عرف	-9.50447
سكر	-9.50454
st	-9.50479
▁استغفر	-9.50579
نيش	-9.50579
20	-9.50641
▁بداية	-9.50683
▁da	-9.50724
▁أجل	-9.50773
▁امر	-9.50834
▁مريض	-9.50844
fa	-9.50877
▁نجي	-9.50904
▁أنك	-9.50973
▁اش	-9.50973
▁أرجو	-9.51071
▁تجد	-9.51094
▁مجرد	-9.51136
وجه	-9.51147
▁يفهم	-9.51153
▁ڨ	-9.51161
سير	-9.51216
▁حلمي	-9.51244
▁2021	-9.51249
▁راحت	-9.51279
▁قرا	-9.51287
صور	-9.51335
▁تقولي	-9.51357
▁ثلاث	-9.51386
▁أجمعين	-9.51411
كار	-9.51454
▁برنامج	-9.51556
▁درك	-9.51558
🔥	-9.51572
lk	-9.51574
▁المعلومات	-9.51652
▁الشيطان	-9.5166
▁فور	-9.51661
▁هايلة	-9.5176
▁يسهل	-9.51865
▁ماهي	-9.51881
▁خا	-9.51883
▁طبعا	-9.51901
▁((	-9.51918
دت	-9.51921
▁معاهم	-9.5194
▁حفظك	-9.5196
▁يجوز	-9.51973
▁اسمي	-9.51995
▁يوسف	-9.52119
▁ضد	-9.52148
لب	-9.52195
▁مادة	-9.52211
▁القر	-9.52332
▁مه	-9.52363
▁Ana	-9.52368
بقى	-9.52404
وفي	-9.52562
▁🤣	-9.52581
▁أت	-9.52581
▁طلع	-9.52636
▁bi	-9.52645
▁الاخت	-9.52704
▁🥲	-9.52711
▁e	-9.52716
▁بإ	-9.52749
U	-9.5283
▁الدراسة	-9.52943
يتك	-9.52946
▁نحوس	-9.52986
ارات	-9.53014
▁مشترك	-9.53023
▁سعيد	-9.53047
اخر	-9.53056
عرض	-9.53082
علام	-9.53126
بلغ	-9.53187
ياء	-9.53261
▁اسطورة	-9.53297
▁ويجعل	-9.53374
يمة	-9.53437
▁والحمد	-9.53747
▁قناتك	-9.53761
▁الحمدلله	-9.53778
▁معلومات	-9.53788
hk	-9.53798
كور	-9.53919
▁هذ	-9.53945
تلك	-9.53992
انية	-9.54011
ur	-9.54022
▁نش	-9.54053
▁بدل	-9.54078
▁احبك	-9.54083
▁رايح	-9.54087
▁ميلود	-9.5413
▁صحة	-9.54142
▁😮	-9.54187
C	-9.54193
راني	-9.54307
▁اجمل	-9.54362
P	-9.54471
ليس	-9.54508
رم	-9.54568
▁best	-9.54591
طلع	-9.5462
▁ليل	-9.54677
▁وأنا	-9.54702
▁si	-9.54822
▁الفلسفة	-9.54866
K	-9.54909
▁اسكو	-9.55004
▁of	-9.55013
تع	-9.55022
▁بني	-9.55122
▁تلقا	-9.55123
▁سهل	-9.55167
▁والد	-9.55175
▁لايف	-9.55308
▁نظر	-9.55315
▁الشخص	-9.55389
وصل	-9.55427
▁المسلم	-9.55438
▁رك	-9.5545
▁🥹	-9.55481
▁طولت	-9.55534
▁قولي	-9.5574
▁رجال	-9.55796
طبق	-9.55938
▁♥	-9.55973
▁مز	-9.56021
أم	-9.56066
▁الدولة	-9.56145
▁الشرح	-9.56228
▁بالأ	-9.56283
▁الثالث	-9.56317
ai	-9.56356
▁تكمل	-9.56379
عر	-9.56383
▁الزوج	-9.56412
▁يتم	-9.56544
▁جعل	-9.56567
▁يسر	-9.56594
▁حسبي	-9.56612
لى	-9.56624
▁العقل	-9.56683
▁كملي	-9.56697
▁أولا	-9.56847
اسم	-9.56928
▁العلي	-9.56963
▁الطريق	-9.56988
▁عنا	-9.57027
▁روحو	-9.57106
▁شكل	-9.57116
عقل	-9.5712
▁الحكايات	-9.57135
طع	-9.57225
▁كفاه	-9.57231
▁الصورة	-9.57246
▁ونفرح	-9.57262
▁موقع	-9.57354
برك	-9.57401
▁الأسئلة	-9.57456
▁وفقك	-9.57486
im	-9.57542
▁ومع	-9.57542
رحل	-9.57573
▁الفا	-9.57653
▁ورد	-9.57781
▁أع	-9.5779
▁جال	-9.57856
▁وفقنا	-9.57864
▁do	-9.57864
aa	-9.57906
قتل	-9.57949
▁فرنسا	-9.58065
▁ابدا	-9.58187
▁الأستاذ	-9.58281
▁والع	-9.58334
▁تسما	-9.58357
▁غا	-9.58418
عطي	-9.58453
▁هد	-9.58459
▁merci	-9.58523
▁قضية	-9.58542
ذل	-9.5857
▁والسلوان	-9.5861
ريد	-9.58637
اقة	-9.5871
▁رجعت	-9.58769
▁طويل	-9.58811
▁نسأل	-9.58845
▁يهدي	-9.58853
مون	-9.58865
▁صدق	-9.58872
▁قولو	-9.58873
▁توحشنا	-9.58883
زير	-9.58951
▁مجهوداتك	-9.5896
استاذ	-9.59
▁وضع	-9.59021
خا	-9.59037
ant	-9.59058
ضا	-9.59089
ci	-9.59172
▁تعطي	-9.59189
امة	-9.59196
▁يهديك	-9.59292
▁هداك	-9.59318
رع	-9.59358
▁درنا	-9.59376
▁بالت	-9.59425
قرب	-9.59459
حشم	-9.59531
eur	-9.59579
قب	-9.59633
▁مصطلحات	-9.59646
دد	-9.59676
▁الصباح	-9.59812
▁صاحبي	-9.59887
راح	-9.59893
ka	-9.59895
▁ملك	-9.59941
▁اعرف	-9.59954
دني	-9.60028
▁تمارين	-9.60049
▁ليا	-9.60161
▁نقولك	-9.60232
▁الفيديوهات	-9.60239
ابة	-9.60248
▁حقيقة	-9.60254
▁تقدري	-9.60312
▁بص	-9.60318
▁مسكين	-9.60349
تميز	-9.60423
▁وأنت	-9.60497
▁وعند	-9.60512
داء	-9.60536
اض	-9.60597
داب	-9.60603
عط	-9.60643
سلم	-9.60654
▁فالم	-9.60707
٠	-9.60728
▁ذات	-9.60729
▁الحالة	-9.6073
ثم	-9.6074
▁قع	-9.60786
▁صرات	-9.60795
▁دعاء	-9.60808
صيب	-9.60878
راض	-9.60897
▁💗	-9.60944
▁فتح	-9.60962
▁fa	-9.60983
تحصل	-9.61016
ظيف	-9.61124
عيش	-9.61124
▁حلم	-9.61126
▁الفردوس	-9.61175
▁أيام	-9.61212
▁نزيد	-9.61297
▁رياض	-9.61301
مكن	-9.61352
▁الاجابة	-9.61423
▁قو	-9.61434
▁وصلت	-9.61448
▁الامر	-9.61458
▁rak	-9.61614
▁اف	-9.61625
▁قصصك	-9.61644
▁نع	-9.61762
زة	-9.61768
▁قالك	-9.61829
▁حبس	-9.61892
▁منيش	-9.61895
▁بوركت	-9.61932
▁كتبت	-9.61994
دور	-9.62048
▁المرة	-9.62076
▁جناته	-9.62119
▁عذاب	-9.62172
خلف	-9.6222
▁حلقة	-9.62239
▁العلوم	-9.62257
جعل	-9.62275
▁الأولى	-9.62342
▁فيما	-9.62389
▁مرات	-9.62456
▁رواه	-9.62457
▁تجريبية	-9.62538
▁عشر	-9.62549
▁الجواب	-9.6269
▁شيئا	-9.62768
جاز	-9.62892
قيم	-9.6291
▁فلي	-9.62976
يلنا	-9.63114
▁هدو	-9.6312
G	-9.63135
دق	-9.63174
▁بح	-9.63237
▁mais	-9.63242
▁الأس	-9.63327
▁مهما	-9.6335
▁الواقع	-9.63389
▁الصوت	-9.63404
▁النساء	-9.63494
▁حدث	-9.63495
▁مراجعة	-9.63507
▁الاس	-9.63563
ضغط	-9.63694
▁اولا	-9.6374
▁معاها	-9.63775
ation	-9.63791
▁عمرك	-9.63836
th	-9.63968
▁غالب	-9.64064
نشر	-9.64132
▁خلا	-9.64147
▁أب	-9.64222
مال	-9.64233
▁عبر	-9.64256
▁اسمها	-9.64256
عتمد	-9.64303
▁لغة	-9.64321
▁😂❤	-9.64333
ge	-9.64344
حبس	-9.64366
▁أين	-9.64374
▁صانع	-9.64429
راق	-9.64445
▁القط	-9.6445
▁يكن	-9.64561
lah	-9.64564
▁أل	-9.64577
فصل	-9.64762
▁ja	-9.64814
نظر	-9.6491
😹	-9.64917
▁الرجال	-9.64929
تأكد	-9.64944
▁يفرج	-9.65059
▁لذلك	-9.65061
▁اك	-9.65087
خلط	-9.65134
▁ير	-9.65216
؟!	-9.65219
مكان	-9.6522
▁سياسي	-9.6528
😊😊	-9.65329
▁وجل	-9.65333
▁تكتب	-9.65361
ik	-9.65396
▁خارج	-9.65439
▁اح	-9.65482
▁الحقيقي	-9.65522
غلق	-9.65549
▁والديا	-9.65559
▁تخدم	-9.65616
▁نشوفو	-9.65659
▁دوك	-9.65694
▁الساعة	-9.65735
▁التر	-9.65739
ره	-9.65776
بلي	-9.65804
▁شو	-9.65934
▁البقرة	-9.65941
▁نحل	-9.65996
▁لغ	-9.66104
قلت	-9.66295
▁يريد	-9.66306
▁إنشاء	-9.6637
▁شيئ	-9.66466
▁man	-9.66527
خاطر	-9.66536
af	-9.66576
▁مستحيل	-9.66584
▁عقل	-9.66659
▁يو	-9.66741
▁الحرب	-9.66747
▁البي	-9.66823
▁خمس	-9.66851
▁يروح	-9.66952
▁دع	-9.66956
طيح	-9.66988
اته	-9.66989
▁قط	-9.67073
▁لانه	-9.6708
▁المعدل	-9.67086
▁معك	-9.67149
▁مصر	-9.67174
▁الحم	-9.67202
فيد	-9.67243
▁جمع	-9.67297
▁وحده	-9.67322
▁القران	-9.67343
▁يجعلها	-9.67383
▁جزاكم	-9.67391
B	-9.67402
▁Ch	-9.67493
▁يفتح	-9.67571
▁دنيا	-9.67605
لازم	-9.67636
▁à	-9.67673
▁2022	-9.67683
▁it	-9.67754
che	-9.67803
▁تبع	-9.67834
▁الكر	-9.67898
▁المال	-9.67926
▁❤🎉	-9.67969
▁وفق	-9.68035
▁خر	-9.68074
▁عيد	-9.68099
▁فهي	-9.68244
💞	-9.68274
▁تتم	-9.68278
do	-9.68279
صعب	-9.68293
▁بالنجاح	-9.68301
▁لخ	-9.68318
▁courage	-9.68322
▁نن	-9.68522
دعم	-9.68554
▁يدعيلي	-9.68558
▁الماء	-9.68575
▁قالو	-9.68582
▁المش	-9.6859
▁فيلم	-9.68636
▁مق	-9.68817
▁تبان	-9.68839
▁يبان	-9.68853
دون	-9.68857
غسل	-9.68882
بية	-9.68929
▁~	-9.68937
😅😅	-9.68949
▁E	-9.69014
قه	-9.69038
▁الجميل	-9.69055
عالم	-9.69112
▁ثق	-9.69168
درس	-9.69173
▁بسك	-9.69272
ليش	-9.6929
▁مثال	-9.6929
▁الطيبة	-9.6931
▁يب	-9.69409
11	-9.69455
▁ادب	-9.69535
الف	-9.69544
▁di	-9.69546
▁اولاد	-9.69568
▁ديال	-9.69605
▁بشر	-9.69625
▁شف	-9.69632
▁ka	-9.6965
▁يخي	-9.69717
خلاص	-9.69834
▁👍	-9.69876
بحث	-9.69897
▁طلعو	-9.69912
▁وجعل	-9.69918
رفع	-9.70046
▁الزواج	-9.70048
نتظر	-9.70088
▁رابط	-9.70099
▁وبعد	-9.70103
▁ذو	-9.70129
▁احكي	-9.70206
سهل	-9.70264
▁بنفس	-9.70269
▁يحكي	-9.70315
حك	-9.70339
▁**	-9.70339
lou	-9.70462
▁الرياضيات	-9.70471
▁وحدك	-9.70505
▁ميت	-9.70514
▁حيقون	-9.70566
15	-9.7058
▁علابالي	-9.70592
▁وكيف	-9.706
▁2020	-9.70717
▁دعم	-9.70767
▁المد	-9.70846
▁صور	-9.70854
▁طل	-9.70882
▁إسم	-9.70883
خص	-9.70918
حفض	-9.70951
عبد	-9.71007
رن	-9.71083
▁مدة	-9.71086
▁للت	-9.71112
روس	-9.71238
F	-9.71253
غلب	-9.71308
▁قليل	-9.71472
▁يعطي	-9.71494
he	-9.71505
rou	-9.71528
~	-9.7155
بح	-9.71592
▁par	-9.71658
🎉🎉	-9.71735
▁الصالحة	-9.71777
▁مبعد	-9.71812
جبت	-9.71814
▁هما	-9.71828
▁خص	-9.7185
▁المواد	-9.71883
طلق	-9.71885
▁فاهم	-9.71914
باب	-9.71938
افق	-9.71963
▁رياضيات	-9.72018
▁الاخر	-9.72054
▁نستنا	-9.72054
تنمر	-9.72146
▁رأيك	-9.72146
▁الشهر	-9.72173
▁مول	-9.72193
▁ومت	-9.7221
▁الاجتماعي	-9.72217
▁فن	-9.72228
غو	-9.72249
▁نورمالمو	-9.72249
▁وهران	-9.72327
▁طالب	-9.72359
▁تان	-9.72396
▁الجديد	-9.7246
▁الحاجة	-9.72509
▁غدوا	-9.72534
▁تحس	-9.72535
بط	-9.72624
▁نتاعك	-9.72645
▁السر	-9.72707
▁200	-9.72768
▁♥️	-9.72786
▁لعل	-9.72857
▁وقيل	-9.72902
be	-9.72952
▁رايحة	-9.72963
▁يوما	-9.73025
▁البو	-9.7303
عز	-9.7305
▁خايفة	-9.73085
▁يوتيوبر	-9.73155
▁ملاح	-9.73189
▁العلمية	-9.73192
▁معي	-9.73227
▁ذا	-9.73294
▁وجود	-9.73351
▁قاعد	-9.73366
▁الطفل	-9.73369
▁يشفي	-9.73403
تس	-9.7343
▁الدم	-9.73517
▁ظل	-9.73521
si	-9.73537
▁نحي	-9.7354
▁الاسم	-9.73573
صبح	-9.73585
▁البشر	-9.73608
▁يطلع	-9.73643
▁u	-9.73661
▁بفضل	-9.73739
▁z	-9.73742
▁دارت	-9.73795
▁؛	-9.73804
▁تخصص	-9.73815
▁دايما	-9.73866
🌹	-9.739
▁الحب	-9.73941
▁حمد	-9.73954
▁مشروع	-9.73975
▁con	-9.73977
▁بلد	-9.74066
ضل	-9.74111
وجد	-9.74171
لغ	-9.74199
▁نهاية	-9.74253
▁rah	-9.74255
ائب	-9.74269
▁تفسير	-9.74279
▁أخ	-9.74288
قابل	-9.7431
▁وفقني	-9.7433
▁عجبني	-9.74351
▁نكتب	-9.74389
▁الدي	-9.74436
▁البا	-9.74454
age	-9.74475
دعي	-9.74506
▁هدرت	-9.74515
▁تفضل	-9.74549
فعال	-9.74593
▁al	-9.74602
نقل	-9.74628
رية	-9.74654
▁راقي	-9.7466
▁جمال	-9.74681
ولاد	-9.74685
عاني	-9.74692
جات	-9.74703
▁قيمة	-9.74706
اث	-9.74714
سق	-9.7473
▁يقرا	-9.74739
▁منتدى	-9.74786
▁باي	-9.74883
يته	-9.74899
▁دك	-9.74909
▁نقراو	-9.74925
▁طرف	-9.74991
▁نجحت	-9.75005
▁الاب	-9.75042
عند	-9.75066
▁مقر	-9.75066
▁تحل	-9.75088
▁ريداكس	-9.75091
كامل	-9.75094
▁vous	-9.75094
سية	-9.75127
نهار	-9.75176
ارك	-9.75228
▁اكتب	-9.75234
صة	-9.75336
▁1-	-9.75401
▁الوحيد	-9.75403
▁est	-9.75425
▁الأن	-9.75433
ic	-9.75435
▁منكم	-9.75445
خلع	-9.75473
▁توك	-9.75493
▁ياك	-9.75497
▁ثالث	-9.75529
▁فليل	-9.75574
درك	-9.75634
▁التعليم	-9.75672
شكل	-9.75675
رحب	-9.75711
▁يبقى	-9.75752
▁ساعات	-9.75757
▁نرجع	-9.75766
▁نح	-9.75796
▁خالتي	-9.7584
▁مجال	-9.75841
▁ناقص	-9.75851
نج	-9.75907
حمر	-9.7597
▁المست	-9.75975
سكن	-9.76028
}	-9.76049
طال	-9.76089
ربح	-9.76179
▁الرا	-9.76196
نجح	-9.76268
▁العلميين	-9.76386
قوم	-9.76408
غفر	-9.76413
▁مانيش	-9.76431
▁U	-9.76476
ظهر	-9.76483
حاسب	-9.76532
lna	-9.76604
▁30	-9.76622
صرا	-9.76649
▁عظم	-9.76721
▁ye	-9.76749
▁الاخير	-9.76771
▁جنانه	-9.7681
▁كانوا	-9.76845
▁متابع	-9.76875
▁إنسان	-9.76897
our	-9.76908
ستفاد	-9.76909
زد	-9.76922
▁قطع	-9.76972
▁بالضحك	-9.76982
▁he	-9.77077
▁مم	-9.77113
شرح	-9.77159
12	-9.77175
سام	-9.77199
▁V	-9.77244
روا	-9.77244
▁كيفك	-9.77252
▁فمن	-9.77295
▁نقطة	-9.77321
R	-9.77344
▁وصحبه	-9.7735
▁اصبح	-9.77417
حرم	-9.77429
يهم	-9.77445
▁بشكل	-9.77446
▁وحنا	-9.77482
▁والف	-9.77484
عظم	-9.77492
▁تطبيق	-9.77502
▁يشفيك	-9.77559
ly	-9.77569
▁الكلمات	-9.77605
توقع	-9.77642
▁يتفرج	-9.77713
💪	-9.77737
👌	-9.77748
خاف	-9.77754
▁La	-9.77827
▁جاب	-9.77854
▁البناء	-9.77855
▁عط	-9.77875
رمي	-9.7791
▁بطريقة	-9.77931
🫶	-9.78015
tha	-9.78024
▁يكفي	-9.78065
▁الارض	-9.78078
▁une	-9.78083
▁كثيرة	-9.78178
عرب	-9.78202
▁الجمعة	-9.78216
and	-9.78277
▁ادخل	-9.78284
▁حقيقية	-9.78286
▁السي	-9.78313
▁عاود	-9.78317
والله	-9.78324
بني	-9.78325
مه	-9.78339
▁ذويه	-9.78398
▁sepia	-9.7844
ريس	-9.78491
▁أسأل	-9.78491
ach	-9.7851
▁كاس	-9.78523
▁صاي	-9.78552
▁الض	-9.78614
طاع	-9.78615
شهر	-9.7872
▁Merci	-9.7876
16	-9.78793
دك	-9.78808
راجع	-9.78813
lik	-9.78829
▁شرف	-9.78865
▁وله	-9.78868
▁ليفيديو	-9.78887
ضاء	-9.78907
▁يصبر	-9.78912
▁وجد	-9.7895
تح	-9.78965
▁يرحمهم	-9.79063
▁حبيبي	-9.79121
يتها	-9.79147
اوية	-9.79199
▁الدول	-9.79242
▁🌹	-9.79242
▁وجدت	-9.79251
تاع	-9.79279
اسي	-9.79288
▁,,	-9.79331
nt	-9.7941
▁وصح	-9.79442
▁خطرة	-9.79458
عجز	-9.79573
امي	-9.79601
▁بلغ	-9.79606
▁رايك	-9.79709
▁إليك	-9.7971
شغل	-9.79713
خي	-9.79717
dj	-9.79779
▁تاوعك	-9.79805
▁دزاير	-9.79806
▁واجعل	-9.79816
صال	-9.79826
▁لعب	-9.79828
▁قص	-9.79837
بير	-9.79846
😔	-9.79865
▁العلماء	-9.79891
▁يرزق	-9.79903
▁عش	-9.80041
▁2-	-9.8017
▁الأدب	-9.8024
ندم	-9.80245
▁ذهب	-9.80281
▁الخل	-9.80371
▁نجح	-9.80389
▁السبب	-9.8043
▁يرحمه	-9.80461
))	-9.80468
▁القيامة	-9.80572
سئل	-9.80577
▁مدير	-9.80588
بيع	-9.80604
▁تريد	-9.80687
▁أحمد	-9.8073
▁صديق	-9.80739
▁bon	-9.80777
▁لدار	-9.8084
تق	-9.80871
خطر	-9.80888
سى	-9.80914
▁تجعل	-9.80935
اذ	-9.80938
▁بالك	-9.80949
شارك	-9.81012
ران	-9.81071
▁نقص	-9.81145
ماذا	-9.81172
▁العيد	-9.81208
▁اكيد	-9.81255
نظم	-9.81401
مار	-9.81445
▁تقني	-9.81452
▁عجب	-9.81485
▁an	-9.81499
▁زمان	-9.81567
▁يرجع	-9.81571
▁الحكم	-9.8162
▁مدرسة	-9.8165
فال	-9.81669
▁اميين	-9.81669
▁الفصل	-9.81676
▁بعدها	-9.81693
▁خي	-9.81751
▁شاب	-9.8183
▁العادة	-9.81902
▁نقدرو	-9.81903
iya	-9.81909
اهر	-9.8193
17	-9.81956
▁صبر	-9.81964
صم	-9.81989
nn	-9.82024
راف	-9.82035
جمل	-9.82107
قط	-9.82109
▁تأ	-9.8212
▁سمانة	-9.82121
داع	-9.82186
▁ثانوي	-9.82195
تقدم	-9.82212
▁ضر	-9.82213
▁العضو	-9.82231
حزن	-9.82252
يط	-9.82257
▁طويلة	-9.82259
حمل	-9.82297
▁الرحمان	-9.82351
وبة	-9.82366
▁الفكرة	-9.82419
▁والن	-9.82428
▁متى	-9.8255
ختلف	-9.82557
OU	-9.82563
أهل	-9.82568
هذا	-9.82575
لحق	-9.82592
▁لخر	-9.82609
▁يوفق	-9.82617
▁أجمل	-9.82621
▁no	-9.82649
▁أنها	-9.82678
خد	-9.82681
🤲🏻	-9.82687
حرق	-9.82698
▁يضحك	-9.82712
طلاق	-9.82756
▁سواء	-9.82763
ديد	-9.82785
▁خدمت	-9.82867
قصد	-9.82871
♥️	-9.82876
قى	-9.82928
▁يشوفو	-9.83006
قعد	-9.83037
▁يخلي	-9.83045
ng	-9.83058
دام	-9.83062
▁الوالدين	-9.83113
▁تصريحية	-9.83135
▁عدل	-9.83137
قات	-9.83175
▁وغير	-9.83201
▁صحيحة	-9.83233
▁ذاك	-9.83243
▁علمية	-9.83266
▁نسكن	-9.83276
▁والإ	-9.83393
لول	-9.83418
فاق	-9.83451
▁ابو	-9.83489
يبة	-9.83568
ss	-9.8358
ment	-9.83581
▁الفرنسية	-9.83635
▁حياة	-9.83661
za	-9.83702
▁إي	-9.83728
▁حطيت	-9.83757
عب	-9.83823
19	-9.83839
▁جز	-9.83864
ضيع	-9.83874
▁غادي	-9.83932
▁رجعوني	-9.83986
▁😁	-9.83997
ive	-9.84012
▁شخصية	-9.84013
▁المشبه	-9.84037
▁سبيل	-9.84072
غلط	-9.8408
▁القادر	-9.84122
عام	-9.84152
30	-9.84171
un	-9.84229
▁رأس	-9.8424
صنع	-9.84247
▁نبينا	-9.84265
غي	-9.8427
آن	-9.84275
حاب	-9.84279
▁ونتا	-9.8429
▁نتع	-9.84293
مثال	-9.84307
▁??	-9.84308
▁يسترك	-9.84309
لبس	-9.8439
▁فيديوهاتك	-9.84392
▁ترى	-9.84507
ver	-9.84557
ina	-9.84599
سعادة	-9.84615
غضب	-9.84695
▁نربح	-9.84702
ضن	-9.84713
▁تسمع	-9.84795
▁الآ	-9.84798
▁وراه	-9.84798
▁وينجح	-9.84808
▁والح	-9.84815
شجع	-9.84865
▁🔥	-9.84915
▁سامية	-9.84924
قصة	-9.84936
▁نضحك	-9.8494
كسر	-9.84975
طريق	-9.84975
▁💜	-9.84988
▁mat	-9.84989
▁نفسها	-9.8503
▁كلشي	-9.8503
▁آله	-9.85104
▁راقد	-9.85104
ul	-9.85143
▁kha	-9.85164
▁مض	-9.85216
▁تص	-9.85287
▁ضعيف	-9.85331
▁نشري	-9.85389
▁❤😊	-9.85421
▁الدر	-9.85427
▁🎉❤	-9.85435
▁دليل	-9.85441
▁شرحك	-9.85529
▁kima	-9.85544
ڤ	-9.85554
▁ظهر	-9.85584
▁خال	-9.85603
نب	-9.85607
ودي	-9.85734
فض	-9.85749
▁عظيم	-9.85785
عه	-9.85802
▁أريد	-9.85865
فشل	-9.85867
سباب	-9.85872
▁اقسم	-9.85876
ربع	-9.85897
▁عقلي	-9.85937
▁يصرا	-9.85962
▁✅	-9.86008
فه	-9.86028
▁فيديوات	-9.86061
▁الواحد	-9.86096
انت	-9.86107
جاهد	-9.86112
▁إني	-9.86119
▁اخو	-9.86121
▁جيد	-9.86158
▁طيح	-9.86181
كتاب	-9.86182
▁الرعد	-9.86216
oul	-9.86286
برا	-9.86314
▁قوله	-9.8635
▁استعارة	-9.86361
▁كلها	-9.86364
▁وبين	-9.86372
▁البرنامج	-9.86407
▁تكوني	-9.8642
ائية	-9.86482
سط	-9.86509
▁تبقى	-9.86516
▁شفتو	-9.86563
▁الخاص	-9.86637
▁صراتلي	-9.86668
▁فضل	-9.8667
▁تعمل	-9.86678
▁النوع	-9.86778
▁قوم	-9.86784
▁Rabi	-9.86831
هدا	-9.86837
▁الكلمة	-9.86854
موت	-9.86932
▁الخط	-9.86958
▁مالا	-9.87014
طير	-9.87045
▁نحكي	-9.87072
سامح	-9.87181
▁تهبل	-9.87213
▁ghir	-9.8723
▁كلامك	-9.87237
قن	-9.87265
▁مستوى	-9.87267
تجاوز	-9.87292
لون	-9.87426
ريف	-9.87427
كيف	-9.87444
دس	-9.87446
شبه	-9.87463
▁الفرق	-9.87526
▁فرق	-9.87591
dr	-9.87593
اتو	-9.87605
end	-9.87707
سان	-9.87795
▁واخ	-9.87808
▁بيد	-9.87813
▁تغ	-9.87829
اعي	-9.87862
▁المزيد	-9.87893
ركب	-9.87904
▁مغ	-9.87942
راب	-9.87958
ذة	-9.8796
▁طاح	-9.87985
▁هاديك	-9.88021
▁رزق	-9.88094
▁نلحق	-9.88097
▁كيفي	-9.88117
▁ترجع	-9.88119
شوق	-9.88124
▁ندو	-9.88129
علوم	-9.88253
▁مادام	-9.88306
مرة	-9.88379
▁صب	-9.88416
▁ماتت	-9.8845
▁نهدر	-9.88463
راج	-9.88504
▁تذكر	-9.88515
▁خت	-9.88528
▁الحبيب	-9.88572
▁اروع	-9.88597
14	-9.88642
▁متابعة	-9.88651
▁يكتب	-9.88653
▁قدم	-9.88655
فريق	-9.88735
▁درتي	-9.88765
ham	-9.88768
▁أصبح	-9.88783
▁سير	-9.88797
ement	-9.88797
راي	-9.88832
▁يخدم	-9.88841
▁العفو	-9.88845
▁طالبة	-9.88865
op	-9.88878
ائ	-9.88899
▁راسي	-9.89039
رؤ	-9.89095
ظل	-9.89122
tt	-9.89125
ستفيد	-9.89195
▁صوتك	-9.89197
▁واذا	-9.8923
▁ثانية	-9.89277
▁تقريبا	-9.89301
eb	-9.89305
▁جواب	-9.89308
عان	-9.89325
▁صوالح	-9.89341
▁ملف	-9.89363
▁موجود	-9.89365
فري	-9.89373
ji	-9.89376
▁الوحدة	-9.8941
رون	-9.89447
▁عربي	-9.895
ess	-9.89551
min	-9.89658
▁يسمع	-9.8966
▁للأسف	-9.89695
▁راها	-9.89764
يفة	-9.89771
نك	-9.89772
▁ارحمه	-9.89796
خرا	-9.89804
▁ومبعد	-9.89807
tik	-9.89848
امين	-9.89859
روق	-9.89921
▁نراجع	-9.89938
▁المر	-9.90003
▁يومين	-9.90034
صوم	-9.90043
▁بالمعدل	-9.90092
جع	-9.90174
▁كاينة	-9.90202
سكت	-9.90206
حذر	-9.90255
▁امتحان	-9.90273
▁القيم	-9.90316
▁التو	-9.90319
ختي	-9.90365
عون	-9.90371
▁دل	-9.90383
▁اد	-9.90391
▁حكاياتك	-9.90418
▁st	-9.90422
▁هدر	-9.90441
▁ريح	-9.90462
▁سمع	-9.90518
▁اعط	-9.90554
▁بالاك	-9.90561
▁جار	-9.9069
▁وميلود	-9.90716
▁حسبنا	-9.90751
▁خخ	-9.90779
♥	-9.90795
▁العائلة	-9.90804
▁تربح	-9.90851
فار	-9.90859
▁يسكن	-9.90862
▁الجملة	-9.90881
▁شريت	-9.90913
▁	-9.90944
▁حابين	-9.90947
وما	-9.90954
▁يوتيوب	-9.90958
ck	-9.91051
▁افهم	-9.91076
▁lah	-9.91081
▁الخاصة	-9.91106
▁تضحك	-9.91115
ضة	-9.91119
▁يعمل	-9.91174
▁السن	-9.91178
تب	-9.91208
أمن	-9.91242
يارب	-9.91256
▁مب	-9.91295
▁كأن	-9.91313
رزق	-9.91319
▁nchlh	-9.91323
ولد	-9.91341
▁اسئلة	-9.91345
دعاء	-9.91356
▁ار	-9.91361
▁باباك	-9.9139
us	-9.91488
pe	-9.91564
▁للاسف	-9.91583
زح	-9.91603
▁يطيح	-9.91617
▁ce	-9.91756
وغ	-9.91759
▁مقدرتش	-9.91764
صيل	-9.91772
تيني	-9.91789
▁يوصل	-9.91805
▁المقال	-9.91809
ائه	-9.91818
▁مؤ	-9.91852
قصص	-9.91878
الق	-9.91879
▁وخلاص	-9.91937
▁الشيء	-9.91939
▁نوض	-9.92066
▁😔	-9.92184
▁جدي	-9.92198
سبب	-9.92214
▁تبدا	-9.92228
▁الماضي	-9.9227
قود	-9.92327
▁love	-9.92331
▁الطفلة	-9.92384
▁ضرك	-9.92408
▁الملك	-9.92429
▁الإجابة	-9.92459
▁الأب	-9.92478
باس	-9.92604
مرأة	-9.92607
وث	-9.9261
عار	-9.92638
▁مثواه	-9.92641
▁بنتي	-9.92644
▁العاصمة	-9.92664
دب	-9.92671
▁العين	-9.9269
شرب	-9.92719
2025	-9.92731
▁اجد	-9.92784
▁جيدا	-9.9281
▁برحمتك	-9.92845
مجهود	-9.92859
by	-9.92869
▁اسمع	-9.92889
dou	-9.92938
▁وحتى	-9.92959
▁دولة	-9.93042
افي	-9.93108
لعب	-9.93253
▁اج	-9.93256
▁مافهمتش	-9.93309
▁موت	-9.93318
18	-9.93354
حافظ	-9.93366
▁dar	-9.9339
تفوق	-9.93407
▁بيسك	-9.93423
بلا	-9.93454
▁تخاف	-9.93542
▁du	-9.93549
▁–	-9.93556
▁اخوات	-9.93617
▁حوايج	-9.93635
ali	-9.93643
▁بع	-9.93678
▁اصل	-9.93699
▁أهله	-9.93705
تعامل	-9.9378
▁نقل	-9.93802
يحة	-9.93807
▁الحزن	-9.93839
قم	-9.93869
▁👌	-9.93886
▁😢❤	-9.93897
▁استمر	-9.93899
▁علمي	-9.93955
▁المرور	-9.94004
▁فهل	-9.94006
جود	-9.94053
▁خطأ	-9.94063
شاهد	-9.94077
▁win	-9.94116
▁are	-9.94119
▁عارف	-9.94139
▁لإ	-9.94157
ok	-9.94163
▁الشباب	-9.94312
▁lo	-9.94326
ظاهر	-9.94339
خسر	-9.94348
تكلم	-9.94368
▁البلاد	-9.94372
ie	-9.94376
▁ولك	-9.94385
▁تخلي	-9.94427
▁نولي	-9.94445
▁القول	-9.94456
▁الامتحان	-9.94466
سع	-9.94491
قف	-9.94531
▁أف	-9.94571
خلق	-9.94585
▁السلسلة	-9.94586
▁ونفرحو	-9.94592
ft	-9.94625
▁واجب	-9.94639
▁حافظ	-9.94682
حول	-9.94687
▁سكن	-9.94711
▁البحر	-9.94722
🇩	-9.94831
▁الأخت	-9.94864
▁يخص	-9.94896
▁ساهلة	-9.94901
▁خالي	-9.9493
▁لاي	-9.9495
مازيغ	-9.94984
ke	-9.94984
▁th	-9.95009
بيا	-9.95033
▁ملخص	-9.95038
▁نعمة	-9.95041
▁ضيف	-9.95047
tni	-9.95082
▁خطر	-9.95088
بدع	-9.95103
▁ثبت	-9.95216
▁الفجر	-9.95276
▁والعافية	-9.95277
▁نست	-9.95346
▁وإذا	-9.95355
▁فالباك	-9.95357
رعب	-9.95398
▁زر	-9.95405
▁تغير	-9.95425
▁الفديو	-9.95467
يار	-9.95494
▁يعيشك	-9.95513
▁كتابك	-9.95518
وج	-9.95565
▁لست	-9.95614
▁hada	-9.95621
شد	-9.95649
▁دورة	-9.95652
اكم	-9.95695
▁on	-9.95712
▁نجحنا	-9.95719
▁tu	-9.95734
▁ظلم	-9.9581
شري	-9.95865
▁الوصفة	-9.95872
▁المراجعة	-9.95873
▁ابي	-9.95884
▁حرف	-9.9592
سابق	-9.95928
▁جب	-9.95946
▁سوجي	-9.95955
بصح	-9.95964
▁ويعطيك	-9.96017
🖤	-9.9602
▁كذب	-9.96033
kon	-9.96037
▁بق	-9.96043
▁رسالة	-9.96056
▁لحق	-9.96115
▁راجع	-9.96129
eux	-9.96137
سمو	-9.9621
▁مباشرة	-9.96242
Y	-9.96268
▁خدمة	-9.96278
▁الناجحين	-9.96292
بق	-9.96312
▁نف	-9.9634
elle	-9.96458
▁تاعنا	-9.96469
طان	-9.96472
▁عيدك	-9.96487
▁عدة	-9.96489
ودة	-9.96507
ais	-9.96625
▁الغالية	-9.96635
Q	-9.96657
▁المقترحات	-9.96678
▁الكبير	-9.96681
تباع	-9.96701
▁رفع	-9.96702
▁مالك	-9.9679
موضوع	-9.968
غيب	-9.96823
tou	-9.96845
▁ca	-9.96908
واجه	-9.96938
وحد	-9.97039
لوا	-9.97044
غن	-9.97072
▁مقال	-9.97078
صلاح	-9.9709
▁il	-9.97115
▁نحكيلك	-9.97148
▁علامة	-9.9716
▁Ha	-9.97162
▁أبدا	-9.97181
ts	-9.97181
حيط	-9.97237
▁هب	-9.97255
▁su	-9.97284
▁باسم	-9.97303
▁شئ	-9.97308
▁يؤ	-9.97313
der	-9.97314
😁	-9.97317
▁rani	-9.9733
ولها	-9.97359
فرق	-9.97381
▁العمر	-9.97399
▁نصب	-9.97427
رط	-9.97458
▁فصل	-9.97459
▁نسي	-9.9747
▁هاته	-9.97489
▁نصيب	-9.97516
▁as	-9.97558
▁وحدها	-9.97579
▁صف	-9.9761
▁ردي	-9.97616
50	-9.97619
▁معروف	-9.977
روع	-9.9776
▁جزائرية	-9.97764
▁انتهى	-9.9779
ذو	-9.97865
كره	-9.97881
▁مريم	-9.97905
▁الراجل	-9.98001
ans	-9.98006
▁ينجحكم	-9.98014
▁men	-9.98039
▁البيام	-9.98077
▁إلي	-9.98115
▁شرط	-9.98137
N	-9.9816
▁واقع	-9.98163
▁مف	-9.983
أستاذ	-9.98376
ظلم	-9.98382
▁لكان	-9.98392
▁نصائح	-9.98421
▁تشبه	-9.98432
آخر	-9.98437
▁الصور	-9.98441
▁بلادنا	-9.98456
جبر	-9.98456
تواضع	-9.98519
▁تز	-9.98551
▁قنشوبة	-9.98601
نجاح	-9.9861
حسان	-9.98622
حدث	-9.98644
ومة	-9.98647
▁الباردة	-9.98681
▁شت	-9.98689
▁لحد	-9.98706
▁Redx	-9.98732
▁قديم	-9.98747
▁للأ	-9.98753
▁تابع	-9.98801
▁عدت	-9.98825
يست	-9.98825
▁تعاود	-9.98843
▁واخيرا	-9.98874
▁حكا	-9.9889
rk	-9.98934
if	-9.98938
▁نجحني	-9.98955
▁السوداء	-9.98999
▁القضية	-9.99004
لكن	-9.99011
▁بينا	-9.99034
▁هكدا	-9.99059
ut	-9.99084
▁السماء	-9.99137
سات	-9.99149
تعلق	-9.99248
▁قراءة	-9.99277
رسال	-9.99277
ميز	-9.99306
رغب	-9.9943
▁أح	-9.99448
▁حكيت	-9.99592
▁يوفقكم	-9.99689
▁القبر	-9.99697
▁😮😮	-9.99754
جين	-9.99793
▁يهبل	-9.99839
▁كاملة	-9.99856
بقي	-9.99918
جامع	-9.99947
▁ho	-9.9996
▁اسمو	-9.9996
▁أمام	-9.99978
▁ركز	-9.99985
كذب	-10.0001
▁ولات	-10.0007
▁النثر	-10.0009
▁انتم	-10.0009
▁رأي	-10.0011
جماعة	-10.0013
ff	-10.0017
💕	-10.0018
▁أخذ	-10.0018
يسي	-10.0028
▁الغيب	-10.0028
▁الرابط	-10.0033
عتبر	-10.0034
chi	-10.0039
فرج	-10.0041
que	-10.0041
▁لس	-10.0042
▁تاعها	-10.0045
▁علابالك	-10.0049
▁علما	-10.0052
نش	-10.0052
جلس	-10.0053
▁كلما	-10.0056
▁حمل	-10.0061
▁المستقبل	-10.0064
▁اصحاب	-10.0065
aya	-10.0074
▁بكم	-10.0075
لان	-10.0077
كنت	-10.0079
ربط	-10.0091
cha	-10.0098
▁المدرسة	-10.0098
لين	-10.01
▁الكتب	-10.01
▁عاش	-10.01
▁زين	-10.01
▁يطول	-10.0108
حترم	-10.0108
lm	-10.011
▁معنديش	-10.0115
▁ودي	-10.0121
>	-10.0124
▁مميز	-10.0125
سرع	-10.0126
▁كت	-10.0126
غرام	-10.0129
▁fl	-10.0133
كرر	-10.0134
??	-10.0136
▁التلاميذ	-10.0142
té	-10.0145
▁حلي	-10.0145
ترجم	-10.0147
شرك	-10.0148
▁مدينة	-10.015
▁روضة	-10.0153
▁الأعضاء	-10.0157
ركز	-10.0159
▁بلاصت	-10.0161
▁قبره	-10.0161
▁القدر	-10.0163
بون	-10.0164
▁الضحك	-10.0165
كتفي	-10.0165
▁الغالي	-10.0167
2026	-10.0168
▁ياخي	-10.0168
▁يستر	-10.017
▁يقال	-10.0195
طالب	-10.0197
▁الحلقة	-10.0197
▁مساء	-10.02
▁أجر	-10.0203
▁ويرحم	-10.0211
▁قام	-10.0215
▁الحج	-10.0219
▁الواسعة	-10.0225
▁يولي	-10.023
▁ولل	-10.0232
▁ادعي	-10.0234
▁معند	-10.0238
▁فهذا	-10.0239
▁معرفتش	-10.0243
سحر	-10.0245
▁نخرج	-10.0249
▁نصف	-10.0252
▁برو	-10.0252
▁الفكري	-10.0257
▁غدا	-10.026
▁الغير	-10.0262
▁my	-10.0263
▁يشافيك	-10.0266
دافع	-10.0277
▁مبرووك	-10.0279
▁يفرح	-10.0282
ique	-10.0284
▁الايام	-10.0286
خبار	-10.0287
أمر	-10.0291
نور	-10.0296
▁hna	-10.0301
ائك	-10.0302
▁انشالله	-10.0304
no	-10.0313
tre	-10.0319
▁الجد	-10.0322
وضع	-10.0325
▁صعيب	-10.0334
▁توب	-10.0335
▁معناها	-10.0336
▁بري	-10.0338
ليل	-10.0341
مير	-10.0342
▁ذر	-10.0345
▁mi	-10.0347
▁تلحق	-10.0347
بشر	-10.035
▁المستعان	-10.0355
▁وراح	-10.0355
▁يموت	-10.0357
▁نحتاج	-10.0359
▁سكر	-10.0359
✌	-10.0359
▁الجاي	-10.0363
ثن	-10.0366
▁الحن	-10.0367
▁ويوفقك	-10.0376
قضي	-10.0384
▁يهدينا	-10.0388
😘	-10.0394
دري	-10.0397
تذكر	-10.0397
▁25	-10.0397
▁بناء	-10.0398
▁يخبط	-10.0399
▁باطل	-10.0403
▁حبيب	-10.0406
▁اقامة	-10.0411
▁ارجوك	-10.0411
دوا	-10.0417
▁العباد	-10.0418
غب	-10.0428
بور	-10.0433
▁دول	-10.0435
ونس	-10.0437
ana	-10.0438
ot	-10.0439
سمي	-10.0442
▁حتي	-10.0444
▁زهري	-10.0446
درج	-10.045
مح	-10.0455
يام	-10.0457
▁يعيش	-10.0458
▁تعجبني	-10.0459
▁فم	-10.0462
▁انني	-10.0463
od	-10.0465
▁تد	-10.0468
سكو	-10.0469
صوص	-10.0469
توقف	-10.0469
لاق	-10.047
▁***	-10.0481
tion	-10.0481
فور	-10.0482
صد	-10.0485
▁طبيب	-10.0486
pi	-10.0489
▁أصحاب	-10.0489
▁عباسية	-10.0489
سعد	-10.0494
ass	-10.0495
▁الإن	-10.0498
▁قدرت	-10.05
▁استااذ	-10.0506
معدل	-10.0506
فاه	-10.0508
▁wla	-10.0511
▁نبي	-10.0511
▁💪	-10.0511
▁الحد	-10.0511
💙	-10.0514
▁كاتب	-10.0518
▁ولدي	-10.0518
▁وعن	-10.052
▁الثالثة	-10.0526
رقة	-10.0532
pp	-10.0533
▁اجر	-10.0537
قيت	-10.0542
▁تعود	-10.0545
بول	-10.0545
حال	-10.0546
▁نتعلم	-10.0548
▁غالي	-10.0553
تاريخ	-10.0561
▁ad	-10.0561
تقد	-10.0563
▁hadi	-10.0563
ظن	-10.0564
عدد	-10.0564
▁الوطن	-10.0565
▁ثلاثة	-10.0565
▁الأمور	-10.0568
▁عندكم	-10.0568
▁البارح	-10.0572
▁لسان	-10.0581
▁تتمنى	-10.0584
▁Kh	-10.0584
▁التن	-10.0586
بنت	-10.0587
▁انتظار	-10.0589
▁بهذه	-10.059
يسر	-10.0591
▁3-	-10.0591
▁The	-10.0593
هالك	-10.0594
خلو	-10.0594
▁بعث	-10.0598
▁القيمة	-10.0599
▁زمن	-10.0607
▁المهجر	-10.0612
hab	-10.0612
▁القا	-10.0614
خاص	-10.0617
▁تعرفي	-10.0618
▁الجامعة	-10.0623
▁Sepia	-10.0625
▁الدو	-10.0625
تواجد	-10.0626
هود	-10.0629
▁مشكلة	-10.063
▁ترد	-10.0633
▁بات	-10.0634
koum	-10.0638
▁اقل	-10.064
▁قرب	-10.0653
▁خايف	-10.0654
▁فض	-10.0656
حين	-10.0656
▁المق	-10.066
▁نطالب	-10.066
‏	-10.0664
▁مشاكل	-10.0666
hal	-10.0666
▁bla	-10.0668
▁مقترح	-10.0674
▁مرورك	-10.0676
▁سيدي	-10.0678
▁أخت	-10.068
▁كبر	-10.068
رفد	-10.0684
eh	-10.0685
▁يجو	-10.0687
▁مواد	-10.069
▁احنا	-10.0701
بناء	-10.0702
لع	-10.0703
😂❤	-10.0703
▁ضحكت	-10.0705
💖	-10.0708
بيت	-10.0709
▁المجال	-10.0709
▁الملف	-10.0715
▁تقراي	-10.0716
▁منعرف	-10.0727
▁pdf	-10.0731
▁جويلية	-10.0739
▁طرح	-10.0742
جزاء	-10.0742
▁مج	-10.0743
▁حش	-10.0743
▁x	-10.0747
▁مكتوب	-10.0751
بري	-10.0758
جماع	-10.0758
▁شب	-10.0758
▁الطابعة	-10.0759
فرنس	-10.0761
ۡ	-10.0766
صلى	-10.0767
▁شريك	-10.0768
▁Ra	-10.0772
▁لبنات	-10.0772
توب	-10.0776
ac	-10.0777
▁سبق	-10.078
▁التربية	-10.0781
▁قن	-10.0786
فين	-10.0794
▁وقتاش	-10.0796
▁البعض	-10.0802
▁البن	-10.081
▁ممتعة	-10.0818
▁للع	-10.0819
▁كملنا	-10.0819
▁سؤالي	-10.0821
▁وعلاه	-10.0823
ran	-10.0823
▁نحو	-10.0824
آآ	-10.0825
▁ممن	-10.0837
▁اكل	-10.0837
sk	-10.0838
▁الكا	-10.0839
حف	-10.0841
▁التواصل	-10.0847
▁الرائع	-10.085
▁ونتي	-10.0851
فون	-10.0856
حارب	-10.0858
▁صعب	-10.0858
co	-10.0861
▁؟!	-10.0863
▁mon	-10.0865
▁جاوبوني	-10.087
▁يقل	-10.0871
▁متوسط	-10.0872
▁قي	-10.0875
▁المدينة	-10.0876
بيل	-10.088
▁شفاء	-10.0881
تمسخر	-10.0888
▁يدعو	-10.0893
داد	-10.0896
▁النور	-10.0901
لله	-10.0904
▁واسكنه	-10.0904
▁الإمام	-10.0904
▁عيدكم	-10.0905
▁حرب	-10.0906
▁معلم	-10.0906
▁مريضة	-10.0907
▁continuation	-10.091
▁ab	-10.0911
▁سطيف	-10.0912
▁شفتها	-10.0913
▁كذا	-10.0913
▁نعرفو	-10.0915
▁زي	-10.0916
ختار	-10.0917
▁عايش	-10.092
لاف	-10.0921
رأ	-10.0924
سهر	-10.0924
▁ينت	-10.0927
▁تسيير	-10.0927
علق	-10.0927
ty	-10.0931
▁احفظ	-10.0934
▁بنجاح	-10.0946
▁ظ	-10.0948
▁قلوبنا	-10.0949
جام	-10.0951
▁ألا	-10.0951
▁اليك	-10.0957
▁حلو	-10.0961
فرد	-10.0963
▁وبال	-10.0964
▁فوور	-10.0971
شف	-10.0974
▁صاحبة	-10.0974
▁احكيلنا	-10.0975
▁عصر	-10.0979
حظ	-10.0989
▁ايمان	-10.0991
💓	-10.0992
ko	-10.0995
باه	-10.0995
rr	-10.0999
واحد	-10.1
▁نوصل	-10.1001
mou	-10.1002
▁نثر	-10.1003
آل	-10.1004
غم	-10.1005
عف	-10.1015
نحبك	-10.1017
▁فإذا	-10.102
▁خوك	-10.1021
▁نقلك	-10.1021
سؤال	-10.1022
▁pro	-10.1022
جرب	-10.1025
▁مص	-10.1029
▁الجزائريين	-10.1031
koun	-10.1036
ite	-10.1041
▁لحكايات	-10.1041
▁ويغفر	-10.1042
▁الفاضلة	-10.1042
▁ارزقني	-10.1049
ديرو	-10.1049
حبش	-10.105
نفع	-10.1057
▁ضو	-10.1059
hak	-10.1061
▁قاعدة	-10.1067
صناع	-10.1069
13	-10.1069
▁البخاري	-10.1078
▁السعادة	-10.108
▁حسبت	-10.1082
صالح	-10.1083
▁sh	-10.1084
▁اقرب	-10.1085
طح	-10.1085
رتب	-10.1085
قراء	-10.1086
▁حو	-10.1089
▁لبن	-10.1091
▁قعد	-10.1094
▁kif	-10.1095
▁ثان	-10.1098
😀	-10.11
▁طلعت	-10.1104
يقة	-10.1105
▁بصحتك	-10.1108
▁لج	-10.111
▁جاوبني	-10.1111
▁machi	-10.1112
▁تلعب	-10.1112
قوا	-10.1114
دول	-10.1114
ترشح	-10.1115
V	-10.1118
aime	-10.1122
▁تفرح	-10.1123
▁جاو	-10.1132
😮😮	-10.1135
▁المرا	-10.1135
▁رم	-10.1137
درت	-10.1138
▁•	-10.1139
▁حكي	-10.1143
سون	-10.1143
▁يكمل	-10.1146
▁عاون	-10.1151
▁عود	-10.1151
ولوج	-10.1155
▁الرو	-10.1156
▁هؤلاء	-10.1157
▁الفل	-10.1163
شخص	-10.1164
▁بذلك	-10.1168
▁امل	-10.1169
▁é	-10.1171
▁ملاك	-10.1177
▁الشاعر	-10.1179
▁الخبر	-10.118
اخ	-10.1183
▁الشرك	-10.1183
▁حاليا	-10.1183
▁الجامع	-10.1184
طم	-10.1184
❤️❤️	-10.1184
▁ادعيولي	-10.1185
▁صانعة	-10.1186
▁انصح	-10.1188
▁شد	-10.1194
wl	-10.1194
▁قاتل	-10.12
▁نبكي	-10.1201
▁واست	-10.1202
▁الراحمين	-10.1203
▁الاعضاء	-10.1203
▁لديك	-10.1209
▁عيب	-10.1214
بكي	-10.1225
شاف	-10.1226
قناة	-10.1238
▁المفضل	-10.1238
▁أصل	-10.1239
زان	-10.1242
▁وحدو	-10.1245
▁sur	-10.1248
▁ثانيا	-10.1251
▁your	-10.1252
▁الهاتف	-10.1255
▁كحل	-10.1261
▁اسمه	-10.1264
▁وكاين	-10.1264
وقف	-10.1265
فوق	-10.1266
▁تقل	-10.1267
▁يبدا	-10.1267
▁دمت	-10.1267
▁مرور	-10.1272
نعم	-10.1273
mal	-10.1276
wi	-10.1278
عندي	-10.1282
جميع	-10.1282
▁وارحمه	-10.1284
▁عزيز	-10.1286
▁الهم	-10.1287
▁يفوت	-10.1291
حقيق	-10.1292
😍😍	-10.1296
❤🎉	-10.1296
ثار	-10.1297
شير	-10.1297
▁مسكينة	-10.1299
▁عبارة	-10.1302
▁عنوان	-10.1304
▁أر	-10.131
▁saha	-10.1316
بث	-10.1317
عدل	-10.1318
▁وصفة	-10.1319
زر	-10.132
▁حاس	-10.1322
قلي	-10.1323
▁top	-10.1328
▁Dir	-10.1334
باقي	-10.1337
▁نظام	-10.1337
▁عقد	-10.134
حذف	-10.1341
▁جم	-10.1342
▁bro	-10.1343
▁ni	-10.1345
▁دفع	-10.1346
▁حبست	-10.1354
ٱ	-10.1358
توحش	-10.1364
▁واسع	-10.1365
▁اساس	-10.1366
▁قولولي	-10.1367
▁اغلب	-10.1367
▁الاقل	-10.1368
▁عون	-10.137
▁دعا	-10.1373
▁قصتي	-10.1375
▁فإنه	-10.1375
تد	-10.1376
رفض	-10.1376
سقس	-10.1378
▁ديالك	-10.1384
▁سمعتها	-10.1388
قاد	-10.1391
▁يرد	-10.1393
▁Allah	-10.1395
رث	-10.1397
▁المؤمنين	-10.1398
▁سعد	-10.14
▁افكار	-10.1401
▁يعود	-10.1411
▁بيض	-10.1412
▁الزمن	-10.1412
أت	-10.1416
▁النظر	-10.142
▁دايمن	-10.1422
▁bien	-10.1423
قيد	-10.1428
▁ré	-10.1431
علا	-10.144
▁الهدرة	-10.1448
▁هديك	-10.1451
تخيل	-10.1456
▁راسك	-10.1461
ich	-10.1462
▁أسئلة	-10.1469
▁وصف	-10.147
▁بنادم	-10.1471
▁الإيمان	-10.1479
فن	-10.1483
▁كفاش	-10.1491
عاب	-10.1491
▁ذي	-10.1496
شعار	-10.1497
▁أعرف	-10.1498
جاهل	-10.1501
▁المشرف	-10.1505
▁الانجليزية	-10.1506
▁ونحن	-10.1513
▁فرصة	-10.1515
▁ربك	-10.1521
ذن	-10.1521
▁this	-10.1523
▁ربح	-10.1525
▁😊❤	-10.1528
خويا	-10.1529
▁قسنطينة	-10.153
▁مستقبل	-10.1532
▁dé	-10.1536
فيق	-10.1538
▁dz	-10.154
▁وقف	-10.1543
▁امي	-10.1544
▁sah	-10.1545
▁ناجح	-10.1547
▁ذكرت	-10.1554
▁وشنو	-10.1558
▁بلاصة	-10.1558
▁خيال	-10.1563
▁مثلك	-10.1567
توكل	-10.1568
اصي	-10.1568
امل	-10.1573
▁co	-10.1573
سيد	-10.1575
تقبل	-10.1578
▁like	-10.1584
حتى	-10.1585
فقد	-10.1592
▁نريد	-10.1593
مليون	-10.1593
قين	-10.1595
▁شابين	-10.1596
um	-10.1598
فطر	-10.1599
▁min	-10.16
▁المشكلة	-10.16
▁القلوب	-10.1601
ada	-10.1602
دان	-10.1606
è	-10.1606
▁حمبوك	-10.1607
▁Wa	-10.1608
▁الموسيقى	-10.1609
▁يتبع	-10.1613
زام	-10.1616
▁الحا	-10.162
▁السيبيا	-10.1623
▁محتاج	-10.1624
زلت	-10.1625
▁جغرافيا	-10.1626
▁يقراو	-10.1626
▁يحل	-10.1628
▁عيشك	-10.1632
▁خلو	-10.1633
▁تبعت	-10.1633
allah	-10.1635
▁منقدرش	-10.1639
▁مراد	-10.1643
ائع	-10.165
😱	-10.1652
حداث	-10.1654
توش	-10.1659
▁تقتل	-10.166
os	-10.1663
▁اللول	-10.1663
▁تبكي	-10.1663
▁تعبت	-10.1664
▁طو	-10.1666
▁ارمي	-10.1668
▁الوا	-10.1672
▁حجر	-10.1673
ضحي	-10.1674
▁غر	-10.1675
▁حكايتي	-10.1675
▁يستاهل	-10.1675
▁الأيام	-10.1676
▁وقع	-10.168
▁عطا	-10.1683
▁شعور	-10.1686
▁ديدين	-10.1694
▁عدنا	-10.1697
▁امام	-10.1702
▁au	-10.1704
▁تلميذ	-10.1704
سلسل	-10.171
▁ro	-10.1711
▁ره	-10.1711
▁حاط	-10.1714
▁ذنوب	-10.1715
▁الأمة	-10.1719
99	-10.1724
▁الشرط	-10.1725
ستغل	-10.173
رجل	-10.1731
▁🖤🖤	-10.1739
▁المنزل	-10.1742
▁أقول	-10.1752
▁ادعولنا	-10.1752
▁والدي	-10.1755
alah	-10.1756
▁الحسن	-10.1759
▁تحتاج	-10.1759
▁المص	-10.1765
▁اقول	-10.1766
rs	-10.1768
▁نورت	-10.1772
ذب	-10.1772
طفي	-10.1772
▁أنني	-10.1772
▁الروح	-10.1775
▁أصلا	-10.1775
we	-10.1778
fo	-10.1786
▁استاذنا	-10.1786
▁ميمز	-10.1787
▁المعنى	-10.1787
▁عامي	-10.179
▁تبدل	-10.1791
▁ملاحظة	-10.1793
شاعر	-10.1793
▁دراسة	-10.1797
▁يوميا	-10.1797
▁الجو	-10.1799
▁أسعد	-10.1801
▁الذ	-10.1804
▁تكن	-10.1805
▁الجميلة	-10.1806
▁دعو	-10.1807
صاحب	-10.1809
▁قوليلي	-10.181
🥀	-10.181
▁الآخر	-10.181
▁ديجا	-10.1813
▁mar	-10.1819
▁امور	-10.182
صرف	-10.182
صحاب	-10.1821
▁معرفة	-10.1822
▁جبتي	-10.1823
▁فرض	-10.1824
▁حت	-10.1825
▁التف	-10.1831
sta	-10.1832
🤲🤲	-10.1836
▁تغيير	-10.1836
▁لاني	-10.1837
أسلوب	-10.1848
✅	-10.185
▁صغار	-10.1852
▁احت	-10.1852
▁تفرج	-10.1852
▁احمد	-10.1853
▁وجميع	-10.1854
▁أيها	-10.1856
▁عما	-10.1863
▁عرض	-10.1866
يمين	-10.1873
▁التق	-10.1875
▁1.	-10.188
▁درا	-10.1881
▁ربع	-10.1881
جح	-10.1885
▁الصالح	-10.1888
▁can	-10.1892
▁معلومة	-10.1895
▁الطا	-10.1897
▁اقرا	-10.1899
▁بمعنى	-10.19
▁جعلها	-10.19
▁يأتي	-10.1904
▁صا	-10.1904
هبط	-10.191
▁ماكانش	-10.1913
hh	-10.1917
▁يصلح	-10.1918
▁عقب	-10.1919
▁كونت	-10.1921
🎀	-10.1921
ضاع	-10.1925
شحال	-10.1926
خمم	-10.1927
▁نحط	-10.1929
▁بضحك	-10.1934
▁محتواك	-10.1937
ez	-10.1938
ستمتع	-10.1939
▁قليلا	-10.1941
▁أجد	-10.1943
▁الأمير	-10.1951
▁go	-10.1954
▁كثرلنا	-10.1958
▁يحي	-10.1961
سار	-10.1961
▁part	-10.1963
▁تعد	-10.1963
خامس	-10.1965
bo	-10.1967
▁لابس	-10.1967
▁عمرها	-10.1967
صلاة	-10.1969
▁24	-10.1972
▁الموقع	-10.1977
▁مافي	-10.1979
▁اخوتي	-10.1979
لاء	-10.1986
جون	-10.1987
شتري	-10.1988
%	-10.1989
▁فكل	-10.1996
🇩🇿	-10.1996
▁مفهمت	-10.2
رئ	-10.2001
▁بالف	-10.2003
sse	-10.2005
▁qu	-10.2005
▁ردكس	-10.2008
art	-10.2012
لفظ	-10.2013
فسد	-10.2013
▁شبه	-10.2014
ani	-10.2015
دنا	-10.2015
▁خدم	-10.202
وقت	-10.2021
▁عاودت	-10.2022
▁خاطي	-10.2024
▁أمي	-10.2024
قس	-10.2026
▁نتمنا	-10.2031
▁المؤ	-10.2032
▁وكنت	-10.2033
▁السلوان	-10.2037
دروس	-10.2038
▁يمشي	-10.2041
X	-10.2042
45	-10.2044
خال	-10.2048
\	-10.205
▁فخر	-10.2052
▁قيم	-10.2053
▁بيا	-10.2053
▁تجربة	-10.2054
tk	-10.2056
▁🤔	-10.2057
▁يقتل	-10.2058
▁والدينا	-10.206
ef	-10.2061
qu	-10.2064
▁اهدر	-10.2065
bou	-10.2071
▁🙂💔	-10.2073
▁pa	-10.2074
▁تقوم	-10.2077
▁عمرو	-10.2079
نزل	-10.2083
▁اختيار	-10.2087
▁أمور	-10.209
▁لحظة	-10.2091
60	-10.2093
▁دارنا	-10.2095
▁أد	-10.2095
اسة	-10.2095
▁غاية	-10.2099
▁فس	-10.2102
▁كرهت	-10.2104
▁المعلومة	-10.2112
▁مدام	-10.2112
▁موفق	-10.2114
▁المكان	-10.2118
▁يدل	-10.2122
▁زيدي	-10.2124
ايل	-10.2126
▁عالي	-10.2126
▁نفرحو	-10.2127
غت	-10.2128
▁يمكنك	-10.2129
▁الحفظ	-10.2133
▁ex	-10.2133
▁ممتازة	-10.2134
ومن	-10.2136
▁طاحت	-10.2138
سعى	-10.2142
▁متمني	-10.2144
▁ونص	-10.2145
▁لكتاب	-10.2149
▁حمزة	-10.215
▁تاعهم	-10.2151
▁السيارة	-10.2151
ih	-10.2151
▁جزائر	-10.2155
عباد	-10.2155
▁ريديكس	-10.2156
اختي	-10.2158
😥	-10.2162
▁توفي	-10.2164
طاب	-10.2165
▁الراقي	-10.2168
▁that	-10.2169
▁allah	-10.2182
▁التعليمي	-10.2186
▁جاز	-10.2188
▁يشبه	-10.219
ry	-10.2194
▁مقالة	-10.2195
▁🥺🥺	-10.2203
▁جاني	-10.2205
صيد	-10.2208
▁يثبت	-10.2211
jb	-10.2221
▁الكون	-10.2221
▁🔥🔥	-10.2222
ھ	-10.2222
باط	-10.2224
فس	-10.2225
يري	-10.223
hm	-10.2233
▁تونس	-10.2236
▁الجديدة	-10.2237
▁حلوة	-10.2238
▁نسألك	-10.2242
▁توجد	-10.2244
▁إبراهيم	-10.2247
▁تتفرج	-10.2248
نتظار	-10.2248
▁مكتب	-10.225
▁meilleur	-10.2255
قصر	-10.2255
▁حصة	-10.2256
▁صعيبة	-10.2256
▁ورقة	-10.226
▁قانون	-10.2264
▁شمس	-10.2265
▁مزيد	-10.2272
▁وجهك	-10.2272
▁يلي	-10.2273
▁العلامة	-10.2273
سجل	-10.2275
ادر	-10.2277
▁شم	-10.2279
▁che	-10.2285
▁لعقوبة	-10.2287
💯	-10.2287
▁المرض	-10.229
▁والنجاح	-10.229
▁بالخير	-10.2293
▁ri	-10.2295
أدب	-10.2303
رخ	-10.2306
▁تبون	-10.2309
▁مالقيت	-10.2314
▁احلى	-10.2316
ont	-10.2318
▁قالوا	-10.2319
قار	-10.2322
▁الكرام	-10.2331
hb	-10.2335
▁سعيدة	-10.2338
▁ديرينا	-10.2338
خلص	-10.2339
تقل	-10.2345
▁تحليل	-10.2347
▁نزل	-10.2349
▁العصر	-10.2352
▁خرا	-10.236
▁وراء	-10.2362
tl	-10.2363
▁هريرة	-10.2363
▁تمرين	-10.2364
lt	-10.2364
▁والس	-10.2365
▁}	-10.2367
▁بدات	-10.237
خرة	-10.2371
ance	-10.2373
▁الآية	-10.238
▁نكره	-10.2383
عاقب	-10.2385
▁حف	-10.2387
▁بيام	-10.239
▁سل	-10.239
برة	-10.2391
رتاح	-10.2391
عاف	-10.2392
▁حطلنا	-10.2396
▁تبناج	-10.2397
▁ينجحني	-10.24
▁khoya	-10.2401
▁غلطت	-10.2401
▁بيان	-10.241
▁جيجل	-10.2411
عالج	-10.2417
▁ارجع	-10.2417
▁تافه	-10.242
▁وكانت	-10.2421
▁غزة	-10.2429
ربما	-10.2429
حديث	-10.2431
بيك	-10.2432
▁فكرت	-10.2441
▁ياسر	-10.2441
▁يعطيكم	-10.2442
▁هدف	-10.2442
حساس	-10.2443
▁سمحلي	-10.2448
▁الوطني	-10.2449
جتهد	-10.2451
يطة	-10.2451
▁تحقيق	-10.2454
▁ويقول	-10.2455
عق	-10.2457
▁يحفض	-10.2457
▁bzf	-10.2464
▁أظن	-10.2465
تمثيل	-10.2466
▁لانها	-10.2467
▁الاستاذة	-10.2469
▁خلف	-10.247
▁وقتها	-10.2474
▁سرد	-10.2477
▁اق	-10.2478
عذب	-10.248
▁تسكن	-10.2481
زار	-10.2482
صباح	-10.2482
▁يز	-10.2484
▁🙏🙏	-10.2485
▁qui	-10.2486
▁الصا	-10.2487
ستمر	-10.2488
▁بفضلك	-10.2489
جال	-10.2494
فتخر	-10.2495
▁واعر	-10.2498
▁وراك	-10.2501
طاق	-10.2501
عطاء	-10.2501
▁نتيجة	-10.2504
▁We	-10.2505
▁شخصيا	-10.2511
lu	-10.2516
▁عييت	-10.2517
اول	-10.252
ابوني	-10.2528
▁أثر	-10.253
▁بدي	-10.2532
▁البداية	-10.2532
شباب	-10.2536
▁reda	-10.2539
ارد	-10.2541
رمضان	-10.2544
▁لذا	-10.2544
▁سوء	-10.2545
فير	-10.2549
عجبني	-10.2551
▁العم	-10.2551
▁الاساتذة	-10.2553
▁العافية	-10.2554
▁موا	-10.2555
▁هاداك	-10.2555
▁تستحق	-10.2556
▁beaucoup	-10.2574
wal	-10.2575
▁يحدث	-10.2575
لن	-10.2576
▁وخاصة	-10.2578
▁دخول	-10.2578
يرا	-10.2581
▁بيننا	-10.2582
▁بز	-10.2582
▁ركليطا	-10.2584
▁فرج	-10.2591
▁هده	-10.2595
▁الخلق	-10.2596
عج	-10.2603
▁bonne	-10.2605
▁ومرحبا	-10.2606
▁خصوصا	-10.2609
tu	-10.261
▁يقوم	-10.2612
▁الجزاء	-10.2612
▁مبدع	-10.2614
ستضاف	-10.2614
🏼	-10.2615
▁وتعالى	-10.2617
▁يقولك	-10.2619
▁يخاف	-10.262
▁خفيفة	-10.2621
ماس	-10.2621
act	-10.2622
▁واضح	-10.2624
ابي	-10.2624
قاء	-10.2624
قارب	-10.2626
▁بكيت	-10.2628
نص	-10.2629
▁بربي	-10.2629
▁tr	-10.264
▁تهبلي	-10.2641
▁ذنب	-10.2644
▁ويسر	-10.2645
▁اظن	-10.265
زور	-10.2652
▁واي	-10.2652
▁yah	-10.2654
▁دوما	-10.2655
حتسب	-10.2658
kaya	-10.2661
▁fiha	-10.2663
▁توكل	-10.2664
gi	-10.2668
▁واد	-10.2674
▁اعراب	-10.2675
▁فترة	-10.2682
ag	-10.2684
▁لأنها	-10.2684
▁نلقى	-10.2686
▁ضك	-10.2687
▁ملاين	-10.269
مؤسس	-10.2691
▁🥰🥰	-10.2691
▁القدم	-10.2694
▁حفظه	-10.2696
▁عنهم	-10.2702
زوم	-10.2705
houm	-10.2707
▁النب	-10.2708
ائنا	-10.2712
▁اللغوي	-10.2712
▁يشفيها	-10.2713
ابل	-10.2713
عات	-10.2713
▁50	-10.2718
▁نلعب	-10.2724
دراك	-10.2727
باء	-10.2728
▁Sa	-10.2733
وصف	-10.2736
تالي	-10.2736
▁Je	-10.2736
▁بالع	-10.2739
بخل	-10.2741
▁درلنا	-10.2743
▁طبق	-10.2746
😞	-10.2747
▁جيدة	-10.2748
▁طي	-10.2748
▁تحمل	-10.2748
▁za	-10.2751
▁🙄	-10.2752
▁بقوة	-10.2759
▁بط	-10.276
ستخدم	-10.276
▁زعيم	-10.2764
▁قراي	-10.2767
▁منزل	-10.277
▁تحفظ	-10.2771
زب	-10.2774
▁الدراسي	-10.2778
▁Bon	-10.278
▁انصر	-10.278
▁البلد	-10.278
🌺	-10.2782
▁سيارة	-10.2782
جور	-10.2784
▁الباقي	-10.2784
▁ادعيلي	-10.2791
▁جوان	-10.2792
▁أدب	-10.2792
▁الخدمة	-10.2792
قع	-10.2792
عفو	-10.2795
▁بالس	-10.2797
▁مسؤول	-10.2799
▁مجتمع	-10.28
▁نعيش	-10.28
▁يخوف	-10.2804
▁فطورك	-10.2805
▁الشمس	-10.2808
▁فرونسي	-10.2808
ظر	-10.281
▁مزية	-10.281
ca	-10.2812
▁رسم	-10.2815
▁مقالات	-10.2815
عوض	-10.2817
▁مرشح	-10.2819
افية	-10.282
▁زيت	-10.2824
▁بهم	-10.2825
▁غالطة	-10.2827
▁كبار	-10.2827
man	-10.2828
▁خليت	-10.2831
سمى	-10.2831
▁الدعم	-10.2836
ارع	-10.2841
ستقبل	-10.2841
▁أدعولي	-10.2842
فتن	-10.2843
▁جربت	-10.2846
▁للناس	-10.2846
)،	-10.2849
▁سوا	-10.2857
▁كارثة	-10.286
خرين	-10.2861
▁تشوفي	-10.2865
▁تعلمت	-10.2866
▁اجتماعي	-10.2869
▁غلط	-10.2872
شعب	-10.2873
▁والب	-10.2874
▁سيكون	-10.2875
▁حقيقي	-10.288
▁والش	-10.2884
تحرش	-10.2884
▁المخ	-10.289
🌸	-10.2896
▁ينفع	-10.2904
▁المليون	-10.2904
▁الصفحة	-10.2906
▁الفعل	-10.2908
حرف	-10.2911
▁ياخويا	-10.2912
تهاش	-10.2914
🙃	-10.2914
سنين	-10.2915
47	-10.2915
▁المستوى	-10.2916
▁الاخيرة	-10.2923
▁قنات	-10.2925
▁تماما	-10.2929
ui	-10.2929
قاعد	-10.2931
▁مركز	-10.2933
حكايات	-10.2933
▁am	-10.2936
▁🖤	-10.2939
▁لحقت	-10.2941
▁وسط	-10.2943
▁وهذه	-10.2944
بيض	-10.2947
خرط	-10.2948
▁قديمة	-10.295
لاحظ	-10.2951
▁نار	-10.2953
▁^^	-10.2954
▁رابح	-10.2955
▁~~	-10.2959
😉	-10.2959
عذر	-10.2962
تصل	-10.2965
جاج	-10.2971
▁فكر	-10.2973
▁يستحق	-10.2974
▁بأس	-10.2974
▁حرم	-10.2975
▁جهة	-10.2977
طاج	-10.2978
▁قصد	-10.2987
▁ولالا	-10.2992
❤😊	-10.2995
بنات	-10.2996
رز	-10.2997
▁شاهد	-10.2997
▁جارية	-10.3005
▁يدو	-10.3011
🤩	-10.3013
طفل	-10.3013
▁كنتي	-10.302
سوء	-10.3021
▁ولن	-10.3025
▁تخلع	-10.3029
▁شرع	-10.303
▁خطا	-10.3031
▁يحكم	-10.3032
▁تيك	-10.3032
أخذ	-10.3038
**	-10.3041
▁منتديات	-10.3047
سقط	-10.3049
▁وسع	-10.3053
▁قالي	-10.3056
▁الصحيح	-10.3057
▁بتوفيق	-10.3059
▁المتوسط	-10.3063
زول	-10.3065
دود	-10.3066
▁اكون	-10.3067
▁ظاهرة	-10.3067
rb	-10.3068
▁النوم	-10.3071
إسلام	-10.3071
▁تلاميذ	-10.3073
گ	-10.3083
▁رووعة	-10.3083
تقن	-10.3085
▁قليلة	-10.3089
فاد	-10.3091
▁كفر	-10.3092
عوذ	-10.3095
قرأ	-10.3099
▁4-	-10.3099
▁كاامل	-10.3102
نشاله	-10.3105
ثاني	-10.3106
ssa	-10.3108
▁حذف	-10.311
▁تالي	-10.311
▁لاحول	-10.3112
▁يتكلم	-10.3114
▁الشخصية	-10.3116
▁ثورة	-10.3118
▁درتها	-10.312
پ	-10.3128
▁يحفضكم	-10.3129
قلة	-10.3131
▁عبدو	-10.3131
▁الأعلى	-10.3144
▁نبغي	-10.3147
عش	-10.3149
80	-10.315
▁سبع	-10.3158
▁قلوب	-10.3162
تخب	-10.3165
▁ارواح	-10.3167
▁pr	-10.3169
▁الدال	-10.317
▁عباس	-10.3174
عارف	-10.3175
▁صفحة	-10.3176
▁سوى	-10.3179
▁نستناو	-10.3182
▁لون	-10.3186
ré	-10.3187
▁امن	-10.3188
▁لعبة	-10.3194
بكالوريا	-10.3198
▁الخر	-10.3203
▁المعلم	-10.3205
ولكم	-10.3207
ڪ	-10.3209
▁نشا	-10.321
▁بلمثل	-10.3214
عداد	-10.3214
▁اسمك	-10.3222
▁حاج	-10.3224
▁ليفات	-10.3228
ect	-10.3228
▁لباس	-10.3228
ساء	-10.3228
▁شرك	-10.323
▁مختلف	-10.323
▁احلام	-10.323
''	-10.3231
▁😘	-10.3237
▁Le	-10.3237
ؤثر	-10.3238
▁zid	-10.3238
▁الذكر	-10.3239
▁الصغير	-10.3242
lha	-10.3244
▁حاول	-10.3245
▁تفيد	-10.3246
▁نرجو	-10.3247
▁عايشين	-10.3248
▁زيدلنا	-10.3248
▁تاكل	-10.3251
خافش	-10.3252
▁الثلاث	-10.3255
▁مفهوم	-10.326
▁تصرا	-10.3262
▁سع	-10.3264
;	-10.3264
▁البنت	-10.3265
▁كيفية	-10.3266
نوض	-10.3267
▁أسألك	-10.3269
▁هاذيك	-10.3269
▁نسا	-10.327
▁تكلم	-10.3271
▁يصل	-10.3272
نشالله	-10.3273
♡	-10.3273
صاص	-10.3275
bar	-10.3275
▁قتلتني	-10.3276
▁توحشتك	-10.3277
▁رياضي	-10.3278
▁قعدت	-10.3279
▁يلعب	-10.3279
▁أيا	-10.3284
▁إذ	-10.3289
▁البل	-10.329
mar	-10.3292
▁رواح	-10.3296
▁الزهد	-10.3297
🌷	-10.3298
عربية	-10.3304
▁💙	-10.3308
▁تطلع	-10.3308
▁القانون	-10.331
▁تموت	-10.3316
▁don	-10.3317
▁قوي	-10.3317
▁106	-10.3318
▁ننصحك	-10.3319
▁avec	-10.3319
▁المميز	-10.3322
▁موتى	-10.3323
▁نقرى	-10.3324
عتقد	-10.3326
▁ضعف	-10.3326
شترك	-10.3326
▁الصف	-10.3334
▁not	-10.3335
sah	-10.3335
ort	-10.3339
▁الاعراب	-10.3339
nk	-10.3344
▁زهرة	-10.3347
خبط	-10.3351
سجد	-10.3351
▁مسبقا	-10.3352
▁تجرب	-10.3355
▁You	-10.3359
▁ربنا	-10.3361
▁يعتبر	-10.3365
وهش	-10.3369
ريض	-10.337
غار	-10.3372
▁ظن	-10.3373
▁المثل	-10.3375
وندي	-10.3378
قاب	-10.3383
▁قلتي	-10.3383
▁أخو	-10.3388
▁برحمته	-10.3393
▁نضت	-10.3394
▁حميد	-10.3395
نصر	-10.3399
▁تعريف	-10.3401
▁ونت	-10.3405
▁الخارج	-10.3408
▁يضرب	-10.3411
▁عيط	-10.3416
▁بالح	-10.3421
▁ويسعدك	-10.3421
▁كره	-10.3422
▁اثر	-10.3428
صديق	-10.3433
▁وذلك	-10.3437
▁❌	-10.344
▁ويكون	-10.3447
تغير	-10.3448
▁نساء	-10.3448
😒	-10.3449
🎉❤	-10.345
▁العالمية	-10.3453
▁السم	-10.3457
قرآن	-10.3457
▁جنة	-10.3458
â	-10.3458
▁اذ	-10.3463
▁المجهودات	-10.3465
▁مغربي	-10.3465
لقيت	-10.3474
▁💕	-10.3476
تواصل	-10.3478
▁أكيد	-10.3478
▁راب	-10.3486
▁بطل	-10.3493
▁أقل	-10.3495
▁الشا	-10.3496
حكاية	-10.3501
out	-10.3501
▁صحيت	-10.3502
كاين	-10.3502
▁باكالوريا	-10.3503
▁نض	-10.3504
▁أروع	-10.351
😓	-10.3514
▁ns	-10.3521
خن	-10.3521
zi	-10.3524
▁مقل	-10.3527
▁يااربي	-10.3528
▁قاد	-10.3528
▁ضل	-10.3529
▁العب	-10.3534
▁الضر	-10.3534
▁تلقاي	-10.3535
▁مشهور	-10.3539
▁لجميع	-10.3541
▁Les	-10.3543
▁مواقع	-10.3543
مبر	-10.3543
▁لولة	-10.3546
▁شيطان	-10.3546
▁يحتاج	-10.3551
▁البحث	-10.3552
▁وتفرح	-10.3556
▁بالرحمة	-10.3562
▁اشهر	-10.3563
ائن	-10.3564
ère	-10.3564
ترتيب	-10.3566
▁ختك	-10.3568
▁ياودي	-10.3568
حصل	-10.3571
▁قب	-10.3575
▁تنصح	-10.3576
▁اخيرا	-10.3579
▁ودير	-10.3584
تار	-10.3584
آم	-10.3586
▁بقي	-10.3587
▁للإ	-10.3588
▁جزيل	-10.3592
صلي	-10.3593
so	-10.3593
▁قرأت	-10.3594
▁ساكن	-10.3596
▁خاف	-10.36
▁يوفقني	-10.3601
▁نتائج	-10.3607
▁شعرك	-10.3608
راكم	-10.3608
▁vrai	-10.3608
😳	-10.3609
▁plus	-10.3609
▁ديناتور	-10.3609
▁واا	-10.3609
رسول	-10.3609
▁رأيت	-10.3609
رانا	-10.3617
▁رواية	-10.3621
▁طبيعي	-10.3622
حياة	-10.3628
بحر	-10.3631
▁ونحب	-10.3634
▁تجاوب	-10.3635
لولا	-10.3639
ضاف	-10.3639
▁داك	-10.364
▁ديراكت	-10.3642
▁الظلم	-10.3648
ستغفر	-10.3649
▁الشرق	-10.365
بسط	-10.3651
▁اليهود	-10.3652
تحقق	-10.3654
▁إقامة	-10.3656
▁العلمي	-10.3657
▁يلحق	-10.3659
🙄	-10.366
▁ربحت	-10.3662
▁زواج	-10.3666
▁قتلو	-10.3671
عتذر	-10.3673
▁دج	-10.3678
▁يمد	-10.368
▁هاكا	-10.3682
تحرك	-10.3683
صدر	-10.3691
oh	-10.3694
جوب	-10.3697
eu	-10.3698
▁يعاونك	-10.3703
▁يفعل	-10.3703
عشق	-10.3704
ga	-10.3704
▁يجد	-10.3706
▁نتفرجو	-10.3708
▁الافضل	-10.3709
ثناء	-10.371
▁دارها	-10.3711
▁بكر	-10.3719
▁معجب	-10.3724
بوب	-10.3726
▁طوال	-10.3728
tar	-10.373
طمئن	-10.3733
▁Oui	-10.3735
▁انس	-10.3736
يتو	-10.3738
▁dr	-10.3739
راهم	-10.374
▁مجموعة	-10.3743
▁عال	-10.3744
▁تستطيع	-10.3746
▁رمز	-10.3748
رغم	-10.3748
▁العبد	-10.3751
▁مقبل	-10.3756
▁تقري	-10.3756
LA	-10.3768
وجي	-10.3769
▁الآخرة	-10.3769
سور	-10.3772
▁تشبيه	-10.3777
نوع	-10.3777
▁حدود	-10.3778
▁أرحم	-10.3782
▁صدقة	-10.3784
أكل	-10.379
😃	-10.379
▁زدت	-10.3791
▁ويرزق	-10.3794
▁ارزقنا	-10.3794
👏	-10.3795
▁فدار	-10.3797
▁يحبو	-10.38
▁نهائي	-10.3804
ضمن	-10.3805
حات	-10.3805
22	-10.3813
▁هكاك	-10.3815
يوتيوب	-10.3815
▁حليت	-10.3818
▁22	-10.382
▁الفيلم	-10.382
▁عمار	-10.3822
▁بغير	-10.3823
▁أمل	-10.3824
▁ويرزقك	-10.3825
▁تج	-10.3825
▁ماكان	-10.3829
bt	-10.3832
عقوب	-10.3836
▁الاستضافة	-10.3839
▁الحساب	-10.3841
▁احرار	-10.3841
▁تجسيد	-10.3849
▁نقاط	-10.3849
فتاوى	-10.3851
▁يذكر	-10.3853
▁متت	-10.3854
▁قاتلي	-10.3854
▁رآه	-10.3855
▁الضو	-10.3859
▁بعين	-10.3863
▁غريبة	-10.3865
▁تشرح	-10.387
▁العز	-10.3872
سيل	-10.3872
▁نديرها	-10.3872
▁يعوض	-10.3876
▁وكذلك	-10.3877
▁ويفرح	-10.3882
غز	-10.3888
بالي	-10.3889
▁👏👏	-10.389
▁اشف	-10.3891
▁أربع	-10.3892
▁الذهب	-10.3892
▁ماء	-10.3892
▁تفتح	-10.3894
▁الأخير	-10.3903
ڨل	-10.3904
سبت	-10.3908
▁Z	-10.3908
وصي	-10.391
▁fe	-10.3912
▁الفرحة	-10.3912
▁kada	-10.3915
▁الفقيد	-10.3916
▁ماشاءالله	-10.3916
▁ابراهيم	-10.3916
▁kan	-10.392
▁فارغ	-10.3921
لناش	-10.3922
▁سعر	-10.3923
تزوج	-10.3924
💚	-10.3924
▁تلمسان	-10.3926
▁كول	-10.3928
▁حقق	-10.3929
▁يحقق	-10.3934
حصن	-10.3934
▁حفظت	-10.3935
▁العليا	-10.3935
▁البيض	-10.3936
▁غياب	-10.3938
▁الجز	-10.3942
▁موقف	-10.3943
▁اسبوع	-10.3946
▁تخيل	-10.3947
▁الرقم	-10.3947
▁ويصبر	-10.395
▁باتنة	-10.3958
▁أولاد	-10.3959
▁الري	-10.3959
ze	-10.396
▁تلف	-10.396
ؤمن	-10.3961
▁po	-10.3962
▁قصدي	-10.3972
▁الأقل	-10.3973
▁منهجية	-10.3975
▁زال	-10.3978
أكثر	-10.3981
▁نستنى	-10.3987
▁بالماء	-10.3991
😶	-10.3995
▁لدرجة	-10.3995
▁good	-10.3995
▁ووفق	-10.3997
▁تحكم	-10.3998
ناقش	-10.3999
زيل	-10.4
▁💖	-10.4001
ستي	-10.4001
▁اذن	-10.4004
غريب	-10.4004
سطر	-10.4006
داخل	-10.4007
ألف	-10.4008
والد	-10.4008
hou	-10.4009
▁البط	-10.4012
حسد	-10.4015
▁دال	-10.4015
▁فوت	-10.4015
▁النقدي	-10.4016
▁جيش	-10.4017
#	-10.4025
▁المتابعين	-10.4025
معرفة	-10.4027
ée	-10.4031
تساب	-10.4035
▁السكن	-10.4039
▁كأس	-10.4039
فرض	-10.4039
صميم	-10.4039
▁مسا	-10.4044
2024	-10.4046
جان	-10.4051
▁لمدة	-10.4061
▁الزهر	-10.4063
▁عائشة	-10.4064
😕	-10.4064
".	-10.4064
▁البريد	-10.4066
ami	-10.4068
ثة	-10.4068
▁قلنا	-10.4069
▁إخوان	-10.407
صغر	-10.4071
▁يبعد	-10.4072
▁تعجب	-10.4072
▁الذنوب	-10.4074
▁الزمان	-10.4075
طعم	-10.4075
عامل	-10.4076
▁يتقبل	-10.4079
ech	-10.408
قاتل	-10.4081
نتا	-10.4082
▁رني	-10.4084
▁عرس	-10.4084
▁استفدت	-10.4084
▁قم	-10.4085
▁نسبة	-10.4085
ضياف	-10.4086
▁متزوج	-10.409
▁قمت	-10.4091
قلوب	-10.4091
▁ويسكنه	-10.4092
▁البنات	-10.4093
▁قنوات	-10.4095
▁الشفاء	-10.41
▁جاتني	-10.4104
▁المسجد	-10.4104
▁بطاقة	-10.4105
▁المؤمن	-10.4106
▁أكون	-10.411
▁الحرام	-10.411
▁الشرع	-10.4113
▁سرق	-10.4113
▁البكلوريا	-10.4114
▁صنع	-10.4115
بوني	-10.4115
▁جاوب	-10.4116
▁جيل	-10.4117
▁أحبك	-10.412
▁السب	-10.4123
▁تتكلم	-10.4129
قطاع	-10.413
▁وليدي	-10.413
▁وحفظ	-10.4131
ذكاء	-10.4138
ايام	-10.4143
▁واصلي	-10.4145
٢	-10.4145
▁حلال	-10.4146
شعل	-10.4147
▁اختبار	-10.415
😢❤	-10.415
▁جرب	-10.4151
▁الحاج	-10.4154
صحيح	-10.4155
▁النت	-10.4157
▁عائلة	-10.4157
▁بسيط	-10.4159
ps	-10.4161
جوع	-10.4164
▁يشافي	-10.4167
▁جهد	-10.4169
▁لوالد	-10.4172
▁الورقة	-10.4172
▁فطوركم	-10.4178
▁لديه	-10.4178
▁❤🤲	-10.4185
▁ستر	-10.4189
▁عرب	-10.4192
▁يطلب	-10.4192
ثير	-10.4195
حدد	-10.4198
▁انستا	-10.42
بزاف	-10.4202
💀	-10.4206
▁بخ	-10.4213
jib	-10.4214
▁صحتك	-10.4217
▁المشاهد	-10.4217
حج	-10.422
▁ديك	-10.4221
تمنى	-10.4225
تيش	-10.423
▁سوايع	-10.4233
▁معرف	-10.4237
▁المجاز	-10.4237
ib	-10.4241
▁tout	-10.4241
▁قصت	-10.4246
▁السو	-10.4247
ريك	-10.4247
▁وارزق	-10.4249
الب	-10.4251
هوم	-10.4254
▁١	-10.4258
▁الوالد	-10.426
▁بقات	-10.426
▁إست	-10.4262
رهاب	-10.4263
▁جداتي	-10.4265
▁مكمل	-10.4266
حتاج	-10.4268
مواضيع	-10.4272
▁الامور	-10.4273
ڨر	-10.4274
كدب	-10.4278
▁نجاوب	-10.428
▁وحسن	-10.4282
▁نفوت	-10.4286
تاكد	-10.4286
▁المناسب	-10.4286
رور	-10.4289
▁جاية	-10.4295
▁التطبيق	-10.4296
go	-10.4296
جمال	-10.4297
☺	-10.4303
▁خالد	-10.4305
▁وعلاش	-10.4306
سال	-10.4311
▁مقابل	-10.4311
▁hab	-10.4314
▁منطقة	-10.4316
▁أهم	-10.4321
▁أصبحت	-10.4321
▁السلف	-10.4322
iss	-10.4325
شعوذ	-10.4326
▁Ba	-10.4338
زرق	-10.4339
▁عب	-10.4343
▁مبقاش	-10.4346
▁هن	-10.4351
▁خلع	-10.4351
دح	-10.4353
▁معكم	-10.4355
▁ونجح	-10.4358
▁وصفات	-10.4361
▁نخ	-10.4366
▁حاصل	-10.437
▁مرسي	-10.4371
▁انتظر	-10.4372
▁عامة	-10.4375
▁كافي	-10.4375
باش	-10.4376
مكنية	-10.4377
▁الاخوة	-10.438
شبع	-10.4382
▁تثبيت	-10.4382
▁تفكرت	-10.4384
قلق	-10.4385
▁تحسب	-10.4386
▁صبح	-10.4387
▁اغ	-10.4389
▁عس	-10.4395
▁خلص	-10.4396
▁البار	-10.4397
▁تفكر	-10.4401
ساعد	-10.4404
▁tw	-10.4405
▁عاف	-10.4407
bda	-10.4407
ain	-10.4412
ائف	-10.4414
▁kol	-10.4417
tro	-10.4418
▁الوطنية	-10.442
عبر	-10.4421
▁حركات	-10.4424
AL	-10.4425
▁فلان	-10.4426
▁جيبو	-10.4426
ذى	-10.4427
فان	-10.4428
per	-10.4435
▁تما	-10.4435
▁صالحة	-10.4436
كومونتار	-10.4437
▁يقولي	-10.4437
▁بسرعة	-10.4439
ille	-10.4443
•	-10.4444
١	-10.4444
▁العرش	-10.4445
▁فتحت	-10.4446
▁ارض	-10.4447
🗿	-10.4448
▁شامل	-10.445
kan	-10.4451
▁شركة	-10.4452
▁مسلمين	-10.4457
▁لهذه	-10.4457
▁وقتك	-10.4459
▁حجا	-10.4461
كثير	-10.4462
▁دايرين	-10.4463
▁بسيطة	-10.4465
▁يغ	-10.4467
▁نفع	-10.4467
▁😅😂	-10.4468
▁الدعوة	-10.4471
قاع	-10.4472
▁ونجيب	-10.4473
ذوق	-10.4475
بطال	-10.4482
سورة	-10.4482
ouf	-10.4484
▁bl	-10.4487
▁😒	-10.4489
▁الأنبياء	-10.4489
▁قالولي	-10.4491
▁مقود	-10.4493
bl	-10.4494
▁فرد	-10.4499
▁الرحمة	-10.4504
▁طلاب	-10.4505
▁للعلم	-10.4505
▁درجة	-10.4506
HA	-10.4508
💛	-10.451
▁👍👍	-10.4512
ex	-10.4513
▁واغفر	-10.4516
جميل	-10.4516
جديد	-10.4517
▁مدرت	-10.4518
▁فضلا	-10.4521
▁بخصوص	-10.4521
عقد	-10.4521
بنتي	-10.4521
▁ينق	-10.4522
▁الرائعة	-10.4523
▁تحري	-10.4525
▁يستطيع	-10.4525
دعيلي	-10.4527
▁تفعل	-10.453
▁))	-10.4531
▁نجد	-10.4541
قترح	-10.4544
▁يبدو	-10.4548
▁صفة	-10.4548
▁23	-10.4554
▁ردود	-10.4559
▁التسجيل	-10.4559
▁التلميذ	-10.4561
غد	-10.4561
شهاد	-10.4561
▁❤😢	-10.4561
▁عيش	-10.4563
دعوة	-10.4567
إضافة	-10.4567
▁فالقمة	-10.4569
▁اقراي	-10.4571
bah	-10.4571
▁قلبه	-10.4573
عكس	-10.4575
cu	-10.4579
▁لبس	-10.458
▁يخلص	-10.4581
▁😉	-10.4581
جيش	-10.4582
▁وأما	-10.4583
٣	-10.4583
▁الدور	-10.4584
بعض	-10.4587
▁بقاو	-10.4588
mel	-10.4588
▁pla	-10.459
[	-10.4592
▁طريقتك	-10.4598
مسح	-10.4603
---	-10.4606
▁ضحكتني	-10.4606
▁نحبوك	-10.461
▁مجددا	-10.4614
▁اسعد	-10.4617
▁ياكل	-10.4618
▁rebi	-10.4621
▁nt	-10.4622
مور	-10.4623
▁عيسى	-10.4625
▁عامين	-10.4629
صوت	-10.4631
▁ياريت	-10.4632
▁آية	-10.4633
يتهم	-10.4635
▁يحمي	-10.4636
▁وابن	-10.4637
▁moi	-10.4637
▁mou	-10.4638
▁اللغات	-10.4649
نترنت	-10.465
▁رس	-10.4651
درة	-10.4652
▁العنوان	-10.4653
▁هاتف	-10.4662
😊❤	-10.4663
▁💀	-10.4664
بذل	-10.4666
▁صدر	-10.4667
▁بحر	-10.4673
▁قناتي	-10.4674
▁حاجا	-10.4678
▁تزوج	-10.4679
▁حاسة	-10.4679
▁ملقيت	-10.468
ميمز	-10.4683
▁لأنو	-10.4683
﴾	-10.4688
▁حاسب	-10.4689
▁لقط	-10.469
ph	-10.4696
👇	-10.4699
rah	-10.4701
▁طرق	-10.4704
▁دايرة	-10.4704
▁الشو	-10.4704
▁والذي	-10.4706
▁ناجحة	-10.4709
▁خاوت	-10.4711
oli	-10.4714
▁سمحت	-10.4715
▁درتو	-10.4715
▁الغريب	-10.4715
▁oui	-10.4716
عشر	-10.4717
▁🙃	-10.4719
جزء	-10.4719
فسر	-10.472
❣️	-10.472
عمار	-10.4723
▁شعال	-10.4724
▁تلقى	-10.4725
▁موسى	-10.4726
بلوك	-10.4727
ولهم	-10.4727
har	-10.4728
بعث	-10.4729
▁عكس	-10.4732
▁الملخص	-10.4732
ائها	-10.4733
▁تربية	-10.4733
▁المنفى	-10.4735
▁ورزق	-10.4735
ثقف	-10.4736
وليد	-10.4738
rt	-10.4739
▁المبارك	-10.474
▁يلا	-10.4742
▁الفقر	-10.4744
▁اشت	-10.4744
▁العكس	-10.4746
تصرف	-10.4746
▁ترقد	-10.4748
▁نشوفك	-10.4751
بتسم	-10.4752
▁مهبول	-10.4753
mm	-10.4761
▁سبحانو	-10.4762
▁رئيس	-10.4762
▁أخر	-10.4762
▁آداب	-10.4767
▁ادعوا	-10.4769
▁bo	-10.477
▁مره	-10.4771
ê	-10.4773
▁النهاية	-10.4775
جاوب	-10.4776
▁الكرسي	-10.4782
▁المشاركة	-10.4783
▁جمعة	-10.4785
كشف	-10.4786
▁الاعلى	-10.4788
غدو	-10.479
sion	-10.4794
×	-10.4794
🤔	-10.4795
▁نجري	-10.4798
▁اسطوري	-10.4806
▁مافهمت	-10.4808
واصل	-10.4809
▁القديمة	-10.4813
▁بسكو	-10.4816
▁إيمان	-10.4816
أل	-10.4818
داك	-10.4819
▁hi	-10.482
▁نلقاو	-10.4822
▁الأخلاق	-10.4823
▁توقف	-10.4824
com	-10.4825
▁miloud	-10.4826
▁وأسكنه	-10.4829
أنا	-10.483
▁امرأة	-10.4831
one	-10.4832
▁والصلاة	-10.4833
ssi	-10.4834
▁البال	-10.4834
▁الهند	-10.484
▁حركة	-10.484
يجي	-10.4841
▁غفر	-10.4841
▁اعطيني	-10.4842
▁الاسلامية	-10.4843
حلم	-10.4847
▁com	-10.4849
أذن	-10.485
▁up	-10.4853
▁فب	-10.4856
tal	-10.4857
▁كوراج	-10.4861
مشي	-10.4863
▁تمشي	-10.4863
لتقي	-10.4863
✨️	-10.4865
CH	-10.4867
▁مرعبة	-10.4867
▁الثوب	-10.4868
▁حاضر	-10.487
✌️	-10.4872
▁دام	-10.4874
▁ملح	-10.4875
▁قيل	-10.4881
▁لحم	-10.4881
▁يقبل	-10.4887
▁الشهداء	-10.4891
vo	-10.4896
▁تحصلت	-10.4906
▁موراك	-10.4906
▁تمنيت	-10.4907
▁يجمع	-10.4907
▁برافو	-10.4907
اتمنى	-10.4909
شهادة	-10.4911
👑	-10.4912
▁كثرة	-10.4913
كلمة	-10.4917
سوس	-10.4919
▁الصيف	-10.4919
حضار	-10.4924
▁الكتابة	-10.4929
فوطو	-10.4933
▁تساعد	-10.4933
res	-10.4935
▁الأعمال	-10.494
شكون	-10.4941
▁غاليتي	-10.4942
😰	-10.4945
▁بحث	-10.4948
▁التص	-10.4949
▁تحرمنا	-10.4951
▁يظهر	-10.4951
▁ارواحي	-10.4952
▁الدقيقة	-10.4957
▁suis	-10.4958
▁اسلوب	-10.4962
▁وإنما	-10.4962
▁نجوز	-10.4962
جرح	-10.4963
قبال	-10.4966
dk	-10.4967
▁غرف	-10.4971
توضيح	-10.4972
تكون	-10.4984
▁with	-10.4988
▁تحوس	-10.4988
▁يخوفو	-10.4992
▁شهرين	-10.4996
▁محا	-10.4997
▁المادة	-10.4998
▁نطلب	-10.4998
▁يماك	-10.5
▁مشرف	-10.5002
غول	-10.5003
▁قطر	-10.5004
▁vidéos	-10.5004
▁رحمها	-10.5006
▁لبعض	-10.5007
▁أوقات	-10.5007
▁فالفيديو	-10.5008
وهاش	-10.5015
▁وشمن	-10.5016
▁تفهمي	-10.5024
▁day	-10.5029
▁موس	-10.5031
متتاليات	-10.5033
دقيق	-10.5036
▁طابعة	-10.5036
▁الصحابة	-10.5036
دزاير	-10.5037
lek	-10.5039
▁♥️♥️	-10.5042
ide	-10.5043
▁السرد	-10.5045
▁يخرجو	-10.5046
aire	-10.5048
▁لابن	-10.5052
dir	-10.5053
▁آميين	-10.5054
▁الجنون	-10.5054
▁ساعد	-10.5058
نسي	-10.506
▁خفيف	-10.5066
تأخر	-10.5066
▁حيا	-10.5067
▁الامل	-10.5067
▁مفعول	-10.5068
ence	-10.5069
▁يعافي	-10.507
▁نبغيك	-10.507
▁ارزق	-10.5075
دوم	-10.5075
واقع	-10.5076
▁اهله	-10.5079
▁الوالدة	-10.5079
▁قوية	-10.5082
☺️	-10.5083
▁اليد	-10.5085
tra	-10.5089
▁dans	-10.509
▁بالق	-10.5091
▁🙂🙂	-10.5092
▁تقديم	-10.5093
▁تحرم	-10.5095
ES	-10.5096
▁المشاكل	-10.5096
▁العشر	-10.51
▁نحبو	-10.5102
▁فاعل	-10.5103
▁موافق	-10.5103
▁از	-10.5107
▁اعطي	-10.5107
▁عملية	-10.5113
▁قدوة	-10.5114
▁ألم	-10.5117
وجع	-10.5117
▁الشاب	-10.512
fr	-10.5121
كلام	-10.5123
▁ڨع	-10.5124
▁gha	-10.5127
▁نسنا	-10.5131
▁الأصل	-10.5135
▁جنون	-10.5138
▁وفاة	-10.5144
▁جدد	-10.5145
▁Ka	-10.515
حث	-10.5153
سوق	-10.5155
▁khir	-10.5157
▁مارس	-10.5159
اخذ	-10.5159
حفز	-10.516
▁النتيجة	-10.5161
برد	-10.5163
ولى	-10.5167
rf	-10.5168
قمر	-10.517
▁بوك	-10.5176
nc	-10.5176
▁لخير	-10.5176
▁اشرح	-10.5177
▁مط	-10.5181
اكت	-10.5181
▁فرنسية	-10.5182
▁تحطي	-10.5183
▁أدعو	-10.5185
فايسبوك	-10.5186
▁قائمة	-10.5186
40	-10.5186
اكس	-10.5186
تأثر	-10.5187
طعن	-10.5188
▁ارت	-10.5189
▁مهتم	-10.5189
▁وصاي	-10.5192
الجزائر	-10.5193
نصح	-10.5195
▁Lola	-10.5197
▁صحبتي	-10.5198
W	-10.5201
▁دقايق	-10.5201
▁الإسلامية	-10.5203
▁all	-10.5204
لخص	-10.5205
▁comp	-10.5208
افضل	-10.5211
وله	-10.5211
▁fait	-10.5215
▁ينصر	-10.5216
▁استمري	-10.5217
حاد	-10.5221
▁لخرين	-10.5223
bon	-10.5223
صداق	-10.5224
55	-10.5226
▁خسارة	-10.5231
▁car	-10.5233
سافر	-10.5236
▁تعرض	-10.5236
▁خسرت	-10.5237
▁fik	-10.5241
حتمية	-10.5242
▁الفرنسي	-10.5245
▁لشعب	-10.5247
▁هاني	-10.5248
▁لقا	-10.5249
▁fel	-10.5256
رواح	-10.5257
▁nch	-10.5257
----------------	-10.5258
▁الأبيض	-10.526
rit	-10.5261
▁خونا	-10.5265
▁احترام	-10.5268
صدم	-10.5269
▁مخرج	-10.527
▁الحس	-10.5271
▁قلم	-10.5272
▁ووسع	-10.5272
▁أرى	-10.5272
▁هادوك	-10.5274
aha	-10.5276
نغ	-10.5278
▁الانترنت	-10.5279
▁تشخيص	-10.528
▁صحح	-10.528
صط	-10.5281
▁تبانلي	-10.5282
▁نجيبوه	-10.5283
دوش	-10.5285
▁سليمان	-10.5285
▁متأخر	-10.5286
طابق	-10.5287
▁ndir	-10.5291
▁استادة	-10.5292
▁أسطورة	-10.5297
▁للعلميين	-10.53
تحضير	-10.5303
▁ترا	-10.5311
▁والديه	-10.5312
▁حزن	-10.5315
▁توفيقك	-10.5318
ذكار	-10.532
▁المورال	-10.5321
وفر	-10.5321
▁الحرية	-10.5324
▁الرسم	-10.5329
▁اخوة	-10.5331
▁اخط	-10.5335
▁بالإ	-10.5335
▁chi	-10.5337
▁أست	-10.5337
▁نجرب	-10.534
▁ابحث	-10.5341
سند	-10.5343
▁sam	-10.5347
▁متابعتك	-10.5351
▁هذوك	-10.5352
جسد	-10.5355
بالغ	-10.5356
▁أستغفر	-10.5357
سنوات	-10.5363
▁تؤ	-10.5364
▁لبارح	-10.5365
▁لاكن	-10.5366
سطح	-10.5366
▁ننتظر	-10.537
▁Re	-10.5372
▁jour	-10.5372
▁نصح	-10.5373
nou	-10.5373
▁اصبحت	-10.5375
🤨	-10.5376
▁هبط	-10.538
قديم	-10.5381
ili	-10.5382
▁توفيق	-10.5383
▁مخل	-10.539
▁الفيس	-10.5393
▁رزقك	-10.5393
▁جه	-10.5393
▁اسال	-10.5394
▁نوم	-10.5394
عداء	-10.5397
▁الوحيدة	-10.5398
شتراك	-10.54
حاجة	-10.5404
▁التحرر	-10.5411
oud	-10.5411
▁ابني	-10.5412
▁يطيحو	-10.5417
مرض	-10.5418
قدام	-10.5418
▁يبيع	-10.5419
▁Thank	-10.5421
▁مجا	-10.5425
▁المصطلحات	-10.5426
25	-10.5427
▁لانك	-10.5436
▁أمان	-10.5438
▁🌸	-10.5444
▁مصدر	-10.5444
▁Li	-10.5452
إل	-10.5456
▁زد	-10.5457
▁خلاف	-10.5457
▁أعظم	-10.5457
ru	-10.5458
رفق	-10.5462
غان	-10.5471
كتر	-10.5472
▁زهر	-10.5475
▁موجودة	-10.5476
▁الصحيحة	-10.5479
▁أخبر	-10.5481
عجبتني	-10.5484
▁رائد	-10.5489
”	-10.549
▁ننجحوا	-10.5494
▁قرأ	-10.5495
▁عادية	-10.5496
▁يرى	-10.5499
▁قدير	-10.5501
rg	-10.5503
▁kml	-10.5503
▁😥	-10.5505
تحمل	-10.5506
▁نحفض	-10.5508
كفر	-10.5509
أحاديث	-10.5513
ndi	-10.5514
▁الذرية	-10.5514
▁السا	-10.5515
▁👏	-10.5516
▁شوفو	-10.552
mil	-10.5521
▁قدمت	-10.5522
ité	-10.5524
je	-10.5526
▁بصوت	-10.5529
▁😐	-10.5529
الخ	-10.5535
▁توحشت	-10.5536
▁فديوهات	-10.5537
▁جبتو	-10.5542
▁أستاذنا	-10.5543
oni	-10.5543
▁وانتم	-10.5544
▁ليزوم	-10.5545
باح	-10.5547
تخرج	-10.5549
▁يط	-10.5549
mp	-10.5552
▁عزيزتي	-10.5556
▁بالعربية	-10.5557
خالف	-10.556
شق	-10.556
ser	-10.5563
▁بدأت	-10.5564
▁يحوس	-10.5565
▁نزلت	-10.5566
▁تظهر	-10.5566
▁روحها	-10.5567
▁شن	-10.5568
▁أقرب	-10.5569
تحدث	-10.557
▁تصحيح	-10.557
▁تعتبر	-10.5571
أحسن	-10.5571
▁خطرا	-10.5571
▁توع	-10.5573
▁دوكا	-10.5574
حوايج	-10.5574
خطأ	-10.5579
▁ويفرحك	-10.558
سلط	-10.5583
جنون	-10.5584
زرع	-10.5591
▁بالن	-10.5592
▁يساعد	-10.5592
▁للح	-10.5594
▁دعوت	-10.5602
كتشف	-10.5604
▁جزاء	-10.5609
رود	-10.5612
▁الاساس	-10.5613
▁ومات	-10.5614
‍	-10.5615
ati	-10.5616
/0	-10.5618
▁يكثر	-10.5619
▁المثال	-10.5622
llah	-10.5629
جيد	-10.563
مارس	-10.5632
▁ستكون	-10.564
سوف	-10.5641
▁رحيم	-10.5645
▁الجر	-10.5645
▁سبتمبر	-10.5651
جنب	-10.5651
▁تشوفو	-10.5652
▁الضيافة	-10.5652
كرو	-10.5653
طرق	-10.5654
▁القتل	-10.5655
▁متحمس	-10.5657
▁فاهمة	-10.5666
md	-10.5669
▁الصديق	-10.5671
▁5-	-10.5677
▁برد	-10.5683
سس	-10.5685
زواج	-10.5686
▁والان	-10.5691
▁تكل	-10.5692
▁لوقت	-10.5694
▁نجم	-10.5695
▁اقتصاد	-10.5696
لالا	-10.5696
▁قتلت	-10.57
up	-10.5702
▁يقرأ	-10.5704
▁يفيد	-10.5712
▁Rak	-10.5715
▁افريقيا	-10.5721
▁معمر	-10.5721
▁التجارة	-10.5721
▁حظ	-10.5726
شعبة	-10.573
▁عموم	-10.5732
▁عوض	-10.5734
▁دب	-10.5737
▁تقصد	-10.574
▁التعليقات	-10.5744
سحق	-10.5746
▁موفقة	-10.5746
فرحة	-10.5752
اضافة	-10.5752
far	-10.5753
بطل	-10.5754
▁2019	-10.5759
ستجاب	-10.5761
▁وتقول	-10.5765
▁العص	-10.5766
iha	-10.577
▁المسلسل	-10.577
▁درب	-10.5771
زف	-10.5772
▁الدنس	-10.5774
mb	-10.5775
▁البيانية	-10.5776
▁نسقسيكم	-10.5777
▁الرابعة	-10.5778
▁صادق	-10.5781
▁كناية	-10.5781
▁غباء	-10.5784
▁فعلية	-10.5787
▁مدخل	-10.579
▁سور	-10.579
جلد	-10.5791
▁خطي	-10.5793
لأن	-10.5793
pl	-10.5795
▁تشري	-10.5797
▁وندير	-10.5799
▁صلوا	-10.5802
▁فلباك	-10.5804
صيف	-10.5804
▁يحمل	-10.5804
تحول	-10.5805
▁خاوة	-10.5807
▁﴿	-10.5808
▁النصيحة	-10.5809
😐	-10.581
▁تلقي	-10.5816
▁الاخلاق	-10.5821
▁❤😂	-10.5822
🩷	-10.5822
khl	-10.5823
▁فتاة	-10.5823
wah	-10.5824
▁اخذ	-10.5825
ونيش	-10.5828
▁دولار	-10.5828
▁21	-10.5829
▁نطلع	-10.5832
▁الجاية	-10.5832
▁يصلي	-10.5834
▁wahd	-10.5836
▁عدو	-10.5839
ريق	-10.5839
قون	-10.5841
jo	-10.5841
▁الفلسطينية	-10.5847
▁اعمل	-10.5847
هدف	-10.5849
▁اليوتوب	-10.5851
▁داو	-10.5851
▁يعد	-10.5852
أثر	-10.5853
▁الحلم	-10.5855
▁ياسين	-10.5856
▁تنشر	-10.5857
غفل	-10.5858
▁ملقيتش	-10.5858
▁قبرها	-10.5858
▁اجتماعيات	-10.586
▁سلك	-10.5861
▁Ta	-10.5864
▁جابو	-10.5865
▁حكايتك	-10.5865
راع	-10.587
ens	-10.5871
▁كرم	-10.5871
▁just	-10.5871
تغيير	-10.5871
▁سلبي	-10.5872
▁الجمال	-10.5872
▁بالصحة	-10.5872
بز	-10.5874
💋	-10.5874
▁نتواصل	-10.5876
▁الجغرافيا	-10.5876
▁علميين	-10.5877
AN	-10.5878
عجل	-10.5889
▁جدك	-10.589
▁💔💔	-10.5892
AR	-10.5896
▁نافع	-10.5896
▁بمثل	-10.5898
▁المقصود	-10.5898
▁مساعد	-10.5899
▁رقاد	-10.59
▁مانعرف	-10.59
▁رايحين	-10.5902
تفكر	-10.5904
▁مؤمن	-10.5906
فرغ	-10.591
▁svp	-10.591
▁جناتك	-10.592
▁يربح	-10.5922
ستعمل	-10.5922
▁التعريف	-10.5923
سليم	-10.5925
عوام	-10.5928
▁مدار	-10.5931
▁الترحيب	-10.5931
▁Reda	-10.5936
▁تمد	-10.5939
▁rbi	-10.5941
ثقل	-10.5943
▁كيوت	-10.5943
شفا	-10.5944
صحح	-10.5946
iv	-10.5951
▁ثقة	-10.5952
▁ديرلي	-10.5954
كسب	-10.5958
▁صاب	-10.5959
ziz	-10.5963
▁اولى	-10.597
▁قاس	-10.597
rm	-10.5976
▁الدخول	-10.5979
▁بالغ	-10.5981
ادعولي	-10.5983
▁الكاملة	-10.5984
▁يجيبو	-10.5993
اختلاف	-10.5996
▁دروك	-10.5997
▁may	-10.5999
▁الفيديوات	-10.5999
▁اشعار	-10.6
▁هاي	-10.6007
▁مجاز	-10.6009
▁مفيد	-10.6011
فاضل	-10.6012
▁معنتها	-10.602
▁يدعي	-10.602
▁النتائج	-10.6021
▁اودي	-10.6022
عذاب	-10.6025
▁الافكار	-10.603
▁cho	-10.6031
ديرلنا	-10.6032
▁يدر	-10.6035
▁الجهل	-10.6036
راقي	-10.6043
▁أردت	-10.6046
▁سيريو	-10.6048
▁💓	-10.6051
▁الصالحين	-10.6051
مول	-10.6053
فوت	-10.6054
▁rab	-10.6056
▁الرقية	-10.6059
▁ارحمها	-10.6061
جملة	-10.6069
▁توضيح	-10.6074
▁اختك	-10.6074
▁والدك	-10.6074
▁الأفضل	-10.6076
▁bravo	-10.6078
▁الجليل	-10.6079
▁الولاية	-10.608
▁قار	-10.6081
دراسة	-10.6081
استعارة	-10.6086
les	-10.6087
😩	-10.609
▁الولايات	-10.6091
أول	-10.6097
▁جانب	-10.61
▁أحيانا	-10.6103
▁فاير	-10.611
▁يعيط	-10.6114
▁صحبي	-10.6119
▁اجركم	-10.612
رعاية	-10.6122
▁وغفر	-10.6123
▁1000	-10.6124
▁السابقة	-10.6126
▁التالي	-10.6126
▁thank	-10.6127
تصريحية	-10.6127
▁شديد	-10.6128
ثب	-10.6129
▁عيان	-10.613
▁ويبارك	-10.613
شفت	-10.6133
▁الدراهم	-10.6137
▁نحاول	-10.6138
▁بجاية	-10.614
▁مضاف	-10.6142
▁والتي	-10.6142
قيس	-10.6143
▁بصراحة	-10.6143
▁مورايا	-10.6144
▁ملخر	-10.6147
ER	-10.615
دفن	-10.6151
nch	-10.6152
▁تفكير	-10.6152
عدام	-10.6153
▁تضع	-10.6154
وعد	-10.6156
▁Me	-10.6159
تحر	-10.6162
▁Bravo	-10.6164
▁بقيت	-10.6168
▁was	-10.6169
جانب	-10.617
▁نتبعك	-10.617
▁ويحفظ	-10.6171
مشكل	-10.6173
▁عرش	-10.6175
😏	-10.6177
▁وهاد	-10.6179
راكي	-10.6183
▁صلو	-10.6184
▁الكاتب	-10.6184
▁تقعد	-10.619
▁زل	-10.6197
اسية	-10.6199
▁هز	-10.6201
▁khouya	-10.6202
▁نقلكم	-10.6203
▁فليس	-10.621
▁بلع	-10.621
▁ça	-10.6211
▁يحبس	-10.6219
able	-10.6219
تناول	-10.6223
▁المساعدة	-10.6226
dar	-10.6226
خاوتي	-10.6228
▁يجري	-10.6232
▁بعيدا	-10.6233
تألق	-10.6233
ima	-10.6235
😈	-10.6237
▁علاجال	-10.6241
مقبرة	-10.6242
▁☺️	-10.6243
▁أعلى	-10.6245
سيس	-10.6247
▁موالف	-10.6248
ill	-10.6249
▁وينتا	-10.625
▁الألباني	-10.625
▁تصلح	-10.625
▁غيبة	-10.6252
▁علب	-10.6256
▁آدم	-10.6257
▁الاحت	-10.6259
▁ولاقوة	-10.6264
▁خلقه	-10.6269
▁انجح	-10.627
غطي	-10.6272
▁المسابقة	-10.6275
▁ديتي	-10.6277
▁متابعين	-10.6277
▁تعاون	-10.6277
▁تحقق	-10.628
rd	-10.6281
▁🤦	-10.6282
ائهم	-10.6287
▁بقدر	-10.6289
▁وجزاكم	-10.6289
▁بيزار	-10.6291
▁تعليم	-10.6292
▁الصغيرة	-10.6294
▁حطي	-10.6295
▁خسر	-10.6297
▁وسلام	-10.6299
▁المراة	-10.6304
▁التاني	-10.6305
كريم	-10.6306
▁وكأن	-10.6309
جاد	-10.6313
▁يقدم	-10.6316
▁نخمم	-10.6316
تيكتوك	-10.6317
▁رنا	-10.6317
عندك	-10.632
°	-10.6323
▁بحاجة	-10.6323
▁الضيف	-10.6323
▁Wlh	-10.6328
▁سهلة	-10.6334
▁امان	-10.6335
كبير	-10.6337
حقيقة	-10.6337
دموع	-10.6338
▁wach	-10.6339
▁الكذب	-10.634
▁معناه	-10.6341
شومبر	-10.6343
non	-10.6343
▁منعرفش	-10.6343
▁منبعد	-10.6347
▁واقف	-10.6349
▁صديقي	-10.635
تعليق	-10.6351
▁مليار	-10.6352
▁--	-10.6355
طبخ	-10.6355
▁Al	-10.6356
▁ناض	-10.6356
▁تقدير	-10.6357
▁تقر	-10.6361
▁تصبح	-10.6362
▁الرسالة	-10.6363
مواد	-10.6367
رضي	-10.6367
▁أستاد	-10.6369
▁🥺🤲	-10.6369
▁الطرق	-10.6373
▁نسال	-10.638
▁الثقة	-10.6382
▁تصرف	-10.6383
▁عاجلا	-10.6384
▁ونقول	-10.6392
ber	-10.6392
▁نبعث	-10.6393
قنات	-10.6393
برج	-10.6394
▁مسجل	-10.6397
حبيت	-10.6399
🤷	-10.6399
جتمع	-10.6401
▁توف	-10.6403
▁أعطي	-10.6404
▁تصلي	-10.6408
سعودي	-10.6412
TA	-10.6413
▁comme	-10.642
▁youtube	-10.6424
▁أرض	-10.6426
رسم	-10.6429
متحان	-10.6431
وطن	-10.6431
▁غرب	-10.6432
بلاد	-10.6433
لوش	-10.6434
▁نقعد	-10.6434
▁المحل	-10.6436
دعولي	-10.6437
▁المولى	-10.6439
رڨ	-10.644
▁ظروف	-10.644
ion	-10.6442
▁إليها	-10.6455
▁ديرولنا	-10.6455
▁أنس	-10.6457
▁تكفي	-10.6459
▁شوك	-10.6461
باعد	-10.6461
▁فكيف	-10.6464
▁حوالي	-10.6465
▁تصل	-10.6466
▁اساتذة	-10.6467
J	-10.6467
rin	-10.6468
تشبيه	-10.6469
اسلوب	-10.6475
▁عنابة	-10.6478
Z	-10.6478
▁مرحلة	-10.6479
▁والخ	-10.6479
▁الاخرى	-10.6479
zz	-10.6479
▁لوحد	-10.6484
▁الاصل	-10.6486
▁عهد	-10.6489
تحية	-10.6489
▁حرفيا	-10.6492
▁fih	-10.6493
▁ادي	-10.6496
▁لواحد	-10.6499
▁هدرة	-10.65
▁استعمال	-10.65
▁يهدرو	-10.6503
▁السابق	-10.6507
▁نسمعو	-10.6508
منح	-10.651
▁مفتوح	-10.6512
▁موصول	-10.6517
مقترحات	-10.6524
▁فتنة	-10.6524
▁سجلت	-10.6528
🙂💔	-10.6532
▁أفكار	-10.6537
▁عشرة	-10.6537
▁بول	-10.6537
سحب	-10.6545
▁واعرة	-10.6546
▁التمارين	-10.6549
▁القديم	-10.6549
ولات	-10.6551
▁الكبرى	-10.6551
vis	-10.656
▁يروحو	-10.6562
ld	-10.6565
liha	-10.6566
▁جهل	-10.657
▁بالخوف	-10.657
▁تحبس	-10.6575
▁أمن	-10.6575
▁صغر	-10.6576
▁هند	-10.6578
ouk	-10.6581
سخر	-10.6583
▁افتح	-10.6585
▁الحصول	-10.6585
▁بالعكس	-10.6586
ger	-10.659
▁تراب	-10.6591
RA	-10.6597
▁قرينا	-10.6598
▁مؤثر	-10.6598
ثور	-10.6598
💖💖	-10.6599
▁القص	-10.66
▁دقائق	-10.6601
▁واقتصاد	-10.6602
▁مدخله	-10.6608
▁voi	-10.6611
ساعة	-10.6612
IN	-10.6614
▁تسليما	-10.6615
حضور	-10.6615
قان	-10.6615
▁حبيبنا	-10.6615
▁تمر	-10.6618
▁تجيبي	-10.662
▁يدور	-10.662
▁فقر	-10.6621
كوبي	-10.6624
▁@	-10.6626
▁موسيقى	-10.6628
▁عارفة	-10.6628
▁سيرتو	-10.6639
٤	-10.664
▁الاحرار	-10.664
▁علابيها	-10.664
ساهم	-10.6641
▁الأخيرة	-10.6642
▁مشاهدة	-10.6642
▁ينبغي	-10.6643
▁لقب	-10.6645
▁فأنا	-10.665
▁لأني	-10.665
▁اللهجة	-10.6652
😫	-10.6653
▁جهنم	-10.6653
▁أسر	-10.6653
غالي	-10.6653
▁شئت	-10.6653
لطف	-10.6661
دقيقة	-10.6662
▁نركز	-10.6666
▁تخلص	-10.6667
▁هايلين	-10.6669
▁لحل	-10.6672
▁نفتح	-10.6677
▁الشرف	-10.6677
▁طموح	-10.6678
قريب	-10.6686
ختم	-10.6686
<	-10.6687
▁تبر	-10.6688
▁خاطرش	-10.6689
ist	-10.6691
▁🇲🇦	-10.6691
▁أساس	-10.6692
▁الفن	-10.6694
▁قرآن	-10.6694
lak	-10.6695
ous	-10.6695
▁بلادك	-10.6699
▁طلق	-10.6701
▁المباركة	-10.6701
مدرسة	-10.6704
▁والتوفيق	-10.6704
حالة	-10.6705
▁عشت	-10.6708
تدخل	-10.6717
حبيب	-10.6718
▁حياته	-10.6719
▁وزاد	-10.6724
▁خاتم	-10.6724
▁يعجبني	-10.6726
▁زيادة	-10.6732
▁lbac	-10.6734
سطو	-10.6735
▁أختنا	-10.674
▁ننسا	-10.674
▁٢	-10.6741
▁ذرك	-10.6743
🫡	-10.6743
حوش	-10.6743
▁نفرق	-10.6752
تقدر	-10.6755
▁ناكل	-10.6756
سود	-10.6757
ملأ	-10.6758
▁استطيع	-10.676
▁مرح	-10.676
▁وكذا	-10.6771
▁😁😁	-10.6775
😑	-10.6779
▁تاي	-10.6785
▁ydir	-10.6789
▁الإست	-10.6789
هتمام	-10.6792
حياتي	-10.6792
وجب	-10.6793
▁🙏🏻	-10.6798
▁وهنا	-10.68
▁صعبة	-10.6803
,,	-10.6806
▁السفر	-10.6808
😱😱	-10.6809
▁تطور	-10.6809
▁مقدمة	-10.681
zid	-10.6811
وحدة	-10.6814
▁تردي	-10.6815
آء	-10.6817
قناع	-10.6819
▁الاجتماعيات	-10.682
عمق	-10.682
تنظيم	-10.6821
▁وتكون	-10.6822
▁وبابا	-10.6823
▁شخصيات	-10.6825
▁تسع	-10.6831
ريبوندي	-10.6834
عقب	-10.6836
رجال	-10.684
▁الطلبة	-10.684
▁وااو	-10.684
▁السرعة	-10.6845
▁قيام	-10.6846
▁الشهادة	-10.6847
نجم	-10.6849
دمت	-10.6851
▁الشياطين	-10.6855
▁لوجه	-10.6855
▁فهاد	-10.6857
▁للأخ	-10.6859
ميم	-10.6863
▁شارك	-10.6866
▁ينح	-10.6866
▁لصاحب	-10.6868
يعني	-10.6873
▁بيع	-10.6873
▁المقدمة	-10.6875
▁لمرا	-10.6877
ازل	-10.6881
▁chaba	-10.6886
▁صلاح	-10.6889
▁نزع	-10.6893
حرام	-10.6894
خمس	-10.6894
▁فلاون	-10.6895
▁انواع	-10.6895
تخلي	-10.6897
▁أسماء	-10.6897
▁الرياضي	-10.6897
▁نسب	-10.6899
▁أعمال	-10.6899
«	-10.6899
▁تقرأ	-10.69
▁تنزيل	-10.6903
EN	-10.6904
▁Ki	-10.6904
▁الصدق	-10.6905
عراب	-10.6906
ON	-10.6906
▁الوضع	-10.6907
▁أحلام	-10.6908
▁ثقيل	-10.6909
▁مشاركة	-10.6909
تخايل	-10.691
▁علماء	-10.691
❌	-10.6913
▁العاجل	-10.6913
▁الجل	-10.6915
وكل	-10.6926
▁يليق	-10.6928
▁تحرر	-10.693
▁لبلاد	-10.693
▁عمتي	-10.693
قليل	-10.6933
ثلاث	-10.6934
▁عفوا	-10.6935
▁كسر	-10.6937
▁يعاود	-10.6939
▁بطريق	-10.6944
▁حضور	-10.6944
▁فرحان	-10.6948
▁البيان	-10.6951
▁nas	-10.6952
💥	-10.6952
▁بروف	-10.6953
فاف	-10.6955
▁مهمة	-10.6957
▁كشف	-10.6957
▁ياختي	-10.6964
▁والواجب	-10.6964
▁شق	-10.6967
انستا	-10.6968
❤😂	-10.6971
▁غلطة	-10.6971
▁ماكاش	-10.6973
▁خطاك	-10.6973
▁سالم	-10.6974
▁يادرا	-10.6983
ارث	-10.6986
مجرد	-10.6986
▁يحفظها	-10.6988
ذاك	-10.6988
▁أراد	-10.699
▁السف	-10.6991
▁النظام	-10.6991
▁اجنبية	-10.6992
▁vraiment	-10.6993
▁يصبركم	-10.6994
urs	-10.6996
▁يهنيك	-10.6996
▁500	-10.6998
▁مزيا	-10.6999
▁sc	-10.7
▁خيتي	-10.7001
▁لعن	-10.7002
▁مكنتش	-10.7006
▁المتابعة	-10.701
▁عمك	-10.7011
▁💪💪	-10.7012
راضي	-10.7012
▁يبكي	-10.7013
▁تسير	-10.7026
ركليط	-10.7029
سيون	-10.7029
▁يرضى	-10.7032
▁شرب	-10.7034
شغال	-10.7036
▁الامام	-10.7038
▁اسود	-10.704
فارق	-10.704
جتهاد	-10.7041
حكام	-10.7042
▁وألهم	-10.7045
▁🇵🇸	-10.7046
▁الشرعية	-10.7049
mn	-10.705
▁التع	-10.705
▁الجمل	-10.7053
▁الواجب	-10.7054
▁27	-10.7056
▁يبعث	-10.7056
▁يقولون	-10.7056
▁جاهل	-10.7057
ؤكد	-10.7058
▁قصدك	-10.7058
▁التب	-10.706
▁يفرحنا	-10.7061
عرفت	-10.7062
▁زعم	-10.7063
بلاغ	-10.7065
▁تكره	-10.7069
▁اتق	-10.7069
ap	-10.707
▁فلن	-10.7071
tna	-10.7073
▁tah	-10.7073
▁ويوسع	-10.7073
▁ونشوف	-10.7073
بسيط	-10.7073
▁اكت	-10.7074
▁مأ	-10.7075
▁💚	-10.7075
▁خب	-10.7076
▁28	-10.7077
▁وينجحنا	-10.7079
▁يااستاذ	-10.7079
eau	-10.7083
ىء	-10.7083
▁الآخرين	-10.7084
▁In	-10.7084
▁عبرة	-10.7085
ذنب	-10.7085
24	-10.7085
éri	-10.7086
▁تكذب	-10.7087
▁القادم	-10.7088
توقيع	-10.7089
▁تدري	-10.7096
▁الدورة	-10.7097
▁محرم	-10.7097
▁يتبعو	-10.7097
^	-10.7099
فديو	-10.7101
06	-10.7106
غف	-10.7111
▁ينقص	-10.7111
▁hbb	-10.7115
لفرونسي	-10.7117
▁حوا	-10.7121
▁نشريه	-10.7121
▁تواصل	-10.7125
▁خالص	-10.713
▁وصفاتك	-10.7139
▁السعودية	-10.714
▁اخلاق	-10.7143
▁toop	-10.7143
تمكن	-10.7146
▁نحسب	-10.7147
▁واقيل	-10.7147
▁يسمى	-10.7148
▁نخلي	-10.7149
انسان	-10.715
▁ومنكم	-10.7152
du	-10.7153
▁الفرضية	-10.7153
▁حكايت	-10.7154
▁العودة	-10.7155
رسي	-10.7156
▁fin	-10.7161
حركة	-10.7165
▁نزله	-10.7167
▁شرا	-10.7168
▁أسم	-10.7168
خرى	-10.7174
▁صيام	-10.7174
خفف	-10.7176
تعليم	-10.7177
▁عدا	-10.7182
tek	-10.7184
▁الأمل	-10.7186
▁مميزة	-10.7188
▁التس	-10.7189
▁سردك	-10.7199
▁سليم	-10.72
ستفد	-10.7201
▁باردة	-10.7202
▁يعمر	-10.7204
غط	-10.7206
▁يقصد	-10.7206
▁الاسبوع	-10.7207
▁كالعادة	-10.7207
▁واتوب	-10.7208
▁الأع	-10.7209
▁عفسة	-10.7209
▁محط	-10.721
▁التعبير	-10.7212
▁شع	-10.7213
نشط	-10.7215
▁اخواني	-10.7215
▁أخلاق	-10.7215
جواب	-10.7216
▁يلزم	-10.7218
▁نتفكر	-10.7223
▁غاب	-10.7223
▁تجري	-10.7223
فضح	-10.7223
▁ميلاد	-10.7231
▁سابقا	-10.7233
↗	-10.7234
🤌	-10.7234
▁ريد	-10.7234
▁bzaf	-10.7234
▁اسكنه	-10.7235
▁المنكر	-10.7235
▁مافيهاش	-10.7237
▁يرزقني	-10.7239
كومنتار	-10.724
ouh	-10.7246
▁المجهود	-10.7247
▁bli	-10.7247
😻	-10.7248
▁لفديو	-10.725
🌚	-10.7253
▁مقطع	-10.7253
▁أبواب	-10.7254
you	-10.7257
حباب	-10.7257
جيل	-10.7261
▁بلعباس	-10.7262
ction	-10.7263
إبداع	-10.7268
▁الصحراء	-10.7269
سحار	-10.727
▁dis	-10.7273
٥	-10.7275
▁الالكتروني	-10.7275
▁القنوات	-10.7275
▁الاطفال	-10.7275
▁والآخرة	-10.7276
▁حطو	-10.7276
▁يفرحكم	-10.7278
▁الولد	-10.7279
▁الضوء	-10.728
خطب	-10.7282
▁تدعو	-10.7282
▁حقوق	-10.729
طبيع	-10.7293
▁يكره	-10.7298
▁اللون	-10.7298
MA	-10.73
سبحان	-10.7301
حاضر	-10.7301
▁أنتم	-10.7302
▁الانبياء	-10.7303
▁الشريعة	-10.7303
فوز	-10.7306
▁خطير	-10.7307
▁حياتنا	-10.731
▁لطيف	-10.7313
🤭	-10.7316
▁بالضبط	-10.7317
▁2016	-10.732
▁فراق	-10.7321
▁يقعد	-10.7326
▁اعتقد	-10.7326
▁بعت	-10.7327
▁مشارك	-10.7331
▁تصوير	-10.7334
▁بسح	-10.7335
▁حتان	-10.734
▁ومزال	-10.734
ila	-10.7341
▁اللخر	-10.7341
ائح	-10.7344
سبق	-10.7344
▁أنزل	-10.7344
الادب	-10.7347
▁جنات	-10.7348
▁بروح	-10.735
▁الداخل	-10.7351
▁khou	-10.7354
▁الوجه	-10.7355
▁جربتها	-10.7355
▁وارحم	-10.7356
▁بقية	-10.7357
بكر	-10.7357
▁سقما	-10.7358
▁الجنس	-10.7358
▁مقبول	-10.736
▁فمك	-10.736
وفقك	-10.736
▁كشما	-10.7361
▁مث	-10.7362
*****	-10.7364
▁اشكرك	-10.7372
ste	-10.7377
▁التالية	-10.7377
▁ماهوش	-10.7382
افريل	-10.7382
▁الفرصة	-10.7385
▁وأخيرا	-10.7386
دج	-10.739
▁العدد	-10.7398
▁وجوه	-10.7403
صورة	-10.7403
▁ضمن	-10.7403
▁اوكي	-10.7405
▁أحي	-10.7406
▁يقلك	-10.7408
آمين	-10.7414
▁نتلاقا	-10.7415
أفضل	-10.7417
ouch	-10.7418
▁ok	-10.7419
▁صافي	-10.7419
ثورة	-10.7421
▁بسكرة	-10.7423
▁الأخرى	-10.7425
▁النهائية	-10.7425
bal	-10.7427
▁الالتزام	-10.7427
▁متبع	-10.7428
حادث	-10.7429
▁ضيفة	-10.7433
نزع	-10.7434
▁تزوجت	-10.7435
زاز	-10.7437
▁الاحساس	-10.7437
▁شفنا	-10.7437
▁نقولكم	-10.7438
▁بحب	-10.7439
▁تحدث	-10.7439
▁histoire	-10.7439
▁الباكلوريا	-10.7441
خفت	-10.7442
▁حكيات	-10.7447
▁خدام	-10.7449
▁رقدت	-10.7452
▁حاباتو	-10.7454
▁تخلط	-10.7455
▁كاع	-10.7458
lé	-10.7459
▁ٱل	-10.746
LI	-10.7461
▁مفيدة	-10.7462
▁المشروع	-10.7463
▁معظم	-10.7463
عادل	-10.7466
▁vu	-10.7466
▁فكري	-10.7467
▁نعلم	-10.7467
محاولة	-10.7468
دخول	-10.7471
▁بغي	-10.7471
▁دموع	-10.7473
▁أدخل	-10.7473
▁وعدم	-10.7479
▁مشكورة	-10.748
▁تنزل	-10.748
▁امبعد	-10.7483
▁القصيدة	-10.7483
▁wela	-10.7485
▁رجاءا	-10.7486
▁هارب	-10.7486
▁القوة	-10.7488
▁يعي	-10.7488
ضطر	-10.7489
لايك	-10.749
▁😘😘	-10.7491
قمة	-10.7492
▁أعضاء	-10.7494
تكوين	-10.7498
▁الهدف	-10.7503
▁للجزائر	-10.7512
ثانوي	-10.7512
فهمش	-10.7513
▁قبر	-10.7514
▁الخطأ	-10.7518
▁قرار	-10.7519
▁اعلان	-10.753
▁قضاء	-10.753
ممكن	-10.7532
جزاك	-10.7532
مازال	-10.7532
▁ألهم	-10.7535
عضو	-10.7536
فيديوهات	-10.7538
▁والتقدير	-10.7538
▁السياسة	-10.754
▁مسكونة	-10.7543
wel	-10.7544
▁فأنت	-10.7553
▁tani	-10.7554
▁يشافيها	-10.7554
▁inch	-10.7556
▁التقدير	-10.7556
▁الدائم	-10.7557
▁للدار	-10.7557
NA	-10.7561
▁Un	-10.7562
خصص	-10.7566
🤝	-10.7567
▁تيارت	-10.7568
▁موعد	-10.757
تخصص	-10.757
▁صليت	-10.7581
رقم	-10.7586
يران	-10.7606
▁يحس	-10.7606
▁القلم	-10.7607
▁الاستاد	-10.7608
▁للمنتدى	-10.7608
▁قريتي	-10.7612
▁ملخصات	-10.7612
😇	-10.7613
▁اكس	-10.7618
▁ميسي	-10.7619
ڨول	-10.763
▁بث	-10.7631
▁قداه	-10.7632
▁محترم	-10.7636
▁واعف	-10.7637
ظم	-10.7638
▁kaml	-10.7639
▁اللقاء	-10.764
▁التخصص	-10.7641
تحت	-10.7642
had	-10.7643
▁بغا	-10.7644
▁صفر	-10.7645
▁تستعمل	-10.7647
▁أكل	-10.765
▁العديد	-10.765
ملائك	-10.765
▁نظن	-10.7651
▁اسر	-10.7651
😣	-10.7651
▁الرئيس	-10.7652
▁خوفتني	-10.7652
▁💯	-10.7652
كاميرا	-10.7654
طلاع	-10.7655
تصفح	-10.7659
▁haka	-10.7659
▁المفيد	-10.7659
ذبح	-10.7665
▁الملائكة	-10.7666
▁الموجود	-10.7666
▁حاكم	-10.7669
؟!!	-10.7673
▁ونتمنى	-10.7676
إجابة	-10.7676
▁جزا	-10.7688
▁لاحظت	-10.7688
▁متوفر	-10.7693
▁ke	-10.7694
😄	-10.7694
▁صلاتك	-10.7694
▁تيليفون	-10.7695
▁يهديهم	-10.7697
▁يشرح	-10.7703
▁مشاركات	-10.7707
أخوات	-10.7707
▁خلينا	-10.7711
▁باز	-10.7711
/20	-10.7712
▁يرفع	-10.7714
100	-10.7717
أضحى	-10.7717
▁كافر	-10.7718
▁المنهجية	-10.7723
▁معلاباليش	-10.7723
وظف	-10.7723
تجنب	-10.7725
علب	-10.7738
▁الزين	-10.7739
معنى	-10.7742
▁frr	-10.7745
▁لابد	-10.7747
نثر	-10.775
😜	-10.7751
🙌	-10.7751
طاح	-10.7753
▁السبورة	-10.7753
▁استفسار	-10.7761
▁prof	-10.7767
▁إما	-10.7771
▁أجركم	-10.7773
tel	-10.7773
تفاهم	-10.7777
▁سوق	-10.7778
&	-10.778
▁|	-10.7781
▁جابت	-10.7781
▁اقت	-10.7783
▁يمنع	-10.7784
▁قالتلي	-10.7788
▁سارة	-10.779
▁💗💗	-10.7797
▁اسماء	-10.7802
▁القوم	-10.7805
▁العرض	-10.7805
سهولة	-10.7807
▁raklita	-10.7809
▁يكذب	-10.781
▁المواقع	-10.7811
▁أسكنه	-10.7812
بوس	-10.7812
▁الشريف	-10.7815
صحب	-10.7819
▁طالع	-10.782
48	-10.7821
هنئ	-10.7821
▁بسيف	-10.7823
▁ساعتين	-10.7823
ستمرار	-10.7826
دراهم	-10.7829
▁يسب	-10.783
▁النوا	-10.783
▁اسامة	-10.7831
use	-10.7831
لتزم	-10.7834
▁وبحمده	-10.7838
▁لاباس	-10.784
▁اجابة	-10.7842
▁us	-10.7843
‍♂️	-10.7844
عازي	-10.7844
▁صدري	-10.7845
▁امري	-10.7846
▁لزوج	-10.7848
▁رأيي	-10.7849
AH	-10.7852
أكيد	-10.7853
▁المقطع	-10.7854
▁yh	-10.7854
▁خرطي	-10.7859
▁وهناك	-10.7859
تعاون	-10.7861
▁même	-10.7867
▁المنطقة	-10.7868
▁جسد	-10.7868
▁التجريبي	-10.7869
ons	-10.7869
▁سجل	-10.787
▁الجمع	-10.7873
تشوف	-10.7874
▁اكمل	-10.7875
▁الامير	-10.7875
👻	-10.7881
▁وكيل	-10.7882
▁يضر	-10.7883
ضهر	-10.7886
▁كمال	-10.7887
▁مختلفة	-10.789
رياضيات	-10.7891
▁🤩	-10.7892
▁الرزق	-10.7893
▁الطبخ	-10.7894
إذا	-10.7901
ضار	-10.7902
▁جعله	-10.7904
ذهاب	-10.7907
▁لباب	-10.7918
▁الخيمة	-10.7919
▁التقويم	-10.7925
▁الصراحة	-10.7926
▁سمعنا	-10.7927
لعقوبة	-10.7929
▁ويحفظك	-10.793
▁peu	-10.7931
▁😩	-10.794
▁اخواننا	-10.794
▁والبرد	-10.7942
جهل	-10.7944
▁قادا	-10.7947
لزم	-10.7952
بلاص	-10.7953
▁يونس	-10.7954
▁mor	-10.7955
▁فائدة	-10.7955
▁وهاذ	-10.7956
▁سوداء	-10.7957
▁No	-10.7959
فلسفة	-10.7961
▁الجيل	-10.7961
شياطين	-10.7963
▁تصور	-10.7964
▁تفرجتو	-10.7966
▁تعليقات	-10.7967
🤡	-10.7969
▁بالشفاء	-10.7969
▁أشهر	-10.7969
▁غم	-10.7971
men	-10.7978
▁rana	-10.7979
▁دكتور	-10.7979
▁فالدار	-10.7982
▁داود	-10.7982
ï	-10.7983
▁برج	-10.7985
▁😑	-10.7986
▁يرضي	-10.7987
▁فكان	-10.7989
ook	-10.7992
ستان	-10.7993
▁اليمن	-10.7993
▁تاوع	-10.7996
▁اردت	-10.7996
وسط	-10.7998
😋	-10.7998
▁الشاملة	-10.7998
▁بيكم	-10.8
▁مقام	-10.8
▁مبني	-10.8002
▁الدرجة	-10.8002
▁احس	-10.8002
yy	-10.8003
rab	-10.8003
▁va	-10.8005
fd	-10.8007
👽	-10.8013
⭐	-10.8013
▁الأشياء	-10.8013
▁العنف	-10.8013
66	-10.8014
ضعف	-10.8016
▁ويطول	-10.8018
▁المجموع	-10.8019
▁الجزاءر	-10.8029
▁going	-10.803
▁مداير	-10.8031
بدي	-10.8032
صفح	-10.8032
▁مقت	-10.8043
▁المفروض	-10.8046
▁الدكتور	-10.805
ريج	-10.8052
AD	-10.8053
خيير	-10.8057
▁وبالتوفيق	-10.8065
▁سامح	-10.8067
▁Raklita	-10.8072
▁1/	-10.8073
متياز	-10.8077
فاس	-10.8077
▁بحق	-10.8079
ريب	-10.808
▁اشترك	-10.8088
▁très	-10.8088
▁تتعلم	-10.8089
▁الكبيرة	-10.8093
الحمد	-10.8094
خخ	-10.8103
▁عفو	-10.8103
ذيب	-10.8103
محمد	-10.8105
▁كين	-10.8106
🤦	-10.8106
▁يمر	-10.8108
▁تطلب	-10.8114
▁لزم	-10.8115
قذ	-10.8115
▁يعطو	-10.8119
▁الورد	-10.8121
▁عادل	-10.8121
▁أغلب	-10.8122
▁تستاهلي	-10.8123
عس	-10.8125
▁شافت	-10.8125
▁طاحو	-10.8126
نآ	-10.8127
▁يصبح	-10.8129
▁one	-10.8129
▁انتاع	-10.813
▁يعجبوني	-10.8131
▁(1)	-10.8132
▁مظاهر	-10.8135
‍♀️	-10.8138
▁فظلك	-10.814
▁مقاطع	-10.8146
▁اعلى	-10.8148
».	-10.8148
▁الطبيب	-10.8148
gra	-10.8151
▁اهلها	-10.8152
خطئ	-10.8153
▁جعلت	-10.8153
▁مساعدة	-10.8154
▁المصدر	-10.8159
▁وحيد	-10.816
▁ننسى	-10.8163
خبي	-10.8163
▁وشبيك	-10.8163
لعن	-10.8164
بغض	-10.8167
▁الشعور	-10.8167
▁نشاط	-10.8168
بهدل	-10.8168
▁أيمن	-10.8171
▁اسأل	-10.8173
لاعب	-10.8174
▁الجزاير	-10.8175
⁠	-10.8176
▁مشكوور	-10.8176
▁ثابت	-10.8176
غادر	-10.8176
▁اقتباس	-10.8176
▁نتم	-10.8183
▁عامل	-10.8183
lina	-10.8183
▁تفوت	-10.8187
RE	-10.8189
أولئك	-10.819
▁آمن	-10.8191
▁ديرولي	-10.8191
▁ناحية	-10.8193
▁ykh	-10.8193
▁نربحو	-10.8194
▁مازلت	-10.8196
▁lola	-10.8203
▁بعدما	-10.8204
قبض	-10.8205
▁احيانا	-10.8206
▁خصني	-10.8208
ارجو	-10.8209
▁التأ	-10.821
▁mes	-10.821
تحيا	-10.8211
دائرة	-10.8213
▁videos	-10.8213
أخي	-10.8216
56	-10.8217
🦋	-10.8221
▁Ou	-10.8222
▁صفحات	-10.8223
▁نظري	-10.8223
▁جبل	-10.8234
قرر	-10.8234
▁مطلق	-10.8235
🌼	-10.8236
▁افلام	-10.824
27	-10.824
▁الإنجليزية	-10.8244
أخلاق	-10.8244
▁قلق	-10.8245
▁استعمل	-10.8249
▁الثانوية	-10.8252
▁وجعلها	-10.8253
▁موتانا	-10.8257
جوهر	-10.8258
قرار	-10.8262
▁وغيرها	-10.8262
▁have	-10.8262
آر	-10.8263
▁مولا	-10.8265
▁الظل	-10.8266
▁زيدلو	-10.8268
▁نيشان	-10.8268
aux	-10.827
▁العالي	-10.8271
▁الطلب	-10.8274
▁قصه	-10.8279
▁مزلت	-10.828
حساب	-10.8283
▁bn	-10.8283
▁شعل	-10.8284
▁pi	-10.8289
▁Di	-10.8293
▁يمكنني	-10.8297
ذاكر	-10.8298
دمر	-10.8298
▁تسجيل	-10.8299
أطفال	-10.83
olo	-10.8303
à	-10.8305
▁لغير	-10.8305
▁وكتاه	-10.8308
▁تحلي	-10.8312
🏻‍♀️	-10.8312
▁brk	-10.8313
▁لاعب	-10.8316
▁br	-10.8323
▁رحنا	-10.8324
▁26	-10.8333
▁بلون	-10.8334
▁النصائح	-10.8338
▁تعلق	-10.8348
▁حادث	-10.8348
▁خان	-10.8352
▁وضعت	-10.8355
راجل	-10.8355
▁الظروف	-10.8359
🤗	-10.8359
ختصر	-10.8362
عارض	-10.8363
▁نائل	-10.8364
▁كلاش	-10.8368
▁ويجعلها	-10.8368
▁بالرغم	-10.8368
▁//	-10.8371
مراجعة	-10.8374
▁فعلت	-10.8375
▁خطوة	-10.8379
▁حاشا	-10.8379
▁🌚	-10.8382
▁عالية	-10.8383
▁تنحي	-10.8387
بيب	-10.8396
▁تعليمي	-10.84
▁حفر	-10.8402
▁keep	-10.8403
▁يمثل	-10.8405
أب	-10.8407
▁ونموت	-10.8408
ناظر	-10.8412
▁اللسان	-10.8412
😌	-10.8413
فلسطين	-10.8416
▁ادم	-10.8417
▁يطالب	-10.8418
▁عايشة	-10.842
حفاظ	-10.842
فرش	-10.8423
ate	-10.8425
🙏🙏	-10.8432
▁باللغة	-10.8434
▁مشاهد	-10.8437
▁وحدوخر	-10.8442
▁ادري	-10.8443
▁أخوات	-10.8444
خطف	-10.8446
عترف	-10.8449
▁🌷	-10.8453
▁يستعمل	-10.846
حوس	-10.8461
▁😏	-10.8463
😆	-10.8464
▁فيسبوك	-10.8465
▁إخ	-10.8465
▁نعقب	-10.8468
▁كرا	-10.8475
lit	-10.8478
ثيق	-10.848
▁كشغل	-10.848
صنف	-10.8481
▁الخطايا	-10.8483
خاطب	-10.8488
▁but	-10.849
▁Cha	-10.8491
▁تبعث	-10.8494
▁حمار	-10.8497
▁اكتر	-10.8497
▁القادمة	-10.8498
قمار	-10.8502
▁القليل	-10.8503
▁tes	-10.8504
▁وجغرافيا	-10.8507
▁رجاء	-10.8508
▁foor	-10.8513
▁وبعدها	-10.8517
gl	-10.8518
▁المرء	-10.8519
ثلج	-10.852
▁يعاون	-10.852
▁ذيك	-10.852
جزائر	-10.8522
»،	-10.8523
تقي	-10.8524
▁التجربة	-10.8526
▁ابتدائي	-10.8527
▁tra	-10.8528
صيح	-10.8529
▁ولاكن	-10.853
صفر	-10.8539
▁حروف	-10.8541
▁اسلام	-10.8545
▁جاوبيني	-10.8545
▁أعط	-10.8545
▁واضحة	-10.8548
▁تأتي	-10.855
ريط	-10.855
▁نزعة	-10.8552
▁حير	-10.8555
▁حيوان	-10.8556
▁نحبس	-10.8556
شوي	-10.8558
▁يلبس	-10.8559
▁نسقسي	-10.8563
▁ممنوع	-10.8563
شيئ	-10.8569
▁مستغانم	-10.8573
▁بنسبة	-10.8573
▁أصاب	-10.8575
▁تبعو	-10.8576
أسئلة	-10.8577
▁نقدي	-10.8578
▁الاقتصاد	-10.8579
▁واليوم	-10.858
▁تسمى	-10.8582
▁90	-10.8583
زز	-10.8584
▁سريع	-10.8584
▁سكان	-10.8584
▁ماهيش	-10.8587
خطط	-10.8588
▁🤲🏼	-10.8593
جلب	-10.8593
▁والثلج	-10.8594
▁ماشفت	-10.8594
مصطلحات	-10.8595
▁الإخوة	-10.8596
▁dire	-10.8597
▁REDX	-10.8604
▁عثمان	-10.8604
▁للاخ	-10.8606
▁ظرف	-10.8607
خدع	-10.8607
طمع	-10.8608
▁نتحصل	-10.8609
😎	-10.861
▁الحدود	-10.8614
▁ضيفتنا	-10.8615
▁علامات	-10.8622
▁ايمن	-10.8623
▁للشعب	-10.8623
▁التعب	-10.8624
▁المقبل	-10.8629
▁تدرس	-10.8629
▁حاجه	-10.8629
▁خصنا	-10.8632
غنى	-10.8637
▁نكتبو	-10.8641
▁Rani	-10.8641
▁ومسلم	-10.8642
▁نخدمو	-10.8644
▁تدعي	-10.8645
▁cont	-10.8645
jour	-10.8645
اخلاق	-10.8646
▁انظر	-10.8651
🫀	-10.8651
▁الاحترام	-10.8652
▁الصيام	-10.8654
***	-10.8658
▁تلفون	-10.8659
▁الظن	-10.8661
▁الطبيعي	-10.8662
علاه	-10.8663
استغفر	-10.8663
قيل	-10.8665
بيس	-10.8666
زاد	-10.867
دلال	-10.867
▁الصرح	-10.8678
😨	-10.8682
▁تقليد	-10.8683
▁وحبيبنا	-10.8683
▁فاتت	-10.8684
حاج	-10.8687
▁تكملي	-10.8687
▁مناسب	-10.8689
ادم	-10.8693
▁النزعة	-10.8699
طباق	-10.8703
▁المض	-10.8703
▁المميزة	-10.8705
▁مجاني	-10.8708
▁معسكر	-10.8709
▁كتير	-10.8711
▁********	-10.8718
ماشي	-10.8719
▁سياسة	-10.8722
▁يخدمو	-10.8724
▁مهوش	-10.8725
▁الظالمين	-10.8728
▁sma	-10.8733
▁أثناء	-10.8734
▁قبيل	-10.8738
▁ضيق	-10.874
▁زايد	-10.8741
🩹	-10.8745
▁الأساتذة	-10.8745
دليل	-10.8746
▁حوس	-10.8747
▁الزيت	-10.8751
▁والجن	-10.8753
▁نيتك	-10.8754
▁رمضانكم	-10.8755
▁قصير	-10.876
▁خز	-10.8761
▁الشهيد	-10.8762
▁ارى	-10.8764
▁رايكم	-10.8777
زهر	-10.8777
▁يطلق	-10.878
ونسي	-10.8781
هذه	-10.8784
▁لدى	-10.8784
طهر	-10.8786
uu	-10.8792
▁قاري	-10.8793
▁الفرح	-10.8795
▁الدوال	-10.8803
▁حاولي	-10.8803
▁بشوي	-10.8804
▁compte	-10.8807
▁نشكر	-10.8816
أصبح	-10.8821
شيء	-10.8821
▁الادبيين	-10.8823
مرات	-10.8824
▁رخيس	-10.8825
فجر	-10.8825
▁نسخة	-10.8827
غض	-10.883
▁العملية	-10.8831
▁نعطيك	-10.8835
ستقلال	-10.8839
▁البليدة	-10.8842
▁الفترة	-10.8842
▁الصفر	-10.8843
▁يسعدك	-10.885
▁فهمتش	-10.885
▁back	-10.8851
▁المنتج	-10.8853
▁مرعب	-10.8854
▁يسع	-10.8856
▁ظهور	-10.8857
▁قصيرة	-10.8858
▁سيئات	-10.8858
▁حصل	-10.8861
▁🩷	-10.8863
▁يقتلو	-10.8865
▁اختار	-10.8866
نصيحة	-10.8867
حكا	-10.8868
▁رابع	-10.8871
▁much	-10.8873
nes	-10.8875
نستغرام	-10.8875
▁son	-10.8876
▁😌	-10.8878
▁ساحر	-10.8883
▁يجزيك	-10.8889
▁مشفت	-10.889
تشجيع	-10.8891
▁تحبين	-10.8895
زق	-10.8895
▁يراجع	-10.8896
▁اهتمام	-10.8898
lih	-10.8898
حرص	-10.8899
لفون	-10.8901
▁حاولت	-10.8902
dh	-10.8903
▁خليل	-10.8905
👋	-10.8905
باد	-10.8907
▁بهاذ	-10.8909
▁sou	-10.891
▁ندعو	-10.8911
▁ins	-10.8915
▁مبد	-10.8917
▁hkaya	-10.8917
raf	-10.8919
▁والعلم	-10.8919
▁الصمت	-10.8924
▁احم	-10.8928
gg	-10.8928
▁sp	-10.893
راقب	-10.8934
▁الضعف	-10.8936
استخدام	-10.8938
▁ينس	-10.8944
▁اسالك	-10.8951
قهر	-10.8953
▁الاستعمار	-10.8955
▁الرابع	-10.8955
▁dirlna	-10.8956
▁🤔🤔	-10.8963
▁كومنتار	-10.8963
▁يولد	-10.8966
شحن	-10.897
▁يسلمك	-10.8972
▁حنان	-10.8973
▁وهوما	-10.8973
▁راائع	-10.8973
▁القصه	-10.8976
▁ندمت	-10.8979
▁تراجع	-10.8979
▁يغادر	-10.8981
▁تعيط	-10.8983
▁انستغرام	-10.8987
▁صحيتي	-10.8989
نساء	-10.899
▁ماتتمنى	-10.8992
رزاق	-10.8993
▁زينب	-10.8999
▁القيام	-10.9
28	-10.9
▁اعطينا	-10.9001
kou	-10.9001
ane	-10.9002
ard	-10.9004
▁2013	-10.9005
برمج	-10.9006
ستعمال	-10.9007
فساد	-10.9009
▁فرنسي	-10.9014
▁كينغ	-10.9016
▁يجازي	-10.9016
▁دعوات	-10.9016
صندوق	-10.9018
▁كيفكيف	-10.9024
▁roh	-10.9026
▁والاخ	-10.9027
▁نحيت	-10.903
▁الجنوب	-10.9032
▁لحمي	-10.9033
▁اربع	-10.9033
▁اطفال	-10.9035
قدار	-10.9037
جوان	-10.9038
تأمل	-10.904
▁bel	-10.9041
عع	-10.9047
▁ورايا	-10.9047
▁مقارنة	-10.9048
زيار	-10.9048
/2	-10.9048
cette	-10.905
bb	-10.9051
▁الرأي	-10.9053
▁الموس	-10.9058
▁يخليكم	-10.9061
▁El	-10.9065
▁بالذرية	-10.9067
▁نشكرك	-10.9069
▁وأكرم	-10.9072
▁الاستعارة	-10.9073
قذف	-10.9075
▁أسباب	-10.9082
▁فقدت	-10.9083
▁تقويم	-10.9084
▁الفتاة	-10.9084
▁باع	-10.9084
▁الفيد	-10.9085
▁نقارع	-10.9086
تقوى	-10.9089
▁القرين	-10.9089
علن	-10.9092
▁تترك	-10.9095
▁الساحر	-10.9102
▁الاولاد	-10.9103
▁للمليون	-10.9103
▁أصدق	-10.9104
▁الابتدائي	-10.9107
ستحق	-10.9109
▁حكايا	-10.9111
▁شان	-10.9112
200	-10.9115
▁النجوم	-10.9116
▁وهكذا	-10.9117
لغات	-10.9117
سيار	-10.912
▁اشتراك	-10.9133
مطبخ	-10.9135
▁ترحيب	-10.9139
▁السعر	-10.9142
▁gen	-10.9143
▁مقدر	-10.9143
▁نعيم	-10.9143
dak	-10.9147
▁العطر	-10.9149
▁ضمير	-10.9153
جابت	-10.9154
▁أعوذ	-10.9156
▁الاسود	-10.9163
غامر	-10.9164
▁هبلت	-10.9166
ضبط	-10.9166
▁يسموه	-10.917
▁بجام	-10.9171
قاف	-10.9173
▁مهيش	-10.9175
▁العشاء	-10.9177
▁حكمت	-10.9178
لذين	-10.9182
💝	-10.9182
▁العطلة	-10.9183
▁حلول	-10.9183
صوف	-10.9191
فطن	-10.9196
▁ريت	-10.9197
andi	-10.9197
▁يتزوج	-10.9197
🙋	-10.9199
▁ماعنديش	-10.9199
▁ابعث	-10.9201
▁محتوا	-10.9208
▁السورة	-10.9211
▁الانس	-10.9213
pon	-10.9215
▁2/	-10.9223
شتغل	-10.9227
خيب	-10.9229
▁مضحك	-10.923
▁أفهم	-10.9231
▁فاليوتيوب	-10.9231
بلع	-10.9232
▁أسبوع	-10.9232
▁تبدأ	-10.9235
▁howa	-10.9236
▁بحكم	-10.9236
▁الأساس	-10.9237
▁الوصف	-10.9237
▁والمس	-10.9239
▁لاشان	-10.9242
▁لشخص	-10.9246
▁القواعد	-10.9249
▁جانفي	-10.9249
▁لقينا	-10.9249
بغا	-10.9251
▁سلطان	-10.9251
pt	-10.9252
▁الطعام	-10.9253
▁البقاء	-10.9254
غيض	-10.9254
▁تجارة	-10.9254
▁خرجلي	-10.9256
▁تنسا	-10.9262
▁اسمحلي	-10.9266
▁بهاد	-10.9269
▁جهاز	-10.9271
▁أنواع	-10.9272
▁وطريقة	-10.9273
سيطر	-10.9273
▁نعتمد	-10.9279
▁خلات	-10.9285
▁يباركلك	-10.9288
▁الأطفال	-10.929
▁نعيط	-10.9292
داوم	-10.9292
إكرام	-10.9298
Algérie	-10.9299
▁معندوش	-10.9301
واسع	-10.9301
▁العلاقة	-10.9302
علميين	-10.9304
▁تنسى	-10.9307
▁قبول	-10.9308
خفيف	-10.931
▁لقصص	-10.931
▁متخافيش	-10.9315
▁فاطمة	-10.9316
▁العاب	-10.9316
✔️	-10.9316
▁درتلك	-10.9326
▁😎	-10.9327
▁للجن	-10.9327
▁bsh	-10.9331
ساهل	-10.9331
▁inchallah	-10.9333
▁Nchlh	-10.9334
▁عاودي	-10.9334
▁مشاعر	-10.9335
▁تبين	-10.934
▁إذن	-10.934
▁تحديد	-10.9342
قادر	-10.9344
سلوك	-10.9346
حرج	-10.9346
▁الإلكتروني	-10.9349
▁تحدي	-10.9349
▁قواعد	-10.9349
▁دعالي	-10.935
▁لقصة	-10.9355
▁لقاو	-10.9357
▁أدري	-10.9361
تقلق	-10.9362
▁مراكش	-10.9362
▁أسئلتي	-10.9366
▁الاسطورة	-10.9366
منتوج	-10.9367
▁مسكون	-10.937
▁عنهما	-10.9377
▁تختار	-10.9378
▁الكفار	-10.9379
▁ادبية	-10.938
▁ghi	-10.938
قارن	-10.9381
كمنتار	-10.9385
▁آيات	-10.9395
حلال	-10.9398
▁والمسلمات	-10.94
▁امسى	-10.9404
▁امثالك	-10.9405
▁lkh	-10.9409
▁امريكا	-10.9409
▁😇	-10.9412
▁تنسو	-10.9412
اسئلة	-10.9413
▁رواحكم	-10.9414
تخلص	-10.9416
▁الفتنة	-10.9418
▁السيارات	-10.9419
🥰🥰	-10.9431
▁شأن	-10.9433
▁normal	-10.9434
أجر	-10.9436
طيف	-10.9439
▁بوجود	-10.944
▁اذكر	-10.9444
▁نسجل	-10.9445
تمسك	-10.9448
▁ممتع	-10.9449
تقرب	-10.945
▁أشد	-10.9455
▁أخرجه	-10.9458
▁بصمة	-10.9461
ram	-10.9467
▁وسدد	-10.9468
خزر	-10.9469
▁ويخليك	-10.947
▁ويشفي	-10.9473
▁رفيق	-10.9475
▁tf	-10.9479
▁أبوني	-10.9493
▁بقرة	-10.9496
▁شهيد	-10.9503
مغاربة	-10.9503
▁اسلامية	-10.9504
🥺🥺	-10.9507
08	-10.9507
AM	-10.951
▁🤗	-10.9518
☠️	-10.9519
▁الرمز	-10.9519
تداول	-10.9521
▁اعضاء	-10.9522
▁نحلو	-10.9523
▁بدلت	-10.9535
▁عثيمين	-10.9536
▁المطلوب	-10.9536
▁تبيع	-10.9539
ç	-10.9539
▁bach	-10.9541
▁دبر	-10.9543
▁احساس	-10.9543
▁بورك	-10.9543
▁بلدية	-10.9554
▁منطقي	-10.9554
▁يضيع	-10.9555
▁🤍🤍	-10.956
▁قلوبهم	-10.9562
جوج	-10.9568
dik	-10.9569
▁يوتوب	-10.9572
▁تفاصيل	-10.9573
▁كومونتار	-10.9574
▁نستعمل	-10.9577
منتدي	-10.9578
▁جامعة	-10.9578
▁احترامي	-10.9579
سيبيا	-10.958
▁الحصة	-10.958
bd	-10.9582
▁cou	-10.9583
ئذ	-10.9586
▁الحبر	-10.9586
EL	-10.959
▁أعتقد	-10.9595
▁وقتاه	-10.9595
▁الصين	-10.9598
صيغ	-10.96
طباع	-10.96
▁بالدعاء	-10.9601
hach	-10.9601
▁النقطة	-10.9601
▁قررت	-10.9604
▁أمير	-10.9604
▁يملك	-10.9608
hem	-10.9608
▁100%	-10.9608
▁عاطف	-10.9609
▁شراء	-10.961
▁صدقت	-10.9611
▁الدليل	-10.9613
▁اضحى	-10.9613
▁اسوء	-10.9617
▁يسمح	-10.9621
$	-10.9621
تبادل	-10.9622
❤😢	-10.9624
+1	-10.9625
▁الخيال	-10.9627
▁toi	-10.9628
▁لقاء	-10.9631
▁صاح	-10.9631
▁صفات	-10.9631
▁أستطيع	-10.9635
▁الاستغفار	-10.9636
▁ومرت	-10.9638
▁المصري	-10.9639
👀	-10.9639
▁الربا	-10.9639
▁ابتل	-10.9642
▁ميمتي	-10.9643
▁تدل	-10.9646
▁nous	-10.9647
▁صرالي	-10.9658
ten	-10.966
عفس	-10.9665
ight	-10.9666
شكيل	-10.9668
▁معامل	-10.9669
▁فراش	-10.9673
▁يدرس	-10.9674
▁♥♥	-10.9676
▁الرك	-10.968
شتاق	-10.968
▁خروج	-10.9681
▁يجازيكم	-10.9689
🥳	-10.9691
▁بفارغ	-10.9691
▁ماقدرتش	-10.9691
▁المخلوق	-10.9692
تيليفون	-10.9692
▁نحقق	-10.9696
▁يأخذ	-10.9699
▁يدوم	-10.9703
▁يمدو	-10.9705
▁حالتي	-10.9706
▁تسمي	-10.9706
▁العقيدة	-10.9709
▁متزيدش	-10.9709
▁مسعود	-10.971
برز	-10.9713
▁ويهدي	-10.9721
▁واقيلا	-10.9722
▁لماما	-10.9725
né	-10.9725
gue	-10.9731
▁اشياء	-10.9731
▁dit	-10.9731
▁وتاني	-10.9734
بساط	-10.9734
▁الكافر	-10.9735
لاج	-10.974
▁القهوة	-10.9744
▁أرواح	-10.9744
dam	-10.9746
▁السياقة	-10.9747
▁الطاهر	-10.9751
▁يهديكم	-10.9752
▁رحمتك	-10.9752
▁بصفة	-10.9753
▁سيف	-10.9754
زهد	-10.9755
▁ليكور	-10.9757
▁أحدهم	-10.976
▁قشيحة	-10.9761
▁التعامل	-10.9761
▁comment	-10.9763
▁الفساد	-10.9766
▁عاقل	-10.9766
▁تبحث	-10.9766
fhm	-10.9767
خمر	-10.9769
▁يبدل	-10.9769
بادر	-10.977
▁تأخذ	-10.9772
▁تقضي	-10.9774
▁ذالك	-10.9781
ضيق	-10.9782
▁سلا	-10.9787
ستودع	-10.9794
▁تتبع	-10.9794
▁مصطفى	-10.9796
▁القراءة	-10.9799
▁حياتها	-10.9799
▁لأم	-10.9803
▁تقلق	-10.9805
▁سامع	-10.9805
ple	-10.9806
أحب	-10.9807
فخر	-10.9811
🤯	-10.9814
كوزينة	-10.9817
▁المقالات	-10.9817
▁يتحدث	-10.9818
▁ندعي	-10.9819
une	-10.9821
▁داعي	-10.9829
▁يسأل	-10.9833
▁6-	-10.9833
▁انشاءالله	-10.9834
▁مجموع	-10.9835
👍👍	-10.9836
▁هبل	-10.9836
▁تدعم	-10.9841
لوكان	-10.9845
نبغي	-10.9845
▁“	-10.9846
44	-10.9849
▁شريعة	-10.985
▁التصوير	-10.9851
أحكام	-10.9852
▁ويزيد	-10.9853
▁تكثر	-10.9854
bin	-10.9855
▁نصر	-10.9866
😬	-10.9867
▁أشياء	-10.9868
عظ	-10.9869
محتوى	-10.987
ally	-10.9878
▁ارجوكم	-10.9878
▁عميق	-10.9879
طيش	-10.9883
▁whd	-10.9883
▁تسلم	-10.9888
▁تخلطت	-10.9895
▁ملايين	-10.9896
▁بشيء	-10.9904
▁المراتب	-10.9904
▁آمنوا	-10.9906
▁جايح	-10.9907
▁مدى	-10.9907
son	-10.9907
▁زيارة	-10.9909
▁اييه	-10.9914
حرب	-10.9919
▁حاير	-10.9919
---------	-10.992
▁خاطئ	-10.9921
عاصمة	-10.9922
▁مخلوق	-10.9923
▁قاسم	-10.9923
▁ورسوله	-10.9924
ستغفار	-10.9924
▁ظالم	-10.9926
▁تحميل	-10.9927
مشاركات	-10.9928
دفاع	-10.993
ماهي	-10.9931
دوز	-10.9931
▁الجيش	-10.9932
88	-10.9946
اجتماع	-10.9949
منتدى	-10.995
😅😂	-10.9951
بعيد	-10.9952
😖	-10.9956
▁frère	-10.9956
▁الترمذي	-10.9956
▁الاعمال	-10.9956
🔥🔥	-10.996
▁لحال	-10.9963
▁بيناتهم	-10.9968
▁يلعبو	-10.9971
▁وكما	-10.9972
▁يؤمن	-10.9973
▁اسرائيل	-10.9974
▁from	-10.9974
▁معرفت	-10.9974
▁ادرس	-10.9975
سيئ	-10.9975
▁القب	-10.998
▁الأفكار	-10.9984
▁اليقين	-10.9987
▁أكتب	-10.9988
▁تبالي	-10.999
▁اسهل	-10.9991
▁فايدة	-10.9991
ࢪ	-10.9992
▁خطرات	-10.9992
▁اومبعد	-10.9992
▁معينة	-10.9993
▁رعد	-10.9995
▁khti	-10.9998
▁العراق	-10.9998
▁جسم	-11
▁ثمن	-11.0001
▁yes	-11.0002
▁الخطرة	-11.0003
▁الشبه	-11.0007
معلومات	-11.0009
▁سكيكدة	-11.001
▁الصادق	-11.0011
▁اللعبة	-11.0012
بيان	-11.0012
بتعد	-11.0013
▁خصائص	-11.0021
▁ضيفنا	-11.0026
▁مخلط	-11.003
▁عشرين	-11.0033
▁Top	-11.0034
2023	-11.0035
▁مجيد	-11.0036
▁اسألك	-11.0039
توسوس	-11.0039
💕💕	-11.0046
▁صدقني	-11.0046
فوض	-11.0048
▁والشكر	-11.0049
▁تبسة	-11.0054
طرد	-11.0057
▁حطيلنا	-11.0058
▁بودكاست	-11.0059
▁المصطفى	-11.0064
▁مخطط	-11.0066
تبقى	-11.0066
▁ever	-11.0067
جتماعي	-11.0068
▁مسجد	-11.0073
▁للقصص	-11.0077
▁نصلي	-11.0078
▁يغير	-11.0078
٦	-11.0082
▁اسئلتي	-11.0082
▁الكاف	-11.0083
▁زكريا	-11.0085
▁السوجي	-11.0087
▁التقني	-11.0092
▁مبسط	-11.0092
▁Hadi	-11.0096
حز	-11.0097
فراش	-11.0098
خيانة	-11.0098
▁للمرة	-11.0099
حجب	-11.0111
90	-11.0111
توتر	-11.0114
▁التوبة	-11.0117
إدارة	-11.0121
مدينة	-11.0122
//	-11.0123
▁مروان	-11.0124
▁منازع	-11.0129
iste	-11.0134
▁دمتم	-11.0137
▁جدتي	-11.0137
مصحف	-11.0137
تفائل	-11.0138
▁يدعم	-11.014
ابتسامة	-11.0144
طئ	-11.0146
▁سلف	-11.0152
▁الخاتمة	-11.0155
▁ببعض	-11.0157
▁يشري	-11.016
ref	-11.0169
خرب	-11.017
▁أبناء	-11.0174
▁طلعولي	-11.0181
▁تنصحني	-11.0182
غاض	-11.0182
▁العيب	-11.0183
▁مشاءالله	-11.0188
▁🤲❤️	-11.0189
▁احتمال	-11.0193
▁Kada	-11.0197
▁belle	-11.0202
▁الحلال	-11.0203
▁الكلب	-11.0209
▁قاعدين	-11.0215
▁عسى	-11.0217
54	-11.0224
▁بيضاء	-11.0226
▁الاختبار	-11.0226
▁فركوس	-11.0228
▁حياتو	-11.0228
▁المرسلين	-11.0228
▁الظاهرة	-11.023
ساعات	-11.0231
bre	-11.0231
آب	-11.0231
▁والسنة	-11.0233
▁haja	-11.0235
▁الشديد	-11.0236
▁شرعية	-11.024
▁الألم	-11.024
😤	-11.0246
▁نوفمبر	-11.0246
▁قوانين	-11.0246
▁مسابقة	-11.0247
▁الضمير	-11.0248
▁مديت	-11.0251
▁عجوز	-11.0255
▁الردود	-11.0257
▁بالصح	-11.0259
▁لناس	-11.0263
▁شهداء	-11.0266
▁السبت	-11.0267
▁الباطل	-11.027
▁فالليل	-11.0272
برنامج	-11.0275
▁سامي	-11.0276
▁ينصح	-11.0278
▁أعطى	-11.0282
▁الفيزياء	-11.0283
إحترام	-11.0283
▁فالجزائر	-11.0286
▁الطالب	-11.0286
▁الحجر	-11.0287
خيل	-11.0288
▁يسما	-11.0291
رياض	-11.0292
▁wch	-11.0293
▁احتاج	-11.0295
▁مادرت	-11.0295
حشر	-11.0299
تفاؤل	-11.0301
▁sont	-11.0302
▁الفضيل	-11.0302
▁معرض	-11.0303
▁نوصلو	-11.0306
▁مرضى	-11.0309
العياذ	-11.031
▁👍🏻	-11.0324
▁ونقه	-11.0326
▁تتزوج	-11.0328
بغيت	-11.0328
▁اللحظة	-11.0338
▁ميمونة	-11.0339
▁لعباسية	-11.0339
▁إليكم	-11.0341
▁ابناء	-11.0342
▁الخطاب	-11.035
أكد	-11.0354
26	-11.0355
▁الخروج	-11.0357
▁السادس	-11.0358
ilna	-11.0364
▁رواد	-11.0364
▁كنز	-11.0368
بلد	-11.037
▁التمرين	-11.0376
▁الجنان	-11.0391
تمتع	-11.0393
▁ضيوف	-11.0395
▁meme	-11.0397
▁السجن	-11.0397
▁ممل	-11.0398
▁Na	-11.0401
▁اخرج	-11.0403
ouli	-11.0406
▁حللت	-11.0406
▁دينار	-11.0411
▁المعروف	-11.0413
▁قرات	-11.0414
▁اسباب	-11.0415
▁مروة	-11.0416
الدنيا	-11.0418
▁حار	-11.0423
▁دات	-11.0424
▁۞	-11.0426
▁Nch	-11.0432
▁votre	-11.0432
▁رقا	-11.0432
▁ورعاك	-11.0434
▁يسترنا	-11.0436
▁مرتب	-11.0445
▁لأهل	-11.0446
▁تحفة	-11.0447
▁مؤتمر	-11.0448
ثمار	-11.0457
▁سورتو	-11.0459
▁تلخيص	-11.0461
▁نمد	-11.0461
▁الأسبوع	-11.0469
▁صدفة	-11.0469
▁استر	-11.0476
▁كذاب	-11.0477
▁عطر	-11.0482
▁الخميس	-11.0482
▁النعم	-11.0487
erie	-11.0488
٩	-11.0488
😟	-11.0488
▁السمانة	-11.0491
▁صديقتي	-11.0494
فروض	-11.0495
معصية	-11.0496
جذب	-11.0497
اؤه	-11.0499
▁who	-11.0503
غيث	-11.0504
▁السوق	-11.0505
▁Fi	-11.0505
▁more	-11.0505
09	-11.0505
▁psq	-11.0507
▁القناص	-11.0508
▁kayn	-11.0513
▁البدي	-11.0514
iba	-11.0514
▁الجانب	-11.0514
lach	-11.0515
عيب	-11.0517
▁قلتلها	-11.0519
تحليل	-11.0522
▁رونالدو	-11.0526
🐧	-11.0526
▁الطبيعة	-11.0527
65	-11.053
▁الصالحات	-11.053
▁نبدل	-11.053
▁2014	-11.053
▁تنفع	-11.053
▁البطريق	-11.0534
▁جايب	-11.0536
▁اجعلني	-11.0538
▁فهموني	-11.0541
▁المسلسلات	-11.0542
▁مابرح	-11.0546
▁الأمن	-11.0547
▁يتحرك	-11.055
▁2015	-11.055
▁ورحت	-11.0552
▁اعمال	-11.0555
▁المريض	-11.0557
إلى	-11.0557
▁فرينة	-11.0561
▁خبز	-11.0561
▁kont	-11.0564
مليح	-11.0564
▁Toop	-11.0564
▁اللطيف	-11.0566
▁ونتوما	-11.0566
▁البصر	-11.0566
▁rahi	-11.0568
▁سقسيت	-11.0568
▁التألق	-11.0571
▁طري	-11.0571
تربية	-11.0581
IS	-11.0582
تاجر	-11.0583
▁حامل	-11.0586
▁تتحرك	-11.0587
▁مررت	-11.0591
▁اليتيم	-11.0592
▁نستعرف	-11.0593
▁ندور	-11.0594
bat	-11.0599
▁الورق	-11.0601
▁التفكير	-11.0602
▁hommes	-11.0602
▁النعيم	-11.0602
رخس	-11.0602
▁Si	-11.0603
▁ارفع	-11.0606
▁تضيع	-11.0606
▁جريمة	-11.0607
روج	-11.0609
▁اربعين	-11.0609
▁حجة	-11.0623
▁واغسله	-11.0623
صادف	-11.0626
▁الهدى	-11.0635
▁الصغر	-11.0637
▁عاشق	-11.0637
▁انجليزية	-11.0637
زوز	-11.0639
▁شمال	-11.064
خرائط	-11.064
▁الوسط	-11.064
▁غبي	-11.0642
0%	-11.0644
▁الراب	-11.0648
pos	-11.0651
let	-11.0652
chof	-11.0658
▁للفيديو	-11.0659
▁الرجاء	-11.066
▁حوست	-11.066
▁شكيت	-11.0668
▁الحجاب	-11.0668
▁يوسع	-11.0674
▁نبدأ	-11.0676
▁أكرم	-11.0677
🏽	-11.0678
▁غاضتني	-11.0678
▁رحلة	-11.0679
▁البطاقة	-11.068
▁سماح	-11.0685
▁rida	-11.0686
▁بكثير	-11.0689
▁300	-11.0697
▁مانقدرش	-11.0698
▁المدارس	-11.0699
rabi	-11.0699
▁يسرق	-11.0701
صغير	-11.0703
تردد	-11.0705
▁توفر	-11.0706
▁إبن	-11.0707
▁مراحش	-11.0707
أسئلتك	-11.0712
▁exp	-11.0714
▁والعمل	-11.0715
💫	-11.0717
amine	-11.0717
نعكاس	-11.0719
▁مريح	-11.0723
▁الشافي	-11.0725
▁stp	-11.0729
▁live	-11.0734
▁بلماضي	-11.0736
▁what	-11.0737
▁يقع	-11.0746
▁الحسنات	-11.075
▁سجين	-11.0751
رائع	-11.0755
▁المبذول	-11.0756
▁حضرت	-11.0756
▁مساكن	-11.0759
ouni	-11.0761
▁نشارك	-11.0763
▁وآله	-11.0764
جبار	-11.0764
▁القدير	-11.0765
▁عودتك	-11.0767
▁القراية	-11.0771
▁المحبة	-11.0772
bel	-11.0773
😚	-11.0775
▁ركلط	-11.0775
▁ياسمين	-11.0777
▁الياس	-11.0778
▁الذات	-11.0778
▁القريب	-11.0779
▁سوجيات	-11.0783
ستاذ	-11.0785
pres	-11.0788
▁السير	-11.0801
▁أخيرا	-11.0803
▁نمشي	-11.0805
▁العادي	-11.0808
ستفسار	-11.0812
▁ويعافيك	-11.0814
▁الرياضة	-11.0814
▁الحار	-11.0816
▁والفلسفة	-11.0823
LE	-11.0824
▁لكبير	-11.0826
▁مباشر	-11.0827
مساعد	-11.083
▁baba	-11.0833
▁مولات	-11.0833
▁عقول	-11.0833
▁سألت	-11.0836
▁nchof	-11.0838
▁لحكاي	-11.0838
▁البلاء	-11.0843
▁المحترم	-11.0844
▁بالفعل	-11.0855
▁يعينك	-11.0855
46	-11.0866
▁محدد	-11.0868
عنوان	-11.0869
▁بالمنتدى	-11.0871
خار	-11.0872
▁السماوات	-11.0872
▁والمغفرة	-11.0872
شرع	-11.0874
▁الوصفات	-11.0875
ضعاف	-11.0875
▁نعوض	-11.0879
▁Zid	-11.0881
▁ويوفقنا	-11.0883
▁يحصل	-11.0886
▁الماسونية	-11.0892
٨	-11.0892
▁ostad	-11.0892
▁أولى	-11.0893
▁متوقع	-11.0897
سرد	-11.0898
غلى	-11.0899
غرق	-11.0904
▁المسؤول	-11.0905
▁Win	-11.0907
ثمر	-11.0908
👎	-11.0912
▁بليغ	-11.0913
▁مضمون	-11.0916
▁فقير	-11.092
▁He	-11.0924
▁pri	-11.0927
▁دائم	-11.0931
▁الطلاب	-11.0932
▁وسائل	-11.0933
ثنائي	-11.0934
تشابه	-11.0935
كيما	-11.0938
▁والثاني	-11.094
▁😂💔	-11.0942
▁fois	-11.0951
▁استضافة	-11.0952
▁الرقاد	-11.0955
▁متفق	-11.0958
ast	-11.0963
▁فاشل	-11.0967
عظيم	-11.0969
تساؤل	-11.0971
أرجو	-11.0973
LO	-11.0975
▁ايجابي	-11.0978
▁mchi	-11.0986
ther	-11.0986
▁جنانك	-11.0992
ستسلم	-11.0993
▁rap	-11.0994
▁say	-11.0994
تطوير	-11.0997
▁ادمان	-11.0999
▁فضول	-11.0999
▁مختص	-11.0999
▁بتس	-11.1005
▁mlih	-11.1008
▁insta	-11.1012
قبايل	-11.1015
▁نتمنالك	-11.1015
▁اكرام	-11.1016
حمار	-11.1016
ture	-11.1026
▁حياتهم	-11.1028
▁تواريخ	-11.103
🖤🖤	-11.1033
▁ذرية	-11.1033
▁Bonne	-11.1033
▁سميت	-11.1041
كسيو	-11.1043
▁الحروف	-11.1044
مستشفى	-11.1052
▁حان	-11.1052
▁الصغار	-11.1053
خميس	-11.1054
▁التفاصيل	-11.1058
تلاميذ	-11.1059
نجلي	-11.106
▁الكفر	-11.1062
▁سقسي	-11.1064
اؤك	-11.1067
awd	-11.1069
▁دزيري	-11.1072
مطالعة	-11.1075
▁الاختبارات	-11.1076
lich	-11.1079
▁العموم	-11.1081
▁واكثر	-11.1085
▁جبد	-11.1085
stor	-11.1086
▁ولهذا	-11.1087
عزيز	-11.1091
▁وتقدير	-11.1092
▁نخلص	-11.1095
▁ضروري	-11.1097
lem	-11.1101
▁hadak	-11.1101
YA	-11.1104
اكيد	-11.1109
▁الكتروني	-11.111
▁تتحدث	-11.111
▁كورونا	-11.1111
▁المباشر	-11.1111
▁تفصلنا	-11.1111
▁تهد	-11.1112
▁شاكر	-11.1115
▁==	-11.1116
▁ولماذا	-11.112
▁متتبع	-11.1121
▁التلخيص	-11.1128
▁مسحور	-11.1132
▁يحكو	-11.1133
مرحبا	-11.114
▁ابواب	-11.115
🤬	-11.115
▁sujet	-11.115
▁رؤية	-11.1152
▁يوتوبر	-11.1152
▁تنتهي	-11.1154
العباسية	-11.1154
▁hadik	-11.1155
▁المنام	-11.1167
☝	-11.1171
مبادئ	-11.1172
باع	-11.1182
▁المروك	-11.1191
🎓	-11.1191
سرق	-11.1195
تصور	-11.1202
▁شبعت	-11.1203
عيط	-11.1204
▁خواف	-11.1208
▁ماتتمنا	-11.1212
▁والأرض	-11.1219
62	-11.1223
▁كرب	-11.1225
▁وعافه	-11.1228
أصحاب	-11.1231
▁وهذي	-11.1233
▁ريان	-11.1234
▁نقرأ	-11.1235
خيف	-11.1237
▁حصلت	-11.124
▁شرق	-11.125
bac	-11.1255
ستمع	-11.1255
مقارنة	-11.1258
▁ينزل	-11.126
▁المنتديات	-11.1272
▁2027	-11.1274
▁تشوك	-11.1274
جتاز	-11.1277
▁أسامة	-11.1277
▁sra	-11.1282
▁بحال	-11.1282
▁الكوزينة	-11.1293
▁تنسي	-11.13
▁المخدرات	-11.1301
نقص	-11.1305
AB	-11.1307
▁اعوذ	-11.1307
form	-11.1307
▁histoires	-11.1312
▁بحيث	-11.1313
▁jdid	-11.1314
▁اوقات	-11.1319
▁الغد	-11.1322
▁خرجتلي	-11.1322
خارج	-11.1324
bghi	-11.1326
▁الشخصيات	-11.1331
زداد	-11.1333
▁نرمال	-11.1334
ign	-11.1335
▁راضية	-11.1339
لقراية	-11.1341
dia	-11.1346
▁كرسي	-11.1347
▁الابداع	-11.1356
▁قصيدة	-11.1357
▁وعليك	-11.1361
▁دعولنا	-11.1372
AS	-11.1373
▁الضعيف	-11.1375
▁الاتصال	-11.1376
▁chbab	-11.1376
▁ju	-11.1386
▁المونتاج	-11.1395
▁بترقيم	-11.1395
▁تبغي	-11.1398
▁ida	-11.1401
خسار	-11.1409
ظاف	-11.1409
▁هشام	-11.1416
▁يحفظلك	-11.1417
▁vie	-11.1418
▁فهنا	-11.1418
▁أغفر	-11.1419
لصق	-11.1421
▁جوار	-11.1426
▁تووب	-11.1427
▁ونزيد	-11.143
▁تيمية	-11.1439
▁توسوست	-11.144
▁الصمد	-11.1444
كاتب	-11.1444
سوجي	-11.1447
ity	-11.1451
▁مخالف	-11.1461
حفيظ	-11.1462
😡	-11.1478
ô	-11.1478
ute	-11.1483
طرطق	-11.1484
▁كتل	-11.1486
▁شروط	-11.1489
▁Il	-11.1495
▁غامل	-11.1497
▁rendu	-11.1499
jou	-11.15
▁عقوبة	-11.1503
▁خلعتني	-11.1504
ème	-11.1512
تذكير	-11.152
par	-11.152
▁brother	-11.152
▁الاشياء	-11.152
▁BAC	-11.1521
أولاد	-11.1524
▁المهنة	-11.1525
▁كعب	-11.1526
▁اقترح	-11.1527
▁شايف	-11.1534
▁ليكيب	-11.1537
ضارب	-11.1537
▁آلله	-11.1539
😪	-11.1541
▁الأشخاص	-11.1541
▁النقاط	-11.1541
▁ميساج	-11.1541
▁mrc	-11.1543
▁<3	-11.1547
▁En	-11.1547
▁إجعل	-11.1551
▁ابداع	-11.1553
▁المسؤولية	-11.1554
▁الشق	-11.1558
▁التركيز	-11.1562
▁زاوج	-11.1562
نجليزي	-11.1571
ust	-11.1575
أتمنى	-11.1575
▁كاد	-11.1581
🥴	-11.1583
▁الأحياء	-11.1583
▁Nta	-11.1588
خدمت	-11.1589
▁تحكيلنا	-11.1605
▁توصيل	-11.1609
▁المجرم	-11.1613
▁متمكن	-11.1613
eme	-11.1615
▁يبغي	-11.1616
▁تالمو	-11.1617
▁الغرض	-11.1621
▁تنقص	-11.1624
▁وإياكم	-11.1624
🤢	-11.1625
▁قهوة	-11.1625
▁مجهر	-11.1626
▁يوتيوبرز	-11.1631
nich	-11.1631
اهداف	-11.1631
موند	-11.1634
حركات	-11.1639
إيمان	-11.1652
أسف	-11.1655
▁يلقاو	-11.1655
▁الشاوية	-11.1659
▁زيرو	-11.1659
💐	-11.1667
▁كوميدي	-11.1667
▁مفتاح	-11.1667
خجل	-11.1672
حاس	-11.1677
▁الوصول	-11.1678
▁الفائدة	-11.1682
ستوعب	-11.1682
▁اقرأ	-11.1683
▁bcp	-11.1689
▁Lah	-11.1691
مجتمع	-11.1692
▁لأخي	-11.1692
▁وايضا	-11.1698
RI	-11.1702
▁hka	-11.1703
طيع	-11.1704
58	-11.1704
ici	-11.1708
▁الاتحاد	-11.171
▁حنونة	-11.1711
▁faire	-11.1717
▁pré	-11.1717
▁جزايري	-11.172
▁ادبيين	-11.1721
▁تركيب	-11.1725
▁koul	-11.1726
ᅠ	-11.1731
▁abonné	-11.1731
▁podcast	-11.1731
▁محروم	-11.1731
خاتم	-11.1734
▁يوافق	-11.1737
نصب	-11.1739
توافق	-11.1739
▁رشح	-11.174
▁فنحن	-11.1752
٧	-11.1752
▁جنوب	-11.1753
اساتذة	-11.1756
▁انتبه	-11.1765
▁❤️🔥	-11.1767
علابالي	-11.1768
عائلته	-11.1773
▁please	-11.1774
🫂	-11.1774
▁اسماعيل	-11.1774
▁طهور	-11.1776
▁chikh	-11.1777
▁عسل	-11.1778
▁صبرينة	-11.1779
▁لعند	-11.178
▁حلقات	-11.1781
▁الشطر	-11.1783
▁ويسهل	-11.1784
▁ميمتك	-11.1784
😁😁	-11.1789
DA	-11.1791
▁ترم	-11.1795
▁content	-11.1796
AK	-11.1798
▁الايمان	-11.1798
▁الموقف	-11.18
▁الإجتماعي	-11.18
🙂🙂	-11.1805
عياط	-11.1807
▁المساء	-11.1811
▁نستطيع	-11.1816
▁بورنان	-11.1817
▁النمط	-11.1817
▁مهجر	-11.1821
▁الطويل	-11.1822
▁الخضر	-11.1828
▁الحوار	-11.1835
▁chikour	-11.1838
▁يالطيف	-11.1838
▁ندعيلك	-11.1839
▁الأسود	-11.184
/10	-11.1844
عائلة	-11.1855
▁التفسير	-11.1861
▁نعاون	-11.1861
فرط	-11.1869
▁استغفرالله	-11.1875
▁الصوالح	-11.1881
▁ڤاع	-11.1882
اكتوبر	-11.1884
ردود	-11.1887
مجموع	-11.1889
نتمنا	-11.189
▁المسيح	-11.1895
-----	-11.19
bab	-11.19
🇦	-11.1903
▁صعوبة	-11.1903
▁النقاش	-11.1903
▁لهاذ	-11.1906
تحمس	-11.1909
▁ولجميع	-11.1911
▁وزارة	-11.1912
▁hado	-11.1917
dro	-11.192
▁عجبوني	-11.1922
ائكم	-11.1922
▁aussi	-11.1926
▁ورقلة	-11.1927
▁عذرا	-11.1927
▁دراري	-11.193
▁2010	-11.1932
cour	-11.1944
▁فنان	-11.1946
▁المبادرة	-11.1947
▁خيار	-11.1949
😎😎	-11.1956
him	-11.1958
▁ذكي	-11.1965
محبوب	-11.1967
▁بكثرة	-11.1971
▁2017	-11.1974
▁عبيد	-11.198
فضفض	-11.1981
نحن	-11.1985
🤮	-11.199
⬆️	-11.1991
▁شجرة	-11.1991
▁الميلاد	-11.1991
▁موراها	-11.1996
ستنتج	-11.1997
▁التوحيد	-11.2009
تعايش	-11.2009
ہ	-11.2012
▁طبيعة	-11.2016
▁الخبز	-11.2017
▁وندخل	-11.202
▁لأجل	-11.2024
▁استطعت	-11.2035
▁طايح	-11.2048
▁ننصح	-11.2054
❎	-11.2056
شعور	-11.2058
▁العاقبة	-11.2058
▁عصا	-11.2072
▁بومرداس	-11.2078
▁مؤخرا	-11.208
لحد	-11.2083
▁شكوبي	-11.2084
fdk	-11.2085
ذوب	-11.2094
▁تقرى	-11.2094
غمض	-11.2094
زكاة	-11.2099
▁ننصحكم	-11.2099
▁كرام	-11.2101
▁الحكومة	-11.2101
▁يتغمد	-11.2101
نتخابات	-11.2101
رابط	-11.2101
يعطيك	-11.2123
▁المتحدة	-11.2145
▁فهذ	-11.2153
▁ياجدك	-11.2155
ماريكان	-11.2162
▁خليف	-11.2166
🇵	-11.2167
▁السبع	-11.2169
▁الدجال	-11.217
▁غاع	-11.2171
ID	-11.2175
▁حمدالله	-11.2177
▁طحت	-11.2178
▁khawti	-11.219
تنازل	-11.2191
▁مقرر	-11.2194
▁الطاقة	-11.2202
▁صراع	-11.2205
▁🫶🏻	-11.2212
▁تحفيز	-11.2212
رخيص	-11.2214
▁منظمة	-11.2216
▁ندعمو	-11.2218
فسح	-11.2222
▁هاايل	-11.2225
تعليل	-11.2231
▁اخترت	-11.2233
سجود	-11.2235
▁بكلوريا	-11.2237
▁😂🤣	-11.2239
بالتوفيق	-11.2243
منتج	-11.2245
▁فارس	-11.2248
رقص	-11.2249
▁بالتفصيل	-11.2257
▁ويجازيك	-11.2257
▁إخوتي	-11.2257
▁كبيير	-11.2257
▁الدجاج	-11.2259
▁اتفق	-11.2264
▁will	-11.2268
▁طاعة	-11.2271
▁المستحيل	-11.2276
قاس	-11.2277
▁متقدرش	-11.228
2021	-11.228
▁مصادر	-11.2281
▁sahbi	-11.2284
أربع	-11.2293
▁شخصيتك	-11.2293
▁الوعي	-11.2294
▁واجد	-11.2299
▁رادكس	-11.2302
TI	-11.2304
adore	-11.2305
عتماد	-11.2306
▁وسيلة	-11.2311
▁طفو	-11.2319
▁know	-11.2324
▁الأسباب	-11.2329
▁سامط	-11.233
لسان	-11.2335
▁الماتش	-11.2338
▁اخطيك	-11.2338
عياد	-11.2342
▁عملاق	-11.2347
▁عفايس	-11.2347
▁سفيان	-11.2347
خفض	-11.2348
▁dok	-11.2353
▁dert	-11.2355
▁alger	-11.2362
▁شالله	-11.2363
▁كراس	-11.2366
▁njib	-11.2368
▁🌹🌹	-11.2372
▁صورت	-11.2373
؟؟!!	-11.2385
مسؤول	-11.2387
vé	-11.2393
▁تأثير	-11.2394
▁واياكم	-11.2398
طوب	-11.2398
دكر	-11.2399
▁يلد	-11.2399
▁مالقري	-11.241
▁امير	-11.2411
▁luck	-11.2416
▁about	-11.2417
▁احوال	-11.2417
▁سوريا	-11.2438
▁حمدلله	-11.244
رخص	-11.244
وهران	-11.2444
▁يتيم	-11.2445
▁اقتراح	-11.245
cor	-11.2452
▁قرينة	-11.2452
▁الجلال	-11.2455
ster	-11.246
▁دوزيام	-11.2461
▁منتدانا	-11.2462
▁التحرير	-11.2462
▁النجمة	-11.2463
▁trop	-11.2463
▁طعام	-11.2471
▁لهجة	-11.2473
▁البركة	-11.2474
▁شلف	-11.2477
▁التصحيح	-11.2478
kayat	-11.2481
▁سفر	-11.2483
🇲	-11.2484
▁chwiya	-11.2484
▁وبالتالي	-11.2486
▁مخلوع	-11.2493
▁القوي	-11.2493
▁كاب	-11.2502
▁إحد	-11.2505
😠	-11.2507
▁محمود	-11.2508
▁سلاام	-11.2519
▁الغنية	-11.2519
▁رحمته	-11.2529
▁الغرفة	-11.2531
histoire	-11.2534
▁تحطلنا	-11.2539
▁ويوفق	-11.2544
OM	-11.2553
▁متخافش	-11.2554
▁مفيهاش	-11.2554
2020	-11.2554
▁وعافية	-11.2556
▁عطيت	-11.2556
▁اقوى	-11.2558
تشويق	-11.2563
dent	-11.2571
أدلة	-11.2574
▁سجن	-11.2577
▁الشيعة	-11.2579
▁ديار	-11.2579
tfrj	-11.2584
تلاقا	-11.2586
غافل	-11.2589
▁🤣😂	-11.2589
▁YouTube	-11.26
▁الاعلان	-11.2602
▁الجهاد	-11.2603
نتبه	-11.2605
طلح	-11.2606
▁الابيض	-11.2616
▁اختاه	-11.2616
حظر	-11.2619
▁إستمر	-11.2622
▁film	-11.263
▁اتجاه	-11.2635
▁اخوان	-11.2639
444	-11.2642
▁Algeria	-11.2647
رمل	-11.2649
▁yhfdk	-11.2654
▁زميل	-11.2655
▁الوفاء	-11.2661
▁العروس	-11.267
▁مخدوم	-11.2673
▁الكف	-11.2676
أذكار	-11.2676
▁قوقل	-11.268
ful	-11.2682
▁pub	-11.269
▁نحكيهالك	-11.2696
▁مغرف	-11.2698
195	-11.2701
▁غائب	-11.2706
إسرائيل	-11.2717
▁غاضني	-11.2718
▁رخصة	-11.2719
▁حافض	-11.2722
▁فراغ	-11.2724
▁رامي	-11.2732
▁جدل	-11.2739
🤧	-11.2741
▁العلاقات	-11.2741
▁رؤوس	-11.2741
▁اللايف	-11.2742
💔💔	-11.2756
نطلق	-11.2759
▁ديسمبر	-11.2764
▁فجأة	-11.2764
▁لطالما	-11.2765
▁عائلتي	-11.2765
▁خميرة	-11.2765
▁أنفسهم	-11.2765
▁nchalah	-11.2765
تمسخير	-11.2769
▁القرأن	-11.2771
▁كترلنا	-11.2775
تحديد	-11.2777
▁twa	-11.2782
▁🥺❤️	-11.2783
عهد	-11.2787
▁قروب	-11.2806
▁مليئ	-11.2808
▁ميمحو	-11.2813
كومونتي	-11.2813
▁مصطلح	-11.2825
▁وكالة	-11.2828
▁قااع	-11.2828
عتق	-11.2829
💩	-11.2836
IL	-11.2836
ستراتيجي	-11.2836
الشيخ	-11.2837
▁سيئة	-11.284
مرانيش	-11.284
▁بلايلي	-11.2842
▁إمام	-11.2843
▁macha	-11.2843
▁القصاص	-11.2844
▁المسيلة	-11.2844
▁والجغرافيا	-11.2847
▁الخلعة	-11.2855
▁للمسلمين	-11.286
▁مذكور	-11.286
▁مارانيش	-11.2861
▁عاكف	-11.2861
▁القبائل	-11.2862
▁صدمة	-11.2864
▁والادراك	-11.2865
▁حفضك	-11.2873
▁app	-11.2874
▁عيون	-11.2881
▁faut	-11.2882
▁الوثائق	-11.2883
▁جيران	-11.2886
▁تجريبي	-11.2888
▁ثوب	-11.289
عطف	-11.2901
متابعة	-11.2905
▁commentaire	-11.2908
حلقة	-11.2916
😘😘	-11.2919
▁الشمال	-11.2926
OR	-11.2931
▁story	-11.2932
▁اشخاص	-11.2935
▁فندق	-11.2935
▁pu	-11.2936
▁العبارة	-11.2936
▁خلل	-11.2938
333	-11.2946
▁150	-11.2949
▁Good	-11.2956
▁روابط	-11.2956
▁nchouf	-11.2956
▁رأى	-11.2956
▁🥹🥹	-11.296
تثبيت	-11.297
ستهزا	-11.2979
▁français	-11.298
▁دعيولي	-11.298
▁أحلى	-11.2983
🤔🤔	-11.2991
▁imp	-11.2992
▁hiya	-11.2992
▁رغيس	-11.3004
مبروك	-11.3005
▁وننجحو	-11.3006
علاقة	-11.3006
BA	-11.3014
▁امراة	-11.3014
ساند	-11.3015
🧐	-11.3028
▁texte	-11.3028
▁والمسلمين	-11.3028
▁تقييم	-11.3029
▁Qu	-11.3032
▁الزهريين	-11.3034
▁مدريد	-11.304
▁الجسم	-11.3046
جائزة	-11.3053
▁OK	-11.3057
▁الرأس	-11.3062
▁need	-11.3068
▁عزوجل	-11.3077
▁احتراماتي	-11.3081
▁قضيت	-11.3085
قتنع	-11.3085
▁خضر	-11.3092
▁First	-11.3101
▁بعودتك	-11.3103
▁ذكريات	-11.3106
▁القاضي	-11.3106
▁2018	-11.3107
▁الخلل	-11.3123
مفهوم	-11.3125
▁jamais	-11.3126
🙁	-11.3126
▁عسكري	-11.3131
▁تيزي	-11.3133
▁علبالي	-11.3134
▁الحميد	-11.3136
▁أحببت	-11.3143
😆😆	-11.3151
☹️	-11.3151
▁وخلا	-11.3154
▁فهاذ	-11.3168
عرق	-11.3175
✋	-11.3175
🔪	-11.3175
▁الميسوم	-11.3175
▁باختصار	-11.3179
أهداف	-11.318
▁الاختيار	-11.3181
نفذ	-11.3185
▁غفور	-11.3185
🤗🤗	-11.3186
▁الفقه	-11.3193
·	-11.32
▁مليكانا	-11.32
AT	-11.32
▁Bro	-11.3201
▁تحمست	-11.3202
▁مصيبة	-11.3204
gram	-11.3205
IR	-11.3207
▁بانتلي	-11.3209
قفل	-11.3219
▁لنفسه	-11.3224
💎	-11.3224
▁الوزارة	-11.3225
▁النشاط	-11.3225
بدء	-11.3227
▁سلس	-11.3227
▁لمرورك	-11.3228
اعتقاد	-11.323
▁للأم	-11.3232
▁البشير	-11.3233
▁dyal	-11.3233
▁عيباد	-11.3239
▁جازاك	-11.3245
▁👌👌	-11.3252
▁Saha	-11.3252
▁تجارب	-11.3252
tour	-11.3254
▁ممبعد	-11.3257
تنساوش	-11.3266
▁المواطن	-11.3275
▁درينا	-11.3278
▁الدلالي	-11.3281
▁وأدخله	-11.3285
▁العرس	-11.3285
▁أمسى	-11.3294
إخوان	-11.3299
▁تليفون	-11.33
زايد	-11.3303
تسيير	-11.331
▁خطوات	-11.331
▁فشلت	-11.3313
▁الأسرة	-11.3316
▁العبرة	-11.3324
▁ثلث	-11.3324
▁حلق	-11.3325
▁المدائح	-11.3325
▁دراستي	-11.3325
سيزيام	-11.3327
▁كائن	-11.3331
▁يقرو	-11.3334
▁قست	-11.3336
خماج	-11.334
👊	-11.3349
▁التلفاز	-11.3349
▁اللجنة	-11.3349
▁(1/	-11.3355
▁بالمعروف	-11.3357
▁القضاء	-11.3361
تطبيق	-11.3365
▁Hada	-11.3366
▁لأحد	-11.3371
▁العاص	-11.3375
▁سررت	-11.3375
ظروف	-11.3377
▁المنتخب	-11.3379
▁700	-11.3385
غالط	-11.3393
؟؟!	-11.3399
/30	-11.3401
likom	-11.3403
KH	-11.3415
😵	-11.3425
▁الحاسوب	-11.3425
▁very	-11.3426
▁رداكس	-11.3429
▁عساس	-11.3434
▁الراحة	-11.3446
▁المرحوم	-11.3451
▁منحسش	-11.3453
▁خياتي	-11.346
▁بعضاهم	-11.3461
▁صفحت	-11.3462
👏👏	-11.347
ED	-11.3473
▁bzzf	-11.3475
▁تشغيل	-11.3476
▁مواقف	-11.3477
▁اكتشفت	-11.3478
▁العادات	-11.3478
▁العلاج	-11.3483
▁السريع	-11.3486
▁🥺💔	-11.3493
khra	-11.3498
▁الكيبوب	-11.3501
▁فوبيا	-11.3502
😇😇	-11.3513
رشاد	-11.3516
▁الكبار	-11.352
علابالو	-11.3521
hum	-11.3523
خطوط	-11.3525
▁الوحدات	-11.3527
وفقنا	-11.3532
▁وكتا	-11.3534
طراف	-11.3545
بالنسبة	-11.3547
NE	-11.3549
مستوى	-11.355
▁الانحياز	-11.3552
▁مبديتش	-11.3552
رجنتين	-11.3552
فرماج	-11.3564
▁صدور	-11.3569
احلى	-11.3571
▁direct	-11.3575
▁دزايكو	-11.3578
▁make	-11.3584
▁الربيع	-11.3586
خيط	-11.359
▁دجاج	-11.3593
▁القبور	-11.3602
▁king	-11.3602
liya	-11.3603
▁راكليتا	-11.3603
▁والسداد	-11.3605
▁فرعون	-11.3607
▁والتسامح	-11.361
▁تشوكيت	-11.3611
▁جودة	-11.3611
▁partie	-11.3618
صراحة	-11.3622
▁نيمو	-11.3627
▁الجريمة	-11.3631
مدارس	-11.3634
▁كوكب	-11.3636
▁ديز	-11.3643
▁أحوال	-11.3646
▁حجم	-11.365
ختصار	-11.3651
حسيت	-11.3651
▁epson	-11.3655
▁time	-11.3657
▁المستقيم	-11.3658
قبيل	-11.3668
أصل	-11.3672
▁2008	-11.3673
▁Love	-11.3681
▁ماكنتش	-11.3682
▁المرعبة	-11.3682
▁راءع	-11.3683
ميكانيك	-11.3683
صبع	-11.3687
▁hed	-11.3688
oire	-11.3702
▁النسب	-11.3708
olna	-11.372
جمد	-11.3723
رافق	-11.3724
زائر	-11.3724
🤎	-11.3811
î	-11.3811
ۚ	-11.3811
🇸	-11.3811
🌝	-11.3891
{	-11.3945
✔	-11.3995
🐸	-11.4105
ۖ	-11.4159
🕋	-11.4214
💟	-11.4268
🧡	-11.4324
❣	-11.4377
§	-11.4379
‌	-11.4407
⚡	-11.4519
👈	-11.4519
٫	-11.4547
🌟	-11.4547
🙆	-11.4576
🔴	-11.4633
🤓	-11.469
É	-11.4719
✊	-11.4834
😲	-11.4893
🫠	-11.5011
🌙	-11.513
😝	-11.5281
🤫	-11.5311
٪	-11.5621
👹	-11.5653
|	-11.5683
—	-11.5716
👩	-11.5812
😿	-11.5812
🤪	-11.5844
@	-11.5847
💃	-11.5877
🍯	-11.5909
🙈	-11.6072
🇧	-11.6139
🕊	-11.6205
😙	-11.6239
💘	-11.6373
🤏	-11.6407
🥶	-11.6407
🌿	-11.6442
�	-11.6545
😯	-11.6719
↖	-12.0625
–	-12.2472
☹	-12.3844
û	-12.3845
☠	-12.4435
▪	-12.582
﴿	-12.8581
‬	-12.8581
♀	-13.0813
♂	-13.1874
‪	-13.3084
“	-13.3458
⬆	-13.4408
💨	-13.441
۞	-13.5339
🇿	-14.0838
