{
  "version": "1.0",
  "truncation": null,
  "padding": null,
  "added_tokens": [
    {
      "id": 0,
      "content": "<pad>",
      "single_word": false,
      "lstrip": false,
      "rstrip": false,
      "normalized": false,
      "special": true
    },
    {
      "id": 2,
      "content": "<s>",
      "single_word": false,
      "lstrip": false,
      "rstrip": false,
      "normalized": false,
      "special": true
    },
    {
      "id": 3,
      "content": "</s>",
      "single_word": false,
      "lstrip": false,
      "rstrip": false,
      "normalized": false,
      "special": true
    }
  ],
  "normalizer": {
    "type": "Sequence",
    "normalizers": [
      {
        "type": "Strip",
        "strip_left": false,
        "strip_right": true
      },
      {
        "type": "Replace",
        "pattern": {
          "Regex": " {2,}"
        },
        "content": "▁"
      }
    ]
  },
  "pre_tokenizer": {
    "type": "Metaspace",
    "replacement": "▁",
    "prepend_scheme": "always",
    "split": true
  },
  "post_processor": null,
  "decoder": {
    "type": "Sequence",
    "decoders": [
      {
        "type": "Metaspace",
        "replacement": "▁",
        "prepend_scheme": "always",
        "split": true
      },
      {
        "type": "ByteFallback"
      },
      {
        "type": "Fuse"
      }
    ]
  },
  "model": {
    "type": "Unigram",
    "unk_id": 1,
    "vocab": [
      [
        "<pad>",
        0.0
      ],
      [
        "<unk>",
        0.0
      ],
      [
        "<s>",
        0.0
      ],
      [
        "</s>",
        0.0
      ],
      [
        "<0x00>",
        0.0
      ],
      [
        "<0x01>",
        0.0
      ],
      [
        "<0x02>",
        0.0
      ],
      [
        "<0x03>",
        0.0
      ],
      [
        "<0x04>",
        0.0
      ],
      [
        "<0x05>",
        0.0
      ],
      [
        "<0x06>",
        0.0
      ],
      [
        "<0x07>",
        0.0
      ],
      [
        "<0x08>",
        0.0
      ],
      [
        "<0x09>",
        0.0
      ],
      [
        "<0x0A>",
        0.0
      ],
      [
        "<0x0B>",
        0.0
      ],
      [
        "<0x0C>",
        0.0
      ],
      [
        "<0x0D>",
        0.0
      ],
      [
        "<0x0E>",
        0.0
      ],
      [
        "<0x0F>",
        0.0
      ],
      [
        "<0x10>",
        0.0
      ],
      [
        "<0x11>",
        0.0
      ],
      [
        "<0x12>",
        0.0
      ],
      [
        "<0x13>",
        0.0
      ],
      [
        "<0x14>",
        0.0
      ],
      [
        "<0x15>",
        0.0
      ],
      [
        "<0x16>",
        0.0
      ],
      [
        "<0x17>",
        0.0
      ],
      [
        "<0x18>",
        0.0
      ],
      [
        "<0x19>",
        0.0
      ],
      [
        "<0x1A>",
        0.0
      ],
      [
        "<0x1B>",
        0.0
      ],
      [
        "<0x1C>",
        0.0
      ],
      [
        "<0x1D>",
        0.0
      ],
      [
        "<0x1E>",
        0.0
      ],
      [
        "<0x1F>",
        0.0
      ],
      [
        "<0x20>",
        0.0
      ],
      [
        "<0x21>",
        0.0
      ],
      [
        "<0x22>",
        0.0
      ],
      [
        "<0x23>",
        0.0
      ],
      [
        "<0x24>",
        0.0
      ],
      [
        "<0x25>",
        0.0
      ],
      [
        "<0x26>",
        0.0
      ],
      [
        "<0x27>",
        0.0
      ],
      [
        "<0x28>",
        0.0
      ],
      [
        "<0x29>",
        0.0
      ],
      [
        "<0x2A>",
        0.0
      ],
      [
        "<0x2B>",
        0.0
      ],
      [
        "<0x2C>",
        0.0
      ],
      [
        "<0x2D>",
        0.0
      ],
      [
        "<0x2E>",
        0.0
      ],
      [
        "<0x2F>",
        0.0
      ],
      [
        "<0x30>",
        0.0
      ],
      [
        "<0x31>",
        0.0
      ],
      [
        "<0x32>",
        0.0
      ],
      [
        "<0x33>",
        0.0
      ],
      [
        "<0x34>",
        0.0
      ],
      [
        "<0x35>",
        0.0
      ],
      [
        "<0x36>",
        0.0
      ],
      [
        "<0x37>",
        0.0
      ],
      [
        "<0x38>",
        0.0
      ],
      [
        "<0x39>",
        0.0
      ],
      [
        "<0x3A>",
        0.0
      ],
      [
        "<0x3B>",
        0.0
      ],
      [
        "<0x3C>",
        0.0
      ],
      [
        "<0x3D>",
        0.0
      ],
      [
        "<0x3E>",
        0.0
      ],
      [
        "<0x3F>",
        0.0
      ],
      [
        "<0x40>",
        0.0
      ],
      [
        "<0x41>",
        0.0
      ],
      [
        "<0x42>",
        0.0
      ],
      [
        "<0x43>",
        0.0
      ],
      [
        "<0x44>",
        0.0
      ],
      [
        "<0x45>",
        0.0
      ],
      [
        "<0x46>",
        0.0
      ],
      [
        "<0x47>",
        0.0
      ],
      [
        "<0x48>",
        0.0
      ],
      [
        "<0x49>",
        0.0
      ],
      [
        "<0x4A>",
        0.0
      ],
      [
        "<0x4B>",
        0.0
      ],
      [
        "<0x4C>",
        0.0
      ],
      [
        "<0x4D>",
        0.0
      ],
      [
        "<0x4E>",
        0.0
      ],
      [
        "<0x4F>",
        0.0
      ],
      [
        "<0x50>",
        0.0
      ],
      [
        "<0x51>",
        0.0
      ],
      [
        "<0x52>",
        0.0
      ],
      [
        "<0x53>",
        0.0
      ],
      [
        "<0x54>",
        0.0
      ],
      [
        "<0x55>",
        0.0
      ],
      [
        "<0x56>",
        0.0
      ],
      [
        "<0x57>",
        0.0
      ],
      [
        "<0x58>",
        0.0
      ],
      [
        "<0x59>",
        0.0
      ],
      [
        "<0x5A>",
        0.0
      ],
      [
        "<0x5B>",
        0.0
      ],
      [
        "<0x5C>",
        0.0
      ],
      [
        "<0x5D>",
        0.0
      ],
      [
        "<0x5E>",
        0.0
      ],
      [
        "<0x5F>",
        0.0
      ],
      [
        "<0x60>",
        0.0
      ],
      [
        "<0x61>",
        0.0
      ],
      [
        "<0x62>",
        0.0
      ],
      [
        "<0x63>",
        0.0
      ],
      [
        "<0x64>",
        0.0
      ],
      [
        "<0x65>",
        0.0
      ],
      [
        "<0x66>",
        0.0
      ],
      [
        "<0x67>",
        0.0
      ],
      [
        "<0x68>",
        0.0
      ],
      [
        "<0x69>",
        0.0
      ],
      [
        "<0x6A>",
        0.0
      ],
      [
        "<0x6B>",
        0.0
      ],
      [
        "<0x6C>",
        0.0
      ],
      [
        "<0x6D>",
        0.0
      ],
      [
        "<0x6E>",
        0.0
      ],
      [
        "<0x6F>",
        0.0
      ],
      [
        "<0x70>",
        0.0
      ],
      [
        "<0x71>",
        0.0
      ],
      [
        "<0x72>",
        0.0
      ],
      [
        "<0x73>",
        0.0
      ],
      [
        "<0x74>",
        0.0
      ],
      [
        "<0x75>",
        0.0
      ],
      [
        "<0x76>",
        0.0
      ],
      [
        "<0x77>",
        0.0
      ],
      [
        "<0x78>",
        0.0
      ],
      [
        "<0x79>",
        0.0
      ],
      [
        "<0x7A>",
        0.0
      ],
      [
        "<0x7B>",
        0.0
      ],
      [
        "<0x7C>",
        0.0
      ],
      [
        "<0x7D>",
        0.0
      ],
      [
        "<0x7E>",
        0.0
      ],
      [
        "<0x7F>",
        0.0
      ],
      [
        "<0x80>",
        0.0
      ],
      [
        "<0x81>",
        0.0
      ],
      [
        "<0x82>",
        0.0
      ],
      [
        "<0x83>",
        0.0
      ],
      [
        "<0x84>",
        0.0
      ],
      [
        "<0x85>",
        0.0
      ],
      [
        "<0x86>",
        0.0
      ],
      [
        "<0x87>",
        0.0
      ],
      [
        "<0x88>",
        0.0
      ],
      [
        "<0x89>",
        0.0
      ],
      [
        "<0x8A>",
        0.0
      ],
      [
        "<0x8B>",
        0.0
      ],
      [
        "<0x8C>",
        0.0
      ],
      [
        "<0x8D>",
        0.0
      ],
      [
        "<0x8E>",
        0.0
      ],
      [
        "<0x8F>",
        0.0
      ],
      [
        "<0x90>",
        0.0
      ],
      [
        "<0x91>",
        0.0
      ],
      [
        "<0x92>",
        0.0
      ],
      [
        "<0x93>",
        0.0
      ],
      [
        "<0x94>",
        0.0
      ],
      [
        "<0x95>",
        0.0
      ],
      [
        "<0x96>",
        0.0
      ],
      [
        "<0x97>",
        0.0
      ],
      [
        "<0x98>",
        0.0
      ],
      [
        "<0x99>",
        0.0
      ],
      [
        "<0x9A>",
        0.0
      ],
      [
        "<0x9B>",
        0.0
      ],
      [
        "<0x9C>",
        0.0
      ],
      [
        "<0x9D>",
        0.0
      ],
      [
        "<0x9E>",
        0.0
      ],
      [
        "<0x9F>",
        0.0
      ],
      [
        "<0xA0>",
        0.0
      ],
      [
        "<0xA1>",
        0.0
      ],
      [
        "<0xA2>",
        0.0
      ],
      [
        "<0xA3>",
        0.0
      ],
      [
        "<0xA4>",
        0.0
      ],
      [
        "<0xA5>",
        0.0
      ],
      [
        "<0xA6>",
        0.0
      ],
      [
        "<0xA7>",
        0.0
      ],
      [
        "<0xA8>",
        0.0
      ],
      [
        "<0xA9>",
        0.0
      ],
      [
        "<0xAA>",
        0.0
      ],
      [
        "<0xAB>",
        0.0
      ],
      [
        "<0xAC>",
        0.0
      ],
      [
        "<0xAD>",
        0.0
      ],
      [
        "<0xAE>",
        0.0
      ],
      [
        "<0xAF>",
        0.0
      ],
      [
        "<0xB0>",
        0.0
      ],
      [
        "<0xB1>",
        0.0
      ],
      [
        "<0xB2>",
        0.0
      ],
      [
        "<0xB3>",
        0.0
      ],
      [
        "<0xB4>",
        0.0
      ],
      [
        "<0xB5>",
        0.0
      ],
      [
        "<0xB6>",
        0.0
      ],
      [
        "<0xB7>",
        0.0
      ],
      [
        "<0xB8>",
        0.0
      ],
      [
        "<0xB9>",
        0.0
      ],
      [
        "<0xBA>",
        0.0
      ],
      [
        "<0xBB>",
        0.0
      ],
      [
        "<0xBC>",
        0.0
      ],
      [
        "<0xBD>",
        0.0
      ],
      [
        "<0xBE>",
        0.0
      ],
      [
        "<0xBF>",
        0.0
      ],
      [
        "<0xC0>",
        0.0
      ],
      [
        "<0xC1>",
        0.0
      ],
      [
        "<0xC2>",
        0.0
      ],
      [
        "<0xC3>",
        0.0
      ],
      [
        "<0xC4>",
        0.0
      ],
      [
        "<0xC5>",
        0.0
      ],
      [
        "<0xC6>",
        0.0
      ],
      [
        "<0xC7>",
        0.0
      ],
      [
        "<0xC8>",
        0.0
      ],
      [
        "<0xC9>",
        0.0
      ],
      [
        "<0xCA>",
        0.0
      ],
      [
        "<0xCB>",
        0.0
      ],
      [
        "<0xCC>",
        0.0
      ],
      [
        "<0xCD>",
        0.0
      ],
      [
        "<0xCE>",
        0.0
      ],
      [
        "<0xCF>",
        0.0
      ],
      [
        "<0xD0>",
        0.0
      ],
      [
        "<0xD1>",
        0.0
      ],
      [
        "<0xD2>",
        0.0
      ],
      [
        "<0xD3>",
        0.0
      ],
      [
        "<0xD4>",
        0.0
      ],
      [
        "<0xD5>",
        0.0
      ],
      [
        "<0xD6>",
        0.0
      ],
      [
        "<0xD7>",
        0.0
      ],
      [
        "<0xD8>",
        0.0
      ],
      [
        "<0xD9>",
        0.0
      ],
      [
        "<0xDA>",
        0.0
      ],
      [
        "<0xDB>",
        0.0
      ],
      [
        "<0xDC>",
        0.0
      ],
      [
        "<0xDD>",
        0.0
      ],
      [
        "<0xDE>",
        0.0
      ],
      [
        "<0xDF>",
        0.0
      ],
      [
        "<0xE0>",
        0.0
      ],
      [
        "<0xE1>",
        0.0
      ],
      [
        "<0xE2>",
        0.0
      ],
      [
        "<0xE3>",
        0.0
      ],
      [
        "<0xE4>",
        0.0
      ],
      [
        "<0xE5>",
        0.0
      ],
      [
        "<0xE6>",
        0.0
      ],
      [
        "<0xE7>",
        0.0
      ],
      [
        "<0xE8>",
        0.0
      ],
      [
        "<0xE9>",
        0.0
      ],
      [
        "<0xEA>",
        0.0
      ],
      [
        "<0xEB>",
        0.0
      ],
      [
        "<0xEC>",
        0.0
      ],
      [
        "<0xED>",
        0.0
      ],
      [
        "<0xEE>",
        0.0
      ],
      [
        "<0xEF>",
        0.0
      ],
      [
        "<0xF0>",
        0.0
      ],
      [
        "<0xF1>",
        0.0
      ],
      [
        "<0xF2>",
        0.0
      ],
      [
        "<0xF3>",
        0.0
      ],
      [
        "<0xF4>",
        0.0
      ],
      [
        "<0xF5>",
        0.0
      ],
      [
        "<0xF6>",
        0.0
      ],
      [
        "<0xF7>",
        0.0
      ],
      [
        "<0xF8>",
        0.0
      ],
      [
        "<0xF9>",
        0.0
      ],
      [
        "<0xFA>",
        0.0
      ],
      [
        "<0xFB>",
        0.0
      ],
      [
        "<0xFC>",
        0.0
      ],
      [
        "<0xFD>",
        0.0
      ],
      [
        "<0xFE>",
        0.0
      ],
      [
        "<0xFF>",
        0.0
      ],
      [
        "▁",
        -2.5322680473327637
      ],
      [
        "ي",
        -3.7078897953033447
      ],
      [
        "ا",
        -3.7763524055480957
      ],
      [
        "و",
        -3.833115816116333
      ],
      [
        "ك",
        -3.9041213989257812
      ],
      [
        "ت",
        -3.928126573562622
      ],
      [
        "▁و",
        -3.989931344985962
      ],
      [
        "ة",
        -4.015613555908203
      ],
      [
        "ه",
        -4.117013931274414
      ],
      [
        "▁ال",
        -4.203765392303467
      ],
      [
        "ن",
        -4.521933555603027
      ],
      [
        "ب",
        -4.581790924072266
      ],
      [
        "م",
        -4.594936370849609
      ],
      [
        "ش",
        -4.7016706466674805
      ],
      [
        "ع",
        -4.704931259155273
      ],
      [
        "▁ت",
        -4.751530647277832
      ],
      [
        "ح",
        -4.764291286468506
      ],
      [
        "▁م",
        -4.777420520782471
      ],
      [
        "▁ن",
        -4.84933614730835
      ],
      [
        "▁في",
        -4.881832122802734
      ],
      [
        "ل",
        -4.8993964195251465
      ],
      [
        "▁ي",
        -4.943739891052246
      ],
      [
        "▁ب",
        -4.952073574066162
      ],
      [
        "▁من",
        -4.963507175445557
      ],
      [
        "د",
        -4.993227958679199
      ],
      [
        "نا",
        -5.004321098327637
      ],
      [
        "▁الله",
        -5.016826152801514
      ],
      [
        "▁ا",
        -5.101057052612305
      ],
      [
        "ها",
        -5.11578369140625
      ],
      [
        "ف",
        -5.147599697113037
      ],
      [
        "س",
        -5.2019219398498535
      ],
      [
        "ال",
        -5.257600784301758
      ],
      [
        "ين",
        -5.268396377563477
      ],
      [
        "ط",
        -5.2789225578308105
      ],
      [
        "ق",
        -5.279233455657959
      ],
      [
        "▁أ",
        -5.309726238250732
      ],
      [
        "ز",
        -5.353724002838135
      ],
      [
        "▁ل",
        -5.360441207885742
      ],
      [
        "ات",
        -5.392643928527832
      ],
      [
        "▁الم",
        -5.427586555480957
      ],
      [
        "ية",
        -5.530020713806152
      ],
      [
        "ج",
        -5.5700364112854
      ],
      [
        "لي",
        -5.578153133392334
      ],
      [
        "a",
        -5.635797023773193
      ],
      [
        "ص",
        -5.656179904937744
      ],
      [
        "ض",
        -5.6651811599731445
      ],
      [
        "▁ما",
        -5.667388439178467
      ],
      [
        "▁على",
        -5.673874855041504
      ],
      [
        "خ",
        -5.689356327056885
      ],
      [
        "وا",
        -5.693759918212891
      ],
      [
        "▁ح",
        -5.701507091522217
      ],
      [
        "هم",
        -5.725200653076172
      ],
      [
        "را",
        -5.745882987976074
      ],
      [
        "ر",
        -5.7476420402526855
      ],
      [
        "ان",
        -5.755606174468994
      ],
      [
        "ني",
        -5.767395496368408
      ],
      [
        "ما",
        -5.779537677764893
      ],
      [
        "▁ف",
        -5.786435604095459
      ],
      [
        "ى",
        -5.789006233215332
      ],
      [
        "ام",
        -5.797281265258789
      ],
      [
        "t",
        -5.829379081726074
      ],
      [
        "ار",
        -5.8421149253845215
      ],
      [
        "ول",
        -5.844029426574707
      ],
      [
        "s",
        -5.865961074829102
      ],
      [
        ".",
        -5.880008697509766
      ],
      [
        "▁وال",
        -5.882496356964111
      ],
      [
        "i",
        -5.8842973709106445
      ],
      [
        "e",
        -5.885325908660889
      ],
      [
        "دي",
        -5.903684616088867
      ],
      [
        "لا",
        -5.917261600494385
      ],
      [
        "▁لي",
        -5.9384894371032715
      ],
      [
        "o",
        -5.973590850830078
      ],
      [
        "ذ",
        -5.979526519775391
      ],
      [
        "h",
        -5.988246440887451
      ],
      [
        "كم",
        -5.991866588592529
      ],
      [
        "▁لا",
        -6.006933689117432
      ],
      [
        "▁ربي",
        -6.007786273956299
      ],
      [
        "اء",
        -6.024287223815918
      ],
      [
        "ث",
        -6.0339813232421875
      ],
      [
        "غ",
        -6.068039417266846
      ],
      [
        "ور",
        -6.072181701660156
      ],
      [
        "]",
        -6.074987411499023
      ],
      [
        "أ",
        -6.0756120681762695
      ],
      [
        "▁ان",
        -6.076698303222656
      ],
      [
        "▁س",
        -6.079741954803467
      ],
      [
        "▁[",
        -6.083498001098633
      ],
      [
        "،",
        -6.101009845733643
      ],
      [
        "▁ع",
        -6.10683536529541
      ],
      [
        "k",
        -6.113698959350586
      ],
      [
        "اب",
        -6.148282527923584
      ],
      [
        "تي",
        -6.172055244445801
      ],
      [
        "يا",
        -6.173892021179199
      ],
      [
        "d",
        -6.181938171386719
      ],
      [
        "MENTION",
        -6.184324264526367
      ],
      [
        "▁الا",
        -6.220963001251221
      ],
      [
        "▁مع",
        -6.239002227783203
      ],
      [
        "ون",
        -6.239660263061523
      ],
      [
        "ست",
        -6.246262073516846
      ],
      [
        "ري",
        -6.247596740722656
      ],
      [
        "▁كل",
        -6.289183616638184
      ],
      [
        "▁انا",
        -6.290322780609131
      ],
      [
        "اد",
        -6.3002848625183105
      ],
      [
        "l",
        -6.3137078285217285
      ],
      [
        "▁ر",
        -6.326455593109131
      ],
      [
        "▁يا",
        -6.361476898193359
      ],
      [
        "▁بال",
        -6.362368106842041
      ],
      [
        "اس",
        -6.412423133850098
      ],
      [
        "u",
        -6.434323310852051
      ],
      [
        "▁ق",
        -6.439428806304932
      ],
      [
        "▁الع",
        -6.439959526062012
      ],
      [
        "بي",
        -6.4479780197143555
      ],
      [
        "▁لل",
        -6.469320297241211
      ],
      [
        "ئ",
        -6.481504440307617
      ],
      [
        "c",
        -6.486945152282715
      ],
      [
        "▁...",
        -6.502987384796143
      ],
      [
        "▁الت",
        -6.503899574279785
      ],
      [
        "▁أن",
        -6.516059875488281
      ],
      [
        "...",
        -6.531388282775879
      ],
      [
        "▁الأ",
        -6.539464473724365
      ],
      [
        "في",
        -6.549835681915283
      ],
      [
        "▁ش",
        -6.549993991851807
      ],
      [
        "ظ",
        -6.562554359436035
      ],
      [
        "ير",
        -6.565142631530762
      ],
      [
        "3",
        -6.586915016174316
      ],
      [
        "▁ولا",
        -6.602877616882324
      ],
      [
        "ou",
        -6.606722831726074
      ],
      [
        "بر",
        -6.612673759460449
      ],
      [
        "در",
        -6.635509014129639
      ],
      [
        "y",
        -6.63627290725708
      ],
      [
        "▁،",
        -6.638822078704834
      ],
      [
        "▁استاذ",
        -6.647040843963623
      ],
      [
        "m",
        -6.650537967681885
      ],
      [
        "صل",
        -6.668243885040283
      ],
      [
        "يل",
        -6.668514728546143
      ],
      [
        "كل",
        -6.670479774475098
      ],
      [
        "عا",
        -6.673116207122803
      ],
      [
        "سي",
        -6.678423881530762
      ],
      [
        "▁ص",
        -6.692267894744873
      ],
      [
        "▁1",
        -6.694419860839844
      ],
      [
        "ذا",
        -6.704908847808838
      ],
      [
        "r",
        -6.707147598266602
      ],
      [
        "▁هذا",
        -6.715521812438965
      ],
      [
        "اف",
        -6.716335773468018
      ],
      [
        "لك",
        -6.721680164337158
      ],
      [
        "▁تاع",
        -6.749500751495361
      ],
      [
        "من",
        -6.759644985198975
      ],
      [
        "با",
        -6.766899585723877
      ],
      [
        "▁عليه",
        -6.76837158203125
      ],
      [
        "▁ج",
        -6.77117395401001
      ],
      [
        "g",
        -6.775048732757568
      ],
      [
        "رب",
        -6.77586030960083
      ],
      [
        "▁-",
        -6.783056259155273
      ],
      [
        "▁شاء",
        -6.786675930023193
      ],
      [
        "حب",
        -6.795482635498047
      ],
      [
        "▁عن",
        -6.800751209259033
      ],
      [
        "▁الح",
        -6.813943386077881
      ],
      [
        "▁الج",
        -6.819478511810303
      ],
      [
        "يش",
        -6.821113586425781
      ],
      [
        "آ",
        -6.823800086975098
      ],
      [
        "عد",
        -6.829071998596191
      ],
      [
        "دا",
        -6.829130172729492
      ],
      [
        "f",
        -6.830933094024658
      ],
      [
        "▁عند",
        -6.832626819610596
      ],
      [
        "لم",
        -6.833970069885254
      ],
      [
        "قا",
        -6.847531318664551
      ],
      [
        "يت",
        -6.854041576385498
      ],
      [
        "مة",
        -6.860642910003662
      ],
      [
        ")",
        -6.87069034576416
      ],
      [
        "خر",
        -6.873013496398926
      ],
      [
        "رة",
        -6.88438081741333
      ],
      [
        "b",
        -6.888099193572998
      ],
      [
        "لو",
        -6.905564308166504
      ],
      [
        "مر",
        -6.908046722412109
      ],
      [
        "دة",
        -6.911723613739014
      ],
      [
        "تك",
        -6.920034408569336
      ],
      [
        "▁الس",
        -6.920320510864258
      ],
      [
        "1",
        -6.920518398284912
      ],
      [
        "p",
        -6.923007965087891
      ],
      [
        "-",
        -6.925133228302002
      ],
      [
        "مي",
        -6.9340434074401855
      ],
      [
        "ch",
        -6.941133975982666
      ],
      [
        "▁هو",
        -6.944211959838867
      ],
      [
        "▁شكرا",
        -6.946910858154297
      ],
      [
        "علم",
        -6.947256088256836
      ],
      [
        "▁.",
        -6.9496846199035645
      ],
      [
        "❤",
        -6.955745220184326
      ],
      [
        "▁❤",
        -6.9562530517578125
      ],
      [
        "▁تع",
        -6.9578166007995605
      ],
      [
        "▁يارب",
        -6.957951545715332
      ],
      [
        "قول",
        -6.965954780578613
      ],
      [
        "تو",
        -6.968056678771973
      ],
      [
        "ha",
        -6.969627857208252
      ],
      [
        "سم",
        -6.976168632507324
      ],
      [
        "▁د",
        -6.980912685394287
      ],
      [
        "2",
        -6.987715721130371
      ],
      [
        "رو",
        -6.989453315734863
      ],
      [
        "▁كي",
        -6.993595600128174
      ],
      [
        "عة",
        -6.994833946228027
      ],
      [
        ":",
        -6.998470306396484
      ],
      [
        "سب",
        -6.9999775886535645
      ],
      [
        "5",
        -7.002938747406006
      ],
      [
        "▁غير",
        -7.005509853363037
      ],
      [
        "قل",
        -7.006845474243164
      ],
      [
        "9",
        -7.010523796081543
      ],
      [
        "▁والله",
        -7.014026641845703
      ],
      [
        "قر",
        -7.023852825164795
      ],
      [
        "قد",
        -7.029800891876221
      ],
      [
        "اح",
        -7.038163185119629
      ],
      [
        "▁إ",
        -7.038539886474609
      ],
      [
        "دو",
        -7.0393290519714355
      ],
      [
        "▁مش",
        -7.042278289794922
      ],
      [
        "n",
        -7.04482364654541
      ],
      [
        "وف",
        -7.0539870262146
      ],
      [
        "يب",
        -7.060027599334717
      ],
      [
        "نت",
        -7.062083721160889
      ],
      [
        "عرف",
        -7.067738056182861
      ],
      [
        "7",
        -7.0732903480529785
      ],
      [
        "لة",
        -7.076757431030273
      ],
      [
        "▁الش",
        -7.0774407386779785
      ],
      [
        "وب",
        -7.081659317016602
      ],
      [
        "ra",
        -7.093470096588135
      ],
      [
        "اج",
        -7.094029426574707
      ],
      [
        "▁خ",
        -7.096122741699219
      ],
      [
        "▁الب",
        -7.096263408660889
      ],
      [
        "شر",
        -7.103735446929932
      ],
      [
        "▁الق",
        -7.106918811798096
      ],
      [
        "▁اللهم",
        -7.107341766357422
      ],
      [
        "وم",
        -7.109106063842773
      ],
      [
        "حر",
        -7.115886211395264
      ],
      [
        "لنا",
        -7.12340784072876
      ],
      [
        "يد",
        -7.125421524047852
      ],
      [
        "عل",
        -7.126521110534668
      ],
      [
        "جي",
        -7.126620769500732
      ],
      [
        "▁(",
        -7.132521152496338
      ],
      [
        "4",
        -7.135209083557129
      ],
      [
        "▁قال",
        -7.140227794647217
      ],
      [
        "v",
        -7.148324489593506
      ],
      [
        "اع",
        -7.156717300415039
      ],
      [
        "فر",
        -7.160141944885254
      ],
      [
        "▁غ",
        -7.160923004150391
      ],
      [
        "مل",
        -7.163382053375244
      ],
      [
        "؟",
        -7.164003849029541
      ],
      [
        "عم",
        -7.165359020233154
      ],
      [
        "خل",
        -7.169232368469238
      ],
      [
        "رحم",
        -7.170879364013672
      ],
      [
        "▁مت",
        -7.171538352966309
      ],
      [
        "0",
        -7.171806812286377
      ],
      [
        "▁تح",
        -7.173645496368408
      ],
      [
        "▁كان",
        -7.175638675689697
      ],
      [
        "▁با",
        -7.176280975341797
      ],
      [
        "j",
        -7.177528381347656
      ],
      [
        "▁لم",
        -7.180944442749023
      ],
      [
        "on",
        -7.182349681854248
      ],
      [
        "وس",
        -7.182693958282471
      ],
      [
        "▁وي",
        -7.189284801483154
      ],
      [
        "تش",
        -7.189730644226074
      ],
      [
        "لق",
        -7.191999435424805
      ],
      [
        "نس",
        -7.196568012237549
      ],
      [
        "▁الص",
        -7.198797225952148
      ],
      [
        "▁الن",
        -7.201294422149658
      ],
      [
        "▁:",
        -7.2025837898254395
      ],
      [
        "▁الف",
        -7.202859878540039
      ],
      [
        "فا",
        -7.204345226287842
      ],
      [
        "يم",
        -7.210174560546875
      ],
      [
        "▁عليكم",
        -7.230893135070801
      ],
      [
        "ربي",
        -7.23306131362915
      ],
      [
        "عر",
        -7.233567237854004
      ],
      [
        "▁هه",
        -7.234965801239014
      ],
      [
        "تر",
        -7.239866256713867
      ],
      [
        "وق",
        -7.241663932800293
      ],
      [
        "▁السلام",
        -7.250103950500488
      ],
      [
        "▁راه",
        -7.2524309158325195
      ],
      [
        "يف",
        -7.255279064178467
      ],
      [
        "la",
        -7.2577362060546875
      ],
      [
        "▁بزاف",
        -7.26278018951416
      ],
      [
        "سل",
        -7.264301300048828
      ],
      [
        "▁راك",
        -7.268457412719727
      ],
      [
        "▁لك",
        -7.274275779724121
      ],
      [
        "حت",
        -7.276258945465088
      ],
      [
        "▁بصح",
        -7.282578468322754
      ],
      [
        "▁علا",
        -7.284549713134766
      ],
      [
        "▁مر",
        -7.294963836669922
      ],
      [
        "▁إن",
        -7.295069217681885
      ],
      [
        "▁فال",
        -7.296334266662598
      ],
      [
        "كر",
        -7.299176216125488
      ],
      [
        "حل",
        -7.299750804901123
      ],
      [
        "خت",
        -7.307706832885742
      ],
      [
        "رج",
        -7.30792236328125
      ],
      [
        "▁فيديو",
        -7.313038349151611
      ],
      [
        "in",
        -7.316138744354248
      ],
      [
        "رح",
        -7.317074298858643
      ],
      [
        "تها",
        -7.317615509033203
      ],
      [
        "re",
        -7.32113790512085
      ],
      [
        "▁😂😂",
        -7.330789566040039
      ],
      [
        "نجح",
        -7.333067417144775
      ],
      [
        "▁m",
        -7.339269638061523
      ],
      [
        "جا",
        -7.345592975616455
      ],
      [
        "▁حتى",
        -7.348636150360107
      ],
      [
        "جد",
        -7.3521904945373535
      ],
      [
        "▁دير",
        -7.354724884033203
      ],
      [
        "قدر",
        -7.35646390914917
      ],
      [
        "▁است",
        -7.35844612121582
      ],
      [
        "تم",
        -7.3604254722595215
      ],
      [
        "قي",
        -7.364902019500732
      ],
      [
        "6",
        -7.365413665771484
      ],
      [
        "▁راني",
        -7.3671064376831055
      ],
      [
        "جل",
        -7.36845588684082
      ],
      [
        "صر",
        -7.370752811431885
      ],
      [
        "▁؟",
        -7.3717169761657715
      ],
      [
        "فهم",
        -7.376473426818848
      ],
      [
        "كان",
        -7.377920627593994
      ],
      [
        "▁b",
        -7.378118991851807
      ],
      [
        "▁هي",
        -7.379256725311279
      ],
      [
        "▁❤❤",
        -7.379504680633545
      ],
      [
        "li",
        -7.380545616149902
      ],
      [
        "بل",
        -7.382339954376221
      ],
      [
        "؟؟",
        -7.384162425994873
      ],
      [
        "ود",
        -7.385765552520752
      ],
      [
        "▁او",
        -7.38742208480835
      ],
      [
        "an",
        -7.388340473175049
      ],
      [
        "الله",
        -7.396097183227539
      ],
      [
        "▁f",
        -7.3975911140441895
      ],
      [
        "ؤ",
        -7.400679111480713
      ],
      [
        "🤲",
        -7.400963306427002
      ],
      [
        "▁فيك",
        -7.406703472137451
      ],
      [
        "▁واحد",
        -7.406754493713379
      ],
      [
        "▁صح",
        -7.408150672912598
      ],
      [
        "دعو",
        -7.408481121063232
      ],
      [
        "جر",
        -7.416762828826904
      ],
      [
        "اق",
        -7.417215824127197
      ],
      [
        "😢",
        -7.418546676635742
      ],
      [
        "زي",
        -7.423202991485596
      ],
      [
        "حد",
        -7.423216819763184
      ],
      [
        "طا",
        -7.427300930023193
      ],
      [
        "▁w",
        -7.428823947906494
      ],
      [
        "خير",
        -7.4288811683654785
      ],
      [
        "na",
        -7.4316086769104
      ],
      [
        "فرح",
        -7.435171604156494
      ],
      [
        "ta",
        -7.435267448425293
      ],
      [
        "A",
        -7.436857223510742
      ],
      [
        "▁كامل",
        -7.4384846687316895
      ],
      [
        "▁بارك",
        -7.4394683837890625
      ],
      [
        "دار",
        -7.439645767211914
      ],
      [
        "▁3",
        -7.439695358276367
      ],
      [
        "كون",
        -7.442237377166748
      ],
      [
        ",",
        -7.445600509643555
      ],
      [
        "▁الر",
        -7.454094886779785
      ],
      [
        "سلام",
        -7.454817771911621
      ],
      [
        "لف",
        -7.454966068267822
      ],
      [
        "▁الإ",
        -7.467834949493408
      ],
      [
        "ضي",
        -7.468835353851318
      ],
      [
        "20",
        -7.469683647155762
      ],
      [
        "▁كنت",
        -7.491042137145996
      ],
      [
        "رق",
        -7.497824668884277
      ],
      [
        "😊",
        -7.498712062835693
      ],
      [
        "▁ون",
        -7.500749111175537
      ],
      [
        "z",
        -7.5029754638671875
      ],
      [
        "▁وأ",
        -7.503210544586182
      ],
      [
        "ء",
        -7.504015922546387
      ],
      [
        "يق",
        -7.504868030548096
      ],
      [
        "er",
        -7.508295059204102
      ],
      [
        "دخل",
        -7.510478973388672
      ],
      [
        "رض",
        -7.5218424797058105
      ],
      [
        "w",
        -7.524806499481201
      ],
      [
        "هد",
        -7.525178909301758
      ],
      [
        "قرا",
        -7.526238918304443
      ],
      [
        "رد",
        -7.5339202880859375
      ],
      [
        "▁لله",
        -7.535900115966797
      ],
      [
        "*",
        -7.536773681640625
      ],
      [
        "صح",
        -7.537230491638184
      ],
      [
        "يس",
        -7.539882183074951
      ],
      [
        "هل",
        -7.544821262359619
      ],
      [
        "إ",
        -7.544867038726807
      ],
      [
        "▁جا",
        -7.546168804168701
      ],
      [
        "ولي",
        -7.547236919403076
      ],
      [
        "دير",
        -7.548148155212402
      ],
      [
        "دين",
        -7.559531211853027
      ],
      [
        "▁p",
        -7.561237335205078
      ],
      [
        "▁انت",
        -7.563479900360107
      ],
      [
        "قص",
        -7.565079689025879
      ],
      [
        "▁هنا",
        -7.56840705871582
      ],
      [
        "▁وم",
        -7.574348449707031
      ],
      [
        "▁بلي",
        -7.577861785888672
      ],
      [
        "▁هاد",
        -7.579383850097656
      ],
      [
        "سر",
        -7.585780143737793
      ],
      [
        "زيد",
        -7.5871758460998535
      ],
      [
        "▁واش",
        -7.592189311981201
      ],
      [
        "قة",
        -7.592373371124268
      ],
      [
        "▁😂",
        -7.595160484313965
      ],
      [
        "جز",
        -7.597090244293213
      ],
      [
        "فق",
        -7.597599029541016
      ],
      [
        "❤️",
        -7.603268623352051
      ],
      [
        "😭",
        -7.607880592346191
      ],
      [
        "8",
        -7.609435081481934
      ],
      [
        "▁n",
        -7.609720230102539
      ],
      [
        "ورة",
        -7.6105122566223145
      ],
      [
        "▁\"",
        -7.6133341789245605
      ],
      [
        "▁عليك",
        -7.615294456481934
      ],
      [
        "😅",
        -7.615994930267334
      ],
      [
        "طر",
        -7.61636209487915
      ],
      [
        "▁بعد",
        -7.617814540863037
      ],
      [
        "مكن",
        -7.627511024475098
      ],
      [
        "ya",
        -7.631777763366699
      ],
      [
        "😂",
        -7.6333746910095215
      ],
      [
        "▁الباك",
        -7.634782314300537
      ],
      [
        "قو",
        -7.636486053466797
      ],
      [
        "al",
        -7.640496730804443
      ],
      [
        "▁له",
        -7.641051292419434
      ],
      [
        "▁مس",
        -7.650049209594727
      ],
      [
        "▁وحد",
        -7.650196552276611
      ],
      [
        "طب",
        -7.6536383628845215
      ],
      [
        "▁نتا",
        -7.6540374755859375
      ],
      [
        "طي",
        -7.661633014678955
      ],
      [
        "▁خير",
        -7.662099361419678
      ],
      [
        "le",
        -7.665560245513916
      ],
      [
        "▁بن",
        -7.665608882904053
      ],
      [
        "▁اي",
        -7.666514873504639
      ],
      [
        "▁باك",
        -7.672661304473877
      ],
      [
        "جعل",
        -7.676926136016846
      ],
      [
        "▁أو",
        -7.680572032928467
      ],
      [
        "خص",
        -7.682092666625977
      ],
      [
        "ti",
        -7.690853595733643
      ],
      [
        "en",
        -7.697115898132324
      ],
      [
        "▁يحفظك",
        -7.702545642852783
      ],
      [
        "▁الجزائر",
        -7.705174446105957
      ],
      [
        "غر",
        -7.705883026123047
      ],
      [
        "▁يوم",
        -7.707901477813721
      ],
      [
        "▁برك",
        -7.710546970367432
      ],
      [
        "▁نفس",
        -7.711386680603027
      ],
      [
        "/",
        -7.714750289916992
      ],
      [
        "▁هل",
        -7.727616786956787
      ],
      [
        "▁2",
        -7.727695941925049
      ],
      [
        "▁رب",
        -7.728360652923584
      ],
      [
        "🎉",
        -7.736457824707031
      ],
      [
        "▁فيها",
        -7.7420783042907715
      ],
      [
        "وني",
        -7.745578765869141
      ],
      [
        "🤣",
        -7.795238018035889
      ],
      [
        "é",
        -7.833309650421143
      ],
      [
        "_",
        -7.834342956542969
      ],
      [
        "️",
        -7.862664222717285
      ],
      [
        "'",
        -7.872890472412109
      ],
      [
        "x",
        -7.903514862060547
      ],
      [
        "M",
        -7.906150817871094
      ],
      [
        "R",
        -7.948634624481201
      ],
      [
        "\"",
        -8.00158405303955
      ],
      [
        "L",
        -8.00516414642334
      ],
      [
        "q",
        -8.02026653289795
      ],
      [
        "T",
        -8.035384178161621
      ],
      [
        "B",
        -8.06317138671875
      ],
      [
        "🙂",
        -8.112471580505371
      ],
      [
        "H",
        -8.11684513092041
      ],
      [
        "S",
        -8.119038581848145
      ],
      [
        "I",
        -8.123976707458496
      ],
      [
        "ڨ",
        -8.12750244140625
      ],
      [
        "!",
        -8.154969215393066
      ],
      [
        "😍",
        -8.162590980529785
      ],
      [
        "💔",
        -8.185417175292969
      ],
      [
        "+",
        -8.243656158447266
      ],
      [
        "E",
        -8.268299102783203
      ],
      [
        "D",
        -8.30307674407959
      ],
      [
        "?",
        -8.310160636901855
      ],
      [
        "=",
        -8.315707206726074
      ],
      [
        "N",
        -8.34519100189209
      ],
      [
        "🥺",
        -8.349666595458984
      ],
      [
        "🏻",
        -8.357019424438477
      ],
      [
        "O",
        -8.384270668029785
      ],
      [
        "C",
        -8.468257904052734
      ],
      [
        "♥",
        -8.499720573425293
      ],
      [
        "😮",
        -8.506080627441406
      ],
      [
        "K",
        -8.533282279968262
      ],
      [
        "(",
        -8.570684432983398
      ],
      [
        "ـ",
        -8.621881484985352
      ],
      [
        "✨",
        -8.644211769104004
      ],
      [
        "🙏",
        -8.650049209594727
      ],
      [
        "W",
        -8.651564598083496
      ],
      [
        "Y",
        -8.689897537231445
      ],
      [
        "🤍",
        -8.762653350830078
      ],
      [
        "🥰",
        -8.801939964294434
      ],
      [
        "🔥",
        -8.811978340148926
      ],
      [
        "👍",
        -8.83115005493164
      ],
      [
        "F",
        -8.885980606079102
      ],
      [
        "💗",
        -8.914237976074219
      ],
      [
        "~",
        -8.943720817565918
      ],
      [
        "P",
        -8.952288627624512
      ],
      [
        "U",
        -9.00947380065918
      ],
      [
        "🇩",
        -9.057914733886719
      ],
      [
        "G",
        -9.090775489807129
      ],
      [
        "🖤",
        -9.109620094299316
      ],
      [
        "؛",
        -9.172277450561523
      ],
      [
        "‏",
        -9.174152374267578
      ],
      [
        "💪",
        -9.18048095703125
      ],
      [
        "🥹",
        -9.184090614318848
      ],
      [
        "😁",
        -9.18460750579834
      ],
      [
        "‪",
        -9.185641288757324
      ],
      [
        "\r",
        -9.250104904174805
      ],
      [
        "‬",
        -9.270733833312988
      ],
      [
        "👏",
        -9.318421363830566
      ],
      [
        "🇿",
        -9.329910278320312
      ],
      [
        "è",
        -9.340726852416992
      ],
      [
        "🥲",
        -9.344762802124023
      ],
      [
        "J",
        -9.366841316223145
      ],
      [
        "😘",
        -9.370985984802246
      ],
      [
        "🌹",
        -9.393658638000488
      ],
      [
        "#",
        -9.399176597595215
      ],
      [
        "‍",
        -9.446636199951172
      ],
      [
        "👌",
        -9.48288345336914
      ],
      [
        "V",
        -9.486371040344238
      ],
      [
        "💜",
        -9.486837387084961
      ],
      [
        "🤔",
        -9.499975204467773
      ],
      [
        "😔",
        -9.506372451782227
      ],
      [
        "»",
        -9.515443801879883
      ],
      [
        "^",
        -9.520976066589355
      ],
      [
        "«",
        -9.541440963745117
      ],
      [
        "💖",
        -9.558826446533203
      ],
      [
        "’",
        -9.60942554473877
      ],
      [
        "💕",
        -9.637207984924316
      ],
      [
        "☺",
        -9.770913124084473
      ],
      [
        "}",
        -9.805559158325195
      ],
      [
        "ی",
        -9.8331937789917
      ],
      [
        "{",
        -9.838811874389648
      ],
      [
        "✅",
        -9.844462394714355
      ],
      [
        "à",
        -9.862282752990723
      ],
      [
        "😱",
        -9.907390594482422
      ],
      [
        "Z",
        -9.96811580657959
      ],
      [
        "ک",
        -10.00852108001709
      ],
      [
        "💙",
        -10.01640510559082
      ],
      [
        "✌",
        -10.071319580078125
      ],
      [
        "%",
        -10.09154987335205
      ],
      [
        "🫶",
        -10.095870971679688
      ],
      [
        "•",
        -10.10059642791748
      ],
      [
        "٠",
        -10.135624885559082
      ],
      [
        "ڤ",
        -10.149569511413574
      ],
      [
        "🙄",
        -10.154556274414062
      ],
      [
        "💓",
        -10.155465126037598
      ],
      [
        "🤦",
        -10.165522575378418
      ],
      [
        "😎",
        -10.176146507263184
      ],
      [
        "😹",
        -10.17754077911377
      ],
      [
        "X",
        -10.199162483215332
      ],
      [
        "😥",
        -10.2044038772583
      ],
      [
        "😉",
        -10.208711624145508
      ],
      [
        "😇",
        -10.20919132232666
      ],
      [
        "💞",
        -10.211112976074219
      ],
      [
        "🙃",
        -10.212556838989258
      ],
      [
        "😑",
        -10.222235679626465
      ],
      [
        "🤗",
        -10.22418212890625
      ],
      [
        "ٱ",
        -10.230045318603516
      ],
      [
        "😒",
        -10.230536460876465
      ],
      [
        "🌸",
        -10.243863105773926
      ],
      [
        "ç",
        -10.25787353515625
      ],
      [
        "Q",
        -10.261406898498535
      ],
      [
        "|",
        -10.266985893249512
      ],
      [
        "١",
        -10.270024299621582
      ],
      [
        "ê",
        -10.272595405578613
      ],
      [
        "💀",
        -10.27823543548584
      ],
      [
        ">",
        -10.293278694152832
      ],
      [
        "💯",
        -10.296399116516113
      ],
      [
        "❌",
        -10.337560653686523
      ],
      [
        "🤩",
        -10.350743293762207
      ],
      [
        "🏼",
        -10.351296424865723
      ],
      [
        "–",
        -10.369159698486328
      ],
      [
        "٢",
        -10.370845794677734
      ],
      [
        "💚",
        -10.372543334960938
      ],
      [
        "🌷",
        -10.389642715454102
      ],
      [
        "♀",
        -10.390218734741211
      ],
      [
        "😐",
        -10.401788711547852
      ],
      [
        "😩",
        -10.532124519348145
      ],
      [
        "🩷",
        -10.557638168334961
      ],
      [
        "😏",
        -10.560362815856934
      ],
      [
        "😆",
        -10.562410354614258
      ],
      [
        "×",
        -10.565131187438965
      ],
      [
        "°",
        -10.576869010925293
      ],
      [
        "ۡ",
        -10.604984283447266
      ],
      [
        "🌚",
        -10.61501693725586
      ],
      [
        "😀",
        -10.638333320617676
      ],
      [
        "😨",
        -10.644989967346191
      ],
      [
        "❣",
        -10.677420616149902
      ],
      [
        "😄",
        -10.682801246643066
      ],
      [
        "😌",
        -10.699118614196777
      ],
      [
        "🥀",
        -10.709355354309082
      ],
      [
        "<",
        -10.717302322387695
      ],
      [
        "🎀",
        -10.720497131347656
      ],
      [
        "🇦",
        -10.730956077575684
      ],
      [
        "\\",
        -10.733383178710938
      ],
      [
        "ھ",
        -10.750555992126465
      ],
      [
        "🇲",
        -10.752206802368164
      ],
      [
        "🇵",
        -10.763004302978516
      ],
      [
        "@",
        -10.784960746765137
      ],
      [
        "[",
        -10.801728248596191
      ],
      [
        "😞",
        -10.803044319152832
      ],
      [
        "🌺",
        -10.806527137756348
      ],
      [
        "😡",
        -10.806527137756348
      ],
      [
        "🇸",
        -10.821465492248535
      ],
      [
        "گ",
        -10.836630821228027
      ],
      [
        "♂",
        -10.837530136108398
      ],
      [
        "پ",
        -10.841135025024414
      ],
      [
        "ڪ",
        -10.849294662475586
      ],
      [
        ";",
        -10.85477066040039
      ],
      [
        "♡",
        -10.855687141418457
      ],
      [
        "â",
        -10.874181747436523
      ],
      [
        "😓",
        -10.879796981811523
      ],
      [
        "😳",
        -10.889225959777832
      ],
      [
        "😃",
        -10.907390594482422
      ],
      [
        "😶",
        -10.92785930633545
      ],
      [
        "😕",
        -10.934776306152344
      ],
      [
        "✔",
        -10.973184585571289
      ],
      [
        "🗿",
        -10.973184585571289
      ],
      [
        "💛",
        -10.979385375976562
      ],
      [
        "٣",
        -10.986664772033691
      ],
      [
        "﴾",
        -10.997169494628906
      ],
      [
        "👇",
        -10.998225212097168
      ],
      [
        "﴿",
        -11.010984420776367
      ],
      [
        "👑",
        -11.01958179473877
      ],
      [
        "😰",
        -11.022825241088867
      ],
      [
        "🤨",
        -11.065973281860352
      ],
      [
        "”",
        -11.077343940734863
      ],
      [
        "💋",
        -11.115809440612793
      ],
      [
        "😈",
        -11.152112007141113
      ],
      [
        "🩹",
        -11.15334415435791
      ],
      [
        "🤷",
        -11.16826057434082
      ],
      [
        "🤮",
        -11.185949325561523
      ],
      [
        "٤",
        -11.192328453063965
      ],
      [
        "😫",
        -11.193626403808594
      ],
      [
        "🫡",
        -11.202659606933594
      ],
      [
        "💥",
        -11.223616600036621
      ],
      [
        "🤌",
        -11.251806259155273
      ],
      [
        "↗",
        -11.251821517944336
      ],
      [
        "😻",
        -11.253168106079102
      ],
      [
        "٥",
        -11.255877494812012
      ],
      [
        "🤭",
        -11.260007858276367
      ],
      [
        "☠",
        -11.276618003845215
      ],
      [
        "🤝",
        -11.285026550292969
      ],
      [
        "😣",
        -11.29350757598877
      ],
      [
        "😜",
        -11.30349349975586
      ],
      [
        "🙌",
        -11.30349349975586
      ],
      [
        "&",
        -11.306367874145508
      ],
      [
        "î",
        -11.309245109558105
      ],
      [
        "💫",
        -11.313579559326172
      ],
      [
        "👻",
        -11.31648063659668
      ],
      [
        "🤡",
        -11.325233459472656
      ],
      [
        "ï",
        -11.326702117919922
      ],
      [
        "😋",
        -11.328167915344238
      ],
      [
        "👽",
        -11.329638481140137
      ],
      [
        "⭐",
        -11.329641342163086
      ],
      [
        "⁠",
        -11.345956802368164
      ],
      [
        "🦋",
        -11.350457191467285
      ],
      [
        "🌼",
        -11.351961135864258
      ],
      [
        "🫀",
        -11.393441200256348
      ],
      [
        "👋",
        -11.41886043548584
      ],
      [
        "“",
        -11.422082901000977
      ],
      [
        "💝",
        -11.44659423828125
      ],
      [
        "🙋",
        -11.448249816894531
      ],
      [
        "۞",
        -11.490557670593262
      ],
      [
        "$",
        -11.490694999694824
      ],
      [
        "👀",
        -11.492287635803223
      ],
      [
        "▪",
        -11.492679595947266
      ],
      [
        "🥳",
        -11.497495651245117
      ],
      [
        "😵",
        -11.50975513458252
      ],
      [
        "🤯",
        -11.50975513458252
      ],
      [
        "😬",
        -11.515055656433105
      ],
      [
        "😖",
        -11.52395248413086
      ],
      [
        "ࢪ",
        -11.527532577514648
      ],
      [
        "٦",
        -11.53650951385498
      ],
      [
        "☹",
        -11.54746150970459
      ],
      [
        "😤",
        -11.552966117858887
      ],
      [
        "٩",
        -11.57717514038086
      ],
      [
        "😟",
        -11.577176094055176
      ],
      [
        "🐧",
        -11.580952644348145
      ],
      [
        "🏽",
        -11.596205711364746
      ],
      [
        "😚",
        -11.60585880279541
      ],
      [
        "٨",
        -11.617536544799805
      ],
      [
        "👎",
        -11.61953067779541
      ],
      [
        "⬆",
        -11.625473976135254
      ],
      [
        "🤬",
        -11.643412590026855
      ],
      [
        "☝",
        -11.645428657531738
      ],
      [
        "🎓",
        -11.647449493408203
      ],
      [
        "ô",
        -11.676167488098145
      ],
      [
        "😪",
        -11.6824312210083
      ],
      [
        "🥴",
        -11.686629295349121
      ],
      [
        "🤢",
        -11.69084358215332
      ],
      [
        "💐",
        -11.695076942443848
      ],
      [
        "ᅠ",
        -11.701459884643555
      ],
      [
        "٧",
        -11.703582763671875
      ],
      [
        "🫂",
        -11.705738067626953
      ],
      [
        "ہ",
        -11.729599952697754
      ],
      [
        "❎",
        -11.734004974365234
      ],
      [
        "😠",
        -11.779104232788086
      ],
      [
        "🤧",
        -11.80244255065918
      ],
      [
        "💩",
        -11.811932563781738
      ],
      [
        "🧐",
        -11.831186294555664
      ],
      [
        "🙁",
        -11.840954780578613
      ],
      [
        "✋",
        -11.845874786376953
      ],
      [
        "🔪",
        -11.845874786376953
      ],
      [
        "·",
        -11.848343849182129
      ],
      [
        "💎",
        -11.85081958770752
      ],
      [
        "👊",
        -11.863287925720215
      ],
      [
        "💨",
        -11.888702392578125
      ],
      [
        "🤎",
        -11.909507751464844
      ],
      [
        "ۚ",
        -11.909509658813477
      ],
      [
        "🌝",
        -11.917425155639648
      ],
      [
        "🐸",
        -11.938844680786133
      ],
      [
        "↖",
        -11.938864707946777
      ],
      [
        "ۖ",
        -11.944271087646484
      ],
      [
        "🕋",
        -11.94973087310791
      ],
      [
        "💟",
        -11.955216407775879
      ],
      [
        "🧡",
        -11.960745811462402
      ],
      [
        "§",
        -11.966279983520508
      ],
      [
        "‌",
        -11.969072341918945
      ],
      [
        "⚡",
        -11.980287551879883
      ],
      [
        "👈",
        -11.980287551879883
      ],
      [
        "٫",
        -11.983111381530762
      ],
      [
        "🌟",
        -11.98311996459961
      ],
      [
        "🙆",
        -11.985944747924805
      ],
      [
        "🔴",
        -11.991633415222168
      ],
      [
        "🤓",
        -11.997357368469238
      ],
      [
        "É",
        -12.00023078918457
      ],
      [
        "✊",
        -12.011808395385742
      ],
      [
        "😲",
        -12.017648696899414
      ],
      [
        "🫠",
        -12.029430389404297
      ],
      [
        "🌙",
        -12.041353225708008
      ],
      [
        "😝",
        -12.056458473205566
      ],
      [
        "🤫",
        -12.059507369995117
      ],
      [
        "٪",
        -12.09058952331543
      ],
      [
        "👹",
        -12.093671798706055
      ],
      [
        "—",
        -12.100010871887207
      ],
      [
        "😿",
        -12.109596252441406
      ],
      [
        "👩",
        -12.109597206115723
      ],
      [
        "🤪",
        -12.112812042236328
      ],
      [
        "💃",
        -12.116037368774414
      ],
      [
        "🍯",
        -12.11927318572998
      ],
      [
        "û",
        -12.125778198242188
      ],
      [
        "🙈",
        -12.135613441467285
      ],
      [
        "🇧",
        -12.14222526550293
      ],
      [
        "🕊",
        -12.148880958557129
      ],
      [
        "😙",
        -12.152225494384766
      ],
      [
        "💘",
        -12.165716171264648
      ],
      [
        "🤏",
        -12.16911792755127
      ],
      [
        "🥶",
        -12.16911792755127
      ],
      [
        "🌿",
        -12.172531127929688
      ],
      [
        "�",
        -12.182844161987305
      ],
      [
        "😯",
        -12.200262069702148
      ]
    ],
    "byte_fallback": true
  }
}