<pad>	0
<unk>	0
<s>	0
</s>	0
<0x00>	0
<0x01>	0
<0x02>	0
<0x03>	0
<0x04>	0
<0x05>	0
<0x06>	0
<0x07>	0
<0x08>	0
<0x09>	0
<0x0A>	0
<0x0B>	0
<0x0C>	0
<0x0D>	0
<0x0E>	0
<0x0F>	0
<0x10>	0
<0x11>	0
<0x12>	0
<0x13>	0
<0x14>	0
<0x15>	0
<0x16>	0
<0x17>	0
<0x18>	0
<0x19>	0
<0x1A>	0
<0x1B>	0
<0x1C>	0
<0x1D>	0
<0x1E>	0
<0x1F>	0
<0x20>	0
<0x21>	0
<0x22>	0
<0x23>	0
<0x24>	0
<0x25>	0
<0x26>	0
<0x27>	0
<0x28>	0
<0x29>	0
<0x2A>	0
<0x2B>	0
<0x2C>	0
<0x2D>	0
<0x2E>	0
<0x2F>	0
<0x30>	0
<0x31>	0
<0x32>	0
<0x33>	0
<0x34>	0
<0x35>	0
<0x36>	0
<0x37>	0
<0x38>	0
<0x39>	0
<0x3A>	0
<0x3B>	0
<0x3C>	0
<0x3D>	0
<0x3E>	0
<0x3F>	0
<0x40>	0
<0x41>	0
<0x42>	0
<0x43>	0
<0x44>	0
<0x45>	0
<0x46>	0
<0x47>	0
<0x48>	0
<0x49>	0
<0x4A>	0
<0x4B>	0
<0x4C>	0
<0x4D>	0
<0x4E>	0
<0x4F>	0
<0x50>	0
<0x51>	0
<0x52>	0
<0x53>	0
<0x54>	0
<0x55>	0
<0x56>	0
<0x57>	0
<0x58>	0
<0x59>	0
<0x5A>	0
<0x5B>	0
<0x5C>	0
<0x5D>	0
<0x5E>	0
<0x5F>	0
<0x60>	0
<0x61>	0
<0x62>	0
<0x63>	0
<0x64>	0
<0x65>	0
<0x66>	0
<0x67>	0
<0x68>	0
<0x69>	0
<0x6A>	0
<0x6B>	0
<0x6C>	0
<0x6D>	0
<0x6E>	0
<0x6F>	0
<0x70>	0
<0x71>	0
<0x72>	0
<0x73>	0
<0x74>	0
<0x75>	0
<0x76>	0
<0x77>	0
<0x78>	0
<0x79>	0
<0x7A>	0
<0x7B>	0
<0x7C>	0
<0x7D>	0
<0x7E>	0
<0x7F>	0
<0x80>	0
<0x81>	0
<0x82>	0
<0x83>	0
<0x84>	0
<0x85>	0
<0x86>	0
<0x87>	0
<0x88>	0
<0x89>	0
<0x8A>	0
<0x8B>	0
<0x8C>	0
<0x8D>	0
<0x8E>	0
<0x8F>	0
<0x90>	0
<0x91>	0
<0x92>	0
<0x93>	0
<0x94>	0
<0x95>	0
<0x96>	0
<0x97>	0
<0x98>	0
<0x99>	0
<0x9A>	0
<0x9B>	0
<0x9C>	0
<0x9D>	0
<0x9E>	0
<0x9F>	0
<0xA0>	0
<0xA1>	0
<0xA2>	0
<0xA3>	0
<0xA4>	0
<0xA5>	0
<0xA6>	0
<0xA7>	0
<0xA8>	0
<0xA9>	0
<0xAA>	0
<0xAB>	0
<0xAC>	0
<0xAD>	0
<0xAE>	0
<0xAF>	0
<0xB0>	0
<0xB1>	0
<0xB2>	0
<0xB3>	0
<0xB4>	0
<0xB5>	0
<0xB6>	0
<0xB7>	0
<0xB8>	0
<0xB9>	0
<0xBA>	0
<0xBB>	0
<0xBC>	0
<0xBD>	0
<0xBE>	0
<0xBF>	0
<0xC0>	0
<0xC1>	0
<0xC2>	0
<0xC3>	0
<0xC4>	0
<0xC5>	0
<0xC6>	0
<0xC7>	0
<0xC8>	0
<0xC9>	0
<0xCA>	0
<0xCB>	0
<0xCC>	0
<0xCD>	0
<0xCE>	0
<0xCF>	0
<0xD0>	0
<0xD1>	0
<0xD2>	0
<0xD3>	0
<0xD4>	0
<0xD5>	0
<0xD6>	0
<0xD7>	0
<0xD8>	0
<0xD9>	0
<0xDA>	0
<0xDB>	0
<0xDC>	0
<0xDD>	0
<0xDE>	0
<0xDF>	0
<0xE0>	0
<0xE1>	0
<0xE2>	0
<0xE3>	0
<0xE4>	0
<0xE5>	0
<0xE6>	0
<0xE7>	0
<0xE8>	0
<0xE9>	0
<0xEA>	0
<0xEB>	0
<0xEC>	0
<0xED>	0
<0xEE>	0
<0xEF>	0
<0xF0>	0
<0xF1>	0
<0xF2>	0
<0xF3>	0
<0xF4>	0
<0xF5>	0
<0xF6>	0
<0xF7>	0
<0xF8>	0
<0xF9>	0
<0xFA>	0
<0xFB>	0
<0xFC>	0
<0xFD>	0
<0xFE>	0
<0xFF>	0
▁	-2.53227
ي	-3.70789
ا	-3.77635
و	-3.83312
ك	-3.90412
ت	-3.92813
▁و	-3.98993
ة	-4.01561
ه	-4.11701
▁ال	-4.20377
ن	-4.52193
ب	-4.58179
م	-4.59494
ش	-4.70167
ع	-4.70493
▁ت	-4.75153
ح	-4.76429
▁م	-4.77742
▁ن	-4.84934
▁في	-4.88183
ل	-4.8994
▁ي	-4.94374
▁ب	-4.95207
▁من	-4.96351
د	-4.99323
نا	-5.00432
▁الله	-5.01683
▁ا	-5.10106
ها	-5.11578
ف	-5.1476
س	-5.20192
ال	-5.2576
ين	-5.2684
ط	-5.27892
ق	-5.27923
▁أ	-5.30973
ز	-5.35372
▁ل	-5.36044
ات	-5.39264
▁الم	-5.42759
ية	-5.53002
ج	-5.57004
لي	-5.57815
a	-5.6358
ص	-5.65618
ض	-5.66518
▁ما	-5.66739
▁على	-5.67387
خ	-5.68936
وا	-5.69376
▁ح	-5.70151
هم	-5.7252
را	-5.74588
ر	-5.74764
ان	-5.75561
ني	-5.7674
ما	-5.77954
▁ف	-5.78644
ى	-5.78901
ام	-5.79728
t	-5.82938
ار	-5.84211
ول	-5.84403
s	-5.86596
.	-5.88001
▁وال	-5.8825
i	-5.8843
e	-5.88533
دي	-5.90368
لا	-5.91726
▁لي	-5.93849
o	-5.97359
ذ	-5.97953
h	-5.98825
كم	-5.99187
▁لا	-6.00693
▁ربي	-6.00779
اء	-6.02429
ث	-6.03398
غ	-6.06804
ور	-6.07218
]	-6.07499
أ	-6.07561
▁ان	-6.0767
▁س	-6.07974
▁[	-6.0835
،	-6.10101
▁ع	-6.10684
k	-6.1137
اب	-6.14828
تي	-6.17206
يا	-6.17389
d	-6.18194
MENTION	-6.18432
▁الا	-6.22096
▁مع	-6.239
ون	-6.23966
ست	-6.24626
ري	-6.2476
▁كل	-6.28918
▁انا	-6.29032
اد	-6.30028
l	-6.31371
▁ر	-6.32646
▁يا	-6.36148
▁بال	-6.36237
اس	-6.41242
u	-6.43432
▁ق	-6.43943
▁الع	-6.43996
بي	-6.44798
▁لل	-6.46932
ئ	-6.4815
c	-6.48695
▁...	-6.50299
▁الت	-6.5039
▁أن	-6.51606
...	-6.53139
▁الأ	-6.53946
في	-6.54984
▁ش	-6.54999
ظ	-6.56255
ير	-6.56514
3	-6.58692
▁ولا	-6.60288
ou	-6.60672
بر	-6.61267
در	-6.63551
y	-6.63627
▁،	-6.63882
▁استاذ	-6.64704
m	-6.65054
صل	-6.66824
يل	-6.66851
كل	-6.67048
عا	-6.67312
سي	-6.67842
▁ص	-6.69227
▁1	-6.69442
ذا	-6.70491
r	-6.70715
▁هذا	-6.71552
اف	-6.71634
لك	-6.72168
▁تاع	-6.7495
من	-6.75964
با	-6.7669
▁عليه	-6.76837
▁ج	-6.77117
g	-6.77505
رب	-6.77586
▁-	-6.78306
▁شاء	-6.78668
حب	-6.79548
▁عن	-6.80075
▁الح	-6.81394
▁الج	-6.81948
يش	-6.82111
آ	-6.8238
عد	-6.82907
دا	-6.82913
f	-6.83093
▁عند	-6.83263
لم	-6.83397
قا	-6.84753
يت	-6.85404
مة	-6.86064
)	-6.87069
خر	-6.87301
رة	-6.88438
b	-6.8881
لو	-6.90556
مر	-6.90805
دة	-6.91172
تك	-6.92003
▁الس	-6.92032
1	-6.92052
p	-6.92301
-	-6.92513
مي	-6.93404
ch	-6.94113
▁هو	-6.94421
▁شكرا	-6.94691
علم	-6.94726
▁.	-6.94968
❤	-6.95575
▁❤	-6.95625
▁تع	-6.95782
▁يارب	-6.95795
قول	-6.96595
تو	-6.96806
ha	-6.96963
سم	-6.97617
▁د	-6.98091
2	-6.98772
رو	-6.98945
▁كي	-6.9936
عة	-6.99483
:	-6.99847
سب	-6.99998
5	-7.00294
▁غير	-7.00551
قل	-7.00685
9	-7.01052
▁والله	-7.01403
قر	-7.02385
قد	-7.0298
اح	-7.03816
▁إ	-7.03854
دو	-7.03933
▁مش	-7.04228
n	-7.04482
وف	-7.05399
يب	-7.06003
نت	-7.06208
عرف	-7.06774
7	-7.07329
لة	-7.07676
▁الش	-7.07744
وب	-7.08166
ra	-7.09347
اج	-7.09403
▁خ	-7.09612
▁الب	-7.09626
شر	-7.10374
▁الق	-7.10692
▁اللهم	-7.10734
وم	-7.10911
حر	-7.11589
لنا	-7.12341
يد	-7.12542
عل	-7.12652
جي	-7.12662
▁(	-7.13252
4	-7.13521
▁قال	-7.14023
v	-7.14832
اع	-7.15672
فر	-7.16014
▁غ	-7.16092
مل	-7.16338
؟	-7.164
عم	-7.16536
خل	-7.16923
رحم	-7.17088
▁مت	-7.17154
0	-7.17181
▁تح	-7.17365
▁كان	-7.17564
▁با	-7.17628
j	-7.17753
▁لم	-7.18094
on	-7.18235
وس	-7.18269
▁وي	-7.18928
تش	-7.18973
لق	-7.192
نس	-7.19657
▁الص	-7.1988
▁الن	-7.20129
▁:	-7.20258
▁الف	-7.20286
فا	-7.20435
يم	-7.21017
▁عليكم	-7.23089
ربي	-7.23306
عر	-7.23357
▁هه	-7.23497
تر	-7.23987
وق	-7.24166
▁السلام	-7.2501
▁راه	-7.25243
يف	-7.25528
la	-7.25774
▁بزاف	-7.26278
سل	-7.2643
▁راك	-7.26846
▁لك	-7.27428
حت	-7.27626
▁بصح	-7.28258
▁علا	-7.28455
▁مر	-7.29496
▁إن	-7.29507
▁فال	-7.29633
كر	-7.29918
حل	-7.29975
خت	-7.30771
رج	-7.30792
▁فيديو	-7.31304
in	-7.31614
رح	-7.31707
تها	-7.31762
re	-7.32114
▁😂😂	-7.33079
نجح	-7.33307
▁m	-7.33927
جا	-7.34559
▁حتى	-7.34864
جد	-7.35219
▁دير	-7.35472
قدر	-7.35646
▁است	-7.35845
تم	-7.36043
قي	-7.3649
6	-7.36541
▁راني	-7.36711
جل	-7.36846
صر	-7.37075
▁؟	-7.37172
فهم	-7.37647
كان	-7.37792
▁b	-7.37812
▁هي	-7.37926
▁❤❤	-7.3795
li	-7.38055
بل	-7.38234
؟؟	-7.38416
ود	-7.38577
▁او	-7.38742
an	-7.38834
الله	-7.3961
▁f	-7.39759
ؤ	-7.40068
🤲	-7.40096
▁فيك	-7.4067
▁واحد	-7.40675
▁صح	-7.40815
دعو	-7.40848
جر	-7.41676
اق	-7.41722
😢	-7.41855
زي	-7.4232
حد	-7.42322
طا	-7.4273
▁w	-7.42882
خير	-7.42888
na	-7.43161
فرح	-7.43517
ta	-7.43527
A	-7.43686
▁كامل	-7.43848
▁بارك	-7.43947
دار	-7.43965
▁3	-7.4397
كون	-7.44224
,	-7.4456
▁الر	-7.45409
سلام	-7.45482
لف	-7.45497
▁الإ	-7.46783
ضي	-7.46884
20	-7.46968
▁كنت	-7.49104
رق	-7.49782
😊	-7.49871
▁ون	-7.50075
z	-7.50298
▁وأ	-7.50321
ء	-7.50402
يق	-7.50487
er	-7.5083
دخل	-7.51048
رض	-7.52184
w	-7.52481
هد	-7.52518
قرا	-7.52624
رد	-7.53392
▁لله	-7.5359
*	-7.53677
صح	-7.53723
يس	-7.53988
هل	-7.54482
إ	-7.54487
▁جا	-7.54617
ولي	-7.54724
دير	-7.54815
دين	-7.55953
▁p	-7.56124
▁انت	-7.56348
قص	-7.56508
▁هنا	-7.56841
▁وم	-7.57435
▁بلي	-7.57786
▁هاد	-7.57938
سر	-7.58578
زيد	-7.58718
▁واش	-7.59219
قة	-7.59237
▁😂	-7.59516
جز	-7.59709
فق	-7.5976
❤️	-7.60327
😭	-7.60788
8	-7.60944
▁n	-7.60972
ورة	-7.61051
▁"	-7.61333
▁عليك	-7.61529
😅	-7.61599
طر	-7.61636
▁بعد	-7.61781
مكن	-7.62751
ya	-7.63178
😂	-7.63337
▁الباك	-7.63478
قو	-7.63649
al	-7.6405
▁له	-7.64105
▁مس	-7.65005
▁وحد	-7.6502
طب	-7.65364
▁نتا	-7.65404
طي	-7.66163
▁خير	-7.6621
le	-7.66556
▁بن	-7.66561
▁اي	-7.66651
▁باك	-7.67266
جعل	-7.67693
▁أو	-7.68057
خص	-7.68209
ti	-7.69085
en	-7.69712
▁يحفظك	-7.70255
▁الجزائر	-7.70517
غر	-7.70588
▁يوم	-7.7079
▁برك	-7.71055
▁نفس	-7.71139
/	-7.71475
▁هل	-7.72762
▁2	-7.7277
▁رب	-7.72836
🎉	-7.73646
▁فيها	-7.74208
وني	-7.74558
🤣	-7.79524
é	-7.83331
_	-7.83434
️	-7.86266
'	-7.87289
x	-7.90351
M	-7.90615
R	-7.94863
"	-8.00158
L	-8.00516
q	-8.02027
T	-8.03538
B	-8.06317
🙂	-8.11247
H	-8.11685
S	-8.11904
I	-8.12398
ڨ	-8.1275
!	-8.15497
😍	-8.16259
💔	-8.18542
+	-8.24366
E	-8.2683
D	-8.30308
?	-8.31016
=	-8.31571
N	-8.34519
🥺	-8.34967
🏻	-8.35702
O	-8.38427
C	-8.46826
♥	-8.49972
😮	-8.50608
K	-8.53328
(	-8.57068
ـ	-8.62188
✨	-8.64421
🙏	-8.65005
W	-8.65156
Y	-8.6899
🤍	-8.76265
🥰	-8.80194
🔥	-8.81198
👍	-8.83115
F	-8.88598
💗	-8.91424
~	-8.94372
P	-8.95229
U	-9.00947
🇩	-9.05791
G	-9.09078
🖤	-9.10962
؛	-9.17228
‏	-9.17415
💪	-9.18048
🥹	-9.18409
😁	-9.18461
‪	-9.18564
	-9.2501
‬	-9.27073
👏	-9.31842
🇿	-9.32991
è	-9.34073
🥲	-9.34476
J	-9.36684
😘	-9.37099
🌹	-9.39366
#	-9.39918
‍	-9.44664
👌	-9.48288
V	-9.48637
💜	-9.48684
🤔	-9.49998
😔	-9.50637
»	-9.51544
^	-9.52098
«	-9.54144
💖	-9.55883
’	-9.60943
💕	-9.63721
☺	-9.77091
}	-9.80556
ی	-9.83319
{	-9.83881
✅	-9.84446
à	-9.86228
😱	-9.90739
Z	-9.96812
ک	-10.0085
💙	-10.0164
✌	-10.0713
%	-10.0915
🫶	-10.0959
•	-10.1006
٠	-10.1356
ڤ	-10.1496
🙄	-10.1546
💓	-10.1555
🤦	-10.1655
😎	-10.1761
😹	-10.1775
X	-10.1992
😥	-10.2044
😉	-10.2087
😇	-10.2092
💞	-10.2111
🙃	-10.2126
😑	-10.2222
🤗	-10.2242
ٱ	-10.23
😒	-10.2305
🌸	-10.2439
ç	-10.2579
Q	-10.2614
|	-10.267
١	-10.27
ê	-10.2726
💀	-10.2782
>	-10.2933
💯	-10.2964
❌	-10.3376
🤩	-10.3507
🏼	-10.3513
–	-10.3692
٢	-10.3708
💚	-10.3725
🌷	-10.3896
♀	-10.3902
😐	-10.4018
😩	-10.5321
🩷	-10.5576
😏	-10.5604
😆	-10.5624
×	-10.5651
°	-10.5769
ۡ	-10.605
🌚	-10.615
😀	-10.6383
😨	-10.645
❣	-10.6774
😄	-10.6828
😌	-10.6991
🥀	-10.7094
<	-10.7173
🎀	-10.7205
🇦	-10.731
\	-10.7334
ھ	-10.7506
🇲	-10.7522
🇵	-10.763
@	-10.785
[	-10.8017
😞	-10.803
🌺	-10.8065
😡	-10.8065
🇸	-10.8215
گ	-10.8366
♂	-10.8375
پ	-10.8411
ڪ	-10.8493
;	-10.8548
♡	-10.8557
â	-10.8742
😓	-10.8798
😳	-10.8892
😃	-10.9074
😶	-10.9279
😕	-10.9348
✔	-10.9732
🗿	-10.9732
💛	-10.9794
٣	-10.9867
﴾	-10.9972
👇	-10.9982
﴿	-11.011
👑	-11.0196
😰	-11.0228
🤨	-11.066
”	-11.0773
💋	-11.1158
😈	-11.1521
🩹	-11.1533
🤷	-11.1683
🤮	-11.1859
٤	-11.1923
😫	-11.1936
🫡	-11.2027
💥	-11.2236
🤌	-11.2518
↗	-11.2518
😻	-11.2532
٥	-11.2559
🤭	-11.26
☠	-11.2766
🤝	-11.285
😣	-11.2935
😜	-11.3035
🙌	-11.3035
&	-11.3064
î	-11.3092
💫	-11.3136
👻	-11.3165
🤡	-11.3252
ï	-11.3267
😋	-11.3282
👽	-11.3296
⭐	-11.3296
⁠	-11.346
🦋	-11.3505
🌼	-11.352
🫀	-11.3934
👋	-11.4189
“	-11.4221
💝	-11.4466
🙋	-11.4482
۞	-11.4906
$	-11.4907
👀	-11.4923
▪	-11.4927
🥳	-11.4975
😵	-11.5098
🤯	-11.5098
😬	-11.5151
😖	-11.524
ࢪ	-11.5275
٦	-11.5365
☹	-11.5475
😤	-11.553
٩	-11.5772
😟	-11.5772
🐧	-11.581
🏽	-11.5962
😚	-11.6059
٨	-11.6175
👎	-11.6195
⬆	-11.6255
🤬	-11.6434
☝	-11.6454
🎓	-11.6474
ô	-11.6762
😪	-11.6824
🥴	-11.6866
🤢	-11.6908
💐	-11.6951
ᅠ	-11.7015
٧	-11.7036
🫂	-11.7057
ہ	-11.7296
❎	-11.734
😠	-11.7791
🤧	-11.8024
💩	-11.8119
🧐	-11.8312
🙁	-11.841
✋	-11.8459
🔪	-11.8459
·	-11.8483
💎	-11.8508
👊	-11.8633
💨	-11.8887
🤎	-11.9095
ۚ	-11.9095
🌝	-11.9174
🐸	-11.9388
↖	-11.9389
ۖ	-11.9443
🕋	-11.9497
💟	-11.9552
🧡	-11.9607
§	-11.9663
‌	-11.9691
⚡	-11.9803
👈	-11.9803
٫	-11.9831
🌟	-11.9831
🙆	-11.9859
🔴	-11.9916
🤓	-11.9974
É	-12.0002
✊	-12.0118
😲	-12.0176
🫠	-12.0294
🌙	-12.0414
😝	-12.0565
🤫	-12.0595
٪	-12.0906
👹	-12.0937
—	-12.1
😿	-12.1096
👩	-12.1096
🤪	-12.1128
💃	-12.116
🍯	-12.1193
û	-12.1258
🙈	-12.1356
🇧	-12.1422
🕊	-12.1489
😙	-12.1522
💘	-12.1657
🤏	-12.1691
🥶	-12.1691
🌿	-12.1725
�	-12.1828
😯	-12.2003
