#version: 0.2
Ø §
Ù Ħ
Ġ Ù
Ġ Ø
Ù Ĭ
Ø§ ÙĦ
Ù Ĩ
Ù ħ
Ø§ Ø
Ġ Ø§ÙĦ
Ù Ī
Ø ±
Ù ĩ
Ø ª
Ù ĥ
ĠÙ Ī
Ø ¨
Ø ¯
Ø ©
Ø ¹
ĠÙ ħ
Ø Ń
Ù Ĥ
Ù ģ
Ø ³
č Ċ
ĠØ ¨
ĠÙ ģ
Ġ ÙĦ
ĠØ ¹
ĠÙ Ĭ
Ø§ ÙĨ
Ø ¬
ĠØ ª
Ø ´
ÙĦ Ùĩ
ĠØ £
Ù ī
ÙĦ ÙĬ
ð Ł
Ø µ
ĠÙģ ÙĬ
ĠÙ Ĩ
ĠÙ ĥ
ĠØ ±
Ø ®
ÙĬ ÙĨ
ĠÙħ ÙĨ
Ø £
Ø ·
Ø§Ø ±
Ø§Ø ª
Ø§ Ùħ
Ø ²
ĠØ§ÙĦ ÙĦÙĩ
ĠÙ ĩ
Ø °
ÙĬ Ø±
Ø ¶
Ġ Ø§Ø
ÙĨ Ø§
Ùĩ Ø§
ĠÙ Ĥ
ĠØ Ń
ĠØ§ÙĦ Ùħ
ÙĦ Ùī
ÙĬ Ø©
ðŁ ĺ
. .
Ø¨ ÙĬ
ĠØ ´
ÙĦ Ø§
Ùĩ Ùħ
ÙĪ ÙĨ
Ø§Ø ¨
Ø «
ĠØ ³
ĠÙĪ Ø§ÙĦ
Ø§Ø ¡
ÙĦ Ùħ
Ø¯ ÙĬ
Ø§Ø ¯
Ø Į
Ø± ÙĬ
Ø§ Ùĥ
ÙĪ ÙĦ
ĠØ ¬
ĠØ ¥
Ø§Ø ³
ĠØ ®
ĠØ ¯
Ø º
ĠØ¹ ÙĦÙī
Ġ Ø§ÙĨ
Øª ÙĬ
Ø§Ø ¹
â Ŀ
Ùħ Ø§
ĠØ µ
âĿ ¤
ĠØ¹ ÙĦÙĬ
Ùĥ Ùħ
ĠØ§ÙĦ Ø¹
ĠØ Į
ĠØ¹ ÙĨ
Ø§Ø Ń
ÙĪ Ø±
Ø§ Ùģ
Ø§ ÙĬ
.. .
Ø§ Ùĩ
ÙĨ ÙĬ
ĠØ£ ÙĨ
ØŃ Ùħ
Ø§Ø ¦
Ø ¥
Ø ¸
ÙĦ Ùĥ
ĠØ¨ Ø§ÙĦ
ĠÙĦ ÙĬ
ĠÙħ Ø¹
Ùĥ Ø±
Ø§Ø ´
ĠØ§ÙĦ Ø£
ÙĪ Ø§
Ø° Ø§
ðŁĺ Ĥ
Ø§Ø °
ÙĪ Ùħ
Ùģ ÙĬ
Ø³ Øª
Ø§Ø ¬
Ø§ ÙĪ
ĠØ§ÙĦ Ø³
ĠØ§ÙĦ Ø¬
ĠØ§ÙĦ Øª
ĠØ§ÙĦ ÙĨ
ĠØ§ÙĦ ØŃ
ĠÙħ Ø§
ĠØ§ÙĦ ÙĤ
Ø¨ Ø±
ÙĬ Ø¯
Ġ ðŁ
ÙĦ Ø§Ùħ
Ùħ ÙĨ
ĠÙĦ Ø§
ĠØ§Ø ³
ĠØ º
ĠØª Ø¹
Ġ .
Ùģ Ø±
ÙĦ Ø©
Ġ :
Ġ (
ĠØ§ÙĦ Ø¨
ĠØ ·
Ø¯ Ø±
Ø¹ Ø¯
ĠØ§ÙĦ Ø´
ÙĦ ÙĪ
Ø± Ø¨
Ø§ÙĨ ÙĬ
Øª ÙĪ
O N
E N
T I
M EN
TI ON
MEN TION
Øµ ØŃ
ÙĪ Ùģ
ÙĨ Øª
Ùħ ÙĬ
Ġ ...
ĠØ± Ø¨ÙĬ
ÙĤ ÙĬ
ĠÙĥ ÙĬ
Ø Ł
ĠÙĦ ÙĦ
Ø± Ùĥ
Ġ âĿ¤
Ġ -
ĠÙĥ ÙĦ
ÙĬ Ø§
ÙĬ Ø¨
ĠØ¹ÙĦÙĬ Ùĩ
ĠØ§ÙĦ Ø±
Ø± Ùģ
Ø³ ÙĦÙħ
ĠÙĥ Ø§ÙĨ
Ġ 1
Ø± Ø©
Ùĥ ÙĪÙĨ
Ùħ Ø¹
ĠÙĤ Ø§ÙĦ
Ġ ðŁĺ
ĠÙĪ ÙĦØ§
Ùĥ ÙĨ
ĠØ °
Ùħ Ø±
Ø¹ ÙĪ
Øª Ùĩ
ÙĤ Ø¯
ÙĤ Ø©
Ø³ ÙĬ
Ġ "
ĠÙĩ Ø°Ø§
Ø¯ Ø©
ĠØ§ÙĦ Ùĥ
Ø§ÙĦ ÙĦÙĩ
Ø§ÙĨ Ø§
ĠØ§Ø³ Øª
ĠÙĪ ÙĬ
Ø§Ø± Ùĥ
ĠÙĬ ØŃ
ĠÙĪ Ø£
Ø¹ Ø©
Ø¨ Ø©
Ø§Ø µ
Ø± ÙĪ
Ġ 2
Ø ¢
ĠØª ØŃ
Ùħ Ø©
ÙĤ Øª
Ø ¤
Ùĥ ÙĬ
Ø ¦
ĠÙĬ Ø¹
ĠØ§ÙĦ Ø¯
o u
ĠØ ²
ĠØ§ÙĦ Ø®
ĠØ§ÙĦ Øµ
Ø§Ø³ Øª
ĠØ§ÙĨ Ø§
ĠÙĬ Ø§
Ø§Ø ²
Ø¯ÙĬ ÙĪ
ĠØ «
ÙĦ Øª
Ø¯ Ø§
ĠÙĩ ÙĪ
ĠØ§ÙĦ Ø¥
ĠØ§ÙĦ Ùģ
ĠØ£ ÙĪ
ĠØ¹ÙĨ Ø¯
Ø® Ø±
ĠØ¨ ÙĨ
ĠÙĪ Øª
ÙĨ Ø©
ĠØ Ł
Ġ l
ÙĬ Ùĥ
ĠØ§ÙĦ ÙĪ
ĠØ§Ø ®
Ø§Ø ®
h a
ÙĤ ÙĪÙĦ
Ø± ØŃ
Ġ m
Ø± Ø¨ÙĬ
ĠÙĪ Ùĩ
ÙĬ Ùħ
ÙĥØ± Ø§
Ġ t
ĠØ§ÙĦ Ø°
ĠØ´ Ø§Ø¡
ĠØª Ø§Ø¹
ĠÙĦ Ùħ
ĠØº ÙĬØ±
ØŃÙħ Ø¯
ÙĪ Ø¬
ĠØ¥ ÙĦÙī
Ø¨ ÙĦ
Ø§Ø ·
Øª Ùī
ÙĦ Ø¨
Ø§Ø ©
Ùģ Ø³
ĠÙĪ ÙĨ
ĠÙĨ Øª
Ø¨ Ø¯
Ġ Ø§Ùħ
Ġ ðŁĺĤ
ĠÙĩ Ø°
ÙĪ Ø¯
Ùĥ ÙĦ
ÙĦ ÙĤ
Øª Ùĥ
ØŃ ÙĬ
Ø¹ Ùħ
Øª Ùħ
Ø³ ÙĦØ§Ùħ
Ø§Ø ¶
ĠÙĪ ØŃ
ÙĪ Ø¹
â Ģ
Ùģ Ø¸
ÙĤ Ø±
ĠÙħ Øª
ĠÙĪ Ø³ÙĦÙħ
Ø§ÙĦ Ùħ
Ø§Ø± Ø¨
Ø¹ Ø¨
Ø¹ ÙĦ
ĠØ§Ø ¨
ĠÙħ Ø´
ĠÙĪ Ùħ
ÙĤ Ø§ÙĦ
ÙĪ ÙĬ
ĠØ¥ ÙĨ
Øª Ø¨
ĠÙĦ Ùĩ
ĠÙĪ Ø¬
Ø¯ ÙĬØ±
Ø ¡
ØŃ Ø¨
Ø³ Ùħ
ĠÙĪ ÙĦ
ĠØ§ÙĦ Ø·
ĠØ§ÙĦ ÙĬ
ĠØ± ÙĪ
Ø³ Ø¨
r a
Ùģ Ø©
Ø§ ÙĤ
ĠÙĬ Ø¬
ĠÙĪ Ø±
ÙĦ ÙĨØ§
ĠØ¨ Ø²
ØŃ Ùĥ
ÙĪ Ùĥ
Ġ b
ĠØ® ÙĬØ±
ï ¸
ï¸ ı
ÙĬ Øª
Ø£ ÙĨ
Ġ a
ÙĬ Ø®
Ø³ ÙĨ
ĠØŃ ØªÙī
- -
ĠØ ¢
ĠØµ ÙĦÙī
e s
ÙĪ Øª
ðŁ ¤
Ø§Ø¯ Ø©
ØŃ Ø©
ÙĬ Ø§Øª
ĠÙĪ Ø¹
ĠÙĬ ÙĨ
ĠÙĦ Ùĥ
Ø± Ø¬
ĠØ¨ ÙĦ
Ø¥ ÙĨ
Ø® ÙĦ
ĠØ ¶
Ġ d
Ø² Ø§Ø¦
ÙĤ ÙĪ
Ø« Ø±
Ø± Ø¶
c h
Øª ØŃ
Ø¹ ÙĬ
o n
i n
ĠÙĪ Ø¨
Ùħ ÙĦ
Ġ2 0
Ġ 3
ĠØ¨ Ùĩ
Øµ ÙĦ
ĠÙĪØ§ÙĦ ÙĦÙĩ
ÙĦÙĩ Ø§
Ġ )
ĠØ¹ÙĦÙĬ ÙĥÙħ
ÙĪØ± Ø©
ĠØ§Ø³Øª Ø§Ø°
ÙĨ Ø³
ĠØ¨ Ø¹Ø¯
ĠÙĪ Ø§ØŃ
ÙĪ Ø³
Ùĥ Ø§ÙĨ
Ø§ÙĦ ÙĬ
Ùģ Ø¶
Ġ s
Ø§Ùħ ÙĦ
ĠØ§ÙĦ ØªÙĬ
Ġ Ø§ÙĪ
ĠØ¨ Ø¹
ĠØ° ÙĦÙĥ
ĠÙģÙĬ Ùĥ
Ġ w
ĠØ¨ ÙĬÙĨ
Øª Ø§Ø¨
l a
Ùĩ Ø±
r e
Øª Ø±
ĠØ£ Ø®
Ø² ÙĬ
* *
Ø¬ ØŃ
ĠÙĬ Ø±
Ùĩ ÙĦ
ĠÙģ Ø§ÙĦ
Ø¯ Ùħ
Ġ n
ĠÙĩØ° Ùĩ
ĠÙĨ Ø´
ĠØ§Ø Ń
Øµ Ø©
ĠÙĩ ÙĬ
ĠÙĦ ÙĦÙĩ
ÙĬØ± Ø©
ĠÙģÙĬ Ùĩ
ĠÙħ Ø±
ðŁ Ĵ
ÙĬÙĨ Ø§
ĠðŁ ¤
ĠØ¨Ø² Ø§Ùģ
Øª Ø´
Ġ Ø§
ÙĦ Ø³
Ø¯ ÙĪ
ĠÙħ ÙĪ
Ġ f
Ø® Øµ
Ø¨ ØŃ
ĠØ§ÙĦØ° ÙĬ
Ø¨ Ø§Ø±Ùĥ
Øª ÙĩØ§
ĠØ§ÙĦ Ø«
ĠØ¨ ÙĬ
ĠÙĥÙĬ Ùģ
Ø· ÙĬ
Ø¶ ÙĬ
ĠÙħ ØŃ
Ġ y
Ø§Ø¯ ÙĬ
ÙĪ Ø¨
ĠØ¯ ÙĬØ±
ĠØ£ Ùħ
Ø§Ø³Øª Ø§Ø°
ĠÙģÙĬ ÙĩØ§
Ġ Ø§ÙĬ
Ġ [
ĠØ± Ø¨
ĠÙĪ Ø´
ÙĦ Ùģ
ĠØ± Ø§Ùĥ
ÙĬ Ø´
Ġ k
Ø§ÙĦ Ùī
ÙĤ Ø·
ĠÙĦ ÙĪ
ĠØ£ ÙĬ
ĠØª Ø¬
Ġ Ø§Ø±
Ġ c
Ø§Ø± Ø©
ĠØ§Ø ¯
ÙĪ ÙĦÙĬ
e r
ĠÙģÙĬ Ø¯ÙĬÙĪ
ÙĬ ÙĦ
ĠÙĩ ÙĨØ§
ĠÙĪ ÙĦÙĬ
Øµ Ø±
Ø³ ÙĪÙĦ
ĠÙĨ ØŃ
ĠâĿ¤ âĿ¤
e n
ĠØ¨ ØµØŃ
Ġ âĢ
Ġ p
Ø« ÙĦ
Ø´ Ø±
ĠØ§ÙĦÙĦÙĩ Ùħ
Ø¨ Øª
ĠØ§ÙĦØ¬ Ø²Ø§Ø¦
ĠÙĨ Ø¬
ĠðŁĺĤ ðŁĺĤ
ĠÙĪØ§ØŃ Ø¯
ĠØ´ ÙĬ
Ø§Ø¨ Ø©
ĠØ¥ ÙĦØ§
Ø§Øª Ùĩ
ĠÙĬ Ø§Ø±Ø¨
ĠØ§ÙĦ Øº
ĠÙĩ Ùĩ
ĠÙĬ Øª
Ø§ ÙĬÙĨ
ðŁĺ ¢
ÙģÙĬ Ø¯ÙĬÙĪ
ĠÙħ ÙĬ
ĠÙĬ ÙĪÙħ
ĠØ´ ÙĥØ±Ø§
ĠØ® ÙĪ
Ø§ ÙĬØ©
Ø¹ Ø±
Ġ20 2
ĠÙħ Ø³
ĠÙĥ ÙĨØª
ØŃ Ø¯
0 0
Ø¶ Ø§
ÙĤ ÙĦ
ÙĪÙĨ ÙĬ
Ø§Øª Ùĥ
ĠØ§Ø ¹
ĠØªØ¹ Ø§ÙĦÙī
ĠÙĬ Ø´
ÙĤ Ø¯Ø±
ÙħÙĬ Ø¹
Ø¨ Ø¹
ĠÙĪ ÙħÙĨ
a n
ĠÙĥ ÙħØ§
ĠÙĨ Ø³
ĠØ¨ ÙĦÙĬ
ĠÙĬØŃ ÙģØ¸
Ùħ Øª
ĠØª ÙĪ
ĠÙĨ ÙģØ³
ĠØ± Ø§ÙĨÙĬ
ĠÙĥ Ø§ÙħÙĦ
ĠØ§ÙĦØ¨ Ø§Ùĥ
ÙĪ Ø´
ĠØ¹ÙĦÙĬ Ùĥ
ĠÙħ Ø¬
ĠÙĦ ÙĥÙĨ
Ø¨ Ùĩ
Ùģ Øª
ĠØ± Ø§Ùĩ
ĠØ¨ Ùĥ
ĠØ¯ Ø±
ĠÙĬ ÙĥÙĪÙĨ
Ø§Ø¹ Ø©
ĠØ§Ø¨ ÙĨ
ĠØ« Ùħ
ÙĪ Ø±ÙĬ
ĠØ³ ÙĬ
Ùĩ Ø¯
ĠØ§ÙĦÙħ ÙĪ
ĠØ§Ø ¬
ĠØ§ÙĦ Ø²
ĠØ¹ Ø¨Ø¯
ĠÙĩ ÙĦ
ĠØ§ÙĦÙĤ Ø±
ĠØ± ØŃÙħ
i s
ĠØ§ÙĦÙĨ Ø§Ø³
Ø¨ ÙĪ
Ø³ Ø±
ĠÙĤ Ø¯
ØŃ Ø±
Ø¹ÙĪ ÙĦÙĬ
Ùħ ÙĪ
ĠÙĬ Ø®
ĠØ§ÙĦ ØµØŃ
ÙĪÙģ ÙĤ
Ø§ ÙĩÙħ
Ø« ÙĬØ±
ĠØª Ø´
Ġ Ø§Ùĥ
Ùħ ÙĥÙĨ
Øº ÙĬØ±
Ã ©
Ø¹ ÙĦÙħ
Ø¯ ÙĬÙĨ
Ø§ÙĦ Ùĥ
Ø· Ø©
ĠÙħ ØŃÙħØ¯
ĠØµ ØŃ
ĠÙĬ Ø¯
Øµ Øµ
Ø¨ Ø§
ĠØª ÙĨ
ĠÙģ Ø¶
ĠÙĤ Ø¨ÙĦ
Ø¬ ÙĦ
l i
ĠØ¨ Ø±Ùĥ
ĠØ§ÙĦØ¹ ÙĦÙħ
Ùģ Ø¹
ĠÙĪ ÙĬÙĨ
ĠØ¨ Ø§Ùĥ
Ø§ÙĦÙĦÙĩ Ùħ
= =
ĠØ§ÙĦØ³ ÙĦØ§Ùħ
ĠØ§ÙĦØ¬Ø²Ø§Ø¦ Ø±
ĠØ± Ø³ÙĪÙĦ
ĠØª ÙĤ
Ùģ ÙĩÙħ
ÙĪ Ùĩ
ĠÙħ ÙĦÙĬ
ĠØ¥ ÙĦÙĬ
n a
t i
Ø´ ÙĥØ±Ø§
ĠðŁĺ ¢
âĿ¤ âĿ¤
Ø³Øª Ø§Ø°
Ø§ÙĦ Ø©
Ø¢ ÙĨ
ĠÙĥØ§ÙĨ Øª
İ ī
ĠØ§ÙĦ ÙĦ
ÙĦÙĬ ÙĦ
Ø§Ø «
Ø§Ùħ Ø©
ĠÙĪ Ø§Ø´
ĠØ§ÙĨ Øª
Ø² ÙĬØ¯
Ġ h
Ø¯ÙĬ Ø«
ĠØ¹ Ùħ
ÙĪ Ø©
ĠÙħ Ø§Ø´
ĠÙĪ Ùĥ
Ø¹ Øª
ĠÙĪÙĩ ÙĪ
Ø§Ø± ÙĬ
ÙĪ ÙĤ
ĠÙģ Ø±
ĠØ¨Ø¹ Ø¶
a r
ĠØ¨ Ø¯
ðŁĺĤ ðŁĺĤ
Ø° ÙĦÙĥ
ĠØ§ÙĦØ¹ Ø§ÙĦÙħ
Ø®Ø± Ø¬
_ _
ĠðŁ Ĵ
Ø¹ Ø±Ùģ
ĠÙĪ Ùģ
ĠÙĬØŃÙģØ¸ Ùĥ
Ġ Ø§Øª
ÙģØ± Ø¬
ĠÙĬ ÙĤÙĪÙĦ
ÙĬÙĨ ÙĬ
ĠØ¥ Ø°Ø§
ĠØª Øª
ĠØ¨ Ø§Ø±Ùĥ
ĠÙĪ Ø³
ĠÙĪ ÙĦÙĥ
Ø³ Ø§ÙĨ
ÙĦÙĩ Ùħ
ĠÙĬ Ø³
ĠØ§ÙĦÙħ ÙĨ
Ġ Ø§Ùģ
ĠÙĦ Ø£ÙĨ
ĠØ¨Ø§ÙĦ Ùħ
Ø§Ø° Ø§
Ġ ,
ĠÙĪØ§ÙĦ Ùħ
ĠØ§ÙĦÙĨ Ø¨ÙĬ
Ø¬ Ø±
ĠØ¹ ÙĦ
ĠØŃ Ùĥ
Ø§ ÙĪÙĦ
Ø§ÙĦ Ø³ÙĦØ§Ùħ
-- --
ÙĩÙħ Ø§
Ø´ ÙĬ
Ġ v
ĠØ¹ÙĨ Ùĩ
ĠØ¨ Ùħ
ĠØ§ÙĦÙħ Ø±
ĠØ¨ Ø±
ĠØª Ùħ
o m
ÙĨ Ø¯
ĠØ§ÙĦ Ø§Ø³
ĠØª Ø³
ĠÙĪ Ø¥
Ø±ÙĬ Ùħ
ĠÙĪ Øµ
ĠÙĦ Ø¨
Ø§ÙĦ ØŃ
ĠØ¹ ÙĦÙħ
Ġ 4
Ùħ ÙĬÙĨ
ĠØ¨ Ø§Ø´
Ùħ Ø§ÙĨ
Ø¸ Ø±
Ùĩ ÙĪ
Ø· Ø±
Ø±Ø¨ ÙĬØ©
ĠÙĩ Ø§Ø¯
ĠØ§ÙĦÙħ Ø´
ĠØª Ø®
ĠØª ÙĥÙĪÙĨ
a l
e l
ĠØ£ Ø³
ĠØ§ÙĦ ÙģØ±
i d
Ø² ÙĤ
Ø¨ ÙĤ
ĠØ§ÙĦ Ø§ÙĨ
ĠØŃ ÙĬ
ĠÙĤ Ø±
Ø¯ÙĬ Ø¯
ĠÙĨ Øµ
ĠØ§ÙĦ Ùī
ĠÙħ Ø§Øª
ÙĪØ±ÙĬ Ø§
ĠÙĪ ÙĤ
Ø§Ø¬ Ø©
ðŁ ¥
Ø² Ø§Ùĥ
Ø¶ ÙĪØ¹
Ø· ÙĦ
ĠÙĬ Ø³Øª
ĠØŁ ØŁ
ĠÙĦ ÙĦÙħ
ĠØ ¸
Ø¶ ÙĦ
ĠÙħ Ø³Øª
ĠØª Ø±
Ø¬ Ø¨
ĠÙĪ ÙģÙĬ
ÙĪ Ø§Øª
ĠØ¯ Ø§Ø±
Ø¯ Ùī
ĠÙĬ ÙĪÙģÙĤ
ĠÙģ Ø¥ÙĨ
ĠÙĥÙĬ ÙħØ§
ĠÙĦ Ø¹
Ġ â
ĠØ£ ÙĨØ§
ÙĦÙĬ Ø©
Ġm a
ÙħÙĨ Ùī
t a
ÙĬ Ø¹
ĠØ£ÙĨ Ùĩ
Ø° Ùĩ
ĠØ± Ø§ØŃ
ĠØ¹ÙĦÙĬ ÙĩØ§
Ø¤ Ø§ÙĦ
ĠÙĬØ± ØŃÙħ
Ø§Ø º
ĠØ¹ ÙĦØ§
ĠØ£ Ùĥ
Ø§ÙĦ ÙĪØ±ÙĬØ§
ĠØ®ÙĪ ÙĬØ§
ĠÙĪ Ø§ÙĨ
Ø´ Ø§Ø¡
ØŃ ÙĪ
ÙĨ Ùī
Ø¯ Øª
Ø³ Ø©
ĠØ§Ø °
ĠÙĥ ØªØ§Ø¨
ĠØ§ÙĦ ÙģÙĬØ¯ÙĬÙĪ
ĠØ§ÙĦÙħ Ø¬
Ø¯ Ùĩ
ðŁĺ Ĭ
ĠØ¨ ÙĩØ§
ØŃ ÙĤ
Ùĩ ÙĬ
ĠØ¹ÙĨ Ø¯ÙĬ
Ø· ÙĬÙĥ
ÙģÙĬ ÙĤ
Ġ 5
i r
ĠÙĦ Ø£
ÙĪ Ø²
ĠÙĦÙĬ Ø³
ĠØ§ÙĦÙħ Ø³ÙĦÙħ
o r
i t
Ø¯ ÙĦ
Ø§Ø± ÙĬØ®
ĠØ®ÙĬØ± Ø§
ĠÙĪ ÙħØ§
ĠÙģ Ø£
ØŁ ØŁ
Ġ g
ĠØ§ÙĦÙħ Ø³
Ļ Ĥ
ĠÙĬ ÙĤ
Ø§Ø² Ùħ
ÙĬÙĨ Ø©
ĠðŁ¤ ²
ĠØ§ÙĦ Ø¢
ĠÙĥ Ø§ÙĬÙĨ
ØŃÙħ Ø©
ĠØª Ø¨
ĠØ´ÙĬ Ø¡
Ø±ÙĬ ÙĤ
ĠÙĩ Ø§Ø°
ĠÙĨØ¬ ÙĬØ¨
ĠØ¨ Ø£
Ùĩ Ø§Ø±
ðŁĺ Ń
Ú ¨
y a
ĠØ¹ Ø§Ùħ
Ø§ÙĨ ÙĬØ©
ĠØ® ÙĦ
Ø§Øµ Ø©
ĠÙħ ÙĦ
ÙģØ¶ ÙĦ
ÙĪ Ø§ÙĨ
Ø§ÙĦ Ùĩ
ĠÙģ ÙĤØ·
ĠØ§ÙĦ Ø§Ø®
ĠØ§ÙĦÙĬ ÙĪÙħ
a h
ĠØ§ÙĦØ¥ Ø³ÙĦØ§Ùħ
ĠÙħ Ø®
ĠÙĬØ¹ ÙĨÙĬ
Ø¹ ÙĪÙĨ
ĠÙĪ ÙĤØ§ÙĦ
ĠØ§Ø ´
Ø±ÙĬ Ø¨
ĠØŃ Ø¨ÙĬ
Ø§ÙĬ Ø§
ĠÙĥ Ø¨
ÙĦ Ø§Ø©
Øº ÙģØ±
ĠÙĥ Ø«ÙĬØ±
ðŁ¤ ²
ĠØ¬ ÙħÙĬØ¹
ĠÙħÙĨ ÙĩØ§
ÙĪÙĦ Ø©
ĠØ¹ Ø¨
ðŁ ı
ĠØ§ÙĦ ØŃÙħØ¯
ĠØ± Ø¬
Ø¹ ÙĦÙĬ
ðŁ İī
ĠÙĪ ÙĤØ¯
ĠðŁ ¥
ĠØ£ Ø¨ÙĬ
Ø§Ø¯ Ø±
ĠØ± Ø¶ÙĬ
Ø§Øª ÙĬ
ĠÙĨ ØŃØ¨
Ø¬ Ø©
Ùħ Ø§ÙĦ
ĠÙĦ ÙĩØ§
Ø§Ø± Ø¨ÙĬ
ĠØ± Ø§Ø¬
ĠÙħÙĨ Ùĩ
l e
Ø¯ Ùĥ
d a
ĠÙĩ Ùĥ
Ø¶ Ø¹
ĠÙĦ ÙĨØ§
ĠØ¹ ÙħØ±
ĠÙĬ Ùĩ
Øº Ø©
ĠØ§ÙĦ Ø¯Ø±
ĠØ§ÙĦÙħ Ø¹
Ġ ha
ÙĤ Øµ
ĠØ§ÙĦØ£ Ùħ
ÙĬ Ùĩ
ĠÙħ Ùĥ
ðŁĺ ħ
Ġ Ø§Ùĩ
Ø¨Ø± Ùĥ
ĠØ§Ø® ØªÙĬ
ĠÙĪÙĦÙĥ ÙĨ
ĠÙħ Ø«
ĠØ§ÙĦ Ùĩ
Ø¹ Ø¨Ø©
ÙĪ ØªÙĬ
Ø±ÙĬ ÙĤØ©
ÙĤ Ø§
Ġ ra
ĠÙĦ Ø§ÙĨ
ĠØª Øµ
ÙĨÙĬ Ø§
ĠØ§Ø® ÙĬ
ĠØ³ ÙĨØ©
Ø° ÙĥØ±
e t
ĠØ§ÙĦØ¬ ÙĨØ©
ĠÙĪ ÙĤØª
ĠØ§ÙĦ Ø§
ÙĪ Ø§Ø¨
ĠØ§ÙĦÙĤØ± Ø¢ÙĨ
âĿ¤ ï¸ı
Ġ j
m a
ÙĦÙĬ ÙĨ
Ġ *
ĠØ¬ ÙĨ
ĠØ¯ ÙĬ
Ø§ÙĦ Ø¨
Ùħ Ø³
Ùħ Ø¶
ĠØ§Ø³ Ùħ
ĠÙĨ ÙĨ
Ø¶ Ø±
ĠÙĪ ÙĦÙħ
ĠØ£ Ø¹
Ø¯ Ø¯
Ùĩ Ùĩ
ðŁ¤ £
ÙĪ ÙĬØ©
Ø® ÙĬØ±
ĠÙĪ Ø¥ÙĨ
ÙĪ Ø§ÙĦ
ÙĬ ØŃ
ĠÙģ Øª
ÙĪ Øµ
ĠÙģØ¶ ÙĦÙĥ
ÙĤ Ø¹
ĠÙħØ§Ø´ ÙĬ
ĠØª Ùģ
ÙĪ Ø§ÙĦÙĦÙĩ
ðŁ ĳ
Ġ1 9
ÙĬØ¨ Ø©
Ø§Ø³ ÙĬØ©
Ø¨ Ø§ØŃ
Øª ÙĦ
i l
ĠØŃ Ø±
ÙĦÙħ Ø©
Øº ÙĬ
ĠØ§Ø µ
ĠØ§ÙĦØ® ÙĬØ±
ĠØ£ ØŃØ¯
ĠØ£ ÙĩÙĦ
Ø Ľ
Ø±ÙĬ Ø¯
ĠÙħ Ø±Ø©
ĠØ§Ø° Ø§
ĠØ§ÙĦ Ø¨ÙĬ
Ùĥ ÙĪ
ĠÙĪØ§ÙĦ Ø£
ÙĤÙĬ ÙĤØ©
ĠÙħ Øµ
ĠÙģ ÙĤØ§ÙĦ
Ø±ÙĪ ØŃ
Ø¸ ÙĬÙħ
ĠÙĬÙĨ Ø¬ØŃ
ĠÙĦ ÙĨ
ĠØ³ ÙĨ
ĠÙĤ ÙĦØª
ĠÙĤ ÙĦ
Ø¤ ÙħÙĨ
Ùħ Ø§Ùħ
ĠØ§ÙĦ Ø§Ùħ
Ø² Ø©
ĠØ§ÙĦØ´ ÙĬØ®
ĠØ¨Ø§ÙĦ ÙĦÙĩ
ĠØ§ÙĦ ÙĦÙĬ
ĠØ± Ø£
ĠØ£ ØŃ
** **
Ø§Ø¦ ÙĦ
ĠÙĬ Øµ
ĠÙħ ÙĤ
ĠØ° ÙĥØ±
ĠØ£ Ø¬
Ø¬ Ø§ØŃ
ĠÙĤ ØµØµ
ĠØ¬ Ø§Ùħ
ĠÙĪØ£ ÙĨ
ÙĪ ÙĦÙĩ
Øº Ø±
b i
Ø¨ Ø§Ø¨
ĠØ§ÙĦØ¯ ÙĬÙĨ
ĠÙĨ Ø¹
Ø¹Ø¯ ÙĦ
Ø¨ØŃ Ø§ÙĨ
ĠØ¥ÙĦÙĬ Ùĩ
ĠØ´ Ø±
Ġ !
ĠØµ ØŃÙĬ
ĠØ£ Øµ
ĠØ§ÙĦØ° ÙĬÙĨ
ĠØ§ÙĦÙħ ØŃ
ÙģØ± ØŃ
Ø¯ÙĬ Ùĥ
ĠÙĬ Ø¨Ø§Ø±Ùĥ
Ø¶ ØŃÙĥ
ĠØ£ Ø³ØªØ§Ø°
ĠØ³ Ø¨ØŃØ§ÙĨ
Ø§ÙĦ Ø§
ĠØ® Ø·
ÙĬØ¯ Ø©
ĠØŃ Ø³
ĠÙĪ Ø§ÙĨØ§
ĠÙĨ Ø¯ÙĬØ±
Ø¬ Ùħ
ĠÙĪØ§ÙĦ Øª
a s
Ø§Ø³ ÙĬ
ĠØ£ Ø±
Ø° ÙĬ
ĠØ¨ Ø´
Ø¯ Ø¹
ĠØ¨ Ø§Ø¨
ĠÙĤ ÙĨ
h e
ÙĤØ± Ø§
ĠÙĪØ± ØŃÙħØ©
Ø§ÙĪ ØªÙĬ
ØŃ Ø§ÙĦ
ĠØŃ Ø§Ø¬Ø©
ðŁı »
ĠØ±ØŃÙħ Ùĩ
ĠØ± ÙĬ
ÙħØ¶ Ø§ÙĨ
Ùĩ ÙĦØ§
ĠØ£Ø® ÙĬ
ĠØ§ÙĦØ´ ÙĬ
2 0
Ø§Ùĥ Ùħ
ĠØ§ÙĦ Ø§Ø³Øª
ĠÙĤ Ø§Ø¹
ĠØ¹ÙĦÙĬ ÙĩÙħ
ĠÙĦ Ø§Ø²Ùħ
ĠØŃ Ø³ÙĨ
ĠÙĪ ÙĥØ§ÙĨ
ĠÙĪ Ø®
ĠØ§ÙĦØ¹Ø§ÙĦÙħ ÙĬÙĨ
Ġl a
Ø² Ø§ÙĦ
ĠÙĨ Ø¨
ĠØ§ÙĦØ¬ ÙĨ
Ġ Â
Øª ÙĩÙħ
ĠØª Ùĥ
Ø§ÙĬ Ø§Øª
ĠÙģ ÙĦØ§
r o
) .
ĠâĿ¤ ï¸ı
ĠÙĦ Øª
t e
ĠØ¨ ÙĦØ§
Ø¯ ÙĤ
ĠØµ Ø±
Øª ÙĨØ§
ĠØ² ÙĪØ¬
Ø° ÙĨ
ĠØ´ Ø®Øµ
ĠÙģ ÙĦ
ĠØ§ÙĦØª ÙĪ
Ø² ÙĦ
9 9
Ø§Ùģ Ø©
ĠØª Ø³Øª
ĠÙĦ ÙħØ§
ÙĦÙĪ Ø¨
ĠÙĨØ´ ÙĪÙģ
ĠÙģ ÙĩÙħ
ĠÙĥ Ùħ
ĠØ§ÙĦÙĥ Ø±ÙĬÙħ
Ø³ ÙĦ
ĠÙĤ ØµØ©
ÙĪ ÙĬØ§
ĠØ¹ÙĦÙĬ ÙĨØ§
ĠØ¹ÙĨØ¯ Ùĥ
ĠØŃ ÙĬØ§Øª
ĠØ§ÙĦØ³ ÙĬ
ĠðŁĺ Ĭ
ÙĤ Ø§Øª
ðŁ ĩ
Ùģ ÙĦ
ĠÙħ Ø¨
ĠÙħ Ø«ÙĦ
ĠØ§ÙĦÙħØ³ÙĦÙħ ÙĬÙĨ
ÙĨ Ø§Ø¡
ÙĥÙĬ Ùģ
ĠØ¬ Ø¯Ø§
Øº ÙĦ
ĠÙħ ÙĥØ§ÙĨ
ĠØ´ Ùĩ
Ġ /
ĠØ§ÙĦÙħ Øª
ĠÙĬ Ùĥ
Ø§Ùħ Ø§
Ø£ Ø©
ĠØ§ÙĦÙħ ÙĨØª
ĠÙĨ ÙĪØ±
ĠØ§ÙĦØŃ ÙĬ
Ùģ ÙĪ
Ġ 9
ĠØ¨ Ø¥
d i
ĠÙĦ ÙĩÙħ
ĠÙĪØ§ÙĦ ÙĪ
ĠØ§ÙĦØ¹ Ø§Ùħ
ØŃ Ø´
ĠØ¨ Ø³
Ø§ØŃ Ø©
ÙĤ Ùħ
ØªÙĪ Ùī
ĠÙĦÙĪ ÙĦØ§
Ġ 7
ĠðŁĺ ħ
Ø¯ Ø§Ø±
Ø² ÙĪØ¬
Ġ 6
ĠØ§ÙĦÙħ Ø³Øª
Ø¯ Ø«
ĠÙĬ Ø¨
ĠØŃ Ùħ
== ==
Ùĩ Ø§Øª
ĠØ³ ÙħØ¹
ĠØ§ÙĦØŃ Ø¯ÙĬØ«
Ø§Ø³ Ø©
ÙĤ Ùĩ
ĠÙĨ ÙĤÙĪÙĦ
Ø§ ÙĬØ±
ĠØ§ÙĦØ¹ Ø¨
ĠØ§ÙĦØ¨ Ùĥ
ĠØ§ÙĦØµ ÙĦØ§Ø©
Ø¶ Ø§Ø¡
ĠÙĬ Ø¯ÙĬØ±
ÙĤ Ø¨
Ļ ¥
ĠØ§Ùħ ÙĬÙĨ
Ġt a
ĠÙĪÙĩ Ø°Ø§
q u
b a
ĠØª Ø£
Ø¹ ÙĨ
ĠÙĨØª Ø§Ø¹
ĠÙģ ÙĤØ¯
Ùĥ Øª
ĠØ¨ ØŃ
Ø¹ ÙĬÙĨ
ĠØ¨ ÙħØ§
ĠÙĬ ÙħÙĥÙĨ
ĠÙĨØª Ø§
Ø± Ø§Ùĥ
ĠÙģ Ø±ØŃ
Ø² Ø§ÙĨ
Ø¸ Ùħ
ĠØ§ÙĦØŃ ÙĤ
ĠÙĥ ÙĪÙĨ
ĠØ§ÙĦØµØŃ Ø©
ĠÙĤ ÙĪÙĦ
ĠÙĪ Ø±Ø¨ÙĬ
Ø· Ø§
Ø£ ÙĦ
ĠØª Ø¯
ĠØ± ÙħØ¶Ø§ÙĨ
ĠÙħ Ø³ÙĦÙħ
ĠÙĩ Ùħ
ðŁĴ Ķ
ĠØªØŃ Øª
ÙĬ ÙĬÙĨ
ÙĬ Ø³
Ùĩ Ø°Ø§
ÙĨ ÙĬØ©
ĠØ³ ÙĪ
ĠØ¯ Ø¹ÙĪ
ĠÙĬ Ùħ
Ø´ ÙĥÙĪÙĨ
Ø¨ÙĬ Ø§
ĠØªØ¹ ÙĦÙĬ
ØŃ Øª
ĠÙħ Ø§ÙĬ
ÙĤØ¯ Ùħ
ĠðŁ ĳ
Ø§ ÙĩØ§
ĠÙĪ Ø¨Ø±Ùĥ
ĠÙĦ ØŃ
ÙĬ Ùģ
ÙĤ ÙĬØ©
ĠÙħÙĨ ÙĩÙħ
ĠØ£ ÙħØ±
ØªÙĪ ÙģÙĬÙĤ
ĠØŃ Ø¨
ĠØ£ Ø´
Ø¨ Ø§Ùĥ
Ø¦ Ø©
Ø§ÙĦ ÙĬØ©
Ø§ÙĪ Ø¯
ĠØ£ Ø¨ÙĪ
ĠØ§ÙĦØ´ Ø±
ĠÙĨ Ùģ
ĠØ§ÙĦØ¯ ÙĨÙĬØ§
ĠØµ Ø§ØŃ
ĠÙĦ Ø§ÙĬ
Ù Ģ
ĠÙĨ ÙĤ
ĠØŃ ÙĤ
ĠÙĤ Øµ
ĠØ® ØªÙĬ
m e
ÙĦ ÙĪÙħ
ĠÙĦ ÙĥÙħ
ĠØ¯ ÙĬÙĨ
ĠØ£ Ø¨
ĠØ³ Ø¨
â ľ
ĠÙĪ ÙĥÙĦ
ĠØ± Ø§Ø¦
Ø¦ ÙĦØ©
ĠÙĩÙĨØ§ Ùĥ
ĠÙħÙĦÙĬ ØŃ
ĠØ§ÙĦØ£ Ø®
r i
la h
ĠÙĪÙĩ ÙĬ
ÙĦØ§ ÙĤ
ĠØ¨ Ø£ÙĨ
Ø¬ Ø¯
Ø± Ùħ
Ġd e
ĠÙĤ ÙĦØ¨
ĠðŁĺ Ń
ĠØª Ùĩ
ĠØ¬ Ø²Ø§Ùĥ
ĠÙĨ Ø®
ĠÙĬØŃ ÙģØ¶
Ø· Ø§ÙĨ
ĠØ§ÙĦØ± ØŃÙħ
Ø§Øµ ÙĦ
Ùĩ ÙĪØ¯
ĠØŃ Ø§ÙĦ
ĠØ£ÙĨ Øª
Ø° Ø±
ĠØŃ ÙĨØ§
Ġ re
ĠØ§ÙĦÙĥ ØªØ§Ø¨
ĠÙĨÙĨ Ø¬ØŃ
ĠØ± Ø§ÙĬ
ĠÙĬ ÙĪ
ĠÙĪØ§ÙĦ ÙĨ
ÙĦ ÙĦÙĩ
Ġ1 0
Ø· ÙĪ
ĠØªØ§Ø¹ Ùĥ
Ùģ Ø§Øª
ĠØ¨Ø§ÙĦÙħ Ø«ÙĦ
Ø§ÙĦ Ø«
ĠØ¨ Øª
Ø² Ø¡
ÙĦØ³ ÙģØ©
Ùģ Ùĩ
ou r
ĠÙĪØ¨Ø±Ùĥ Ø§ØªÙĩ
ĠØ³ Ø±
Ø§Ø¨ Ø¹
Ø¶ ÙĪ
__ __
ĠÙĬØ¹ Ø·ÙĬÙĥ
ĠØ± Ø§ÙĨØ§
ĠâĢ ĵ
ĠÙħ Ø¯
Ġ Ø§ÙĤ
Ø¹ÙĪ Ø¯
ĠØŃ ÙĦ
Ø²ÙĬ Ø²
Ø¨ ØªÙĬ
ĠÙĪÙĦÙĬ Ø¯
ÙĤØª Ø±ØŃ
Ø§Ø¯ Ø¹ÙĪÙĦÙĬ
ÙĦÙĪ ÙĦØ§
Ø° Ø¨
ÙĬØ± Ø§
ĠØ± Ø¶Ø§
ĠØ· ÙĦ
Ø§Ø± Ø§Øª
ÙĥØ± Ø©
ĠØªØ¹ ÙĬØ´
ÙĦ Ø§Ø«
ĠÙħ Ø§ÙĨ
ĠØª ÙĤÙĪÙĦ
Ø§Ùģ ÙĬ
Ø§ ÙĤÙĬ
ĠÙĬ Ùģ
Ùĥ Ø³
h o
ĠÙĨ Ø¯ÙĬ
ĠØ¬ Ùħ
Ļ ı
ÙĥÙħ ÙĦ
ĠØ§ ÙĪÙĦ
ĠØ³ ÙĬØ¯
ĠØ£Ùĥ Ø«Ø±
Ø£ Ø³
ĠØ£ ÙĪÙĦ
ĠØ§ÙĦØ³ ÙĨØ©
ĠÙĨ Ø³Øª
ÙĦÙĬ Ø´
ĠØŃÙĬ Ø«
Ø§ Ø§Ùģ
ĠÙĪØ¹ ÙĦÙī
ĠØ§ÙĦ Ø¨Ø±
Ġ Ġ
Ø¶ Ø©
ĠØµØŃÙĬ ØŃ
a c
Ø¨ Ùĥ
ĠØ£ ÙħØ§
ĠØ§ÙĦÙħÙĪ Ø¶ÙĪØ¹
ĠØ¨ Ø§Ùĩ
ĠØ§ÙĦ Ø§Ø¹
Øª ÙĨÙĬ
ĠÂ «
ĠÙģ Ø¹
ĠØ§ÙĦÙħ Øµ
---- ----
Ø· Ùģ
ĠØ§ÙĦÙĪ ÙĤØª
ĠÙĥØ«ÙĬØ± Ø§
ĠÙĪØ§ÙĦ Ø¹
ĠØ« Ø§ÙĨÙĬ
ĠØ³ Øª
Ø¨ Ø·
ĠÙĪØ§ÙĦ Ø³
Ġ ch
ĠØ§ÙĦØ£ Ø³
ĠØ¹ÙĦØ§ Ùĩ
ĠØ§ÙĦØ¨Ùĥ Ø§ÙĦÙĪØ±ÙĬØ§
i k
ÙĪ ÙĩØ§
ĠØ§ÙĦ Ø§Ø¬
ĠÙĥ ØªØ¨
Ġ +
ĠØ§Ø® Ø±
ĠØ±Ø§Ø¬ Ø¹ÙĪÙĨ
ĠÙħØ¹ Ø§Ùĥ
ĠÙĦØ¨ Ø§Ùĥ
ĠØ¯ Ø®
ĠØ¢ Ø®Ø±
ĠÙĨ Ø¹Ùħ
Ø¬ ÙĬ
ĠØ§Ùģ Ø¶ÙĦ
ĠØ¯ ÙĪÙĨ
Ġ u
Ø®Ø± Ùī
Â »
ĠÙĬÙĪÙģÙĤ Ùĥ
ÙħÙĬ ÙĦ
ĠØ§ÙĨ ØªÙĩ
ĠØ§ÙĦÙĤ ØµØ©
ĠØ§ÙĦØ¹ Ø¸ÙĬÙħ
ĠØ§ÙĨ ÙĬ
a m
ĠÙĩØ° ÙĬ
ÙĬ Ø§Ùħ
ĠÙĬ Ø·
Ġl es
ĠØ¬ Ø§Ø¡
ĠÙĨ Ø§Ø³
Ø§ÙĨ Ø©
e d
ĠÙĬ Ø£
ÙĬ Ø§Ø±Ø¨
ðŁĺ į
ĠØ® Ø±Ø¬
ÙĦØ§ Ùĩ
n i
ÙĤ Ùģ
ĠØŃ Ø§Ø¨
ĠÙĥ ÙĦØ§Ùħ
Ø¹ Ø§Ø¡
l h
Øº Ùħ
Ø¬ ÙĪ
ðŁ Į
Ø§ÙĦ Øª
ĠØµ ÙĦ
ĠÙĪÙĦ ÙĥÙħ
ĠÙĪ Ø·
es t
ĠÙĦ ÙĤ
ĠØŃ ÙģØ¸
Ùĩ Ø§Ø¯
Ø§Ø¹ Ø¯
Ø¹ Ø§
ÙĨ Ø¨
ĠØ® ÙĦÙĤ
Ùĥ Ø§Ø±
Ø§Ùĩ ÙĦ
ĠØ§ÙĦ Ø¸
Ø§Ø³ Ùħ
Ø§ÙĦ Ùģ
v e
ĠØ§ÙĦÙħÙĨØª Ø¯Ùī
ĠØ¨ Øµ
ØªÙħ Ø§Ø¹
ĠÙĪØŃ Ø¯
ĠØ§ÙĦØ« Ø§ÙĨÙĬ
a y
Ø§Ùĩ Ø±
ĠÙħ Ùĩ
ĠØ§ÙĦØ¹ Ø±Ø¨ÙĬØ©
ÙĦÙĬ Ø·Ø©
Ø¬ Ø§Ø¨
ĠØ±ÙĪ Ø§Ùĩ
ĠØ Ľ
ĠØ´ Ø±ØŃ
ÙĦÙħ Ø§
Ø· ÙĬÙĨ
en t
Ġ A
ĠØ§ÙĦ Ø§ØŃ
Ġ202 5
Ø± Ø¯
ØŃ ÙĦ
ÙĤ Ø¨ÙĦ
ĠØ¨ Ø·
ÙĤÙĬ Øª
ĠØ¨Ø² Ø§Ø§Ùģ
ĠðŁ ĻĤ
ĠØ§Ø¯ Ø¹ÙĪÙĦÙĬ
ĠØ® Ø§ØµØ©
Ø® Ø°
ĠØ¬ Ø¯ÙĬØ¯
ØŃ ÙĬÙĨ
ÙĪ Ø§Ø¬
Øª Ø§
ĠØ£ Øª
ĠØª Ø§Ø±ÙĬØ®
ĠØ¹ Ø²
ĠØ§ÙĦØ³ Ø¤Ø§ÙĦ
ĠØª Ø·
ÙĪ Ø¯Ø©
ĠÙħ ÙħÙĥÙĨ
ĠØ¹ÙĦÙĬ Ø§
ĠÙħØ´ ÙĬ
ĠÙĦ ÙĥÙĦ
ĠÙĨ Ø¯
ĠØ§ÙĦØŃ Ùĥ
ĠÙĪØŃ Ø¯Ø©
Ø± Ø´
ĠØŃ Ø¯ÙĬØ«
ĠÙħ Ø±ØŃ
ĠØŃÙĥ Ø§ÙĬØ©
ÙĬ ØŃØ©
a k
ĠØª Ø§ÙĨÙĬ
Ø§Ø¶ ÙĬØ¹
ĠØ´ Ùģ
Ķ ¥
ÙĦÙĬ Ùĥ
ĠÙĪ Ø¯
ÙĤ Ùī
ÙĪØ¬ Ø¯
Ø¯ÙĬ Ø¯Ø©
Ø´ Ø©
ĠØ§Ø º
Ø§Ùĩ Ø¯
Ø¹ ÙĬØ¯
ĠðŁ¤ £
ÙĨ Ø´
Ùģ ÙĤ
ĠØ±ØŃÙħ Ø©
ĠØ§ÙĦÙħ Øº
ĠØ±Ø§Ùĩ ÙĬ
ĠØ£ Ø¯
ðŁ ĻĤ
Ø® ÙĬ
ĠðŁ İī
ĠØ´Ùĩ Ø§Ø¯Ø©
Ø¯ÙĬ Øª
Ġv id
ĠØ±ÙĪ ØŃ
ĠÙĪ ÙĬØ±
ĠÙĬØŃÙģØ¶ Ùĥ
Ø§Ø¦ ÙĬ
i a
ĠÙĪÙģ ÙĤ
Ġ1 5
ĠØ§ÙĦÙĨ Øµ
ĠÙĬ Ø§Ø±Ø¨ÙĬ
ĠØ§ÙĦØ¬Ø²Ø§Ø¦ Ø±ÙĬ
ĠÙĩ Ø¯Ø§
ĠØ´ ÙĩØ±
U R
ÙĪÙħ Ø©
ĠÙģ ÙĩÙĪ
Ø£ ÙĨØ§
o o
ĠÙĪØ´ ÙĥØ±Ø§
Øµ ÙĦÙī
ĠØ§ÙĨØªÙĩ Ùī
ĠØ¯ÙĬØ± ÙĦÙĨØ§
Ø±Ø¬ Ø¹
ĠÙĤ Ø±ÙĬ
Ø¹Ùħ ÙĦ
Øª ÙħØ¹
ÙĪ ÙģÙĬ
ĠÙĨØŃØ¨ Ùĥ
ĠÙģÙĬ ÙĩÙħ
ĠÙĨ Ø±
ĠÙĦ Ø§Ø¨
ĠØ£ÙĬ Ø¶Ø§
ÙĪ Ø¶
ĠÙĬÙĨØ¬ØŃ ÙĨØ§
ĠØ¹ ÙĤ
Ø¯ÙĬÙĨ Ø©
ÙĬ Ø²
ĠÙĨØª ÙģØ±Ø¬
ĠØ§ÙĦØŃÙĬ Ø§Ø©
ĠØ§ÙĦØª Ø¹ÙĦÙĬ
ÙĪ ÙĬÙĨ
ĠØ¹ Ø±Ùģ
ĠØ· Ø±ÙĬÙĤ
ĠÙĨ ØªÙĬ
Ø¨ Ø¹Ø¯
ĠÙħØ¹ Ø¯ÙĦ
ĠÙĨ Ø¹Ø±Ùģ
Ø¬ Ø§Ø¨Ø©
ĠÙĤ Ø¯Ø±
ĠÙĥÙĬÙģ Ø§Ø´
Ġ 8
u r
Ø±Ùĥ Ø©
ĠØ¯ Ø§Ø¦
ĠØŃ Ø³Ø¨
ti on
ĠâĢ ı
Ø¨ Ø§Øª
ĠÙħÙĬ Ø²Ø§ÙĨ
ĠØ§ÙĨ Ø´Ø§Ø¡
n e
ĠØ¬ Ø²ÙĬ
Ø§Ùħ ÙĬ
ÙĦÙħ ÙĬ
ÙĪ Ø§Ø±
ĠØ§ÙĦÙĬ Ùĩ
ĠØ³ Ùħ
ĠØ³ Ø¤Ø§ÙĦ
ĠØ´ Ø¹Ø¨Ø©
ĠØ¨ ÙĪ
Ġ r
Ø§ÙĨ Øª
Ø§Ø¡ Ø©
ĠØ±ÙĪ ØŃÙĬ
ĠØ¨ ÙĨØª
ĠØ§ÙĦÙħ ÙĩÙħ
ĠÙĬØ¹ Ø±Ùģ
ĠØ§ÙĦØ¥ ÙĨØ³
ÙĪØ± Ùĥ
Ø³ÙĬ ØŃ
Ġl e
Ġ1 6
ĠÙĪ Ø²
ĠÙĨÙģØ³ Ùĩ
ĠØ« ÙĦØ§Ø«
ÙĬØ§Øª ÙĬ
Ġ1 8
ĠØ² ÙĬØ¯
ĠÙĥ Ø±
UR L
ĠØ´ÙĬ Ø¦
Ø§Ùģ ÙĬØ©
ĠÙħÙĪ Ø¶ÙĪØ¹
ðŁĺ ®
ĠÙĪ ÙĦÙĪ
ĠÙĨ ÙĩØ§Ø±
ĠØ§ÙĦ Ø¶
ĠØ® Ø§ÙĦ
ĠØ§ÙĦØ±ØŃÙħ ÙĨ
ĠÙĪ Ø§Ø¬
Ġ 0
Ø¨ ÙĬØ±
ĠÙĪØ§ÙĦ ØŃ
ĠÙħÙĨ Ùĥ
Ø± ÙĤ
ĠØª Ø±Ùĥ
ÙĬÙħ Ø§ÙĨ
ĠÙĥÙĬÙģ Ø§Ùĩ
Ġ in
ĠØ§ÙĦÙĤ ÙĬ
e m
Ġ( (
ĠÙĪ ÙħØ¹
ĠØŃ ÙĪÙĦ
ĠØ´ ÙĬØ®
Ùĩ Ø©
ĠØ± Ùĥ
ðŁ¥ º
ĠðŁĺ¢ ðŁĺ¢
Ø§Ø¶ ÙĬ
ĠØ§ÙĦØ£ ÙħØ±
Ø² Ùħ
ĠØ§ÙĦÙħ Ø®
1 0
ĠØ± Ø§ÙĩÙħ
Ġâ ľ
ĠÙħ ÙħØ§
Ø° Ø§Ø¨
ĠÙħ Ø¤
ĠÙĪ ØµØŃ
ĠØª ÙĦ
Ø° Ø©
Ø³Ø¨ Ø¨
Ġl i
ØŃ Ø§Øª
Ġ o
ĠÙĤ Øª
ĠØ§ÙĦÙĨ Ø¬Ø§ØŃ
Ø³ Ùĥ
ĠÙĬØ¬ Ø¨
ĠØ§Ùĥ Ø«Ø±
Ġ {
ĠÙħ Ø§ÙĦ
ĠÙħ Ø·
ĠØ´ ÙĥÙĪÙĨ
Øª Ø§Ø¬
ĠÙĩ Ø¯
ĠÙĪ ØºÙĬØ±
Ø¨Ø± ÙĪÙĥ
in g
ĠØªØ¹ Ø±Ùģ
n d
ĠÙĤ Ø¨
Øª Øµ
ÙĦ Ø§Ø¡
ĠÙĬ ÙĦ
Ø± Ø§ÙĨÙĬ
ĠÙĬØŃ Ø¨
ĠÙĥÙĦ Ø´
Ø²Ø§Ø¦ Ø±
ĠØ§ÙĦØ£ Ø±Ø¶
Ġ Ú¨
Ùĩ ÙĨ
ĠØª ÙĦÙĥ
ĠØ´ Ø¹Ø±
ÙĪ ÙĦØ§
Ġ1 7
Ġy ou
Ø¬ ÙĨ
Ø¥ Ø°Ø§
ÙĨØ§ Ùĥ
Ø±ÙĬ ØŃ
Ø§Ùħ Ø¬
ĠØ¯ Ø±ÙĪ
ĠØ¢ ÙħÙĬÙĨ
ÙĨØ³ Ø¨Ø©
ĠØ® Ø§Ø·
Ø§Ø¨ Ø¹Ø©
Ø¸ Ø©
a t
Ġ202 6
ĠØ§ÙĦØ® Ø·
ĠØ§ÙĦØŃ Ø±
Ġ e
ĠØ³ ÙĪØ±Ø©
Øª Ø¯
Ø¬ Ø¹
ÙĪ Ø§Ø´
ĠØ± ØŃ
Ġ B
ĠØ§ÙĦØ£ ÙĨ
ĠÙĥ ÙĨ
ĠÙĥ ÙĦÙħØ©
ĠØŃ ÙĥÙħ
ĠÙĦÙĬ Ùĥ
ĠØ§ÙĦÙĪ Ø·
Ø£ Ø³ØªØ§Ø°
ÙħÙĬ Ø²
ĠÙĥØ¨ ÙĬØ±
ĠÙħ ÙħØª
ĠØ§ÙĦØ´ Ø¹Ø±
ĠÙĨ ÙĤØ±Ø§
Ġ M
ĠØ± Ø³
Ġt he
ĠØ³Ø¨ØŃØ§ÙĨ Ùĩ
Ø¨ Ø§ÙĦ
ĠÙĪØ§ÙĦ Ø´
Øª Ø§Ø±
ÙħØ¹ ÙĬÙĨ
ĠØ¬ Ø¯
c i
ĠÙĪÙĦÙĬ Ø³
ÙĪ ÙĨØ§
ĠÙĦ ÙħÙĨ
ĠÙĥ Ø«
ĠØ· Ø±ÙĬÙĤØ©
ÙĦØ§ Ùģ
ĠØº ÙĬ
Ø±Ùģ Ø©
ĠØ± Ø¹Ø¨
ĠØ±Ø§Ùĥ ÙĬ
ĠÙħ Ø²Ø§ÙĦ
ĠØ§ÙĦÙĨ Ø³
ĠÙĤ ÙĪØ©
ĠÙħØŃ ØªÙĪÙī
ĠÙĨ ÙĤØ¯Ø±
Ø¯ÙĬ Ùħ
ĠðŁĺ į
ĠÙħØ¹ ÙĨØ§
ĠÙģ Ø§Øª
ÙĪ ØŃ
ĠØªØŃ ÙĬØ§ØªÙĬ
ĠØ§ÙĦØµ Ø¨Ø±
ØµØŃ Ø§Ø¨
Ø¨ÙĬ ÙĦ
ĠØ§ÙĦØ¹ ÙħÙĦ
ĠØ£ Ø¹ÙĦÙħ
Ø¨ Ø§Ø±
ĠÙĦ Øº
ĠÙĤÙĦ Ø¨ÙĬ
ĠØ¹ÙĨ ÙĩØ§
k a
ĠØ§ÙĦÙĦ ØºØ©
Ø¬ ÙħÙĬØ¹
ĠØ¨Ùħ Ø¹Ø¯ÙĦ
ĠØ® Ø§ÙĪØªÙĬ
ĠØŃ ÙĬÙĨ
Ø¹ ÙĬØ©
ĠØ´ ÙģØª
ĠðŁ Į
Ùģ Ø§Ø±
Ø¬ Ø²
ĠØ£Ø® ØªÙĬ
ÙĪ Ùī
Ø¯Ø§ ÙĬØ©
ØŃÙĥ Ø§ÙĬØ©
ĠÙħ Ø§Ùĩ
Ø¬ Ø¨Øª
ĠØ§ÙĦØ£ ÙĪÙĦ
ĠØ³ ÙĦØ§Ùħ
ĠØ¹ ÙĬÙĨ
ĠÙĥ ÙħÙĦ
ÙĪÙĦ ÙĨØ§
Ø³ Ø·
Ø¯ÙĬ Ùĩ
ÙģÙĬ Ø¯
ĠÙĨ Ø²
ĠÙĨØŃ ÙĨ
ĠØ¹ÙĨØ¯ ÙĪ
ĠØ£ ØŃÙħØ¯
ÙĤ Ø³ÙĬ
Ġf i
u s
Ġy a
Ø¨ ØµØŃ
Ø± Ø§
ĠÙĤ ÙĪÙĦÙĩ
Ø¨ÙĬ Ùĩ
20 2
Øª ÙĬÙĨ
ĠÙĥ Ø«Ø±
Ġ1 2
ĠØ§ÙĦÙħ Ø¤ÙħÙĨ
ĠÙĪ Ø§Ø¹
ĠØªØ¹ ÙĦÙħ
ĠÙĨ Ø¬ØŃ
ÙģØ³ ÙĬØ±
ÙĨ Ø§Øª
ĠØ¹ Ø§Ø¯ÙĬ
ĠØ¨ ÙĥÙĦ
Ø·ÙĬ Ø¹
Ùħ Ø´
Ø· Ø§Ø±
Ùĩ ÙĪØ±
Ø² ÙĨ
Ø¹Ùħ Ø§ÙĦ
Ø§Ø¯ Ùĩ
ÙĤ ØµØ©
Ø±ÙĬ Ùģ
ĠÙĪØ¬ Ùĩ
ĠØ£ ÙģØ¶ÙĦ
ĠÙģ ÙĪÙĤ
Ø´ Ùģ
Ø® Ø±Ø©
Ø¶ ÙĬØ©
ÙĤØªØ±ØŃ Ø§Øª
Ø¬ Ø§ÙĦ
ĠØ§ÙĦÙħ Ùĩ
ĠØ¹ÙĨØ¯ ÙħØ§
ĠØ§ÙĦÙĤ ØµØµ
ĠÙĨ Ùĩ
ĠØ§ÙĦÙĨ Ø§Ø±
Ø® Ø§Ø±ÙĬ
âľ ¨
ĠÙĬØ± Ø²ÙĤ
Ø§Ùģ Ø¶ÙĦ
Ø§ÙĪ Ø¨
ĠÙĩØ§Ø° ÙĬ
Øª ÙĤ
ĠØ£ Ø®Ø±Ùī
ĠØ¬ Ø§
ĠÙĨØ³ ÙħØ¹
ÙĪØªÙĬ ÙĪØ¨
Ġ Ã
ĠÙĪØ¬ ÙĦ
ĠØ¬Ø²ÙĬ ÙĦØ§
Ø± ÙĬÙĨ
ĠØ´ ØŃØ§ÙĦ
Ļ¥ ï¸ı
Ø² ÙĬØ©
o s
ÙĦÙħ Ø§Øª
ÙĨ Ø¹
ĠÙģ ÙĦÙĬ
ĠÙĬØ¬ Ø§Ø²
Ø¹ Ø§Ø¯Ø©
ĠÙģ ÙĨ
ĠÙĬÙĪÙģÙĤ ÙĨØ§
ÙĦ ÙĥÙħ
ĠðŁ ĩ
ÙĨ ÙĪ
ĠÙĪ Ø§Ø±
Ġk i
w a
Ø±Ø¨ Ø©
ĠØ§ÙĦØ± Ø³ÙĪÙĦ
ĠØ§ÙĦ Ø§Ø¨
ĠØ£ Ùĩ
ĠØŃØ³ÙĨ Ø§ØªÙĥ
! !
ĠÙħ Ø§Ø±
ĠØ¨ ÙĤ
Ø§Ùħ ÙĦØ©
ĠØ§ÙĨ ÙĪ
Ø§ÙĪ ÙĬ
ĸ ¤
ĠÙħ Øº
Ø¨ ÙĬÙĨ
Øª Ùģ
ÙĤÙĪ ÙĦÙĩ
ĠØ§ÙĦØ¨ ÙĦ
ĠØ§ÙĦØ¥ÙĨØ³ Ø§ÙĨ
ĠØµ Ø¨Ø§ØŃ
ĠØ¯Ø§Ø¦ ÙħØ§
ĠÙħØ§Ø´ Ø§Ø¡
o l
ĠÙĪØ§ÙĦ Ø¥
c e
ĠØ® Øµ
ÙĪØ§ ÙĤØ¹
ĠðŁ¥ º
ĠÙĩ Ø§Ø¯ÙĬ
ĠÙħ Ø§Ùĥ
ĠâĢ ¬
ĠÙĩ Ø§ÙĬ
ĠØ¨Ø§ÙĦ ÙĨ
Ø§Øª ÙĥÙħ
ĠØ¨Ø§ÙĦ ØªÙĪÙģÙĬÙĤ
ĠÙĥ Ùģ
ĠØ§ÙĨ Ùĩ
ĠØ§ÙĦØ¹ÙĦÙħ Ø§Ø¡
ÙĨ ÙĬÙĨ
Ø± Ø§Ø¨
ÙĦØ³ ÙĦØ©
ĠØ£ ØŃØ¨
Ġ qu
ĠØ§ÙĦØ´ Ø¹Ø¨
ÙĤ ÙĬÙĨ
ĠÙĪØª Ø¹
ĠØ§ÙĦÙħ ÙĦ
ĠØ´ Ø¹
Ø±Ø¶ Ø§
ĠØ³ÙĬØ¯ ÙĨØ§
Ùĥ Ø±ÙĬ
ÙĦØ³ Ø·ÙĬÙĨ
ÙħÙĬ ÙĦØ©
ĠÙĨ Ùħ
ÙĤØ± Ø£
ĠØ§ÙĦØ¨ Ø®Ø§Ø±ÙĬ
ÙĦ Ø§Øª
ĠØ§ÙĦØ§Ø³ ÙĦØ§Ùħ
Ø³ÙĬ Øª
ĠÙĪØ§ÙĦ Ø³ÙĦØ§Ùħ
ĠØ¨Ø¥ Ø°ÙĨ
ĠÙĤØ§ÙĦ Øª
Ùħ Ø§Ø´
ĠÙħØ±ØŃ Ø¨Ø§
ĠÙĨ Ø¸
ĠÙħÙĨ Ø§
âĢ ı
ĠØ§Ùħ Ø§
Ùĥ ÙĪØ±
ĠÙĪ Ø§Ø³
) ØĮ
ÙĬ Ø§Ø±Ø¨ÙĬ
ĠØ¯Ø± Øª
Ø¨Ø± Ø©
Ø¬ Ùĩ
ĠØ§ÙĦ Ø§Ø¯
ĠØŃØ¨ÙĬ Ø¨ØªÙĬ
1 9
ÙĨØ³ ÙĬØ©
Ø¹ Ùĩ
ĠØ§ÙĦÙģ Ø§Ø¶
Ø¨ÙĤ Ùī
Ġ1 4
ĠØ§ÙĦÙģ Øª
ÙħØ¹ Ø©
Ġ202 4
Ø± Øª
Ġ et
Ø¸ ÙĩØ±
ĠØ§ÙĦ Ø±ÙĬ
ĠÙĩÙĥ Ø§
ĠØ¨Ø§ÙĦ ÙĨØ³Ø¨Ø©
ĠÙĨ ÙĪØ¹
ĠØ· ÙĦØ¨
Ġ ou
ØŃ ÙĨ
ĠØ§ÙĦ ÙĥØ±
ĠØ¯ÙĬØ± ÙĬ
ĠØ¹ÙĦ ÙĪÙħ
ĠÙĤ Ø·
ĠØ§ÙĨ Ùĥ
ĠØ§ÙĦ Ø§ÙĪÙĦ
ĠØ± Ø¯
g e
a d
ĠÙĦ Ø®
ĠØ§ÙĦØ£Ùħ ÙĬØ±
ĠØ¯Ø¹ÙĪ Ø©
Øµ ÙĪÙĦ
ĠØ§ÙĦØ± Ø¬ÙĦ
ÙĬØ± ÙĬ
ĠØ¨ÙĦ Ø§Ø¯
ĠÙħ Ø§Ø¹
ĠÙħÙĨ Øª
Øª ÙĦÙģ
Ø§Ø ¸
Ùģ ÙĦØ©
Ġ L
ĠØµ Ùģ
Ø§ÙĦ Ø¬
Ø¨ÙĬ Ø¨
ĠØ§ÙĦØª ØŃ
ĠÙģÙĬ ÙħØ§
Ø§Ø± Ø¬
Ø§Ø ¤
ÙĦÙĬ ÙĥÙħ
c ha
Ġ! !
ĠØ¹ Ø§Ø¯
ĠÙĦÙĦ Ø£
ĠØ¹ ÙĬ
ĠØ§ÙĦØŃ ÙĦ
ĠØ¨ÙĬ Ùĩ
ĠØŃØ³ Ø§Ø¨
ĠØ³ Ø£
e k
Ø±ÙĬ Ùĥ
ĠÙĬØ¹ ÙĦÙħ
ÙĬ ÙħØ©
ĠØ¹ Ø§Ø¦
Ø§Ùĩ ÙĬÙħ
t o
ĠØ§ÙĦ ÙĦÙĬÙĦ
Ø§ØŃ Ø¯
Ø¬Ø¨ ÙĨÙĬ
Ùĩ Ø¨
Ø§Ø¦ Ø±
ĠØ§ÙĦØ¯ Ø§Ø±
ĠØ®ÙĦ Ø§ÙĦ
ĠÙĪ ÙĨØª
ĠØªØŃ ÙĥÙĬ
ĠÙħ ÙĪØ±
ĠØ¨ÙĬ ÙĩØ§
ĠØ² ÙĬ
Ø² Ø¹
Ø® Ø§ÙĪØªÙĬ
ĠÙħ Ø§Ùħ
ĠÙħ Ø§Ø²
ĠØ¬ ÙĬ
Ø±ÙĪ Ø¹
ĠØ§ÙĦÙĤ ÙĦØ¨
Ø§Øª Ø¨
i m
Ġ =
ĠØŃ Ø·
on t
Ø§Ø³ØªØ§Ø° Ø©
1 5
ĠÙĪ Ø§Ø¨
ÙĨØ³ Ø§
ĠØ¨ ÙĬÙĥ
ÙĥÙĬ ÙĦ
ĠÙģ Ø³ÙĬØŃ
ĠØ¹ Ø¯Ø¯
ĠÙĬØ¬ ÙĬ
Ø§Ùĥ ÙĦ
ĠØ§Ø± ØŃÙħ
ĠØ¬ÙħÙĬØ¹ Ø§
ĠØ³ ÙĦÙħ
ĠØ§ÙĦØ£ ÙĪ
ĠØ§ÙĦØ¥ ÙħØ§Ùħ
ĠØª ÙĦÙĤ
ÙĨ Ùĩ
ĠÙħ Ø§Ø°Ø§
Ø§Ø¦ ÙĤ
Ġ ?
ĠÙĬ Øº
ĠØµ Øº
ØŃÙħ ÙĦ
ĠÙĪ Ø¢
ĠÙĬ Ø®Ø±Ø¬
Øª Ø¹
ĠØµ Ø¯
ĠØ® ÙĦÙĬ
ĠØ³ÙħØ¹ Øª
ĠØ¨Ø§ÙĦ Ø£
ĠÙĪÙĦØ§ ÙĬØ©
ĠØ§ÙĦÙħØ± Ø£Ø©
ĠØ· ÙĪÙĦ
ĠØ§ÙĦØ« Ø§ÙĦØ«
ÙĦÙĪ Ø¯
ĠÙĦ ÙĤØ¯
Ø°Ùĩ Ø¨
Ø® ÙĪÙĬØ§
ĠÙĬ ÙĥÙĨ
ĠØ± ÙĤÙħ
Ġt o
ĠØ§ÙĦØ¬ ÙĦ
ĠØ§ÙĦÙĥ Ø«ÙĬØ±
ĠØ§ÙĦÙĤ ÙĨ
Ùģ Ùĥ
ĠØµ Ø§ÙĦØŃ
ĠÙĨ ÙĦÙĤ
ðŁ Ķ¥
ĠØ§ÙĦØª Ø¹
ÙĨ Ø§ÙħØ¬
e p
Ø¹ ÙĦÙī
Ġ R
ĠØ§ÙĦØª Ø§Ø±ÙĬØ®
ĠðŁ¤£ ðŁ¤£
ĠØ§Ùħ Ø±
Ø§Ø¦ Ø¯
Ø³ ÙĪ
Ø¹ Ø§Ùħ
ØªÙĪ Ø¨
ĠØŃÙĥ Ø§ÙĬØ§Øª
Ġk h
ÙĪÙĥ Ø§ÙĨ
ĠÙĪØ¨ Ø§Ø±Ùĥ
ĠØ¹ ÙħÙĦ
Ø± ÙĪÙģ
ðŁĺ¢ ðŁĺ¢
Ø³ Ø§Ùħ
ĠØŃ ÙĪ
Ø§ÙĬ Ùĩ
ï ´
Ùħ Ø§Ø¡
Ø² Ø§Ø¡
Ø¨ ÙĦÙĬ
ÙĨØ§ Ùĩ
ĠÙģ ÙħÙĨ
Ø· Ø¨
Ø¬ ÙĦÙĬ
ĠØ² Ø¹
ðŁ Ļı
ĠÙĥ Ø§ÙĦ
ĠØ¨ Ø¯ÙĬØª
ĠØ§ÙĦØ¹Ø¨ Ø§Ø³ÙĬØ©
ĠÙħ ØªÙĪ
Ø±Ø¨ ØŃ
1 2
Ø¯Ø± Ø³Ø©
ĠÙĥØ¨ ÙĬØ±Ø©
ÙĥØ± Ùĩ
ĠÙĦØ£ÙĨ Ùĩ
Ø¹ Ùĥ
ÙĤÙĪ ÙĦÙĬ
Ġ S
Ø§Ø¦ Ùĥ
ĠÙĨØ´ Ø§ÙĦÙĦÙĩ
ĠØ´ Ø¨Ø§Ø¨
Ø§ÙĪ ÙĬØ©
ĠÙĨ Ùĥ
Ùħ Ø§Ø±
ĠÙĪ ÙĪ
ĠÙģÙĬ ÙĥÙħ
ĠØ¬ Ø¯ÙĬØ¯Ø©
ĠØ§ÙĦØ¹ Ø±Ø¨ÙĬ
Ø¨ÙĬ Øª
ĠØ· ÙĪÙĬ
ĠØ´ÙĬØ¦ Ø§
ĠØ§ÙĦØª Ø¬
ĠØ§ÙĦØ´ Ø®Øµ
Ø¯ ÙĬØ©
Ġc ha
Ġ T
ĠÙĨ Ø§Ø¬
ĠÙĥ ÙĨØ§
ĠØ±ÙĪ Ø¹Ø©
Ø¯ÙĬØ± ÙĦÙĨØ§
ĠØ¯ Ø®ÙĦ
Ø¹ ÙĦÙĩØ§
ĠØ¹ Ø´Ø±
ØŃ ÙĬØ¯
ĠÙĪ Ø§Ø³Øª
Ġa l
Ø±ÙĬ ÙħØ©
ĠØ¨Ø¯ ÙĪÙĨ
Ø§ÙĨ Ùĩ
ĠØ¨ Øº
k h
ĠØ± Ø¬ÙĦ
ĠØ§ÙĦØ¹ ÙĤ
ĠØ¹ Ø´
Ø£ Øª
ĠØ±ÙĪ ØŃÙĥ
ĠÙģ Ø¹ÙĦ
ĠØ¯Ø±ÙĪ Ø³
ĠðŁ¤² ðŁı»
99 99
ĠÙħÙĨ ÙĬ
Øµ Ùģ
ĠØ· ÙĬØ¨Ø©
Ø± Ø³
ĠØŃ Ø¯
==== ====
ĠÙĬØ´ ÙĪÙģ
ĠÙħØ« ÙĦØ§
**** ****
h h
ĠÙĬ Ø§Ø®
Ġ I
ĠØ£ ÙĦÙģ
Ø§Ø¹ Ø§Øª
ĠÙģ Ø¥Ø°Ø§
Ø¤ ÙĦØ§Ø¡
a b
i re
Ø¹ÙĦ ÙĪÙħ
ĠØ§ÙĦØ· Ø¨
Øª ÙĥÙħ
ĠÙĦÙĦ ÙĨ
ÙĤØ± Ø§ÙĪ
ÙĦ Ø·
Ø·ÙĦ Ø¹
ĠÙģ ÙħØ§
ĠÙĦ Ø´
Ø§Ø¨ Ø·
ĠØ³ Ø§Ø¹Ø©
Ø³ Ø§Ø¨
ĠÙģ ÙĦÙħ
ĠÙĪÙĦ Ø¯
ÙĨ Ø³ÙĬ
Ùħ Ø¯
ĠÙĪØ§ÙĦ Ø¯
ĠØ® ÙĬ
ĠØ¹Ùħ Ø±ÙĬ
ĠØ¹ Ø¯Ùħ
ĠØ¨ ÙĨÙĬ
ĠÙĪÙĬ Ø¹
Ø¬ ÙĬØ¨
ĠÙĨ ÙĬ
ĠØ¯ Ø¹
ĠÙģ Ùī
ĠÙĬØ¬Ø§Ø² ÙĬÙĥ
ĠØ§Ø³ØªØ§Ø° Ø©
ĠØ¨ÙĦÙĬ Ø²
ĠÙħ Ø±ÙĬ
© ðŁĩ
ĠØ±Ø§Ùĩ ÙĪ
Ø®ÙĦ Øµ
ĠÙĨÙģ Ø³ÙĬ
Ø¬Ø¨Øª ÙĨÙĬ
Øª Ø±Ùĥ
ĠØŃ Ø§Ø¨Ø©
ĠÙĪ Ø§Ø®
ĠÙĥ Ø°ÙĦÙĥ
ĠØ¥ ÙĦÙĩ
1 6
00 00
Ø¯ Ø¨
©ðŁĩ ¿
ĠØ§Ø ·
ĠÙħÙĦÙĬ ÙĪÙĨ
ĠØ§ÙĦ Ø§ÙĪ
Ø§Ø¦ ÙĬØ©
ĠØ§ÙĦØ¯ Ø¹Ø§Ø¡
Ġh h
ĠØ§ÙĦ ÙģÙĬ
ÙĤØª ÙĦ
ĠÙĬ ØªÙħ
ĠÙħØ¹ Ø§ÙĬØ§
ÙĤ ÙĤ
Ġb e
ĠØ¨ Ø¬
ĠØ® ÙĪÙģ
ĠØ§ÙĦÙħ Ø¤
ĠØ¨ Ø®ÙĬØ±
ĠÙĨ ÙĪ
ÙĬØ¯ Ø§
Ø· ÙĪØ±
ĠØ§ÙĦÙĥ ÙĦØ§Ùħ
ĠØ£ Ùģ
Ø§ÙĦ Ø´
ÙĪÙĨ Ø©
Ø§Ø¶ ÙĬØ§Øª
ĠÙĬØ¬ ÙĪØ²
1 4
ĠØ§ÙĦÙħ ÙĤ
ÙĤÙĬ ÙĤ
ÙĨ Ø§Ø´
Ã ¨
Ø¬ Ø²Ø§Ùĥ
ĠÙĬØ´ ÙģÙĬ
ØŃØ¨ Ùĥ
ĠÙĤÙĨ Ø§Ø©
ĠØ¬ Ø§Øª
Ø§Ùħ ÙĬÙĨ
ĠØ§ØŃ Ø³ÙĨ
Ø§Ø¬ Ø¹Ø©
ÙĦÙĬ Ùħ
Ø§Ø² ÙĬ
ĠØ§ÙĨ Ø³Ø§ÙĨ
ĠØ§ÙĦØ¬ Ùħ
Øµ Ø§Ø±
Ø· ÙĪØ±Ø©
ĠÙĬ Ø¤
Ø§Ø· ÙĦ
ĠØµØ§ØŃ Ø¨
ĠØŃ Ø¯Ø«
ĠÙħ Ø§ÙħØ§
Ø§ÙĦ ÙĪ
ÙĤØ· Ø¹
ĠØ§ÙĦØ¬ ÙĪØ§Ø¨
ĠØ£ÙĨ ÙĩØ§
ĠÙĥØ§ÙĨ ÙĪØ§
ĠÙĪØ¹ ÙĨ
ðŁ¥ °
ÙĦØ§Ùħ Ø©
ĠØªØŃ Ø¨
Ø§Ùģ Ø±
ĠØ§ÙĦØ± Ø¯
ĠØ¨Ø§ÙĦ Ø¹
ĠØ¹ÙĨØ¯ ÙĩØ§
ĠÙģ ÙĤ
ĠÙĩÙĪ ÙħØ§
ĠÙĪ ÙĦÙĩ
Ø§Ø± ÙĬØ©
ĠØ¶ ØŃÙĥ
ĠØ§ÙĦØ¹ Ø±Ø¨
ĠÙĦÙĬ Ø³Øª
ĠØŃØ¨ÙĬ Øª
ĠØ§ÙĦØµ Ø§ÙĦØŃ
Ø« Ø©
ĠØªÙĪ ØŃØ´
Ø¯ÙĪ Ø©
ou s
ĠØ§ÙĦØ¢ ÙĬØ©
) )
Ø§Øª ÙĩØ§
ĠØ¯ Ø§Ø®
ĠØ¯Ø± Ø³
Ø¯ ÙħØ©
ĠØ¶ ÙĬ
Ø§Ø¨ ÙĬ
ĠØ¹ÙĦ Ø§Ø´
Ø§Ùģ Ø¸
ĠÙħ Ø§Ø¯
ĠØ§ÙĦØ´ÙĬ Ø·Ø§ÙĨ
ÙĨ Ø§ÙĨ
Ġ1 3
ĠØ§ÙĦ ØŃÙħ
ĠØª ÙĬ
ĠØº Ø§ÙĦ
ĠØ§Ø ¶
ĠØ§ÙĦØ¨ÙĬ Øª
ĠÙĨ ØªÙĪ
ĠØ¨ Ø§Ø³
Ø« Ø¨Øª
ĠÙĪØ§ØŃ Ø¯Ø©
Ø´ ÙĪ
ðŁĳ į
ĠÙħ Ø¶
ĠØ¨Ùĩ Ø°Ø§
1 3
ĠÙģ Ø³
Ø§Ø¦ Ùħ
Ø¯ ÙĪØ§
ØµÙĦ ØŃ
ĠÙĬ ÙĤØ¯Ø±
ĠÙģ ØªØŃ
Ġ **
Ø¯ÙĬ Ø§
ĠÙĪ ØªÙĪ
ĠÙĩÙĥ Ø°Ø§
ĠØµ ÙĪØª
ĠÙĪØ³ÙĦÙħ ØµÙĦÙī
ĠÙĪØ§ÙĦ Øµ
ĠØ§ÙĦØ¬Ø²Ø§Ø¦Ø± ÙĬØ©
Ø§Ø³ Ø¨
ĠØ´ ÙĪÙĬØ©
ĠÙħ ÙĩÙħ
ĠÙĪØ¨ Ø¹Ø¯
ĠÙħ ÙĪØ¬
ØŃ ÙĬÙħ
ÙĦÙĬ Ø·Ø§
ĠØ¨ Ø³Ø¨Ø¨
Ø§ÙĦ Ø³
Ø§ÙĦ ÙĤ
ĠØµ ÙĦØ§Ø©
ĠÙħ Ùģ
ĠØ§ÙĦÙħ Ø¯
Øª Ø¨Ø±
ðŁĴ Ĺ
ĠÙĦ ÙĪÙĥØ§ÙĨ
ĠØ§ÙĦÙħ Ø·
ĠØ´ ÙĪÙĬ
Ø§Ø¬ Ø¹
1 8
ĠØ§ÙĦ Ø§Ø±
ĠØ¨ Ø§ÙĬÙĨ
Ø¶ ØŃ
ĠØ£ ÙĤ
ĠÙĬØ¬ ÙĬØ¨
ĠØ´ Ø¹Ø¨
ĠÙĨØª ÙħÙĨÙī
ÙĪÙĨ Ø³
ĠÙħÙĨ Ø°
ĠÙģ ÙĪ
Ø§Øª ÙĩÙħ
ĠØ§ÙĦØª Ø³
ĠØ±Ø§Ø¦ Ø¹
Ùĥ Ø«Ø±
ðŁ¤ į
ĠÙĪÙĬ Ø³
Ø§Ø¹ ÙĬ
Ġs a
âĢ į
ĠØªØ¹ÙĦÙĬ ÙĤ
ĠØ¨ Ø®
ĠÙĪØ¨ ÙĬÙĨ
Ø§ÙĦ Ø¹
ĠØ§ÙĦØ± Ø¹Ø¨
e o
ÙĦÙĪ Ø§ÙĨ
ĠØ¥ ÙĨØ§
ÙĤÙĬ Ùħ
ĠØ¬ ÙĬØª
ĠÙĨ Ø·
Ø§ÙĦ ØŃÙħØ¯
ĠðŁ Ļı
ĠÙĬ ÙĨØª
ĠØ¯ Ø§ÙĬØ±
ĠÙĪØ¥ Ø°Ø§
ĠÙģØ¥ÙĨ Ùĩ
ÙĩØ§ ÙĬØ©
ĠØ¹ ÙĬØ¯
er ci
ĠÙĨ ÙģÙĩÙħ
Ø²Ø§Ø¦ Ø±ÙĬ
ĠØªØ§Ø¹ ÙĬ
ĠØ§ÙĦÙĤ Ø§Ø¯Ø±
ÙĬØ¹ Ø·ÙĬÙĥ
ÙĪ ÙĩÙħ
ĠØ§ÙĦØ« Ø§ÙĨÙĬØ©
ĠØªØ¬ ÙĬ
ĠØªØ´ ÙĪÙģ
ĠØ¹ÙĨØ¯ Ùĩ
ĠÙĦÙĬ ÙĦØ©
ĠØ¬ ÙĦ
Ø®Øµ Øµ
Ġ z
ĠÙĨØ´ Ø§ÙĦÙĩ
Ø¯ Ø§Ø¯
Ø± ØŃÙħ
Ø¬ Ø§
ĠÙĤ ÙĦÙĪØ¨
ÙĦØ§Ùħ ÙĬ
Ġ i
ĠØ¯ ÙĪ
ĠØ¨Ø§ÙĦ Ùĥ
1 7
Ø® ÙĦÙĬ
ĠÙħ Ø§Ùģ
Ø§ÙĦ Ø§Øª
ĠÙĬ ØªØŃ
ĠÙĪ Ø¹Ø¯
Ø¬Ùħ Ø§Ø¹Ø©
Ùģ Ø§
ĠØ§ÙĦÙĨØ³ Ø§Ø¡
Ġc om
ĠØ§Øª ÙħÙĨÙī
ĠØ¨Ùĥ Ø§ÙĦÙĪØ±ÙĬØ§
Ùħ Ùĩ
ĠÙģØ±ØŃ Ø©
ĠÙħÙĪ Ø§Ø¶ÙĬØ¹
ĠðŁĴ Ķ
ĠØ¨Ø±Ùĥ Ø§ØªÙĩ
ĠÙĪØ¬ Ø²Ø§Ùĥ
Ø§Ùĩ Ø±Ø©
ĠØ´Ø§Ø¡ ÙĦÙĦÙĩ
Ø¹ÙĬ ÙĦÙĬ
ÙĬ Ø§Ø®
Ø§Ø¦ Ø¹
ĠðŁĺŃ ðŁĺŃ
ĠÙĩ Ø±
ĠÙħÙĥØ§ÙĨ Ø´
ĠÙĬ ØªØ¨
ĠÙĦ Ø§Øª
ĠÙħ ÙĤØ§ÙĦ
ĠØ§ÙĦØ¬ Ø§Ùħ
ĠØª Øº
ĠÙĪ ÙħØ±
ĠØ§ÙĦÙĨ ÙģØ³
ĠØ§ÙĦ Ø¢ÙĨ
ĠØ´ Ø§Ùģ
ĠØ§ÙĦØ¨ ÙĤ
o t
~ ~
ĠØ¬ ÙħØ¹
Øµ Ø¯
Ø¬ ØŃÙĥ
ĠØ£ ÙĩÙĦØ§
ĠØª Ø¯ÙĬ
Ø±ÙĬ Ø§
Ø¨ÙĬ Ø§Ø¡
in e
ĠØ§ÙĦÙĪ Ø§ÙĦ
ØŃ Ø³
ĠÙĪØ£ ÙħØ§
ĠØ³ ÙĦ
ĠÙħØ¹ ÙĨÙī
ĠØ£ ØµØŃØ§Ø¨
Ø´ ÙĪÙģ
Ġw a
Ø®ÙĦ Ø§Øµ
ĠÙĬ ÙĪØ¬Ø¯
ĠÙĬ ÙģØ±
ĠØŃÙĥ Ø§ÙĬ
ĠÙħ Ø±Ø¶
ÙĤ ÙĪÙĨ
ĠÙĪ Ø§Øª
Ø§Ùĩ ÙĬ
Øª ÙĨ
ĠØ£ Ø³Øª
Ø· ÙĤØ©
ĠØ³ Ø¹ÙĬØ¯
ĠÙĤ Ø±ÙĬØ¨
ÙĦØ§ Ùĥ
ĠØ§ ÙĤØª
Ø±Ø¬ ÙĪ
ĠÙħ Ø²
ĠÙģ ÙĦØ³Ø·ÙĬÙĨ
ĠØ¹ÙĨØ¯ ÙĨØ§
ØªØŃ Ø§ÙĨ
ðŁ ĸ¤
ĠÙħØ¹ ÙĦÙĪÙħ
ĠØ³Ø¨ Ø¨
ĠØ§ÙĦØ£ÙĪ ÙĦÙī
ĠÙĪØ§ÙĦ Ø¬
] .
h i
ĠÙĥ Ø§Ø´
ĠØ¹ Ø§ÙĦÙħ
ĠØ´ Ø§Ø¨Ø©
ĠØ¬ Ø§Ø¨
Ø¶ Ø§ÙģØ©
ĠØ§ÙĦØª Ùģ
Ø§Ø¦ Ùĩ
Ø§Ø¹ Ø±
ĠØ§ÙĦØ¬ ÙħÙĬØ¹
ĠÙĪ ÙĩÙħ
ÙĪÙĦ ÙĪ
Ġm e
ĠÙĦØ§ÙĬ Ùĥ
Ġa na
Ġ C
d e
ĠÙĪØ§ÙĦ Ùģ
Ġ en
Ø¹ ÙĨØ¯
ĠØ® Ø§Øµ
ĠØ§ÙĦØŃ ÙĥÙħ
ĠðŁ¤ į
ĠØ£Ùĥ Ø¨Ø±
Øª ÙĤØ¯
Ø¯ÙĬ ÙĤ
ĠÙĤ Ø³Ùħ
ĠØ§ÙĦÙĤÙĬ Ø§ÙħØ©
s i
Ùģ Ùī
ĠÙĤ ÙĦÙĬ
Ø¹ ÙĦØ§Ùĩ
ĠØ¹ÙĨØ¯ ÙĩÙħ
ĠÙģ Ùħ
ĠÙĩ Ø§Ùĥ
ĠÙħ ÙĦÙĥ
Ø§ ÙĪÙĨ
ĠÙħÙħØª Ø§Ø²
ĠØ§ÙĦØ· ÙĬØ¨
ĠØª ÙĤØ¯Ø±
ĠÙĤ ÙĪ
Ø® ØªÙĬ
Ġ1 00
Ø§Ø± Ùģ
ĠØ§ÙĦÙģØ§Ø¶ ÙĦ
Ø® ÙĪÙģ
ĠØ¨ ÙĥØ±
ĠÙĬØ¯ Ø®ÙĦ
ĠØ¹ Ø·
ĠØªØ¬ ÙĬØ¨
ĠÙĪ Ø¶Ø¹
ĠØ§ÙĦÙħØº Ø±Ø¨
ĠÙģÙĬØ¯ÙĬÙĪ ÙĩØ§Øª
ĠØ§Ø «
ĠÙĪØŃ Ø¯ÙĬ
ÙĤÙĬ ÙĦ
ĠØ§ÙĦØ¢ Ø®Ø±
Ø§Ø¯ÙĬ Ø«
ĠÙĦ Ø³
ĠØ¯ ÙĪØ±
ĠØµ ØºÙĬØ±
Ø¯Ø± Ø³
Ùħ Ø²
ĠÙĪ Ø«
ĠØ§ÙĦØª ÙĨ
ÙĪÙĦ Ø¯
ĠØ§ÙĦÙĪ ÙĥÙĬÙĦ
Ġ D
Ø¨ÙĦ Øº
Ø§Ø¨ ÙĦ
____ ____
Ø¯ Ø¹ÙĪ
Ùģ Ø§Ø¡
Ø¶ Ø±Ø¨
Ø³Ùħ Ùī
ĠØ§ÙĦØŃ ÙĤÙĬÙĤØ©
ÙĪÙħ ÙĬ
Ø´Ø± ÙĬØ©
ĠØ± ØºÙħ
Ø³Ø¨ ØŃ
ĠÙħ ÙħÙĨ
ĠØ¨ Ø°ÙĦÙĥ
Ø§Ø¯ Ùħ
Ø¨Ø¯ Ø£
Ø¯Ø± Ø©
ĠØ§ÙĦÙħ ÙĪØª
ĠØ§ÙĦØ¬ÙĦ ÙģØ©
Ø§ÙĬ Ø´
ĠØ§ÙĦØ¬ Ø²Ø¡
ĠÙģØ± ÙĨØ³Ø§
Ø±ÙĬ Ø¹Ø©
ĠØ§ÙĦØŃÙĥ Ø§ÙĬØ©
ĠÙĪ ÙĬØ¨
ĠØ§ÙĦØ´ Ùĩ
ĠØ± Ø§Ø³
Ø³Ø¨ Ø§Ø¨
ĠÙħØ¹ ÙĦÙĬØ´
1 1
ĠØª Ø®Ø±Ø¬
ĠÙħ Ø¨Ø§Ø±Ùĥ
ÙĪÙĦ Ùĥ
Ø² Ø§ÙĬØ±
ĠÙĦ ÙĥÙĬ
ØµÙĦ Ø§Ø©
ĠØ¨ ÙĬØª
ĠØ®ÙĦ Ø§Øµ
ØªÙĥ ÙĦÙħ
Ø± Ø§Ø¡
ĠÙĦÙĬ ÙĪÙħ
s e
ĠØ¥ ÙĨÙĬ
ØŃ Ùĩ
ĠØª ÙģØ³ÙĬØ±
ĠÙħ Ø¨Ø±ÙĪÙĥ
ĠÙħØ¹ Ø§ÙĨØ§
ĠÙĦ Ùģ
ÙħØ§Ø´ Ø§Ø¡
ĠÙħ ÙĬÙħ
Ø³ Ùī
ÙĦÙĬ Ùĩ
ĠÙĦÙĦ Ø´
Ø§Øª ÙĪ
Ùĥ ÙĨØª
Ø§Ø° ÙĨ
ĠØ§ÙĦØ¨ Ø§Ø±
ĠÙĨÙĪØ± ÙħØ§ÙĦ
ĠÙĪÙĦÙĬ Øª
ØŃ ÙģØ¸
ØŃØ¨ Ø§
ĠÙĤ Ø¨Ø±
s a
Ø§ÙĨ ÙĪÙĨ
ĠØ¯Ø® ÙĦØª
Ø¬ Ø¹ÙĦ
ĠØ¯ÙĬØ± ÙĨØ§
ĠØ¥ Ø°
Ø¬ ÙĬÙĦ
ĠÙģ Ùĩ
ĠØ§ÙĦØ± ØŃÙĬÙħ
ĠØ§ÙĦÙĤ ÙħØ©
ĠØŃ ÙĤÙĬ
ĠØ§ÙĦÙĤ Ø¨
ĠÙĪÙĦ ÙĦÙĩ
ĠØ¨ Ø§Ø±
ĠÙĨ ÙĥÙĪÙĨ
ĠØ¬ Ø¹ÙĦ
ĠØ¬ ÙħÙĬÙĦ
ĠÙĦ ÙĤÙĬØª
ĠØ¹ ÙħÙĬ
ĠØª Ø¨Ø¹
Ġ4 0
ĠÙģÙĩÙħ Øª
âĢ Ļ
ĠØ¥ÙĨ ÙħØ§
ĠÙħ ÙĪØ³
Ùħ ÙĨØ§
Øª ÙĦÙĬ
Ø§Øª Ø°Ø©
ÙĦÙĪ Ùĥ
ĠØ£ÙĪ ÙĦØ§
ĠØ§ÙĦØ¥ ÙĬÙħØ§ÙĨ
Ø§Øª Ùģ
ĠÙĦ Ø¯ÙĬ
ĠÙħØ¹ Ùĩ
ĠÙĩ Ø¤ÙĦØ§Ø¡
Ø§Ùģ ÙĬØ§
ÙĪØ³ Ùģ
ĠØ£Øµ Ø¨ØŃ
Ø·ÙĦ ØŃØ§Øª
ĠÙĩ ÙĬØ§
Ùĩ Ø§Ø´
ĠØ¹ ÙĪØ¯Ø©
ĠØ±Ø§Ø¦ Ø¹Ø©
ÙĪØ§ ÙĬØ©
ĠÙĦÙĩ Ø°Ø§
ĠØ¹ÙĦ Ø§Ø¨
ĠØ§ÙĦØ¨ Ø§Ø¨
ĠØŃØ± Ø§Ùħ
ĠÙĤ Ø¯Ùħ
ĠØ§ÙĦØ³ Ø¨
ÙģÙĩÙħ ØªØ´
ÙĪØ¬ ÙĬ
ĠØ§ÙĦØ¹ Ùħ
ĠÙħØŃ ÙĦ
ÙĦÙĬ Ø§
Ø¹ ÙĪØ§
Ø±Ùĥ Ø²
ĠØ¥ Ø®
ÙĨ Ùģ
ĠØ¬ Ø²Ø¡
Ùĥ ÙĦØ©
ĠØ§ÙĦÙħØ¤ÙħÙĨ ÙĬÙĨ
ÙĨ Ø¯ÙĬ
ÙĬ ÙĪÙħ
ĠÙĪ Ø§
ĠØ§Ø¹ ÙĦÙħ
Ø³Ùħ Ø§Ø¡
ĠØ±Ø¨ ÙħØ§
ĠØ§ÙĦØªÙĪ ÙģÙĬÙĤ
ĠØ§ÙĦ Ø§Ø´
ÙĤØ· Ø©
Ø£ ÙĬ
ĠÙĥ ÙĦÙĩØ§
Ø£ Ùĥ
ĠÙĦ Ø°ÙĦÙĥ
ĠÙĪ ÙĥÙĬ
ĠÙĩØ± ÙĬØ±Ø©
ĠØ§Ø®Ø± Ùī
Ġ19 5
ĠØ§ÙĦØ§Ø¬ ØªÙħØ§Ø¹
f i
a u
ĠÙĨÙģØ³ Ùĥ
ĠÙĪ Ø°ÙĦÙĥ
ĠØ£ÙĬ Ø§Ùħ
ĠØ¹ Ø¯
Ø¨Ø± Ø§ÙĩÙĬÙħ
ĠØ§ÙĦØ« ÙĪØ±Ø©
Ø§ØŃ ÙĬ
ĠØµ ÙĪ
ĠØ£ÙĨ Ùĥ
ĠØ§ÙĬ Ø¶Ø§
ĠØ§ÙĦÙĤ ÙĪÙĦ
Ø§Ùģ ÙĤ
ĠÙĬ Ø²ÙĬØ¯
ĠÙĦÙĦ Øª
ĠÙĩØ° Ø§Ùĥ
ĠÙĪØ§ÙĨ Øª
Ġk ho
ĠØ¬Ùħ Ø§Ø¹Ø©
ĠØ´ Ùĥ
Ġ ]
ĠÙħ Ø§ÙĦÙĥ
Ø¨ ÙĨ
Ø® Ø§Ùģ
ĠØª ÙĤØ¯
ĠÙĬØ±ØŃÙħ ÙĩØ§
ĠÙĬØ§ Ø§Ø±Ø¨
ĠÙĥØ« ÙĬØ±Ø©
Ġ ï´
ĠØ§Ùĩ ÙĦØ§
Ø± Ø§Ø±
ĠØ¹ Ø«
ðŁ Ļ
ĠØ¬ ÙħÙĬÙĦØ©
Ùĥ Ø§ÙĬÙĨ
ĠÙĪØ§ÙĦ Ø®
ĠØ§ÙĬ Ø§Ùħ
ĠØ§ÙĦØª Ø´
ĠØ¬ Ø§ÙĬ
Ġ1 1
Ø§Ùĥ Ø³
ÙĦ ÙĦ
Ġm o
ĠÙĬÙĨ Ø¬ØŃÙĥ
ÙĤÙĪ Ø©
ĠØ§ÙĦØ³ ÙħØ§Ø¡
ĠØ§ÙĦ Ø§ÙĬ
ĠØŃÙĬØ§Øª Ùĥ
ĠÙģ Ø¯ÙĬÙĪ
ĠÙĦ ÙĬÙĨØ§
Ø¯Ø± Ùĥ
ĠðŁĺ ®
ĠØ§ÙĦØ¯ ÙĪÙĦØ©
l o
ĠØ§ÙĦ ÙĪØ±
ĠÙģ Ø§ÙĦÙħ
ØµØŃ ÙĬØŃ
ĠÙĪØ¬ ÙĪØ¯
z a
ĠØ§ÙĦØ³ ØŃØ±
ĠØ§Øº ÙģØ±
ĠÙĤ ØªÙĦ
Ø¨ ÙĬØ©
ĠÙĬ Ø±ÙĬØ¯
ĠÙĨØ³ ÙĤØ³ÙĬ
ĠÙħ ÙĤØªØ±ØŃØ§Øª
Ø§Ø¬ ÙĦ
ĠÙĪÙĩ ÙĦ
ĠÙħØ´ ÙĥÙĦ
Ø¯ Ø¹ÙĪÙĦÙĬ
ĠÙĨ Ø±ÙĪØŃ
ĠØ§ØŃ Ø¯
ĠØ±Ø§Ùĥ Ùħ
ĠØ§ÙĦØ³ Ø±
ĠÙħØ¹ Ø§Ùĩ
ĠØ¨Ø§Ø¨ Ø§
3 0
ĠØ¥ Ø³Ùħ
ĠØ¥ÙĨ Ùĩ
ĠØ³ Ø¨ÙĬÙĦ
ĠÙĪÙĦ Ø§Ø¯
Ø§ÙĦ ØŃØ©
ĠØª ÙĤØ±
Ø¹ÙĬ Ø´
ĠÙĦ Ø¬
ĠØµ ÙĦÙĬ
ĠØ§ÙĦØ£ ÙħØ©
ĠÙĥØ§ÙĨ ÙĪ
l lah
Ø±ÙĪ Ø¬
ĠØ¨Ø§ÙĦ Øª
ĠØªÙĩ Ø¯Ø±
-------- --------
ĠØ¹ Ø°Ø§Ø¨
ĠÙħØ¹ Ø§
ĠÙĪØ£ ÙĨØ§
ĠØ´ ÙĥØ±
Ø§Ø¨ ÙĤØ©
Ø² Ø§
ĠÙĦÙĦ Ø¹
ĠÙħØ³Øª Ø¬Ø§Ø¨Ø©
Ø§ÙĦ Ø£
Ø£ ÙĦÙĥ
ĠÙĪ Ø§ÙĤ
Ø¹ Ø§Ø±Ø©
ĠÙĦ Ø§ÙĦØ§
ÙĬÙĥ ÙĪØ±
ÙĨ ÙĪØ¨
ĠØ±Ø¬ Ø¹
ĠØ· ÙĬØ¨
Ø·ÙĬ Ùģ
Ø§Ø¯ Ø§
ĠÙħØ¬ ÙĩÙĪØ¯
ĠØŃÙĬØ§Øª ÙĬ
ĠØ± ÙĬØ¯
Ø§Ø¦ Ø¯Ø©
" .
ÙĦ Ø§Ø¨
Ġb ac
Ġ H
ØªØ¨ Ø§Ø±
Ø§Ø¹ Ø¯Ø©
ĠØª ØªÙħ
ÙĦÙĬ ÙĪÙĨ
Ø± Ùī
ĠÙģ ÙĩØ°Ø§
ĠØª ÙģÙĩÙħ
ĠÙĪØ§ÙĦ Ùĥ
ĠØ§ÙĦØª Øµ
Ø§Ùĥ ÙĨ
ĠØª ØªØŃ
ĠÙĥ ÙĦÙĩ
ĠÙĤØ§ÙĦ ÙĪØ§
ĠðŁĩ ©ðŁĩ¿
Ø§Øª ÙĦÙĬ
ĠÙĬÙĩ Ø¯Ø±
ĠØ§ÙĦØ£ ØŃ
ĠØª ÙģØ±Ø¬
ĠÙħ Ùħ
ĠÙĪØª ØŃ
Ø¨Ø¹ Ø§
ĠÙħÙĨ ÙĥÙħ
Ùģ ÙĪÙĨ
Ø§Ø¦ ØŃ
ÙĦØ¨ Ø§ÙĨÙĬ
Ø¨ Ø±ÙĬ
ĠØ¨ Ø³ÙĬ
Ø§ÙĦ ÙĩØ§
ĠÙģ ÙĥØ±Ø©
ĠØ§ÙĦÙħ ÙĦÙĥ
ĠÙĬ Ø¯ÙĬ
ĠÙĤ ÙĪÙĦÙĬ
Ø§Ø¨ Øª
ĠØµ Ø§Ø±
Ùĥ ÙĬÙĨ
ĠÙĦ Ø§ØŃ
ĠØ§ÙĦØŃ Ø³ÙĨ
ĠÙĥ ÙģØ±
ĠØ§ÙĦØ³ ÙĦ
ĠØ³ Ø§Ùħ
Ø¹ Ø§Ø±
ĠðŁ¥ °
ĠØ± Ø§
ĠØ§ÙĦØµØŃ Ø§Ø¨Ø©
ĠØ§ÙĦÙħØ¬ ØªÙħØ¹
ĠØ¥ ÙĬ
Ø¹ ÙĦÙĩ
Øµ Ø§Ø¯
ĠØ¯ Ùħ
ĠÙħÙĦÙĬ ØŃØ©
ĠØ§ÙĦØ² ÙĪØ¬
Ø§ÙĦ ÙĩÙħ
ĠÙĪØ¥ÙĨ ÙħØ§
ĠØ¬ Ø§ÙĪØ¨
ĠØ¹ÙĨ ÙĩÙħ
Ø¶ Ùī
ĠØŃ Ø§ÙĦØ©
ØªØ± Ø§Ùħ
ĠØ§Ø± Ø¬ÙĪ
ĠØ£ØŃ Ø³ÙĨ
Ø¯Ø¹ Ø§Ø¡
ĠÙĨØŃ ÙĥÙĬ
ÙĦØ³ ÙĦ
ĠØ§Ø³Øª Ø§Ø¯
ĠØµØº ÙĬØ±Ø©
ĠØ£ ÙĦØ§
ĠÙģ ÙĩÙĬ
ĠÙĩ Ø¯ÙĬ
Ġ _
ĠØ³ÙĬ Ø¨ÙĬØ§
ĠÙĤ Ø§Ùħ
ĠØ¯ Ø§ÙĬ
Ø¹ Ø¶
ÙĨ Ø¹Ùħ
a w
Ø¬ÙĦÙĬ Ø²ÙĬØ©
ĠØµ Ø§ÙĨ
ĠØ§ÙĦØ¹ Ø²ÙĬØ²
ĠÙħ ÙĬÙĨ
ĠØªØ¹ÙĦÙĬ ÙĤÙĬ
Ø¸ ÙĨ
Ø³ Ùĩ
ĠÙĪ Øº
ĠØ¨ Ø§Øº
Ø¬ Ø§Ø²
ĠÙĨ ÙĦ
ĠØµ ÙĪØ±Ø©
ÙĥÙĬ Øª
ĠÙĪØ£ ÙĨØª
Ø§Ø¨ Ùĩ
Ø¬ Ø±Ø©
ĠÙĦØ§ÙĨ ÙĪ
ĠØ³ÙĨ ÙĪØ§Øª
ĠØ£ Ø¬ÙĦ
ĠØ§ÙĦØŃ Ø§ÙĦ
ĠÙĪÙģ ÙĦØ³ÙģØ©
ĠØ§ÙĬ Ø§
ĠØ§ÙĦØª ØŃØ±
ĠØ¨Ø§ÙĦ Ø¥
ĠØ§ÙĦØ¯Ø± ÙĪØ³
ĠÙħÙĦ Ø§ØŃ
ÙĤ ÙĨ
ĠÙĦÙħ Ø§Ø°Ø§
ØºØ± Ø§ÙģÙĬØ§
ĠØ¨ ÙħØ¹
ĠÙĪØŃ Ø¯Ùĩ
ØŃ Ø«
ÙĪÙĨ Ùĩ
Ø¨ÙĬ Ø¹
Ùħ Ø§Øª
ĠØº Ø±ÙĬØ¨
Û ¡
ĠÙĦÙĬ Ø§
ĠØªØ® ÙĪÙģ
Ø· Ø§Ø¡
ĠÙħØ± Øª
ĠØªØ§Ø¹ ÙĪ
ĠÙĦ Ø¥
ĠÙĦ ÙģÙĬØ¯ÙĬÙĪ
ĠÙĪÙĨ Ø¹Ùħ
ĠÙĬØ¬ Ø¹ÙĦ
ĠØ§ÙĦØª ÙĤ
ĠÙĨØ¨ Ø¯Ø§
Ġt e
ĠØ¨ Ø§
ØªÙĪ Ø´
ĠØ§Ø¬ Ø¹ÙĦ
ĠØ¥ Ø¨Ø±Ø§ÙĩÙĬÙħ
â ĺ
ĠØ¬ Ø²Ø§Ø¦Ø±ÙĬ
Ø¨Ø¹ Ø¶
ĠâĿ¤ï¸ı âĿ¤ï¸ı
â Ļ¥ï¸ı
ĠðŁĳ į
ĠØ¢ ÙĦ
Ġvid Ã©
ÙĪÙĨ ÙĬØ©
Ġ el
ĠØ® Ø§ÙĬ
ĠÙĪØ§ÙĦ Ø¯ÙĬÙĥ
Ġj e
in a
âĢ ª
Ġâľ ¨
p p
ĠØ§ÙĦÙħ Ø§Ø¡
Ø±ÙĬ Øª
ĠÚ¨ Ø§Ø¹
ĠØ¨ ÙĩÙħ
ĠØ´Ø§Ø¡ Ø§ÙĦÙĦÙĩ
ĠØ§ÙĦÙħ Ø¯ÙĬÙĨØ©
ĠØ§ÙĦØ· Ø±ÙĬÙĤ
ch i
ÙĪ Ø¨Ø±
ĠØ¨ Ø§Øª
ĠÙģ Ùĥ
ĠÙĬØ±Ø²ÙĤ Ùĥ
ÙĥÙĨ Ùĩ
Ø¬ ÙĬØ©
ĠØ§ÙĦÙħ ØªÙĪ
ÙĪÙħ ÙĪÙĨ
ĠÙĩ Ø§Ø°Ø§
ĠØ§ÙĦØ§ÙĨ Ø³Ø§ÙĨ
ÙĨ ØŃØ¨Ùĥ
Ø± Ùĩ
Ġ is
ĠÙĪØ§ÙĦ ØŃÙħØ¯
ep ia
ĠØ´ ÙĪÙģ
Ġs u
ĠØ® Ø¯Ùħ
Ø« Ùħ
ĠÙĬÙĪ ÙħØ§
ĠØ§ÙĦØ± Ø¬Ø§ÙĦ
ĠØ· Ø§ØŃ
Ø§Ø± ÙĬÙĨ
ĠÙĪÙĦÙĥ ÙĦ
ĠØª ÙĤØ¯Ùħ
ĠÙĬØ¹ ÙĬØ´
Ùħ ÙĬØ±
Ø§ØŃ ÙĬØ©
ĠØ³ÙĪ Ø§Ø¡
ĠØ£Øª ÙħÙĨÙī
ĠØ· Ø¨
ĠØ§ÙĦÙħ Ø¨
Ø³ ÙĨØ©
ĠÙĬ Ø³Ø±
Ġ N
Ġf or
ĠØ¨ÙĦÙĬ ÙĬØ²
Ø® ÙĦÙĪ
Ø° ÙĬÙĨ
ĠØ§ÙĦØ® ÙĪÙģ
ĠØ¬Ùħ ÙĦØ©
s t
ĠØ§ÙĦ Ø±Ø¨
ĠØ² Ø§Ø¯
Ø§ÙĨ Ø¨
ÙĤØ¯Ø± Ø´
ĠØŃ Ø§Ø¬
ĠÙĪØªØ¹ Ø§ÙĦÙī
ĠØ±Ø§Ùĥ ÙĦÙĬØ·Ø©
Ø³ ÙĬÙĨ
Ø§ÙĨÙĬ Ø´
ðŁ «
ĠØ§ÙĦØ£ ÙĦØ¨Ø§ÙĨÙĬ
ĠØ²Ø¹ ÙħØ§
Ø§ÙĦ ÙĨ
ĠØ¶ Ø¯
ĠÙĪØ§ÙĦ Ø±
ĠØ¨Ùĥ Ø±ÙĬ
ĠÙģ Ø§Ø±
b e
Ø¨ØŃ Ø«
ÙĪØ¬ Ùĩ
Ø³ ÙĥØ±
ĠØ¨ Ø§ÙĨ
ĠÙĩ Ø¯Ø±
ĠðŁ Ļ
Ø± ÙĬØ©
Ø¨ Ø§Ø¡
Ø¹ÙĨ Ø¯ÙĬ
ĠØ± ØŃØª
ĠØ§ÙĦØ· Ø±ÙĬÙĤØ©
ĠØ¨Ø§ÙĦ Ø±
ĠØ§Ø¨ ÙĪÙĨÙĬ
ĠØ¨Ø§ÙĦ ØŃ
ĠØ¹ Ø±Ø¨ÙĬØ©
ĠÙģ Ø§ÙĨ
Ġa nd
ĠÙĦ ÙĪÙĦ
Ġp ar
ĠØ§ÙĦÙĥ Ø±ÙĬÙħØ©
ðŁĴ ª
ĠÙĪØ¹ ÙĦÙĬÙĥÙħ
Ø§ÙĪ Ùī
Ø« Ø§Ø±
ou m
i e
ĠØ§ÙĨ ÙĩØ§
ØŃ ÙĨØ§
Ø§Ø¦ ÙĦØ©
ĠØ¬Ø§Ùħ ÙĬ
ÙĪ Ø§Ùĩ
Ø±Ùģ Ø¹
Ø® Ø©
Ø® Ø¯Ùħ
ĠØ§ÙĦØ³ Ø§Ø¹Ø©
ou t
ĠÙĦ Ø·
ĠØ¹ ÙĨØ§
ĠØŃ ÙĤÙĬÙĤØ©
ĠØ§ÙĦÙĨ ÙĩØ§Ø±
ĠØ±Ø§Ø¬ ÙĦ
ÙĦØ§ÙħÙĬ Ø°
ĠÙĬØ® ÙĦÙĬÙĥ
ĠÙĦÙĦ Ø¬ÙħÙĬØ¹
ĠØ§ÙĦÙĤÙĨ Ø§Ø©
ĠØ¨ Ø§Ø°ÙĨ
Ùħ Ùħ
ĠØ³ÙĨ ÙĬÙĨ
ĠØ¨Ø§ÙĦ Ø¬
ĠØ³ ÙĦØ³ÙĦØ©
ĠØ§Ø¬ ÙħØ¹ÙĬÙĨ
Øµ Ø¨Ø§ØŃ
ĠØ§ÙĦØ£ Ø¹
Ø³Ø¨ØŃ Ø§ÙĨ
ØŃ Ø§Ø¨
ĠÙĬ ØªÙĪ
ĠØ¢ ÙħÙĨ
an a
Ø§ÙĪ Ø²
Ġvid eo
ĠÙĨ Ø¸Ø±
ĠØµ Ø¯ÙĤ
ĠØªØ¹ÙĬØ´ ÙĬ
ðŁĺ ģ
ĠØ¬ ÙĪ
ĠØ£Ø® Ø°
ĠÙĬ Ø²
ĠÙĬ ÙĤØ§ÙĦ
Ø§Ùģ Ø¹
ĠÙĦ Ø±
ĠØŃ ÙĤØ§
ĠØ¹ Ø¨Ø±
ĠØ±Ø£ ÙĬ
Ø±ÙĬ Ø³
ĠÙĪ ØµÙĦ
j a
Ġw e
ĠØ§ÙĦÙħ Ø¹ÙĦÙĪÙħ
ĠðŁ¤² ðŁ¤²
g h
ĠØ§Ø± ÙĬØ¯
ĠÙĦÙĦ Ø¬
ÙĬÙħ ÙĬÙĨ
ĠØŃ ØªØ§
ĠØ´ Ø¦
Ġp our
ĠØ£ÙĬ ÙĩØ§
Ø¯ ÙĪÙĨ
k om
ĠØ§Ùĥ Ø¨Ø±
ĠÙģÙĬ Ø§
ĠØ· Ø§ÙĦ
Ø§Øµ Ø±
ĠÙĨØ® Ø¯Ùħ
ĠØ¹ÙĦØ§ ÙĤØ©
Ø§Ø¨ ÙĤ
ÙĨ Ùĥ
ØŃÙĬ ÙĦ
Ø§Ø±Ùĥ Ø©
ĠØ§Ø® Øª
ĠØ¶ Ø¹ÙĬ
ĠØ§ÙĦØ£Ùħ ÙĪØ±
ĠÙĬÙĩ Ø¯ÙĬ
Øº Ø·
Ø§Øª ÙĨØ§
ĠØ§ÙĦÙĬ ÙĪØªÙĬÙĪØ¨
Ø§Ø¦ Ø¨
ĠÙħÙĪ ÙĤØ¹
2 2
ĠØ® Ø·Ø±
ĠØ¹Ø¨ Ø§Ø¯
ĠÙħ ØŃØ¨
Ø±Ø¨ Øª
ĠØ¹Ø¨ Ø§Ø³
ĠØ£Ø¬ ÙħØ¹ÙĬÙĨ
ĠÙĦÙĦ ØŃ
Ø§Ø¦ ÙħØ©
ÙĦÙĪ Ùĩ
Ø¯ Ø§Ùħ
ĠÙĤ ÙĪÙħ
ĠÙĪØ§ÙĦ Ø«
Ġp as
Ġp ro
ĠØ¨ÙĦ Øº
ĠÙĬ Ø§Ø³
Ø¹ Ùī
ĠØµ ÙĪØ±
ðŁ¤£ ðŁ¤£
ĠØ§ÙĦ Ø§Ø³ØªØ§Ø°
ĠØ£ÙĨ ÙĩÙħ
ĠØ§Ø± Ø²ÙĤ
ÙĤ Ø§ÙħØ©
ÙĪ ÙĪ
ĠØ§ÙĦÙħØ´ ÙĥÙĦ
ĠÙĪ Ø§Ø¶
ĠØ£ ÙĬÙĨ
ĠØ£ Ø®Ø±Ø¬
Ġ F
Ø³ÙĬ Ø¨ÙĬØ§
ĠØ§Ø¯ Ø§Ø¨
ĠØ³ ÙĪÙģ
ĠÙĬØª Ø¹
ĠØµ ØŃØ©
Ġ K
Ø° Ø§Ùĥ
ĠÙĦÙĦ Ø¨Ø§Ùĥ
ĠÙħÙĥ Ø§Ø´
a da
ĠÙĦ Ø¯
ĠØ· Ø§ÙĦØ¨
ĠØ§ÙĦÙĤ ÙĬÙħ
Ġd es
ĠØ¨Ø± ØŃÙħ
ÙĪ Ø§Ø¹
Ø¶ Ø¨
ĠØ§ÙĦØ´ ÙĥØ±
ĠØ§Ø³Øª ØºÙģØ±
ĠÙĤ Ø§Ø¯Ø±
Ø§Øµ ÙħØ©
Ø§Ø® Ø±
ĠÙĪ Ø²ÙĬØ¯
ÙħØ§ÙĨ Ø©
ĠØŃ ÙĦÙĬ
ĠØºÙĬØ± Ùĩ
ĠØ§ÙĦÙģØ± ÙĨØ³ÙĬØ©
ĠØ§ÙĦØª Ø±
Ø´ ØŃØ§ÙĦ
Ø¯ Ø®ÙĦ
ÙĩÙħ Ø´
Ø®ÙĬ Øµ
ØŃ ØªÙī
Ø® Ø§Øµ
ĠØ¯Ø± Ø§ÙĩÙħ
ĠÙĦ ÙĤÙĬ
Ġb a
Ġt h
Û Į
ĠÙĪ ÙĬØ¯
ĠØª Ø¨Ø§Ø±Ùĥ
ĠØ£ Ø¬Ø±
ĠÙĪØ§ÙĦ ÙĤ
ĠØ§ÙĦØ§Ø³ Ø¦ÙĦØ©
Ø·ÙĬ ØŃ
Ġ P
ĠÙĩØ§Ø¯ Ø§
Ø¨Ø¯ ÙĦ
ĠÙģØ¶ ÙĦÙĥÙħ
u t
ĠØ¯ Ø¹ÙĪÙĦÙĬ
ĠØ§ÙĦÙĤ Øµ
ĠÙħØ§Ø² Ø§ÙĦ
ĠØ® Ø¨Ø±
ĠØ§ÙĦØŃ Ø§ÙĦØ©
Ø³ Ø§
ĠÙĬ ÙģÙĩÙħ
Ġha d
Ø¦ ÙĦ
Ġl o
ĠÙĬ ØºÙģØ±
qu e
ĠØª Ø²
ĠØ« Ø§ÙĨ
ĠÙħ ØµØ±
Ùģ Ø§ÙĦ
ĠØ§ÙĦØ¹ ÙĦÙĪÙħ
Ø¯ Ø§Ø¡
ØŃØ¯ Ø«
ĠØ«ÙĦØ§Ø« Ø©
ĠØ£ Ø±Ø¨
Øµ ÙĬ
ØªÙĬ Ùĩ
Ġ202 3
ĠÙĨØ¬ÙĬØ¨ ÙĪ
ĠÙĨ ÙģØ±ØŃ
ĠØ§ÙĦØªØ¹ÙĦÙĬ ÙĤ
Ġ Ì
ĠØª ÙĪÙĦÙĬ
Ø· Ø¨ÙĬ
ĠÙĪØ¹ ÙĨØ¯
ĠðŁĺħ ðŁĺħ
ĠÙħØ¹ Ø±Ùģ
ĠÙĨÙĨØ¬ØŃ ÙĪ
ĠÙħØ¹ ÙĬ
Ġd ir
Ġb i
ðŁĺŃ ðŁĺŃ
ĠÙģ ÙĦÙħØ§
ĠÙħØ¬ Ø±Ø¯
d x
Ø§Ø® ØªÙĬ
Ø° Ùģ
ĠØ£ ÙĨÙĬ
ØªÙĪ ØŃØ´
ĠØ¯ ÙĬØª
ĠØ¢ ÙĦÙĩ
Ø¯ ÙĩØ§
ĠØ§ÙĦØ¥Ø³ÙĦØ§Ùħ ÙĬØ©
ĠØ£Ùħ ÙĬÙĨ
Ø¨Ø¹ Ø«
ðŁ¥ ¹
ĠÙĬ Ø§Ùĥ
Ø¦ ÙĬØ³
ĠØ§ÙĦÙģØ± Ø¯
Ø« Ø§ÙĦ
ĠØ§ÙĦ Ø§ÙĤ
ØºÙĬ ÙĬØ±
ĠÙģÙĬ ÙĨØ§
ĠØ§ÙĦØ· ÙģÙĦ
ĠØ§ÙĦØ¨ÙĤ Ø±Ø©
ĠÙħ ÙĥÙĨ
ĠØ¨ Ø¯Ø§ÙĬØ©
ĠØ£ Øº
ĠÙĦØº Ø§Øª
ĠÙĪØ± Ø³
5 5
ĠØ¨ Ø´Ø±
ĠÙĥ Øª
ĠØªØŃ ÙĬØ©
ĠÙĦØ¹ Ø²ÙĬØ²
ÙĪØ± Ø§
Ø§ÙĦÙħ ÙĪ
ĠØ± Ø²ÙĤ
ĠÙĬÙģØ± ØŃÙĥ
ðŁĺ ĺ
Ø§Ø³Øª Ø§Ø¯
Ùħ ÙħÙĥÙĨ
ha t
ĠâĢ ¢
ĠÙĪØµ Ùģ
ĠØ¨ ÙĬØ¯
Ø§Ø¯ Ø§Øª
ĠØª Ø®ÙĦ
ĠØ§ÙĦÙĪØ· ÙĨÙĬ
ĠÙĪ ÙħÙĬ
ÙĤÙĪ Ø¨Ø©
ĠÙĨÙħ ÙĪØª
ĠÙĦ Ø¹Ø¨
Ø§Ø³ Ø¨Ø©
Ø¸ Ø§Ø±
ĠÙĨØ¬ Ø§ØŃ
ĠÙħÙĪØ³ Ùī
ØŁ !
ÙĦ ØŃ
Ø± Ø§ØŃ
ĠØ¨ÙĬ ÙĩÙħ
ÙĪ Ø¡
ĠØ§ÙĦ Ø¶ÙĬ
ĠØ§ÙĦØª Ø£
ĠØŃ Ø±Ø©
ĠØ¹Ø§Ø¦ Ø´Ø©
l na
ĠØ¹ Ø¯Ø©
ĠÙĬ ÙĦÙĬ
ou ra
ĠØ³ ØŃØ±
Ø¯ÙĬØ± ÙĨØ§
ĠÙħØ± Ø§Øª
ĠÙĪ Ø§Øµ
ĠØ§ÙĦÙĪ ØŃ
ĠÙĨØ¯ Ø®ÙĦ
ĠØ§ÙĦØ¹ Ø¨Ø¯
ĠÙĪØ§Ø¨ ÙĨ
Øµ ÙĬÙĦ
Ġ W
ÙĦØª Ùĥ
ĠØ§ÙĦØµØŃ ÙĬØŃ
ĠÙģ ÙĩÙĦ
ĠÙģ Ø·
ĠÙħØ¹ Ùĥ
Ø§Ø¬ Ø¯
Ø§Ùħ Ø§Øª
Ġn ch
ĠØ£ Ø·
ĠØ³ ÙĬØ±
ĠÙĪ ÙĥÙĬÙģ
ØªØ± Ùħ
ĠØ¬ Ø²Ø§Ø¦Ø±
Ġâ Ļ¥ï¸ı
Ø£ Ùħ
Ø¯ÙĬ ÙħØ©
ĠØ§ÙĦÙĤ Ø³Ùħ
ĠØ¥ÙĦÙĬ Ùĥ
ĠØ¯Ø§Ø® ÙĦ
Øµ Ø¨
ĠØ· ÙģÙĦØ©
ĠØ¨ Ø±ÙĪ
ĠØ´ Ø§Ø¨
ÙĥØ± Ùħ
ĠØ§ÙĦØ£ Ø³ØªØ§Ø°
ĠðŁĴ Ĺ
k i
Ø¹ÙĪ Ø°
ðŁĳ ı
ĠÙĦ ØŃÙĥØ§ÙĬØ©
Ġc ont
ĠØ§Øµ ÙĦØ§
ĠÙħ Ø¯ÙĬÙĨØ©
ĠØ¯ Ø±Ø¬
Ø§Ø´ Ø±Ø©
a i
Ø² ÙĬÙĨ
ĠðŁ Ķ¥
ĠØ« Ø§ÙĦØ«
Ø· ÙĬÙĨÙĬ
ĠØµ Ø¹
ÙĪØ³ Ø¹
ĠÙĪØ³ ÙĩÙĦØ§
ĠÙĪÙĩ Ø°Ùĩ
Ġn e
ĠÙĨØ³Øª ÙĨØ§
h om
ĠØ³ Ø¹Ø¯
ĠØ§ÙĦÙĨ ÙĤ
ĠÙĪØµØŃ Ø¨Ùĩ
ĠØ® Ø±
ĠÙĬ ÙģØ±ØŃ
Ø¹ÙĦ Ø§Ø´
ÙĪÙĬ Ùĩ
ĠØªÙĤ Ø¨ÙĦ
ĠÙĪØ¥ ÙĨØ§
ĠÙģ Ø§ÙĩÙħ
Ø§Ø· Ø©
ĠØ§ÙĦÙħØ¬ ÙĩØ±
Ġ20 0
ĠØ· Ø¨ÙĬ
ĠÙģ Ø±ÙĬ
Ġ E
ÙĪØªÙĬ ÙĪØ¨Ø±
ÙĦÙĬ Ø³
ĠØĮ ØĮ
ĠâĢ ª
Ø¯ÙĬ Ø§Øª
ĠÙĤØ±ÙĬ Øª
ĠØ®Ø§Ø· Ø±
ĠØªØŃ Ø·
ĠÙĦ Øµ
ĠØ® ÙģØª
Ùħ Ø¨Ø±ÙĪÙĥ
ĠÙĬ ÙĪØ³Ùģ
ĠØ° Ø§Øª
ĠØ«Ø§ÙĨÙĬ Ø§
ĠØ§ÙĦÙĦ Øº
ĠÙħ Ø±ÙĪ
ĠÙĤ ÙħØ©
ĠØ¨ÙĦØ§ Ùĥ
ĠØ§ÙĦØ£ Ø´
Ø§Ø¦ Ø¬
Ù ł
ĠÙĪØ¬ Ø¯
ĠØ¸ ÙĩØ±
Ø§ÙĨÙĬ Ø§
ĠØª ÙĨØª
ÙĪÙĨ Ø³ÙĬ
ĠÙĤÙĦØ¨ Ùĥ
f a
ĠÙĪ Ø§Ø¯
Ø¨ ØºÙĬ
â Ļ
ĠØ£ÙĨ ÙģØ³
ĠØ§ÙĦØ¯Ø± Ø§Ø³Ø©
ĠØ¨Ø´ ÙĥÙĦ
Ġâ Ļ¥
ÙĦ Ø§ÙĨ
ĠØ±Ø¬ Ø§ÙĦ
ĠØ§ÙĦØ¥ Ø³Øª
Ø±Ùĥ Ø§Øª
Ø¨ÙĬ ÙĬÙĨ
Ø§ ÙĤØ©
ĠØ§ÙĦØŃ ÙĤÙĬ
ĠØ§ÙĦ Ø§Ùģ
Ø±Ø¶ Ùī
ĠØ£Ùħ Ø§Ùħ
ĠØ¯ÙĬ ÙħØ§
ĠØ§ÙĦÙħ Ø§ÙĦ
Ø¹ Ø§ÙĨ
3 3
Ø§ØŃ Ø¨
Ùĩ Ø§Ø°
ĠØ§ÙĨ ØªÙĬ
4 7
ĠØ¨ÙĨ ÙģØ³
ĠÙĨØµ ÙĬØŃØ©
ĠØ£ Ø«
ĠÙĨØª Ø¨Ø¹
ĠÙĨØ¨ ÙĬÙĨØ§
ĠÙĪ Ø³ÙĬ
Ø® Ø·
Ø¹ÙĪ Ø©
ĠÙħ Ø¯Ø©
Ø± Ø§ÙĨØ§
Ø· ÙĤ
ĠØ³ ÙĩÙĦØ§
ĠÙĪØ§ÙĦ ÙħØ¹
ĠÙĨØ¯ÙĬØ± ÙĪ
ĠØªØ¯ Ø®ÙĦ
Ø¬ Ø§Ø¬
ØŃ Ø§
ra n
Ġ }
ĠØ§ÙĦØ² ÙĪØ§Ø¬
ĠØ§ÙĦÙħØ¹ÙĦÙĪÙħ Ø§Øª
Ùģ ÙĬÙĨ
Ø§Ø´ ÙĬ
ĠØ° Ø§Ùĥ
ĠÙĪÙĥ Ø°ÙĦÙĥ
Ùģ ÙĨ
ĠØ§ÙĦØ§ÙĪ ÙĦÙī
ĠÙĨ Ø¶
ĠØŃÙĬ Ø§Ø©
ĠÙĦ ÙĦÙĥ
Ø§Ø¦Ùĥ Ø©
ĠØ§ÙĦØŃ Ø¨
ĠÙĩØ° ÙĪ
ĠØ¨Ø¹Ø¯ ÙĩØ§
ØŃÙĥ Ø§Ùħ
00 0
a tion
ĠØ§ÙĦÙĥ Ø¨ÙĬØ±
ĠØ¨ÙĦ Ø§Ø¯ÙĬ
ĠÙĦÙĦ Ø¥
Ø§Ø· Ø±
Ġb on
j i
ĠØ§ÙĦØ¹ÙĦÙħ ÙĬØ©
Ø±ÙĬØ¨ ÙĬØ©
ĠØ§Øµ Ø¨ØŃ
ĠÙĦ ØºØ©
ÙĪÙĦÙĬ Ø©
ĠÙĬØ±ØŃÙħ ÙĪ
ĠðŁİī ðŁİī
ÙĤØ¯ ÙħØ©
Øª Ø³
ÙĦÙĪ Ø±ÙĬØ§
ĠØ§ÙĦØ§Ø¯ Ø¨
ĠØ£ ØŃÙĬ
ĠØ§ÙĦØµ Ùģ
ÙĬ ÙĦÙĬ
ĠÙħØ´ Ø§Ø¡
Ø§Ø £
ĠØ¹ Ø§Ø´
ÙĪ Ø¹Ø©
ĠÙħ ÙĬØª
ĠØ¨ ÙĪØ±
ĠØ§ÙĦØ¹ ÙĬÙĨ
Ġm n
ĠØ² Ùĩ
ĠØ§ÙĦÙģØ± ÙĨØ³ÙĬ
ĠØ¥ Ø³Øª
Ġâ ĺ
ĠØ· Ø¨Ø¹Ø§
ĠØ§ÙĦØ® ÙĦÙĤ
Ø³Ùħ ØŃ
Øµ Ø¨ØŃ
ĠØ¯ ÙĤÙĬÙĤØ©
ĠÙĬØ¹ Ø·ÙĬ
ĠÙħ ØŃÙħ
Ġ #
Ø¨ Ø³Ùħ
Ø§ÙĨ Ø´Ø§Ø¡
Ø³ Ø¯
ĠÙģ ÙĥØ§ÙĨ
Ø¦ Ùĥ
ĠØ´ÙĥØ±Ø§ Ø§
ĠÙħØ¹ Ø§ÙĥÙħ
ĠØ¶ Ø¹
ĠÙĪØ± Ø¯
ĠØ§ÙĦØªØ¹ÙĦÙĬ Ùħ
ĠÙĪÙĥØ§ÙĨ Øª
Ø´ÙĬ Ø§Ø¡
ĠØ¬ ÙĬØ¨
Ùģ ÙĬØ©
Ġ3 0
ÙģØ± ØŃÙĪ
Ġs t
Ø§Ø± Ø§
ÙģÙĬ Ùĩ
Ø¨ Ø²
ĠØª ÙĪÙĥ
ĠðŁ¥ ¹
Ùģ ÙĥØ±
Øµ ÙĪØ±
ĠØ§ÙĦÙħÙĪ Ø§Ø¶ÙĬØ¹
ĠÙĨ Ø¨ÙĬ
ÙĢ ÙĢ
ĠÙħ ÙĦØ§
ĠÙĨ ÙĤÙĦ
Ø§Ø· ÙĬÙĨ
ÙĤÙĬ Ø§
ĠØ§ÙĦØŃ Ø±Ø¨
Ø¬ Ø§Øª
ĠÙĩ Ø§
ĠØ¯ Ø¹Ø§Ø¡
ĠØ¨Ø§ÙĦ Ø´
ĠØ¥ÙĦÙĬ ÙĩØ§
ĠÙĪØ§ÙĦ Ø¢
Ø§ÙĪ Ø¯ÙĬ
ĠØ¨Ø± ÙĨØ§ÙħØ¬
ĠÙĨØ§Ø¬ ØŃÙĬÙĨ
ĠØ§ÙĦØ£Ø³ Ø¦ÙĦØ©
ĠØ§ÙĦÙĥ ØªØ¨
ĠØ¯ ÙĪÙĥ
ĠÙĪØ¨ Ø§ÙĦ
an t
ĠÙĪÙĬ ÙĤÙĪÙĦ
Ø®Ø± ÙĬÙĨ
ÙĬØª ÙĩØ§
ĠÙħ ÙĪÙĦ
ĠØ¨ ÙħÙĨ
ĠØ§ÙĦØ± Ø³
ĠÙĩØ§Ø¯ ÙĪ
ÙĬ Ø·
ĠØ¨ ØºÙĬØ±
ĠØª ÙĤÙĪÙĦÙĬ
ĠÙĥ Ø£ÙĨ
ĠØ¯ ÙĦÙĬÙĦ
ĠÙĬØ¹ ÙħÙĦ
ĠØ§ÙĦØ§Ø³ Ùħ
ÙĬØ§Ø® ÙĪ
ĠÙĦØ¹ Ø§Ùħ
ĠðŁĺĬ ðŁĺĬ
ĠÙħ Ø§Ø¯Ø©
ĠÙģ Ø´
ĠØ± Ø¤
ĠØ§ÙĦØ¬ ÙħØ¹Ø©
Ġa n
ĠÙĥØªØ§Ø¨ Ùĩ
ĠØ§ÙĦØ³ ÙĦÙģ
ĠØ§ØŃ Ø¨
ĠÙĪ Ø¶
ĠØ§ÙĦØ® Ø§ØµØ©
ĠÙģ ÙĦØ³ÙģØ©
Ġo f
ĠØª Ø¯ÙĬØ±
H hh
ĠØ³ Ø¹
ĠØ´ ÙĪÙĬØ§
ĠØ¨ Ø³Ùħ
ĠÙĥ Ø±ÙĬÙħ
ĠØª Ø²ÙĬØ¯
ĠØªÙĤ Ø±ÙĬ
Ġra bi
ĠØ§ÙĦ ÙĪØ§ÙĤØ¹
ĠÙĬØ³ ÙħØ¹
ĠØ§ÙĦØµ ÙĪØ±Ø©
ĠÙĨØ± ÙĤØ¯
ÙĥØ± Ùĥ
ĠØ§ÙĦØ£ Øµ
Ø± Ø§ÙĨ
ĠÙģØ¹ ÙĦØ§
ĠÙħ ÙĩÙħØ§
ØªÙħ Ø¯
ka ya
ĠÙĩØ§Ø° ÙĪ
Ø§Ø± Ø¹
ĠØ±Ø¨ Ùĥ
ĠØªØ± Ùī
ĠØ¯ Ø§ÙĪØ¯
Ø±ÙĬØŃ ÙĬØ©
ĠØ³ Ø¤
ÙĤØª Ùĥ
ĠÙĨØ¹ Ø§ÙĪØ¯
ĠØŃ ÙĥÙĬ
Ø¯Ùĥ Ø³
Ø§ÙĨ Ø´
ĠÙħÙĨ ÙĪ
ĠØµØ± Ø§ØŃØ©
Ġqu e
Ø³ ØŃ
ÙĩØ¯ Ø§Ø¡
ĠØ£ ÙĩÙħ
ØŃ Ø³ÙĨ
d ir
ĠÙģ Ø¬
ĠØ§ÙĦÙħ ÙĤØ§ÙĦ
ĠØ¨Ùĩ Ø°Ùĩ
ĠØ§ÙĦØ§Ùħ Ø±
ĠØ§Ø¬ ØªÙħØ§Ø¹
ĠÙĥ ÙĦÙħ
ÙĨØª Ø§
Ø¨Ø± ÙĪ
ĠØ±ÙĪ Ø·Ø§Ø±
ĠÙĪØ± Ø§ÙĨÙĬ
Ġn ta
Ú ©
an i
ĠÙĪ Ø§ØµÙĦ
ĠØªØ¹ Ø¨
ÙĨÙĬ Ø´
Ġw lh
ĠØª ÙĨØ³
Ùĥ Ø´
ĠØµ ÙĨ
Ø§Ø¬ Ø¨
ĠØ¨Ø§ÙĦ Ùģ
Ø² ÙĪ
ĠØŃ ÙĦÙĪ
Ø§Ùģ ÙĬÙĥ
ĠØ¹ÙħØ± ÙĪ
ÙĬÙħ ÙĬØ©
ĠÙĪØ£ Ø³
il le
ÙĨ ØªÙĬ
ĠÙħ Ø§Ø¨
ĠØ§ÙĦØ³ÙĬ Ø§Ø³ÙĬ
ÙĤÙĪ ÙĤ
ĠØª Ø§ÙĪ
Y a
Ø®Ø± Ø§
Ø² Ø§Ùħ
ĠØŃ ÙĨ
ĠØ§Ùĩ ÙĦ
ĠØª Ø¶
ĠØ´ ØºÙĦ
ĠØ§ÙĬ Ùĩ
ĠØ£Ø¨ Ø¯Ø§
ÙĤ Ø§Ø¯
ĠÙĪÙħ Ø³ÙĦÙħ
ĠØ¨Ø§ÙĬÙĨ Ø©
ĠØ§ÙĦÙħØ³ Ø¬Ø¯
ĠØ§ÙĦØ¨ÙĦ Ø§Ø¯
5 0
ĠØ¨Ø§Ø³ ÙĥÙĪ
ĠÙĥ Ø§Ø±
ÙĪÙĬ ÙĦ
ĠÙĬØ¯ ÙĦ
Øµ ÙĦØª
ĠØ§ÙĦØ¯Ø± Ø³
ĠÙĪ Ø±ÙĪ
ĠÙĨÙĥ ØªØ¨
Ġa b
ĠØ±ÙĬ Ø§Ø¶
ĠðŁĺį ðŁĺį
ĠÙĬØŃÙģØ¸ ÙĥÙħ
ÙĦ Ø¹
Ø¸ Ø§ÙĩØ±
ĠØ§ ÙĬÙĨ
ĠØ§ÙĦÙĤØ± Ø§ÙĨ
ĠØ® ÙģÙĬ
ØŃÙĥ Ø§ÙĬØ§Øª
ĠÙĨØ³ÙĤØ³ÙĬ Ùĥ
Ġ G
ĠÙĪÙĨ ÙģØ±ØŃ
ÙĤ ØµØµ
Ø® Øª
ĠØ§ÙĦØµ Ø¨Ø§ØŃ
ĠØ®ÙĪ ØªÙĬ
ĠØ§ÙĦ ÙĩØ¯
ÙħÙĪ Ø¹Ø©
ĠØ§ÙĦÙĪ Øµ
ðŁĴ ľ
ĠØ¨Ø¹ ÙĬØ¯
ĠÙħ ÙĪØª
ĠÙĨØŃ ÙģØ¸
ha n
ÙĤÙĪ Ùī
Ġf a
Ø£ ÙģØ¶ÙĦ
ĠØ§ÙĦÙĥ ÙĦ
Ø´ Ø±ØŃ
ĠØ¬ Ø±
ĠÙĨÙģØ³ ÙĩØ§
Ø§ÙĬ Ø¬
ĠvidÃ© o
ĠØ§ÙĦØ¹ ÙĬØ¯
Øµ Ø¨Ø±
ĠØ± ÙģØ¹
Ø³ ÙħØ¹
Ø§Ùħ Ø±
m i
ĠØª ÙħØ±
ĠðŁĺ ģ
Ø³ÙĬ ÙĤÙī
ĠØ§ÙĦØ¥ ÙĨ
ĠØª Ø±Ø¬
ĠØ§ÙĦØ¨ ØŃØ±
ĠØ§ÙĨ Ø´
ĠÙĨØ´ Ø±ÙĬ
ĠØ§ÙĦØ³ ÙĨ
Ġc on
ĠØ¨ Ø§ÙĤÙĬ
Ø§Ùħ ÙĨ
Ø§Ø¬ Ø±
ðŁ¥ ²
ĠØ§ÙĦÙħØŃ ØªÙĪÙī
ĠÙĤØ± Ø§Ø¡Ø©
es s
ĠØ¯ ÙĪÙĦ
ĠØ§ÙĦØ¹ Ø´Ø±ÙĬØ©
Ùģ ØªØŃ
9999 9999
Ø§Ø¯ Ø±Ø©
ÙħØ± ØŃØ¨Ø§
ÙĪØ§ ÙĤ
ĠØ§ÙĦØ³ ÙĬØ¯
Ġg a
ĠÙģ Ø§ÙĬ
ĠØ§ÙĦØ¬ Ø¯ÙĬØ¯
Ø§Ø® ÙĬ
Ùħ ØŃ
Ø±ÙĪ Ø¨
ĠÙĨØ® Ø§Ùģ
ĠÙĬØ£ ØªÙĬ
Ø§ÙĦ ÙĨØ§
Ø¯ Ø®
ĠØ· Ø±Ùģ
ĠØ®Ø±Ø¬ Øª
ðŁĴ ĸ
ĠØ§ÙĦØ¨Ø§Ùĥ Ø§ÙĦÙĪØ±ÙĬØ§
ĠØ§ÙĦÙģ ÙĦØ³ÙģØ©
ðŁĮ ¹
Ø¸ ÙħØ©
ĠØ§ÙĦØ£ Ø¨
ÙĪ Ø£
ĠÙĩ ÙħØ§
ØŃÙħ Ùĩ
ĠÙĥ Ø´
Ø§Øµ ÙĬ
ĠÙħØ¹ Ø§ÙĩÙħ
ĠØ§ÙĦÙĨ ÙĪ
ou d
ĠØ¬ ÙĪØ§Ø¨
ĠðŁĴ ª
ĠÙĨØªÙĪ ÙħØ§
ĠÙĤ Ø¹Ø¯
ĠØ§ÙĦØ´ Ø±ØŃ
Ø¸ Ø§Ùħ
ĠØ§ÙĦØ¢ Ø®Ø±Ø©
ÙĦ Ø§ØŃ
ĠØ§ÙĦÙĨ Ùģ
t h
ĠØ¨ ÙĥÙħ
ĠÙĬ Ø¨ÙĤÙī
ĠØ§ÙĦØ· ÙĬØ¨Ø©
Ø§Ùĩ ÙĦØ§
c t
ĠØ¨ ÙĦÙħ
ÙģØ± ÙĤ
ÙħÙĬ Ùħ
ÙĬØ³ Ùī
f d
ĠØª Ø±ÙĪØŃ
ĠØ£Ø± Ø§Ø¯
Ġ č
ÙĪØ¯ Ø§Ø¡
Ú ¤
ĠØ² ÙħØ§ÙĨ
Ø¬ ÙĪØ¯
ĠØ§ÙĦÙĤ Ø¨Ø±
ĠÙĩØ° ÙĬÙĥ
Ø§Ùģ Ùĩ
ĠÙĪ Ø±Ø¨
ĠØ® Ø§Ø±Ø¬
ĠØ§ÙĦÙĬ ÙĩÙĪØ¯
Ø³ ÙĬØ¯
ĠØ§ÙĦØ¹ ÙĤÙĦ
ÙĤØ¯Ø± ØªØ´
l y
o w
Ùĩ Ø§Ø¨
ĠÙħØª Ø§Ø¨Ø¹
ĠÙħÙĥÙĨ ÙĬØ©
ĠÙĤØ¯ Ø§Ùħ
ĠØ£Ø® Ø¨Ø±
Ø§Ø¹ ÙĦ
ĠØ§ÙĦÙħ Ùĥ
ĠÙĪ Ø§ÙĬ
ĠØ§ÙĦÙħ Ø¨Ø§Ø±Ùĥ
ĠÙĪØ§ÙĦ Ø¨
Ø¸ ÙĬ
ĠØ§ÙĦÙĪ ÙĦØ§
ĠØ¹ Ùģ
ĠØ§ÙĦØ£ÙĨ Ø¨ÙĬØ§Ø¡
ĠØ§ÙĦØŃ Ø¯
ĠØ§ÙĦØ´ÙĬ Ø¡
ĠØ§ÙĦÙģØ±Ø¯ ÙĪØ³
ĠØ§Ø¯ Ø§
ĠØ¹ Ø§ÙĬØ´
ĠÙĦÙĬ ÙĦ
ĠÙĬÙģ ØªØŃ
ĠÙĨ Ø³ÙĬ
ĠØ¶ Ø±Ø¨
Ø§ÙĬ ÙĦ
Ø£ ÙĦØ©
ĠØ£Ø¹ Ø¸Ùħ
ĠÙĨ ÙĩØ§ÙĬØ©
Ø· ÙĨ
Ø° Ùĥ
ĠØ¹ÙĨ ÙĩÙħØ§
Ġu n
ĠÙĬØ® Ø¯Ùħ
ĠÙĨ Ø§ÙĤ
Ø± Ø§Ùĩ
Ø§ Ø§
ĠÙĬ Ø°ÙĥØ±
ĠØ¬ Ø¨Øª
ĠØ§ÙĦÙħØ¹ ÙĨÙī
ĠÙĬ ÙĪØªÙĬÙĪØ¨Ø±
ĠÙĨØ³ Ø£ÙĦ
ĠÙĤ ÙĬÙĦ
ÙĤ Ø§Ùħ
p e
ĠØ¨Ø¹ Ø«
ĠØ¨ Ø§ÙĬ
ØŃ Ø·
4 4
Ø¥ ÙĨØ§
ĠØ§ÙĦÙħ Ø±Ø©
ĠØ¹ Ø±Ø¨ÙĬ
ĠØ§ÙĦÙģØ± ÙĤ
Ø§Ùĥ Øª
ĠØµØŃ Ø§Ø¨
ĠÙĪÙĬ ÙĪÙģÙĤ
Ø§Ø¨ Ø±
ĠðŁ¥ ²
2 5
ĠÙħ Ø±ÙĬÙħ
ÙĨØ§ ÙĤ
ĠØŁ !
Ø¬ Ø§Ø±
ĠØ¨ Ø¨
ĠØ® ÙĦÙģ
ĠÙĪÙĬ Ø´
ÙĦØ¨ Ø³
ðŁ¤ Ķ
ĠØµ Ø¨Ø±
ĠÙĥ ØªØ±
Ġ202 1
Ø·Ø§ ÙĤØ©
ĠÙĬ Ø¶
Ġ Y
ÙĦØª ÙĩØ§
/ /
n t
ĠØ§ÙĦØµ Ø§ÙĦØŃØ©
ĠÙħØ§Øª Øª
ĠØ¹ Ø¶
ĠðŁĮ ¹
Ùħ Ùĥ
ĠÙĥ Ø§Ùħ
ĠÙħØ¹ Ø±ÙĪÙģ
ĠØ¬ Ø¹
ĠØ® Ùħ
ĠÙħØ±ÙĬ Ø¶
Ø§Ø¬ Ùĩ
ĠØ§ÙĦØ± Ø¬
ĠÙĤ ÙĬÙħØ©
Ø¬ ÙĪØ²
ĠØ§Ø ²
v o
Ġ, ,
ĠÙħØ§Ùĩ ÙĪ
ĠØª Ø°ÙĥØ±
" ØĮ
ĠÙģ ÙĪØ±
ÙĬØ± ÙĪ
ĠØ§Ø± Ø¬
ĠÙĩØ§ÙĬ ÙĦ
m ent
Ġ on
ĠÙģ ÙĥØ±
ĠØª ÙĬÙħÙĬØ©
ÙĤØµ ÙĪØ¯
ĠØ¨Ø£ Ø³
s s
ĠÙĨØŃ ÙĪ
Ġra k
Ø±Ø§Ùĥ ÙĦÙĬØ·Ø©
Ø« Ø±Ø©
ĠðŁ «
ĠØ§ÙĦØ´ Ø±Ùĥ
ĠÙĨ ÙĤØµ
Ø· ÙĪÙĦ
ØŃ Ø³Ø¨
ĠØ³ ÙĩÙĦ
ĠØ¯ Ø§
ĠÙĬ ÙħØ§
Øª Ø§ÙĨ
â Ļ¥
ĠØ¥ÙĨ Ø³Ø§ÙĨ
ĠÙĨ Ø³ÙĬØª
Ø· ÙĬÙĨØ©
ĠØ¢ ÙĬØ©
ĠØ³ Ùĩ
ĠØ¯ Ø±Ùĥ
ØºØ± Ø§Ùħ
ĠØ¹ Ø¬Ø¨ØªÙĨÙĬ
ĠÙĨ ÙĤØ±
ĠØ£Ùĩ ÙĦÙĩ
ĠÙĬÙĤ ÙĪÙħ
ĠØ£ÙĨ Ø³
ĠØ§ÙĦØ§Ø¬ Ø§Ø¨Ø©
Ġ O
ĠØ¯ÙĬØ± ÙĪ
ĠØ§ÙĦØ§Ø® Øª
ĠØ« Ø¨Øª
Ùģ Ø±ÙĬ
ĠØ³ Ø¨ÙĤ
ĠØ¶ ÙĬÙģ
ĠØ¸ ÙĦ
u x
ØªÙĩ Ø§Ø´
ĠÙħ ØªÙī
ĠØ§ÙĦÙĨ ÙĪØ¹
ĠØ± ÙĪØ§ÙĬØ©
Ø§Ø¹ Ùĩ
Ø´ÙĥØ±Ø§ Ø§
Ø·Ùģ Ùī
ĠØ¹ ÙĬÙĨÙĬ
ĠÙĬ ÙĤØª
ĠØ§ÙĦØ³Ø¨ Ø¨
Ġï´ ¿
ĠÙĪØ§ÙĦ ÙħØ±
ĠØ° ÙĩØ¨
Ø¹Ùħ Ø§Ø±
ĠÙĨØŃ ÙĪØ³
ĠØ§ÙĦÙħÙĪ Ø§Ø¯
ĠÙĬÙĥ ØªØ¨
ĠÙĪÙģÙĤ ÙĨØ§
ĠÙħØ§Ùĩ ÙĬ
Ø¹Ø¨ Ø§Ø³ÙĬØ©
Ġre dx
ĠØ§ÙĦÙĥ ÙĦÙħØ§Øª
ĠØª ØªÙĪ
ĠØ§ÙĦ ÙĦÙĤ
ĠÙĤ Ø§Ø¯Ø©
ĠØªØ¨ Ø§ÙĨ
ĠØ¨ÙĨ Ø§Øª
ĠØ¹ Ø±Ø¶
ĠØ± Ø§Ø¨
ĠÙĪØ§ÙĦØ³ ÙĦÙĪØ§ÙĨ
ĠØ¬ Ø²
Ø¹Ø¯ Ùĥ
Ø´ÙĬ Ø¡
ĠÙĬØ³Øª Ø±
ÙĨØ¯ÙĬ Ø´
ðŁĳ Į
Ġ âĿ
Ø¨Ø¯ ÙĪ
g er
ĠÙħØ¹ Ø±ÙģØ©
ĠØª Ø¤
Øª ÙĪØ§
Ùħ Ø±ÙĬ
ĠØ§ÙĦØ¹ ÙĦÙĬ
Ġ) )
ĠÙĥØ± Ùĩ
Ùħ ÙĪØ¹
ĠØ§Ø¹ Ø±Ùģ
Ø¨Ø§ ÙĤÙĬ
ĠØ¹ ÙĬØ³Ùī
ĠÙĨÙĤÙĪÙĦ ÙĪ
ĠÙħØ¹ Ø§ÙĩØ§
ĠÙĤ ÙĦÙĬÙĦ
Ġs e
Ġ** *
ØªÙħ Ø§Ùħ
Ġb est
ĠÙĥ Ø§ÙħÙĦØ©
ĠÙĬØ¯ÙĬØ± ÙĪ
ĠØ§ÙĦØ¬Ø²Ø§Ø¦Ø±ÙĬ ÙĬÙĨ
Ù ¡
ĠØ¹ Ø¸ÙĬÙħ
ĠÙĩ ÙĪØ§
ðŁĺħ ðŁĺħ
ĠÙħÙĦ Ø®Øµ
Ùģ Ø§Ø¯
ĠÙĦ ÙħØ±
Ùĩ Ø§ØªÙĥ
ĠØ§ÙĦØ¨ Ø´Ø±
ĠØ§ÙĦÙĥ ÙĦÙħØ©
Ø´ ÙĬØ®
ÙĦ Ø§ÙĦØ§
Ø§Ø¯ ÙĬØ©
ĠÙĬØŃ Ø·
Øº Ø±Ø¨
ou l
ĠØ¢ Ø¯Ùħ
ĠÙĪØŃ ØªÙī
Ġk ha
ĠØµØŃÙĬ ØŃØ©
ĠØ¹Ø« ÙħØ§ÙĨ
Ùħ ÙĪØª
Ø³ Ø§Ø³
ĠØŃ Ø¶
ØµØŃ Ùĥ
ĠØªÙħ Ø§Ø±ÙĬÙĨ
ĠØ§ÙĦØ´ Ø¨Ø§Ø¨
ĠØª ÙĥÙĨ
ĠÙĨØ¬ ÙĬ
Ø§Ø± Øª
ĠØ¯ ÙĪÙĦØ©
Ø§ÙĪ Ø©
ĠØ¨ÙĨ Ø§Ø¡
ðŁĴ ķ
ĠÙĦ ÙĦÙĪ
ĠØ§ÙĦÙģ Ø¬Ø±
ĠØŃ ÙĦÙħÙĬ
ðŁİī ðŁİī
ĠÙĪØ±Ø³ ÙĪÙĦÙĩ
2 4
Ø³Ø¨ ÙĪÙĥ
Ġf r
s h
ĠØ§ÙĦÙĤ Ø¯Ø±
ĠÙħØ³Øª ÙĪÙī
Ø° ÙĦ
ÙĤØª ØµØ§Ø¯
ĠØ¹ÙĦÙħ Ø§Ø¡
ĠØ³ÙĬ Ø¯ÙĬ
ĠØ±ÙĬ Ø¶Ø§
Ø£Ø³ Ùģ
ĠÙĪØª ÙĨ
oura ge
ĠÙĬ ÙĩØ¯
ĠØ¬ Ùĩ
Ø¯ Ø§Ø¨
ĠÙĪØ§ÙĦ Ø·
ĠØ¬ÙĨ Ø§ØªÙĩ
ĠØ¨Ø§ÙĦ Ø³
ĠØŃ ÙĦÙħ
ĠØ§Ø³Ùħ ÙĩØ§
ĠØ¨Ø· Ø±ÙĬÙĤØ©
2 3
ÙĤØ¯ ÙĬØ±
Ġg h
ĠØ§ÙĦØŃÙĥ Ø§ÙĬØ§Øª
ĠØ¹Ø±Ùģ Øª
ÙĬØ± Ø§ÙĨ
Ùĥ Ø§
ĠØ§ÙĦÙħ Ùģ
ĠØ§ÙĦØª Ø±Ùħ
ĠØ§ÙĦÙĥ Ø¨
ĠØ´Ø®Øµ ÙĬØ©
ĠØ§ÙĦ ÙĩÙħ
Ġ ~
Ø³Øª Ø§
ĠØ³ Ø§ÙĩÙĦ
ÙĤØ± Ø¢ÙĨ
ĠÙĩØ§ÙĬ ÙĦØ©
ĠØ§ÙĦØŃ Ø§Ø¬Ø©
Ùĩ Ø°ÙĬ
ĠØ§ÙĦØ´ ÙħØ³
ĠÙĪÙĨ Ø´
ðŁĺĬ ðŁĺĬ
ĠÙħ ÙģÙĩÙħØªØ´
ĠØ¨ Ø§Ø³Ùħ
ĠØ§Ø¬ ÙĦ
ĠÙĦÙĦ Ø§Ø³
Ø¶ÙĬ Ø¹
ĠÙģÙĬ ÙĤÙĪÙĦ
ĠÙĤÙĨ Ø§ØªÙĥ
ĠÙĬÙĩ Ø¯ÙĬÙĥ
ĠØ·ÙĪÙĬ ÙĦØ©
ðŁĺ Ķ
ÙĪØ¬ ÙĪØ¯
ĠØ¨Ø¹Ø¶ ÙĩÙħ
Ø²ÙĬ ÙĦ
ĠØ§ÙĦÙĨ Ø¸Ø±
ĠØ§ÙĦØ¨ ÙĨØ§Ø¡
Ø³ÙĨ Ø·ÙĬÙĨØ©
ĠÙĨÙĤÙĪÙĦ Ùĥ
Ø§Ø´ Ø±
ĠØªØ¬ Ø±ÙĬØ¨ÙĬØ©
ĠØ£ Ø±ÙĬØ¯
ĠØ±Ø§ØŃ Øª
ĠØªØ· Ø¨ÙĬ
Øª Ø¬
ĠØ§ÙĦÙĨ Ø¬
ĠØ® ÙħØ³
ĠØ¹Ùħ Ø±Ùĥ
Ùħ ÙĥØ§ÙĨ
ĠÙĬÙĤÙĪÙĦ ÙĪ
ĠØ§ÙĦÙģÙĬØ¯ÙĬÙĪ ÙĩØ§Øª
ĠØ¹ Øµ
ÙĥÙħ Ø©
ØªØ¨ Ø¹
ĠÙĪØ§ÙĦØ³ ÙĨØ©
ĠÙĨ Ø²ÙĬØ¯
ĠÙĬ ÙģØ±Ø¬
ĠØ§ÙĦØ¹ ÙĦØ§ÙħØ©
ĠÙĪØ± Ø§Ø¡
ĠÙĨØŃ Ø³
Øª Ø§ÙĦ
Øµ Ø§ÙĦ
ĠØ± Ø¨ØŃ
Ø· Ø§ÙĦ
ï¸ı â
Ø¯ ÙĨØ§
Ùģ ÙĪØ±
ĠØ§ÙĦØ¹ ÙĨ
ĠØ§ÙĦØµ ÙĪØª
ĠÙĨØ´ Ø§Ø¡
ĠØ§ÙĦØªØ±Ùħ Ø°ÙĬ
ĠÙĬ Ø±ÙĪØŃ
Ø¯ÙĬ ÙĦ
ĠÙĪØ§ÙĦ Ø¯ÙĬ
Ø§Ø¦ Ø©
ĠØº Ø¯ÙĪØ©
Ġ it
ĠÙĪÙħ Ø´
ĠØ±Ø¨ Ùĩ
ĠÙħØ¬ Ø§ÙĦ
ĠÙħØ± Ø§Ø¬Ø¹Ø©
c k
ĠÙĪØ£ÙĨ Ùĩ
ĠØ·ÙĪÙĬ ÙĦ
ĠÙħ Ø¯Ø±
ĠÙĬØ¬ Ø¹ÙĦÙĩØ§
ĠØ§ÙĦØº Ø±Ø¨
ĠÙĬ ØµØ±
Ø¯ÙĬ ÙĪØ§
ĠØ§ÙĦØ£ Ø¯Ø¨
ĠØ§ÙĦ Ø§Øª
ĠØ³ ÙĦÙĬ
ĠÃ ł
Ø§Ùĩ Ø¯Ø©
ĠØ§ÙĦØ® Ø§Øµ
o k
u l
ĠØª Ø®ØµØµ
Ø§Ø¨ Ø§
ĠØ¬ ÙĩØ©
ÙĪ Ø¨Ø©
ĠØªØ¬ Ø¯
ĠØ§ÙĦÙĨ Ø¨ÙĪ
ĠÙĤ ÙĬ
ÙĬÙĨ Ùĩ
ĠØ§ÙĦ Ø§Øµ
Ø®Øµ ÙĪØµ
ĠØ¹ Ø²ÙĬØ²
Ø¯ Ø§Ø¹
ĠØ¨ Ø¯Ø§
Ø· ÙĦØ¨
ĠØ§ÙĦÙĨ Ø§Ø¬
ĠØ£ Ø«Ø±
ĠØ´ Ø±Ùģ
ĠØ´ ÙĬÙĥÙĪØ±
ĠØºØ§ÙĦ Ø·
ĠØ±ÙĪ ØŃÙĪ
ĠÙħ Ø¯Ø±Ø³Ø©
ĠØ§ÙĦØ¬ ÙħÙĬÙĦ
Ġma is
ĠØ¹ ÙĤØ¯
ĠÙĬÙĨ Ø¨ØºÙĬ
ĠØ£Ø¹ Ø·
ĠÙħØ¨ Ø§Ø´Ø±Ø©
ĠÙħÙĨØª Ø¯Ùī
ĠÙħØ¬ÙĩÙĪØ¯ Ø§ØªÙĥ
Ø§Ø¨ Ø§Øª
Ø§Ø¦ ÙĩÙħ
ÙĬ ØªÙĬ
ĠØ§ÙĦÙħ Ø¹Ø¯ÙĦ
ĠØ±Ø³ Ø§ÙĦØ©
v er
ĠØª ÙĤØ±Ø§
Ø« ÙĬ
ĠØ· ÙģÙĦ
ĠðŁĺĤ âĿ¤
ĠØªÙĨ Ø¬ØŃ
ĠÙĨ ÙĤØ·Ø©
ĠØ§ÙĦØ´ ÙĩØ±
ÙĪÙħ ÙĨØª
ĠÙħ Ø¯ÙĬØ±
ÙĪÙĨ ÙĩØ§
ĠÙĦØ§ÙĬ Ùģ
ÙĪ Ø§ÙĨÙĬ
ÙĦØª ÙĨÙĬ
ĠÙĬ ÙħÙĨ
Ø¢ ÙħÙĬÙĨ
ĠÙĨØ¹ ÙħØ©
ĠÙħÙĨ ÙĬØ´
ĠØº ÙĦØ·
ĠØ§ÙĦÙĪ ØŃÙĬØ¯
ĠØ§ÙĦ Ø¯ÙĬ
Ø§Ø± Ø¶
ĠØ§ÙĦØ· Ø¨ÙĬ
ĠØ§ÙĦØ±ÙĬ Ø§Ø¶ÙĬØ§Øª
ĠØ£ Ø¹Ø¯
ĠÙĪÙĨ ØŃÙĨ
ĠØ§ÙĦØµØŃ ÙĬØŃØ©
ĠØª Ø²ÙĪØ¬
ĠØ£ Ø±Ø¬ÙĪ
Ø· Ø¹
ĠØ§Ø³ ÙħÙĬ
ĠØ³ ÙħØ§
ĠØ¬ Ø¨
ĠØ° ÙĬ
ĠÙĦØ§ÙĨ Ùĩ
ĠðŁĳ ı
ĠØ§ÙĦØ« ÙĤ
o i
ØªØŃ ÙĬØ§
ĠØŃ Ø¬Ø±
ĠØ¹ÙĦÙħ Ø§
ĠÙĬØµ Ø¨Ø±
ĠÙĪÙĬØ± Ø²ÙĤ
Ø¨ ÙĪØ¹
ĠÙĪØ§ÙĦ Ø¯ÙĬØ§
Ġ U
ĠØ¹ÙĦÙħ ÙĬØ©
ĠÙĪ Ø§Øº
ĠÙħÙĨ Ø¹Ø±Ùģ
ĠÙĪÙĦ Ø§Øª
ÙĥØª ÙĪØ±
Ùĥ Ø°Ø§
ĠØ§ÙĦÙģ ÙĥØ±Ø©
f t
ĠØ¯ ÙĤ
ĠÙĨØ´ Ø±
ĠØ±Ø¨ ÙĨØ§
ÙĨØ§ ÙĩØ§
ĠØµ ØŃØ¨
ĠØµØ± Ø§Øª
ĠØ§ÙĦÙĤ ÙĦÙĪØ¨
ĠØ§ÙĦÙĨ ÙĪØ±
ĠÙĦØ£ÙĨ ÙĩØ§
Ø¶ÙĪ Ø¡
ĠØµØ§ØŃ Ø¨ÙĬ
ĠØŃ Ø§ÙĪÙĦ
ĠÙĪØ§ÙĦ Ø°ÙĬ
ØªÙĬ Ø´
ĠØ§ÙĦØ¥ Ø¬Ø§Ø¨Ø©
ĠØ§ÙĦÙĪØ§ÙĦ Ø¯ÙĬÙĨ
Ø¹ÙĨØ¯ Ùĥ
Ø± Ø§Ùħ
ĠÙħØµ Ø·ÙĦØŃØ§Øª
Ø¨Ø± Ùī
ÙĪ Ø®
Ø¸ ÙĦÙħ
ĠØ§ÙĦÙĨ Øª
ĠØ¹ ÙĬØ´
ĠØª Ø±ÙĬØ¯
ĠØ° Ø§
ĠØ±Ø£ ÙĬÙĥ
ĠØ§ÙĦØ¹ Ø§ØµÙħØ©
ĠÙģØ¶ ÙĦ
2 6
ĠØ³ Ø¬
ĠØ§ÙĦØ´ Ø¹
ĠØ§ÙĦØ«Ø§ÙĦØ« Ø©
ĠØ¬ Ø¯ÙĬ
ĠÙĪÙħ Øª
s ta
ĠØ¬ ÙħØ§ÙĦ
ĠØªØ³ ÙħØ¹
ĠØ¨Ø§ÙĦÙĨ Ø¬Ø§ØŃ
======== ========
ĠÙħØ´ Ø±ÙĪØ¹
Ø±ÙĬ Ø¨Ø©
ĠÙĬØ± Ùī
ĠÙĬØŃ ÙĥÙĬ
ĠÙĪØ¬ Ø¯Øª
Ù ¢
ÙĪ Ø·
3 5
ĠØª Ø§ÙĨ
ĠØª ØŃÙħ
2 7
ĠØ§ÙĦØ¨ Ø¹Ø¶
Ø¹ÙĪ Ø¶
Ùħ ÙĨÙĬ
ĠÙĥ ÙĦÙħØ§Øª
ĠØ§ÙĦÙĪ Ø§Ø³
ĠØ§ÙĦØ« ÙĦØ§Ø«
ĠÙĩØ¯ Ø§Ùĥ
ĠØ§ÙĦØªØŃØ± ÙĬØ±
' '
2 8
Øª ÙĦÙĥ
ĠØª ØºÙĬØ±
ĠÙĪØŃ Ø¯Ùĥ
ĠÙĦÙĦÙĨ Ø§Ø³
ØªØ± Ø§Ùĥ
ĠØ§ÙĪ ÙĦØ§
ĠØ£ Ø¨Ø§
ĠÙĥ ÙĦÙħØ§
A na
ĠØ§ÙĦÙĪ Ø§ØŃØ¯
ĠÙĬØ¯ Ø¹ÙĬÙĦÙĬ
ĠÙħ ØªÙħ
ĠØ¹ ÙĪØ¯
Ø±ÙĬ Ø¹
ĠÙĪ ÙĤÙĬÙĦ
ĠØ¹ Ø¶ÙĪ
ĠÙĨ ÙĥÙħÙĦ
ĠÙĤ Ø¶ÙĬØ©
Ġc ourage
ĠÙħØ§Ùģ ÙĩÙħ
Ø§Ø¯ ÙĤ
ĠÙģ Ø±Ø¶
Ø±ÙĬ Ø¶
ĠÙĬØ¯ Ø¹ÙĪ
ÙĦÙħÙĬ Ø°
Ø±ÙĪ Ø·
Ùĥ ÙĬÙĨØ©
ĠØ« Ø§ÙĨÙĬØ©
ĠÙĤØ§ÙĦ ÙĪ
Ø¶ÙĬ Ùģ
Øµ Ø±Ùģ
ĠÙĪØ¬ Ø¹ÙĦ
ĠÙĪØµ ÙĦØª
ĠÙħØ® ÙĦÙĪ
ĠØ£Ø®Ø±Ø¬ Ùĩ
o d
ĠØ¨Ø§ÙĦ ÙħØ¹
ÙĥÙĨ ÙĩØ§
ĠØ®Øµ ÙĪØµ
ÙĪØ± ÙĪ
ĠÙĪØ§ÙĦ Ø§Ø³Øª
Ø§Ø¦ ÙĩØ§
Ø§Ø± Ùĩ
ĠØ§ÙĦØ£ Ø¹ÙħØ§ÙĦ
ÙħÙĬ Ø²Ø©
ĠÙĬØŃ Ø¯Ø«
ØŃ Ùī
ĠØ´ Ø¨Ùĩ
ĠØ¨ÙĬ Ø§ÙĨ
ÙĪ Ø§ØŃ
ĠØ¬ ÙĬØ¯Ø§
ĠÙĪÙĩ Ø±Ø§ÙĨ
ĠØ¯Ø¹ÙĪ Ø§ØªÙĥÙħ
ĠØ¨ ÙĤÙĬ
ĠØ¶Ø¹ÙĬ Ùģ
Ġ202 2
ĠÙĪÙĬ ØŃ
ĠÙĪÙĬ Ø³Øª
ĠÙĦÙĦ Ø¹ÙĦÙħ
Ø³ ÙĬØ©
ĠØ§ÙĦØ¹ Ø§Ø¯Ø©
ĠâĿ¤ ðŁİī
ĠØ£Ø³ØªØ§Ø° Ø©
ĠØ§ÙĦÙħ Ø¯Ø±Ø³Ø©
ĠÙĦØ§Ø¨ ÙĨ
Ø³ÙĬ ÙĬØ±
ĠØ² ÙħÙĨ
ĠÙĪÙĬÙĨ Ø¬ØŃ
ĠÙĪÙĦÙħ Ø§
f f
ĠØ£ ÙĤÙĪÙĦ
ÙĦÙĬ Ø¯
Øµ ÙĦÙĬ
ÙĪØ± ÙĬØ©
ĠÙĪØŃ Ø¯ÙĪ
ĠÙĬØ® ÙĪÙģ
ĠÙĪØ§ÙĦ ØªÙĬ
Ø³ÙĦÙħ ÙĬÙĨ
u m
ĠÙģØ± ÙĤ
ĠØ±ÙĬØ¯ ÙĥØ³
ĠØªØŃ ÙĬØ§
B ac
ĠØ§ÙĦØ¯ Ø¹ÙĪØ©
ĠÙĨØªØ§Ø¹ Ùĥ
ch e
ĠØ§ÙĦØ±ØŃÙħ Ø§ÙĨ
u i
ĠÙħÙĬ ÙĦÙĪØ¯
Ø§Ø²ÙĬ Øº
ĠÙĬØŃ ÙĬ
ĠÙĥÙģ Ø§Ùĩ
ĠØ¨Ø£ÙĨ Ùĩ
ĠØ§ÙĦØ¨ Ø·
ĠØ§ÙĦØ± ÙĪÙħ
ĠØ¥ Ø´
Ġ2 5
ĠØªÙĤ ÙĪÙħ
ÙĦ Ø§Ø²Ùħ
ĠØ§Ø³Ùħ Ùĩ
ĠØ®Ø· Ø£
ĠØ¹ Ø§ÙĦ
ÙħÙĨ Øª
ĠÙĨ ÙĤØ±Ø§ÙĪ
Ø§Ùĩ ÙĦØ©
ĠØ² ÙĬÙĨ
Ġs o
ĠÙħØ¹ÙĦÙĪÙħ Ø§Øª
ĠÙĦ ÙĦÙĬ
ðŁ İ
ĠÙĨ ØŃÙĬ
ĠØŃ Ø±Ùģ
ĠØ¯ Ø¹Ùħ
ĠØ§ÙĦÙģ ØµÙĦ
ĠØ¨ ÙģØ¶
ĠÙģ ÙĥÙĬÙģ
li k
ĠØ¨ÙĬÙĨ ÙĩÙħ
ĠØ§ÙĦ ÙĥÙĪÙĨ
ĠØ§Ø¨ ÙĬ
ĠØ¢ÙħÙĨ ÙĪØ§
ĠØ§ÙĦÙħ ÙĬ
ĠØ§ÙĦØ¬ Ø²Ø§Ø¡
ĠØ£ ØµÙĦ
ĠØ§ÙĦÙħ ÙĥØ§ÙĨ
ÙĦØ¨ ÙĬØ©
an d
Ø¨ Øº
ØµÙĦ Ø§ØŃ
ĠØ§ÙĦØ¥Ø³ÙĦØ§Ùħ ÙĬ
ĠØ§ÙĦØ£ ÙĬØ§Ùħ
ĠÙ ±
ÙĨ ÙģØ³
Ġ est
ĠðŁĳ Į
ĠØ¯ÙĬØ±ÙĬ ÙĦÙĨØ§
ĠØ§ÙħØ± Ø£Ø©
ĠØŃÙĤÙĬ ÙĤÙĬØ©
Øª Ø¨Ø©
ÙĦÙĬ ÙĨØ§
Ø® Ø¨Ø±
Ø±ÙĪ ØŃÙĪ
ĠØµ ÙģØ©
ĠØ§ÙĨ Ø¸Ø±
in u
ÙħÙĪ Ø§Øª
Ø¦ ÙħØ©
Ø· Ø±ÙĬÙĤØ©
ĠØ§ÙĦØ§Ø® ÙĬØ±
ĠÙĪØ§ÙĦ Øº
a bi
Ø± Ø¹
Ø§Ø¦ Ø¹Ø©
Ø¯ÙĪ Ø´
Ġ202 0
ĠØ®ÙĦÙĤ Ùĩ
ĠØ§ÙĦÙħ ØªØ§Ø¨
ĠØ§ÙĦØ£ØŃ Ø§Ø¯ÙĬØ«
ĠÙĦ Ø³Øª
ĠØ§ÙĦØ¹ ØµØ±
ĠØº Ø§ÙĬØ©
ĠØ§ÙĦØ® ÙĬ
ĠØ§ÙĦØª Ùĥ
ĠØªÙĥÙĪÙĨ ÙĬ
ĠÙħØ¨ Ø¹Ø¯
Ø· Ø§Ø¹
Ø§Øª Ùħ
ĠÙĪØŃ Ø³ÙĨ
ĠØ·ÙĦ Ø¹
ĠØ¥ÙĨ Ø´Ø§Ø¡
Ø· ÙĦÙĤ
ĠØ® Ø¯ÙħØ©
ĠðŁĺ Ķ
ĠØ§ÙĦØ¯ Ùħ
ÙĪØ¨ Ø§
Ø·Ùģ Ø§ÙĦ
ĠÙĪ Ø§Ùĥ
ĠØª ÙĤÙĪ
ĠØµØŃ Ø§
ĠØ§ÙĦÙĪØ· ÙĨ
ĠØ§ÙĦØ± ÙĪØŃ
Ø§Ø¶ ÙĬØ©
ĠØ§ÙĦØ´Ø± Ø¹ÙĬØ©
u n
Ġ Û
Ø¦ Ø§Øª
ĠÙĪÙĦÙĩ Ø°Ø§
Ø§Øª Ø´
ĠØ¬ ÙĬØ¯
ĠÙĤØ§ÙĦ Ùĥ
Ġn a
ĠØª Ø«
Ġ2 4
ØµØ± Ø§ØŃØ©
ĠÙĦ Ø§Ùħ
ĠØ¹ ØµØ±
Ø² ÙĦØ©
ĠØ¯ ÙĦ
ĠÙĪÙģÙĤ ÙĨÙĬ
ĠØ´ ÙĪÙģÙĬ
ĠØ±ÙĬ Ø§Ø¶ÙĬØ§Øª
ĠØ§ÙĦÙĪØ· ÙĨÙĬØ©
e b
ĠØ±ÙĪ Ùī
ĠØ§ÙĦØ§Ø± Ø¶
ĠØµ Ø¯ÙĬ
ĠÙħÙĪØ¬ ÙĪØ¯
ĠØ£ ÙĦ
Ø® ÙĪÙĦ
ĠØªÙĤØ±ÙĬ Ø¨Ø§
ÙĨ Øµ
ĠØ±Ø§ÙĬ ØŃØ©
ĠÙħÙĨ Ø·ÙĤØ©
ĠØ£ÙĨ ÙĨÙĬ
ĠØ§ÙĦÙĩ Ø§ØªÙģ
ØŃ ÙĦÙĬ
Ø¶ Ùħ
ĠØ§ÙĦ ÙĩÙĪ
ĠØ®Ø§ÙĬ ÙģØ©
Ø· Ø±Ø©
ĠØ° ÙĪ
ĠðŁ ĸ¤
ĠØ§ÙĦØ± ÙĪ
ĠÙĤØ¨Ø± Ùĩ
ðŁ ©
ĠÙĥ Ø§
ĠØ£Ùħ ÙĪØ±
ĠØ±Ø§Ùĥ ÙĦÙĬØ·Ø§
ĠØ§ÙĦØ± Ø§ØŃ
ÙĤ Ø±Ø¨
ØªÙĬ ÙĩØ§
Ø¹ÙĬ ÙĪÙĦÙĬ
ĠÙħØ« Ø§ÙĦ
ĠØ£ Ø²
ÙĦØ§ ÙĤØ©
ĠØ§ÙĦØª Ø±Ø¨ÙĬØ©
ĠØ±Ø£ ÙĬØª
ĠØ± Ø§Ø¨Ø·
ĠØº Ø§ÙĦØ¨
ÙĥÙĬÙģ Ø§Ø´
ĠØ¹ ÙĩØ¯
ĠØ¹ Ø¯ÙĦ
ÙĨØª Ùĩ
Ø± ÙģÙĬ
ĠØ¹ ÙħØ§
ĠØ§Ø³ ÙĥÙĪ
ĠØ§ÙĦØµ ÙĪØ±
ĠÙĨØª Ø¹
ĠØ¥ÙĨ Ùĥ
Ġm an
ĠÙĬ Ø±Ø¬Ø¹
ĠÙĦ Ø¯Ø±
ĠØ¹ Ø§ÙħØ©
ĠØªÙĤØ¯ Ø±ÙĬ
ĠÙħØ¹ ÙĩÙħ
Ø¨ÙĤ Ø§
ĠØŃÙĦ ÙĤØ©
it e
ĠØ¯ ÙĨÙĬØ§
ÙĪØ§ ÙĤÙģ
ĠÙĬØ¨ Ø§ÙĨ
ĠÙĥÙĬÙģ Ùĥ
ĠØ§ÙĦØ¨Ø± ÙĨØ§ÙħØ¬
ĠÙĥ Ø°Ø§
ĠÙĤÙĦÙĬ ÙĦØ§
ĠÙģÙĬ ÙĦÙħ
Ġv ous
ĠÙĬØ±ØŃÙħ Ùĩ
Ġt r
ĠØªÙĪ ÙģÙĬ
Ġha da
Ġe x
ÙĬ ÙĪ
ĠØ§ÙĦØ¹ ÙħØ±
ÙĪÙĬ ÙĦÙĬØ©
ĠØ±Ø§ÙĬ Ùĥ
ĠØ¬ Ø§ÙĦ
ĠÙĬØ´ÙģÙĬ Ùĥ
ĠÙħ ÙĦÙģ
ĠØ§ÙĦØ± ÙĤÙħ
ĠÙĬÙĨ ÙģØ¹
ĠØŃÙĬ ÙĤÙĪÙĨ
k ha
ĠÙĦÙĦ ÙĤ
ĠØ¨ÙħØ¹ ÙĨÙī
Øµ Ø¯ÙĤ
Ø¹ Ø¬Ø¨ØªÙĨÙĬ
Ø³ Ø§Ø¡
Ġb z
id a
ÙĨØ´ Ø§ÙĦÙĦÙĩ
t u
ĠØ¨Ø§ÙĦ Ø¶ØŃÙĥ
ĠÙĪÙĦ ÙĨ
ĠØªØ¬ Ø¹ÙĦ
ĠØ³ÙĪ Ùī
Øº Ø§ÙĦ
Ø§Ùģ Ø§Øª
Ø§ÙĤ Ø¨
ĠØ¬ÙĨ Ø§ÙĨÙĩ
ĠÙĬ Ø¹ÙĪØ¯
Ø§ÙĤ Ø¨Ø©
Ø® ÙĪØªÙĬ
ĠØ§ÙĦÙħ Ø²ÙĬØ¯
Ø¨ÙĦ Ø§Ø¯
Ġu ne
ĠØ¨ Ø¯Ø±
Ø§Ø¶ Ø¹
ØªØŃ ÙĬØ©
Ùħ Ø¨Ø±
ĠØ´ Ø§
0000 0000
Ø§Ø¦ ÙĬÙĦ
ĠÙħØ³ Ø¤
ĠÙĤ Ø¹
ĠÙĦ Ø³Ø§ÙĨ
ĠÙħØ´ ØªØ±Ùĥ
ĠÙĬØª ÙģØ±Ø¬
ĠÙĪÙĤ Ø¹
ĠØ§ÙĦØ¹ Ø§Ø¦ÙĦØ©
ĠØªØŃ Ø±Ùħ
ĠÙħØ³ ÙĥÙĬÙĨ
an s
i ya
ĠÙħ ÙĤØ±
ØµØŃ Ø©
ĠÙĬÙģ Ø¹ÙĦ
d r
ĠÙģ Ø¨
ÙģØ± Ø©
ĠÙĬØ±ØŃÙħ ÙĩÙħ
ĠØ°ÙĥØ± Ùĩ
202 5
ĠØªØ® Ø¯Ùħ
ĠØ§ÙĦØ¨ ØŃØ«
ØŃÙĤ ÙĤ
ÙĨØ´ Ø§ÙĦÙĩ
ĠØŃÙģØ¸ Ùĥ
ĠÙĬ Ø§Ø±
ĠØªØ¹ ÙħÙĦ
ĠÙĦ ØªØŃ
Ø³ Ø³
ÙħÙĬ ÙĬÙĨ
ĠØ±Ø¬ Ø¹Øª
ĠÙħÙĨ ÙĬÙĨ
o p
ĠÙĪÙĬ Ø¬Ø¹ÙĦ
Ø§ÙĦÙĬ ÙĪÙħ
ĠØ±Ø£ Ø³
ĠØ§ÙĦØª Ø±Ùĥ
ĠØ§ÙĦØµ Øº
ĠÙĪØºÙĬØ± ÙĩØ§
Ø§ÙĦÙħ ÙĬÙĨ
ĠØ¹ÙĦØ§Ø¨ Ø§ÙĦÙĬ
ĠØµØ§ÙĨ Ø¹
ĠØ¨ Ø±ÙĬ
ĠÙĦ ÙħØ¹
ĠØ§ÙĦØ¯ ÙĪÙĦ
ĠØ« ÙĤ
ĠØ§ÙĦ ÙĪÙĦ
ĠÙĬØ± Ø¯
âĺ º
Ùģ ÙĬØ±
ĠØª Ø¨ÙĤÙī
ĠØ¯ ÙģØ¹
d f
ĠÙĬ Ø®Øµ
ĠØ¹ÙĨ ÙĬ
ÙģØ± Ø¯
ĠØ®Ø§ÙĦ ØªÙĬ
t er
ðŁĺ ±
ĠÙĪ Ø°ÙĥØ±
ĠØŃØ¨ Ø³
ÙĪØ¯ Ùĥ
ĠØªÙĥ ØªØ¨
Ùħ Ø«
Ø¨ Ø§Ø³
ĠÙģ ÙĦÙĬÙĦ
ĠØ¬ Ø§ÙĪ
ĠØ§Ø¯ Ø¹ÙĪ
ØªÙĬ Ø¨
ĠØ¨Ø³ Ùĥ
Ø¨ÙĬ Ø¶
ØªÙĬ Ùĥ
ĠØ§ÙĦØ£ Ø®Ø±Ùī
ĠÙĥÙħ ÙĦØª
2 9
Ø§Ùĥ ÙĬ
ĠÙĦÙĦ Ø³
Ø±ØŃ ÙĬØ¨
ĠØ¨Ø¯ ÙĦ
Øª ÙģÙĬ
ĠØ§ÙĦØ² ÙħØ§ÙĨ
Ùħ Ø§Ø¹
ĠØ§ÙĦ Ø±Ùĥ
ĠÙĥÙĬ ÙģÙĬ
Ø° ÙĬØ¨
ĠØ§ÙĦØŃÙĤÙĬ ÙĤÙĬ
Ø§ÙĦ Ø¯
ĠÙĥ ÙĪØ±
ou n
is to
a la
ĠØ¨Ø±ØŃÙħ ØªÙĥ
ĠÙĬ ØµÙĦ
ĠÙĨ Ø§
ĠØ¢ ÙĬØ§Øª
Ø³ÙĬ ÙĦØ©
ĠÙĬØŃ ØªØ§Ø¬
Ùĥ Ø¯
ĠØ§ÙĦÙħÙĦ Ø§Ø¦ÙĥØ©
ĠØŃ Ø³ÙĬØª
Ø· Øª
Ø¹ Ø§Øª
ÙĨØ³ Ø§Ø¡
ÙĦÙĪ Ø´
ĠÙĪØ£ Ø¹
ĠØ§Ø¹ Øª
ĠØŃ Ø±Ø¨
ĠØªÙĪØŃØ´ ÙĨØ§Ùĥ
ÙĬØ¯ ÙĬÙĨ
ĠØ¶ Ø±
ØªÙĦ ÙģØ©
ĠðŁ¤ Ķ
ĠÙĦÙĨ ÙģØ³
ØªÙĬ Ùħ
ĠÙĨ Ø±Ø¨ØŃ
ĠØ§ÙĦØ³ ÙĦØ³ÙĦØ©
