{
  "version": "1.0",
  "truncation": null,
  "padding": null,
  "added_tokens": [
    {
      "id": 0,
      "content": "<pad>",
      "single_word": false,
      "lstrip": false,
      "rstrip": false,
      "normalized": false,
      "special": true
    },
    {
      "id": 2,
      "content": "<s>",
      "single_word": false,
      "lstrip": false,
      "rstrip": false,
      "normalized": false,
      "special": true
    },
    {
      "id": 3,
      "content": "</s>",
      "single_word": false,
      "lstrip": false,
      "rstrip": false,
      "normalized": false,
      "special": true
    }
  ],
  "normalizer": {
    "type": "Sequence",
    "normalizers": [
      {
        "type": "Strip",
        "strip_left": false,
        "strip_right": true
      },
      {
        "type": "Replace",
        "pattern": {
          "Regex": " {2,}"
        },
        "content": "▁"
      }
    ]
  },
  "pre_tokenizer": {
    "type": "Metaspace",
    "replacement": "▁",
    "prepend_scheme": "always",
    "split": true
  },
  "post_processor": null,
  "decoder": {
    "type": "Sequence",
    "decoders": [
      {
        "type": "Metaspace",
        "replacement": "▁",
        "prepend_scheme": "always",
        "split": true
      },
      {
        "type": "ByteFallback"
      },
      {
        "type": "Fuse"
      }
    ]
  },
  "model": {
    "type": "Unigram",
    "unk_id": 1,
    "vocab": [
      [
        "<pad>",
        0.0
      ],
      [
        "<unk>",
        0.0
      ],
      [
        "<s>",
        0.0
      ],
      [
        "</s>",
        0.0
      ],
      [
        "<0x00>",
        0.0
      ],
      [
        "<0x01>",
        0.0
      ],
      [
        "<0x02>",
        0.0
      ],
      [
        "<0x03>",
        0.0
      ],
      [
        "<0x04>",
        0.0
      ],
      [
        "<0x05>",
        0.0
      ],
      [
        "<0x06>",
        0.0
      ],
      [
        "<0x07>",
        0.0
      ],
      [
        "<0x08>",
        0.0
      ],
      [
        "<0x09>",
        0.0
      ],
      [
        "<0x0A>",
        0.0
      ],
      [
        "<0x0B>",
        0.0
      ],
      [
        "<0x0C>",
        0.0
      ],
      [
        "<0x0D>",
        0.0
      ],
      [
        "<0x0E>",
        0.0
      ],
      [
        "<0x0F>",
        0.0
      ],
      [
        "<0x10>",
        0.0
      ],
      [
        "<0x11>",
        0.0
      ],
      [
        "<0x12>",
        0.0
      ],
      [
        "<0x13>",
        0.0
      ],
      [
        "<0x14>",
        0.0
      ],
      [
        "<0x15>",
        0.0
      ],
      [
        "<0x16>",
        0.0
      ],
      [
        "<0x17>",
        0.0
      ],
      [
        "<0x18>",
        0.0
      ],
      [
        "<0x19>",
        0.0
      ],
      [
        "<0x1A>",
        0.0
      ],
      [
        "<0x1B>",
        0.0
      ],
      [
        "<0x1C>",
        0.0
      ],
      [
        "<0x1D>",
        0.0
      ],
      [
        "<0x1E>",
        0.0
      ],
      [
        "<0x1F>",
        0.0
      ],
      [
        "<0x20>",
        0.0
      ],
      [
        "<0x21>",
        0.0
      ],
      [
        "<0x22>",
        0.0
      ],
      [
        "<0x23>",
        0.0
      ],
      [
        "<0x24>",
        0.0
      ],
      [
        "<0x25>",
        0.0
      ],
      [
        "<0x26>",
        0.0
      ],
      [
        "<0x27>",
        0.0
      ],
      [
        "<0x28>",
        0.0
      ],
      [
        "<0x29>",
        0.0
      ],
      [
        "<0x2A>",
        0.0
      ],
      [
        "<0x2B>",
        0.0
      ],
      [
        "<0x2C>",
        0.0
      ],
      [
        "<0x2D>",
        0.0
      ],
      [
        "<0x2E>",
        0.0
      ],
      [
        "<0x2F>",
        0.0
      ],
      [
        "<0x30>",
        0.0
      ],
      [
        "<0x31>",
        0.0
      ],
      [
        "<0x32>",
        0.0
      ],
      [
        "<0x33>",
        0.0
      ],
      [
        "<0x34>",
        0.0
      ],
      [
        "<0x35>",
        0.0
      ],
      [
        "<0x36>",
        0.0
      ],
      [
        "<0x37>",
        0.0
      ],
      [
        "<0x38>",
        0.0
      ],
      [
        "<0x39>",
        0.0
      ],
      [
        "<0x3A>",
        0.0
      ],
      [
        "<0x3B>",
        0.0
      ],
      [
        "<0x3C>",
        0.0
      ],
      [
        "<0x3D>",
        0.0
      ],
      [
        "<0x3E>",
        0.0
      ],
      [
        "<0x3F>",
        0.0
      ],
      [
        "<0x40>",
        0.0
      ],
      [
        "<0x41>",
        0.0
      ],
      [
        "<0x42>",
        0.0
      ],
      [
        "<0x43>",
        0.0
      ],
      [
        "<0x44>",
        0.0
      ],
      [
        "<0x45>",
        0.0
      ],
      [
        "<0x46>",
        0.0
      ],
      [
        "<0x47>",
        0.0
      ],
      [
        "<0x48>",
        0.0
      ],
      [
        "<0x49>",
        0.0
      ],
      [
        "<0x4A>",
        0.0
      ],
      [
        "<0x4B>",
        0.0
      ],
      [
        "<0x4C>",
        0.0
      ],
      [
        "<0x4D>",
        0.0
      ],
      [
        "<0x4E>",
        0.0
      ],
      [
        "<0x4F>",
        0.0
      ],
      [
        "<0x50>",
        0.0
      ],
      [
        "<0x51>",
        0.0
      ],
      [
        "<0x52>",
        0.0
      ],
      [
        "<0x53>",
        0.0
      ],
      [
        "<0x54>",
        0.0
      ],
      [
        "<0x55>",
        0.0
      ],
      [
        "<0x56>",
        0.0
      ],
      [
        "<0x57>",
        0.0
      ],
      [
        "<0x58>",
        0.0
      ],
      [
        "<0x59>",
        0.0
      ],
      [
        "<0x5A>",
        0.0
      ],
      [
        "<0x5B>",
        0.0
      ],
      [
        "<0x5C>",
        0.0
      ],
      [
        "<0x5D>",
        0.0
      ],
      [
        "<0x5E>",
        0.0
      ],
      [
        "<0x5F>",
        0.0
      ],
      [
        "<0x60>",
        0.0
      ],
      [
        "<0x61>",
        0.0
      ],
      [
        "<0x62>",
        0.0
      ],
      [
        "<0x63>",
        0.0
      ],
      [
        "<0x64>",
        0.0
      ],
      [
        "<0x65>",
        0.0
      ],
      [
        "<0x66>",
        0.0
      ],
      [
        "<0x67>",
        0.0
      ],
      [
        "<0x68>",
        0.0
      ],
      [
        "<0x69>",
        0.0
      ],
      [
        "<0x6A>",
        0.0
      ],
      [
        "<0x6B>",
        0.0
      ],
      [
        "<0x6C>",
        0.0
      ],
      [
        "<0x6D>",
        0.0
      ],
      [
        "<0x6E>",
        0.0
      ],
      [
        "<0x6F>",
        0.0
      ],
      [
        "<0x70>",
        0.0
      ],
      [
        "<0x71>",
        0.0
      ],
      [
        "<0x72>",
        0.0
      ],
      [
        "<0x73>",
        0.0
      ],
      [
        "<0x74>",
        0.0
      ],
      [
        "<0x75>",
        0.0
      ],
      [
        "<0x76>",
        0.0
      ],
      [
        "<0x77>",
        0.0
      ],
      [
        "<0x78>",
        0.0
      ],
      [
        "<0x79>",
        0.0
      ],
      [
        "<0x7A>",
        0.0
      ],
      [
        "<0x7B>",
        0.0
      ],
      [
        "<0x7C>",
        0.0
      ],
      [
        "<0x7D>",
        0.0
      ],
      [
        "<0x7E>",
        0.0
      ],
      [
        "<0x7F>",
        0.0
      ],
      [
        "<0x80>",
        0.0
      ],
      [
        "<0x81>",
        0.0
      ],
      [
        "<0x82>",
        0.0
      ],
      [
        "<0x83>",
        0.0
      ],
      [
        "<0x84>",
        0.0
      ],
      [
        "<0x85>",
        0.0
      ],
      [
        "<0x86>",
        0.0
      ],
      [
        "<0x87>",
        0.0
      ],
      [
        "<0x88>",
        0.0
      ],
      [
        "<0x89>",
        0.0
      ],
      [
        "<0x8A>",
        0.0
      ],
      [
        "<0x8B>",
        0.0
      ],
      [
        "<0x8C>",
        0.0
      ],
      [
        "<0x8D>",
        0.0
      ],
      [
        "<0x8E>",
        0.0
      ],
      [
        "<0x8F>",
        0.0
      ],
      [
        "<0x90>",
        0.0
      ],
      [
        "<0x91>",
        0.0
      ],
      [
        "<0x92>",
        0.0
      ],
      [
        "<0x93>",
        0.0
      ],
      [
        "<0x94>",
        0.0
      ],
      [
        "<0x95>",
        0.0
      ],
      [
        "<0x96>",
        0.0
      ],
      [
        "<0x97>",
        0.0
      ],
      [
        "<0x98>",
        0.0
      ],
      [
        "<0x99>",
        0.0
      ],
      [
        "<0x9A>",
        0.0
      ],
      [
        "<0x9B>",
        0.0
      ],
      [
        "<0x9C>",
        0.0
      ],
      [
        "<0x9D>",
        0.0
      ],
      [
        "<0x9E>",
        0.0
      ],
      [
        "<0x9F>",
        0.0
      ],
      [
        "<0xA0>",
        0.0
      ],
      [
        "<0xA1>",
        0.0
      ],
      [
        "<0xA2>",
        0.0
      ],
      [
        "<0xA3>",
        0.0
      ],
      [
        "<0xA4>",
        0.0
      ],
      [
        "<0xA5>",
        0.0
      ],
      [
        "<0xA6>",
        0.0
      ],
      [
        "<0xA7>",
        0.0
      ],
      [
        "<0xA8>",
        0.0
      ],
      [
        "<0xA9>",
        0.0
      ],
      [
        "<0xAA>",
        0.0
      ],
      [
        "<0xAB>",
        0.0
      ],
      [
        "<0xAC>",
        0.0
      ],
      [
        "<0xAD>",
        0.0
      ],
      [
        "<0xAE>",
        0.0
      ],
      [
        "<0xAF>",
        0.0
      ],
      [
        "<0xB0>",
        0.0
      ],
      [
        "<0xB1>",
        0.0
      ],
      [
        "<0xB2>",
        0.0
      ],
      [
        "<0xB3>",
        0.0
      ],
      [
        "<0xB4>",
        0.0
      ],
      [
        "<0xB5>",
        0.0
      ],
      [
        "<0xB6>",
        0.0
      ],
      [
        "<0xB7>",
        0.0
      ],
      [
        "<0xB8>",
        0.0
      ],
      [
        "<0xB9>",
        0.0
      ],
      [
        "<0xBA>",
        0.0
      ],
      [
        "<0xBB>",
        0.0
      ],
      [
        "<0xBC>",
        0.0
      ],
      [
        "<0xBD>",
        0.0
      ],
      [
        "<0xBE>",
        0.0
      ],
      [
        "<0xBF>",
        0.0
      ],
      [
        "<0xC0>",
        0.0
      ],
      [
        "<0xC1>",
        0.0
      ],
      [
        "<0xC2>",
        0.0
      ],
      [
        "<0xC3>",
        0.0
      ],
      [
        "<0xC4>",
        0.0
      ],
      [
        "<0xC5>",
        0.0
      ],
      [
        "<0xC6>",
        0.0
      ],
      [
        "<0xC7>",
        0.0
      ],
      [
        "<0xC8>",
        0.0
      ],
      [
        "<0xC9>",
        0.0
      ],
      [
        "<0xCA>",
        0.0
      ],
      [
        "<0xCB>",
        0.0
      ],
      [
        "<0xCC>",
        0.0
      ],
      [
        "<0xCD>",
        0.0
      ],
      [
        "<0xCE>",
        0.0
      ],
      [
        "<0xCF>",
        0.0
      ],
      [
        "<0xD0>",
        0.0
      ],
      [
        "<0xD1>",
        0.0
      ],
      [
        "<0xD2>",
        0.0
      ],
      [
        "<0xD3>",
        0.0
      ],
      [
        "<0xD4>",
        0.0
      ],
      [
        "<0xD5>",
        0.0
      ],
      [
        "<0xD6>",
        0.0
      ],
      [
        "<0xD7>",
        0.0
      ],
      [
        "<0xD8>",
        0.0
      ],
      [
        "<0xD9>",
        0.0
      ],
      [
        "<0xDA>",
        0.0
      ],
      [
        "<0xDB>",
        0.0
      ],
      [
        "<0xDC>",
        0.0
      ],
      [
        "<0xDD>",
        0.0
      ],
      [
        "<0xDE>",
        0.0
      ],
      [
        "<0xDF>",
        0.0
      ],
      [
        "<0xE0>",
        0.0
      ],
      [
        "<0xE1>",
        0.0
      ],
      [
        "<0xE2>",
        0.0
      ],
      [
        "<0xE3>",
        0.0
      ],
      [
        "<0xE4>",
        0.0
      ],
      [
        "<0xE5>",
        0.0
      ],
      [
        "<0xE6>",
        0.0
      ],
      [
        "<0xE7>",
        0.0
      ],
      [
        "<0xE8>",
        0.0
      ],
      [
        "<0xE9>",
        0.0
      ],
      [
        "<0xEA>",
        0.0
      ],
      [
        "<0xEB>",
        0.0
      ],
      [
        "<0xEC>",
        0.0
      ],
      [
        "<0xED>",
        0.0
      ],
      [
        "<0xEE>",
        0.0
      ],
      [
        "<0xEF>",
        0.0
      ],
      [
        "<0xF0>",
        0.0
      ],
      [
        "<0xF1>",
        0.0
      ],
      [
        "<0xF2>",
        0.0
      ],
      [
        "<0xF3>",
        0.0
      ],
      [
        "<0xF4>",
        0.0
      ],
      [
        "<0xF5>",
        0.0
      ],
      [
        "<0xF6>",
        0.0
      ],
      [
        "<0xF7>",
        0.0
      ],
      [
        "<0xF8>",
        0.0
      ],
      [
        "<0xF9>",
        0.0
      ],
      [
        "<0xFA>",
        0.0
      ],
      [
        "<0xFB>",
        0.0
      ],
      [
        "<0xFC>",
        0.0
      ],
      [
        "<0xFD>",
        0.0
      ],
      [
        "<0xFE>",
        0.0
      ],
      [
        "<0xFF>",
        0.0
      ],
      [
        "▁و",
        -3.867896318435669
      ],
      [
        "▁في",
        -4.341548919677734
      ],
      [
        "▁الله",
        -4.387694358825684
      ],
      [
        "▁من",
        -4.436236381530762
      ],
      [
        "▁",
        -4.606557846069336
      ],
      [
        "ة",
        -4.693871974945068
      ],
      [
        "ي",
        -4.718083381652832
      ],
      [
        "ا",
        -4.737710475921631
      ],
      [
        "ه",
        -4.8056321144104
      ],
      [
        "و",
        -4.946234703063965
      ],
      [
        "ك",
        -5.016013145446777
      ],
      [
        "▁على",
        -5.036776542663574
      ],
      [
        "ها",
        -5.274638652801514
      ],
      [
        "▁ربي",
        -5.348217964172363
      ],
      [
        "▁ما",
        -5.381877422332764
      ],
      [
        ".",
        -5.394922256469727
      ],
      [
        "▁لي",
        -5.427937030792236
      ],
      [
        "]",
        -5.4454169273376465
      ],
      [
        "▁[",
        -5.4515299797058105
      ],
      [
        "▁لا",
        -5.510930061340332
      ],
      [
        "ت",
        -5.517807483673096
      ],
      [
        "نا",
        -5.531590461730957
      ],
      [
        "MENTION",
        -5.552556991577148
      ],
      [
        "،",
        -5.603005409240723
      ],
      [
        "▁انا",
        -5.609033107757568
      ],
      [
        "▁ان",
        -5.703451633453369
      ],
      [
        "ين",
        -5.753274917602539
      ],
      [
        "▁...",
        -5.811810493469238
      ],
      [
        "▁يا",
        -5.826758861541748
      ],
      [
        "هم",
        -5.854039192199707
      ],
      [
        "ش",
        -5.873415470123291
      ],
      [
        "▁ال",
        -5.905406475067139
      ],
      [
        "▁كل",
        -5.920045852661133
      ],
      [
        "▁،",
        -5.924765110015869
      ],
      [
        "▁ب",
        -5.940053939819336
      ],
      [
        "...",
        -5.976007461547852
      ],
      [
        "ات",
        -5.986064434051514
      ],
      [
        "▁ل",
        -6.01189661026001
      ],
      [
        "وا",
        -6.090996742248535
      ],
      [
        "▁-",
        -6.12122917175293
      ],
      [
        "▁.",
        -6.133631706237793
      ],
      [
        "م",
        -6.136336326599121
      ],
      [
        "▁ولا",
        -6.137324810028076
      ],
      [
        "ية",
        -6.14201021194458
      ],
      [
        "▁هذا",
        -6.142456531524658
      ],
      [
        "▁استاذ",
        -6.160739421844482
      ],
      [
        "▁أن",
        -6.168739318847656
      ],
      [
        "▁وال",
        -6.265864849090576
      ],
      [
        "▁شاء",
        -6.282102108001709
      ],
      [
        "ني",
        -6.282680034637451
      ],
      [
        "▁ت",
        -6.283318042755127
      ],
      [
        "▁مع",
        -6.299558162689209
      ],
      [
        "▁ي",
        -6.300507545471191
      ],
      [
        "3",
        -6.322285175323486
      ],
      [
        "▁غير",
        -6.36114501953125
      ],
      [
        "▁م",
        -6.372068405151367
      ],
      [
        "▁والله",
        -6.372504234313965
      ],
      [
        "▁كي",
        -6.381032466888428
      ],
      [
        "▁❤",
        -6.38238000869751
      ],
      [
        "▁ا",
        -6.400829792022705
      ],
      [
        "▁شكرا",
        -6.401562213897705
      ],
      [
        "▁اللهم",
        -6.410332202911377
      ],
      [
        "▁هو",
        -6.421041011810303
      ],
      [
        "▁عن",
        -6.454927444458008
      ],
      [
        ":",
        -6.47661828994751
      ],
      [
        "▁ف",
        -6.488560676574707
      ],
      [
        "▁:",
        -6.499783039093018
      ],
      [
        "▁تاع",
        -6.513674259185791
      ],
      [
        "▁ن",
        -6.515159606933594
      ],
      [
        "▁لل",
        -6.517263889312744
      ],
      [
        "▁بال",
        -6.535425662994385
      ],
      [
        "ون",
        -6.554759979248047
      ],
      [
        "▁الم",
        -6.554771423339844
      ],
      [
        "▁عليه",
        -6.556052207946777
      ],
      [
        "▁هه",
        -6.574245929718018
      ],
      [
        "كم",
        -6.575971603393555
      ],
      [
        "▁يارب",
        -6.5885491371154785
      ],
      [
        "▁عليكم",
        -6.594130039215088
      ],
      [
        "▁السلام",
        -6.605930328369141
      ],
      [
        "▁كان",
        -6.619604587554932
      ],
      [
        "ال",
        -6.627811431884766
      ],
      [
        "▁بزاف",
        -6.631163120269775
      ],
      [
        "▁(",
        -6.632402420043945
      ],
      [
        "▁فيك",
        -6.646086692810059
      ],
      [
        "▁😂😂",
        -6.662533283233643
      ],
      [
        "▁بصح",
        -6.6846089363098145
      ],
      [
        "ن",
        -6.697463035583496
      ],
      [
        "▁❤❤",
        -6.702072620391846
      ],
      [
        "؟",
        -6.704417705535889
      ],
      [
        "▁؟",
        -6.708389759063721
      ],
      [
        "▁حتى",
        -6.716610908508301
      ],
      [
        "▁راني",
        -6.734328746795654
      ],
      [
        "▁لك",
        -6.742000579833984
      ],
      [
        "▁بارك",
        -6.765027046203613
      ],
      [
        "▁او",
        -6.766134262084961
      ],
      [
        "▁أ",
        -6.767073154449463
      ],
      [
        "▁لم",
        -6.775796890258789
      ],
      [
        "▁قال",
        -6.7846527099609375
      ],
      [
        "▁هي",
        -6.828227996826172
      ],
      [
        "▁3",
        -6.833324909210205
      ],
      [
        "❤",
        -6.834304332733154
      ],
      [
        "لي",
        -6.844748020172119
      ],
      [
        "▁واحد",
        -6.853020191192627
      ],
      [
        "▁الا",
        -6.85346794128418
      ],
      [
        "▁تع",
        -6.875770092010498
      ],
      [
        "▁لله",
        -6.8763251304626465
      ],
      [
        ")",
        -6.878941535949707
      ],
      [
        "s",
        -6.879279136657715
      ],
      [
        "▁كامل",
        -6.882810115814209
      ],
      [
        "▁كنت",
        -6.912443161010742
      ],
      [
        "▁فيديو",
        -6.917301177978516
      ],
      [
        "▁\"",
        -6.937626361846924
      ],
      [
        "▁خير",
        -6.947422981262207
      ],
      [
        "ى",
        -6.963683128356934
      ],
      [
        "▁واش",
        -6.965303421020508
      ],
      [
        "▁هل",
        -6.978939533233643
      ],
      [
        "▁أو",
        -6.989818572998047
      ],
      [
        "▁عليك",
        -6.9938459396362305
      ],
      [
        "▁إن",
        -7.013247966766357
      ],
      [
        "▁باك",
        -7.014297008514404
      ],
      [
        "▁الباك",
        -7.028302192687988
      ],
      [
        "▁😂",
        -7.042195796966553
      ],
      [
        "▁بعد",
        -7.06488561630249
      ],
      [
        "ان",
        -7.06881046295166
      ],
      [
        "▁فيها",
        -7.09019136428833
      ],
      [
        "تي",
        -7.0998334884643555
      ],
      [
        "▁خويا",
        -7.1123480796813965
      ],
      [
        "▁راك",
        -7.130312442779541
      ],
      [
        "ل",
        -7.148315906524658
      ],
      [
        "9",
        -7.155447006225586
      ],
      [
        "▁فال",
        -7.162071704864502
      ],
      [
        "▁فيه",
        -7.162879943847656
      ],
      [
        "▁هذه",
        -7.1734490394592285
      ],
      [
        "▁يحفظك",
        -7.175748348236084
      ],
      [
        "اء",
        -7.182443141937256
      ],
      [
        "▁لكن",
        -7.1839213371276855
      ],
      [
        "ر",
        -7.184911251068115
      ],
      [
        "a",
        -7.185990810394287
      ],
      [
        "▁وي",
        -7.1872100830078125
      ],
      [
        "▁أنا",
        -7.189400672912598
      ],
      [
        "▁وين",
        -7.2045369148254395
      ],
      [
        "7",
        -7.21780252456665
      ],
      [
        "❤❤",
        -7.219412326812744
      ],
      [
        "▁هنا",
        -7.22570276260376
      ],
      [
        "▁قبل",
        -7.228551864624023
      ],
      [
        "▁مي",
        -7.234265327453613
      ],
      [
        "▁صح",
        -7.23583459854126
      ],
      [
        "▁له",
        -7.2434983253479
      ],
      [
        "وش",
        -7.246361255645752
      ],
      [
        "▁إلى",
        -7.253842830657959
      ],
      [
        "لك",
        -7.267590522766113
      ],
      [
        "▁يوم",
        -7.2722978591918945
      ],
      [
        "▁التي",
        -7.276620388031006
      ],
      [
        "▁عندي",
        -7.278404235839844
      ],
      [
        "▁باش",
        -7.279815196990967
      ],
      [
        "▁انت",
        -7.284940719604492
      ],
      [
        "▁كيما",
        -7.285863876342773
      ],
      [
        "ف",
        -7.287524700164795
      ],
      [
        "▁برك",
        -7.297977924346924
      ],
      [
        "▁بلي",
        -7.3103485107421875
      ],
      [
        "▁مت",
        -7.311901092529297
      ],
      [
        "▁لولا",
        -7.324726104736328
      ],
      [
        "ب",
        -7.334297180175781
      ],
      [
        "▁رب",
        -7.350421905517578
      ],
      [
        "▁كاين",
        -7.363877296447754
      ],
      [
        "▁وسلم",
        -7.366355895996094
      ],
      [
        "ته",
        -7.3724284172058105
      ],
      [
        "'",
        -7.3765716552734375
      ],
      [
        "😂",
        -7.376834392547607
      ],
      [
        "k",
        -7.377099990844727
      ],
      [
        "▁عند",
        -7.378126621246338
      ],
      [
        "😂😂",
        -7.3937482833862305
      ],
      [
        "▁الذي",
        -7.400920391082764
      ],
      [
        "▁يكون",
        -7.401910305023193
      ],
      [
        "▁بين",
        -7.403449535369873
      ],
      [
        "▁ام",
        -7.409392833709717
      ],
      [
        "ما",
        -7.411414623260498
      ],
      [
        "t",
        -7.4164557456970215
      ],
      [
        "▁شكون",
        -7.4165496826171875
      ],
      [
        "e",
        -7.4204607009887695
      ],
      [
        "▁ادعولي",
        -7.426285743713379
      ],
      [
        "تك",
        -7.432466983795166
      ],
      [
        "▁؟؟",
        -7.444670677185059
      ],
      [
        "▁وت",
        -7.449665069580078
      ],
      [
        "▁اي",
        -7.455319404602051
      ],
      [
        "▁الفيديو",
        -7.455538749694824
      ],
      [
        ",",
        -7.460310459136963
      ],
      [
        "▁الجزائر",
        -7.462416172027588
      ],
      [
        "▁كانت",
        -7.472200870513916
      ],
      [
        "▁كيف",
        -7.475813388824463
      ],
      [
        "▁l",
        -7.477599620819092
      ],
      [
        "▁راه",
        -7.478444576263428
      ],
      [
        "د",
        -7.488874912261963
      ],
      [
        "▁اخي",
        -7.490266799926758
      ],
      [
        "▁بن",
        -7.4915666580200195
      ],
      [
        "▁الى",
        -7.493283271789551
      ],
      [
        "؟؟",
        -7.5001068115234375
      ],
      [
        "▁w",
        -7.50766658782959
      ],
      [
        "▁الناس",
        -7.510724067687988
      ],
      [
        "▁خيرا",
        -7.5109710693359375
      ],
      [
        "▁صلى",
        -7.520814895629883
      ],
      [
        "▁كما",
        -7.522428035736084
      ],
      [
        "▁ماشي",
        -7.538538932800293
      ],
      [
        "تها",
        -7.547277927398682
      ],
      [
        "▁دير",
        -7.552391529083252
      ],
      [
        "▁محمد",
        -7.552712917327881
      ],
      [
        "i",
        -7.5541911125183105
      ],
      [
        "▁راح",
        -7.559739112854004
      ],
      [
        "▁اختي",
        -7.563887596130371
      ],
      [
        "▁😢",
        -7.567230224609375
      ],
      [
        "لو",
        -7.57614803314209
      ],
      [
        "▁قصة",
        -7.5776143074035645
      ],
      [
        "▁تكون",
        -7.581392288208008
      ],
      [
        "لنا",
        -7.588321685791016
      ],
      [
        "▁اذا",
        -7.598710536956787
      ],
      [
        "يا",
        -7.600414276123047
      ],
      [
        "▁وش",
        -7.6022114753723145
      ],
      [
        "▁أستاذ",
        -7.606632709503174
      ],
      [
        "▁يعني",
        -7.607362747192383
      ],
      [
        "▁به",
        -7.615400314331055
      ],
      [
        "▁فضلك",
        -7.616715908050537
      ],
      [
        "▁ذلك",
        -7.623097896575928
      ],
      [
        "▁لازم",
        -7.623879432678223
      ],
      [
        "▁امين",
        -7.627318859100342
      ],
      [
        "▁الف",
        -7.628689289093018
      ],
      [
        "▁)",
        -7.629824161529541
      ],
      [
        "▁فقط",
        -7.632067680358887
      ],
      [
        "▁رضا",
        -7.633723735809326
      ],
      [
        "▁2",
        -7.635987281799316
      ],
      [
        "▁نتا",
        -7.642464637756348
      ],
      [
        "▁يعطيك",
        -7.6519036293029785
      ],
      [
        "▁إلا",
        -7.654938697814941
      ],
      [
        "▁وم",
        -7.656854152679443
      ],
      [
        "▁ون",
        -7.657031536102295
      ],
      [
        "▁الي",
        -7.657551288604736
      ],
      [
        "ع",
        -7.662453651428223
      ],
      [
        "▁وانا",
        -7.6738715171813965
      ],
      [
        "▁اليوم",
        -7.674955368041992
      ],
      [
        "\"",
        -7.675101280212402
      ],
      [
        "س",
        -7.680865287780762
      ],
      [
        "▁عندك",
        -7.681391716003418
      ],
      [
        "▁عليها",
        -7.687437057495117
      ],
      [
        "▁مش",
        -7.6890740394592285
      ],
      [
        "o",
        -7.69042444229126
      ],
      [
        "▁بل",
        -7.695350170135498
      ],
      [
        "▁افضل",
        -7.70028829574585
      ],
      [
        "y",
        -7.701602458953857
      ],
      [
        "▁سلام",
        -7.704349994659424
      ],
      [
        "▁الحمد",
        -7.710381031036377
      ],
      [
        "m",
        -7.710976600646973
      ],
      [
        "▁إ",
        -7.711513996124268
      ],
      [
        "▁ياربي",
        -7.715892314910889
      ],
      [
        "▁لو",
        -7.716256618499756
      ],
      [
        "▁علاه",
        -7.716497421264648
      ],
      [
        "▁أخي",
        -7.730865478515625
      ],
      [
        "▁نجيب",
        -7.735440254211426
      ],
      [
        "من",
        -7.741206645965576
      ],
      [
        "▁قصص",
        -7.747158050537109
      ],
      [
        "▁يبارك",
        -7.747469425201416
      ],
      [
        "▁ختي",
        -7.74940824508667
      ],
      [
        "▁بك",
        -7.757214546203613
      ],
      [
        "-",
        -7.767264366149902
      ],
      [
        "▁حاجة",
        -7.768418788909912
      ],
      [
        "▁الخير",
        -7.7711286544799805
      ],
      [
        "▁ديرلنا",
        -7.771310329437256
      ],
      [
        "▁رانا",
        -7.773447513580322
      ],
      [
        "▁جزاك",
        -7.780638694763184
      ],
      [
        "d",
        -7.789233207702637
      ],
      [
        "h",
        -7.789240837097168
      ],
      [
        "▁خاوتي",
        -7.792065143585205
      ],
      [
        "▁la",
        -7.796297073364258
      ],
      [
        "▁مرة",
        -7.797428131103516
      ],
      [
        "▁حنا",
        -7.801548957824707
      ],
      [
        "▁ومن",
        -7.80287504196167
      ],
      [
        "▁هاد",
        -7.817296028137207
      ],
      [
        "▁نفس",
        -7.819477558135986
      ],
      [
        "▁قد",
        -7.822093486785889
      ],
      [
        "▁اللي",
        -7.823305606842041
      ],
      [
        "▁ورحمة",
        -7.829690456390381
      ],
      [
        "r",
        -7.835003852844238
      ],
      [
        "▁اول",
        -7.839513778686523
      ],
      [
        "▁لنا",
        -7.843817234039307
      ],
      [
        "تش",
        -7.84876823425293
      ],
      [
        "▁وما",
        -7.855819225311279
      ],
      [
        "la",
        -7.8585615158081055
      ],
      [
        "▁ثم",
        -7.860931396484375
      ],
      [
        "▁العالمين",
        -7.8618879318237305
      ],
      [
        "▁وأ",
        -7.866967678070068
      ],
      [
        "▁ليس",
        -7.867623805999756
      ],
      [
        "5",
        -7.868415355682373
      ],
      [
        "في",
        -7.881255626678467
      ],
      [
        "▁هذي",
        -7.882470607757568
      ],
      [
        "▁ta",
        -7.885585784912109
      ],
      [
        "2",
        -7.888481616973877
      ],
      [
        "لا",
        -7.889143466949463
      ],
      [
        "▁بعض",
        -7.89315128326416
      ],
      [
        "▁علي",
        -7.895779132843018
      ],
      [
        "▁وربي",
        -7.897810935974121
      ],
      [
        "f",
        -7.9015326499938965
      ],
      [
        "▁الصحة",
        -7.905803203582764
      ],
      [
        "▁علينا",
        -7.913174152374268
      ],
      [
        "▁مليح",
        -7.914508819580078
      ],
      [
        "وه",
        -7.914838790893555
      ],
      [
        "▁عام",
        -7.916232585906982
      ],
      [
        "▁a",
        -7.920692443847656
      ],
      [
        "▁ممكن",
        -7.921440124511719
      ],
      [
        "يه",
        -7.922949314117432
      ],
      [
        "▁ك",
        -7.931585788726807
      ],
      [
        "▁أم",
        -7.933727264404297
      ],
      [
        "▁قلت",
        -7.934023380279541
      ],
      [
        "1",
        -7.9341840744018555
      ],
      [
        "l",
        -7.935155868530273
      ],
      [
        "▁العام",
        -7.9363932609558105
      ],
      [
        "😢",
        -7.942165374755859
      ],
      [
        "ج",
        -7.945835590362549
      ],
      [
        "▁نحبك",
        -7.946465492248535
      ],
      [
        "▁الجنة",
        -7.948180675506592
      ],
      [
        "▁إذا",
        -7.949294090270996
      ],
      [
        "▁عبد",
        -7.951594352722168
      ],
      [
        "▁شيء",
        -7.951817035675049
      ],
      [
        "n",
        -7.957730770111084
      ],
      [
        "▁جدا",
        -7.9646124839782715
      ],
      [
        "▁تعالى",
        -7.9669060707092285
      ],
      [
        "▁الأ",
        -7.970084190368652
      ],
      [
        "▁*",
        -7.972766399383545
      ],
      [
        "▁,",
        -7.974752426147461
      ],
      [
        "▁والو",
        -7.977087020874023
      ],
      [
        "ص",
        -7.980223655700684
      ],
      [
        "▁وليد",
        -7.981025695800781
      ],
      [
        "▁m",
        -7.981046676635742
      ],
      [
        "w",
        -7.9882731437683105
      ],
      [
        "▁بالمثل",
        -7.989226818084717
      ],
      [
        "▁f",
        -7.989679336547852
      ],
      [
        "▁بالله",
        -7.9933085441589355
      ],
      [
        "▁لها",
        -7.9934611320495605
      ],
      [
        "▁فل",
        -7.996462821960449
      ],
      [
        "▁حكاية",
        -7.996527671813965
      ],
      [
        "▁تاعك",
        -8.013324737548828
      ],
      [
        "▁يت",
        -8.01433277130127
      ],
      [
        "▁كون",
        -8.015120506286621
      ],
      [
        "▁مات",
        -8.016134262084961
      ],
      [
        "▁هدا",
        -8.023039817810059
      ],
      [
        "▁ولكن",
        -8.023762702941895
      ],
      [
        "▁دار",
        -8.025957107543945
      ],
      [
        "▁t",
        -8.02639389038086
      ],
      [
        "▁نعم",
        -8.026593208312988
      ],
      [
        "▁القصة",
        -8.03042221069336
      ],
      [
        "▁9",
        -8.033811569213867
      ],
      [
        "▁de",
        -8.035234451293945
      ],
      [
        "▁1",
        -8.039327621459961
      ],
      [
        "▁ناس",
        -8.041263580322266
      ],
      [
        "▁البكالوريا",
        -8.044864654541016
      ],
      [
        "▁رسول",
        -8.044873237609863
      ],
      [
        "▁انشاء",
        -8.04522705078125
      ],
      [
        "يش",
        -8.049012184143066
      ],
      [
        "▁وهو",
        -8.050209999084473
      ],
      [
        "▁باه",
        -8.053354263305664
      ],
      [
        "▁كيفاش",
        -8.053500175476074
      ],
      [
        "ح",
        -8.054031372070312
      ],
      [
        "▁n",
        -8.057743072509766
      ],
      [
        "▁5",
        -8.05996036529541
      ],
      [
        "▁معاك",
        -8.062845230102539
      ],
      [
        "b",
        -8.06399917602539
      ],
      [
        "ط",
        -8.071248054504395
      ],
      [
        "▁قاع",
        -8.072867393493652
      ],
      [
        "▁لباك",
        -8.07408618927002
      ],
      [
        "ق",
        -8.075889587402344
      ],
      [
        "▁ندي",
        -8.076930046081543
      ],
      [
        "تو",
        -8.080866813659668
      ],
      [
        "▁يوفقك",
        -8.082193374633789
      ],
      [
        "تنا",
        -8.084858894348145
      ],
      [
        "▁راجعون",
        -8.085379600524902
      ],
      [
        "▁مشي",
        -8.086753845214844
      ],
      [
        "▁راهي",
        -8.087579727172852
      ],
      [
        "▁شحال",
        -8.08889102935791
      ],
      [
        "4",
        -8.090509414672852
      ],
      [
        "c",
        -8.09130859375
      ],
      [
        "▁les",
        -8.093427658081055
      ],
      [
        "▁وقت",
        -8.096713066101074
      ],
      [
        "p",
        -8.099427223205566
      ],
      [
        "g",
        -8.099929809570312
      ],
      [
        "▁بلا",
        -8.10184097290039
      ],
      [
        "▁ma",
        -8.101958274841309
      ],
      [
        "▁الت",
        -8.103927612304688
      ],
      [
        "▁وبركاته",
        -8.108658790588379
      ],
      [
        "▁الكريم",
        -8.10892391204834
      ],
      [
        "▁خو",
        -8.117391586303711
      ],
      [
        "▁ماشاء",
        -8.117880821228027
      ],
      [
        "ز",
        -8.120092391967773
      ],
      [
        "▁كمل",
        -8.123039245605469
      ],
      [
        "▁اني",
        -8.125532150268555
      ],
      [
        "▁كيفاه",
        -8.125534057617188
      ],
      [
        "▁بزااف",
        -8.13074779510498
      ],
      [
        "▁وكل",
        -8.132248878479004
      ],
      [
        "▁بها",
        -8.135871887207031
      ],
      [
        "▁رمضان",
        -8.140149116516113
      ],
      [
        "▁جا",
        -8.140668869018555
      ],
      [
        "وني",
        -8.143308639526367
      ],
      [
        "▁سنة",
        -8.143811225891113
      ],
      [
        "▁ولكم",
        -8.14403247833252
      ],
      [
        "▁2025",
        -8.144993782043457
      ],
      [
        "خ",
        -8.147449493408203
      ],
      [
        "▁منها",
        -8.148284912109375
      ],
      [
        "آ",
        -8.148392677307129
      ],
      [
        "▁ابن",
        -8.150665283203125
      ],
      [
        "▁شعبة",
        -8.150757789611816
      ],
      [
        "▁وفي",
        -8.151962280273438
      ],
      [
        "▁تاني",
        -8.15275764465332
      ],
      [
        "ور",
        -8.153564453125
      ],
      [
        "▁يقول",
        -8.15523624420166
      ],
      [
        "▁نشوف",
        -8.156644821166992
      ],
      [
        "▁الموضوع",
        -8.158154487609863
      ],
      [
        "لها",
        -8.158685684204102
      ],
      [
        "▁ندير",
        -8.162853240966797
      ],
      [
        "▁😊",
        -8.162888526916504
      ],
      [
        "ير",
        -8.165213584899902
      ],
      [
        "_",
        -8.165522575378418
      ],
      [
        "▁أي",
        -8.166058540344238
      ],
      [
        "▁تقول",
        -8.169679641723633
      ],
      [
        "▁❤️",
        -8.17912483215332
      ],
      [
        "▁استاذة",
        -8.184613227844238
      ],
      [
        "▁عليهم",
        -8.18551254272461
      ],
      [
        "▁يدير",
        -8.187746047973633
      ],
      [
        "▁آمين",
        -8.187975883483887
      ],
      [
        "يت",
        -8.191264152526855
      ],
      [
        "▁يرحم",
        -8.193178176879883
      ],
      [
        "▁جام",
        -8.195917129516602
      ],
      [
        "▁سي",
        -8.19801139831543
      ],
      [
        "▁جديد",
        -8.20180892944336
      ],
      [
        "ار",
        -8.203413963317871
      ],
      [
        "▁مثل",
        -8.203618049621582
      ],
      [
        "▁يحفضك",
        -8.204309463500977
      ],
      [
        "z",
        -8.205348014831543
      ],
      [
        "▁وان",
        -8.205402374267578
      ],
      [
        "▁وحدة",
        -8.208908081054688
      ],
      [
        "▁+",
        -8.210935592651367
      ],
      [
        "▁😢😢",
        -8.21145248413086
      ],
      [
        "j",
        -8.21239948272705
      ],
      [
        "▁معدل",
        -8.213871955871582
      ],
      [
        "يات",
        -8.213889122009277
      ],
      [
        "▁4",
        -8.215620040893555
      ],
      [
        "u",
        -8.222297668457031
      ],
      [
        "▁زوج",
        -8.222540855407715
      ],
      [
        "▁المنتدى",
        -8.223517417907715
      ],
      [
        "وها",
        -8.226415634155273
      ],
      [
        "▁جميع",
        -8.228055953979492
      ],
      [
        "▁y",
        -8.228899955749512
      ],
      [
        "▁الحق",
        -8.229389190673828
      ],
      [
        "▁روحي",
        -8.230059623718262
      ],
      [
        "▁والم",
        -8.230278015136719
      ],
      [
        "▁ماي",
        -8.231709480285645
      ],
      [
        "▁نهار",
        -8.231756210327148
      ],
      [
        "▁ينجحنا",
        -8.23458480834961
      ],
      [
        "ذ",
        -8.23481559753418
      ],
      [
        "▁لكم",
        -8.237042427062988
      ],
      [
        "▁نت",
        -8.238076210021973
      ],
      [
        "▁7",
        -8.238369941711426
      ],
      [
        "ربي",
        -8.241068840026855
      ],
      [
        "ch",
        -8.242904663085938
      ],
      [
        "▁أنت",
        -8.24305534362793
      ],
      [
        "▁الوقت",
        -8.24342155456543
      ],
      [
        "▁عليا",
        -8.244367599487305
      ],
      [
        "▁راهم",
        -8.246757507324219
      ],
      [
        "▁راكي",
        -8.247775077819824
      ],
      [
        "▁هاذي",
        -8.249556541442871
      ],
      [
        "▁مرحبا",
        -8.258071899414062
      ],
      [
        "▁مزال",
        -8.258922576904297
      ],
      [
        "▁كتاب",
        -8.260828971862793
      ],
      [
        "6",
        -8.262020111083984
      ],
      [
        "دي",
        -8.263646125793457
      ],
      [
        "ث",
        -8.266193389892578
      ],
      [
        "▁لن",
        -8.266639709472656
      ],
      [
        "▁نتاع",
        -8.267247200012207
      ],
      [
        "▁ع",
        -8.267784118652344
      ],
      [
        "▁ميزان",
        -8.268132209777832
      ],
      [
        "▁الجن",
        -8.268961906433105
      ],
      [
        "▁شفت",
        -8.272579193115234
      ],
      [
        "▁10",
        -8.275550842285156
      ],
      [
        "▁لما",
        -8.279420852661133
      ],
      [
        "na",
        -8.282118797302246
      ],
      [
        "▁اليه",
        -8.28221607208252
      ],
      [
        "▁النبي",
        -8.283313751220703
      ],
      [
        "▁😅",
        -8.283873558044434
      ],
      [
        "▁سؤال",
        -8.288744926452637
      ],
      [
        "▁تت",
        -8.2905855178833
      ],
      [
        "▁العظيم",
        -8.292891502380371
      ],
      [
        "▁تحت",
        -8.29367446899414
      ],
      [
        "▁ya",
        -8.295716285705566
      ],
      [
        "▁اكثر",
        -8.296431541442871
      ],
      [
        "▁هناك",
        -8.296537399291992
      ],
      [
        "▁صباح",
        -8.297294616699219
      ],
      [
        "▁محتوى",
        -8.302743911743164
      ],
      [
        "▁وشكرا",
        -8.303360939025879
      ],
      [
        "أ",
        -8.303571701049805
      ],
      [
        "▁طريقة",
        -8.304394721984863
      ],
      [
        "▁شعر",
        -8.308990478515625
      ],
      [
        "▁2026",
        -8.310744285583496
      ],
      [
        "يك",
        -8.311335563659668
      ],
      [
        "▁شهادة",
        -8.31174373626709
      ],
      [
        "ولي",
        -8.312592506408691
      ],
      [
        "😊",
        -8.313158988952637
      ],
      [
        "▁فا",
        -8.314809799194336
      ],
      [
        "▁هادي",
        -8.315255165100098
      ],
      [
        "v",
        -8.316085815429688
      ],
      [
        "اب",
        -8.321735382080078
      ],
      [
        "▁تحياتي",
        -8.321738243103027
      ],
      [
        "ha",
        -8.321889877319336
      ],
      [
        "▁مام",
        -8.323394775390625
      ],
      [
        "▁العلم",
        -8.323410034179688
      ],
      [
        "اد",
        -8.324406623840332
      ],
      [
        "▁المهم",
        -8.329588890075684
      ],
      [
        "▁كلش",
        -8.329631805419922
      ],
      [
        "8",
        -8.333484649658203
      ],
      [
        "▁إليه",
        -8.335241317749023
      ],
      [
        "▁نتفرج",
        -8.335302352905273
      ],
      [
        "/",
        -8.340003967285156
      ],
      [
        "▁لكل",
        -8.340105056762695
      ],
      [
        "▁كثيرا",
        -8.34117317199707
      ],
      [
        "▁س",
        -8.342047691345215
      ],
      [
        "▁نقرا",
        -8.349637985229492
      ],
      [
        "▁رعب",
        -8.351334571838379
      ],
      [
        "غ",
        -8.35267162322998
      ],
      [
        "ئ",
        -8.35367202758789
      ],
      [
        "▁با",
        -8.356939315795898
      ],
      [
        "▁عندو",
        -8.357308387756348
      ],
      [
        "▁تم",
        -8.357452392578125
      ],
      [
        "▁رحمة",
        -8.360383033752441
      ],
      [
        "تني",
        -8.361233711242676
      ],
      [
        "▁بالتوفيق",
        -8.362829208374023
      ],
      [
        "▁نشالله",
        -8.363373756408691
      ],
      [
        "▁عنه",
        -8.36516284942627
      ],
      [
        "▁است",
        -8.365403175354004
      ],
      [
        "▁عادي",
        -8.367403030395508
      ],
      [
        "▁الان",
        -8.368391036987305
      ],
      [
        "▁شيخ",
        -8.368537902832031
      ],
      [
        "▁🤲",
        -8.371435165405273
      ],
      [
        "لهم",
        -8.374154090881348
      ],
      [
        "▁الإ",
        -8.375988960266113
      ],
      [
        "▁قلبي",
        -8.376729011535645
      ],
      [
        "▁علاش",
        -8.379353523254395
      ],
      [
        "▁العالم",
        -8.379973411560059
      ],
      [
        "وم",
        -8.385220527648926
      ],
      [
        "▁b",
        -8.392413139343262
      ],
      [
        "▁شرح",
        -8.392494201660156
      ],
      [
        "▁حبيت",
        -8.392723083496094
      ],
      [
        "x",
        -8.39397144317627
      ],
      [
        "▁the",
        -8.394868850708008
      ],
      [
        "▁حاب",
        -8.395062446594238
      ],
      [
        "▁الن",
        -8.395092964172363
      ],
      [
        "▁المسلمين",
        -8.398534774780273
      ],
      [
        "(",
        -8.399206161499023
      ],
      [
        "▁أفضل",
        -8.400282859802246
      ],
      [
        "▁مبروك",
        -8.400680541992188
      ],
      [
        "▁روح",
        -8.401426315307617
      ],
      [
        "▁أختي",
        -8.40375804901123
      ],
      [
        "▁خاصة",
        -8.404424667358398
      ],
      [
        "ام",
        -8.406353950500488
      ],
      [
        "▁ديرنا",
        -8.407051086425781
      ],
      [
        "▁ثاني",
        -8.408476829528809
      ],
      [
        "▁النجاح",
        -8.41270923614502
      ],
      [
        "▁le",
        -8.412751197814941
      ],
      [
        "▁هاذ",
        -8.417031288146973
      ],
      [
        "يد",
        -8.418264389038086
      ],
      [
        "▁حل",
        -8.41851806640625
      ],
      [
        "al",
        -8.42200756072998
      ],
      [
        "▁اسم",
        -8.425413131713867
      ],
      [
        "▁نتي",
        -8.42602252960205
      ],
      [
        "▁الشعر",
        -8.42728042602539
      ],
      [
        "ض",
        -8.427618026733398
      ],
      [
        "▁وحد",
        -8.428865432739258
      ],
      [
        "▁موضوع",
        -8.430456161499023
      ],
      [
        "▁بمعدل",
        -8.430499076843262
      ],
      [
        "▁🙂",
        -8.433629989624023
      ],
      [
        "▁الثاني",
        -8.434544563293457
      ],
      [
        "▁li",
        -8.436994552612305
      ],
      [
        "▁درت",
        -8.437901496887207
      ],
      [
        "▁حول",
        -8.438033103942871
      ],
      [
        "يل",
        -8.438291549682617
      ],
      [
        "ra",
        -8.439199447631836
      ],
      [
        "▁استاد",
        -8.439652442932129
      ],
      [
        "▁الدنيا",
        -8.444192886352539
      ],
      [
        "▁القصص",
        -8.444356918334961
      ],
      [
        "▁16",
        -8.447585105895996
      ],
      [
        "▁ولي",
        -8.45128059387207
      ],
      [
        "▁جزيلا",
        -8.452827453613281
      ],
      [
        "▁حبيبتي",
        -8.453532218933105
      ],
      [
        "▁الع",
        -8.456068992614746
      ],
      [
        "▁الصبر",
        -8.456404685974121
      ],
      [
        "▁ننجح",
        -8.458067893981934
      ],
      [
        "▁العباسية",
        -8.458415031433105
      ],
      [
        "▁الشيخ",
        -8.459502220153809
      ],
      [
        "▁فلا",
        -8.46464729309082
      ],
      [
        "▁سبحان",
        -8.46723747253418
      ],
      [
        "يين",
        -8.467520713806152
      ],
      [
        "▁you",
        -8.467977523803711
      ],
      [
        "▁الدين",
        -8.468230247497559
      ],
      [
        "▁العربية",
        -8.468348503112793
      ],
      [
        "▁حسناتك",
        -8.46990966796875
      ],
      [
        "❤️",
        -8.469978332519531
      ],
      [
        "er",
        -8.4701509475708
      ],
      [
        "▁15",
        -8.470905303955078
      ],
      [
        "▁حق",
        -8.471516609191895
      ],
      [
        "*",
        -8.471576690673828
      ],
      [
        "▁يوفقنا",
        -8.472968101501465
      ],
      [
        "▁جيت",
        -8.477493286132812
      ],
      [
        "▁هم",
        -8.47792911529541
      ],
      [
        "▁نحن",
        -8.478575706481934
      ],
      [
        "😅",
        -8.482422828674316
      ],
      [
        "▁نشاله",
        -8.487056732177734
      ],
      [
        "▁القرآن",
        -8.490443229675293
      ],
      [
        "وك",
        -8.490607261657715
      ],
      [
        "URL",
        -8.49201774597168
      ],
      [
        "▁شخص",
        -8.492781639099121
      ],
      [
        "▁يجي",
        -8.497052192687988
      ],
      [
        "▁احسن",
        -8.497589111328125
      ],
      [
        "▁2024",
        -8.498974800109863
      ],
      [
        "▁hh",
        -8.499557495117188
      ],
      [
        "▁c",
        -8.501642227172852
      ],
      [
        "▁قوة",
        -8.50223445892334
      ],
      [
        "▁علا",
        -8.507345199584961
      ],
      [
        "▁مكان",
        -8.510292053222656
      ],
      [
        "▁سيبيا",
        -8.510540962219238
      ],
      [
        "▁الصلاة",
        -8.510723114013672
      ],
      [
        "▁🤣🤣",
        -8.511778831481934
      ],
      [
        "ظ",
        -8.511944770812988
      ],
      [
        "▁جماعة",
        -8.512075424194336
      ],
      [
        "▁هكا",
        -8.512238502502441
      ],
      [
        "▁نص",
        -8.512558937072754
      ],
      [
        "▁أنه",
        -8.513420104980469
      ],
      [
        "▁بديت",
        -8.517983436584473
      ],
      [
        "▁غي",
        -8.519036293029785
      ],
      [
        "▁بما",
        -8.52039623260498
      ],
      [
        "تهم",
        -8.520983695983887
      ],
      [
        "▁نقدر",
        -8.522964477539062
      ],
      [
        "▁17",
        -8.524852752685547
      ],
      [
        "▁روعة",
        -8.525778770446777
      ],
      [
        "▁أكثر",
        -8.526030540466309
      ],
      [
        "▁الشعب",
        -8.529556274414062
      ],
      [
        "▁اخر",
        -8.529746055603027
      ],
      [
        "li",
        -8.531167030334473
      ],
      [
        "▁بنت",
        -8.531747817993164
      ],
      [
        "▁I",
        -8.534679412841797
      ],
      [
        "▁اما",
        -8.535987854003906
      ],
      [
        "▁شي",
        -8.539161682128906
      ],
      [
        "▁لأن",
        -8.539746284484863
      ],
      [
        "▁الحياة",
        -8.541245460510254
      ],
      [
        "▁الاول",
        -8.543725967407227
      ],
      [
        "▁دعولي",
        -8.543819427490234
      ],
      [
        "▁حكايات",
        -8.548588752746582
      ],
      [
        "▁لان",
        -8.548611640930176
      ],
      [
        "ma",
        -8.5486478805542
      ],
      [
        "▁لالا",
        -8.548771858215332
      ],
      [
        "▁وعلى",
        -8.549551010131836
      ],
      [
        "▁لوكان",
        -8.55008316040039
      ],
      [
        "▁كبير",
        -8.55068302154541
      ],
      [
        "ول",
        -8.552206993103027
      ],
      [
        "q",
        -8.554759979248047
      ],
      [
        "▁et",
        -8.554883003234863
      ],
      [
        "▁6",
        -8.555145263671875
      ],
      [
        "▁وب",
        -8.556041717529297
      ],
      [
        "لة",
        -8.557784080505371
      ],
      [
        "▁شهر",
        -8.563234329223633
      ],
      [
        "▁‪",
        -8.563498497009277
      ],
      [
        "▁يمكن",
        -8.564312934875488
      ],
      [
        "▁كثر",
        -8.566890716552734
      ],
      [
        "رة",
        -8.567319869995117
      ],
      [
        "ou",
        -8.567407608032227
      ],
      [
        "▁بيه",
        -8.572124481201172
      ],
      [
        "▁حال",
        -8.573493957519531
      ],
      [
        "😭",
        -8.574092864990234
      ],
      [
        "▁مر",
        -8.57663631439209
      ],
      [
        "▁وهي",
        -8.578219413757324
      ],
      [
        "▁راكليطة",
        -8.58108901977539
      ],
      [
        "▁/",
        -8.583338737487793
      ],
      [
        "▁فيهم",
        -8.584637641906738
      ],
      [
        "ست",
        -8.587966918945312
      ],
      [
        "▁السؤال",
        -8.589444160461426
      ],
      [
        "▁علوم",
        -8.590757369995117
      ],
      [
        "▁دعوة",
        -8.592530250549316
      ],
      [
        "▁بإذن",
        -8.59278678894043
      ],
      [
        "▁راهو",
        -8.596399307250977
      ],
      [
        "▁بيها",
        -8.597138404846191
      ],
      [
        "ري",
        -8.601409912109375
      ],
      [
        "▁تعرف",
        -8.60153865814209
      ],
      [
        "▁فسيح",
        -8.601544380187988
      ],
      [
        "▁معليش",
        -8.601919174194336
      ],
      [
        "▁بيك",
        -8.602814674377441
      ],
      [
        "ء",
        -8.603123664855957
      ],
      [
        "را",
        -8.603301048278809
      ],
      [
        "▁نعرف",
        -8.604242324829102
      ],
      [
        "له",
        -8.60486888885498
      ],
      [
        "▁ر",
        -8.607876777648926
      ],
      [
        "▁للم",
        -8.608975410461426
      ],
      [
        "▁منهم",
        -8.610185623168945
      ],
      [
        "▁ست",
        -8.610637664794922
      ],
      [
        "▁اهلا",
        -8.614177703857422
      ],
      [
        "▁تن",
        -8.614874839782715
      ],
      [
        "▁نحب",
        -8.617016792297363
      ],
      [
        "▁كلمة",
        -8.618932723999023
      ],
      [
        "▁ول",
        -8.6190824508667
      ],
      [
        "▁بليز",
        -8.619477272033691
      ],
      [
        "▁الخ",
        -8.621574401855469
      ],
      [
        "▁d",
        -8.621905326843262
      ],
      [
        "▁بي",
        -8.622024536132812
      ],
      [
        "▁أهل",
        -8.624127388000488
      ],
      [
        "▁لت",
        -8.62472152709961
      ],
      [
        "▁زيد",
        -8.625038146972656
      ],
      [
        "جي",
        -8.625641822814941
      ],
      [
        "اس",
        -8.631272315979004
      ],
      [
        "▁دروس",
        -8.633825302124023
      ],
      [
        "▁اللغة",
        -8.634299278259277
      ],
      [
        "اك",
        -8.635193824768066
      ],
      [
        "▁آخر",
        -8.637115478515625
      ],
      [
        "▁إنا",
        -8.639970779418945
      ],
      [
        "▁ايه",
        -8.641218185424805
      ],
      [
        "▁مكانش",
        -8.641234397888184
      ],
      [
        "▁A",
        -8.646531105041504
      ],
      [
        "▁دائما",
        -8.647189140319824
      ],
      [
        "▁حابة",
        -8.648268699645996
      ],
      [
        "▁ليك",
        -8.6527681350708
      ],
      [
        "▁!",
        -8.6538667678833
      ],
      [
        "▁‬",
        -8.65540885925293
      ],
      [
        "ونا",
        -8.655890464782715
      ],
      [
        "▁عمري",
        -8.655890464782715
      ],
      [
        "▁روحك",
        -8.657366752624512
      ],
      [
        "▁نقول",
        -8.658244132995605
      ],
      [
        "▁صحيح",
        -8.660353660583496
      ],
      [
        "▁🤲🏻",
        -8.660795211791992
      ],
      [
        "▁الكتاب",
        -8.661431312561035
      ],
      [
        "▁سمعت",
        -8.661900520324707
      ],
      [
        "▁عمر",
        -8.666044235229492
      ],
      [
        "▁بكل",
        -8.666322708129883
      ],
      [
        "▁سيدنا",
        -8.66790771484375
      ],
      [
        "🙂",
        -8.674439430236816
      ],
      [
        "▁ولاية",
        -8.67454719543457
      ],
      [
        "▁18",
        -8.675926208496094
      ],
      [
        "▁نتمنى",
        -8.676563262939453
      ],
      [
        "▁فوق",
        -8.676742553710938
      ],
      [
        "▁فهمت",
        -8.676797866821289
      ],
      [
        "▁ماما",
        -8.677140235900879
      ],
      [
        "▁قناة",
        -8.681711196899414
      ],
      [
        "▁صوت",
        -8.682538032531738
      ],
      [
        "▁يجازيك",
        -8.684584617614746
      ],
      [
        "▁ولله",
        -8.685433387756348
      ],
      [
        "▁حساب",
        -8.686147689819336
      ],
      [
        "▁ص",
        -8.686470985412598
      ],
      [
        "▁19",
        -8.68675708770752
      ],
      [
        "▁بالنسبة",
        -8.687277793884277
      ],
      [
        "▁M",
        -8.687320709228516
      ],
      [
        "تم",
        -8.687620162963867
      ],
      [
        "▁شباب",
        -8.688570976257324
      ],
      [
        "▁لقيت",
        -8.688750267028809
      ],
      [
        "▁الب",
        -8.690042495727539
      ],
      [
        "وس",
        -8.696930885314941
      ],
      [
        "▁fi",
        -8.700104713439941
      ],
      [
        "اش",
        -8.701330184936523
      ],
      [
        "الله",
        -8.703359603881836
      ],
      [
        "▁انك",
        -8.703739166259766
      ],
      [
        "▁الذين",
        -8.703826904296875
      ],
      [
        "▁رائع",
        -8.704483032226562
      ],
      [
        "▁تحكي",
        -8.706945419311523
      ],
      [
        "▁هوما",
        -8.708409309387207
      ],
      [
        "▁نسمع",
        -8.709592819213867
      ],
      [
        "▁أهلا",
        -8.712410926818848
      ],
      [
        "▁ماذا",
        -8.713172912597656
      ],
      [
        "▁ولم",
        -8.713460922241211
      ],
      [
        "▁وهذا",
        -8.715394973754883
      ],
      [
        "▁معايا",
        -8.715736389160156
      ],
      [
        "ـ",
        -8.719557762145996
      ],
      [
        "▁ana",
        -8.72099494934082
      ],
      [
        "▁s",
        -8.721445083618164
      ],
      [
        "وي",
        -8.72381591796875
      ],
      [
        "مي",
        -8.724148750305176
      ],
      [
        "ينا",
        -8.72684097290039
      ],
      [
        "بي",
        -8.72873592376709
      ],
      [
        "ؤ",
        -8.730175971984863
      ],
      [
        "▁دون",
        -8.733019828796387
      ],
      [
        "▁الحكاية",
        -8.733665466308594
      ],
      [
        "▁يجب",
        -8.735444068908691
      ],
      [
        "▁انو",
        -8.73556900024414
      ],
      [
        "▁ياخو",
        -8.735678672790527
      ],
      [
        "▁رحمه",
        -8.736132621765137
      ],
      [
        "▁تعيش",
        -8.737237930297852
      ],
      [
        "✨",
        -8.73729133605957
      ],
      [
        "!",
        -8.737656593322754
      ],
      [
        "▁وبارك",
        -8.7402925491333
      ],
      [
        "يم",
        -8.740324974060059
      ],
      [
        "▁فات",
        -8.740974426269531
      ],
      [
        "▁بكالوريا",
        -8.741429328918457
      ],
      [
        "🤲",
        -8.742669105529785
      ],
      [
        "▁علم",
        -8.743192672729492
      ],
      [
        "بل",
        -8.743537902832031
      ],
      [
        "اه",
        -8.743788719177246
      ],
      [
        "يب",
        -8.744242668151855
      ],
      [
        "▁B",
        -8.744264602661133
      ],
      [
        "▁الرحمن",
        -8.744768142700195
      ],
      [
        "▁وليت",
        -8.745821952819824
      ],
      [
        "▁درس",
        -8.74786376953125
      ],
      [
        "▁لهم",
        -8.74914836883545
      ],
      [
        "▁صل",
        -8.749499320983887
      ],
      [
        "▁عندما",
        -8.749735832214355
      ],
      [
        "▁ساعة",
        -8.749974250793457
      ],
      [
        "▁ليوم",
        -8.751249313354492
      ],
      [
        "😢😢",
        -8.75200366973877
      ],
      [
        "▁مليون",
        -8.75484561920166
      ],
      [
        "in",
        -8.75570297241211
      ],
      [
        "▁شا",
        -8.755765914916992
      ],
      [
        "▁طريق",
        -8.757073402404785
      ],
      [
        "انا",
        -8.757494926452637
      ],
      [
        "▁رضي",
        -8.758132934570312
      ],
      [
        "re",
        -8.758326530456543
      ],
      [
        "▁بم",
        -8.758485794067383
      ],
      [
        "▁جن",
        -8.759252548217773
      ],
      [
        "▁طيبة",
        -8.759888648986816
      ],
      [
        "▁اتمنى",
        -8.761220932006836
      ],
      [
        "▁تدي",
        -8.761249542236328
      ],
      [
        "▁اله",
        -8.765397071838379
      ],
      [
        "▁أما",
        -8.76550006866455
      ],
      [
        "▁جديدة",
        -8.765581130981445
      ],
      [
        "▁شوي",
        -8.766146659851074
      ],
      [
        "+",
        -8.766337394714355
      ],
      [
        "▁ياارب",
        -8.770066261291504
      ],
      [
        "وب",
        -8.77071762084961
      ],
      [
        "▁😭😭",
        -8.771451950073242
      ],
      [
        "صر",
        -8.774163246154785
      ],
      [
        "▁يحب",
        -8.774712562561035
      ],
      [
        "▁ايا",
        -8.774847030639648
      ],
      [
        "▁عندها",
        -8.776655197143555
      ],
      [
        "▁ش",
        -8.777153968811035
      ],
      [
        "رت",
        -8.777434349060059
      ],
      [
        "▁شوية",
        -8.781196594238281
      ],
      [
        "ود",
        -8.783591270446777
      ],
      [
        "▁!!",
        -8.783714294433594
      ],
      [
        "▁خلاص",
        -8.784383773803711
      ],
      [
        "▁تقدر",
        -8.788984298706055
      ],
      [
        "ti",
        -8.791090965270996
      ],
      [
        "▁الدار",
        -8.791727066040039
      ],
      [
        "▁كاش",
        -8.792421340942383
      ],
      [
        "▁12",
        -8.792760848999023
      ],
      [
        "▁انه",
        -8.792884826660156
      ],
      [
        "يس",
        -8.793259620666504
      ],
      [
        "▁الرعب",
        -8.793289184570312
      ],
      [
        "▁بخير",
        -8.794337272644043
      ],
      [
        "مة",
        -8.794626235961914
      ],
      [
        "▁كم",
        -8.795990943908691
      ],
      [
        "▁مان",
        -8.797473907470703
      ],
      [
        "▁شابة",
        -8.800753593444824
      ],
      [
        "▁😭",
        -8.803075790405273
      ],
      [
        "سي",
        -8.80400562286377
      ],
      [
        "▁معا",
        -8.805168151855469
      ],
      [
        "▁يعرف",
        -8.806318283081055
      ],
      [
        "ناش",
        -8.807846069335938
      ],
      [
        "كي",
        -8.809646606445312
      ],
      [
        "▁شكراا",
        -8.813374519348145
      ],
      [
        "▁تجي",
        -8.814960479736328
      ],
      [
        "اني",
        -8.815393447875977
      ],
      [
        "▁شاءلله",
        -8.816044807434082
      ],
      [
        "▁سا",
        -8.816624641418457
      ],
      [
        "▁شعب",
        -8.817048072814941
      ],
      [
        "▁فرحة",
        -8.817694664001465
      ],
      [
        "▁معانا",
        -8.819436073303223
      ],
      [
        "▁السنة",
        -8.819478988647461
      ],
      [
        "▁حيث",
        -8.820037841796875
      ],
      [
        "▁فلسطين",
        -8.820125579833984
      ],
      [
        "▁مقترحات",
        -8.823175430297852
      ],
      [
        "اج",
        -8.823763847351074
      ],
      [
        "▁ج",
        -8.824861526489258
      ],
      [
        "▁العمل",
        -8.824990272521973
      ],
      [
        "▁لايك",
        -8.825382232666016
      ],
      [
        "▁بدون",
        -8.827978134155273
      ],
      [
        "بر",
        -8.829136848449707
      ],
      [
        "▁حسب",
        -8.829699516296387
      ],
      [
        "▁فيديوهات",
        -8.831252098083496
      ],
      [
        "▁وإن",
        -8.833267211914062
      ],
      [
        "▁j",
        -8.834376335144043
      ],
      [
        "ed",
        -8.83727741241455
      ],
      [
        "é",
        -8.837920188903809
      ],
      [
        "▁فيكم",
        -8.838740348815918
      ],
      [
        "▁نورمال",
        -8.839937210083008
      ],
      [
        "▁ديري",
        -8.840060234069824
      ],
      [
        "▁حب",
        -8.84239387512207
      ],
      [
        "▁ولد",
        -8.843873023986816
      ],
      [
        "كل",
        -8.84530258178711
      ],
      [
        "رو",
        -8.845850944519043
      ],
      [
        "▁وعليكم",
        -8.846278190612793
      ],
      [
        "▁دي",
        -8.846522331237793
      ],
      [
        "es",
        -8.846697807312012
      ],
      [
        "عة",
        -8.84670639038086
      ],
      [
        "▁بسم",
        -8.85150146484375
      ],
      [
        "▁خوتي",
        -8.851865768432617
      ],
      [
        "▁أحد",
        -8.854269027709961
      ],
      [
        "بة",
        -8.8552827835083
      ],
      [
        "▁كبيرة",
        -8.855978012084961
      ],
      [
        "▁=",
        -8.856629371643066
      ],
      [
        "هاش",
        -8.858006477355957
      ],
      [
        "▁فإن",
        -8.858719825744629
      ],
      [
        "▁انسان",
        -8.859185218811035
      ],
      [
        "▁دخل",
        -8.859633445739746
      ],
      [
        "▁محل",
        -8.859641075134277
      ],
      [
        "▁هكذا",
        -8.859907150268555
      ],
      [
        "▁منك",
        -8.862337112426758
      ],
      [
        "هل",
        -8.86335277557373
      ],
      [
        "▁14",
        -8.86847972869873
      ],
      [
        "▁20",
        -8.868814468383789
      ],
      [
        "💔",
        -8.870070457458496
      ],
      [
        "▁سورة",
        -8.873831748962402
      ],
      [
        "▁راكم",
        -8.87480640411377
      ],
      [
        "▁بابا",
        -8.874969482421875
      ],
      [
        "حي",
        -8.876296043395996
      ],
      [
        "▁‏",
        -8.876761436462402
      ],
      [
        "▁هيا",
        -8.876983642578125
      ],
      [
        "▁دخلت",
        -8.880123138427734
      ],
      [
        "▁قريب",
        -8.881771087646484
      ],
      [
        "it",
        -8.883251190185547
      ],
      [
        "▁وقال",
        -8.883447647094727
      ],
      [
        "▁ou",
        -8.883516311645508
      ],
      [
        "▁جات",
        -8.886137008666992
      ],
      [
        "▁شر",
        -8.886338233947754
      ],
      [
        "▁سلم",
        -8.886406898498535
      ],
      [
        "▁جد",
        -8.887738227844238
      ],
      [
        "▁رد",
        -8.888134002685547
      ],
      [
        "▁8",
        -8.888328552246094
      ],
      [
        "▁فعل",
        -8.889015197753906
      ],
      [
        "▁وحدي",
        -8.889036178588867
      ],
      [
        "ri",
        -8.890432357788086
      ],
      [
        "▁الجزء",
        -8.89056396484375
      ],
      [
        "▁أبي",
        -8.891093254089355
      ],
      [
        "▁قول",
        -8.894493103027344
      ],
      [
        "▁تحب",
        -8.894597053527832
      ],
      [
        "▁هاذا",
        -8.894843101501465
      ],
      [
        "▁جميل",
        -8.895060539245605
      ],
      [
        "▁زعما",
        -8.895537376403809
      ],
      [
        "▁T",
        -8.895719528198242
      ],
      [
        "▁الليل",
        -8.895877838134766
      ],
      [
        "▁عجبتني",
        -8.897788047790527
      ],
      [
        "ya",
        -8.89780330657959
      ],
      [
        "▁مثلا",
        -8.9014892578125
      ],
      [
        "▁وقد",
        -8.902383804321289
      ],
      [
        "▁جميعا",
        -8.902597427368164
      ],
      [
        "▁عودة",
        -8.906988143920898
      ],
      [
        "▁بش",
        -8.907060623168945
      ],
      [
        "▁تاعي",
        -8.908868789672852
      ],
      [
        "🎉",
        -8.909828186035156
      ],
      [
        "▁ذكر",
        -8.911951065063477
      ],
      [
        "▁أول",
        -8.91325855255127
      ],
      [
        "▁وليس",
        -8.91395378112793
      ],
      [
        "▁🎉",
        -8.91482925415039
      ],
      [
        "▁الوكيل",
        -8.917336463928223
      ],
      [
        "▁القلب",
        -8.919095039367676
      ],
      [
        "▁الكثير",
        -8.91972827911377
      ],
      [
        "▁تعليق",
        -8.921697616577148
      ],
      [
        "▁مل",
        -8.922148704528809
      ],
      [
        "▁القمة",
        -8.923285484313965
      ],
      [
        "▁مواضيع",
        -8.92354679107666
      ],
      [
        "▁عندنا",
        -8.924290657043457
      ],
      [
        "ad",
        -8.927197456359863
      ],
      [
        "حب",
        -8.927544593811035
      ],
      [
        "▁وانت",
        -8.928046226501465
      ],
      [
        "دة",
        -8.928934097290039
      ],
      [
        "▁S",
        -8.929092407226562
      ],
      [
        "▁ني",
        -8.93012809753418
      ],
      [
        "▁عز",
        -8.930252075195312
      ],
      [
        "▁د",
        -8.93032169342041
      ],
      [
        "▁فأ",
        -8.930340766906738
      ],
      [
        "▁هدي",
        -8.931047439575195
      ],
      [
        "▁بركاته",
        -8.931507110595703
      ],
      [
        "▁الفاضل",
        -8.932601928710938
      ],
      [
        "ak",
        -8.93278980255127
      ],
      [
        "با",
        -8.934085845947266
      ],
      [
        "▁والا",
        -8.93435001373291
      ],
      [
        "▁هذاك",
        -8.935595512390137
      ],
      [
        "▁بالم",
        -8.935857772827148
      ],
      [
        "▁نا",
        -8.936656951904297
      ],
      [
        "▁حر",
        -8.937121391296387
      ],
      [
        "▁عدد",
        -8.937517166137695
      ],
      [
        "▁رح",
        -8.937836647033691
      ],
      [
        "▁حي",
        -8.941483497619629
      ],
      [
        "دو",
        -8.942825317382812
      ],
      [
        "▁ابوني",
        -8.94340705871582
      ],
      [
        "تين",
        -8.943482398986816
      ],
      [
        "▁مسلم",
        -8.943660736083984
      ],
      [
        "لم",
        -8.943999290466309
      ],
      [
        "️",
        -8.944337844848633
      ],
      [
        "اتك",
        -8.947094917297363
      ],
      [
        "دا",
        -8.947270393371582
      ],
      [
        "▁تاريخ",
        -8.947683334350586
      ],
      [
        "▁تحية",
        -8.947867393493652
      ],
      [
        "جر",
        -8.94967269897461
      ],
      [
        "▁لقد",
        -8.950003623962402
      ],
      [
        "▁تهدر",
        -8.95557689666748
      ],
      [
        "يلي",
        -8.956952095031738
      ],
      [
        "▁مكاش",
        -8.958000183105469
      ],
      [
        "=",
        -8.95954418182373
      ],
      [
        "▁to",
        -8.961177825927734
      ],
      [
        "▁الجزائري",
        -8.963244438171387
      ],
      [
        "▁مال",
        -8.963615417480469
      ],
      [
        "▁سن",
        -8.965435028076172
      ],
      [
        "▁رائعة",
        -8.965438842773438
      ],
      [
        "وف",
        -8.965679168701172
      ],
      [
        "الم",
        -8.965742111206055
      ],
      [
        "▁الحل",
        -8.9664945602417
      ],
      [
        "▁نور",
        -8.968572616577148
      ],
      [
        "▁راجل",
        -8.968833923339844
      ],
      [
        "at",
        -8.969442367553711
      ],
      [
        "▁نموت",
        -8.970298767089844
      ],
      [
        "▁فقد",
        -8.9705171585083
      ],
      [
        "▁مشكل",
        -8.971954345703125
      ],
      [
        "▁تعيشي",
        -8.971955299377441
      ],
      [
        "▁شكر",
        -8.97271728515625
      ],
      [
        "▁ينجحك",
        -8.973115921020508
      ],
      [
        "di",
        -8.97314739227295
      ],
      [
        "وت",
        -8.973334312438965
      ],
      [
        "▁واصل",
        -8.973563194274902
      ],
      [
        "▁الجلفة",
        -8.973872184753418
      ],
      [
        "▁أخرى",
        -8.974197387695312
      ],
      [
        "▁يرحمها",
        -8.976012229919434
      ],
      [
        "▁عل",
        -8.976706504821777
      ],
      [
        "▁تحيا",
        -8.977011680603027
      ],
      [
        "▁نروح",
        -8.978631019592285
      ],
      [
        "دين",
        -8.979498863220215
      ],
      [
        "▁😍",
        -8.979598999023438
      ],
      [
        "▁قسم",
        -8.979826927185059
      ],
      [
        "▁كن",
        -8.981674194335938
      ],
      [
        "▁كتب",
        -8.981902122497559
      ],
      [
        "▁حرام",
        -8.98254680633545
      ],
      [
        "▁العربي",
        -8.982584953308105
      ],
      [
        "▁i",
        -8.982939720153809
      ],
      [
        "ta",
        -8.983177185058594
      ],
      [
        "▁نفهم",
        -8.984774589538574
      ],
      [
        "▁تجيب",
        -8.984877586364746
      ],
      [
        "ni",
        -8.985238075256348
      ],
      [
        "▁الصح",
        -8.985301971435547
      ],
      [
        "▁🇩🇿",
        -8.986940383911133
      ],
      [
        "يف",
        -8.987144470214844
      ],
      [
        "فت",
        -8.987678527832031
      ],
      [
        "\r",
        -8.988322257995605
      ],
      [
        "رد",
        -8.988563537597656
      ],
      [
        "▁مازال",
        -8.988777160644531
      ],
      [
        "قت",
        -8.988981246948242
      ],
      [
        "▁الش",
        -8.989012718200684
      ],
      [
        "▁حتا",
        -8.98957347869873
      ],
      [
        "▁ايام",
        -8.989760398864746
      ],
      [
        "ir",
        -8.990413665771484
      ],
      [
        "▁تخوف",
        -8.99087142944336
      ],
      [
        "▁بلييز",
        -8.991072654724121
      ],
      [
        "يها",
        -8.991296768188477
      ],
      [
        "▁مشاء",
        -8.9915132522583
      ],
      [
        "▁قل",
        -8.995036125183105
      ],
      [
        "▁مرا",
        -8.995481491088867
      ],
      [
        "▁المشكل",
        -8.996213912963867
      ],
      [
        "▁قلب",
        -8.996353149414062
      ],
      [
        "▁هادا",
        -8.996980667114258
      ],
      [
        "▁مليحة",
        -8.998723030090332
      ],
      [
        "▁مستجابة",
        -8.999979972839355
      ],
      [
        "لت",
        -9.000093460083008
      ],
      [
        "▁طول",
        -9.000188827514648
      ],
      [
        "بت",
        -9.000578880310059
      ],
      [
        "▁L",
        -9.000868797302246
      ],
      [
        "اح",
        -9.000911712646484
      ],
      [
        "▁عين",
        -9.00101375579834
      ],
      [
        "▁داير",
        -9.001419067382812
      ],
      [
        "▁وأن",
        -9.001429557800293
      ],
      [
        "▁أمين",
        -9.004753112792969
      ],
      [
        "فر",
        -9.006378173828125
      ],
      [
        "؛",
        -9.010595321655273
      ],
      [
        "▁نفسي",
        -9.010870933532715
      ],
      [
        "▁جامي",
        -9.011363983154297
      ],
      [
        "▁ألف",
        -9.011500358581543
      ],
      [
        "كون",
        -9.011648178100586
      ],
      [
        "▁اهل",
        -9.011858940124512
      ],
      [
        "وهم",
        -9.012834548950195
      ],
      [
        "▁ڨاع",
        -9.013286590576172
      ],
      [
        "▁كنا",
        -9.014274597167969
      ],
      [
        "▁شوف",
        -9.014592170715332
      ],
      [
        "▁اخرى",
        -9.01499080657959
      ],
      [
        "▁ونعم",
        -9.016332626342773
      ],
      [
        "▁تشوف",
        -9.01707935333252
      ],
      [
        "▁رحت",
        -9.018818855285645
      ],
      [
        "▁هذو",
        -9.019368171691895
      ],
      [
        "▁#",
        -9.019898414611816
      ],
      [
        "▁قريت",
        -9.020176887512207
      ],
      [
        "▁نسيت",
        -9.020856857299805
      ],
      [
        "▁غ",
        -9.020873069763184
      ],
      [
        "فا",
        -9.020893096923828
      ],
      [
        "▁خوف",
        -9.021729469299316
      ],
      [
        "▁te",
        -9.022868156433105
      ],
      [
        "▁آ",
        -9.022968292236328
      ],
      [
        "▁بو",
        -9.02392292022705
      ],
      [
        "▁ليلة",
        -9.023962020874023
      ],
      [
        "▁40",
        -9.024333953857422
      ],
      [
        "▁وكان",
        -9.02474308013916
      ],
      [
        "▁❤️❤️",
        -9.026487350463867
      ],
      [
        "▁صغير",
        -9.027960777282715
      ],
      [
        "▁ولو",
        -9.028029441833496
      ],
      [
        "بو",
        -9.028865814208984
      ],
      [
        "▁اريد",
        -9.0292329788208
      ],
      [
        "🥺",
        -9.029354095458984
      ],
      [
        "▁لانو",
        -9.030638694763184
      ],
      [
        "صح",
        -9.031075477600098
      ],
      [
        "▁ها",
        -9.032214164733887
      ],
      [
        "▁ملي",
        -9.032597541809082
      ],
      [
        "▁عمل",
        -9.032910346984863
      ],
      [
        "▁لمن",
        -9.0339994430542
      ],
      [
        "▁نبدا",
        -9.034344673156738
      ],
      [
        "😍",
        -9.035595893859863
      ],
      [
        "در",
        -9.036605834960938
      ],
      [
        "▁?",
        -9.036966323852539
      ],
      [
        "▁باقي",
        -9.036966323852539
      ],
      [
        "▁التوفيق",
        -9.037379264831543
      ],
      [
        "▁نوع",
        -9.038725852966309
      ],
      [
        "le",
        -9.038938522338867
      ],
      [
        "▁✨",
        -9.039899826049805
      ],
      [
        "▁حياتك",
        -9.041712760925293
      ],
      [
        "!!",
        -9.042436599731445
      ],
      [
        "قة",
        -9.042661666870117
      ],
      [
        "▁معاه",
        -9.043734550476074
      ],
      [
        "▁صحا",
        -9.044219017028809
      ],
      [
        "▁حياتي",
        -9.045842170715332
      ],
      [
        "▁رغم",
        -9.04588508605957
      ],
      [
        "▁والسلام",
        -9.046570777893066
      ],
      [
        "▁تعليقي",
        -9.04812240600586
      ],
      [
        "da",
        -9.04854679107666
      ],
      [
        "▁وفلسفة",
        -9.048877716064453
      ],
      [
        "▁جزء",
        -9.048990249633789
      ],
      [
        "▁كانو",
        -9.049129486083984
      ],
      [
        "▁خاص",
        -9.049208641052246
      ],
      [
        "▁لفيديو",
        -9.049247741699219
      ],
      [
        "▁اعلم",
        -9.050135612487793
      ],
      [
        "▁الس",
        -9.050481796264648
      ],
      [
        "▁الرد",
        -9.05111312866211
      ],
      [
        "▁je",
        -9.05342960357666
      ],
      [
        "▁ki",
        -9.054073333740234
      ],
      [
        "▁الاستاذ",
        -9.055194854736328
      ],
      [
        "’",
        -9.056570053100586
      ],
      [
        "▁بلاك",
        -9.056656837463379
      ],
      [
        "▁جميلة",
        -9.056779861450195
      ],
      [
        "▁يوجد",
        -9.057180404663086
      ],
      [
        "▁فكرة",
        -9.058013916015625
      ],
      [
        "ing",
        -9.058300018310547
      ],
      [
        "دير",
        -9.059121131896973
      ],
      [
        "▁خفت",
        -9.059843063354492
      ],
      [
        "▁الأول",
        -9.059959411621094
      ],
      [
        "▁الجميع",
        -9.062738418579102
      ],
      [
        "est",
        -9.06400203704834
      ],
      [
        "▁مين",
        -9.06425666809082
      ],
      [
        "حل",
        -9.065895080566406
      ],
      [
        "او",
        -9.067458152770996
      ],
      [
        "en",
        -9.0689697265625
      ],
      [
        "▁C",
        -9.070408821105957
      ],
      [
        "▁شاءالله",
        -9.07392406463623
      ],
      [
        "▁ايضا",
        -9.074256896972656
      ],
      [
        "▁مد",
        -9.074440002441406
      ],
      [
        "▁يرزقك",
        -9.07586669921875
      ],
      [
        "وال",
        -9.0761137008667
      ],
      [
        "▁en",
        -9.076354026794434
      ],
      [
        "▁غريب",
        -9.078108787536621
      ],
      [
        "▁مس",
        -9.078190803527832
      ],
      [
        "▁قالت",
        -9.078755378723145
      ],
      [
        "▁عندهم",
        -9.0790433883667
      ],
      [
        "ek",
        -9.079927444458008
      ],
      [
        "▁الدعاء",
        -9.081330299377441
      ],
      [
        "▁والديك",
        -9.081794738769531
      ],
      [
        "▁باذن",
        -9.081859588623047
      ],
      [
        "▁الإسلام",
        -9.082300186157227
      ],
      [
        "يني",
        -9.083700180053711
      ],
      [
        "▁رقم",
        -9.084935188293457
      ],
      [
        "▁لعزيز",
        -9.085346221923828
      ],
      [
        "قو",
        -9.085411071777344
      ],
      [
        "▁المت",
        -9.086902618408203
      ],
      [
        "▁video",
        -9.087050437927246
      ],
      [
        "▁الح",
        -9.087791442871094
      ],
      [
        "اق",
        -9.088106155395508
      ],
      [
        "▁المغرب",
        -9.088665962219238
      ],
      [
        "▁بكري",
        -9.089576721191406
      ],
      [
        "▁الدروس",
        -9.090641021728516
      ],
      [
        "هن",
        -9.09243106842041
      ],
      [
        "▁نصيحة",
        -9.093831062316895
      ],
      [
        "▁نديرو",
        -9.095035552978516
      ],
      [
        "▁يجيب",
        -9.0954008102417
      ],
      [
        "▁سبب",
        -9.095402717590332
      ],
      [
        "▁لينا",
        -9.095601081848145
      ],
      [
        "▁كلام",
        -9.096607208251953
      ],
      [
        "▁ديت",
        -9.096693992614746
      ],
      [
        "▁bac",
        -9.097001075744629
      ],
      [
        "▁نفسه",
        -9.097539901733398
      ],
      [
        "اللهم",
        -9.09759521484375
      ],
      [
        "فل",
        -9.098121643066406
      ],
      [
        "ارة",
        -9.099339485168457
      ],
      [
        "?",
        -9.100074768066406
      ],
      [
        "▁ريضا",
        -9.102757453918457
      ],
      [
        "▁🤍",
        -9.102861404418945
      ],
      [
        "▁وزيد",
        -9.103836059570312
      ],
      [
        "▁عمي",
        -9.105302810668945
      ],
      [
        "▁اداب",
        -9.105490684509277
      ],
      [
        "▁طلب",
        -9.106292724609375
      ],
      [
        "▁سلسلة",
        -9.10643482208252
      ],
      [
        "▁تعلم",
        -9.108006477355957
      ],
      [
        "▁in",
        -9.111705780029297
      ],
      [
        "مر",
        -9.112249374389648
      ],
      [
        "▁القناة",
        -9.112351417541504
      ],
      [
        "لكم",
        -9.11413288116455
      ],
      [
        "▁«",
        -9.115280151367188
      ],
      [
        "وع",
        -9.115342140197754
      ],
      [
        "▁خاطر",
        -9.116205215454102
      ],
      [
        "▁وجزاك",
        -9.116532325744629
      ],
      [
        "▁😅😅",
        -9.116703033447266
      ],
      [
        "▁بأن",
        -9.116778373718262
      ],
      [
        "▁يخليك",
        -9.117189407348633
      ],
      [
        "▁دا",
        -9.117562294006348
      ],
      [
        "▁el",
        -9.118553161621094
      ],
      [
        "▁اغفر",
        -9.119171142578125
      ],
      [
        "▁لكي",
        -9.11935043334961
      ],
      [
        "▁وجه",
        -9.120400428771973
      ],
      [
        "▁11",
        -9.120548248291016
      ],
      [
        "قال",
        -9.121395111083984
      ],
      [
        "▁ادا",
        -9.121572494506836
      ],
      [
        "▁لأ",
        -9.12309455871582
      ],
      [
        "▁ربما",
        -9.123257637023926
      ],
      [
        "▁لحكاية",
        -9.123984336853027
      ],
      [
        "▁اكبر",
        -9.125043869018555
      ],
      [
        "▁ليست",
        -9.12511920928955
      ],
      [
        "ڨ",
        -9.125753402709961
      ],
      [
        "▁لدي",
        -9.1259183883667
      ],
      [
        "▁قدر",
        -9.126655578613281
      ],
      [
        "▁شاف",
        -9.127090454101562
      ],
      [
        "تر",
        -9.127792358398438
      ],
      [
        "il",
        -9.12814998626709
      ],
      [
        "▁رجل",
        -9.128716468811035
      ],
      [
        "el",
        -9.128983497619629
      ],
      [
        "ba",
        -9.129110336303711
      ],
      [
        "▁يدي",
        -9.130298614501953
      ],
      [
        "▁البيت",
        -9.130329132080078
      ],
      [
        "▁🤲🤲",
        -9.130940437316895
      ],
      [
        "▁ولكل",
        -9.131237983703613
      ],
      [
        "▁النار",
        -9.131308555603027
      ],
      [
        "▁مفهمتش",
        -9.131507873535156
      ],
      [
        "▁بسبب",
        -9.133635520935059
      ],
      [
        "▁مبارك",
        -9.134113311767578
      ],
      [
        "▁راكليطا",
        -9.1356201171875
      ],
      [
        "ar",
        -9.135687828063965
      ],
      [
        "▁تاعو",
        -9.135838508605957
      ],
      [
        "▁معنا",
        -9.136072158813477
      ],
      [
        "▁me",
        -9.136151313781738
      ],
      [
        "▁باينة",
        -9.137202262878418
      ],
      [
        "▁خلال",
        -9.137276649475098
      ],
      [
        "▁هادو",
        -9.137733459472656
      ],
      [
        "▁أتمنى",
        -9.137981414794922
      ],
      [
        "M",
        -9.138291358947754
      ],
      [
        "▁تخرج",
        -9.138651847839355
      ],
      [
        "فة",
        -9.138903617858887
      ],
      [
        "▁ديما",
        -9.139613151550293
      ],
      [
        "▁المرأة",
        -9.139616012573242
      ],
      [
        "▁لول",
        -9.139714241027832
      ],
      [
        "▁فهو",
        -9.140339851379395
      ],
      [
        "🤍",
        -9.140579223632812
      ],
      [
        "▁الق",
        -9.140995025634766
      ],
      [
        "ولا",
        -9.141746520996094
      ],
      [
        "▁اليوتيوب",
        -9.142525672912598
      ],
      [
        "▁فديو",
        -9.142709732055664
      ],
      [
        "▁احد",
        -9.14407730102539
      ],
      [
        "مو",
        -9.144797325134277
      ],
      [
        "▁داخل",
        -9.145085334777832
      ],
      [
        "▁الحقيقة",
        -9.14579963684082
      ],
      [
        "▁صالح",
        -9.1465425491333
      ],
      [
        "▁ديرو",
        -9.146787643432617
      ],
      [
        "te",
        -9.14718246459961
      ],
      [
        "▁is",
        -9.147538185119629
      ],
      [
        "▁أيضا",
        -9.148114204406738
      ],
      [
        "▁هاذو",
        -9.148889541625977
      ],
      [
        "▁يدخل",
        -9.150490760803223
      ],
      [
        "عرف",
        -9.150606155395508
      ],
      [
        "▁اجمعين",
        -9.151359558105469
      ],
      [
        "زي",
        -9.152626991271973
      ],
      [
        "▁🥺",
        -9.155614852905273
      ],
      [
        "▁h",
        -9.155725479125977
      ],
      [
        "am",
        -9.156009674072266
      ],
      [
        "▁sa",
        -9.157365798950195
      ],
      [
        "▁جزائري",
        -9.158405303955078
      ],
      [
        "▁اا",
        -9.159256935119629
      ],
      [
        "نة",
        -9.159797668457031
      ],
      [
        "▁لغات",
        -9.160313606262207
      ],
      [
        "▁نجيبو",
        -9.160521507263184
      ],
      [
        "▁ريدكس",
        -9.160685539245605
      ],
      [
        "▁صغيرة",
        -9.161620140075684
      ],
      [
        "يح",
        -9.161979675292969
      ],
      [
        "▁شيكور",
        -9.16224193572998
      ],
      [
        "▁ننجحو",
        -9.16245174407959
      ],
      [
        "▁دعواتكم",
        -9.16401195526123
      ],
      [
        "▁فت",
        -9.164641380310059
      ],
      [
        "▁صاحب",
        -9.16472339630127
      ],
      [
        "▁النص",
        -9.164972305297852
      ],
      [
        "▁نو",
        -9.165130615234375
      ],
      [
        "▁اصلا",
        -9.166594505310059
      ],
      [
        "▁دراهم",
        -9.167104721069336
      ],
      [
        "▁2023",
        -9.172957420349121
      ],
      [
        "▁_",
        -9.173325538635254
      ],
      [
        "▁wa",
        -9.173458099365234
      ],
      [
        "▁ندخل",
        -9.174370765686035
      ],
      [
        "▁باب",
        -9.174592018127441
      ],
      [
        "▁بس",
        -9.17508316040039
      ],
      [
        "▁ات",
        -9.176602363586426
      ],
      [
        "▁منه",
        -9.17723274230957
      ],
      [
        "▁عربية",
        -9.178241729736328
      ],
      [
        "كتب",
        -9.178842544555664
      ],
      [
        "▁السحر",
        -9.179706573486328
      ],
      [
        "▁rabi",
        -9.179886817932129
      ],
      [
        "▁الادب",
        -9.180170059204102
      ],
      [
        "▁حسن",
        -9.181448936462402
      ],
      [
        "▁and",
        -9.182156562805176
      ],
      [
        "or",
        -9.182379722595215
      ],
      [
        "▁لماذا",
        -9.182835578918457
      ],
      [
        "▁فهم",
        -9.183659553527832
      ],
      [
        "▁اس",
        -9.184433937072754
      ],
      [
        "▁سر",
        -9.184492111206055
      ],
      [
        "▁تلك",
        -9.184591293334961
      ],
      [
        "جد",
        -9.185125350952148
      ],
      [
        "همش",
        -9.185171127319336
      ],
      [
        "▁🎉🎉",
        -9.186090469360352
      ],
      [
        "▁N",
        -9.186519622802734
      ],
      [
        "▁13",
        -9.186798095703125
      ],
      [
        "▁فقال",
        -9.18770980834961
      ],
      [
        "▁للجميع",
        -9.187959671020508
      ],
      [
        "▁فى",
        -9.188417434692383
      ],
      [
        "▁pour",
        -9.188445091247559
      ],
      [
        "قد",
        -9.190568923950195
      ],
      [
        "▁نكون",
        -9.190637588500977
      ],
      [
        "▁الرجل",
        -9.194231033325195
      ],
      [
        "▁كثير",
        -9.194258689880371
      ],
      [
        "▁التعليق",
        -9.19431209564209
      ],
      [
        "▁💔",
        -9.194968223571777
      ],
      [
        "▁الج",
        -9.195773124694824
      ],
      [
        "▁ga",
        -9.19646167755127
      ],
      [
        "▁ارجو",
        -9.196480751037598
      ],
      [
        "▁يديرو",
        -9.197019577026367
      ],
      [
        "▁نفسك",
        -9.197925567626953
      ],
      [
        "▁فضلكم",
        -9.198066711425781
      ],
      [
        "▁سأ",
        -9.20121955871582
      ],
      [
        "▁الحديث",
        -9.201407432556152
      ],
      [
        "▁منذ",
        -9.201690673828125
      ],
      [
        "▁دور",
        -9.20176887512207
      ],
      [
        "▁الخوف",
        -9.202064514160156
      ],
      [
        "▁ينجح",
        -9.202624320983887
      ],
      [
        "▁أستاذة",
        -9.20351791381836
      ],
      [
        "اط",
        -9.20412540435791
      ],
      [
        "▁يشوف",
        -9.204230308532715
      ],
      [
        "▁نجاح",
        -9.205480575561523
      ],
      [
        "▁ين",
        -9.205587387084961
      ],
      [
        "▁ط",
        -9.206828117370605
      ],
      [
        "▁أعلم",
        -9.206995964050293
      ],
      [
        "▁انتي",
        -9.207526206970215
      ],
      [
        "سر",
        -9.208276748657227
      ],
      [
        "▁ممتاز",
        -9.208592414855957
      ],
      [
        "▁نتوما",
        -9.208847045898438
      ],
      [
        "▁W",
        -9.20924186706543
      ],
      [
        "▁يفرحك",
        -9.209912300109863
      ],
      [
        "قل",
        -9.209972381591797
      ],
      [
        "▁للباك",
        -9.210809707641602
      ],
      [
        "قول",
        -9.21150016784668
      ],
      [
        "▁عدم",
        -9.211868286132812
      ],
      [
        "▁مرت",
        -9.213105201721191
      ],
      [
        "▁H",
        -9.214336395263672
      ],
      [
        "▁الثانية",
        -9.214488983154297
      ],
      [
        "جا",
        -9.216114044189453
      ],
      [
        "▁الجزائرية",
        -9.216790199279785
      ],
      [
        "▁الرسول",
        -9.2169771194458
      ],
      [
        "▁قمة",
        -9.21828556060791
      ],
      [
        "شي",
        -9.219758033752441
      ],
      [
        "▁توحشناك",
        -9.220145225524902
      ],
      [
        "▁نسقسيك",
        -9.220149993896484
      ],
      [
        "▁نفرح",
        -9.221548080444336
      ],
      [
        "▁جاء",
        -9.221565246582031
      ],
      [
        "▁مما",
        -9.221834182739258
      ],
      [
        "▁طفلة",
        -9.222539901733398
      ],
      [
        "▁خلق",
        -9.22301197052002
      ],
      [
        "▁غدوة",
        -9.224454879760742
      ],
      [
        "▁أمر",
        -9.22546672821045
      ],
      [
        "▁ز",
        -9.226441383361816
      ],
      [
        "▁الشكر",
        -9.227569580078125
      ],
      [
        "▁عنها",
        -9.227910995483398
      ],
      [
        "يتي",
        -9.228154182434082
      ],
      [
        "▁بيهم",
        -9.228582382202148
      ],
      [
        "▁وكي",
        -9.22938346862793
      ],
      [
        "▁تقبل",
        -9.229623794555664
      ],
      [
        "▁سيد",
        -9.230445861816406
      ],
      [
        "▁هايل",
        -9.231361389160156
      ],
      [
        "▁مو",
        -9.232475280761719
      ],
      [
        "▁الإنسان",
        -9.232853889465332
      ],
      [
        "▁يهدر",
        -9.233976364135742
      ],
      [
        "▁جبت",
        -9.234402656555176
      ],
      [
        "▁خرج",
        -9.235190391540527
      ],
      [
        "نت",
        -9.23550796508789
      ],
      [
        "▁حط",
        -9.236611366271973
      ],
      [
        "▁الرحيم",
        -9.236983299255371
      ],
      [
        "▁عرفت",
        -9.237088203430176
      ],
      [
        "▁Hhh",
        -9.237360954284668
      ],
      [
        "▁الحال",
        -9.237565994262695
      ],
      [
        "▁جملة",
        -9.239070892333984
      ],
      [
        "▁كذلك",
        -9.239092826843262
      ],
      [
        "▁الص",
        -9.239163398742676
      ],
      [
        "عا",
        -9.239706993103027
      ],
      [
        "▁الآن",
        -9.239862442016602
      ],
      [
        "▁بدا",
        -9.242084503173828
      ],
      [
        "▁قادة",
        -9.243148803710938
      ],
      [
        "▁الر",
        -9.24325942993164
      ],
      [
        "▁بأ",
        -9.243866920471191
      ],
      [
        "▁حفظ",
        -9.244791984558105
      ],
      [
        "▁حرة",
        -9.244965553283691
      ],
      [
        "▁رحم",
        -9.245750427246094
      ],
      [
        "▁شغل",
        -9.24765396118164
      ],
      [
        "▁بنات",
        -9.24868106842041
      ],
      [
        "▁الاسلام",
        -9.248741149902344
      ],
      [
        "▁حسيت",
        -9.249088287353516
      ],
      [
        "▁المن",
        -9.249213218688965
      ],
      [
        "▁des",
        -9.25031566619873
      ],
      [
        "▁هاك",
        -9.250469207763672
      ],
      [
        "▁wlh",
        -9.25109577178955
      ],
      [
        "▁الاسئلة",
        -9.254220962524414
      ],
      [
        "▁سحر",
        -9.255616188049316
      ],
      [
        "▁تولي",
        -9.256290435791016
      ],
      [
        "مل",
        -9.259078979492188
      ],
      [
        "نى",
        -9.259540557861328
      ],
      [
        "▁والت",
        -9.261632919311523
      ],
      [
        "😭😭",
        -9.262969970703125
      ],
      [
        "▁وسهلا",
        -9.263677597045898
      ],
      [
        "▁عنده",
        -9.263998031616211
      ],
      [
        "▁ناجحين",
        -9.264229774475098
      ],
      [
        "▁تدخل",
        -9.264505386352539
      ],
      [
        "▁الأمر",
        -9.26513671875
      ],
      [
        "طر",
        -9.269436836242676
      ],
      [
        "▁😊😊",
        -9.269598007202148
      ],
      [
        "▁الاولى",
        -9.27076244354248
      ],
      [
        "▁يرحمو",
        -9.270938873291016
      ],
      [
        "▁صراحة",
        -9.271559715270996
      ],
      [
        "▁حد",
        -9.27221393585205
      ],
      [
        "▁ادعو",
        -9.27230167388916
      ],
      [
        "▁الأرض",
        -9.272555351257324
      ],
      [
        "▁الو",
        -9.27331829071045
      ],
      [
        "💗",
        -9.273721694946289
      ],
      [
        "▁مست",
        -9.274077415466309
      ],
      [
        "▁اين",
        -9.274169921875
      ],
      [
        "▁لهذا",
        -9.27626895904541
      ],
      [
        "▁سنين",
        -9.276576042175293
      ],
      [
        "▁بلادي",
        -9.277029037475586
      ],
      [
        "▁معاكم",
        -9.277864456176758
      ],
      [
        "▁حا",
        -9.27827262878418
      ],
      [
        "فهم",
        -9.280913352966309
      ],
      [
        "▁الطريقة",
        -9.281050682067871
      ],
      [
        "ay",
        -9.282014846801758
      ],
      [
        "▁عالم",
        -9.282197952270508
      ],
      [
        "▁لعام",
        -9.282493591308594
      ],
      [
        "▁دقيقة",
        -9.283699989318848
      ],
      [
        "دخل",
        -9.283966064453125
      ],
      [
        "شكرا",
        -9.284029006958008
      ],
      [
        "▁nta",
        -9.284099578857422
      ],
      [
        "▁منا",
        -9.284774780273438
      ],
      [
        "T",
        -9.286545753479004
      ],
      [
        "▁طيب",
        -9.287360191345215
      ],
      [
        "اف",
        -9.289724349975586
      ],
      [
        "▁خبر",
        -9.289956092834473
      ],
      [
        "▁نعاود",
        -9.29071044921875
      ],
      [
        "▁que",
        -9.291096687316895
      ],
      [
        "مت",
        -9.291171073913574
      ],
      [
        "▁المجهر",
        -9.292213439941406
      ],
      [
        "▁هك",
        -9.29342269897461
      ],
      [
        "هما",
        -9.295572280883789
      ],
      [
        "▁الانسان",
        -9.295872688293457
      ],
      [
        "▁بت",
        -9.29637336730957
      ],
      [
        "▁صورة",
        -9.297237396240234
      ],
      [
        "▁الباب",
        -9.297843933105469
      ],
      [
        "▁نحس",
        -9.298150062561035
      ],
      [
        "▁😍😍",
        -9.299474716186523
      ],
      [
        "▁النهار",
        -9.299930572509766
      ],
      [
        "راك",
        -9.300950050354004
      ],
      [
        "▁باسكو",
        -9.30124568939209
      ],
      [
        "▁يجعل",
        -9.301583290100098
      ],
      [
        "▁تبارك",
        -9.301671981811523
      ],
      [
        "▁جاي",
        -9.301952362060547
      ],
      [
        "▁نشاء",
        -9.302202224731445
      ],
      [
        "جل",
        -9.30279541015625
      ],
      [
        "بن",
        -9.302921295166016
      ],
      [
        "▁J",
        -9.30329418182373
      ],
      [
        "▁فما",
        -9.303973197937012
      ],
      [
        "▁ولاد",
        -9.305569648742676
      ],
      [
        "▁الكلام",
        -9.306083679199219
      ],
      [
        "خير",
        -9.30624771118164
      ],
      [
        "▁اجعل",
        -9.307863235473633
      ],
      [
        "▁علاقة",
        -9.308061599731445
      ],
      [
        "لل",
        -9.309062957763672
      ],
      [
        "▁تروح",
        -9.310723304748535
      ],
      [
        "ئة",
        -9.310731887817383
      ],
      [
        "عت",
        -9.312150001525879
      ],
      [
        "جة",
        -9.312699317932129
      ],
      [
        "▁فلسفة",
        -9.313055992126465
      ],
      [
        "▁mn",
        -9.313129425048828
      ],
      [
        "▁أحسن",
        -9.31315803527832
      ],
      [
        "▁pas",
        -9.314658164978027
      ],
      [
        "تكم",
        -9.314990043640137
      ],
      [
        "▁حديث",
        -9.318014144897461
      ],
      [
        "▁أبو",
        -9.318122863769531
      ],
      [
        "روح",
        -9.318341255187988
      ],
      [
        "to",
        -9.31904411315918
      ],
      [
        "▁شويا",
        -9.319048881530762
      ],
      [
        "▁نرقد",
        -9.31905746459961
      ],
      [
        "▁Ya",
        -9.319765090942383
      ],
      [
        "▁يست",
        -9.3207426071167
      ],
      [
        "▁Bac",
        -9.321060180664062
      ],
      [
        "▁حين",
        -9.321717262268066
      ],
      [
        "▁روطار",
        -9.321791648864746
      ],
      [
        "ذكر",
        -9.323493957519531
      ],
      [
        "▁P",
        -9.323575019836426
      ],
      [
        "▁حكم",
        -9.324930191040039
      ],
      [
        "يق",
        -9.32517147064209
      ],
      [
        "▁k",
        -9.32539176940918
      ],
      [
        "ذا",
        -9.32579517364502
      ],
      [
        "مثل",
        -9.326870918273926
      ],
      [
        "▁انها",
        -9.328109741210938
      ],
      [
        "▁أكبر",
        -9.328656196594238
      ],
      [
        "▁العرب",
        -9.328712463378906
      ],
      [
        "الي",
        -9.330260276794434
      ],
      [
        "▁سهلا",
        -9.330575942993164
      ],
      [
        "▁D",
        -9.330601692199707
      ],
      [
        "▁واه",
        -9.331478118896484
      ],
      [
        "▁التاريخ",
        -9.331541061401367
      ],
      [
        "▁يقدر",
        -9.332324028015137
      ],
      [
        "▁وهل",
        -9.33308219909668
      ],
      [
        "لف",
        -9.334722518920898
      ],
      [
        "▁بهذا",
        -9.334775924682617
      ],
      [
        "▁خرجت",
        -9.336311340332031
      ],
      [
        "▁أنك",
        -9.337453842163086
      ],
      [
        "et",
        -9.33768367767334
      ],
      [
        "▁يس",
        -9.33798599243164
      ],
      [
        "ah",
        -9.339159965515137
      ],
      [
        "▁{",
        -9.339240074157715
      ],
      [
        "▁تحط",
        -9.33938980102539
      ],
      [
        "▁redx",
        -9.340110778808594
      ],
      [
        "▁قلبك",
        -9.340872764587402
      ],
      [
        "▁الثورة",
        -9.341279983520508
      ],
      [
        "an",
        -9.341605186462402
      ],
      [
        "▁كريم",
        -9.342071533203125
      ],
      [
        "يرة",
        -9.343037605285645
      ],
      [
        "▁الأخ",
        -9.343573570251465
      ],
      [
        "▁ركليطة",
        -9.343757629394531
      ],
      [
        "▁جو",
        -9.344350814819336
      ],
      [
        "▁الموت",
        -9.346721649169922
      ],
      [
        "▁نخدم",
        -9.346924781799316
      ],
      [
        "▁ch",
        -9.347796440124512
      ],
      [
        "▁100",
        -9.347877502441406
      ],
      [
        "▁حالة",
        -9.348348617553711
      ],
      [
        "▁K",
        -9.349163055419922
      ],
      [
        "▁سوف",
        -9.349193572998047
      ],
      [
        "▁هوا",
        -9.349654197692871
      ],
      [
        "▁صلاة",
        -9.34992504119873
      ],
      [
        "▁كال",
        -9.35009479522705
      ],
      [
        ").",
        -9.350191116333008
      ],
      [
        "▁for",
        -9.350385665893555
      ],
      [
        "▁القسم",
        -9.350506782531738
      ],
      [
        "▁na",
        -9.350761413574219
      ],
      [
        "▁اب",
        -9.351378440856934
      ],
      [
        "▁we",
        -9.351845741271973
      ],
      [
        "زيد",
        -9.352392196655273
      ],
      [
        "▁مهم",
        -9.352507591247559
      ],
      [
        "▁عضو",
        -9.352540969848633
      ],
      [
        "ro",
        -9.352640151977539
      ],
      [
        "▁آل",
        -9.352734565734863
      ],
      [
        "▁kho",
        -9.35405158996582
      ],
      [
        "🤣🤣",
        -9.354888916015625
      ],
      [
        "▁سنوات",
        -9.355256080627441
      ],
      [
        "▁واحدة",
        -9.355454444885254
      ],
      [
        "▁وراني",
        -9.35642147064209
      ],
      [
        "▁المحتوى",
        -9.356732368469238
      ],
      [
        "قر",
        -9.357107162475586
      ],
      [
        "▁هذيك",
        -9.35713005065918
      ],
      [
        "تلي",
        -9.358258247375488
      ],
      [
        "▁بغيت",
        -9.35849380493164
      ],
      [
        "▁تستاهل",
        -9.359687805175781
      ],
      [
        "▁واو",
        -9.359946250915527
      ],
      [
        "▁معنى",
        -9.360077857971191
      ],
      [
        "▁الكريمة",
        -9.360816955566406
      ],
      [
        "▁ح",
        -9.361357688903809
      ],
      [
        "▁احب",
        -9.361486434936523
      ],
      [
        "▁vidéo",
        -9.36282730102539
      ],
      [
        "▁F",
        -9.36324405670166
      ],
      [
        "▁نخاف",
        -9.364300727844238
      ],
      [
        "▁وإنا",
        -9.36468505859375
      ],
      [
        "ضر",
        -9.364773750305176
      ],
      [
        "me",
        -9.36568546295166
      ],
      [
        "▁الباكالوريا",
        -9.366192817687988
      ],
      [
        "wa",
        -9.366216659545898
      ],
      [
        "▁قادر",
        -9.366414070129395
      ],
      [
        "▁تفهم",
        -9.36687183380127
      ],
      [
        "▁طب",
        -9.367025375366211
      ],
      [
        "▁be",
        -9.368330001831055
      ],
      [
        "▁الاخ",
        -9.368413925170898
      ],
      [
        "A",
        -9.368861198425293
      ],
      [
        "شر",
        -9.36939525604248
      ],
      [
        "دى",
        -9.369918823242188
      ],
      [
        "▁مشكور",
        -9.371453285217285
      ],
      [
        "▁طفل",
        -9.371482849121094
      ],
      [
        "طل",
        -9.371687889099121
      ],
      [
        "غير",
        -9.372742652893066
      ],
      [
        "▁اه",
        -9.372807502746582
      ],
      [
        "▁الدرس",
        -9.372920036315918
      ],
      [
        "▁الطيب",
        -9.372934341430664
      ],
      [
        "ــ",
        -9.373944282531738
      ],
      [
        "▁الل",
        -9.374157905578613
      ],
      [
        "▁مح",
        -9.374648094177246
      ],
      [
        "▁حقا",
        -9.374905586242676
      ],
      [
        "▁الغ",
        -9.375141143798828
      ],
      [
        "▁un",
        -9.37633228302002
      ],
      [
        "▁المواضيع",
        -9.376351356506348
      ],
      [
        "▁ليا",
        -9.378775596618652
      ],
      [
        "▁يحفظكم",
        -9.379419326782227
      ],
      [
        "راء",
        -9.379467964172363
      ],
      [
        "▁أحب",
        -9.38071346282959
      ],
      [
        "▁مكنية",
        -9.380762100219727
      ],
      [
        "ادي",
        -9.381050109863281
      ],
      [
        "▁العشرية",
        -9.381240844726562
      ],
      [
        "▁🥰",
        -9.381279945373535
      ],
      [
        "قي",
        -9.381628036499023
      ],
      [
        "▁ديريلنا",
        -9.381901741027832
      ],
      [
        "▁ياا",
        -9.382200241088867
      ],
      [
        "▁تزيد",
        -9.382832527160645
      ],
      [
        "▁اجل",
        -9.382963180541992
      ],
      [
        "سنة",
        -9.383753776550293
      ],
      [
        "▁المجتمع",
        -9.384655952453613
      ],
      [
        "▁كتر",
        -9.385019302368164
      ],
      [
        "▁صلي",
        -9.38561725616455
      ],
      [
        "▁كملت",
        -9.386476516723633
      ],
      [
        "▁سبحانه",
        -9.387632369995117
      ],
      [
        "▁قتل",
        -9.387951850891113
      ],
      [
        "بال",
        -9.388258934020996
      ],
      [
        "▁راحت",
        -9.388736724853516
      ],
      [
        "▁شوفي",
        -9.390332221984863
      ],
      [
        "▁فري",
        -9.390411376953125
      ],
      [
        "kom",
        -9.390694618225098
      ],
      [
        "▁صحاب",
        -9.390868186950684
      ],
      [
        "▁إله",
        -9.391778945922852
      ],
      [
        "▁فعلا",
        -9.393406867980957
      ],
      [
        "▁يخرج",
        -9.39489459991455
      ],
      [
        "▁درك",
        -9.396065711975098
      ],
      [
        "▁نقولو",
        -9.39606761932373
      ],
      [
        "▁نجي",
        -9.396450996398926
      ],
      [
        "طو",
        -9.397802352905273
      ],
      [
        "▁صحة",
        -9.399292945861816
      ],
      [
        "▁قدام",
        -9.399382591247559
      ],
      [
        "▁re",
        -9.39973258972168
      ],
      [
        "▁استغفر",
        -9.400066375732422
      ],
      [
        "▁فور",
        -9.400177955627441
      ],
      [
        "▁مور",
        -9.400519371032715
      ],
      [
        "يع",
        -9.401047706604004
      ],
      [
        "▁أجل",
        -9.401590347290039
      ],
      [
        "▁جي",
        -9.40184497833252
      ],
      [
        "▁يقولو",
        -9.402555465698242
      ],
      [
        "▁بداية",
        -9.402872085571289
      ],
      [
        "▁حلمي",
        -9.403432846069336
      ],
      [
        "▁ماهو",
        -9.403767585754395
      ],
      [
        "▁مجرد",
        -9.404356002807617
      ],
      [
        "▁،،",
        -9.404590606689453
      ],
      [
        "عي",
        -9.405243873596191
      ],
      [
        "▁ضحك",
        -9.405802726745605
      ],
      [
        "aw",
        -9.406488418579102
      ],
      [
        "▁بالا",
        -9.406652450561523
      ],
      [
        "▁🙏",
        -9.406859397888184
      ],
      [
        "▁فرحت",
        -9.406901359558105
      ],
      [
        "▁2021",
        -9.407973289489746
      ],
      [
        "▁مريض",
        -9.408363342285156
      ],
      [
        "D",
        -9.409292221069336
      ],
      [
        "▁had",
        -9.409396171569824
      ],
      [
        "▁هايلة",
        -9.4099760055542
      ],
      [
        "▁so",
        -9.40998649597168
      ],
      [
        "مع",
        -9.410042762756348
      ],
      [
        "▁ماهي",
        -9.410440444946289
      ],
      [
        "▁برنامج",
        -9.410808563232422
      ],
      [
        "▁مادة",
        -9.410809516906738
      ],
      [
        "▁أجمعين",
        -9.410965919494629
      ],
      [
        "🤣",
        -9.410966873168945
      ],
      [
        "▁لأنه",
        -9.411624908447266
      ],
      [
        "كر",
        -9.411713600158691
      ],
      [
        "▁ثلاث",
        -9.411890983581543
      ],
      [
        "▁يجوز",
        -9.412088394165039
      ],
      [
        "▁المعلومات",
        -9.412528038024902
      ],
      [
        "▁o",
        -9.412660598754883
      ],
      [
        "▁معاهم",
        -9.413578033447266
      ],
      [
        "▁الشيطان",
        -9.413666725158691
      ],
      [
        "ورة",
        -9.414205551147461
      ],
      [
        "▁ضد",
        -9.41474723815918
      ],
      [
        "▁🤣",
        -9.414896965026855
      ],
      [
        "▁ارحم",
        -9.415175437927246
      ],
      [
        "حت",
        -9.415287971496582
      ],
      [
        "🙏",
        -9.416241645812988
      ],
      [
        "▁بدل",
        -9.41718578338623
      ],
      [
        "▁طبعا",
        -9.41781997680664
      ],
      [
        "فو",
        -9.418119430541992
      ],
      [
        "▁الشي",
        -9.418381690979004
      ],
      [
        "▁يوسف",
        -9.418474197387695
      ],
      [
        "كان",
        -9.419803619384766
      ],
      [
        "▁Ana",
        -9.420568466186523
      ],
      [
        "▁وأنا",
        -9.421722412109375
      ],
      [
        "إن",
        -9.4224853515625
      ],
      [
        "▁😮",
        -9.42264461517334
      ],
      [
        "▁تح",
        -9.423291206359863
      ],
      [
        "▁بقا",
        -9.423379898071289
      ],
      [
        "عين",
        -9.42343521118164
      ],
      [
        "انة",
        -9.424393653869629
      ],
      [
        "▁ساهل",
        -9.424576759338379
      ],
      [
        "▁الدراسة",
        -9.42481517791748
      ],
      [
        "▁((",
        -9.425570487976074
      ],
      [
        "▁تقرا",
        -9.426042556762695
      ],
      [
        "▁بر",
        -9.42623233795166
      ],
      [
        "▁نكمل",
        -9.430150985717773
      ],
      [
        "▁قولي",
        -9.43015193939209
      ],
      [
        "kh",
        -9.430227279663086
      ],
      [
        "▁ويجعل",
        -9.430388450622559
      ],
      [
        "▁سعيد",
        -9.430390357971191
      ],
      [
        "▁اسطورة",
        -9.431589126586914
      ],
      [
        "▁قناتك",
        -9.431880950927734
      ],
      [
        "▁باين",
        -9.432805061340332
      ],
      [
        "▁G",
        -9.432852745056152
      ],
      [
        "▁لع",
        -9.432948112487793
      ],
      [
        "▁والحمد",
        -9.433340072631836
      ],
      [
        "▁احبك",
        -9.434212684631348
      ],
      [
        "▁الحمدلله",
        -9.434274673461914
      ],
      [
        "▁خط",
        -9.434639930725098
      ],
      [
        "ol",
        -9.435166358947754
      ],
      [
        "▁ترك",
        -9.435222625732422
      ],
      [
        "از",
        -9.435606002807617
      ],
      [
        "يز",
        -9.436179161071777
      ],
      [
        "▁هذ",
        -9.437202453613281
      ],
      [
        "▁اجمل",
        -9.438172340393066
      ],
      [
        "▁كملي",
        -9.438874244689941
      ],
      [
        "صب",
        -9.438920021057129
      ],
      [
        "نو",
        -9.439023971557617
      ],
      [
        "▁ميلود",
        -9.439034461975098
      ],
      [
        "بارك",
        -9.44076156616211
      ],
      [
        "👍",
        -9.440773963928223
      ],
      [
        "▁best",
        -9.442181587219238
      ],
      [
        "▁سهل",
        -9.442402839660645
      ],
      [
        "▁الفلسفة",
        -9.444493293762207
      ],
      [
        "▁لايف",
        -9.445494651794434
      ],
      [
        "ولو",
        -9.44614315032959
      ],
      [
        "▁اسكو",
        -9.447880744934082
      ],
      [
        "على",
        -9.448142051696777
      ],
      [
        "بد",
        -9.449058532714844
      ],
      [
        "▁♥",
        -9.449899673461914
      ],
      [
        "اع",
        -9.449971199035645
      ],
      [
        "رى",
        -9.450052261352539
      ],
      [
        "10",
        -9.450955390930176
      ],
      [
        "بين",
        -9.451313018798828
      ],
      [
        "▁صار",
        -9.45213794708252
      ],
      [
        "hom",
        -9.452168464660645
      ],
      [
        "▁فيما",
        -9.452712059020996
      ],
      [
        "▁رجال",
        -9.452977180480957
      ],
      [
        "جاب",
        -9.453166007995605
      ],
      [
        "علم",
        -9.45361042022705
      ],
      [
        "سا",
        -9.453624725341797
      ],
      [
        "▁الدولة",
        -9.45423412322998
      ],
      [
        "▁حسبي",
        -9.454596519470215
      ],
      [
        "▁روحو",
        -9.455270767211914
      ],
      [
        "▁الشرح",
        -9.45583438873291
      ],
      [
        "جيب",
        -9.456470489501953
      ],
      [
        "▁dir",
        -9.456745147705078
      ],
      [
        "▁ق",
        -9.457139015197754
      ],
      [
        "▁يتم",
        -9.457679748535156
      ],
      [
        "بعد",
        -9.457722663879395
      ],
      [
        "ii",
        -9.457886695861816
      ],
      [
        "▁أولا",
        -9.457913398742676
      ],
      [
        "مام",
        -9.458529472351074
      ],
      [
        "اري",
        -9.458539009094238
      ],
      [
        "جب",
        -9.458582878112793
      ],
      [
        "▁برا",
        -9.458649635314941
      ],
      [
        "▁خلي",
        -9.458847045898438
      ],
      [
        "▁تكمل",
        -9.458958625793457
      ],
      [
        "▁الحر",
        -9.458986282348633
      ],
      [
        "bi",
        -9.459036827087402
      ],
      [
        "فق",
        -9.459392547607422
      ],
      [
        "▁اخت",
        -9.459908485412598
      ],
      [
        "▁تش",
        -9.46009635925293
      ],
      [
        "▁الثالث",
        -9.462689399719238
      ],
      [
        "on",
        -9.462859153747559
      ],
      [
        "▁تس",
        -9.463157653808594
      ],
      [
        "▁دين",
        -9.463424682617188
      ],
      [
        "▁ليل",
        -9.463685035705566
      ],
      [
        "اتي",
        -9.465455055236816
      ],
      [
        "▁الصورة",
        -9.465953826904297
      ],
      [
        "▁الطريق",
        -9.466553688049316
      ],
      [
        "▁الحكايات",
        -9.466678619384766
      ],
      [
        "▁دم",
        -9.469173431396484
      ],
      [
        "▁موقع",
        -9.469182014465332
      ],
      [
        "▁الأسئلة",
        -9.470032691955566
      ],
      [
        "راس",
        -9.470065116882324
      ],
      [
        "▁رجعت",
        -9.470373153686523
      ],
      [
        "▁كفاه",
        -9.470664024353027
      ],
      [
        "▁تعيشو",
        -9.471173286437988
      ],
      [
        "▁وضع",
        -9.471294403076172
      ],
      [
        "▁راس",
        -9.471405982971191
      ],
      [
        "▁وفقنا",
        -9.471460342407227
      ],
      [
        "🥰",
        -9.471612930297852
      ],
      [
        "▁بني",
        -9.473267555236816
      ],
      [
        "▁ري",
        -9.474175453186035
      ],
      [
        "▁قالك",
        -9.47423267364502
      ],
      [
        "▁دارو",
        -9.475332260131836
      ],
      [
        "سب",
        -9.476072311401367
      ],
      [
        "▁البر",
        -9.476760864257812
      ],
      [
        "▁فرنسا",
        -9.477084159851074
      ],
      [
        "بان",
        -9.477582931518555
      ],
      [
        "▁نشر",
        -9.478076934814453
      ],
      [
        "▁يعلم",
        -9.479321479797363
      ],
      [
        "▁بلاد",
        -9.479435920715332
      ],
      [
        "▁هداك",
        -9.479784965515137
      ],
      [
        "▁تسما",
        -9.481006622314453
      ],
      [
        "▁معك",
        -9.482462882995605
      ],
      [
        "▁والسلوان",
        -9.48270320892334
      ],
      [
        "حة",
        -9.483378410339355
      ],
      [
        "▁الك",
        -9.483600616455078
      ],
      [
        "▁رجع",
        -9.484020233154297
      ],
      [
        "S",
        -9.48419189453125
      ],
      [
        "▁قضية",
        -9.484235763549805
      ],
      [
        "▁نسأل",
        -9.484683990478516
      ],
      [
        "▁صاحبي",
        -9.484703063964844
      ],
      [
        "▁يهديك",
        -9.486455917358398
      ],
      [
        "▁درنا",
        -9.486614227294922
      ],
      [
        "P",
        -9.487361907958984
      ],
      [
        "نيش",
        -9.488161087036133
      ],
      [
        "▁طويل",
        -9.488530158996582
      ],
      [
        "▁اع",
        -9.489049911499023
      ],
      [
        "▁مصطلحات",
        -9.489912033081055
      ],
      [
        "▁غالط",
        -9.49018669128418
      ],
      [
        "🥹",
        -9.490254402160645
      ],
      [
        "▁اعرف",
        -9.4905366897583
      ],
      [
        "▁صرا",
        -9.490854263305664
      ],
      [
        "▁نقولك",
        -9.491830825805664
      ],
      [
        "▁مجهوداتك",
        -9.4918851852417
      ],
      [
        "▁حفظك",
        -9.49210262298584
      ],
      [
        "▁العزيز",
        -9.492650032043457
      ],
      [
        "▁الصباح",
        -9.493341445922852
      ],
      [
        "▁تقدري",
        -9.493341445922852
      ],
      [
        "▁الكل",
        -9.493372917175293
      ],
      [
        "L",
        -9.493523597717285
      ],
      [
        "▁الحالة",
        -9.493648529052734
      ],
      [
        "▁e",
        -9.494620323181152
      ],
      [
        "▁وصلت",
        -9.494688987731934
      ],
      [
        "▁خ",
        -9.494912147521973
      ],
      [
        "بس",
        -9.495211601257324
      ],
      [
        "▁💗",
        -9.495643615722656
      ],
      [
        "▁تمارين",
        -9.496098518371582
      ],
      [
        "▁دعاء",
        -9.496333122253418
      ],
      [
        "▁صرات",
        -9.496369361877441
      ],
      [
        "▁نن",
        -9.496952056884766
      ],
      [
        "▁منيش",
        -9.497206687927246
      ],
      [
        "ی",
        -9.497739791870117
      ],
      [
        "▁الفيديوهات",
        -9.497759819030762
      ],
      [
        "▁حقيقة",
        -9.497893333435059
      ],
      [
        "▁قصصك",
        -9.49994945526123
      ],
      [
        "وية",
        -9.501482009887695
      ],
      [
        "▁سما",
        -9.501708984375
      ],
      [
        "ولنا",
        -9.502279281616211
      ],
      [
        "▁تدير",
        -9.502646446228027
      ],
      [
        "▁الط",
        -9.504109382629395
      ],
      [
        "▁المرة",
        -9.504446983337402
      ],
      [
        "▁مسكين",
        -9.50500202178955
      ],
      [
        "▁أيام",
        -9.505300521850586
      ],
      [
        "▁ونفرح",
        -9.505720138549805
      ],
      [
        "▁تقولي",
        -9.505945205688477
      ],
      [
        "رق",
        -9.506335258483887
      ],
      [
        "زع",
        -9.506954193115234
      ],
      [
        "🔥",
        -9.508201599121094
      ],
      [
        "▁الفردوس",
        -9.508379936218262
      ],
      [
        "▁بعيد",
        -9.510101318359375
      ],
      [
        "▁الاجابة",
        -9.510217666625977
      ],
      [
        "▁g",
        -9.511077880859375
      ],
      [
        "▁رياض",
        -9.511330604553223
      ],
      [
        "ضيف",
        -9.511506080627441
      ],
      [
        "▁الشر",
        -9.511805534362793
      ],
      [
        "▁ne",
        -9.511929512023926
      ],
      [
        "▁عذاب",
        -9.513063430786133
      ],
      [
        "▁للا",
        -9.514278411865234
      ],
      [
        "▁بيت",
        -9.515073776245117
      ],
      [
        "▁الطب",
        -9.515278816223145
      ],
      [
        "▁تو",
        -9.515493392944336
      ],
      [
        "صل",
        -9.516534805297852
      ],
      [
        "▁العلوم",
        -9.516833305358887
      ],
      [
        "▁حلقة",
        -9.517168045043945
      ],
      [
        "▁جناته",
        -9.517389297485352
      ],
      [
        "كش",
        -9.517508506774902
      ],
      [
        "▁زاد",
        -9.518230438232422
      ],
      [
        "▁الأولى",
        -9.51897144317627
      ],
      [
        "▁يد",
        -9.519287109375
      ],
      [
        "▁تجد",
        -9.519712448120117
      ],
      [
        "ذر",
        -9.519810676574707
      ],
      [
        "حا",
        -9.520953178405762
      ],
      [
        "بار",
        -9.521117210388184
      ],
      [
        "▁تجريبية",
        -9.521340370178223
      ],
      [
        "▁المس",
        -9.521637916564941
      ],
      [
        "▁مهما",
        -9.521805763244629
      ],
      [
        "▁الجواب",
        -9.521998405456543
      ],
      [
        "▁شيئا",
        -9.52206039428711
      ],
      [
        "ine",
        -9.522467613220215
      ],
      [
        "lo",
        -9.523439407348633
      ],
      [
        "▁عمرك",
        -9.524617195129395
      ],
      [
        "▁رواه",
        -9.525010108947754
      ],
      [
        "▁معاها",
        -9.527532577514648
      ],
      [
        "جم",
        -9.52817440032959
      ],
      [
        "▁امر",
        -9.528326034545898
      ],
      [
        "▁mais",
        -9.528715133666992
      ],
      [
        "as",
        -9.528743743896484
      ],
      [
        "اي",
        -9.528800964355469
      ],
      [
        "▁الواقع",
        -9.529088973999023
      ],
      [
        "▁اولا",
        -9.529138565063477
      ],
      [
        "▁الصوت",
        -9.529150009155273
      ],
      [
        "▁النساء",
        -9.529563903808594
      ],
      [
        "▁النفس",
        -9.530494689941406
      ],
      [
        "▁مراجعة",
        -9.531732559204102
      ],
      [
        "▁وجل",
        -9.532731056213379
      ],
      [
        "▁عنا",
        -9.532858848571777
      ],
      [
        "▁يكن",
        -9.533783912658691
      ],
      [
        "▁قالو",
        -9.534138679504395
      ],
      [
        "▁السياسي",
        -9.534255981445312
      ],
      [
        "سو",
        -9.53426456451416
      ],
      [
        "▁r",
        -9.534326553344727
      ],
      [
        "▁اسمها",
        -9.534512519836426
      ],
      [
        "جز",
        -9.534757614135742
      ],
      [
        "▁السيد",
        -9.534859657287598
      ],
      [
        "▁لغة",
        -9.535361289978027
      ],
      [
        "▁عبر",
        -9.535907745361328
      ],
      [
        "▁ياك",
        -9.536197662353516
      ],
      [
        "fa",
        -9.537018775939941
      ],
      [
        "▁وإ",
        -9.537338256835938
      ],
      [
        "▁نشوفو",
        -9.537910461425781
      ],
      [
        "0",
        -9.538076400756836
      ],
      [
        "سم",
        -9.538846969604492
      ],
      [
        "😮",
        -9.539810180664062
      ],
      [
        "▁تنجح",
        -9.540600776672363
      ],
      [
        "▁of",
        -9.541081428527832
      ],
      [
        "▁الامر",
        -9.542073249816895
      ],
      [
        "▁😂❤",
        -9.542985916137695
      ],
      [
        "راه",
        -9.543113708496094
      ],
      [
        "قا",
        -9.54321575164795
      ],
      [
        "ائي",
        -9.54428768157959
      ],
      [
        "طب",
        -9.5447998046875
      ],
      [
        "▁الرجال",
        -9.544897079467773
      ],
      [
        "▁صانع",
        -9.545134544372559
      ],
      [
        "▁دوك",
        -9.545459747314453
      ],
      [
        "رك",
        -9.546072006225586
      ],
      [
        "▁it",
        -9.546774864196777
      ],
      [
        "ki",
        -9.546923637390137
      ],
      [
        "▁لذلك",
        -9.547797203063965
      ],
      [
        "▁اسمي",
        -9.548197746276855
      ],
      [
        "قطع",
        -9.548850059509277
      ],
      [
        "به",
        -9.549174308776855
      ],
      [
        "بات",
        -9.549428939819336
      ],
      [
        "▁خارج",
        -9.549467086791992
      ],
      [
        "▁ha",
        -9.549578666687012
      ],
      [
        "▁والديا",
        -9.55103874206543
      ],
      [
        "وز",
        -9.551716804504395
      ],
      [
        "▁الساعة",
        -9.552923202514648
      ],
      [
        "▁عاد",
        -9.553108215332031
      ],
      [
        "de",
        -9.553265571594238
      ],
      [
        "▁يحط",
        -9.554235458374023
      ],
      [
        "راني",
        -9.55455207824707
      ],
      [
        "😊😊",
        -9.556032180786133
      ],
      [
        "▁البقرة",
        -9.556283950805664
      ],
      [
        "ab",
        -9.55761432647705
      ],
      [
        "▁الماء",
        -9.557817459106445
      ],
      [
        "▁العلي",
        -9.55843734741211
      ],
      [
        "▁يروح",
        -9.558459281921387
      ],
      [
        "ائد",
        -9.559418678283691
      ],
      [
        "▁شيئ",
        -9.559496879577637
      ],
      [
        "يوم",
        -9.559952735900879
      ],
      [
        "▁الحرب",
        -9.560880661010742
      ],
      [
        "▁نحوس",
        -9.560928344726562
      ],
      [
        "▁مستحيل",
        -9.561971664428711
      ],
      [
        "▁جال",
        -9.562172889709473
      ],
      [
        "ايا",
        -9.562359809875488
      ],
      [
        "▁عم",
        -9.562478065490723
      ],
      [
        "عيد",
        -9.562484741210938
      ],
      [
        "▁عا",
        -9.563072204589844
      ],
      [
        "▁عيد",
        -9.563377380371094
      ],
      [
        "رج",
        -9.563817024230957
      ],
      [
        "▁جزاكم",
        -9.56501579284668
      ],
      [
        "20",
        -9.566203117370605
      ],
      [
        "▁فلم",
        -9.56666374206543
      ],
      [
        "دت",
        -9.567710876464844
      ],
      [
        "▁الاست",
        -9.567877769470215
      ],
      [
        "▁فيلم",
        -9.568105697631836
      ],
      [
        "صار",
        -9.568354606628418
      ],
      [
        "▁يفتح",
        -9.568860054016113
      ],
      [
        "جمع",
        -9.5689697265625
      ],
      [
        "▁يجعلها",
        -9.569188117980957
      ],
      [
        "▁القران",
        -9.569406509399414
      ],
      [
        "▁مصر",
        -9.570371627807617
      ],
      [
        "▁à",
        -9.570672988891602
      ],
      [
        "ضحك",
        -9.570844650268555
      ],
      [
        "رب",
        -9.57127857208252
      ],
      [
        "▁kh",
        -9.57128620147705
      ],
      [
        "▁معلومات",
        -9.572181701660156
      ],
      [
        "صف",
        -9.572196006774902
      ],
      [
        "▁2022",
        -9.572388648986816
      ],
      [
        "▁دنيا",
        -9.57242202758789
      ],
      [
        "▁تفرجت",
        -9.572436332702637
      ],
      [
        "▁❤🎉",
        -9.572550773620605
      ],
      [
        "▁وبعد",
        -9.572628021240234
      ],
      [
        "▁مرض",
        -9.573229789733887
      ],
      [
        "دم",
        -9.57405948638916
      ],
      [
        "▁الاخت",
        -9.574254035949707
      ],
      [
        "وق",
        -9.574628829956055
      ],
      [
        "▁~",
        -9.57677936553955
      ],
      [
        "▁بسك",
        -9.576807975769043
      ],
      [
        "▁أرجو",
        -9.577376365661621
      ],
      [
        "▁مسلسل",
        -9.5782470703125
      ],
      [
        "▁فهي",
        -9.578340530395508
      ],
      [
        "طة",
        -9.578832626342773
      ],
      [
        "▁بالنجاح",
        -9.578842163085938
      ],
      [
        "▁مدة",
        -9.579550743103027
      ],
      [
        "▁مثال",
        -9.579615592956543
      ],
      [
        "▁تان",
        -9.579797744750977
      ],
      [
        "▁courage",
        -9.579828262329102
      ],
      [
        "▁يدعيلي",
        -9.580546379089355
      ],
      [
        "▁الطيبة",
        -9.581477165222168
      ],
      [
        "▁مرات",
        -9.581591606140137
      ],
      [
        "عود",
        -9.581698417663574
      ],
      [
        "▁منكم",
        -9.581787109375
      ],
      [
        "ثر",
        -9.583584785461426
      ],
      [
        "أن",
        -9.585076332092285
      ],
      [
        "▁أين",
        -9.585375785827637
      ],
      [
        "ذي",
        -9.585519790649414
      ],
      [
        "انية",
        -9.58552360534668
      ],
      [
        "▁ذا",
        -9.585926055908203
      ],
      [
        "▁👍",
        -9.586625099182129
      ],
      [
        "عاد",
        -9.586853981018066
      ],
      [
        "▁وحدك",
        -9.587416648864746
      ],
      [
        "عد",
        -9.58753776550293
      ],
      [
        "زم",
        -9.587745666503906
      ],
      [
        "▁هما",
        -9.588034629821777
      ],
      [
        "▁merci",
        -9.58831787109375
      ],
      [
        "▁الجميل",
        -9.588556289672852
      ],
      [
        "▁بان",
        -9.588828086853027
      ],
      [
        "▁تست",
        -9.58973503112793
      ],
      [
        "▁دعم",
        -9.590187072753906
      ],
      [
        "▁نتبع",
        -9.590387344360352
      ],
      [
        "▁المسلم",
        -9.590580940246582
      ],
      [
        "خر",
        -9.590988159179688
      ],
      [
        "▁تبان",
        -9.590991020202637
      ],
      [
        "▁يو",
        -9.59115219116211
      ],
      [
        "om",
        -9.591594696044922
      ],
      [
        "زا",
        -9.591862678527832
      ],
      [
        "😅😅",
        -9.592009544372559
      ],
      [
        "▁معي",
        -9.592170715332031
      ],
      [
        "▁نحفظ",
        -9.593244552612305
      ],
      [
        "بدا",
        -9.5934419631958
      ],
      [
        "▁جل",
        -9.595032691955566
      ],
      [
        "▁يحكي",
        -9.595476150512695
      ],
      [
        "▁رابط",
        -9.59575366973877
      ],
      [
        "▁الزواج",
        -9.596076965332031
      ],
      [
        "▁توصل",
        -9.598200798034668
      ],
      [
        "▁باغي",
        -9.598939895629883
      ],
      [
        "▁يوما",
        -9.599040985107422
      ],
      [
        "▁الرياضيات",
        -9.599762916564941
      ],
      [
        "؟!",
        -9.599940299987793
      ],
      [
        "▁علابالي",
        -9.601059913635254
      ],
      [
        "▁حيقون",
        -9.602248191833496
      ],
      [
        "▁2020",
        -9.602432250976562
      ],
      [
        "▁دارت",
        -9.60360050201416
      ],
      [
        "▁وفقك",
        -9.603961944580078
      ],
      [
        "ce",
        -9.604294776916504
      ],
      [
        "▁رايح",
        -9.604674339294434
      ],
      [
        "▁جر",
        -9.60468578338623
      ],
      [
        "▁جعل",
        -9.60511589050293
      ],
      [
        "▁طلع",
        -9.605408668518066
      ],
      [
        "▁نتاعك",
        -9.605507850646973
      ],
      [
        "▁صور",
        -9.605978012084961
      ],
      [
        "دار",
        -9.606468200683594
      ],
      [
        "▁را",
        -9.607109069824219
      ],
      [
        "▁دك",
        -9.607440948486328
      ],
      [
        "▁مخ",
        -9.607481002807617
      ],
      [
        "▁الام",
        -9.607975959777832
      ],
      [
        "بك",
        -9.608027458190918
      ],
      [
        "▁مبعد",
        -9.60892391204834
      ],
      [
        "▁الز",
        -9.609561920166016
      ],
      [
        "▁فلي",
        -9.609911918640137
      ],
      [
        "▁الد",
        -9.609992980957031
      ],
      [
        "▁قع",
        -9.610381126403809
      ],
      [
        "▁ث",
        -9.611708641052246
      ],
      [
        "▁الصالحة",
        -9.612298965454102
      ],
      [
        "lah",
        -9.612913131713867
      ],
      [
        "▁فاهم",
        -9.61291790008545
      ],
      [
        "نفس",
        -9.613039016723633
      ],
      [
        "▁حمد",
        -9.613127708435059
      ],
      [
        "mo",
        -9.613147735595703
      ],
      [
        "▁تعب",
        -9.613224029541016
      ],
      [
        "▁يسهل",
        -9.613452911376953
      ],
      [
        "طا",
        -9.61351203918457
      ],
      [
        "▁رياضيات",
        -9.614160537719727
      ],
      [
        "▁المواد",
        -9.61441707611084
      ],
      [
        "رح",
        -9.614688873291016
      ],
      [
        "▁قليل",
        -9.615120887756348
      ],
      [
        "▁وحده",
        -9.615636825561523
      ],
      [
        "▁بوركت",
        -9.615755081176758
      ],
      [
        "▁والأ",
        -9.616480827331543
      ],
      [
        "▁قولو",
        -9.6165771484375
      ],
      [
        "▁طالب",
        -9.616747856140137
      ],
      [
        "▁الحب",
        -9.617446899414062
      ],
      [
        "▁نستنا",
        -9.617589950561523
      ],
      [
        "▁وهران",
        -9.617853164672852
      ],
      [
        "▁الحاجة",
        -9.618481636047363
      ],
      [
        "▁يحفظ",
        -9.618514060974121
      ],
      [
        "▁يخي",
        -9.618739128112793
      ],
      [
        "▁♥️",
        -9.618917465209961
      ],
      [
        "رض",
        -9.619958877563477
      ],
      [
        "صور",
        -9.620038032531738
      ],
      [
        "▁u",
        -9.62004280090332
      ],
      [
        "🎉🎉",
        -9.620073318481445
      ],
      [
        "▁رايحة",
        -9.62039566040039
      ],
      [
        "▁man",
        -9.620587348937988
      ],
      [
        "طي",
        -9.620596885681152
      ],
      [
        "قص",
        -9.620613098144531
      ],
      [
        "▁قاعد",
        -9.620813369750977
      ],
      [
        "▁؛",
        -9.62159252166748
      ],
      [
        "▁غدوا",
        -9.621703147888184
      ],
      [
        "طور",
        -9.621748924255371
      ],
      [
        "▁ملاح",
        -9.622452735900879
      ],
      [
        "▁العلمية",
        -9.622477531433105
      ],
      [
        "▁ملك",
        -9.622486114501953
      ],
      [
        "▁الجديد",
        -9.622517585754395
      ],
      [
        "تعرف",
        -9.622610092163086
      ],
      [
        "▁مز",
        -9.622815132141113
      ],
      [
        "▁لانه",
        -9.62309741973877
      ],
      [
        "▁خايفة",
        -9.623747825622559
      ],
      [
        "▁تب",
        -9.624378204345703
      ],
      [
        "طول",
        -9.625715255737305
      ],
      [
        "حمد",
        -9.62617301940918
      ],
      [
        "▁ير",
        -9.626660346984863
      ],
      [
        "ک",
        -9.626954078674316
      ],
      [
        "▁جيب",
        -9.627283096313477
      ],
      [
        "رش",
        -9.627449989318848
      ],
      [
        "U",
        -9.627638816833496
      ],
      [
        "▁يوتيوبر",
        -9.628143310546875
      ],
      [
        "▁بالك",
        -9.62853717803955
      ],
      [
        "▁تر",
        -9.629924774169922
      ],
      [
        "جو",
        -9.630402565002441
      ],
      [
        "▁تخصص",
        -9.631046295166016
      ],
      [
        "I",
        -9.631470680236816
      ],
      [
        "▁فتح",
        -9.631479263305664
      ],
      [
        "▁الطفل",
        -9.631559371948242
      ],
      [
        "فتح",
        -9.63183307647705
      ],
      [
        "▁نقراو",
        -9.63208293914795
      ],
      [
        "▁بفضل",
        -9.63222885131836
      ],
      [
        "قبل",
        -9.63237476348877
      ],
      [
        "»",
        -9.632676124572754
      ],
      [
        "▁عجبني",
        -9.63305377960205
      ],
      [
        "mi",
        -9.633074760437012
      ],
      [
        "🏻",
        -9.63328742980957
      ],
      [
        "▁توحشنا",
        -9.633295059204102
      ],
      [
        "▁est",
        -9.634683609008789
      ],
      [
        "▁مشروع",
        -9.635406494140625
      ],
      [
        "▁دايما",
        -9.635563850402832
      ],
      [
        "▁تفسير",
        -9.638118743896484
      ],
      [
        "▁ابدا",
        -9.63861083984375
      ],
      [
        "قام",
        -9.638697624206543
      ],
      [
        "▁وفقني",
        -9.638811111450195
      ],
      [
        "▁نكتب",
        -9.639094352722168
      ],
      [
        "▁توك",
        -9.640369415283203
      ],
      [
        "▁نهاية",
        -9.64083480834961
      ],
      [
        "▁وصل",
        -9.640865325927734
      ],
      [
        "▁منتدى",
        -9.641029357910156
      ],
      [
        "▁جمال",
        -9.64150333404541
      ],
      [
        "▁وله",
        -9.641633033752441
      ],
      [
        "▁**",
        -9.641751289367676
      ],
      [
        "صا",
        -9.641886711120605
      ],
      [
        "▁قيمة",
        -9.641931533813477
      ],
      [
        "▁شكل",
        -9.642118453979492
      ],
      [
        "▁راقي",
        -9.64398193359375
      ],
      [
        "ضم",
        -9.64493179321289
      ],
      [
        "▁إنشاء",
        -9.645362854003906
      ],
      [
        "▁كو",
        -9.646921157836914
      ],
      [
        "▁يقرا",
        -9.647005081176758
      ],
      [
        "▁vous",
        -9.647523880004883
      ],
      [
        "▁طرف",
        -9.647972106933594
      ],
      [
        "▁ريداكس",
        -9.648192405700684
      ],
      [
        "▁فليل",
        -9.648765563964844
      ],
      [
        "▁كيفك",
        -9.64884090423584
      ],
      [
        "▁فن",
        -9.649045944213867
      ],
      [
        "▁يبقى",
        -9.650345802307129
      ],
      [
        "ka",
        -9.650693893432617
      ],
      [
        "▁0",
        -9.650933265686035
      ],
      [
        "ve",
        -9.652277946472168
      ],
      [
        "▁ra",
        -9.652414321899414
      ],
      [
        "▁وجد",
        -9.652755737304688
      ],
      [
        "▁cha",
        -9.652898788452148
      ],
      [
        "▁مجال",
        -9.652910232543945
      ],
      [
        "▁ساعات",
        -9.653109550476074
      ],
      [
        "▁حبس",
        -9.65349006652832
      ],
      [
        "▁كانوا",
        -9.654093742370605
      ],
      [
        "▁الوحيد",
        -9.654101371765137
      ],
      [
        "▁عظم",
        -9.654559135437012
      ],
      [
        "مان",
        -9.654765129089355
      ],
      [
        "▁خالتي",
        -9.655720710754395
      ],
      [
        "▁1-",
        -9.656210899353027
      ],
      [
        "▁التعليم",
        -9.656493186950684
      ],
      [
        "▁العلميين",
        -9.658695220947266
      ],
      [
        "▁حدث",
        -9.659468650817871
      ],
      [
        "▁شك",
        -9.659483909606934
      ],
      [
        "▁مانيش",
        -9.660856246948242
      ],
      [
        "▁ذات",
        -9.661029815673828
      ],
      [
        "▁كتبت",
        -9.661656379699707
      ],
      [
        "gh",
        -9.661846160888672
      ],
      [
        "رات",
        -9.661892890930176
      ],
      [
        "▁ظل",
        -9.662129402160645
      ],
      [
        "id",
        -9.662895202636719
      ],
      [
        "}",
        -9.663214683532715
      ],
      [
        "15",
        -9.663549423217773
      ],
      [
        "▁🥹",
        -9.663804054260254
      ],
      [
        "▁يغفر",
        -9.664044380187988
      ],
      [
        "ai",
        -9.664294242858887
      ],
      [
        "▁جنانه",
        -9.664667129516602
      ],
      [
        "▁المال",
        -9.664933204650879
      ],
      [
        "▁اخ",
        -9.664993286132812
      ],
      [
        "▁الاخير",
        -9.665339469909668
      ],
      [
        "▁باي",
        -9.66545295715332
      ],
      [
        "▁بالضحك",
        -9.665704727172852
      ],
      [
        "▁إنسان",
        -9.666356086730957
      ],
      [
        "▁يشفيك",
        -9.666651725769043
      ],
      [
        "▁رو",
        -9.667136192321777
      ],
      [
        "مس",
        -9.667305946350098
      ],
      [
        "والله",
        -9.667769432067871
      ],
      [
        "▁بشكل",
        -9.668907165527344
      ],
      [
        "▁فمن",
        -9.668954849243164
      ],
      [
        "ثم",
        -9.669347763061523
      ],
      [
        "▁نقطة",
        -9.669797897338867
      ],
      [
        "▁وصحبه",
        -9.669964790344238
      ],
      [
        "▁المع",
        -9.670478820800781
      ],
      [
        "▁يزيد",
        -9.670500755310059
      ],
      [
        "شار",
        -9.671321868896484
      ],
      [
        "▁ومع",
        -9.671504974365234
      ],
      [
        "▁الكلمات",
        -9.67230224609375
      ],
      [
        "▁البناء",
        -9.672337532043457
      ],
      [
        "▁كثيرة",
        -9.672962188720703
      ],
      [
        "▁كاس",
        -9.673673629760742
      ],
      [
        "▁اصبح",
        -9.673727035522461
      ],
      [
        "▁الارض",
        -9.673765182495117
      ],
      [
        "▁بطريقة",
        -9.674176216125488
      ],
      [
        "▁مشترك",
        -9.674413681030273
      ],
      [
        "▁une",
        -9.674562454223633
      ],
      [
        "طار",
        -9.674777030944824
      ],
      [
        "▁طولت",
        -9.67530632019043
      ],
      [
        "▁تقدم",
        -9.675512313842773
      ],
      [
        "C",
        -9.67563247680664
      ],
      [
        "حفظ",
        -9.675992012023926
      ],
      [
        "سير",
        -9.676926612854004
      ],
      [
        "▁الجمعة",
        -9.67750358581543
      ],
      [
        "▁حقيقية",
        -9.677668571472168
      ],
      [
        "▁وحنا",
        -9.678092956542969
      ],
      [
        "قدر",
        -9.678689956665039
      ],
      [
        "▁si",
        -9.679216384887695
      ],
      [
        "ne",
        -9.679434776306152
      ],
      [
        "💪",
        -9.680091857910156
      ],
      [
        "▁نحي",
        -9.680228233337402
      ],
      [
        "▁نحل",
        -9.680367469787598
      ],
      [
        "▁وأنت",
        -9.68057918548584
      ],
      [
        "▁🌹",
        -9.680750846862793
      ],
      [
        "▁sepia",
        -9.680999755859375
      ],
      [
        "▁لعل",
        -9.681108474731445
      ],
      [
        "▁مم",
        -9.681548118591309
      ],
      [
        "▁حبيبي",
        -9.681584358215332
      ],
      [
        "ده",
        -9.681665420532227
      ],
      [
        "tch",
        -9.681804656982422
      ],
      [
        "▁ليفيديو",
        -9.682093620300293
      ],
      [
        "غرب",
        -9.682100296020508
      ],
      [
        "هدر",
        -9.682100296020508
      ],
      [
        "▁أسأل",
        -9.682665824890137
      ],
      [
        "جه",
        -9.683531761169434
      ],
      [
        "▁يرحمهم",
        -9.68380069732666
      ],
      [
        "▁إني",
        -9.684005737304688
      ],
      [
        "▁أنها",
        -9.685136795043945
      ],
      [
        "▁rak",
        -9.685689926147461
      ],
      [
        "تا",
        -9.685824394226074
      ],
      [
        "▁30",
        -9.685867309570312
      ],
      [
        "▁رايك",
        -9.686009407043457
      ],
      [
        "▁La",
        -9.686370849609375
      ],
      [
        "▁خطرة",
        -9.686556816101074
      ],
      [
        "▁Ma",
        -9.6873779296875
      ],
      [
        "▁وجدت",
        -9.6874418258667
      ],
      [
        "▁,,",
        -9.687685012817383
      ],
      [
        "الف",
        -9.687833786010742
      ],
      [
        "▁دزاير",
        -9.688669204711914
      ],
      [
        "شهر",
        -9.689449310302734
      ],
      [
        "▁إليك",
        -9.690492630004883
      ],
      [
        "R",
        -9.690936088562012
      ],
      [
        "▁خا",
        -9.691425323486328
      ],
      [
        "▁R",
        -9.692501068115234
      ],
      [
        "▁نزيد",
        -9.693257331848145
      ],
      [
        "كس",
        -9.693320274353027
      ],
      [
        "خت",
        -9.693788528442383
      ],
      [
        "▁العلماء",
        -9.694140434265137
      ],
      [
        "قتل",
        -9.694164276123047
      ],
      [
        "▁واجعل",
        -9.694602012634277
      ],
      [
        "▁يرحمه",
        -9.694796562194824
      ],
      [
        "▁تاوعك",
        -9.695013999938965
      ],
      [
        "ia",
        -9.695030212402344
      ],
      [
        "E",
        -9.695975303649902
      ],
      [
        "▁يفرج",
        -9.69711685180664
      ],
      [
        "▁السبب",
        -9.697260856628418
      ],
      [
        "▁bon",
        -9.697568893432617
      ],
      [
        "▁مك",
        -9.697744369506836
      ],
      [
        "ائل",
        -9.698310852050781
      ],
      [
        "اوي",
        -9.698807716369629
      ],
      [
        "▁ابو",
        -9.699841499328613
      ],
      [
        "▁U",
        -9.700058937072754
      ],
      [
        "عم",
        -9.700305938720703
      ],
      [
        "▁العيد",
        -9.700539588928223
      ],
      [
        "▁لدار",
        -9.701128959655762
      ],
      [
        "▁القيامة",
        -9.701218605041504
      ],
      [
        "▁تخدم",
        -9.701565742492676
      ],
      [
        "▁أحمد",
        -9.702102661132812
      ],
      [
        "▁تجعل",
        -9.702706336975098
      ],
      [
        "▁سو",
        -9.702874183654785
      ],
      [
        "▁بعدها",
        -9.703700065612793
      ],
      [
        "ولك",
        -9.705002784729004
      ],
      [
        "em",
        -9.705263137817383
      ],
      [
        "st",
        -9.705367088317871
      ],
      [
        "دية",
        -9.705408096313477
      ],
      [
        "▁2-",
        -9.705585479736328
      ],
      [
        "▁هد",
        -9.706290245056152
      ],
      [
        "شرف",
        -9.706860542297363
      ],
      [
        "قلب",
        -9.706921577453613
      ],
      [
        "▁اكيد",
        -9.707369804382324
      ],
      [
        "▁se",
        -9.707737922668457
      ],
      [
        "))",
        -9.707825660705566
      ],
      [
        "▁الفصل",
        -9.708587646484375
      ],
      [
        "خرج",
        -9.708727836608887
      ],
      [
        "▁نقدرو",
        -9.709013938903809
      ],
      [
        "سن",
        -9.709568977355957
      ],
      [
        "▁تقني",
        -9.710034370422363
      ],
      [
        "▁مدرسة",
        -9.710807800292969
      ],
      [
        "سة",
        -9.711165428161621
      ],
      [
        "يتك",
        -9.711414337158203
      ],
      [
        "▁متى",
        -9.711892127990723
      ],
      [
        "▁والع",
        -9.71226692199707
      ],
      [
        "▁اميين",
        -9.71241569519043
      ],
      [
        "▁الشخص",
        -9.712427139282227
      ],
      [
        "▁خدمت",
        -9.712939262390137
      ],
      [
        "▁🥲",
        -9.713086128234863
      ],
      [
        "▁زمان",
        -9.713478088378906
      ],
      [
        "▁طويلة",
        -9.714943885803223
      ],
      [
        "▁نجح",
        -9.715003967285156
      ],
      [
        "is",
        -9.715123176574707
      ],
      [
        "▁لغ",
        -9.71521282196045
      ],
      [
        "▁رأيك",
        -9.71536922454834
      ],
      [
        "▁در",
        -9.715453147888184
      ],
      [
        "▁العادة",
        -9.716830253601074
      ],
      [
        "فعل",
        -9.717158317565918
      ],
      [
        "حط",
        -9.717791557312012
      ],
      [
        "▁فان",
        -9.717863082885742
      ],
      [
        "▁صحيحة",
        -9.71909236907959
      ],
      [
        "▁سمانة",
        -9.719139099121094
      ],
      [
        "▁كلها",
        -9.71960735321045
      ],
      [
        "▁علمية",
        -9.720064163208008
      ],
      [
        "▁كلمات",
        -9.72006893157959
      ],
      [
        "▁يشوفو",
        -9.72033977508545
      ],
      [
        "▁الرحمان",
        -9.720351219177246
      ],
      [
        "K",
        -9.7217378616333
      ],
      [
        "▁عدل",
        -9.722387313842773
      ],
      [
        "▁أجمل",
        -9.722756385803223
      ],
      [
        "▁إسم",
        -9.723124504089355
      ],
      [
        "▁سواء",
        -9.723194122314453
      ],
      [
        "▁الفكرة",
        -9.723811149597168
      ],
      [
        "▁بإ",
        -9.724122047424316
      ],
      [
        "▁تصريحية",
        -9.724794387817383
      ],
      [
        "▁حياة",
        -9.724979400634766
      ],
      [
        "▁مالا",
        -9.72614574432373
      ],
      [
        "▁v",
        -9.726227760314941
      ],
      [
        "▁يسر",
        -9.726232528686523
      ],
      [
        "رجع",
        -9.72634506225586
      ],
      [
        "▁الدي",
        -9.726571083068848
      ],
      [
        "▁يوفق",
        -9.72657585144043
      ],
      [
        "▁نسكن",
        -9.727398872375488
      ],
      [
        "▁قط",
        -9.72794246673584
      ],
      [
        "▁الوالدين",
        -9.728131294250488
      ],
      [
        "▁اك",
        -9.728466033935547
      ],
      [
        "🤲🏻",
        -9.729414939880371
      ],
      [
        "▁😁",
        -9.731240272521973
      ],
      [
        "▁قدم",
        -9.731276512145996
      ],
      [
        "▁كلشي",
        -9.731294631958008
      ],
      [
        "♥️",
        -9.73139762878418
      ],
      [
        "ند",
        -9.7315034866333
      ],
      [
        "▁الفرنسية",
        -9.731796264648438
      ],
      [
        "▁نفسها",
        -9.73270320892334
      ],
      [
        "▁شخصية",
        -9.7327299118042
      ],
      [
        "fi",
        -9.733436584472656
      ],
      [
        "▁الأستاذ",
        -9.734333992004395
      ],
      [
        "▁ترى",
        -9.73498821258545
      ],
      [
        "▁فيديوهاتك",
        -9.73558521270752
      ],
      [
        "▁🔥",
        -9.736130714416504
      ],
      [
        "▁??",
        -9.736381530761719
      ],
      [
        "▁غادي",
        -9.73643970489502
      ],
      [
        "▁المشبه",
        -9.736495971679688
      ],
      [
        "▁القادر",
        -9.736501693725586
      ],
      [
        "▁ونتا",
        -9.73691177368164
      ],
      [
        "▁سبيل",
        -9.737431526184082
      ],
      [
        "▁ادب",
        -9.737516403198242
      ],
      [
        "▁قوله",
        -9.73770523071289
      ],
      [
        "▁وبين",
        -9.737748146057129
      ],
      [
        "▁رجعوني",
        -9.737872123718262
      ],
      [
        "▁نبينا",
        -9.73810863494873
      ],
      [
        "▁عشر",
        -9.73837947845459
      ],
      [
        "▁تسمع",
        -9.738506317138672
      ],
      [
        "oo",
        -9.738543510437012
      ],
      [
        "نس",
        -9.738799095153809
      ],
      [
        "▁نشري",
        -9.740021705627441
      ],
      [
        "▁تكوني",
        -9.74030876159668
      ],
      [
        "زة",
        -9.740644454956055
      ],
      [
        "▁نقل",
        -9.74081802368164
      ],
      [
        "▁يريد",
        -9.740862846374512
      ],
      [
        "▁شفتو",
        -9.740982055664062
      ],
      [
        "▁نربح",
        -9.741411209106445
      ],
      [
        "روب",
        -9.741748809814453
      ],
      [
        "▁mo",
        -9.74221134185791
      ],
      [
        "▁شرحك",
        -9.742918014526367
      ],
      [
        "▁طيح",
        -9.742950439453125
      ],
      [
        "طيب",
        -9.74318790435791
      ],
      [
        "▁ار",
        -9.74325180053711
      ],
      [
        "▁نضحك",
        -9.743624687194824
      ],
      [
        "▁آله",
        -9.743803024291992
      ],
      [
        "▁فرح",
        -9.743812561035156
      ],
      [
        "16",
        -9.744431495666504
      ],
      [
        "nd",
        -9.74512004852295
      ],
      [
        "▁سامية",
        -9.745177268981934
      ],
      [
        "فى",
        -9.74611759185791
      ],
      [
        "خف",
        -9.746553421020508
      ],
      [
        "جعل",
        -9.746611595153809
      ],
      [
        "▁دليل",
        -9.747010231018066
      ],
      [
        "▁تكتب",
        -9.74719524383545
      ],
      [
        "▁❤😊",
        -9.747291564941406
      ],
      [
        "▁كيفي",
        -9.747322082519531
      ],
      [
        "▁🎉❤",
        -9.747413635253906
      ],
      [
        "▁الاسم",
        -9.748350143432617
      ],
      [
        "▁وجود",
        -9.7488431930542
      ],
      [
        "▁تق",
        -9.749594688415527
      ],
      [
        "▁صدق",
        -9.750091552734375
      ],
      [
        "▁p",
        -9.750986099243164
      ],
      [
        "▁اقسم",
        -9.751932144165039
      ],
      [
        "▁kima",
        -9.752045631408691
      ],
      [
        "▁✅",
        -9.752283096313477
      ],
      [
        "▁فرق",
        -9.752585411071777
      ],
      [
        "▁شو",
        -9.753861427307129
      ],
      [
        "▁جيد",
        -9.753862380981445
      ],
      [
        "اص",
        -9.754056930541992
      ],
      [
        "▁أريد",
        -9.754172325134277
      ],
      [
        "▁تعمل",
        -9.754643440246582
      ],
      [
        "▁المعدل",
        -9.754749298095703
      ],
      [
        "▁الواحد",
        -9.754905700683594
      ],
      [
        "▁تبقى",
        -9.755345344543457
      ],
      [
        "▁راها",
        -9.755573272705078
      ],
      [
        "حق",
        -9.756623268127441
      ],
      [
        "▁كاينة",
        -9.757271766662598
      ],
      [
        "▁استعارة",
        -9.75730037689209
      ],
      [
        "▁الرعد",
        -9.757733345031738
      ],
      [
        "وان",
        -9.758041381835938
      ],
      [
        "اض",
        -9.75964641571045
      ],
      [
        "O",
        -9.75983715057373
      ],
      [
        "▁البرنامج",
        -9.759857177734375
      ],
      [
        "خبر",
        -9.759989738464355
      ],
      [
        "▁كلامك",
        -9.760326385498047
      ],
      [
        "حر",
        -9.7606782913208
      ],
      [
        "▁تا",
        -9.76075267791748
      ],
      [
        "راح",
        -9.761220932006836
      ],
      [
        "▁سمع",
        -9.76130485534668
      ],
      [
        "جن",
        -9.761368751525879
      ],
      [
        "▁النوع",
        -9.761542320251465
      ],
      [
        "شرح",
        -9.761713027954102
      ],
      [
        "خل",
        -9.762054443359375
      ],
      [
        "▁يما",
        -9.7621431350708
      ],
      [
        "▁الخاص",
        -9.762633323669434
      ],
      [
        "▁صراتلي",
        -9.762889862060547
      ],
      [
        "فه",
        -9.762953758239746
      ],
      [
        "▁الكلمة",
        -9.763100624084473
      ],
      [
        "إ",
        -9.763886451721191
      ],
      [
        "غر",
        -9.763894081115723
      ],
      [
        "▁درتي",
        -9.764150619506836
      ],
      [
        "▁Rabi",
        -9.764863967895508
      ],
      [
        "مات",
        -9.76496410369873
      ],
      [
        "▁هاديك",
        -9.765878677368164
      ],
      [
        "▁تخ",
        -9.766139030456543
      ],
      [
        "▁رزق",
        -9.76616096496582
      ],
      [
        "▁الفرق",
        -9.766828536987305
      ],
      [
        "▁مستوى",
        -9.767684936523438
      ],
      [
        "▁يب",
        -9.767818450927734
      ],
      [
        "▁ghir",
        -9.768074989318848
      ],
      [
        "▁غالب",
        -9.768606185913086
      ],
      [
        "sh",
        -9.769784927368164
      ],
      [
        "▁ورد",
        -9.770190238952637
      ],
      [
        "يدي",
        -9.770207405090332
      ],
      [
        "دور",
        -9.770807266235352
      ],
      [
        "▁تهبل",
        -9.771439552307129
      ],
      [
        "▁دو",
        -9.772401809692383
      ],
      [
        "وى",
        -9.772642135620117
      ],
      [
        "▁المزيد",
        -9.772806167602539
      ],
      [
        "سخ",
        -9.77364730834961
      ],
      [
        "▁طاح",
        -9.773908615112305
      ],
      [
        "▁متابعة",
        -9.775003433227539
      ],
      [
        "▁ثانية",
        -9.775218963623047
      ],
      [
        "▁يفهم",
        -9.775294303894043
      ],
      [
        "▁خص",
        -9.7766752243042
      ],
      [
        "▁راسي",
        -9.77729606628418
      ],
      [
        "▁يكتب",
        -9.778064727783203
      ],
      [
        "فضل",
        -9.778363227844238
      ],
      [
        "hi",
        -9.778528213500977
      ],
      [
        "▁يخدم",
        -9.778820991516113
      ],
      [
        "زن",
        -9.77994441986084
      ],
      [
        "▁اروع",
        -9.780055046081543
      ],
      [
        "يهم",
        -9.780159950256348
      ],
      [
        "▁مادام",
        -9.780218124389648
      ],
      [
        "▁أصبح",
        -9.780348777770996
      ],
      [
        "▁صوتك",
        -9.780533790588379
      ],
      [
        "▁لاي",
        -9.781007766723633
      ],
      [
        "▁العفو",
        -9.782044410705566
      ],
      [
        "▁طالبة",
        -9.783217430114746
      ],
      [
        "▁جواب",
        -9.78426742553711
      ],
      [
        "زين",
        -9.785117149353027
      ],
      [
        "▁Y",
        -9.785494804382324
      ],
      [
        "لام",
        -9.785543441772461
      ],
      [
        "tha",
        -9.78650188446045
      ],
      [
        "وط",
        -9.788146018981934
      ],
      [
        "▁يح",
        -9.788775444030762
      ],
      [
        "▁أخ",
        -9.788880348205566
      ],
      [
        "▁يومين",
        -9.78901195526123
      ],
      [
        "▁الوحدة",
        -9.789346694946289
      ],
      [
        "تبع",
        -9.790146827697754
      ],
      [
        "▁العين",
        -9.790324211120605
      ],
      [
        "▁عربي",
        -9.790437698364258
      ],
      [
        "▁تقريبا",
        -9.790748596191406
      ],
      [
        "▁صوالح",
        -9.790897369384766
      ],
      [
        "▁موت",
        -9.791147232055664
      ],
      [
        "▁\r",
        -9.79222583770752
      ],
      [
        "▁صف",
        -9.79299545288086
      ],
      [
        "▁حكاياتك",
        -9.79300308227539
      ],
      [
        "▁E",
        -9.793163299560547
      ],
      [
        "▁موجود",
        -9.793516159057617
      ],
      [
        "▁نراجع",
        -9.793577194213867
      ],
      [
        "داء",
        -9.793672561645508
      ],
      [
        "▁ومبعد",
        -9.793696403503418
      ],
      [
        "che",
        -9.793750762939453
      ],
      [
        "▁للأسف",
        -9.79406452178955
      ],
      [
        "▁rah",
        -9.794224739074707
      ],
      [
        "▁dar",
        -9.794268608093262
      ],
      [
        "غل",
        -9.794313430786133
      ],
      [
        "▁الشهر",
        -9.794681549072266
      ],
      [
        "▁خخ",
        -9.794692039489746
      ],
      [
        "▁al",
        -9.795400619506836
      ],
      [
        "▁بالمعدل",
        -9.796564102172852
      ],
      [
        "▁القيم",
        -9.797073364257812
      ],
      [
        "▁نقص",
        -9.797201156616211
      ],
      [
        "▁Merci",
        -9.797224044799805
      ],
      [
        "▁جدي",
        -9.797784805297852
      ],
      [
        "▁افهم",
        -9.797850608825684
      ],
      [
        "▁باباك",
        -9.797935485839844
      ],
      [
        "H",
        -9.79825496673584
      ],
      [
        "ادة",
        -9.798406600952148
      ],
      [
        "▁يوتيوب",
        -9.798733711242676
      ],
      [
        "▁شرف",
        -9.798858642578125
      ],
      [
        "ولة",
        -9.798872947692871
      ],
      [
        "سل",
        -9.79896068572998
      ],
      [
        "▁الملك",
        -9.79906177520752
      ],
      [
        "▁هدر",
        -9.799192428588867
      ],
      [
        "▁واذا",
        -9.799246788024902
      ],
      [
        "▁البو",
        -9.79938793182373
      ],
      [
        "حو",
        -9.799627304077148
      ],
      [
        "▁بنتي",
        -9.799829483032227
      ],
      [
        "▁بالاك",
        -9.800032615661621
      ],
      [
        "رف",
        -9.80074691772461
      ],
      [
        "▁نتع",
        -9.80081844329834
      ],
      [
        "▁علمي",
        -9.801329612731934
      ],
      [
        "▁اش",
        -9.8016996383667
      ],
      [
        "▁الجملة",
        -9.8026123046875
      ],
      [
        "▁نورمالمو",
        -9.802896499633789
      ],
      [
        "▁حسبنا",
        -9.80317497253418
      ],
      [
        "▁وخلاص",
        -9.80329704284668
      ],
      [
        "▁حابين",
        -9.803297996520996
      ],
      [
        "▁do",
        -9.803728103637695
      ],
      [
        "▁تضحك",
        -9.803738594055176
      ],
      [
        "▁العائلة",
        -9.80389404296875
      ],
      [
        "▁تربح",
        -9.80393123626709
      ],
      [
        "▁ولات",
        -9.80396556854248
      ],
      [
        "▁الخاصة",
        -9.80471134185791
      ],
      [
        "▁بات",
        -9.805261611938477
      ],
      [
        "F",
        -9.805363655090332
      ],
      [
        "▁سياسي",
        -9.806204795837402
      ],
      [
        "▁تخاف",
        -9.806446075439453
      ],
      [
        "▁لف",
        -9.806467056274414
      ],
      [
        "▁فالم",
        -9.807135581970215
      ],
      [
        "▁وميلود",
        -9.807289123535156
      ],
      [
        "▁اسئلة",
        -9.808103561401367
      ],
      [
        "17",
        -9.808175086975098
      ],
      [
        "كمل",
        -9.808514595031738
      ],
      [
        "▁يطيح",
        -9.8089599609375
      ],
      [
        "هذا",
        -9.809086799621582
      ],
      [
        "▁ye",
        -9.809306144714355
      ],
      [
        "▁يوصل",
        -9.809823989868164
      ],
      [
        "▁القول",
        -9.810185432434082
      ],
      [
        "lk",
        -9.81036376953125
      ],
      [
        "▁nchlh",
        -9.810771942138672
      ],
      [
        "رس",
        -9.811285972595215
      ],
      [
        "B",
        -9.811326026916504
      ],
      [
        "▁da",
        -9.811456680297852
      ],
      [
        "▁عباد",
        -9.811882972717285
      ],
      [
        "▁مب",
        -9.812895774841309
      ],
      [
        "▁لح",
        -9.8131742477417
      ],
      [
        "▁للاسف",
        -9.813289642333984
      ],
      [
        "خو",
        -9.813868522644043
      ],
      [
        "▁ضرك",
        -9.813979148864746
      ],
      [
        "باك",
        -9.814302444458008
      ],
      [
        "▁الشيء",
        -9.814726829528809
      ],
      [
        "▁المقال",
        -9.815131187438965
      ],
      [
        "▁مقدرتش",
        -9.815136909484863
      ],
      [
        "▁الطفلة",
        -9.816451072692871
      ],
      [
        "▁استمر",
        -9.816642761230469
      ],
      [
        "▁اجد",
        -9.816850662231445
      ],
      [
        "▁اسمع",
        -9.8175048828125
      ],
      [
        "اته",
        -9.817795753479004
      ],
      [
        "▁حس",
        -9.81800651550293
      ],
      [
        "دك",
        -9.818657875061035
      ],
      [
        "▁الإجابة",
        -9.819430351257324
      ],
      [
        "▁نلقا",
        -9.819881439208984
      ],
      [
        "▁جيدا",
        -9.821565628051758
      ],
      [
        "▁love",
        -9.82156753540039
      ],
      [
        "▁ميت",
        -9.82157039642334
      ],
      [
        "▁عاود",
        -9.821844100952148
      ],
      [
        "▁نوض",
        -9.822093963623047
      ],
      [
        "▁كاملة",
        -9.822186470031738
      ],
      [
        "▁العاصمة",
        -9.822250366210938
      ],
      [
        "▁يخ",
        -9.823745727539062
      ],
      [
        "▁نرجع",
        -9.82459831237793
      ],
      [
        "▁du",
        -9.824859619140625
      ],
      [
        "▁برحمتك",
        -9.825044631958008
      ],
      [
        "▁نعمة",
        -9.825228691101074
      ],
      [
        "▁طلعو",
        -9.825316429138184
      ],
      [
        "▁وحتى",
        -9.825617790222168
      ],
      [
        "▁حوايج",
        -9.825789451599121
      ],
      [
        "رفع",
        -9.826141357421875
      ],
      [
        "▁دولة",
        -9.826510429382324
      ],
      [
        "▁خالي",
        -9.826773643493652
      ],
      [
        "▁ثبت",
        -9.826898574829102
      ],
      [
        "000",
        -9.82710075378418
      ],
      [
        "▁مافهمتش",
        -9.829127311706543
      ],
      [
        "▁اصل",
        -9.829798698425293
      ],
      [
        "▁نولي",
        -9.830039978027344
      ],
      [
        "اتو",
        -9.830329895019531
      ],
      [
        "▁يهدي",
        -9.830362319946289
      ],
      [
        "▁خطأ",
        -9.830434799194336
      ],
      [
        "▁الحزن",
        -9.830487251281738
      ],
      [
        "sa",
        -9.83090591430664
      ],
      [
        "▁كتابك",
        -9.830961227416992
      ],
      [
        "▁😢❤",
        -9.8314790725708
      ],
      [
        "▁–",
        -9.831555366516113
      ],
      [
        "▁كا",
        -9.831866264343262
      ],
      [
        "هش",
        -9.831952095031738
      ],
      [
        "▁بيسك",
        -9.832287788391113
      ],
      [
        "▁tu",
        -9.832293510437012
      ],
      [
        "▁يخص",
        -9.832742691040039
      ],
      [
        "▁نس",
        -9.832910537719727
      ],
      [
        "▁تاعنا",
        -9.833020210266113
      ],
      [
        "▁فهل",
        -9.833272933959961
      ],
      [
        "▁مالك",
        -9.83413314819336
      ],
      [
        "احة",
        -9.834607124328613
      ],
      [
        "▁لب",
        -9.834641456604004
      ],
      [
        "▁وجعل",
        -9.835107803344727
      ],
      [
        "▁المرور",
        -9.835396766662598
      ],
      [
        "▁الشباب",
        -9.83651065826416
      ],
      [
        "▁الأخت",
        -9.837169647216797
      ],
      [
        "▁واجب",
        -9.837400436401367
      ],
      [
        "حد",
        -9.837464332580566
      ],
      [
        "لح",
        -9.838010787963867
      ],
      [
        "im",
        -9.838018417358398
      ],
      [
        "G",
        -9.838103294372559
      ],
      [
        "▁ساهلة",
        -9.838104248046875
      ],
      [
        "▁لق",
        -9.838260650634766
      ],
      [
        "▁البلاد",
        -9.838647842407227
      ],
      [
        "▁دورة",
        -9.83892822265625
      ],
      [
        "كرم",
        -9.838956832885742
      ],
      [
        "▁ماتت",
        -9.839418411254883
      ],
      [
        "▁حرف",
        -9.839452743530273
      ],
      [
        "2025",
        -9.839949607849121
      ],
      [
        "▁حلم",
        -9.840211868286133
      ],
      [
        "▁are",
        -9.840781211853027
      ],
      [
        "نك",
        -9.840782165527344
      ],
      [
        "نج",
        -9.840898513793945
      ],
      [
        "▁لست",
        -9.840996742248535
      ],
      [
        "🥲",
        -9.841054916381836
      ],
      [
        "▁البحر",
        -9.841086387634277
      ],
      [
        "▁ابي",
        -9.841482162475586
      ],
      [
        "زال",
        -9.842907905578613
      ],
      [
        "▁السلسلة",
        -9.843022346496582
      ],
      [
        "🌹",
        -9.843721389770508
      ],
      [
        "رين",
        -9.844030380249023
      ],
      [
        "▁الفجر",
        -9.845810890197754
      ],
      [
        "▁هدو",
        -9.846343040466309
      ],
      [
        "▁ولك",
        -9.846482276916504
      ],
      [
        "صرا",
        -9.846572875976562
      ],
      [
        "▁ذاك",
        -9.847244262695312
      ],
      [
        "12",
        -9.84743595123291
      ],
      [
        "▁ملخص",
        -9.847448348999023
      ],
      [
        "خوف",
        -9.847576141357422
      ],
      [
        "▁بد",
        -9.847698211669922
      ],
      [
        "▁شت",
        -9.84801197052002
      ],
      [
        "▁تخلي",
        -9.848163604736328
      ],
      [
        "ابة",
        -9.848173141479492
      ],
      [
        "▁كذب",
        -9.848651885986328
      ],
      [
        "وفي",
        -9.848652839660645
      ],
      [
        "▁والعافية",
        -9.849348068237305
      ],
      [
        "▁الفديو",
        -9.849454879760742
      ],
      [
        "▁الأن",
        -9.849566459655762
      ],
      [
        "▁وإذا",
        -9.84967041015625
      ],
      [
        "فاء",
        -9.84968376159668
      ],
      [
        "▁وفق",
        -9.850411415100098
      ],
      [
        "▁يطلع",
        -9.851076126098633
      ],
      [
        "▁ادخل",
        -9.851466178894043
      ],
      [
        "▁بكم",
        -9.851577758789062
      ],
      [
        "▁hada",
        -9.851685523986816
      ],
      [
        "▁الحي",
        -9.852426528930664
      ],
      [
        "▁نجحنا",
        -9.852670669555664
      ],
      [
        "▁سوجي",
        -9.85311508178711
      ],
      [
        "▁الوصفة",
        -9.854055404663086
      ],
      [
        "وغ",
        -9.854183197021484
      ],
      [
        "▁يعيشك",
        -9.854286193847656
      ],
      [
        "▁يبان",
        -9.854353904724121
      ],
      [
        "راد",
        -9.85448932647705
      ],
      [
        "الة",
        -9.854835510253906
      ],
      [
        "▁المراجعة",
        -9.855608940124512
      ],
      [
        "▁لحق",
        -9.85595989227295
      ],
      [
        "▁فصل",
        -9.855989456176758
      ],
      [
        "سك",
        -9.856419563293457
      ],
      [
        "▁رسالة",
        -9.85696792602539
      ],
      [
        "▁خدمة",
        -9.857284545898438
      ],
      [
        "عيش",
        -9.857841491699219
      ],
      [
        "▁مباشرة",
        -9.857945442199707
      ],
      [
        "الا",
        -9.85860824584961
      ],
      [
        "▁بلد",
        -9.859282493591309
      ],
      [
        "بصح",
        -9.859530448913574
      ],
      [
        "ضا",
        -9.85953426361084
      ],
      [
        "▁الناجحين",
        -9.859692573547363
      ],
      [
        "▁العمر",
        -9.859780311584473
      ],
      [
        "▁الغالية",
        -9.859816551208496
      ],
      [
        "▁عيدك",
        -9.85982894897461
      ],
      [
        "حم",
        -9.860215187072754
      ],
      [
        "لى",
        -9.860410690307617
      ],
      [
        "▁وحدها",
        -9.86087703704834
      ],
      [
        "▁فالباك",
        -9.8616304397583
      ],
      [
        "▁المقترحات",
        -9.861709594726562
      ],
      [
        "🖤",
        -9.8629150390625
      ],
      [
        "▁مقال",
        -9.86352252960205
      ],
      [
        "رحم",
        -9.863728523254395
      ],
      [
        "▁راي",
        -9.86404037475586
      ],
      [
        "▁جزائرية",
        -9.864212036132812
      ],
      [
        "▁عدة",
        -9.864253997802734
      ],
      [
        "▁تريد",
        -9.864547729492188
      ],
      [
        "▁أبدا",
        -9.86478328704834
      ],
      [
        "▁الكبير",
        -9.864974975585938
      ],
      [
        "▁قوم",
        -9.865869522094727
      ],
      [
        "▁يكفي",
        -9.866311073303223
      ],
      [
        "▁أت",
        -9.866698265075684
      ],
      [
        "▁ويعطيك",
        -9.867022514343262
      ],
      [
        "▁انتم",
        -9.867892265319824
      ],
      [
        "قرا",
        -9.868483543395996
      ],
      [
        "ur",
        -9.868555068969727
      ],
      [
        "▁باسم",
        -9.868829727172852
      ],
      [
        "tik",
        -9.868865966796875
      ],
      [
        "▁rani",
        -9.869391441345215
      ],
      [
        "▁نصيب",
        -9.869949340820312
      ],
      [
        "▁شئ",
        -9.870675086975098
      ],
      [
        "▁بينا",
        -9.871078491210938
      ],
      [
        "lh",
        -9.871289253234863
      ],
      [
        "▁اكتب",
        -9.87141227722168
      ],
      [
        "▁هاته",
        -9.871557235717773
      ],
      [
        "▁علامة",
        -9.872113227844238
      ],
      [
        "▁تطبيق",
        -9.872190475463867
      ],
      [
        "جار",
        -9.872705459594727
      ],
      [
        "▁انتهى",
        -9.87401294708252
      ],
      [
        "▁ينجحكم",
        -9.874024391174316
      ],
      [
        "▁مول",
        -9.874995231628418
      ],
      [
        "▁علما",
        -9.875129699707031
      ],
      [
        "▁الراجل",
        -9.875370025634766
      ],
      [
        "▁ومت",
        -9.875760078430176
      ],
      [
        "▁مريم",
        -9.875771522521973
      ],
      [
        "😁",
        -9.875874519348145
      ],
      [
        "▁البيام",
        -9.876473426818848
      ],
      [
        "▁لحد",
        -9.877044677734375
      ],
      [
        "علي",
        -9.877084732055664
      ],
      [
        "▁عرف",
        -9.877106666564941
      ],
      [
        "لق",
        -9.877374649047852
      ],
      [
        "▁الصور",
        -9.877501487731934
      ],
      [
        "▁بلادنا",
        -9.878976821899414
      ],
      [
        "▁تاعها",
        -9.879049301147461
      ],
      [
        "▁نصائح",
        -9.879530906677246
      ],
      [
        "▁تشبه",
        -9.879794120788574
      ],
      [
        "▁اسمو",
        -9.87980842590332
      ],
      [
        "▁يسترك",
        -9.880783081054688
      ],
      [
        "▁لكان",
        -9.88127326965332
      ],
      [
        "ach",
        -9.881303787231445
      ],
      [
        "دل",
        -9.881739616394043
      ],
      [
        "حس",
        -9.88259506225586
      ],
      [
        "▁قنشوبة",
        -9.882616996765137
      ],
      [
        "▁تل",
        -9.882647514343262
      ],
      [
        "▁المو",
        -9.88275146484375
      ],
      [
        "▁mat",
        -9.883156776428223
      ],
      [
        "يلة",
        -9.88327693939209
      ],
      [
        "N",
        -9.883319854736328
      ],
      [
        "▁Redx",
        -9.884057998657227
      ],
      [
        "▁السر",
        -9.884090423583984
      ],
      [
        "▁الباردة",
        -9.884302139282227
      ],
      [
        "▁هدرت",
        -9.884712219238281
      ],
      [
        "▁واخيرا",
        -9.885274887084961
      ],
      [
        "▁نجحني",
        -9.885492324829102
      ],
      [
        "▁أمام",
        -9.886022567749023
      ],
      [
        "▁صبر",
        -9.886417388916016
      ],
      [
        "▁السوداء",
        -9.886566162109375
      ],
      [
        "وض",
        -9.886658668518066
      ],
      [
        "▁هكدا",
        -9.886786460876465
      ],
      [
        "▁القضية",
        -9.887332916259766
      ],
      [
        "ho",
        -9.887590408325195
      ],
      [
        "كن",
        -9.887614250183105
      ],
      [
        "▁يوفقكم",
        -9.888350486755371
      ],
      [
        "▁السماء",
        -9.888382911682129
      ],
      [
        "لحق",
        -9.88856029510498
      ],
      [
        "▁😮😮",
        -9.888713836669922
      ],
      [
        "▁قراءة",
        -9.88922119140625
      ],
      [
        "ائه",
        -9.889349937438965
      ],
      [
        "▁ضرب",
        -9.889857292175293
      ],
      [
        "سف",
        -9.889924049377441
      ],
      [
        "▁عدت",
        -9.890125274658203
      ],
      [
        "▁يع",
        -9.890691757202148
      ],
      [
        "ly",
        -9.89079761505127
      ],
      [
        "زل",
        -9.891080856323242
      ],
      [
        "ائر",
        -9.891172409057617
      ],
      [
        "▁القبر",
        -9.891751289367676
      ],
      [
        "بني",
        -9.89300537109375
      ],
      [
        "قسم",
        -9.893244743347168
      ],
      [
        "▁الأدب",
        -9.894071578979492
      ],
      [
        "▁win",
        -9.894515037536621
      ],
      [
        "▁ارحمه",
        -9.894633293151855
      ],
      [
        "يدة",
        -9.895339012145996
      ],
      [
        "دن",
        -9.895641326904297
      ],
      [
        "▁شرط",
        -9.895788192749023
      ],
      [
        "19",
        -9.895831108093262
      ],
      [
        "▁النثر",
        -9.895919799804688
      ],
      [
        "▁الحقيقي",
        -9.896623611450195
      ],
      [
        "be",
        -9.896707534790039
      ],
      [
        "~",
        -9.897107124328613
      ],
      [
        "▁نع",
        -9.897612571716309
      ],
      [
        "▁تحل",
        -9.898557662963867
      ],
      [
        "▁الرابط",
        -9.898972511291504
      ],
      [
        "▁انني",
        -9.899020195007324
      ],
      [
        "▁الكتب",
        -9.899277687072754
      ],
      [
        "شوف",
        -9.899636268615723
      ],
      [
        "خذ",
        -9.899775505065918
      ],
      [
        "30",
        -9.900171279907227
      ],
      [
        "▁علابالك",
        -9.900627136230469
      ],
      [
        "▁يولي",
        -9.900917053222656
      ],
      [
        "▁اصحاب",
        -9.901180267333984
      ],
      [
        "👌",
        -9.90170669555664
      ],
      [
        "▁المستقبل",
        -9.902170181274414
      ],
      [
        "▁يطول",
        -9.902207374572754
      ],
      [
        "▁بشر",
        -9.902656555175781
      ],
      [
        "▁lah",
        -9.90289306640625
      ],
      [
        "غو",
        -9.903931617736816
      ],
      [
        "▁كلما",
        -9.904170036315918
      ],
      [
        "▁المدرسة",
        -9.904582023620605
      ],
      [
        "▁يقال",
        -9.90472412109375
      ],
      [
        "▁حن",
        -9.904862403869629
      ],
      [
        "فرح",
        -9.905137062072754
      ],
      [
        "تاع",
        -9.905632019042969
      ],
      [
        "💕",
        -9.905747413635254
      ],
      [
        "▁نصب",
        -9.906312942504883
      ],
      [
        "18",
        -9.907201766967773
      ],
      [
        "▁الهم",
        -9.907743453979492
      ],
      [
        "▁تحس",
        -9.90777587890625
      ],
      [
        "▁معنديش",
        -9.907890319824219
      ],
      [
        "لان",
        -9.908682823181152
      ],
      [
        "▁سكر",
        -9.909135818481445
      ],
      [
        "lik",
        -9.909330368041992
      ],
      [
        "▁التلاميذ",
        -9.90959358215332
      ],
      [
        "▁مميز",
        -9.909978866577148
      ],
      [
        "▁ba",
        -9.910096168518066
      ],
      [
        "▁الزوج",
        -9.910154342651367
      ],
      [
        "▁مدينة",
        -9.911206245422363
      ],
      [
        "▁دول",
        -9.911468505859375
      ],
      [
        "▁الأعضاء",
        -9.911734580993652
      ],
      [
        "▁روضة",
        -9.911754608154297
      ],
      [
        "▁ياخي",
        -9.911860466003418
      ],
      [
        "جاز",
        -9.912066459655762
      ],
      [
        "▁يش",
        -9.912263870239258
      ],
      [
        "▁ce",
        -9.912413597106934
      ],
      [
        "يمة",
        -9.91258716583252
      ],
      [
        "▁فر",
        -9.913032531738281
      ],
      [
        "عر",
        -9.91308879852295
      ],
      [
        "▁يخلي",
        -9.913313865661621
      ],
      [
        "▁مساء",
        -9.913972854614258
      ],
      [
        "▁غدا",
        -9.914058685302734
      ],
      [
        "▁الغالي",
        -9.914673805236816
      ],
      [
        "▁البشر",
        -9.915254592895508
      ],
      [
        "▁نصف",
        -9.91532039642334
      ],
      [
        "▁الحلقة",
        -9.915436744689941
      ],
      [
        "ik",
        -9.915593147277832
      ],
      [
        "نه",
        -9.9158935546875
      ],
      [
        "▁خي",
        -9.916242599487305
      ],
      [
        "▁ويرحم",
        -9.916282653808594
      ],
      [
        "فيد",
        -9.916584014892578
      ],
      [
        "▁خمس",
        -9.917335510253906
      ],
      [
        "▁قبره",
        -9.91756534576416
      ],
      [
        "??",
        -9.918217658996582
      ],
      [
        "▁يشافيك",
        -9.918769836425781
      ],
      [
        "عقل",
        -9.918793678283691
      ],
      [
        "▁my",
        -9.919041633605957
      ],
      [
        "▁فهذا",
        -9.91915225982666
      ],
      [
        "ent",
        -9.919540405273438
      ],
      [
        "▁ض",
        -9.920060157775879
      ],
      [
        "لون",
        -9.920092582702637
      ],
      [
        "يبة",
        -9.920173645019531
      ],
      [
        "تلك",
        -9.920217514038086
      ],
      [
        "▁معرفتش",
        -9.920441627502441
      ],
      [
        "▁الواسعة",
        -9.920534133911133
      ],
      [
        "خدم",
        -9.921124458312988
      ],
      [
        "طلب",
        -9.921149253845215
      ],
      [
        "سق",
        -9.921709060668945
      ],
      [
        "▁الايام",
        -9.922609329223633
      ],
      [
        "▁جمع",
        -9.92334270477295
      ],
      [
        "▁نق",
        -9.923810005187988
      ],
      [
        "امي",
        -9.923882484436035
      ],
      [
        "لغ",
        -9.924040794372559
      ],
      [
        "▁بناء",
        -9.924249649047852
      ],
      [
        "▁ترد",
        -9.92439079284668
      ],
      [
        "▁مبرووك",
        -9.924511909484863
      ],
      [
        "▁انشالله",
        -9.92513370513916
      ],
      [
        "حكي",
        -9.92530345916748
      ],
      [
        "▁معناها",
        -9.926743507385254
      ],
      [
        "لوا",
        -9.92750072479248
      ],
      [
        "do",
        -9.927738189697266
      ],
      [
        "صدق",
        -9.92774772644043
      ],
      [
        "▁ارجوك",
        -9.927827835083008
      ],
      [
        "▁يرجع",
        -9.928513526916504
      ],
      [
        "se",
        -9.928614616394043
      ],
      [
        "▁يموت",
        -9.929036140441895
      ],
      [
        "▁ذو",
        -9.929228782653809
      ],
      [
        "▁hna",
        -9.929245948791504
      ],
      [
        "سمع",
        -9.929322242736816
      ],
      [
        "▁تز",
        -9.929482460021973
      ],
      [
        "ترك",
        -9.930061340332031
      ],
      [
        "تع",
        -9.930387496948242
      ],
      [
        "▁نجحت",
        -9.930401802062988
      ],
      [
        "▁اقل",
        -9.930424690246582
      ],
      [
        "▁تعرفي",
        -9.930636405944824
      ],
      [
        "تل",
        -9.930713653564453
      ],
      [
        "▁الفكري",
        -9.930845260620117
      ],
      [
        "بشر",
        -9.930998802185059
      ],
      [
        "ينة",
        -9.931126594543457
      ],
      [
        "▁قر",
        -9.931177139282227
      ],
      [
        "▁سب",
        -9.931608200073242
      ],
      [
        "▁المستعان",
        -9.932036399841309
      ],
      [
        "▁يهدينا",
        -9.932336807250977
      ],
      [
        "▁on",
        -9.93284797668457
      ],
      [
        "▁الجاي",
        -9.933404922485352
      ],
      [
        "▁يعمل",
        -9.933825492858887
      ],
      [
        "▁احكي",
        -9.933826446533203
      ],
      [
        "▁حتي",
        -9.934041023254395
      ],
      [
        "▁صعيب",
        -9.93411636352539
      ],
      [
        "▁يعيش",
        -9.934167861938477
      ],
      [
        "▁والح",
        -9.934171676635742
      ],
      [
        "مد",
        -9.934295654296875
      ],
      [
        "▁اليك",
        -9.934416770935059
      ],
      [
        "ضي",
        -9.93443489074707
      ],
      [
        "▁ولدي",
        -9.93448257446289
      ],
      [
        "▁فيديوات",
        -9.935372352600098
      ],
      [
        "دب",
        -9.935598373413086
      ],
      [
        "▁تعود",
        -9.935781478881836
      ],
      [
        "ic",
        -9.935922622680664
      ],
      [
        "ياء",
        -9.936053276062012
      ],
      [
        "🇩",
        -9.936123847961426
      ],
      [
        "▁ويوفقك",
        -9.936250686645508
      ],
      [
        "ره",
        -9.936384201049805
      ],
      [
        "😔",
        -9.93649673461914
      ],
      [
        "ci",
        -9.936751365661621
      ],
      [
        "مكان",
        -9.937603950500488
      ],
      [
        "▁نحو",
        -9.937782287597656
      ],
      [
        "▁باطل",
        -9.937813758850098
      ],
      [
        "ana",
        -9.93787956237793
      ],
      [
        "ter",
        -9.93798828125
      ],
      [
        "▁وقيل",
        -9.938338279724121
      ],
      [
        "بع",
        -9.938385009765625
      ],
      [
        "▁السن",
        -9.938430786132812
      ],
      [
        "اخر",
        -9.938477516174316
      ],
      [
        "▁الغرب",
        -9.938539505004883
      ],
      [
        "▁يتفرج",
        -9.938989639282227
      ],
      [
        "▁تعجبني",
        -9.939064025878906
      ],
      [
        "▁اقامة",
        -9.939067840576172
      ],
      [
        "▁تبع",
        -9.93947696685791
      ],
      [
        "عن",
        -9.939509391784668
      ],
      [
        "فصل",
        -9.939558029174805
      ],
      [
        "▁💪",
        -9.939698219299316
      ],
      [
        "▁الاجتماعي",
        -9.939828872680664
      ],
      [
        "▁أصحاب",
        -9.939934730529785
      ],
      [
        "▁😔",
        -9.94023323059082
      ],
      [
        "علوم",
        -9.94056224822998
      ],
      [
        "▁مه",
        -9.941224098205566
      ],
      [
        "ja",
        -9.941338539123535
      ],
      [
        "😘",
        -9.942079544067383
      ],
      [
        "si",
        -9.942244529724121
      ],
      [
        "▁حطيت",
        -9.942315101623535
      ],
      [
        "بح",
        -9.943042755126953
      ],
      [
        "▁اد",
        -9.943167686462402
      ],
      [
        "▁الدول",
        -9.943194389343262
      ],
      [
        "▁عندكم",
        -9.943778991699219
      ],
      [
        "▁الثالثة",
        -9.943866729736328
      ],
      [
        "▁امي",
        -9.945356369018555
      ],
      [
        "▁عباسية",
        -9.946356773376465
      ],
      [
        "▁تذكر",
        -9.946365356445312
      ],
      [
        "دون",
        -9.946727752685547
      ],
      [
        "▁مشكلة",
        -9.946981430053711
      ],
      [
        "▁ذهب",
        -9.947147369384766
      ],
      [
        "▁استااذ",
        -9.947179794311523
      ],
      [
        "▁ثلاثة",
        -9.947456359863281
      ],
      [
        "14",
        -9.948678016662598
      ],
      [
        "وو",
        -9.949023246765137
      ],
      [
        "▁قص",
        -9.949529647827148
      ],
      [
        "▁قرا",
        -9.94979190826416
      ],
      [
        "▁نحكي",
        -9.949806213378906
      ],
      [
        "▁اولاد",
        -9.949897766113281
      ],
      [
        "▁ملف",
        -9.949910163879395
      ],
      [
        "▁الجامعة",
        -9.95030403137207
      ],
      [
        "دع",
        -9.950355529785156
      ],
      [
        "▁العضو",
        -9.950547218322754
      ],
      [
        "▁ألا",
        -9.951089859008789
      ],
      [
        "▁الأمور",
        -9.951866149902344
      ],
      [
        "لات",
        -9.951874732971191
      ],
      [
        "▁تتمنى",
        -9.95263957977295
      ],
      [
        "▁hadi",
        -9.952681541442871
      ],
      [
        "▁القيمة",
        -9.953006744384766
      ],
      [
        "▁البارح",
        -9.953181266784668
      ],
      [
        "▁انتظار",
        -9.953248023986816
      ],
      [
        "▁عيني",
        -9.953620910644531
      ],
      [
        "▁سيدي",
        -9.95372200012207
      ],
      [
        "▁جاب",
        -9.95377254486084
      ],
      [
        "اغ",
        -9.9539213180542
      ],
      [
        "▁مرورك",
        -9.953935623168945
      ],
      [
        "▁الوطن",
        -9.954706192016602
      ],
      [
        "▁بهذه",
        -9.955326080322266
      ],
      [
        "▁Ha",
        -9.955535888671875
      ],
      [
        "▁بع",
        -9.955608367919922
      ],
      [
        "▁منعرف",
        -9.9559907913208
      ],
      [
        "2026",
        -9.956586837768555
      ],
      [
        "▁رأي",
        -9.957047462463379
      ],
      [
        "▁The",
        -9.957097053527832
      ],
      [
        "رمي",
        -9.957491874694824
      ],
      [
        "يلنا",
        -9.958033561706543
      ],
      [
        "▁جاو",
        -9.958231925964355
      ],
      [
        "▁امتحان",
        -9.958379745483398
      ],
      [
        "▁الدر",
        -9.958646774291992
      ],
      [
        "▁تقراي",
        -9.958667755126953
      ],
      [
        "▁عقل",
        -9.958809852600098
      ],
      [
        "▁سؤالي",
        -9.95893383026123
      ],
      [
        "💜",
        -9.95897102355957
      ],
      [
        "▁Sepia",
        -9.959057807922363
      ],
      [
        "and",
        -9.960577964782715
      ],
      [
        "▁نطالب",
        -9.960614204406738
      ],
      [
        "▁مواد",
        -9.960688591003418
      ],
      [
        "▁مشاكل",
        -9.961853981018066
      ],
      [
        "▁احنا",
        -9.96231746673584
      ],
      [
        "▁زمن",
        -9.962423324584961
      ],
      [
        "▁سبق",
        -9.962512016296387
      ],
      [
        "▁نب",
        -9.963724136352539
      ],
      [
        "ظل",
        -9.9650297164917
      ],
      [
        "▁صعب",
        -9.96607780456543
      ],
      [
        "سكن",
        -9.96638011932373
      ],
      [
        "▁نعرفو",
        -9.966660499572754
      ],
      [
        "وبة",
        -9.966691970825195
      ],
      [
        "▁ظهر",
        -9.967572212219238
      ],
      [
        "▁3-",
        -9.968205451965332
      ],
      [
        "▁اكل",
        -9.96833324432373
      ],
      [
        "▁كملنا",
        -9.969012260437012
      ],
      [
        "▁لبنات",
        -9.969146728515625
      ],
      [
        "▁men",
        -9.969175338745117
      ],
      [
        "▁جويلية",
        -9.969341278076172
      ],
      [
        "▁زي",
        -9.969454765319824
      ],
      [
        "▁الكر",
        -9.969463348388672
      ],
      [
        "▁pdf",
        -9.970379829406738
      ],
      [
        "لين",
        -9.970450401306152
      ],
      [
        "آل",
        -9.970848083496094
      ],
      [
        "▁fa",
        -9.971405029296875
      ],
      [
        "😂❤",
        -9.972270011901855
      ],
      [
        "▁الطابعة",
        -9.972880363464355
      ],
      [
        "▁التربية",
        -9.973429679870605
      ],
      [
        "جات",
        -9.97396183013916
      ],
      [
        "▁البعض",
        -9.974207878112793
      ],
      [
        "▁ذي",
        -9.974325180053711
      ],
      [
        "ina",
        -9.974390983581543
      ],
      [
        "▁وقتاش",
        -9.974477767944336
      ],
      [
        "💖",
        -9.974717140197754
      ],
      [
        "قض",
        -9.974804878234863
      ],
      [
        "▁صاحبة",
        -9.975152015686035
      ],
      [
        "▁ممن",
        -9.975947380065918
      ],
      [
        "▁النور",
        -9.976628303527832
      ],
      [
        "زو",
        -9.97663402557373
      ],
      [
        "▁حرب",
        -9.976882934570312
      ],
      [
        "▁ممتعة",
        -9.97742748260498
      ],
      [
        "▁شفتها",
        -9.977428436279297
      ],
      [
        "▁التواصل",
        -9.978206634521484
      ],
      [
        "ss",
        -9.97828483581543
      ],
      [
        "▁ذ",
        -9.97830867767334
      ],
      [
        "▁بالت",
        -9.978336334228516
      ],
      [
        "▁وعلاه",
        -9.978530883789062
      ],
      [
        "غا",
        -9.97860336303711
      ],
      [
        "▁يضحك",
        -9.979238510131836
      ],
      [
[...]
