{
  "version": "1.0",
  "truncation": null,
  "padding": null,
  "added_tokens": [
    {
      "id": 0,
      "content": "<pad>",
      "single_word": false,
      "lstrip": false,
      "rstrip": false,
      "normalized": false,
      "special": true
    },
    {
      "id": 2,
      "content": "<s>",
      "single_word": false,
      "lstrip": false,
      "rstrip": false,
      "normalized": false,
      "special": true
    },
    {
      "id": 3,
      "content": "</s>",
      "single_word": false,
      "lstrip": false,
      "rstrip": false,
      "normalized": false,
      "special": true
    }
  ],
  "normalizer": {
    "type": "Sequence",
    "normalizers": [
      {
        "type": "Strip",
        "strip_left": false,
        "strip_right": true
      },
      {
        "type": "Replace",
        "pattern": {
          "Regex": " {2,}"
        },
        "content": "▁"
      }
    ]
  },
  "pre_tokenizer": {
    "type": "Metaspace",
    "replacement": "▁",
    "prepend_scheme": "always",
    "split": true
  },
  "post_processor": null,
  "decoder": {
    "type": "Sequence",
    "decoders": [
      {
        "type": "Metaspace",
        "replacement": "▁",
        "prepend_scheme": "always",
        "split": true
      },
      {
        "type": "ByteFallback"
      },
      {
        "type": "Fuse"
      }
    ]
  },
  "model": {
    "type": "Unigram",
    "unk_id": 1,
    "vocab": [
      [
        "<pad>",
        0.0
      ],
      [
        "<unk>",
        0.0
      ],
      [
        "<s>",
        0.0
      ],
      [
        "</s>",
        0.0
      ],
      [
        "<0x00>",
        0.0
      ],
      [
        "<0x01>",
        0.0
      ],
      [
        "<0x02>",
        0.0
      ],
      [
        "<0x03>",
        0.0
      ],
      [
        "<0x04>",
        0.0
      ],
      [
        "<0x05>",
        0.0
      ],
      [
        "<0x06>",
        0.0
      ],
      [
        "<0x07>",
        0.0
      ],
      [
        "<0x08>",
        0.0
      ],
      [
        "<0x09>",
        0.0
      ],
      [
        "<0x0A>",
        0.0
      ],
      [
        "<0x0B>",
        0.0
      ],
      [
        "<0x0C>",
        0.0
      ],
      [
        "<0x0D>",
        0.0
      ],
      [
        "<0x0E>",
        0.0
      ],
      [
        "<0x0F>",
        0.0
      ],
      [
        "<0x10>",
        0.0
      ],
      [
        "<0x11>",
        0.0
      ],
      [
        "<0x12>",
        0.0
      ],
      [
        "<0x13>",
        0.0
      ],
      [
        "<0x14>",
        0.0
      ],
      [
        "<0x15>",
        0.0
      ],
      [
        "<0x16>",
        0.0
      ],
      [
        "<0x17>",
        0.0
      ],
      [
        "<0x18>",
        0.0
      ],
      [
        "<0x19>",
        0.0
      ],
      [
        "<0x1A>",
        0.0
      ],
      [
        "<0x1B>",
        0.0
      ],
      [
        "<0x1C>",
        0.0
      ],
      [
        "<0x1D>",
        0.0
      ],
      [
        "<0x1E>",
        0.0
      ],
      [
        "<0x1F>",
        0.0
      ],
      [
        "<0x20>",
        0.0
      ],
      [
        "<0x21>",
        0.0
      ],
      [
        "<0x22>",
        0.0
      ],
      [
        "<0x23>",
        0.0
      ],
      [
        "<0x24>",
        0.0
      ],
      [
        "<0x25>",
        0.0
      ],
      [
        "<0x26>",
        0.0
      ],
      [
        "<0x27>",
        0.0
      ],
      [
        "<0x28>",
        0.0
      ],
      [
        "<0x29>",
        0.0
      ],
      [
        "<0x2A>",
        0.0
      ],
      [
        "<0x2B>",
        0.0
      ],
      [
        "<0x2C>",
        0.0
      ],
      [
        "<0x2D>",
        0.0
      ],
      [
        "<0x2E>",
        0.0
      ],
      [
        "<0x2F>",
        0.0
      ],
      [
        "<0x30>",
        0.0
      ],
      [
        "<0x31>",
        0.0
      ],
      [
        "<0x32>",
        0.0
      ],
      [
        "<0x33>",
        0.0
      ],
      [
        "<0x34>",
        0.0
      ],
      [
        "<0x35>",
        0.0
      ],
      [
        "<0x36>",
        0.0
      ],
      [
        "<0x37>",
        0.0
      ],
      [
        "<0x38>",
        0.0
      ],
      [
        "<0x39>",
        0.0
      ],
      [
        "<0x3A>",
        0.0
      ],
      [
        "<0x3B>",
        0.0
      ],
      [
        "<0x3C>",
        0.0
      ],
      [
        "<0x3D>",
        0.0
      ],
      [
        "<0x3E>",
        0.0
      ],
      [
        "<0x3F>",
        0.0
      ],
      [
        "<0x40>",
        0.0
      ],
      [
        "<0x41>",
        0.0
      ],
      [
        "<0x42>",
        0.0
      ],
      [
        "<0x43>",
        0.0
      ],
      [
        "<0x44>",
        0.0
      ],
      [
        "<0x45>",
        0.0
      ],
      [
        "<0x46>",
        0.0
      ],
      [
        "<0x47>",
        0.0
      ],
      [
        "<0x48>",
        0.0
      ],
      [
        "<0x49>",
        0.0
      ],
      [
        "<0x4A>",
        0.0
      ],
      [
        "<0x4B>",
        0.0
      ],
      [
        "<0x4C>",
        0.0
      ],
      [
        "<0x4D>",
        0.0
      ],
      [
        "<0x4E>",
        0.0
      ],
      [
        "<0x4F>",
        0.0
      ],
      [
        "<0x50>",
        0.0
      ],
      [
        "<0x51>",
        0.0
      ],
      [
        "<0x52>",
        0.0
      ],
      [
        "<0x53>",
        0.0
      ],
      [
        "<0x54>",
        0.0
      ],
      [
        "<0x55>",
        0.0
      ],
      [
        "<0x56>",
        0.0
      ],
      [
        "<0x57>",
        0.0
      ],
      [
        "<0x58>",
        0.0
      ],
      [
        "<0x59>",
        0.0
      ],
      [
        "<0x5A>",
        0.0
      ],
      [
        "<0x5B>",
        0.0
      ],
      [
        "<0x5C>",
        0.0
      ],
      [
        "<0x5D>",
        0.0
      ],
      [
        "<0x5E>",
        0.0
      ],
      [
        "<0x5F>",
        0.0
      ],
      [
        "<0x60>",
        0.0
      ],
      [
        "<0x61>",
        0.0
      ],
      [
        "<0x62>",
        0.0
      ],
      [
        "<0x63>",
        0.0
      ],
      [
        "<0x64>",
        0.0
      ],
      [
        "<0x65>",
        0.0
      ],
      [
        "<0x66>",
        0.0
      ],
      [
        "<0x67>",
        0.0
      ],
      [
        "<0x68>",
        0.0
      ],
      [
        "<0x69>",
        0.0
      ],
      [
        "<0x6A>",
        0.0
      ],
      [
        "<0x6B>",
        0.0
      ],
      [
        "<0x6C>",
        0.0
      ],
      [
        "<0x6D>",
        0.0
      ],
      [
        "<0x6E>",
        0.0
      ],
      [
        "<0x6F>",
        0.0
      ],
      [
        "<0x70>",
        0.0
      ],
      [
        "<0x71>",
        0.0
      ],
      [
        "<0x72>",
        0.0
      ],
      [
        "<0x73>",
        0.0
      ],
      [
        "<0x74>",
        0.0
      ],
      [
        "<0x75>",
        0.0
      ],
      [
        "<0x76>",
        0.0
      ],
      [
        "<0x77>",
        0.0
      ],
      [
        "<0x78>",
        0.0
      ],
      [
        "<0x79>",
        0.0
      ],
      [
        "<0x7A>",
        0.0
      ],
      [
        "<0x7B>",
        0.0
      ],
      [
        "<0x7C>",
        0.0
      ],
      [
        "<0x7D>",
        0.0
      ],
      [
        "<0x7E>",
        0.0
      ],
      [
        "<0x7F>",
        0.0
      ],
      [
        "<0x80>",
        0.0
      ],
      [
        "<0x81>",
        0.0
      ],
      [
        "<0x82>",
        0.0
      ],
      [
        "<0x83>",
        0.0
      ],
      [
        "<0x84>",
        0.0
      ],
      [
        "<0x85>",
        0.0
      ],
      [
        "<0x86>",
        0.0
      ],
      [
        "<0x87>",
        0.0
      ],
      [
        "<0x88>",
        0.0
      ],
      [
        "<0x89>",
        0.0
      ],
      [
        "<0x8A>",
        0.0
      ],
      [
        "<0x8B>",
        0.0
      ],
      [
        "<0x8C>",
        0.0
      ],
      [
        "<0x8D>",
        0.0
      ],
      [
        "<0x8E>",
        0.0
      ],
      [
        "<0x8F>",
        0.0
      ],
      [
        "<0x90>",
        0.0
      ],
      [
        "<0x91>",
        0.0
      ],
      [
        "<0x92>",
        0.0
      ],
      [
        "<0x93>",
        0.0
      ],
      [
        "<0x94>",
        0.0
      ],
      [
        "<0x95>",
        0.0
      ],
      [
        "<0x96>",
        0.0
      ],
      [
        "<0x97>",
        0.0
      ],
      [
        "<0x98>",
        0.0
      ],
      [
        "<0x99>",
        0.0
      ],
      [
        "<0x9A>",
        0.0
      ],
      [
        "<0x9B>",
        0.0
      ],
      [
        "<0x9C>",
        0.0
      ],
      [
        "<0x9D>",
        0.0
      ],
      [
        "<0x9E>",
        0.0
      ],
      [
        "<0x9F>",
        0.0
      ],
      [
        "<0xA0>",
        0.0
      ],
      [
        "<0xA1>",
        0.0
      ],
      [
        "<0xA2>",
        0.0
      ],
      [
        "<0xA3>",
        0.0
      ],
      [
        "<0xA4>",
        0.0
      ],
      [
        "<0xA5>",
        0.0
      ],
      [
        "<0xA6>",
        0.0
      ],
      [
        "<0xA7>",
        0.0
      ],
      [
        "<0xA8>",
        0.0
      ],
      [
        "<0xA9>",
        0.0
      ],
      [
        "<0xAA>",
        0.0
      ],
      [
        "<0xAB>",
        0.0
      ],
      [
        "<0xAC>",
        0.0
      ],
      [
        "<0xAD>",
        0.0
      ],
      [
        "<0xAE>",
        0.0
      ],
      [
        "<0xAF>",
        0.0
      ],
      [
        "<0xB0>",
        0.0
      ],
      [
        "<0xB1>",
        0.0
      ],
      [
        "<0xB2>",
        0.0
      ],
      [
        "<0xB3>",
        0.0
      ],
      [
        "<0xB4>",
        0.0
      ],
      [
        "<0xB5>",
        0.0
      ],
      [
        "<0xB6>",
        0.0
      ],
      [
        "<0xB7>",
        0.0
      ],
      [
        "<0xB8>",
        0.0
      ],
      [
        "<0xB9>",
        0.0
      ],
      [
        "<0xBA>",
        0.0
      ],
      [
        "<0xBB>",
        0.0
      ],
      [
        "<0xBC>",
        0.0
      ],
      [
        "<0xBD>",
        0.0
      ],
      [
        "<0xBE>",
        0.0
      ],
      [
        "<0xBF>",
        0.0
      ],
      [
        "<0xC0>",
        0.0
      ],
      [
        "<0xC1>",
        0.0
      ],
      [
        "<0xC2>",
        0.0
      ],
      [
        "<0xC3>",
        0.0
      ],
      [
        "<0xC4>",
        0.0
      ],
      [
        "<0xC5>",
        0.0
      ],
      [
        "<0xC6>",
        0.0
      ],
      [
        "<0xC7>",
        0.0
      ],
      [
        "<0xC8>",
        0.0
      ],
      [
        "<0xC9>",
        0.0
      ],
      [
        "<0xCA>",
        0.0
      ],
      [
        "<0xCB>",
        0.0
      ],
      [
        "<0xCC>",
        0.0
      ],
      [
        "<0xCD>",
        0.0
      ],
      [
        "<0xCE>",
        0.0
      ],
      [
        "<0xCF>",
        0.0
      ],
      [
        "<0xD0>",
        0.0
      ],
      [
        "<0xD1>",
        0.0
      ],
      [
        "<0xD2>",
        0.0
      ],
      [
        "<0xD3>",
        0.0
      ],
      [
        "<0xD4>",
        0.0
      ],
      [
        "<0xD5>",
        0.0
      ],
      [
        "<0xD6>",
        0.0
      ],
      [
        "<0xD7>",
        0.0
      ],
      [
        "<0xD8>",
        0.0
      ],
      [
        "<0xD9>",
        0.0
      ],
      [
        "<0xDA>",
        0.0
      ],
      [
        "<0xDB>",
        0.0
      ],
      [
        "<0xDC>",
        0.0
      ],
      [
        "<0xDD>",
        0.0
      ],
      [
        "<0xDE>",
        0.0
      ],
      [
        "<0xDF>",
        0.0
      ],
      [
        "<0xE0>",
        0.0
      ],
      [
        "<0xE1>",
        0.0
      ],
      [
        "<0xE2>",
        0.0
      ],
      [
        "<0xE3>",
        0.0
      ],
      [
        "<0xE4>",
        0.0
      ],
      [
        "<0xE5>",
        0.0
      ],
      [
        "<0xE6>",
        0.0
      ],
      [
        "<0xE7>",
        0.0
      ],
      [
        "<0xE8>",
        0.0
      ],
      [
        "<0xE9>",
        0.0
      ],
      [
        "<0xEA>",
        0.0
      ],
      [
        "<0xEB>",
        0.0
      ],
      [
        "<0xEC>",
        0.0
      ],
      [
        "<0xED>",
        0.0
      ],
      [
        "<0xEE>",
        0.0
      ],
      [
        "<0xEF>",
        0.0
      ],
      [
        "<0xF0>",
        0.0
      ],
      [
        "<0xF1>",
        0.0
      ],
      [
        "<0xF2>",
        0.0
      ],
      [
        "<0xF3>",
        0.0
      ],
      [
        "<0xF4>",
        0.0
      ],
      [
        "<0xF5>",
        0.0
      ],
      [
        "<0xF6>",
        0.0
      ],
      [
        "<0xF7>",
        0.0
      ],
      [
        "<0xF8>",
        0.0
      ],
      [
        "<0xF9>",
        0.0
      ],
      [
        "<0xFA>",
        0.0
      ],
      [
        "<0xFB>",
        0.0
      ],
      [
        "<0xFC>",
        0.0
      ],
      [
        "<0xFD>",
        0.0
      ],
      [
        "<0xFE>",
        0.0
      ],
      [
        "<0xFF>",
        0.0
      ],
      [
        "▁",
        -3.6653831005096436
      ],
      [
        "▁و",
        -3.8871989250183105
      ],
      [
        "ة",
        -4.18714714050293
      ],
      [
        "ي",
        -4.229531288146973
      ],
      [
        "ا",
        -4.345815658569336
      ],
      [
        "و",
        -4.4474873542785645
      ],
      [
        "ك",
        -4.461596965789795
      ],
      [
        "▁في",
        -4.544153690338135
      ],
      [
        "ه",
        -4.57470178604126
      ],
      [
        "▁من",
        -4.593201637268066
      ],
      [
        "▁الله",
        -4.611050128936768
      ],
      [
        "ت",
        -4.748466968536377
      ],
      [
        "▁ال",
        -4.825370788574219
      ],
      [
        "▁ت",
        -5.0696611404418945
      ],
      [
        "▁ي",
        -5.0993876457214355
      ],
      [
        "ها",
        -5.106579780578613
      ],
      [
        "نا",
        -5.207742691040039
      ],
      [
        "▁م",
        -5.219038009643555
      ],
      [
        "▁على",
        -5.263522624969482
      ],
      [
        "▁ا",
        -5.304391860961914
      ],
      [
        "ش",
        -5.361706256866455
      ],
      [
        "ين",
        -5.425775051116943
      ],
      [
        "▁ما",
        -5.466188430786133
      ],
      [
        "▁ن",
        -5.4929399490356445
      ],
      [
        "ات",
        -5.5087432861328125
      ],
      [
        ".",
        -5.551488876342773
      ],
      [
        "م",
        -5.551494121551514
      ],
      [
        "ية",
        -5.554571628570557
      ],
      [
        "▁ربي",
        -5.577828407287598
      ],
      [
        "▁لي",
        -5.610036373138428
      ],
      [
        "▁أ",
        -5.628851413726807
      ],
      [
        "▁ب",
        -5.62923002243042
      ],
      [
        "▁لا",
        -5.63364839553833
      ],
      [
        "]",
        -5.669317245483398
      ],
      [
        "▁[",
        -5.677335739135742
      ],
      [
        "▁الم",
        -5.681572914123535
      ],
      [
        "▁ل",
        -5.766899108886719
      ],
      [
        "،",
        -5.773555755615234
      ],
      [
        "هم",
        -5.774683475494385
      ],
      [
        "MENTION",
        -5.778654098510742
      ],
      [
        "وا",
        -5.8024678230285645
      ],
      [
        "▁ان",
        -5.807584285736084
      ],
      [
        "▁انا",
        -5.850457191467285
      ],
      [
        "ني",
        -5.884734153747559
      ],
      [
        "▁يا",
        -5.948183536529541
      ],
      [
        "ن",
        -5.988903045654297
      ],
      [
        "ال",
        -6.041270732879639
      ],
      [
        "▁...",
        -6.04539680480957
      ],
      [
        "▁كل",
        -6.04866361618042
      ],
      [
        "▁وال",
        -6.132526874542236
      ],
      [
        "▁،",
        -6.17457914352417
      ],
      [
        "...",
        -6.182120323181152
      ],
      [
        "ف",
        -6.215727806091309
      ],
      [
        "كم",
        -6.220117568969727
      ],
      [
        "▁أن",
        -6.243690490722656
      ],
      [
        "▁ف",
        -6.2558441162109375
      ],
      [
        "▁بال",
        -6.26127290725708
      ],
      [
        "ون",
        -6.261669158935547
      ],
      [
        "▁مع",
        -6.272937297821045
      ],
      [
        "ب",
        -6.290741443634033
      ],
      [
        "▁ولا",
        -6.30640983581543
      ],
      [
        "▁لل",
        -6.329830169677734
      ],
      [
        "▁-",
        -6.33201789855957
      ],
      [
        "▁استاذ",
        -6.3471856117248535
      ],
      [
        "▁هذا",
        -6.3644514083862305
      ],
      [
        "ان",
        -6.37562894821167
      ],
      [
        "لي",
        -6.392385959625244
      ],
      [
        "▁.",
        -6.3953633308410645
      ],
      [
        "▁الا",
        -6.402447700500488
      ],
      [
        "3",
        -6.4027533531188965
      ],
      [
        "د",
        -6.409514904022217
      ],
      [
        "s",
        -6.419315338134766
      ],
      [
        "ى",
        -6.468384265899658
      ],
      [
        "تي",
        -6.491678237915039
      ],
      [
        "▁شاء",
        -6.5102925300598145
      ],
      [
        "اء",
        -6.524604320526123
      ],
      [
        "ما",
        -6.531820774078369
      ],
      [
        "ل",
        -6.534442901611328
      ],
      [
        "ر",
        -6.56325101852417
      ],
      [
        "▁كي",
        -6.56431245803833
      ],
      [
        "▁❤",
        -6.564980506896973
      ],
      [
        "▁عن",
        -6.566493511199951
      ],
      [
        "▁غير",
        -6.568628311157227
      ],
      [
        "ع",
        -6.581487655639648
      ],
      [
        "ج",
        -6.589090824127197
      ],
      [
        "▁والله",
        -6.600734233856201
      ],
      [
        "▁تاع",
        -6.6223249435424805
      ],
      [
        "▁شكرا",
        -6.624938011169434
      ],
      [
        "▁هو",
        -6.642258167266846
      ],
      [
        ":",
        -6.649153709411621
      ],
      [
        "▁اللهم",
        -6.652632713317871
      ],
      [
        "ص",
        -6.723616123199463
      ],
      [
        "▁:",
        -6.731878280639648
      ],
      [
        "ح",
        -6.738803863525391
      ],
      [
        "ام",
        -6.740284442901611
      ],
      [
        "▁قال",
        -6.768840312957764
      ],
      [
        "t",
        -6.76912260055542
      ],
      [
        "لك",
        -6.769687175750732
      ],
      [
        "▁عليه",
        -6.7762227058410645
      ],
      [
        "▁(",
        -6.783068656921387
      ],
      [
        "▁هه",
        -6.802515029907227
      ],
      [
        "ز",
        -6.807048797607422
      ],
      [
        "▁يارب",
        -6.810446262359619
      ],
      [
        "▁عليكم",
        -6.821597576141357
      ],
      [
        "▁السلام",
        -6.832993030548096
      ],
      [
        "س",
        -6.838770389556885
      ],
      [
        "▁كان",
        -6.84151029586792
      ],
      [
        "❤",
        -6.847197532653809
      ],
      [
        "▁لم",
        -6.848309516906738
      ],
      [
        "▁الت",
        -6.852812767028809
      ],
      [
        "▁بزاف",
        -6.857672691345215
      ],
      [
        "؟",
        -6.867466926574707
      ],
      [
        "▁بصح",
        -6.872368335723877
      ],
      [
        "لا",
        -6.884856224060059
      ],
      [
        "▁😂😂",
        -6.896197319030762
      ],
      [
        "▁او",
        -6.905824184417725
      ],
      [
        "يا",
        -6.914903163909912
      ],
      [
        "▁الع",
        -6.91757345199585
      ],
      [
        "▁فيك",
        -6.920749187469482
      ],
      [
        "▁مت",
        -6.92411994934082
      ],
      [
        "▁تع",
        -6.93082332611084
      ],
      [
        "ق",
        -6.931435585021973
      ],
      [
        "▁؟",
        -6.935792446136475
      ],
      [
        "▁❤❤",
        -6.9375691413879395
      ],
      [
        "▁حتى",
        -6.9423508644104
      ],
      [
        "▁ع",
        -6.945693016052246
      ],
      [
        "▁لك",
        -6.947486400604248
      ],
      [
        "خ",
        -6.95540714263916
      ],
      [
        "تك",
        -6.9604973793029785
      ],
      [
        "▁راني",
        -6.9626874923706055
      ],
      [
        "h",
        -6.966938018798828
      ],
      [
        ")",
        -6.97536039352417
      ],
      [
        "k",
        -6.980746269226074
      ],
      [
        "o",
        -6.988155841827393
      ],
      [
        "▁بارك",
        -6.994161128997803
      ],
      [
        "▁ون",
        -6.999188423156738
      ],
      [
        "▁واحد",
        -7.0020246505737305
      ],
      [
        "▁3",
        -7.002387523651123
      ],
      [
        "دي",
        -7.007759094238281
      ],
      [
        "a",
        -7.011383056640625
      ],
      [
        "▁هي",
        -7.021468639373779
      ],
      [
        "▁وي",
        -7.02345085144043
      ],
      [
        "غ",
        -7.024911403656006
      ],
      [
        "▁كامل",
        -7.034280776977539
      ],
      [
        "ذ",
        -7.036588191986084
      ],
      [
        "e",
        -7.038610935211182
      ],
      [
        "ور",
        -7.044981479644775
      ],
      [
        "▁الأ",
        -7.045918941497803
      ],
      [
        "▁فال",
        -7.0462470054626465
      ],
      [
        "i",
        -7.04730749130249
      ],
      [
        "▁إ",
        -7.050818920135498
      ],
      [
        "▁فيديو",
        -7.061159610748291
      ],
      [
        "d",
        -7.062250137329102
      ],
      [
        "b",
        -7.069742202758789
      ],
      [
        "▁كنت",
        -7.087314605712891
      ],
      [
        "9",
        -7.091806411743164
      ],
      [
        "▁لله",
        -7.110790252685547
      ],
      [
        "▁إن",
        -7.115260601043701
      ],
      [
        "ض",
        -7.116888523101807
      ],
      [
        "r",
        -7.123484134674072
      ],
      [
        "y",
        -7.124026775360107
      ],
      [
        "اد",
        -7.13034725189209
      ],
      [
        "ث",
        -7.133331298828125
      ],
      [
        "وش",
        -7.141783237457275
      ],
      [
        "ار",
        -7.150507926940918
      ],
      [
        "ته",
        -7.154396057128906
      ],
      [
        "▁بعد",
        -7.16332483291626
      ],
      [
        "7",
        -7.170413970947266
      ],
      [
        "▁\"",
        -7.171125411987305
      ],
      [
        "▁خير",
        -7.175590991973877
      ],
      [
        "أ",
        -7.177370548248291
      ],
      [
        "في",
        -7.177402973175049
      ],
      [
        "▁وت",
        -7.182075023651123
      ],
      [
        "u",
        -7.182382106781006
      ],
      [
        "▁الف",
        -7.187941551208496
      ],
      [
        "من",
        -7.189242362976074
      ],
      [
        "▁واش",
        -7.193558692932129
      ],
      [
        "ط",
        -7.197089195251465
      ],
      [
        "▁صح",
        -7.197491645812988
      ],
      [
        "▁أو",
        -7.202121734619141
      ],
      [
        "n",
        -7.20958948135376
      ],
      [
        "يل",
        -7.20985221862793
      ],
      [
        "ير",
        -7.210414886474609
      ],
      [
        "▁هل",
        -7.211141109466553
      ],
      [
        "▁😂",
        -7.212497234344482
      ],
      [
        "▁س",
        -7.213841915130615
      ],
      [
        "▁عليك",
        -7.220276355743408
      ],
      [
        "▁باك",
        -7.233419418334961
      ],
      [
        "بي",
        -7.233775615692139
      ],
      [
        "▁ام",
        -7.23678731918335
      ],
      [
        "را",
        -7.249642848968506
      ],
      [
        "اب",
        -7.252864360809326
      ],
      [
        "▁الباك",
        -7.25670862197876
      ],
      [
        "m",
        -7.257300853729248
      ],
      [
        "يت",
        -7.259787082672119
      ],
      [
        "ول",
        -7.270022392272949
      ],
      [
        "f",
        -7.281377792358398
      ],
      [
        "▁يوم",
        -7.287036895751953
      ],
      [
        "l",
        -7.288427352905273
      ],
      [
        "▁انت",
        -7.307717800140381
      ],
      [
        "▁رب",
        -7.3187642097473145
      ],
      [
        "▁لكن",
        -7.326392650604248
      ],
      [
        "▁راك",
        -7.327725887298584
      ],
      [
        "▁مي",
        -7.329768180847168
      ],
      [
        "اع",
        -7.3378005027771
      ],
      [
        "▁فيها",
        -7.33799409866333
      ],
      [
        "▁خويا",
        -7.340010643005371
      ],
      [
        "😂",
        -7.340176105499268
      ],
      [
        "ئ",
        -7.344005107879639
      ],
      [
        "سي",
        -7.347756862640381
      ],
      [
        "p",
        -7.361485481262207
      ],
      [
        "لو",
        -7.389334201812744
      ],
      [
        "ري",
        -7.3903632164001465
      ],
      [
        "2",
        -7.390968322753906
      ],
      [
        "▁هذه",
        -7.39950704574585
      ],
      [
        "تها",
        -7.400846481323242
      ],
      [
        "▁يحفظك",
        -7.401637554168701
      ],
      [
        "▁وم",
        -7.402515411376953
      ],
      [
        "▁له",
        -7.411457061767578
      ],
      [
        "▁فيه",
        -7.421977519989014
      ],
      [
        "❤❤",
        -7.4247870445251465
      ],
      [
        "▁هنا",
        -7.433618545532227
      ],
      [
        "▁2",
        -7.435910224914551
      ],
      [
        "▁كيف",
        -7.441079616546631
      ],
      [
        "5",
        -7.444577217102051
      ],
      [
        "▁وأ",
        -7.44812536239624
      ],
      [
        "▁w",
        -7.456361293792725
      ],
      [
        "▁بين",
        -7.458445072174072
      ],
      [
        "وم",
        -7.458648681640625
      ],
      [
        "▁أنا",
        -7.458837985992432
      ],
      [
        "▁وين",
        -7.46067476272583
      ],
      [
        "▁قبل",
        -7.461212635040283
      ],
      [
        "ست",
        -7.461852550506592
      ],
      [
        "▁الن",
        -7.461881160736084
      ],
      [
        "▁ر",
        -7.463560104370117
      ],
      [
        "g",
        -7.4648261070251465
      ],
      [
        "'",
        -7.467083930969238
      ],
      [
        "▁برك",
        -7.476207256317139
      ],
      [
        "▁إلى",
        -7.479884147644043
      ],
      [
        "يش",
        -7.481534481048584
      ],
      [
        "▁كاين",
        -7.483484745025635
      ],
      [
        "▁l",
        -7.484505653381348
      ],
      [
        "يك",
        -7.491842746734619
      ],
      [
        "تش",
        -7.503653526306152
      ],
      [
        "▁باش",
        -7.510563373565674
      ],
      [
        "▁عندي",
        -7.511790752410889
      ],
      [
        "▁كيما",
        -7.514245510101318
      ],
      [
        "▁لولا",
        -7.518488883972168
      ],
      [
        "▁بلي",
        -7.522576808929443
      ],
      [
        "4",
        -7.530766010284424
      ],
      [
        "c",
        -7.531978130340576
      ],
      [
        "عة",
        -7.539508819580078
      ],
      [
        "▁ش",
        -7.5402679443359375
      ],
      [
        "w",
        -7.55072021484375
      ],
      [
        "la",
        -7.552261829376221
      ],
      [
        "▁عند",
        -7.553818225860596
      ],
      [
        "▁التي",
        -7.554673671722412
      ],
      [
        "لنا",
        -7.55649995803833
      ],
      [
        "▁يكون",
        -7.560922145843506
      ],
      [
        "▁بن",
        -7.565086364746094
      ],
      [
        "تو",
        -7.572159290313721
      ],
      [
        "ou",
        -7.572973728179932
      ],
      [
        "اس",
        -7.579543590545654
      ],
      [
        ",",
        -7.5799736976623535
      ],
      [
        "▁m",
        -7.583217144012451
      ],
      [
        "▁اي",
        -7.594085216522217
      ],
      [
        "قول",
        -7.594219207763672
      ],
      [
        "فر",
        -7.595959186553955
      ],
      [
        "▁وسلم",
        -7.596987247467041
      ],
      [
        "▁بل",
        -7.603520393371582
      ],
      [
        "يه",
        -7.603862762451172
      ],
      [
        "😂😂",
        -7.6046247482299805
      ],
      [
        "▁ح",
        -7.605196952819824
      ],
      [
        "ch",
        -7.6062798500061035
      ],
      [
        "▁t",
        -7.610571384429932
      ],
      [
        "▁دير",
        -7.611654281616211
      ],
      [
        "-",
        -7.612331390380859
      ],
      [
        "وب",
        -7.612971305847168
      ],
      [
        "▁b",
        -7.617056369781494
      ],
      [
        "قل",
        -7.617177963256836
      ],
      [
        "1",
        -7.618785381317139
      ],
      [
        "▁راه",
        -7.622400283813477
      ],
      [
        "▁الق",
        -7.6290974617004395
      ],
      [
        "▁الذي",
        -7.630405426025391
      ],
      [
        "▁الفيديو",
        -7.635735511779785
      ],
      [
        "z",
        -7.636684894561768
      ],
      [
        "اش",
        -7.640377998352051
      ],
      [
        "/",
        -7.641250133514404
      ],
      [
        "▁اخي",
        -7.642155170440674
      ],
      [
        "▁شكون",
        -7.642935276031494
      ],
      [
        "بر",
        -7.644211292266846
      ],
      [
        "li",
        -7.64696741104126
      ],
      [
        "▁ادعولي",
        -7.652081489562988
      ],
      [
        "▁n",
        -7.652182102203369
      ],
      [
        "\"",
        -7.652346134185791
      ],
      [
        "اك",
        -7.65944242477417
      ],
      [
        "▁؟؟",
        -7.66717529296875
      ],
      [
        "▁ق",
        -7.669703960418701
      ],
      [
        "ولي",
        -7.672863006591797
      ],
      [
        "▁f",
        -7.673614025115967
      ],
      [
        "▁مش",
        -7.676734447479248
      ],
      [
        "ظ",
        -7.676782608032227
      ],
      [
        "وه",
        -7.678834438323975
      ],
      [
        "▁الس",
        -7.6798505783081055
      ],
      [
        "▁الجزائر",
        -7.683567047119141
      ],
      [
        "؟؟",
        -7.684208393096924
      ],
      [
        "na",
        -7.687631130218506
      ],
      [
        "▁خ",
        -7.688475131988525
      ],
      [
        "▁الإ",
        -7.695771217346191
      ],
      [
        "▁راح",
        -7.69639253616333
      ],
      [
        "يب",
        -7.7047038078308105
      ],
      [
        "▁تكون",
        -7.705029010772705
      ],
      [
        "▁جا",
        -7.705347061157227
      ],
      [
        "▁كانت",
        -7.708925724029541
      ],
      [
        "اه",
        -7.708959102630615
      ],
      [
        "▁الج",
        -7.713977336883545
      ],
      [
        "اج",
        -7.715010643005371
      ],
      [
        "اح",
        -7.717385768890381
      ],
      [
        "فا",
        -7.719576358795166
      ],
      [
        "عد",
        -7.72007942199707
      ],
      [
        "▁y",
        -7.726542949676514
      ],
      [
        "▁كما",
        -7.731070041656494
      ],
      [
        "j",
        -7.735427379608154
      ],
      [
        "صر",
        -7.737274646759033
      ],
      [
        "رة",
        -7.738542079925537
      ],
      [
        "▁الناس",
        -7.739071846008301
      ],
      [
        "▁أستاذ",
        -7.7411603927612305
      ],
      [
        "▁وش",
        -7.741939067840576
      ],
      [
        "▁خيرا",
        -7.744277477264404
      ],
      [
        "آ",
        -7.744353771209717
      ],
      [
        "▁الى",
        -7.744405746459961
      ],
      [
        "▁😢",
        -7.746513366699219
      ],
      [
        "▁صلى",
        -7.749151706695557
      ],
      [
        "▁يت",
        -7.754730224609375
      ],
      [
        "▁مات",
        -7.760360240936279
      ],
      [
        "ha",
        -7.762603282928467
      ],
      [
        "▁أم",
        -7.763690948486328
      ],
      [
        "▁ماشي",
        -7.765787601470947
      ],
      [
        "جي",
        -7.766378402709961
      ],
      [
        "6",
        -7.7708635330200195
      ],
      [
        "مل",
        -7.7729172706604
      ],
      [
        "دا",
        -7.773703098297119
      ],
      [
        "▁محمد",
        -7.78001594543457
      ],
      [
        "تم",
        -7.790676116943359
      ],
      [
        "▁به",
        -7.793153285980225
      ],
      [
        "وك",
        -7.794498443603516
      ],
      [
        "▁الح",
        -7.7947516441345215
      ],
      [
        "▁اختي",
        -7.795350551605225
      ],
      [
        "▁الش",
        -7.795578956604004
      ],
      [
        "▁حل",
        -7.795959949493408
      ],
      [
        "جر",
        -7.801468372344971
      ],
      [
        "▁يعطيك",
        -7.803440570831299
      ],
      [
        "▁لو",
        -7.806241989135742
      ],
      [
        "تنا",
        -7.806341171264648
      ],
      [
        "حي",
        -7.807943344116211
      ],
      [
        "▁قصة",
        -7.810242176055908
      ],
      [
        "كل",
        -7.810790538787842
      ],
      [
        "اف",
        -7.815154552459717
      ],
      [
        "ra",
        -7.815941333770752
      ],
      [
        "بل",
        -7.823277473449707
      ],
      [
        "▁اذا",
        -7.826456069946289
      ],
      [
        "▁يعني",
        -7.833701133728027
      ],
      [
        "re",
        -7.834620952606201
      ],
      [
        "صل",
        -7.836124420166016
      ],
      [
        "▁دار",
        -7.837591648101807
      ],
      [
        "خر",
        -7.838284969329834
      ],
      [
        "▁a",
        -7.839773654937744
      ],
      [
        "▁ma",
        -7.841062545776367
      ],
      [
        "▁نتا",
        -7.842130184173584
      ],
      [
        "▁فضلك",
        -7.842771530151367
      ],
      [
        "▁فل",
        -7.84398078918457
      ],
      [
        "8",
        -7.844172477722168
      ],
      [
        "▁قد",
        -7.844876766204834
      ],
      [
        "▁ذلك",
        -7.849517822265625
      ],
      [
        "▁سي",
        -7.8499531745910645
      ],
      [
        "▁عام",
        -7.850314617156982
      ],
      [
        "حت",
        -7.851212501525879
      ],
      [
        "با",
        -7.851665496826172
      ],
      [
        "فت",
        -7.851754665374756
      ],
      [
        "▁ز",
        -7.851930618286133
      ],
      [
        "يات",
        -7.852092266082764
      ],
      [
        "▁لازم",
        -7.8532867431640625
      ],
      [
        "▁عندك",
        -7.8541107177734375
      ],
      [
        "يد",
        -7.855504512786865
      ],
      [
        "▁غ",
        -7.855602741241455
      ],
      [
        "يس",
        -7.856352806091309
      ],
      [
        "ri",
        -7.856809616088867
      ],
      [
        "مي",
        -7.857770919799805
      ],
      [
        "▁اليوم",
        -7.858116149902344
      ],
      [
        "▁فقط",
        -7.858572483062744
      ],
      [
        "▁امين",
        -7.858734130859375
      ],
      [
        "وف",
        -7.859059810638428
      ],
      [
        "رو",
        -7.859841346740723
      ],
      [
        "وني",
        -7.860723972320557
      ],
      [
        "بت",
        -7.862608909606934
      ],
      [
        "▁با",
        -7.86541223526001
      ],
      [
        "▁رضا",
        -7.865470886230469
      ],
      [
        "▁)",
        -7.865570545196533
      ],
      [
        "يم",
        -7.865653991699219
      ],
      [
        "قت",
        -7.86701774597168
      ],
      [
        "رب",
        -7.873429775238037
      ],
      [
        "ربي",
        -7.875926494598389
      ],
      [
        "▁إلا",
        -7.882504463195801
      ],
      [
        "▁الخ",
        -7.888430595397949
      ],
      [
        "▁ص",
        -7.894207954406738
      ],
      [
        "دو",
        -7.8943586349487305
      ],
      [
        "▁سلام",
        -7.897465229034424
      ],
      [
        "😢",
        -7.8982768058776855
      ],
      [
        "▁ومن",
        -7.901341438293457
      ],
      [
        "▁ك",
        -7.90676736831665
      ],
      [
        "▁ta",
        -7.906871795654297
      ],
      [
        "er",
        -7.9092278480529785
      ],
      [
        "▁وانا",
        -7.9099860191345215
      ],
      [
        "ود",
        -7.911337375640869
      ],
      [
        "زي",
        -7.912018299102783
      ],
      [
        "▁الحمد",
        -7.912609100341797
      ],
      [
        "▁s",
        -7.9158759117126465
      ],
      [
        "▁la",
        -7.918388843536377
      ],
      [
        "بة",
        -7.9198126792907715
      ],
      [
        "ء",
        -7.920382976531982
      ],
      [
        "رق",
        -7.921053409576416
      ],
      [
        "▁نفس",
        -7.92257022857666
      ],
      [
        "لم",
        -7.925989151000977
      ],
      [
        "حب",
        -7.926695346832275
      ],
      [
        "▁عليها",
        -7.928135395050049
      ],
      [
        "▁افضل",
        -7.928945064544678
      ],
      [
        "▁أخي",
        -7.929721832275391
      ],
      [
        "▁يبارك",
        -7.929856777191162
      ],
      [
        "▁الي",
        -7.930563926696777
      ],
      [
        "▁نجيب",
        -7.9362053871154785
      ],
      [
        "اط",
        -7.93690824508667
      ],
      [
        "▁خو",
        -7.9441142082214355
      ],
      [
        "▁علاه",
        -7.946061134338379
      ],
      [
        "ؤ",
        -7.948462963104248
      ],
      [
        "جد",
        -7.94936466217041
      ],
      [
        "▁فا",
        -7.952225208282471
      ],
      [
        "▁ختي",
        -7.956801414489746
      ],
      [
        "▁والم",
        -7.956974983215332
      ],
      [
        "▁ياربي",
        -7.9604716300964355
      ],
      [
        "▁وما",
        -7.96100378036499
      ],
      [
        "▁بك",
        -7.961732864379883
      ],
      [
        "مر",
        -7.968076705932617
      ],
      [
        "▁قلت",
        -7.969692230224609
      ],
      [
        "▁وقت",
        -7.97130012512207
      ],
      [
        "نت",
        -7.972982883453369
      ],
      [
        "▁قصص",
        -7.973637104034424
      ],
      [
        "▁حنا",
        -7.973880767822266
      ],
      [
        "▁ط",
        -7.974497318267822
      ],
      [
        "كون",
        -7.977609634399414
      ],
      [
        "سم",
        -7.98288631439209
      ],
      [
        "▁هاد",
        -7.98522424697876
      ],
      [
        "▁الب",
        -7.986085891723633
      ],
      [
        "v",
        -7.992496967315674
      ],
      [
        "▁حاجة",
        -7.996790409088135
      ],
      [
        "é",
        -7.9977922439575195
      ],
      [
        "▁ديرلنا",
        -7.9990644454956055
      ],
      [
        "لة",
        -8.000177383422852
      ],
      [
        "▁الخير",
        -8.002046585083008
      ],
      [
        "▁الص",
        -8.002165794372559
      ],
      [
        "▁عبد",
        -8.002304077148438
      ],
      [
        "▁رانا",
        -8.002494812011719
      ],
      [
        "رد",
        -8.00373649597168
      ],
      [
        "▁جزاك",
        -8.004168510437012
      ],
      [
        "فق",
        -8.006464004516602
      ],
      [
        "in",
        -8.009400367736816
      ],
      [
        "▁بعض",
        -8.011272430419922
      ],
      [
        "▁اول",
        -8.014484405517578
      ],
      [
        "جل",
        -8.015710830688477
      ],
      [
        "al",
        -8.017715454101562
      ],
      [
        "مت",
        -8.018362045288086
      ],
      [
        "▁اسم",
        -8.019201278686523
      ],
      [
        "▁خاوتي",
        -8.02035140991211
      ],
      [
        "حل",
        -8.022614479064941
      ],
      [
        "يف",
        -8.023645401000977
      ],
      [
        "▁شفت",
        -8.027530670166016
      ],
      [
        "▁جدا",
        -8.033347129821777
      ],
      [
        "on",
        -8.033596992492676
      ],
      [
        "▁ول",
        -8.033921241760254
      ],
      [
        "▁است",
        -8.037858963012695
      ],
      [
        "▁5",
        -8.037938117980957
      ],
      [
        "لها",
        -8.041155815124512
      ],
      [
        "رض",
        -8.04127311706543
      ],
      [
        "الله",
        -8.043634414672852
      ],
      [
        "▁ثم",
        -8.044039726257324
      ],
      [
        "▁مرة",
        -8.044465065002441
      ],
      [
        "x",
        -8.044778823852539
      ],
      [
        "▁كون",
        -8.045268058776855
      ],
      [
        "دير",
        -8.046801567077637
      ],
      [
        "وس",
        -8.046849250793457
      ],
      [
        "▁ليس",
        -8.049520492553711
      ],
      [
        "▁اللي",
        -8.050743103027344
      ],
      [
        "▁1",
        -8.053996086120605
      ],
      [
        "▁ورحمة",
        -8.05533504486084
      ],
      [
        "يق",
        -8.067668914794922
      ],
      [
        "ar",
        -8.068119049072266
      ],
      [
        "رت",
        -8.06976318359375
      ],
      [
        "▁الر",
        -8.076394081115723
      ],
      [
        "▁وليد",
        -8.077251434326172
      ],
      [
        "▁يقول",
        -8.083477973937988
      ],
      [
        "▁العالمين",
        -8.089138984680176
      ],
      [
        "ma",
        -8.092414855957031
      ],
      [
        "ائل",
        -8.094169616699219
      ],
      [
        "▁العام",
        -8.095148086547852
      ],
      [
        "▁مر",
        -8.095325469970703
      ],
      [
        "💔",
        -8.095438957214355
      ],
      [
        "▁نعم",
        -8.09666919708252
      ],
      [
        "▁تت",
        -8.0993013381958
      ],
      [
        "عرف",
        -8.100831985473633
      ],
      [
        "▁c",
        -8.102800369262695
      ],
      [
        "▁هذي",
        -8.104421615600586
      ],
      [
        "▁علي",
        -8.10486125946045
      ],
      [
        "جا",
        -8.106036186218262
      ],
      [
        "▁تن",
        -8.109591484069824
      ],
      [
        "▁لنا",
        -8.11068344116211
      ],
      [
        "وي",
        -8.111680030822754
      ],
      [
        "▁كمل",
        -8.117919921875
      ],
      [
        "▁جن",
        -8.122323989868164
      ],
      [
        "▁الجن",
        -8.126651763916016
      ],
      [
        "▁د",
        -8.127923011779785
      ],
      [
        "ti",
        -8.130325317382812
      ],
      [
        "▁مليح",
        -8.134771347045898
      ],
      [
        "▁كتاب",
        -8.135266304016113
      ],
      [
        "▁وربي",
        -8.135554313659668
      ],
      [
        "▁الصحة",
        -8.136402130126953
      ],
      [
        "تني",
        -8.137884140014648
      ],
      [
        "▁الك",
        -8.139772415161133
      ],
      [
        "▁علينا",
        -8.141214370727539
      ],
      [
        "قد",
        -8.141217231750488
      ],
      [
        "لهم",
        -8.147358894348145
      ],
      [
        "▁ممكن",
        -8.149554252624512
      ],
      [
        "▁الغ",
        -8.151761054992676
      ],
      [
        "▁درت",
        -8.151931762695312
      ],
      [
        "▁نحبك",
        -8.158045768737793
      ],
      [
        "▁نت",
        -8.159443855285645
      ],
      [
        "مة",
        -8.160606384277344
      ],
      [
        "وها",
        -8.164339065551758
      ],
      [
        "_",
        -8.16437816619873
      ],
      [
        "▁والو",
        -8.164889335632324
      ],
      [
        "قة",
        -8.165802001953125
      ],
      [
        "▁*",
        -8.170655250549316
      ],
      [
        "بو",
        -8.170783042907715
      ],
      [
        "▁9",
        -8.173190116882324
      ],
      [
        "▁إذا",
        -8.176209449768066
      ],
      [
        "▁نشوف",
        -8.179725646972656
      ],
      [
        "▁شيء",
        -8.18037223815918
      ],
      [
        "▁الجنة",
        -8.183831214904785
      ],
      [
        "di",
        -8.185749053955078
      ],
      [
        "▁بلا",
        -8.187492370605469
      ],
      [
        "▁ندي",
        -8.191150665283203
      ],
      [
        "▁ج",
        -8.191161155700684
      ],
      [
        "▁زوج",
        -8.1912202835083
      ],
      [
        "▁تعالى",
        -8.192954063415527
      ],
      [
        "رج",
        -8.193037986755371
      ],
      [
        "طر",
        -8.198708534240723
      ],
      [
        "الي",
        -8.199880599975586
      ],
      [
        "▁A",
        -8.200091361999512
      ],
      [
        "A",
        -8.202701568603516
      ],
      [
        "▁تم",
        -8.203207969665527
      ],
      [
        "es",
        -8.20335865020752
      ],
      [
        "▁وفي",
        -8.204745292663574
      ],
      [
        "دة",
        -8.205509185791016
      ],
      [
        "▁وحد",
        -8.205643653869629
      ],
      [
        "▁انشاء",
        -8.206310272216797
      ],
      [
        "عود",
        -8.207046508789062
      ],
      [
        "علم",
        -8.208517074584961
      ],
      [
        "وال",
        -8.213730812072754
      ],
      [
        "▁بالمثل",
        -8.216302871704102
      ],
      [
        "▁لها",
        -8.216984748840332
      ],
      [
        "▁وهو",
        -8.221120834350586
      ],
      [
        "▁بالله",
        -8.223380088806152
      ],
      [
        "▁ندير",
        -8.223997116088867
      ],
      [
        "طي",
        -8.22404670715332
      ],
      [
        "▁4",
        -8.224984169006348
      ],
      [
        "سب",
        -8.225598335266113
      ],
      [
        "▁حكاية",
        -8.226076126098633
      ],
      [
        "▁رمضان",
        -8.22654914855957
      ],
      [
        "▁de",
        -8.227850914001465
      ],
      [
        "▁مثل",
        -8.229487419128418
      ],
      [
        "▁,",
        -8.23134994506836
      ],
      [
        "▁ابن",
        -8.235563278198242
      ],
      [
        "يين",
        -8.237900733947754
      ],
      [
        "▁الل",
        -8.24221134185791
      ],
      [
        "اني",
        -8.242962837219238
      ],
      [
        "😊",
        -8.24301528930664
      ],
      [
        "ni",
        -8.24508285522461
      ],
      [
        "▁ولكن",
        -8.24644660949707
      ],
      [
        "▁تاعك",
        -8.250700950622559
      ],
      [
        "از",
        -8.250732421875
      ],
      [
        "le",
        -8.250884056091309
      ],
      [
        "▁هدا",
        -8.25558853149414
      ],
      [
        "▁القصة",
        -8.25719928741455
      ],
      [
        "ذا",
        -8.261293411254883
      ],
      [
        "▁❤️",
        -8.264545440673828
      ],
      [
        "da",
        -8.264847755432129
      ],
      [
        "فل",
        -8.26715087890625
      ],
      [
        "▁أي",
        -8.269786834716797
      ],
      [
        "▁M",
        -8.269864082336426
      ],
      [
        "▁تقول",
        -8.270185470581055
      ],
      [
        "▁ثاني",
        -8.271601676940918
      ],
      [
        "▁البكالوريا",
        -8.271798133850098
      ],
      [
        "▁رسول",
        -8.274131774902344
      ],
      [
        "▁ناس",
        -8.275988578796387
      ],
      [
        "بال",
        -8.278692245483398
      ],
      [
        "▁كيفاش",
        -8.280255317687988
      ],
      [
        "اق",
        -8.28038215637207
      ],
      [
        "تر",
        -8.280905723571777
      ],
      [
        "▁شر",
        -8.281203269958496
      ],
      [
        "▁نتاع",
        -8.281354904174805
      ],
      [
        "قي",
        -8.282873153686523
      ],
      [
        "▁وكل",
        -8.283720016479492
      ],
      [
        "عي",
        -8.284724235534668
      ],
      [
        "له",
        -8.285677909851074
      ],
      [
        "▁قاع",
        -8.288243293762207
      ],
      [
        "en",
        -8.289374351501465
      ],
      [
        "▁سؤال",
        -8.292414665222168
      ],
      [
        "▁معاك",
        -8.292941093444824
      ],
      [
        "عت",
        -8.295382499694824
      ],
      [
        "▁باه",
        -8.296167373657227
      ],
      [
        "▁تح",
        -8.296821594238281
      ],
      [
        "▁لباك",
        -8.297721862792969
      ],
      [
        "el",
        -8.301565170288086
      ],
      [
        "▁لأن",
        -8.302364349365234
      ],
      [
        "▁يحفضك",
        -8.3029203414917
      ],
      [
        "تهم",
        -8.303667068481445
      ],
      [
        "مو",
        -8.30740737915039
      ],
      [
        "جب",
        -8.308924674987793
      ],
      [
        "▁يوفقك",
        -8.309407234191895
      ],
      [
        "🤲",
        -8.309585571289062
      ],
      [
        "▁راجعون",
        -8.311301231384277
      ],
      [
        "▁بها",
        -8.31274127960205
      ],
      [
        "▁🤲",
        -8.312979698181152
      ],
      [
        "or",
        -8.314175605773926
      ],
      [
        "▁شحال",
        -8.31768798828125
      ],
      [
        "▁les",
        -8.319900512695312
      ],
      [
        "te",
        -8.321249961853027
      ],
      [
        "▁يرحم",
        -8.323155403137207
      ],
      [
        "▁سا",
        -8.324258804321289
      ],
      [
        "▁راهي",
        -8.326372146606445
      ],
      [
        "▁الكريم",
        -8.328646659851074
      ],
      [
        "▁شا",
        -8.329941749572754
      ],
      [
        "قدر",
        -8.331385612487793
      ],
      [
        "▁نس",
        -8.33293342590332
      ],
      [
        "نس",
        -8.333403587341309
      ],
      [
        "0",
        -8.333874702453613
      ],
      [
        "▁وبركاته",
        -8.334750175476074
      ],
      [
        "▁علم",
        -8.335034370422363
      ],
      [
        "قو",
        -8.3369140625
      ],
      [
        "▁خط",
        -8.337506294250488
      ],
      [
        "صح",
        -8.34022045135498
      ],
      [
        "▁2025",
        -8.340863227844238
      ],
      [
        "ba",
        -8.341055870056152
      ],
      [
        "▁ماشاء",
        -8.3412446975708
      ],
      [
        "▁مزال",
        -8.341804504394531
      ],
      [
        "▁مشي",
        -8.341833114624023
      ],
      [
        "▁جد",
        -8.343056678771973
      ],
      [
        "▁بو",
        -8.343066215515137
      ],
      [
        "شي",
        -8.34346866607666
      ],
      [
        "▁علا",
        -8.343482971191406
      ],
      [
        "▁حق",
        -8.344247817993164
      ],
      [
        "▁😅",
        -8.345471382141113
      ],
      [
        "▁مس",
        -8.34620475769043
      ],
      [
        "كن",
        -8.346461296081543
      ],
      [
        "▁7",
        -8.34719181060791
      ],
      [
        "▁جام",
        -8.347201347351074
      ],
      [
        "لف",
        -8.348875999450684
      ],
      [
        "وع",
        -8.348886489868164
      ],
      [
        "me",
        -8.349038124084473
      ],
      [
        "▁للم",
        -8.35149097442627
      ],
      [
        "▁كيفاه",
        -8.352399826049805
      ],
      [
        "▁هاذي",
        -8.3524751663208
      ],
      [
        "▁شعر",
        -8.353524208068848
      ],
      [
        "▁هادي",
        -8.35357666015625
      ],
      [
        "▁حب",
        -8.355606079101562
      ],
      [
        "▁آ",
        -8.356039047241211
      ],
      [
        "▁بزااف",
        -8.356646537780762
      ],
      [
        "جو",
        -8.358431816101074
      ],
      [
        "at",
        -8.359949111938477
      ],
      [
        "زا",
        -8.36209774017334
      ],
      [
        "رى",
        -8.36316204071045
      ],
      [
        "دعو",
        -8.364459991455078
      ],
      [
        "▁B",
        -8.365242958068848
      ],
      [
        "لت",
        -8.37244701385498
      ],
      [
        "▁d",
        -8.37328052520752
      ],
      [
        "▁عمر",
        -8.37438678741455
      ],
      [
        "▁نحب",
        -8.374387741088867
      ],
      [
        "▁ولكم",
        -8.374509811401367
      ],
      [
        "❤️",
        -8.374711990356445
      ],
      [
        "▁روح",
        -8.3781099319458
      ],
      [
        "▁شعبة",
        -8.379128456115723
      ],
      [
        "▁T",
        -8.382171630859375
      ],
      [
        "▁مح",
        -8.383227348327637
      ],
      [
        "▁الان",
        -8.383506774902344
      ],
      [
        "▁سنة",
        -8.383946418762207
      ],
      [
        "▁وان",
        -8.384087562561035
      ],
      [
        "▁الموضوع",
        -8.385250091552734
      ],
      [
        "▁تاني",
        -8.385472297668457
      ],
      [
        "▁العلم",
        -8.38585090637207
      ],
      [
        "▁الحق",
        -8.385857582092285
      ],
      [
        "▁كلش",
        -8.387146949768066
      ],
      [
        "ro",
        -8.38730239868164
      ],
      [
        "kh",
        -8.38875961303711
      ],
      [
        "▁20",
        -8.39107894897461
      ],
      [
        "عا",
        -8.393671989440918
      ],
      [
        "ثر",
        -8.39376449584961
      ],
      [
        "در",
        -8.401588439941406
      ],
      [
        "▁معدل",
        -8.40611457824707
      ],
      [
        "كان",
        -8.406736373901367
      ],
      [
        "▁إليه",
        -8.407419204711914
      ],
      [
        "حفظ",
        -8.407710075378418
      ],
      [
        "▁😊",
        -8.409713745117188
      ],
      [
        "قر",
        -8.409793853759766
      ],
      [
        "فضل",
        -8.410372734069824
      ],
      [
        "▁آمين",
        -8.413618087768555
      ],
      [
        "▁صباح",
        -8.413949012756348
      ],
      [
        "▁+",
        -8.414117813110352
      ],
      [
        "ضر",
        -8.41490650177002
      ],
      [
        "سر",
        -8.416886329650879
      ],
      [
        "ينا",
        -8.417150497436523
      ],
      [
        "بغ",
        -8.418317794799805
      ],
      [
        "▁ya",
        -8.421072959899902
      ],
      [
        "▁جديد",
        -8.421199798583984
      ],
      [
        "▁ض",
        -8.421457290649414
      ],
      [
        "▁عليهم",
        -8.423096656799316
      ],
      [
        "▁كثر",
        -8.423137664794922
      ],
      [
        "▁وب",
        -8.426315307617188
      ],
      [
        "▁نتفرج",
        -8.426947593688965
      ],
      [
        "خت",
        -8.429227828979492
      ],
      [
        "▁يدير",
        -8.429908752441406
      ],
      [
        "غير",
        -8.431557655334473
      ],
      [
        "دار",
        -8.433435440063477
      ],
      [
        "سا",
        -8.433520317077637
      ],
      [
        "رح",
        -8.433794975280762
      ],
      [
        "😅",
        -8.434111595153809
      ],
      [
        "▁منها",
        -8.434856414794922
      ],
      [
        "▁زيد",
        -8.437098503112793
      ],
      [
        "يع",
        -8.439743041992188
      ],
      [
        "is",
        -8.440256118774414
      ],
      [
        "▁لان",
        -8.44044017791748
      ],
      [
        "▁الو",
        -8.442435264587402
      ],
      [
        "▁10",
        -8.443772315979004
      ],
      [
        "حر",
        -8.445663452148438
      ],
      [
        "▁وحدة",
        -8.446517944335938
      ],
      [
        "▁😢😢",
        -8.446724891662598
      ],
      [
        "▁لن",
        -8.447030067443848
      ],
      [
        "جاب",
        -8.447583198547363
      ],
      [
        "يز",
        -8.449212074279785
      ],
      [
        "▁المنتدى",
        -8.451175689697266
      ],
      [
        "▁ست",
        -8.45195484161377
      ],
      [
        "▁أنت",
        -8.452383041381836
      ],
      [
        "فكر",
        -8.452780723571777
      ],
      [
        "▁لما",
        -8.454351425170898
      ],
      [
        "دخل",
        -8.454521179199219
      ],
      [
        "ta",
        -8.454963684082031
      ],
      [
        "▁وشكرا",
        -8.456326484680176
      ],
      [
        "▁تعرف",
        -8.457097053527832
      ],
      [
        "▁نقرا",
        -8.458963394165039
      ],
      [
        "▁سبحان",
        -8.459039688110352
      ],
      [
        "جن",
        -8.459567070007324
      ],
      [
        "▁🙂",
        -8.460528373718262
      ],
      [
        "00",
        -8.4609956741333
      ],
      [
        "▁العالم",
        -8.461774826049805
      ],
      [
        "▁جميع",
        -8.462100982666016
      ],
      [
        "▁ينجحنا",
        -8.462479591369629
      ],
      [
        "▁الد",
        -8.462989807128906
      ],
      [
        "▁استاذة",
        -8.463353157043457
      ],
      [
        "▁نهار",
        -8.463379859924316
      ],
      [
        "▁ماي",
        -8.464136123657227
      ],
      [
        "▁روحي",
        -8.464543342590332
      ],
      [
        "▁لأ",
        -8.46470832824707
      ],
      [
        "▁p",
        -8.466525077819824
      ],
      [
        "it",
        -8.466706275939941
      ],
      [
        "وق",
        -8.466719627380371
      ],
      [
        "▁عم",
        -8.468032836914062
      ],
      [
        "كر",
        -8.468218803405762
      ],
      [
        "▁تحت",
        -8.468987464904785
      ],
      [
        "كس",
        -8.469389915466309
      ],
      [
        "▁الوقت",
        -8.469801902770996
      ],
      [
        "▁fi",
        -8.469879150390625
      ],
      [
        "▁بالم",
        -8.470660209655762
      ],
      [
        "▁دا",
        -8.473023414611816
      ],
      [
        "ak",
        -8.474130630493164
      ],
      [
        "ذي",
        -8.474283218383789
      ],
      [
        "▁مان",
        -8.474920272827148
      ],
      [
        "▁را",
        -8.477775573730469
      ],
      [
        "▁عليا",
        -8.477787971496582
      ],
      [
        "▁نعرف",
        -8.4786958694458
      ],
      [
        "▁راهم",
        -8.479485511779785
      ],
      [
        "▁يمكن",
        -8.480910301208496
      ],
      [
        "سل",
        -8.481844902038574
      ],
      [
        "ذكر",
        -8.481951713562012
      ],
      [
        "طلب",
        -8.48295783996582
      ],
      [
        "▁مرحبا",
        -8.483301162719727
      ],
      [
        "مان",
        -8.484192848205566
      ],
      [
        "▁صل",
        -8.484647750854492
      ],
      [
        "ad",
        -8.487417221069336
      ],
      [
        "I",
        -8.487588882446289
      ],
      [
        "▁لت",
        -8.4895601272583
      ],
      [
        "رحم",
        -8.491348266601562
      ],
      [
        "▁بنت",
        -8.491923332214355
      ],
      [
        "▁عادي",
        -8.492401123046875
      ],
      [
        "▁ميزان",
        -8.493951797485352
      ],
      [
        "بار",
        -8.4939603805542
      ],
      [
        "طل",
        -8.494399070739746
      ],
      [
        "▁راكي",
        -8.494732856750488
      ],
      [
        "▁لكم",
        -8.496049880981445
      ],
      [
        "رك",
        -8.497838020324707
      ],
      [
        "طا",
        -8.49850845336914
      ],
      [
        "بعد",
        -8.500460624694824
      ],
      [
        "دم",
        -8.505182266235352
      ],
      [
        "▁le",
        -8.505744934082031
      ],
      [
        "▁دي",
        -8.506146430969238
      ],
      [
        "(",
        -8.506448745727539
      ],
      [
        "️",
        -8.506979942321777
      ],
      [
        "▁بم",
        -8.507362365722656
      ],
      [
        "▁li",
        -8.507533073425293
      ],
      [
        "▁h",
        -8.508742332458496
      ],
      [
        "▁النبي",
        -8.511201858520508
      ],
      [
        "▁غي",
        -8.511850357055664
      ],
      [
        "▁حر",
        -8.513240814208984
      ],
      [
        "▁حال",
        -8.513530731201172
      ],
      [
        "▁S",
        -8.515878677368164
      ],
      [
        "▁قل",
        -8.518576622009277
      ],
      [
        "▁العظيم",
        -8.519421577453613
      ],
      [
        "اتك",
        -8.520173072814941
      ],
      [
        "▁اني",
        -8.521554946899414
      ],
      [
        "روح",
        -8.523404121398926
      ],
      [
        "▁حكايات",
        -8.523408889770508
      ],
      [
        "▁اكثر",
        -8.525907516479492
      ],
      [
        "مس",
        -8.525964736938477
      ],
      [
        "▁الز",
        -8.52678108215332
      ],
      [
        "فة",
        -8.527539253234863
      ],
      [
        "▁بي",
        -8.527801513671875
      ],
      [
        "▁عنه",
        -8.5293607711792
      ],
      [
        "▁محتوى",
        -8.529997825622559
      ],
      [
        "دين",
        -8.531939506530762
      ],
      [
        "مال",
        -8.53221321105957
      ],
      [
        "ed",
        -8.533499717712402
      ],
      [
        "▁أهل",
        -8.533538818359375
      ],
      [
        "▁مل",
        -8.533965110778809
      ],
      [
        "▁اليه",
        -8.536319732666016
      ],
      [
        "▁طريقة",
        -8.536574363708496
      ],
      [
        "▁استاد",
        -8.536989212036133
      ],
      [
        "هل",
        -8.537211418151855
      ],
      [
        "▁شهادة",
        -8.537378311157227
      ],
      [
        "▁هناك",
        -8.537641525268555
      ],
      [
        "lo",
        -8.538026809692383
      ],
      [
        "الم",
        -8.538379669189453
      ],
      [
        "خير",
        -8.53844165802002
      ],
      [
        "▁2026",
        -8.54003620147705
      ],
      [
        "كي",
        -8.540446281433105
      ],
      [
        "شرف",
        -8.542557716369629
      ],
      [
        "am",
        -8.542728424072266
      ],
      [
        "ah",
        -8.543048858642578
      ],
      [
        "▁g",
        -8.543222427368164
      ],
      [
        "▁لكل",
        -8.544140815734863
      ],
      [
        "▁نص",
        -8.545432090759277
      ],
      [
        "رس",
        -8.545475006103516
      ],
      [
        "▁تحياتي",
        -8.547513008117676
      ],
      [
        "▁فلا",
        -8.548274993896484
      ],
      [
        "ay",
        -8.551162719726562
      ],
      [
        "▁المن",
        -8.551225662231445
      ],
      [
        "إ",
        -8.554888725280762
      ],
      [
        "▁حبيت",
        -8.558703422546387
      ],
      [
        "🥺",
        -8.559783935546875
      ],
      [
        "بد",
        -8.559983253479004
      ],
      [
        "مثل",
        -8.560583114624023
      ],
      [
        "جة",
        -8.561539649963379
      ],
      [
        "▁الدين",
        -8.564169883728027
      ],
      [
        "قص",
        -8.564957618713379
      ],
      [
        "ڨ",
        -8.565878868103027
      ],
      [
        "▁عندو",
        -8.567829132080078
      ],
      [
        "▁النجاح",
        -8.56822395324707
      ],
      [
        "هن",
        -8.56881046295166
      ],
      [
        "▁كثيرا",
        -8.56889533996582
      ],
      [
        "▁حاب",
        -8.571516036987305
      ],
      [
        "🙂",
        -8.571540832519531
      ],
      [
        "طب",
        -8.57423210144043
      ],
      [
        "دل",
        -8.574542999267578
      ],
      [
        "▁يجي",
        -8.575276374816895
      ],
      [
        "وان",
        -8.575522422790527
      ],
      [
        "▁the",
        -8.578457832336426
      ],
      [
        "▁والا",
        -8.580489158630371
      ],
      [
        "خف",
        -8.581358909606934
      ],
      [
        "!",
        -8.581582069396973
      ],
      [
        "de",
        -8.582374572753906
      ],
      [
        "▁هكا",
        -8.582399368286133
      ],
      [
        "▁بابا",
        -8.583109855651855
      ],
      [
        "قا",
        -8.583598136901855
      ],
      [
        "▁رعب",
        -8.58503532409668
      ],
      [
        "بع",
        -8.585068702697754
      ],
      [
        "😭",
        -8.585700035095215
      ],
      [
        "شر",
        -8.587897300720215
      ],
      [
        "bi",
        -8.588273048400879
      ],
      [
        "▁تو",
        -8.589816093444824
      ],
      [
        "خرج",
        -8.59084701538086
      ],
      [
        "▁مد",
        -8.592156410217285
      ],
      [
        "▁بالتوفيق",
        -8.592384338378906
      ],
      [
        "▁نشالله",
        -8.592910766601562
      ],
      [
        "▁رحمة",
        -8.594271659851074
      ],
      [
        "▁شيخ",
        -8.594755172729492
      ],
      [
        "▁المهم",
        -8.595383644104004
      ],
      [
        "بن",
        -8.595500946044922
      ],
      [
        "▁موضوع",
        -8.596817970275879
      ],
      [
        "q",
        -8.599157333374023
      ],
      [
        "▁شخص",
        -8.60069751739502
      ],
      [
        "▁عمل",
        -8.601004600524902
      ],
      [
        "▁صحيح",
        -8.601268768310547
      ],
      [
        "▁قول",
        -8.602145195007324
      ],
      [
        "▁N",
        -8.602693557739258
      ],
      [
        "▁فر",
        -8.604131698608398
      ],
      [
        "▁قتل",
        -8.606440544128418
      ],
      [
        "*",
        -8.6077880859375
      ],
      [
        "▁علاش",
        -8.609359741210938
      ],
      [
        "▁بمعدل",
        -8.610132217407227
      ],
      [
        "▁قلبي",
        -8.611226081848145
      ],
      [
        "▁جيت",
        -8.611421585083008
      ],
      [
        "▁هاذ",
        -8.615155220031738
      ],
      [
        "زيد",
        -8.615525245666504
      ],
      [
        "▁بأ",
        -8.616305351257324
      ],
      [
        "ئة",
        -8.617276191711426
      ],
      [
        "▁الشعر",
        -8.618013381958008
      ],
      [
        "سو",
        -8.61884880065918
      ],
      [
        "▁حسناتك",
        -8.619603157043457
      ],
      [
        "طة",
        -8.620074272155762
      ],
      [
        "▁6",
        -8.62397575378418
      ],
      [
        "▁ذكر",
        -8.624917984008789
      ],
      [
        "▁المسلمين",
        -8.625215530395508
      ],
      [
        "▁مبروك",
        -8.626189231872559
      ],
      [
        "▁15",
        -8.626798629760742
      ],
      [
        "ing",
        -8.628387451171875
      ],
      [
        "▁نتي",
        -8.629007339477539
      ],
      [
        "il",
        -8.629312515258789
      ],
      [
        "▁أفضل",
        -8.62934684753418
      ],
      [
        "▁مام",
        -8.630337715148926
      ],
      [
        "به",
        -8.630851745605469
      ],
      [
        "▁شرح",
        -8.631412506103516
      ],
      [
        "▁ch",
        -8.63154125213623
      ],
      [
        "راء",
        -8.631681442260742
      ],
      [
        "ya",
        -8.632007598876953
      ],
      [
        "▁خاصة",
        -8.633750915527344
      ],
      [
        "▁I",
        -8.634942054748535
      ],
      [
        "▁يحب",
        -8.635222434997559
      ],
      [
        "▁أختي",
        -8.635223388671875
      ],
      [
        "▁شي",
        -8.635910987854004
      ],
      [
        "اتي",
        -8.636759757995605
      ],
      [
        "▁قر",
        -8.63704776763916
      ],
      [
        "▁j",
        -8.638290405273438
      ],
      [
        "▁ديرنا",
        -8.639497756958008
      ],
      [
        "▁مرا",
        -8.639689445495605
      ],
      [
        "ايا",
        -8.641183853149414
      ],
      [
        "دعي",
        -8.642709732055664
      ],
      [
        "▁الحل",
        -8.643499374389648
      ],
      [
        "افي",
        -8.644216537475586
      ],
      [
        "▁تس",
        -8.644316673278809
      ],
      [
        "▁ننجح",
        -8.644332885742188
      ],
      [
        "رش",
        -8.64500904083252
      ],
      [
        "فعل",
        -8.6470365524292
      ],
      [
        "خوف",
        -8.64714241027832
      ],
      [
        "▁الط",
        -8.647359848022461
      ],
      [
        "أن",
        -8.649210929870605
      ],
      [
        "يلي",
        -8.650071144104004
      ],
      [
        "راك",
        -8.650073051452637
      ],
      [
        "▁k",
        -8.650985717773438
      ],
      [
        "▁شهر",
        -8.65166187286377
      ],
      [
        "▁حا",
        -8.652975082397461
      ],
      [
        "▁در",
        -8.653839111328125
      ],
      [
        "▁رح",
        -8.654244422912598
      ],
      [
        "▁16",
        -8.65473461151123
      ],
      [
        "▁عل",
        -8.655207633972168
      ],
      [
        "▁الثاني",
        -8.656429290771484
      ],
      [
        "ارة",
        -8.656435012817383
      ],
      [
        "حد",
        -8.656676292419434
      ],
      [
        "ضح",
        -8.657001495361328
      ],
      [
        "▁ولي",
        -8.657094955444336
      ],
      [
        "ne",
        -8.658468246459961
      ],
      [
        "▁فأ",
        -8.659244537353516
      ],
      [
        "فهم",
        -8.659337997436523
      ],
      [
        "▁تق",
        -8.662311553955078
      ],
      [
        "+",
        -8.663753509521484
      ],
      [
        "بين",
        -8.664846420288086
      ],
      [
        "▁you",
        -8.66614818572998
      ],
      [
        "▁وجه",
        -8.668100357055664
      ],
      [
        "عن",
        -8.668569564819336
      ],
      [
        "▁تش",
        -8.668641090393066
      ],
      [
        "▁الدنيا",
        -8.669976234436035
      ],
      [
        "▁سر",
        -8.6699857711792
      ],
      [
        "وت",
        -8.67049503326416
      ],
      [
        "▁احسن",
        -8.670525550842285
      ],
      [
        "يح",
        -8.67081356048584
      ],
      [
        "▁فهمت",
        -8.671066284179688
      ],
      [
        "قطع",
        -8.671182632446289
      ],
      [
        "▁سمعت",
        -8.671509742736816
      ],
      [
        "▁ha",
        -8.672257423400879
      ],
      [
        "▁القصص",
        -8.673559188842773
      ],
      [
        "▁بديت",
        -8.67400074005127
      ],
      [
        "▁اما",
        -8.675251007080078
      ],
      [
        "▁نقول",
        -8.675600051879883
      ],
      [
        "▁اس",
        -8.675823211669922
      ],
      [
        "ir",
        -8.677159309387207
      ],
      [
        "T",
        -8.67810344696045
      ],
      [
        "صدق",
        -8.678820610046387
      ],
      [
        "▁حبيبتي",
        -8.67944049835205
      ],
      [
        "▁جزيلا",
        -8.679716110229492
      ],
      [
        "▁كر",
        -8.680089950561523
      ],
      [
        "▁لقيت",
        -8.681622505187988
      ],
      [
        "▁اع",
        -8.681775093078613
      ],
      [
        "تابع",
        -8.683093070983887
      ],
      [
        "▁الشيخ",
        -8.685209274291992
      ],
      [
        "▁العباسية",
        -8.685977935791016
      ],
      [
        "▁كبير",
        -8.686114311218262
      ],
      [
        "▁الصبر",
        -8.686722755432129
      ],
      [
        "▁حول",
        -8.687226295471191
      ],
      [
        "نسا",
        -8.687613487243652
      ],
      [
        "هاش",
        -8.687893867492676
      ],
      [
        "▁ra",
        -8.68941879272461
      ],
      [
        "▁نسمع",
        -8.690956115722656
      ],
      [
        "لق",
        -8.691508293151855
      ],
      [
        "▁اخت",
        -8.69178295135498
      ],
      [
        "▁بكل",
        -8.695363998413086
      ],
      [
        "قرب",
        -8.697517395019531
      ],
      [
        "طف",
        -8.69805908203125
      ],
      [
        "▁العربية",
        -8.698634147644043
      ],
      [
        "▁لق",
        -8.699545860290527
      ],
      [
        "جار",
        -8.70030689239502
      ],
      [
        "▁يوفقنا",
        -8.700403213500977
      ],
      [
        "wa",
        -8.702374458312988
      ],
      [
        "نزل",
        -8.70386791229248
      ],
      [
        "an",
        -8.70406436920166
      ],
      [
        "نجح",
        -8.704873085021973
      ],
      [
        "▁نحن",
        -8.705620765686035
      ],
      [
        "حا",
        -8.706379890441895
      ],
      [
        "▁نقدر",
        -8.707249641418457
      ],
      [
        "▁أنه",
        -8.708169937133789
      ],
      [
        "▁لدي",
        -8.70910358428955
      ],
      [
        "هد",
        -8.710067749023438
      ],
      [
        "ائي",
        -8.710088729858398
      ],
      [
        "طو",
        -8.710436820983887
      ],
      [
        "▁رد",
        -8.710443496704102
      ],
      [
        "E",
        -8.710444450378418
      ],
      [
        "▁in",
        -8.711483001708984
      ],
      [
        "=",
        -8.71153736114502
      ],
      [
        "▁خلي",
        -8.711685180664062
      ],
      [
        "جاز",
        -8.712504386901855
      ],
      [
        "حق",
        -8.713129997253418
      ],
      [
        "ظن",
        -8.713709831237793
      ],
      [
        "انا",
        -8.71654987335205
      ],
      [
        "▁نشاله",
        -8.71716594696045
      ],
      [
        "URL",
        -8.718114852905273
      ],
      [
        "▁القرآن",
        -8.718774795532227
      ],
      [
        "▁لح",
        -8.719110488891602
      ],
      [
        "▁wa",
        -8.719522476196289
      ],
      [
        "▁🥺",
        -8.721075057983398
      ],
      [
        "▁سن",
        -8.72184944152832
      ],
      [
        "رف",
        -8.722021102905273
      ],
      [
        "ab",
        -8.722806930541992
      ],
      [
        "▁الكتاب",
        -8.722906112670898
      ],
      [
        "▁دخل",
        -8.72299575805664
      ],
      [
        "▁لع",
        -8.725153923034668
      ],
      [
        "▁hh",
        -8.72543716430664
      ],
      [
        "▁19",
        -8.72607135772705
      ],
      [
        "▁فعل",
        -8.726519584655762
      ],
      [
        "▁17",
        -8.726649284362793
      ],
      [
        "▁2024",
        -8.72765827178955
      ],
      [
        "▁D",
        -8.728060722351074
      ],
      [
        "▁ين",
        -8.730469703674316
      ],
      [
        "يرة",
        -8.730491638183594
      ],
      [
        "▁L",
        -8.731793403625488
      ],
      [
        "ظر",
        -8.73248291015625
      ],
      [
        "غر",
        -8.735400199890137
      ],
      [
        "▁سيبيا",
        -8.735647201538086
      ],
      [
        "▁جماعة",
        -8.737447738647461
      ],
      [
        "خط",
        -8.738262176513672
      ],
      [
        "▁الاول",
        -8.73831844329834
      ],
      [
        "▁الصلاة",
        -8.739383697509766
      ],
      [
        "▁دو",
        -8.740364074707031
      ],
      [
        "▁تحب",
        -8.740531921386719
      ],
      [
        "▁قوة",
        -8.74205207824707
      ],
      [
        "▁/",
        -8.74243450164795
      ],
      [
        "▁😭",
        -8.744306564331055
      ],
      [
        "▁🤣🤣",
        -8.744603157043457
      ],
      [
        "▁كا",
        -8.744712829589844
      ],
      [
        "▁اخر",
        -8.745248794555664
      ],
      [
        "▁طريق",
        -8.746721267700195
      ],
      [
        "▁مكان",
        -8.750069618225098
      ],
      [
        "▁يح",
        -8.751325607299805
      ],
      [
        "▁روعة",
        -8.751364707946777
      ],
      [
        "▁v",
        -8.75239372253418
      ],
      [
        "عل",
        -8.7551908493042
      ],
      [
        "▁دين",
        -8.75626277923584
      ],
      [
        "ذهب",
        -8.756355285644531
      ],
      [
        "▁بس",
        -8.757808685302734
      ],
      [
        "▁أكثر",
        -8.758084297180176
      ],
      [
        "▁الشعب",
        -8.758121490478516
      ],
      [
        "▁كو",
        -8.760149955749512
      ],
      [
        "لى",
        -8.760683059692383
      ],
      [
        "بس",
        -8.765203475952148
      ],
      [
        "▁ارجو",
        -8.765707969665527
      ],
      [
        "قوم",
        -8.767197608947754
      ],
      [
        "▁ولد",
        -8.768019676208496
      ],
      [
        "▁الحياة",
        -8.768532752990723
      ],
      [
        "بط",
        -8.768566131591797
      ],
      [
        "▁هدي",
        -8.768610954284668
      ],
      [
        "جز",
        -8.768611907958984
      ],
      [
        "▁لالا",
        -8.768786430358887
      ],
      [
        "وض",
        -8.769038200378418
      ],
      [
        "لح",
        -8.769335746765137
      ],
      [
        "▁دعولي",
        -8.769502639770508
      ],
      [
        "ورة",
        -8.770699501037598
      ],
      [
        "▁مال",
        -8.772366523742676
      ],
      [
        "▁تحكي",
        -8.77436351776123
      ],
      [
        "▁اله",
        -8.774517059326172
      ],
      [
        "▁لوكان",
        -8.776045799255371
      ],
      [
        "زع",
        -8.777045249938965
      ],
      [
        "▁to",
        -8.777063369750977
      ],
      [
        "جم",
        -8.777685165405273
      ],
      [
        "عين",
        -8.778600692749023
      ],
      [
        "ائر",
        -8.779056549072266
      ],
      [
        "▁غا",
        -8.779292106628418
      ],
      [
        "▁عا",
        -8.779300689697266
      ],
      [
        "▁فإن",
        -8.779343605041504
      ],
      [
        "▁بما",
        -8.779987335205078
      ],
      [
        "▁صاحب",
        -8.781391143798828
      ],
      [
        "▁بليز",
        -8.782394409179688
      ],
      [
        "▁بيك",
        -8.78479290008545
      ],
      [
        "▁أحد",
        -8.785350799560547
      ],
      [
        "▁وعلى",
        -8.78685188293457
      ],
      [
        "▁ياارب",
        -8.788854598999023
      ],
      [
        "▁‪",
        -8.78974437713623
      ],
      [
        "يها",
        -8.790472030639648
      ],
      [
        "حسن",
        -8.790538787841797
      ],
      [
        "ناش",
        -8.790633201599121
      ],
      [
        "▁اش",
        -8.791436195373535
      ],
      [
        "ينة",
        -8.793312072753906
      ],
      [
        "▁فات",
        -8.798907279968262
      ],
      [
        "▁والت",
        -8.799015045166016
      ],
      [
        "▁حي",
        -8.799304008483887
      ],
      [
        "▁جي",
        -8.799355506896973
      ],
      [
        "▁رحمه",
        -8.79979419708252
      ],
      [
        "سعد",
        -8.80033016204834
      ],
      [
        "ائد",
        -8.800771713256836
      ],
      [
        "▁et",
        -8.801671028137207
      ],
      [
        "▁يجازيك",
        -8.802303314208984
      ],
      [
        "▁الحر",
        -8.802400588989258
      ],
      [
        "▁مشكل",
        -8.802691459655762
      ],
      [
        "ce",
        -8.80271053314209
      ],
      [
        "يلة",
        -8.804167747497559
      ],
      [
        "طور",
        -8.805746078491211
      ],
      [
        "▁راكليطة",
        -8.806180953979492
      ],
      [
        "▁ou",
        -8.806709289550781
      ],
      [
        "راه",
        -8.808331489562988
      ],
      [
        "▁بيه",
        -8.808709144592285
      ],
      [
        "فض",
        -8.809176445007324
      ],
      [
        "قات",
        -8.80920696258545
      ],
      [
        "▁تشوف",
        -8.809804916381836
      ],
      [
        "▁ها",
        -8.811031341552734
      ],
      [
        "ek",
        -8.811240196228027
      ],
      [
        "▁داير",
        -8.811362266540527
      ],
      [
        "حرم",
        -8.812689781188965
      ],
      [
        "سط",
        -8.813543319702148
      ],
      [
        "يتي",
        -8.813627243041992
      ],
      [
        "▁ولم",
        -8.81401538848877
      ],
      [
        "تح",
        -8.814079284667969
      ],
      [
        "خو",
        -8.814840316772461
      ],
      [
        "▁السؤال",
        -8.81688117980957
      ],
      [
        "شكر",
        -8.817447662353516
      ],
      [
        "▁ذ",
        -8.8176851272583
      ],
      [
        "كمل",
        -8.817760467529297
      ],
      [
        "▁بإذن",
        -8.818349838256836
      ],
      [
        "▁حط",
        -8.818395614624023
      ],
      [
        "▁وهي",
        -8.81884765625
      ],
      [
        "عم",
        -8.818885803222656
      ],
      [
        "حمل",
        -8.821087837219238
      ],
      [
        "▁!",
        -8.821264266967773
      ],
      [
        "سلم",
        -8.821767807006836
      ],
      [
        "ضي",
        -8.822126388549805
      ],
      [
        "▁قلب",
        -8.822857856750488
      ],
      [
        "كتب",
        -8.8240327835083
      ],
      [
        "D",
        -8.824112892150879
      ],
      [
        "▁دعوة",
        -8.824824333190918
      ],
      [
        "🔥",
        -8.825297355651855
      ],
      [
        "▁بش",
        -8.825613021850586
      ],
      [
        "ادة",
        -8.826358795166016
      ],
      [
        "▁علوم",
        -8.826370239257812
      ],
      [
        "▁معليش",
        -8.827251434326172
      ],
      [
        "▁فسيح",
        -8.827396392822266
      ],
      [
        "عاد",
        -8.827862739562988
      ],
      [
        "▁الام",
        -8.828079223632812
      ],
      [
        "انة",
        -8.828547477722168
      ],
      [
        "▁يعرف",
        -8.828619003295898
      ],
      [
        "فرح",
        -8.82875919342041
      ],
      [
        "جيب",
        -8.828913688659668
      ],
      [
        "st",
        -8.829069137573242
      ],
      [
        "▁W",
        -8.8291597366333
      ],
      [
        "زل",
        -8.830060005187988
      ],
      [
        "🏻",
        -8.830534934997559
      ],
      [
        "على",
        -8.83233642578125
      ],
      [
        "▁يد",
        -8.833261489868164
      ],
      [
        "حكم",
        -8.834444999694824
      ],
      [
        "▁بيها",
        -8.835412979125977
      ],
      [
        "et",
        -8.835545539855957
      ],
      [
        "id",
        -8.835862159729004
      ],
      [
        "طن",
        -8.83596134185791
      ],
      [
        "تل",
        -8.83626937866211
      ],
      [
        "بحث",
        -8.83630657196045
      ],
      [
        "▁وإن",
        -8.836950302124023
      ],
      [
        "راح",
        -8.837028503417969
      ],
      [
        "▁re",
        -8.83897590637207
      ],
      [
        "نفس",
        -8.839014053344727
      ],
      [
        "فتح",
        -8.8391752243042
      ],
      [
        "▁بر",
        -8.839188575744629
      ],
      [
        "▁ليك",
        -8.840264320373535
      ],
      [
        "O",
        -8.840266227722168
      ],
      [
        "خي",
        -8.8404541015625
      ],
      [
        "قبل",
        -8.840497970581055
      ],
      [
        "سأل",
        -8.84052562713623
      ],
      [
        "▁رو",
        -8.840834617614746
      ],
      [
        "ظهر",
        -8.840862274169922
      ],
      [
        "▁راهو",
        -8.840947151184082
      ],
      [
        "شاهد",
        -8.84272289276123
      ],
      [
        "▁فيهم",
        -8.843123435974121
      ],
      [
        "▁نور",
        -8.843371391296387
      ],
      [
        "حقق",
        -8.84345531463623
      ],
      [
        "ثبت",
        -8.844036102294922
      ],
      [
        "▁ديري",
        -8.844426155090332
      ],
      [
        "\r",
        -8.84443473815918
      ],
      [
        "قام",
        -8.84487247467041
      ],
      [
        "▁اهلا",
        -8.846881866455078
      ],
      [
        "تين",
        -8.85023307800293
      ],
      [
        "وز",
        -8.851150512695312
      ],
      [
        "▁كلمة",
        -8.851175308227539
      ],
      [
        "▁قو",
        -8.852836608886719
      ],
      [
        "راد",
        -8.855194091796875
      ],
      [
        "▁F",
        -8.855324745178223
      ],
      [
        "▁الصح",
        -8.855806350708008
      ],
      [
        "▁مسلم",
        -8.855894088745117
      ],
      [
        "صف",
        -8.857451438903809
      ],
      [
        "سام",
        -8.857677459716797
      ],
      [
        "aw",
        -8.857684135437012
      ],
      [
        "فو",
        -8.858760833740234
      ],
      [
        "تلي",
        -8.859251976013184
      ],
      [
        "▁اللغة",
        -8.860466957092285
      ],
      [
        "▁الفاضل",
        -8.860623359680176
      ],
      [
        "سكر",
        -8.861052513122559
      ],
      [
        "سع",
        -8.861218452453613
      ],
      [
        "▁جبت",
        -8.861310005187988
      ],
      [
        "عيش",
        -8.861430168151855
      ],
      [
        "مع",
        -8.862499237060547
      ],
      [
        "▁قريت",
        -8.863300323486328
      ],
      [
        "▁دور",
        -8.863698959350586
      ],
      [
        "▁دروس",
        -8.863946914672852
      ],
      [
        "راجع",
        -8.863965034484863
      ],
      [
        "حو",
        -8.864846229553223
      ],
      [
        "خلي",
        -8.866121292114258
      ],
      [
        "كذب",
        -8.866822242736816
      ],
      [
        "سكن",
        -8.866825103759766
      ],
      [
        "▁منهم",
        -8.866848945617676
      ],
      [
        "عجب",
        -8.868083000183105
      ],
      [
        "▁ايه",
        -8.868789672851562
      ],
      [
        "▁مكانش",
        -8.869524002075195
      ],
      [
        "▁آخر",
        -8.869794845581055
      ],
      [
        "▁صوت",
        -8.871186256408691
      ],
      [
        "فيد",
        -8.871585845947266
      ],
      [
        "▁دائما",
        -8.87185287475586
      ],
      [
        "مام",
        -8.873595237731934
      ],
      [
        "قدم",
        -8.8737154006958
      ],
      [
        "رين",
        -8.874015808105469
      ],
      [
        "جمع",
        -8.874176979064941
      ],
      [
        "▁اهل",
        -8.87490177154541
      ],
      [
        "لل",
        -8.876373291015625
      ],
      [
        "hi",
        -8.876840591430664
      ],
      [
        "▁تعليق",
        -8.877574920654297
      ],
      [
        "▁ملي",
        -8.878211975097656
      ],
      [
        "بدل",
        -8.878442764282227
      ],
      [
        "sh",
        -8.878704071044922
      ],
      [
        "غا",
        -8.879785537719727
      ],
      [
        "▁18",
        -8.880212783813477
      ],
      [
        "▁‬",
        -8.881763458251953
      ],
      [
        "▁المت",
        -8.882124900817871
      ],
      [
        "نى",
        -8.882452011108398
      ],
      [
        "▁أس",
        -8.882598876953125
      ],
      [
        "▁اب",
        -8.882877349853516
      ],
      [
        "يط",
        -8.883246421813965
      ],
      [
        "▁حابة",
        -8.884215354919434
      ],
      [
        "✨",
        -8.884821891784668
      ],
      [
        "as",
        -8.885703086853027
      ],
      [
        "▁نق",
        -8.886739730834961
      ],
      [
        "▁يجب",
        -8.88724422454834
      ],
      [
        "حمد",
        -8.888433456420898
      ],
      [
        "مد",
        -8.888522148132324
      ],
      [
        "▁قريب",
        -8.888561248779297
      ],
      [
        "▁وانت",
        -8.89024543762207
      ],
      [
        "ونا",
        -8.890656471252441
      ],
      [
        "▁بح",
        -8.89082145690918
      ],
      [
        "تمنى",
        -8.891117095947266
      ],
      [
        "شارك",
        -8.891437530517578
      ],
      [
        "ولا",
        -8.892282485961914
      ],
      [
        "▁🤲🏻",
        -8.892430305480957
      ],
      [
        "▁المس",
        -8.893258094787598
      ],
      [
        "قعد",
        -8.894882202148438
      ],
      [
        "▁روحك",
        -8.895252227783203
      ],
      [
        "▁سيدنا",
        -8.89640998840332
      ],
      [
        "▁لب",
        -8.8964204788208
      ],
      [
        "حس",
        -8.896689414978027
      ],
      [
        "▁عمري",
        -8.897937774658203
      ],
      [
        "▁درس",
        -8.89908504486084
      ],
      [
        "se",
        -8.899531364440918
      ],
      [
        "us",
        -8.899798393249512
      ],
      [
        "▁C",
        -8.8999662399292
      ],
      [
        "ve",
        -8.901387214660645
      ],
      [
        "صاب",
        -8.901568412780762
      ],
      [
        "▁بكالوريا",
        -8.902913093566895
      ],
      [
        "رام",
        -8.904297828674316
      ],
      [
        "مكن",
        -8.904541969299316
      ],
      [
        "▁نتمنى",
        -8.906170845031738
      ],
      [
        "▁حفظ",
        -8.907431602478027
      ],
      [
        "▁جزائري",
        -8.907855033874512
      ],
      [
        "▁فوق",
        -8.909011840820312
      ],
      [
        "اري",
        -8.909704208374023
      ],
      [
        "▁حساب",
        -8.911174774169922
      ],
      [
        "ـ",
        -8.91208553314209
      ],
      [
        "▁بالنسبة",
        -8.912555694580078
      ],
      [
        "👏",
        -8.912751197814941
      ],
      [
        "رع",
        -8.913186073303223
      ],
      [
        "▁قناة",
        -8.913219451904297
      ],
      [
        "!!",
        -8.91379165649414
      ],
      [
        "▁شباب",
        -8.91443920135498
      ],
      [
        "▁الاست",
        -8.914896965026855
      ],
      [
        "بعث",
        -8.9151611328125
      ],
      [
        "خلص",
        -8.916213989257812
      ],
      [
        "▁mo",
        -8.916755676269531
      ],
      [
        "زال",
        -8.91690444946289
      ],
      [
        "كره",
        -8.918899536132812
      ],
      [
        "▁ولله",
        -8.919169425964355
      ],
      [
        "▁إنا",
        -8.919498443603516
      ],
      [
        "ol",
        -8.920933723449707
      ],
      [
        "سة",
        -8.920967102050781
      ],
      [
        "▁مست",
        -8.921513557434082
      ],
      [
        "▁انسان",
        -8.92156982421875
      ],
      [
        "غفر",
        -8.921757698059082
      ],
      [
        "راب",
        -8.922687530517578
      ],
      [
        "▁حسن",
        -8.922739028930664
      ],
      [
        "▁لول",
        -8.922890663146973
      ],
      [
        "▁رائع",
        -8.92365550994873
      ],
      [
        "▁المشكل",
        -8.923678398132324
      ],
      [
        "20",
        -8.923874855041504
      ],
      [
        "ثق",
        -8.924179077148438
      ],
      [
        "▁يس",
        -8.925300598144531
      ],
      [
        "وهم",
        -8.926077842712402
      ],
      [
        "دع",
        -8.926153182983398
      ],
      [
        "بيع",
        -8.926755905151367
      ],
      [
        "▁العمل",
        -8.926875114440918
      ],
      [
        "▁ولاية",
        -8.927124977111816
      ],
      [
        "▁be",
        -8.92763614654541
      ],
      [
        "عرض",
        -8.928351402282715
      ],
      [
        "حتاج",
        -8.928938865661621
      ],
      [
        "خبر",
        -8.929269790649414
      ],
      [
        "▁رحم",
        -8.929390907287598
      ],
      [
        "حن",
        -8.929941177368164
      ],
      [
        "▁تدي",
        -8.931814193725586
      ],
      [
        "كثر",
        -8.932577133178711
      ],
      [
        "M",
        -8.93320369720459
      ],
      [
        "صبح",
        -8.934797286987305
      ],
      [
        "▁طا",
        -8.935286521911621
      ],
      [
        "▁الذين",
        -8.93539047241211
      ],
      [
        "تفرج",
        -8.935896873474121
      ],
      [
        "em",
        -8.935922622680664
      ],
      [
        "▁12",
        -8.936653137207031
      ],
      [
        "▁جات",
        -8.939620018005371
      ],
      [
        "باب",
        -8.939674377441406
      ],
      [
        "▁ماما",
        -8.939813613891602
      ],
      [
        "▁تجيب",
        -8.940640449523926
      ],
      [
        "ربع",
        -8.94118881225586
      ],
      [
        "▁قا",
        -8.94124698638916
      ],
      [
        "قال",
        -8.941568374633789
      ],
      [
        "▁هوما",
        -8.942947387695312
      ],
      [
        "▁تعلم",
        -8.94297981262207
      ],
      [
        "▁أما",
        -8.943258285522461
      ],
      [
        "غي",
        -8.943550109863281
      ],
      [
        "▁صرا",
        -8.943577766418457
      ],
      [
        "▁تعيش",
        -8.943622589111328
      ],
      [
        "▁معايا",
        -8.943974494934082
      ],
      [
        "▁معا",
        -8.944082260131836
      ],
      [
        "▁وهذا",
        -8.944332122802734
      ],
      [
        "▁H",
        -8.944628715515137
      ],
      [
        "عند",
        -8.945329666137695
      ],
      [
        "تع",
        -8.945416450500488
      ],
      [
        "▁0",
        -8.945832252502441
      ],
      [
        "▁ana",
        -8.94594955444336
      ],
      [
        "▁جعل",
        -8.946166038513184
      ],
      [
        "🥰",
        -8.946731567382812
      ],
      [
        "▁أهلا",
        -8.94929027557373
      ],
      [
        "دام",
        -8.949338912963867
      ],
      [
        "▁مور",
        -8.949844360351562
      ],
      [
        "▁مرت",
        -8.949942588806152
      ],
      [
        "زوج",
        -8.950465202331543
      ],
      [
        "ائم",
        -8.950902938842773
      ],
      [
        "▁انو",
        -8.951144218444824
      ],
      [
        "▁جو",
        -8.952375411987305
      ],
      [
        "▁ياخو",
        -8.952589988708496
      ],
      [
        "▁والد",
        -8.953484535217285
      ],
      [
        "خدم",
        -8.955358505249023
      ],
      [
        "to",
        -8.956101417541504
      ],
      [
        "▁ماذا",
        -8.956273078918457
      ],
      [
        "▁i",
        -8.95643424987793
      ],
      [
        "ضع",
        -8.9583101272583
      ],
      [
        "مات",
        -8.958782196044922
      ],
      [
        "عرب",
        -8.95919132232666
      ],
      [
        "صلح",
        -8.959725379943848
      ],
      [
        "▁راجل",
        -8.960905075073242
      ],
      [
        "▁هذو",
        -8.960946083068848
      ],
      [
        "▁الحكاية",
        -8.961109161376953
      ],
      [
        "لكم",
        -8.961261749267578
      ],
      [
        "علي",
        -8.961472511291504
      ],
      [
        "😢😢",
        -8.962929725646973
      ],
      [
        "دعم",
        -8.964083671569824
      ],
      [
        "▁واصل",
        -8.964385032653809
      ],
      [
        "ديد",
        -8.964953422546387
      ],
      [
        "تكم",
        -8.966472625732422
      ],
      [
        "جه",
        -8.966804504394531
      ],
      [
        "دى",
        -8.967103004455566
      ],
      [
        "▁الدار",
        -8.96911334991455
      ],
      [
        "رفع",
        -8.969322204589844
      ],
      [
        "▁طلب",
        -8.970114707946777
      ],
      [
        "▁الرحمن",
        -8.970563888549805
      ],
      [
        "كور",
        -8.971430778503418
      ],
      [
        "سلام",
        -8.971545219421387
      ],
      [
        "ريح",
        -8.97203540802002
      ],
      [
        "▁نوع",
        -8.972527503967285
      ],
      [
        "▁وبارك",
        -8.972537994384766
      ],
      [
        "👍",
        -8.972555160522461
      ],
      [
        "راق",
        -8.972724914550781
      ],
      [
        "يدة",
        -8.973210334777832
      ],
      [
        "تكلم",
        -8.973326683044434
      ],
      [
        "قع",
        -8.973398208618164
      ],
      [
        "عمل",
        -8.974140167236328
      ],
      [
        "▁ساعة",
        -8.974443435668945
      ],
      [
        "نو",
        -8.975821495056152
      ],
      [
        "وط",
        -8.977298736572266
      ],
      [
        "▁الإسلام",
        -8.978055000305176
      ],
      [
        "▁دون",
        -8.978236198425293
      ],
      [
        "▁عندما",
        -8.979023933410645
      ],
      [
        "▁ينجح",
        -8.981337547302246
      ],
      [
        "فات",
        -8.982418060302734
      ],
      [
        "💗",
        -8.982695579528809
      ],
      [
        "▁=",
        -8.98326587677002
      ],
      [
        "ركز",
        -8.983287811279297
      ],
      [
        "▁8",
        -8.984358787536621
      ],
      [
        "▁كم",
        -8.984530448913574
      ],
      [
        "▁هادا",
        -8.984859466552734
      ],
      [
        "ترك",
        -8.985291481018066
      ],
      [
        "▁هاذا",
        -8.986448287963867
      ],
      [
        "علا",
        -8.986477851867676
      ],
      [
        "▁sa",
        -8.986517906188965
      ],
      [
        "▁وليت",
        -8.986783981323242
      ],
      [
        "▁تجي",
        -8.987202644348145
      ],
      [
        "▁رضي",
        -8.987278938293457
      ],
      [
        "▁هم",
        -8.987408638000488
      ],
      [
        "▁خلق",
        -8.987667083740234
      ],
      [
        "▁ليوم",
        -8.98865032196045
      ],
      [
        "▁شوي",
        -8.989609718322754
      ],
      [
        "▁جميل",
        -8.990330696105957
      ],
      [
        "▁طيبة",
        -8.990372657775879
      ],
      [
        "▁بسم",
        -8.990625381469727
      ],
      [
        "▁اتمنى",
        -8.990944862365723
      ],
      [
        "▁المع",
        -8.991257667541504
      ],
      [
        "▁تف",
        -8.991539001464844
      ],
      [
        "▁كن",
        -8.992053985595703
      ],
      [
        "▁وكان",
        -8.992115020751953
      ],
      [
        "▁الاستاذ",
        -8.993159294128418
      ],
      [
        "بدا",
        -8.99478530883789
      ],
      [
        "▁تص",
        -8.995055198669434
      ],
      [
        "▁سم",
        -8.995601654052734
      ],
      [
        "بات",
        -8.99612808227539
      ],
      [
        "▁مليون",
        -8.996331214904785
      ],
      [
        "▁ba",
        -8.997312545776367
      ],
      [
        "حفض",
        -8.99832820892334
      ],
      [
        "▁فقد",
        -8.999241828918457
      ],
      [
        "ho",
        -8.99993896484375
      ],
      [
        "لحق",
        -9.00011157989502
      ],
      [
        "لام",
        -9.000157356262207
      ],
      [
        "فوت",
        -9.000876426696777
      ],
      [
        "▁P",
        -9.001493453979492
      ],
      [
        "جامع",
        -9.001559257507324
      ],
      [
        "S",
        -9.002267837524414
      ],
      [
        "▁جديدة",
        -9.00285816192627
      ],
      [
        "🤍",
        -9.003244400024414
      ],
      [
        "شعر",
        -9.004911422729492
      ],
      [
        "▁تاريخ",
        -9.004961013793945
      ],
      [
        "▁نش",
        -9.005019187927246
      ],
      [
        "عر",
        -9.005668640136719
      ],
      [
        "▁تب",
        -9.005732536315918
      ],
      [
        "▁😭😭",
        -9.007174491882324
      ],
      [
        "▁te",
        -9.00775146484375
      ],
      [
        "صا",
        -9.010529518127441
      ],
      [
        "▁عندها",
        -9.010551452636719
      ],
      [
        "▁فهم",
        -9.010726928710938
      ],
      [
        "رجع",
        -9.010760307312012
      ],
      [
        "▁لهم",
        -9.011099815368652
      ],
      [
        "L",
        -9.012195587158203
      ],
      [
        "خلع",
        -9.013103485107422
      ],
      [
        "سى",
        -9.013352394104004
      ],
      [
        "▁الليل",
        -9.014036178588867
      ],
      [
        "حم",
        -9.014039993286133
      ],
      [
        "▁شوية",
        -9.01551342010498
      ],
      [
        "▁وقال",
        -9.015990257263184
      ],
      [
        "▁شاف",
        -9.016019821166992
      ],
      [
        "▁تقدر",
        -9.01801872253418
      ],
      [
        "قب",
        -9.018489837646484
      ],
      [
        "▁بقا",
        -9.020432472229004
      ],
      [
        "▁!!",
        -9.020708084106445
      ],
      [
        "est",
        -9.020813941955566
      ],
      [
        "حط",
        -9.02138614654541
      ],
      [
        "▁ري",
        -9.022443771362305
      ],
      [
        "▁تحيا",
        -9.023271560668945
      ],
      [
        "▁يع",
        -9.023317337036133
      ],
      [
        "▁الرعب",
        -9.023422241210938
      ],
      [
        "▁cha",
        -9.023628234863281
      ],
      [
        "شرح",
        -9.023686408996582
      ],
      [
        "▁بخير",
        -9.024651527404785
      ],
      [
        "▁حكم",
        -9.02491283416748
      ],
      [
        "▁كاش",
        -9.02503776550293
      ],
      [
        "▁والأ",
        -9.02536678314209
      ],
      [
        "سير",
        -9.025792121887207
      ],
      [
        "▁أول",
        -9.026972770690918
      ],
      [
        "عمر",
        -9.027261734008789
      ],
      [
        "▁خوف",
        -9.028078079223633
      ],
      [
        "▁انه",
        -9.028475761413574
      ],
      [
        "▁خلاص",
        -9.0291748046875
      ],
      [
        "شوف",
        -9.03072452545166
      ],
      [
        "است",
        -9.030840873718262
      ],
      [
        "▁شابة",
        -9.03138542175293
      ],
      [
        "الة",
        -9.032068252563477
      ],
      [
        "قتل",
        -9.032190322875977
      ],
      [
        "كش",
        -9.032783508300781
      ],
      [
        "▁فت",
        -9.033659934997559
      ],
      [
        "▁الشر",
        -9.034483909606934
      ],
      [
        "كرم",
        -9.03477954864502
      ],
      [
        "رسل",
        -9.035249710083008
      ],
      [
        "حة",
        -9.03538990020752
      ],
      [
        "خذ",
        -9.03637981414795
      ],
      [
        "▁نروح",
        -9.038397789001465
      ],
      [
        "▁dir",
        -9.038764953613281
      ],
      [
        "▁وليس",
        -9.039450645446777
      ],
      [
        "▁وإ",
        -9.03978157043457
      ],
      [
        "▁شاءلله",
        -9.042234420776367
      ],
      [
        "شبه",
        -9.042389869689941
      ],
      [
        "▁شوف",
        -9.043567657470703
      ],
      [
        "▁الأم",
        -9.045025825500488
      ],
      [
        "▁الطب",
        -9.045575141906738
      ],
      [
        "يمة",
        -9.04570198059082
      ],
      [
        "قرأ",
        -9.04586124420166
      ],
      [
        "▁خرج",
        -9.04648494720459
      ],
      [
        "▁حيث",
        -9.04662799835205
      ],
      [
        "▁بد",
        -9.04708480834961
      ],
      [
        "▁حتا",
        -9.047605514526367
      ],
      [
        "▁نفهم",
        -9.047735214233398
      ],
      [
        "mi",
        -9.047794342041016
      ],
      [
        "▁مواضيع",
        -9.047929763793945
      ],
      [
        "▁me",
        -9.048017501831055
      ],
      [
        "▁‏",
        -9.048094749450684
      ],
      [
        "▁غريب",
        -9.048368453979492
      ],
      [
        "▁معانا",
        -9.04869556427002
      ],
      [
        "▁تهدر",
        -9.050641059875488
      ],
      [
        "وري",
        -9.050661087036133
      ],
      [
        "رقد",
        -9.050971984863281
      ],
      [
        "▁فرحة",
        -9.052491188049316
      ],
      [
        "▁السنة",
        -9.052851676940918
      ],
      [
        "▁مقترحات",
        -9.053349494934082
      ],
      [
        "▁شعب",
        -9.054292678833008
      ],
      [
        "صب",
        -9.054549217224121
      ],
      [
        "▁فلسطين",
        -9.05601978302002
      ],
      [
        "▁فيديوهات",
        -9.056201934814453
      ],
      [
        "طول",
        -9.056761741638184
      ],
      [
        "▁سيد",
        -9.056891441345215
      ],
      [
        "▁بدون",
        -9.057045936584473
      ],
      [
        "▁نورمال",
        -9.057686805725098
      ],
      [
        "▁كنا",
        -9.058134078979492
      ],
      [
        "▁خاطر",
        -9.058745384216309
      ],
      [
        "ليل",
        -9.058905601501465
      ],
      [
        "▁بأن",
        -9.058971405029297
      ],
      [
        "دري",
        -9.059209823608398
      ],
      [
        "لقيت",
        -9.059467315673828
      ],
      [
        "طلع",
        -9.060064315795898
      ],
      [
        "▁لايك",
        -9.060164451599121
      ],
      [
        "▁حسب",
        -9.060650825500488
      ],
      [
        "▁صدق",
        -9.062750816345215
      ],
      [
        "جوز",
        -9.064644813537598
      ],
      [
        "▁ديت",
        -9.065550804138184
      ],
      [
        "▁أمر",
        -9.066828727722168
      ],
      [
        "▁يجيب",
        -9.066841125488281
      ],
      [
        "▁ساهل",
        -9.067340850830078
      ],
      [
        "▁تعب",
        -9.067383766174316
      ],
      [
        "▁K",
        -9.067575454711914
      ],
      [
        "▁الض",
        -9.06826400756836
      ],
      [
        "▁😍",
        -9.0689697265625
      ],
      [
        "▁البر",
        -9.069099426269531
      ],
      [
        "حش",
        -9.069435119628906
      ],
      [
        "كبر",
        -9.069502830505371
      ],
      [
        "▁14",
        -9.06981086730957
      ],
      [
        "▁انك",
        -9.070342063903809
      ],
      [
        "▁مه",
        -9.071769714355469
      ],
      [
        "▁وعليكم",
        -9.072168350219727
      ],
      [
        "🎉",
        -9.073019027709961
      ],
      [
        "▁قليل",
        -9.073423385620117
      ],
      [
        "تزوج",
        -9.07356071472168
      ],
      [
        "قاد",
        -9.074435234069824
      ],
      [
        "▁تر",
        -9.075124740600586
      ],
      [
        "وفي",
        -9.075274467468262
      ],
      [
        "رزق",
        -9.07593059539795
      ],
      [
        "قرا",
        -9.076835632324219
      ],
      [
        "طلق",
        -9.077153205871582
      ],
      [
        "راس",
        -9.077356338500977
      ],
      [
        "مير",
        -9.077744483947754
      ],
      [
        "▁نفسي",
        -9.078448295593262
      ],
      [
        "سان",
        -9.079429626464844
      ],
      [
        "▁وأن",
        -9.079838752746582
      ],
      [
        "يوم",
        -9.080192565917969
      ],
      [
        "ik",
        -9.080222129821777
      ],
      [
        "▁خوتي",
        -9.08057975769043
      ],
      [
        "▁اك",
        -9.081137657165527
      ],
      [
        "▁محل",
        -9.081856727600098
      ],
      [
        "ساعد",
        -9.082025527954102
      ],
      [
        "▁ديرو",
        -9.082079887390137
      ],
      [
        "▁مشاء",
        -9.082783699035645
      ],
      [
        "والد",
        -9.082793235778809
      ],
      [
        "▁ايا",
        -9.082895278930664
      ],
      [
        "▁بت",
        -9.083253860473633
      ],
      [
        "▁سأ",
        -9.084620475769043
      ],
      [
        "▁هكذا",
        -9.085548400878906
      ],
      [
        "أس",
        -9.08591079711914
      ],
      [
        "انية",
        -9.086270332336426
      ],
      [
        "درس",
        -9.086304664611816
      ],
      [
        "▁💔",
        -9.086546897888184
      ],
      [
        "▁تقرا",
        -9.086581230163574
      ],
      [
        "صور",
        -9.086877822875977
      ],
      [
        "▁بدا",
        -9.086934089660645
      ],
      [
        "▁نع",
        -9.087626457214355
      ],
      [
        "جاوب",
        -9.087726593017578
      ],
      [
        "▁شكراا",
        -9.08809757232666
      ],
      [
        "▁الأخ",
        -9.088624000549316
      ],
      [
        "ذن",
        -9.090667724609375
      ],
      [
        "هدر",
        -9.09122371673584
      ],
      [
        "▁ممتاز",
        -9.091483116149902
      ],
      [
        "▁كبيرة",
        -9.092391014099121
      ],
      [
        "▁رجل",
        -9.093097686767578
      ],
      [
        "▁bac",
        -9.0935697555542
      ],
      [
        "▁هاك",
        -9.093982696533203
      ],
      [
        "▁عز",
        -9.095237731933594
      ],
      [
        "جميع",
        -9.095749855041504
      ],
      [
        "تبع",
        -9.096185684204102
      ],
      [
        "▁شكر",
        -9.098286628723145
      ],
      [
        "▁يقدر",
        -9.098685264587402
      ],
      [
        "▁🤍",
        -9.099441528320312
      ],
      [
        "▁يدي",
        -9.099721908569336
      ],
      [
        "ؤمن",
        -9.101046562194824
      ],
      [
        "همش",
        -9.101554870605469
      ],
      [
        "▁ادعو",
        -9.101825714111328
      ],
      [
        "يتك",
        -9.101882934570312
      ],
      [
        "▁لقد",
        -9.103063583374023
      ],
      [
        "قري",
        -9.103543281555176
      ],
      [
        "حاول",
        -9.105000495910645
      ],
      [
        "▁نبدا",
        -9.105104446411133
      ],
      [
        "▁مازال",
        -9.106508255004883
      ],
      [
        "عطي",
        -9.10777759552002
      ],
      [
        "▁الاسلام",
        -9.107832908630371
      ],
      [
        "يني",
        -9.107946395874023
      ],
      [
        "▁نفرح",
        -9.108122825622559
      ],
      [
        "حص",
        -9.108504295349121
      ],
      [
        "▁حكا",
        -9.108616828918457
      ],
      [
        "▁كلام",
        -9.108689308166504
      ],
      [
        "▁نجيبو",
        -9.108925819396973
      ],
      [
        "»",
        -9.109774589538574
      ],
      [
        "زم",
        -9.109774589538574
      ],
      [
        "▁صالح",
        -9.112580299377441
      ],
      [
        "▁راكم",
        -9.112873077392578
      ],
      [
        "▁سورة",
        -9.113131523132324
      ],
      [
        "خا",
        -9.113248825073242
      ],
      [
        "خاف",
        -9.1151704788208
      ],
      [
        "▁نب",
        -9.115194320678711
      ],
      [
        "شهد",
        -9.115747451782227
      ],
      [
        "our",
        -9.115767478942871
      ],
      [
        "▁تخ",
        -9.115853309631348
      ],
      [
        "▁زعما",
        -9.115896224975586
      ],
      [
        "مين",
        -9.11756420135498
      ],
      [
        "▁خا",
        -9.11764907836914
      ],
      [
        "▁النص",
        -9.117664337158203
      ],
      [
        "▁يحفظ",
        -9.117684364318848
      ],
      [
        "nt",
        -9.117857933044434
      ],
      [
        "▁الجزء",
        -9.117886543273926
      ],
      [
        "شاء",
        -9.117959976196289
      ],
      [
        "▁دخلت",
        -9.118432998657227
      ],
      [
        "▁وجزاك",
        -9.119478225708008
      ],
      [
        "ادي",
        -9.119492530822754
      ],
      [
        "تواصل",
        -9.119564056396484
      ],
      [
        "▁عجبتني",
        -9.12250804901123
      ],
      [
        "وجه",
        -9.124151229858398
      ],
      [
        "▁الادب",
        -9.124271392822266
      ],
      [
        "▁راس",
        -9.124298095703125
      ],
      [
        "فيديو",
        -9.124954223632812
      ],
      [
        "▁أبي",
        -9.126053810119629
      ],
      [
        "نق",
        -9.127786636352539
      ],
      [
        "رم",
        -9.130250930786133
      ],
      [
        "غني",
        -9.13074779510498
      ],
      [
        "▁عودة",
        -9.130854606628418
      ],
      [
        "وار",
        -9.133430480957031
      ],
      [
        "▁معنا",
        -9.133735656738281
      ],
      [
        "▁video",
        -9.133804321289062
      ],
      [
        "جزاء",
        -9.13427448272705
      ],
      [
        "▁خر",
        -9.13516902923584
      ],
      [
        "za",
        -9.135330200195312
      ],
      [
        "▁أع",
        -9.137124061584473
      ],
      [
        "▁جميعا",
        -9.137300491333008
      ],
      [
        "▁أحب",
        -9.138742446899414
      ],
      [
        "▁وحدي",
        -9.138999938964844
      ],
      [
        "بك",
        -9.139293670654297
      ],
      [
        "ارات",
        -9.139583587646484
      ],
      [
        "ضاء",
        -9.139777183532715
      ],
      [
        "▁مخ",
        -9.140042304992676
      ],
      [
        "مون",
        -9.140049934387207
      ],
      [
        "▁طول",
        -9.14055061340332
      ],
      [
        "▁هيا",
        -9.142128944396973
      ],
      [
        "▁مثلا",
        -9.14293098449707
      ],
      [
        "▁سلم",
        -9.143117904663086
      ],
      [
        "▁الوكيل",
        -9.143482208251953
      ],
      [
        "▁قرا",
        -9.144350051879883
      ],
      [
        "op",
        -9.145088195800781
      ],
      [
        "صول",
        -9.145092964172363
      ],
      [
        "▁فيكم",
        -9.146238327026367
      ],
      [
        "▁جاي",
        -9.147111892700195
      ],
      [
        "▁الكثير",
        -9.1482572555542
      ],
      [
        "▁ترك",
        -9.148388862609863
      ],
      [
        "▁أبو",
        -9.148893356323242
      ],
      [
        "▁الث",
        -9.149596214294434
      ],
      [
        "▁هادو",
        -9.14967155456543
      ],
      [
        "▁القمة",
        -9.15062427520752
      ],
      [
        "سمع",
        -9.15097427368164
      ],
      [
        "▁القلب",
        -9.151175498962402
      ],
      [
        "nd",
        -9.151215553283691
      ],
      [
        "▁قص",
        -9.151374816894531
      ],
      [
        "اوي",
        -9.151520729064941
      ],
      [
        "H",
        -9.15178394317627
      ],
      [
        "▁وقد",
        -9.152412414550781
      ],
      [
        "vi",
        -9.153416633605957
      ],
      [
        "▁البي",
        -9.153464317321777
      ],
      [
        "▁بركاته",
        -9.157465934753418
      ],
      [
        "وقف",
        -9.157489776611328
      ],
      [
        "▁عندنا",
        -9.157843589782715
      ],
      [
        "▁🎉",
        -9.158135414123535
      ],
      [
        "▁kh",
        -9.15825366973877
      ],
      [
        "▁نلقا",
        -9.1598539352417
      ],
      [
        "▁we",
        -9.160440444946289
      ],
      [
        "حسب",
        -9.161154747009277
      ],
      [
        "▁هد",
        -9.162077903747559
      ],
      [
        "▁en",
        -9.162240982055664
      ],
      [
        "ميل",
        -9.163498878479004
      ],
      [
        "▁الشخص",
        -9.163734436035156
      ],
      [
        "▁يخرج",
        -9.163825988769531
      ],
      [
        "▁تحط",
        -9.16401195526123
      ],
      [
        "▁تبع",
        -9.164207458496094
      ],
      [
        "يلنا",
        -9.164301872253418
      ],
      [
        "؛",
        -9.165183067321777
      ],
      [
        "▁مبارك",
        -9.166217803955078
      ],
      [
        "▁السل",
        -9.16848373413086
      ],
      [
        "▁القر",
        -9.168998718261719
      ],
      [
        "غل",
        -9.169344902038574
      ],
      [
        "لقا",
        -9.1696138381958
      ],
      [
        "▁نسيت",
        -9.170011520385742
      ],
      [
        "ضرب",
        -9.17093276977539
      ],
      [
        "طرح",
        -9.170987129211426
      ],
      [
        "▁يست",
        -9.171537399291992
      ],
      [
        "زة",
        -9.172077178955078
      ],
      [
        "▁الخط",
        -9.1731538772583
      ],
      [
        "راف",
        -9.174452781677246
      ],
      [
        "▁التعليق",
        -9.175006866455078
      ],
      [
        "نفع",
        -9.175856590270996
      ],
      [
        "af",
        -9.176152229309082
      ],
      [
        "ine",
        -9.176295280456543
      ],
      [
        "▁عدد",
        -9.176721572875977
      ],
      [
        "▁مقال",
        -9.177607536315918
      ],
      [
        "▁ابوني",
        -9.177689552307129
      ],
      [
        "▁والديك",
        -9.17803955078125
      ],
      [
        "رار",
        -9.178266525268555
      ],
      [
        "دفع",
        -9.178544998168945
      ],
      [
        "▁تحية",
        -9.180462837219238
      ],
      [
        "ka",
        -9.18210220336914
      ],
      [
        "رقي",
        -9.182522773742676
      ],
      [
        "نب",
        -9.18256664276123
      ],
      [
        "▁عين",
        -9.183052062988281
      ],
      [
        "▁ث",
        -9.18358325958252
      ],
      [
        "وح",
        -9.183588981628418
      ],
      [
        "زو",
        -9.183690071105957
      ],
      [
        "▁مكاش",
        -9.184243202209473
      ],
      [
        "ut",
        -9.185492515563965
      ],
      [
        "▁يدخل",
        -9.186291694641113
      ],
      [
        "▁ثلاث",
        -9.187166213989258
      ],
      [
        "▁مريض",
        -9.188776969909668
      ],
      [
        "اغ",
        -9.188793182373047
      ],
      [
        "باس",
        -9.189290046691895
      ],
      [
        "▁الرد",
        -9.191163063049316
      ],
      [
        "▁سب",
        -9.191301345825195
      ],
      [
        "▁ولاد",
        -9.191357612609863
      ],
      [
        "اقة",
        -9.191414833068848
      ],
      [
        "▁الاخت",
        -9.193324089050293
      ],
      [
        "▁عالم",
        -9.193531036376953
      ],
      [
        "داء",
        -9.193937301635742
      ],
      [
        "راض",
        -9.194262504577637
      ],
      [
        "قم",
        -9.194716453552246
      ],
      [
        "مشي",
        -9.195647239685059
      ],
      [
        "▁40",
        -9.196004867553711
      ],
      [
        "فصل",
        -9.196270942687988
      ],
      [
        "وجد",
        -9.196318626403809
      ],
      [
        "▁so",
        -9.19633674621582
      ],
      [
        "▁حياتك",
        -9.196746826171875
      ],
      [
        "خلط",
        -9.197944641113281
      ],
      [
        "دب",
        -9.198147773742676
      ],
      [
        "▁اخو",
        -9.198603630065918
      ],
      [
        "▁نموت",
        -9.199222564697266
      ],
      [
        "▁الجلفة",
        -9.19957160949707
      ],
      [
        "▁رائعة",
        -9.199651718139648
      ],
      [
        "▁أخرى",
        -9.200060844421387
      ],
      [
        "▁✨",
        -9.200493812561035
      ],
      [
        "ولنا",
        -9.201019287109375
      ],
      [
        "رضى",
        -9.201520919799805
      ],
      [
        "ولو",
        -9.203518867492676
      ],
      [
        "▁نكون",
        -9.203557968139648
      ],
      [
        "▁المغرب",
        -9.203652381896973
      ],
      [
        "’",
        -9.203756332397461
      ],
      [
        "▁الجزائري",
        -9.205059051513672
      ],
      [
        "▁تعيشي",
        -9.205126762390137
      ],
      [
        "ضا",
        -9.205135345458984
      ],
      [
        "▁عاد",
        -9.205595016479492
      ],
      [
        "▁ينجحك",
        -9.206596374511719
      ],
      [
        "شار",
        -9.206741333007812
      ],
      [
        "دور",
        -9.206807136535645
      ],
      [
        "▁الثالث",
        -9.20718765258789
      ],
      [
        "▁يرحمها",
        -9.20779037475586
      ],
      [
        "عيد",
        -9.208110809326172
      ],
      [
        "سف",
        -9.208758354187012
      ],
      [
        "▁يخليك",
        -9.209137916564941
      ],
      [
        "▁السي",
        -9.209452629089355
      ],
      [
        "▁العربي",
        -9.210041999816895
      ],
      [
        "▁لعزيز",
        -9.210100173950195
      ],
      [
        "▁حرام",
        -9.21020221710205
      ],
      [
        "ربح",
        -9.210704803466797
      ],
      [
        "▁مز",
        -9.211301803588867
      ],
      [
        "ja",
        -9.211443901062012
      ],
      [
        "10",
        -9.211623191833496
      ],
      [
        "▁قاعد",
        -9.212799072265625
      ],
      [
        "▁اجعل",
        -9.213029861450195
      ],
      [
        "تعب",
        -9.213791847229004
      ],
      [
        "gh",
        -9.213940620422363
      ],
      [
        "▁O",
        -9.214094161987305
      ],
      [
        "▁ننجحو",
        -9.214377403259277
      ],
      [
        "خلاص",
        -9.214890480041504
      ],
      [
        "▁هايل",
        -9.21539306640625
      ],
      [
        "▁نسقسيك",
        -9.2156343460083
      ],
      [
        "صار",
        -9.215814590454102
      ],
      [
        "▁ثق",
        -9.215882301330566
      ],
      [
        "▁غالط",
        -9.216540336608887
      ],
      [
        "صيل",
        -9.217148780822754
      ],
      [
        "لاق",
        -9.21727180480957
      ],
      [
        "▁بلييز",
        -9.21750259399414
      ],
      [
        "?",
        -9.217689514160156
      ],
      [
        "خلو",
        -9.217859268188477
      ],
      [
        "▁🇩🇿",
        -9.218155860900879
      ],
      [
        "R",
        -9.21828556060791
      ],
      [
        "▁100",
        -9.218438148498535
      ],
      [
        "بارك",
        -9.218875885009766
      ],
      [
        "▁حم",
        -9.21894645690918
      ],
      [
        "▁تاعي",
        -9.219779968261719
      ],
      [
        "▁قسم",
        -9.220043182373047
      ],
      [
        "▁ايام",
        -9.220623016357422
      ],
      [
        "طريق",
        -9.221332550048828
      ],
      [
        "▁يخ",
        -9.221349716186523
      ],
      [
        "▁R",
        -9.22170352935791
      ],
      [
        "▁الحديث",
        -9.221749305725098
      ],
      [
        "▁هاذو",
        -9.221879959106445
      ],
      [
        "▁بعيد",
        -9.22353744506836
      ],
      [
        "ظلم",
        -9.223730087280273
      ],
      [
        "▁مستجابة",
        -9.22508430480957
      ],
      [
        "▁الحال",
        -9.22558879852295
      ],
      [
        "؟!",
        -9.225607872009277
      ],
      [
        "kom",
        -9.226262092590332
      ],
      [
        "▁ألف",
        -9.22629165649414
      ],
      [
        "تعلم",
        -9.2269926071167
      ],
      [
        "▁تخوف",
        -9.227103233337402
      ],
      [
        "▁يهدر",
        -9.227288246154785
      ],
      [
        "▁لمن",
        -9.227838516235352
      ],
      [
        "شهر",
        -9.228227615356445
      ],
      [
        "رحب",
        -9.22847843170166
      ],
      [
        "حقيق",
        -9.228494644165039
      ],
      [
        "▁كتب",
        -9.228911399841309
      ],
      [
        "▁جر",
        -9.229870796203613
      ],
      [
        "🖤",
        -9.230721473693848
      ],
      [
        "طع",
        -9.231172561645508
      ],
      [
        "▁فرح",
        -9.23130989074707
      ],
      [
        "💕",
        -9.231537818908691
      ],
      [
        "▁G",
        -9.231712341308594
      ],
      [
        "▁الأول",
        -9.232138633728027
      ],
      [
        "بدأ",
        -9.233110427856445
      ],
      [
        "ach",
        -9.233175277709961
      ],
      [
        "نتظر",
        -9.234238624572754
      ],
      [
        "▁سبب",
        -9.23523235321045
      ],
      [
        "قيم",
        -9.237092971801758
      ],
      [
        "▁عاود",
        -9.238415718078613
      ],
      [
        "صدر",
        -9.239192008972168
      ],
      [
        "▁ڨاع",
        -9.239299774169922
      ],
      [
        "▁je",
        -9.239397048950195
      ],
      [
        "▁يرزقك",
        -9.23961353302002
      ],
      [
        "▁#",
        -9.23984146118164
      ],
      [
        "▁خاص",
        -9.24040412902832
      ],
      [
        "▁اخرى",
        -9.241994857788086
      ],
      [
        "▁سو",
        -9.243241310119629
      ],
      [
        "▁مليحة",
        -9.243640899658203
      ],
      [
        "lna",
        -9.243834495544434
      ],
      [
        "▁أمين",
        -9.244175910949707
      ],
      [
        "▁هذاك",
        -9.245194435119629
      ],
      [
        "▁?",
        -9.245450973510742
      ],
      [
        "عط",
        -9.24553108215332
      ],
      [
        "▁وكي",
        -9.245646476745605
      ],
      [
        "😍",
        -9.246305465698242
      ],
      [
        "oo",
        -9.24669075012207
      ],
      [
        "▁بص",
        -9.247251510620117
      ],
      [
        "▁صغير",
        -9.247665405273438
      ],
      [
        "قديم",
        -9.249166488647461
      ],
      [
        "▁ga",
        -9.249691009521484
      ],
      [
        "▁خلا",
        -9.25102710723877
      ],
      [
        "▁سعيد",
        -9.251389503479004
      ],
      [
        "▁قادر",
        -9.2514009475708
      ],
      [
        "▁E",
        -9.251435279846191
      ],
      [
        "ونس",
        -9.251565933227539
      ],
      [
        "▁r",
        -9.251643180847168
      ],
      [
        "يفة",
        -9.252035140991211
      ],
      [
        "تس",
        -9.253097534179688
      ],
      [
        "▁متابع",
        -9.2532377243042
      ],
      [
        "بقا",
        -9.253874778747559
      ],
      [
        "▁ونعم",
        -9.254161834716797
      ],
      [
        "▁قالت",
        -9.254256248474121
      ],
      [
        "رات",
        -9.254901885986328
      ],
      [
        "▁جامي",
        -9.255309104919434
      ],
      [
        "▁🥰",
        -9.2560453414917
      ],
      [
        "lah",
        -9.257548332214355
      ],
      [
        "▁اريد",
        -9.257791519165039
      ],
      [
        "hom",
        -9.257976531982422
      ],
      [
        "فس",
        -9.258044242858887
      ],
      [
        "▁داخل",
        -9.258196830749512
      ],
      [
        "▁❤️❤️",
        -9.258500099182129
      ],
      [
        "نع",
        -9.259084701538086
      ],
      [
        "▁الوطن",
        -9.25929069519043
      ],
      [
        "▁عط",
        -9.25951099395752
      ],
      [
        "وى",
        -9.25998592376709
      ],
      [
        "▁عرفت",
        -9.260404586791992
      ],
      [
        "▁حد",
        -9.261035919189453
      ],
      [
        "▁رحت",
        -9.261672019958496
      ],
      [
        "ختي",
        -9.261748313903809
      ],
      [
        "▁ندخل",
        -9.262001037597656
      ],
      [
        "▁مسكين",
        -9.262094497680664
      ],
      [
        "شعب",
        -9.262862205505371
      ],
      [
        "▁اليوتيوب",
        -9.263015747070312
      ],
      [
        "عظم",
        -9.263243675231934
      ],
      [
        "▁التوفيق",
        -9.263479232788086
      ],
      [
        "خص",
        -9.264291763305664
      ],
      [
        "▁ولو",
        -9.264769554138184
      ],
      [
        "▁ليلة",
        -9.26499080657959
      ],
      [
        "▁جيب",
        -9.266010284423828
      ],
      [
        "لب",
        -9.266140937805176
      ],
      [
        "▁لفيديو",
        -9.266205787658691
      ],
      [
        "▁e",
        -9.268068313598633
      ],
      [
        "لعب",
        -9.269058227539062
      ],
      [
        "احة",
        -9.269329071044922
      ],
      [
        "▁ڨ",
        -9.27041244506836
      ],
      [
        "زلت",
        -9.270526885986328
      ],
      [
        "▁الاب",
        -9.270628929138184
      ],
      [
        "▁حياتي",
        -9.271580696105957
      ],
      [
        "▁والسلام",
        -9.273301124572754
      ],
      [
        "ضيف",
        -9.27469539642334
      ],
      [
        "▁جز",
        -9.27475357055664
      ],
      [
        "▁معاه",
        -9.27566909790039
      ],
      [
        "▁باقي",
        -9.276009559631348
      ],
      [
        "ران",
        -9.276045799255371
      ],
      [
        "حبس",
        -9.276453018188477
      ],
      [
        "▁يفرحك",
        -9.276704788208008
      ],
      [
        "▁طاح",
        -9.276981353759766
      ],
      [
        "سخ",
        -9.277255058288574
      ],
      [
        "▁عمي",
        -9.277420043945312
      ],
      [
        "▁لانو",
        -9.277538299560547
      ],
      [
        "حول",
        -9.277680397033691
      ],
      [
        "▁ne",
        -9.277896881103516
      ],
      [
        "▁السر",
        -9.278079986572266
      ],
      [
        "▁وفلسفة",
        -9.27829360961914
      ],
      [
        "▁مق",
        -9.278373718261719
      ],
      [
        "▁نديرو",
        -9.278518676757812
      ],
      [
        "▁جزء",
        -9.279601097106934
      ],
      [
        "ent",
        -9.280328750610352
      ],
      [
        "▁فكرة",
        -9.280882835388184
      ],
      [
        "أخذ",
        -9.281824111938477
      ],
      [
        "▁رغم",
        -9.282078742980957
      ],
      [
        "▁صانع",
        -9.283087730407715
      ],
      [
        "▁حين",
        -9.283795356750488
      ],
      [
        "▁vidéo",
        -9.284379005432129
      ],
      [
        "لات",
        -9.284903526306152
      ],
      [
        "om",
        -9.285365104675293
      ],
      [
        "عوض",
        -9.28537368774414
      ],
      [
        "ستر",
        -9.285778999328613
      ],
      [
        "▁تعليقي",
        -9.2858247756958
      ],
      [
        "إن",
        -9.28617000579834
      ],
      [
        "زين",
        -9.286360740661621
      ],
      [
        "▁أخ",
        -9.286773681640625
      ],
      [
        "▁خفت",
        -9.286828994750977
      ],
      [
        "ولة",
        -9.287032127380371
      ],
      [
        "ضل",
        -9.287589073181152
      ],
      [
        "فع",
        -9.288186073303223
      ],
      [
        "▁عشر",
        -9.289083480834961
      ],
      [
        "▁يوجد",
        -9.289728164672852
      ],
      [
        "▁👍",
        -9.289891242980957
      ],
      [
        "باك",
        -9.290430068969727
      ],
      [
        "▁نسأل",
        -9.290655136108398
      ],
      [
        "▁اعلم",
        -9.290862083435059
      ],
      [
        "▁جميلة",
        -9.291686058044434
      ],
      [
        "▁تخرج",
        -9.291762351989746
      ],
      [
        "K",
        -9.291918754577637
      ],
      [
        "ناس",
        -9.292531967163086
      ],
      [
        "▁يق",
        -9.292644500732422
      ],
      [
        "عتبر",
        -9.293486595153809
      ],
      [
        "▁يجعل",
        -9.29350757598877
      ],
      [
        "▁باغي",
        -9.293874740600586
      ],
      [
        "▁فديو",
        -9.294300079345703
      ],
      [
        "▁التاريخ",
        -9.296343803405762
      ],
      [
        "ند",
        -9.297585487365723
      ],
      [
        "▁تفهم",
        -9.297900199890137
      ],
      [
        "▁الجميع",
        -9.298067092895508
      ],
      [
        "▁للا",
        -9.298151016235352
      ],
      [
        "▁ki",
        -9.298897743225098
      ],
      [
        "▁Ma",
        -9.29892349243164
      ],
      [
        "سمح",
        -9.298981666564941
      ],
      [
        "▁ضيف",
        -9.299324989318848
      ],
      [
        "سنة",
        -9.299734115600586
      ],
      [
        "▁بلاك",
        -9.300498008728027
      ],
      [
        "▁ايضا",
        -9.300851821899414
      ],
      [
        "قصد",
        -9.301416397094727
      ],
      [
        "▁نفسه",
        -9.30243968963623
      ],
      [
        "▁شاءالله",
        -9.302526473999023
      ],
      [
        "▁جاء",
        -9.302722930908203
      ],
      [
        "قه",
        -9.304780006408691
      ],
      [
        "▁صحا",
        -9.305289268493652
      ],
      [
        "اذ",
        -9.305630683898926
      ],
      [
        "▁فن",
        -9.306220054626465
      ],
      [
        "▁احد",
        -9.306242942810059
      ],
      [
        "▁خي",
        -9.306894302368164
      ],
      [
        "قلب",
        -9.307010650634766
      ],
      [
        "▁باذن",
        -9.307438850402832
      ],
      [
        "▁عندهم",
        -9.307868957519531
      ],
      [
        "▁قدر",
        -9.307953834533691
      ],
      [
        "▁تلقا",
        -9.309574127197266
      ],
      [
        "موت",
        -9.30987548828125
      ],
      [
        "لول",
        -9.311119079589844
      ],
      [
        "▁ضحك",
        -9.311203002929688
      ],
      [
        "▁رقم",
        -9.311217308044434
      ],
      [
        "fi",
        -9.311279296875
      ],
      [
        "▁بار",
        -9.311854362487793
      ],
      [
        "خل",
        -9.312368392944336
      ],
      [
        "ستعمل",
        -9.312638282775879
      ],
      [
        "▁الدعاء",
        -9.312734603881836
      ],
      [
        "نظر",
        -9.312750816345215
      ],
      [
        "▁بسك",
        -9.313095092773438
      ],
      [
        "▁بكري",
        -9.313304901123047
      ],
      [
        "دية",
        -9.313740730285645
      ],
      [
        "عكس",
        -9.314309120178223
      ],
      [
        "قاء",
        -9.314728736877441
      ],
      [
        "▁صار",
        -9.31574535369873
      ],
      [
        "▁for",
        -9.316632270812988
      ],
      [
        "هما",
        -9.317217826843262
      ],
      [
        "▁الدروس",
        -9.31910228729248
      ],
      [
        "توب",
        -9.320595741271973
      ],
      [
        "▁نتبع",
        -9.321474075317383
      ],
      [
        "💪",
        -9.32249641418457
      ],
      [
        "▁Ya",
        -9.322549819946289
      ],
      [
        "▁الأس",
        -9.323188781738281
      ],
      [
        "عاود",
        -9.323354721069336
      ],
      [
        "▁كانو",
        -9.323358535766602
      ],
      [
        "sa",
        -9.323467254638672
      ],
      [
        "▁kho",
        -9.323699951171875
      ],
      [
        "ولاد",
        -9.324755668640137
      ],
      [
        "lh",
        -9.324854850769043
      ],
      [
        "▁عباد",
        -9.325404167175293
      ],
      [
        "بناء",
        -9.325540542602539
      ],
      [
        "ie",
        -9.32635498046875
      ],
      [
        "▁تحل",
        -9.328669548034668
      ],
      [
        "▁ديال",
        -9.328790664672852
      ],
      [
        "▁نصيحة",
        -9.329200744628906
      ],
      [
        "▁ريضا",
        -9.329217910766602
      ],
      [
        "فك",
        -9.329947471618652
      ],
      [
        "بكي",
        -9.330460548400879
      ],
      [
        "▁يشوف",
        -9.33084774017334
      ],
      [
        "▁يما",
        -9.331069946289062
      ],
      [
        "▁بان",
        -9.33118724822998
      ],
      [
        "تعرف",
        -9.331244468688965
      ],
      [
        "▁تقبل",
        -9.331493377685547
      ],
      [
        "▁بلاد",
        -9.331555366516113
      ],
      [
        "▁سلسلة",
        -9.3316011428833
      ],
      [
        "اللهم",
        -9.333274841308594
      ],
      [
        "خلف",
        -9.333623886108398
      ],
      [
        "▁يديرو",
        -9.334114074707031
      ],
      [
        "▁الجميل",
        -9.334267616271973
      ],
      [
        "▁مك",
        -9.33493423461914
      ],
      [
        "▁رأي",
        -9.334944725036621
      ],
      [
        "▁رياض",
        -9.335611343383789
      ],
      [
        "▁اداب",
        -9.335817337036133
      ],
      [
        "قط",
        -9.337418556213379
      ],
      [
        "▁had",
        -9.338216781616211
      ],
      [
        "▁el",
        -9.33836555480957
      ],
      [
        "شري",
        -9.339247703552246
      ],
      [
        "▁الطيب",
        -9.339960098266602
      ],
      [
        "▁التح",
        -9.340211868286133
      ],
      [
        "▁وصل",
        -9.340887069702148
      ],
      [
        "حضر",
        -9.341397285461426
      ],
      [
        "▁القناة",
        -9.341752052307129
      ],
      [
        "▁مم",
        -9.341893196105957
      ],
      [
        "▁الشي",
        -9.342135429382324
      ],
      [
        "allah",
        -9.34216022491455
      ],
      [
        "▁محب",
        -9.343233108520508
      ],
      [
        "وحد",
        -9.344776153564453
      ],
      [
        "▁تل",
        -9.344858169555664
      ],
      [
        "▁«",
        -9.345059394836426
      ],
      [
        "▁حن",
        -9.345853805541992
      ],
      [
        "▁تفرجت",
        -9.34719181060791
      ],
      [
        "▁مشكور",
        -9.347764015197754
      ],
      [
        "▁الآ",
        -9.348699569702148
      ],
      [
        "▁الانسان",
        -9.348761558532715
      ],
      [
        "▁الاخ",
        -9.349300384521484
      ],
      [
        "▁العلي",
        -9.349871635437012
      ],
      [
        "▁11",
        -9.34992504119873
      ],
      [
        "شكرا",
        -9.350643157958984
      ],
      [
        "▁الإنسان",
        -9.350859642028809
      ],
      [
        "▁تست",
        -9.351177215576172
      ],
      [
        "ذر",
        -9.35124683380127
      ],
      [
        "ter",
        -9.35128116607666
      ],
      [
        "▁تستاهل",
        -9.351731300354004
      ],
      [
        "▁لحكاية",
        -9.351773262023926
      ],
      [
        "▁😅😅",
        -9.352638244628906
      ],
      [
        "▁اغفر",
        -9.352726936340332
      ],
      [
        "مار",
        -9.35401725769043
      ],
      [
        "ضحك",
        -9.354294776916504
      ],
      [
        "▁خبر",
        -9.3543062210083
      ],
      [
        "▁جل",
        -9.354748725891113
      ],
      [
        "روب",
        -9.354842185974121
      ],
      [
        "مثال",
        -9.355113983154297
      ],
      [
        "▁ربما",
        -9.355245590209961
      ],
      [
        "▁تدخل",
        -9.355430603027344
      ],
      [
        "نطق",
        -9.355643272399902
      ],
      [
        "▁رجع",
        -9.35595417022705
      ],
      [
        "▁وزيد",
        -9.356470108032227
      ],
      [
        "▁ولكل",
        -9.356572151184082
      ],
      [
        "▁البا",
        -9.356942176818848
      ],
      [
        "▁ديما",
        -9.357438087463379
      ],
      [
        "▁دعو",
        -9.357826232910156
      ],
      [
        "▁رايح",
        -9.357861518859863
      ],
      [
        "▁مفهمتش",
        -9.358101844787598
      ],
      [
        "ائق",
        -9.358306884765625
      ],
      [
        "▁اكبر",
        -9.358540534973145
      ],
      [
        "غرب",
        -9.35862922668457
      ],
      [
        "B",
        -9.359031677246094
      ],
      [
        "▁نخدم",
        -9.359811782836914
      ],
      [
        "im",
        -9.359832763671875
      ],
      [
        "▁البيت",
        -9.360095977783203
      ],
      [
        "▁راكليطا",
        -9.36030387878418
      ],
      [
        "▁صف",
        -9.360312461853027
      ],
      [
        "لون",
        -9.36048698425293
      ],
      [
        "▁بسبب",
        -9.360679626464844
      ],
      [
        "▁di",
        -9.360917091369629
      ],
      [
        "▁يش",
        -9.360922813415527
      ],
      [
        "طيب",
        -9.36217975616455
      ],
      [
        "ابة",
        -9.36286735534668
      ],
      [
        "جمل",
        -9.362890243530273
      ],
      [
        "▁النار",
        -9.362968444824219
      ],
      [
        "▁كتر",
        -9.363012313842773
      ],
      [
        "▁pro",
        -9.3633394241333
      ],
      [
        "▁🤲🤲",
        -9.363410949707031
      ],
      [
        "ضيع",
        -9.363619804382324
      ],
      [
        "ok",
        -9.365036010742188
      ],
      [
        "▁يهدي",
        -9.365487098693848
      ],
      [
        "هرب",
        -9.365790367126465
      ],
      [
        "▁ليست",
        -9.366707801818848
      ],
      [
        "سباب",
        -9.367328643798828
      ],
      [
        "▁يقرا",
        -9.367505073547363
      ],
      [
        "▁مؤ",
        -9.368009567260742
      ],
      [
        "▁أتمنى",
        -9.368144989013672
      ],
      [
        "▁فهو",
        -9.368485450744629
      ],
      [
        "▁_",
        -9.368732452392578
      ],
      [
        "▁يقولو",
        -9.36945915222168
      ],
      [
        "حافظ",
        -9.369698524475098
      ],
      [
        "ولك",
        -9.369792938232422
      ],
      [
        "▁خلال",
        -9.370410919189453
      ],
      [
        "▁حو",
        -9.370556831359863
      ],
      [
        "▁الحقيقة",
        -9.371310234069824
      ],
      [
        "▁باينة",
        -9.371381759643555
      ],
      [
        "▁الجديد",
        -9.371688842773438
      ],
      [
        "▁المرأة",
        -9.371708869934082
      ],
      [
        "▁na",
        -9.37171459197998
      ],
      [
        "▁سما",
        -9.372007369995117
      ],
      [
        "000",
        -9.372037887573242
      ],
      [
        "استاذ",
        -9.372187614440918
      ],
      [
        "▁طب",
        -9.37331771850586
      ],
      [
        "▁خص",
        -9.373948097229004
      ],
      [
        "▁أيضا",
        -9.374536514282227
      ],
      [
        "▁عضو",
        -9.374550819396973
      ],
      [
        "▁اصلا",
        -9.374554634094238
      ],
      [
        "▁تروح",
        -9.375166893005371
      ],
      [
        "▁pour",
        -9.375239372253418
      ],
      [
        "▁طيب",
        -9.375703811645508
      ],
      [
        "▁اجمعين",
        -9.377120018005371
      ],
      [
        "عوذ",
        -9.378230094909668
      ],
      [
        "كيف",
        -9.378313064575195
      ],
      [
        "▁امر",
        -9.378530502319336
      ],
      [
        "طبق",
        -9.379021644592285
      ],
      [
        "سمي",
        -9.379985809326172
      ],
      [
        "طال",
        -9.38022518157959
      ],
      [
        "▁que",
        -9.380278587341309
      ],
      [
        "عاف",
        -9.38028335571289
      ],
      [
        "▁اخ",
        -9.380538940429688
      ],
      [
        "ci",
        -9.380840301513672
      ],
      [
        "▁مهم",
        -9.381999969482422
      ],
      [
        "افة",
        -9.383875846862793
      ],
      [
        "che",
        -9.385905265808105
      ],
      [
        "▁ريدكس",
        -9.386214256286621
      ],
      [
        "▁آل",
        -9.387212753295898
      ],
      [
        "بيض",
        -9.387269973754883
      ],
      [
        "🤣",
        -9.387293815612793
      ],
      [
        "بان",
        -9.387579917907715
      ],
      [
        "▁ماهو",
        -9.387683868408203
      ],
      [
        "▁لغات",
        -9.387741088867188
      ],
      [
        "ضة",
        -9.387993812561035
      ],
      [
        "▁شيكور",
        -9.388126373291016
      ],
      [
        "▁دعواتكم",
        -9.388752937316895
      ],
      [
        "دق",
        -9.38943862915039
      ],
      [
        "▁يشفي",
        -9.38962173461914
      ],
      [
        "▁con",
        -9.390990257263184
      ],
      [
        "▁is",
        -9.391321182250977
      ],
      [
        "▁and",
        -9.391633987426758
      ],
      [
        "سن",
        -9.391826629638672
      ],
      [
        "ge",
        -9.391931533813477
      ],
      [
        "▁سهل",
        -9.392822265625
      ],
      [
        "▁دراهم",
        -9.393505096435547
      ],
      [
        "فاء",
        -9.393779754638672
      ],
      [
        "▁صديق",
        -9.394207954406738
      ],
      [
        "▁صغيرة",
        -9.394877433776855
      ],
      [
        "▁التعليم",
        -9.395002365112305
      ],
      [
        "▁كال",
        -9.395724296569824
      ],
      [
        "▁أح",
        -9.396010398864746
      ],
      [
        "qu",
        -9.396570205688477
      ],
      [
        "▁بفضل",
        -9.396703720092773
      ],
      [
        "▁جاب",
        -9.396936416625977
      ],
      [
        "▁نعاود",
        -9.397387504577637
      ],
      [
        "▁شك",
        -9.397470474243164
      ],
      [
        "روع",
        -9.397607803344727
      ],
      [
        "▁عايش",
        -9.397734642028809
      ],
      [
        "▁بالا",
        -9.39774227142334
      ],
      [
        "▁قن",
        -9.397876739501953
      ],
      [
        "طار",
        -9.399253845214844
      ],
      [
        "بالي",
        -9.399497032165527
      ],
      [
        "}",
        -9.399898529052734
      ],
      [
        "عب",
        -9.400704383850098
      ],
      [
        "ائية",
        -9.401337623596191
      ],
      [
        "▁اح",
        -9.401426315307617
      ],
      [
        "▁2023",
        -9.401826858520508
      ],
      [
        "راني",
        -9.402521133422852
      ],
      [
        "▁rabi",
        -9.403203010559082
      ],
      [
        "▁ادب",
        -9.404242515563965
      ],
      [
        "▁عربية",
        -9.4049072265625
      ],
      [
        "▁كريم",
        -9.405304908752441
      ],
      [
        "▁pas",
        -9.406388282775879
      ],
      [
        "▁al",
        -9.407259941101074
      ],
      [
        "▁دم",
        -9.407632827758789
      ],
      [
        "▁نستنا",
        -9.4082612991333
      ],
      [
        "ki",
        -9.408746719360352
      ],
      [
        "▁لينا",
        -9.409316062927246
      ],
      [
        "▁المح",
        -9.409481048583984
      ],
      [
        "▁fa",
        -9.409614562988281
      ],
      [
        "▁البن",
        -9.40983772277832
      ],
      [
        "▁السحر",
        -9.410096168518066
      ],
      [
        "▁فتح",
        -9.410103797912598
      ],
      [
        "▁ادا",
        -9.41029167175293
      ],
      [
        "▁لماذا",
        -9.410426139831543
      ],
      [
        "be",
        -9.410640716552734
      ],
      [
        "▁نحس",
        -9.410747528076172
      ],
      [
        "▁se",
        -9.411252975463867
      ],
      [
        "سهل",
        -9.412352561950684
      ],
      [
        "chi",
        -9.41259765625
      ],
      [
        "▁صحاب",
        -9.412941932678223
      ],
      [
        "▁13",
        -9.415026664733887
      ],
      [
        "▁الكل",
        -9.415192604064941
      ],
      [
        "▁st",
        -9.415372848510742
      ],
      [
        "▁فقال",
        -9.415725708007812
      ],
      [
        "▁ويجعل",
        -9.416199684143066
      ],
      [
        "▁للجميع",
        -9.416224479675293
      ],
      [
        "▁الأمر",
        -9.41650104522705
      ],
      [
        "ولد",
        -9.41712760925293
      ],
      [
        "bo",
        -9.417277336120605
      ],
      [
        "▁قدام",
        -9.417376518249512
      ],
      [
        "مليون",
        -9.417488098144531
      ],
      [
        "🥹",
        -9.417872428894043
      ],
      [
        "15",
        -9.418233871459961
      ],
      [
        "fa",
        -9.418597221374512
      ],
      [
        "▁لأنه",
        -9.41922378540039
      ],
      [
        "▁كثير",
        -9.419407844543457
      ],
      [
        "▁بيت",
        -9.420348167419434
      ],
      [
        "▁غلط",
        -9.420778274536133
      ],
      [
        "بير",
        -9.421055793762207
      ],
      [
        "▁لكي",
        -9.421098709106445
      ],
      [
        "اسي",
        -9.421478271484375
      ],
      [
        "▁Ra",
        -9.421575546264648
      ],
      [
        "▁ماهي",
        -9.422274589538574
      ],
      [
        "▁🎉🎉",
        -9.42229175567627
      ],
      [
        "كنت",
        -9.423144340515137
      ],
      [
        ").",
        -9.423173904418945
      ],
      [
        "▁باب",
        -9.423842430114746
      ],
      [
        "▁الرجل",
        -9.424201011657715
      ],
      [
        "▁الآخر",
        -9.424556732177734
      ],
      [
        "▁خرجت",
        -9.424824714660645
      ],
      [
        "▁يرحمو",
        -9.426234245300293
      ],
      [
        "▁للباك",
        -9.426362991333008
      ],
      [
        "بقى",
        -9.42719841003418
      ],
      [
        "ی",
        -9.427523612976074
      ],
      [
        "خطأ",
        -9.428932189941406
      ],
      [
        "▁الاخير",
        -9.432303428649902
      ],
      [
        "▁الدر",
        -9.432525634765625
      ],
      [
        "▁احب",
        -9.432914733886719
      ],
      [
        "▁فضلكم",
        -9.433795928955078
      ],
      [
        "▁صلي",
        -9.434006690979004
      ],
      [
        "▁أحسن",
        -9.434517860412598
      ],
      [
        "▁نتوما",
        -9.434948921203613
      ],
      [
        "ll",
        -9.435585021972656
      ],
      [
        "صبر",
        -9.435948371887207
      ],
      [
        "ca",
        -9.436299324035645
      ],
      [
        "لله",
        -9.436725616455078
      ],
      [
        "▁o",
        -9.436931610107422
      ],
      [
        "▁النفس",
        -9.437068939208984
      ],
      [
        "ومة",
        -9.437520980834961
      ],
      [
        "▁عدم",
        -9.438370704650879
      ],
      [
        "لبس",
        -9.438392639160156
      ],
      [
        "▁القيم",
        -9.439165115356445
      ],
      [
        "ia",
        -9.439221382141113
      ],
      [
        "دن",
        -9.442160606384277
      ],
      [
        "▁نجاح",
        -9.44218921661377
      ],
      [
        "▁الموت",
        -9.442272186279297
      ],
      [
        "▁قمة",
        -9.4423828125
      ],
      [
        "بدع",
        -9.44244384765625
      ],
      [
        "لع",
        -9.443198204040527
      ],
      [
        "يدي",
        -9.443403244018555
      ],
      [
        "▁da",
        -9.444499015808105
      ],
      [
        "ضم",
        -9.444656372070312
      ],
      [
        "▁أعلم",
        -9.444724082946777
      ],
      [
        "▁الخوف",
        -9.446210861206055
      ],
      [
        "mo",
        -9.446348190307617
      ],
      [
        "▁الرسول",
        -9.44657039642334
      ],
      [
        "عون",
        -9.448473930358887
      ],
      [
        "▁توحشناك",
        -9.44963550567627
      ],
      [
        "▁تاعو",
        -9.449652671813965
      ],
      [
        "قف",
        -9.449764251708984
      ],
      [
        "▁نفسك",
        -9.449819564819336
      ],
      [
        "▁جمع",
        -9.449965476989746
      ],
      [
        "بني",
        -9.450085639953613
      ],
      [
        "▁نكمل",
        -9.45009994506836
      ],
      [
        "▁دوك",
        -9.450454711914062
      ],
      [
        "▁غدوة",
        -9.450688362121582
      ],
      [
        "▁نظر",
        -9.45072078704834
      ],
      [
        "سجل",
        -9.451027870178223
      ],
      [
        "▁باين",
        -9.451841354370117
      ],
      [
        "رضا",
        -9.451854705810547
      ],
      [
        "▁des",
        -9.4528226852417
      ],
      [
        "▁أسأل",
        -9.453749656677246
      ],
      [
        "قابل",
        -9.453911781311035
      ],
      [
        "▁طفلة",
        -9.454044342041016
      ],
      [
        "▁الثانية",
        -9.454405784606934
      ],
      [
        "▁فى",
        -9.455674171447754
      ],
      [
        "pp",
        -9.456582069396973
      ],
      [
        "50",
        -9.457018852233887
      ],
      [
        "▁تبان",
        -9.457710266113281
      ],
      [
        "▁استغفر",
        -9.458008766174316
      ],
      [
        "وبة",
        -9.458292961120605
      ],
      [
        "▁نشاء",
        -9.458434104919434
      ],
      [
        "▁زاد",
        -9.458491325378418
      ],
      [
        "حدث",
        -9.458714485168457
      ],
      [
        "ريد",
        -9.458773612976074
      ],
      [
        "نشر",
        -9.459616661071777
      ],
      [
        "▁تكمل",
        -9.45995044708252
      ],
      [
        "▁جملة",
        -9.461167335510254
      ],
      [
        "▁الجزائرية",
        -9.46143627166748
      ],
      [
        "▁بيهم",
        -9.461636543273926
      ],
      [
        "min",
        -9.461849212646484
      ],
      [
        "▁بقي",
        -9.462188720703125
      ],
      [
        "ائه",
        -9.462477684020996
      ],
      [
        "▁Hhh",
        -9.463083267211914
      ],
      [
        "▁الرحيم",
        -9.463099479675293
      ],
      [
        "▁لعب",
        -9.463891983032227
      ],
      [
        "▁V",
        -9.464183807373047
      ],
      [
        "▁المست",
        -9.464366912841797
      ],
      [
        "▁كذلك",
        -9.464803695678711
      ],
      [
        "▁تزيد",
        -9.465045928955078
      ],
      [
        "ré",
        -9.465228080749512
      ],
      [
        "سك",
        -9.466059684753418
      ],
      [
        "🙏",
        -9.466408729553223
      ],
      [
        "▁Ch",
        -9.46653938293457
      ],
      [
        "▁مرض",
        -9.46784496307373
      ],
      [
        "▁قادة",
        -9.467881202697754
      ],
      [
        "▁أستاذة",
        -9.46802043914795
      ],
      [
        "▁mn",
        -9.468185424804688
      ],
      [
        "بق",
        -9.4682035446167
      ],
      [
        "▁الشكر",
        -9.469611167907715
      ],
      [
        "رأ",
        -9.470879554748535
      ],
      [
        "▁الآن",
        -9.472108840942383
      ],
      [
        "▁قط",
        -9.473675727844238
      ],
      [
        "😭😭",
        -9.47370433807373
      ],
      [
        "▁♥",
        -9.473712921142578
      ],
      [
        "eur",
        -9.473761558532715
      ],
      [
        "▁عبر",
        -9.474030494689941
      ],
      [
        "▁حسيت",
        -9.474969863891602
      ],
      [
        "▁العزيز",
        -9.475468635559082
      ],
      [
        "جماع",
        -9.475730895996094
      ],
      [
        "▁wlh",
        -9.47720718383789
      ],
      [
        "ii",
        -9.477334976196289
      ],
      [
        "▁بإ",
        -9.47751235961914
      ],
      [
        "ver",
        -9.477621078491211
      ],
      [
        "tion",
        -9.477632522583008
      ],
      [
        "▁يوفق",
        -9.478166580200195
      ],
      [
        "▁بع",
        -9.478316307067871
      ],
      [
        "▁🔥",
        -9.478580474853516
      ],
      [
        "▁J",
        -9.479299545288086
      ],
      [
        "▁بنات",
        -9.47991943359375
      ],
      [
        "▁الاسئلة",
        -9.479979515075684
      ],
      [
        "▁مول",
        -9.48023509979248
      ],
      [
        "▁الكو",
        -9.48084545135498
      ],
      [
        "▁تهبل",
        -9.481148719787598
      ],
      [
        "▁عش",
        -9.481414794921875
      ],
      [
        "عام",
        -9.482649803161621
      ],
      [
        "▁💗",
        -9.482734680175781
      ],
      [
        "اوية",
        -9.483101844787598
      ],
      [
        "جرب",
        -9.483552932739258
      ],
      [
        "▁يروح",
        -9.484040260314941
      ],
      [
        "😮😮",
        -9.484591484069824
      ],
      [
        "سوء",
        -9.485469818115234
      ],
      [
        "hk",
        -9.486205101013184
      ],
      [
        "▁ارحم",
        -9.48625373840332
      ],
      [
        "lk",
        -9.487198829650879
      ],
      [
        "▁وضع",
        -9.487706184387207
      ],
      [
        "▁وسهلا",
        -9.48829460144043
      ],
      [
        "▁فاهم",
        -9.488308906555176
      ],
      [
        "فرنس",
        -9.488321304321289
      ],
      [
        "حظ",
        -9.489188194274902
      ],
      [
        "▁لغ",
        -9.490498542785645
      ],
      [
        "ظل",
        -9.49050521850586
      ],
      [
        "▁تأ",
        -9.490859985351562
      ],
      [
        "▁شف",
        -9.49131965637207
      ],
      [
        "▁أل",
        -9.491532325744629
      ],
      [
        "قصص",
        -9.491667747497559
      ],
      [
        "▁ناجحين",
        -9.491804122924805
      ],
      [
        "جود",
        -9.491909980773926
      ],
      [
        "▁بدل",
        -9.492659568786621
      ],
      [
        "ثم",
        -9.492806434631348
      ],
      [
        "▁شغل",
        -9.493112564086914
      ],
      [
        "▁سحر",
        -9.493213653564453
      ],
      [
        "▁راي",
        -9.49340534210205
      ],
      [
        "▁Bac",
        -9.493614196777344
      ],
      [
        "بلي",
        -9.49433422088623
      ],
      [
        "خطر",
        -9.494522094726562
      ],
      [
        "زن",
        -9.495163917541504
      ],
      [
        "▁منذ",
        -9.495299339294434
      ],
      [
        "▁عنها",
        -9.495407104492188
      ],
      [
        "▁صراحة",
        -9.495623588562012
      ],
      [
        "▁عنده",
        -9.496047019958496
      ],
      [
        "ation",
        -9.497591972351074
      ],
      [
        "▁الاولى",
        -9.498042106628418
      ],
      [
        "▁🤣",
        -9.498376846313477
      ],
      [
        "▁فرحت",
        -9.499241828918457
      ],
      [
        "😮",
        -9.49964427947998
      ],
      [
        "▁فري",
        -9.49968147277832
      ],
      [
        "ظاهر",
        -9.50076961517334
      ],
      [
        "▁الوحيد",
        -9.501076698303223
      ],
      [
        "▁نحل",
        -9.501354217529297
      ],
      [
        "▁الأرض",
        -9.501940727233887
      ],
      [
        "▁لخر",
        -9.501946449279785
      ],
      [
        "▁مين",
        -9.502433776855469
      ],
      [
        "صير",
        -9.50300121307373
      ],
      [
        "▁حرة",
        -9.503162384033203
      ],
      [
        "جين",
        -9.503230094909668
      ],
      [
        "جيل",
        -9.503249168395996
      ],
      [
        "▁شو",
        -9.503530502319336
      ],
      [
        "دد",
        -9.504143714904785
      ],
      [
        "▁لهذا",
        -9.504446983337402
      ],
      [
        "▁nta",
        -9.504900932312012
      ],
      [
        "▁دقيقة",
        -9.506217002868652
      ],
      [
        "▁😊😊",
        -9.50749397277832
      ],
      [
        "ادر",
        -9.507684707641602
      ],
      [
        "▁جيد",
        -9.507802963256836
      ],
      [
        "ليس",
        -9.509305953979492
      ],
      [
        "▁التق",
        -9.510469436645508
      ],
      [
        "▁معاكم",
        -9.51081371307373
      ],
      [
        "▁معند",
        -9.51107120513916
      ],
      [
        "▁فالم",
        -9.511133193969727
      ],
      [
        "▁Ha",
        -9.511910438537598
      ],
      [
        "▁الطريقة",
        -9.511954307556152
      ],
      [
        "▁والحمد",
        -9.514129638671875
      ],
      [
        "▁لعام",
        -9.514153480529785
      ],
      [
        "▁سنين",
        -9.514749526977539
      ],
      [
        "▁برا",
        -9.515824317932129
      ],
      [
        "▁بلادي",
        -9.516255378723145
      ],
      [
        "ودة",
        -9.516338348388672
      ],
      [
        "ساء",
        -9.517184257507324
      ],
      [
        "سامح",
        -9.517348289489746
      ],
      [
        "▁المجهر",
        -9.518193244934082
      ],
      [
        "▁تولي",
        -9.518716812133789
      ],
      [
        "حكي",
        -9.518800735473633
      ],
      [
        "ur",
        -9.518820762634277
      ],
      [
        "زير",
        -9.518902778625488
      ],
      [
        "جع",
        -9.519036293029785
      ],
      [
        "▁للأ",
        -9.519318580627441
      ],
      [
        "▁الاجتماعي",
        -9.519800186157227
      ],
      [
        "فى",
        -9.519899368286133
      ],
      [
        "▁فما",
        -9.520697593688965
      ],
      [
        "جعل",
        -9.520733833312988
      ],
      [
        "▁حمد",
        -9.520939826965332
      ],
      [
        "▁اصبح",
        -9.521193504333496
      ],
      [
        "▁تلك",
        -9.521317481994629
      ],
      [
        "عتمد",
        -9.52153205871582
      ],
      [
        "▁السياسي",
        -9.522387504577637
      ],
      [
        "صنع",
        -9.523641586303711
      ],
      [
        "▁Y",
        -9.523656845092773
      ],
      [
        "▁باسكو",
        -9.524250030517578
      ],
      [
        "▁مغ",
        -9.524423599243164
      ],
      [
        "▁الاخر",
        -9.524895668029785
      ],
      [
        "خاص",
        -9.526951789855957
      ],
      [
        "قار",
        -9.527148246765137
      ],
      [
        "▁قصد",
        -9.527443885803223
      ],
      [
        "عبد",
        -9.52824592590332
      ],
      [
        "▁🥹",
        -9.52849292755127
      ],
      [
        "▁تنجح",
        -9.528636932373047
      ],
      [
        "▁صورة",
        -9.528679847717285
      ],
      [
        "تحصل",
        -9.530570030212402
      ],
      [
        "▁النهار",
        -9.531024932861328
      ],
      [
        "ng",
        -9.532267570495605
      ],
      [
        "▁😍😍",
        -9.533069610595703
      ],
      [
        "▁نست",
        -9.533161163330078
      ],
      [
        "▁انتي",
        -9.5332612991333
      ],
      [
        "▁الكلام",
        -9.533405303955078
      ],
      [
        "▁علاقة",
        -9.53364372253418
      ],
      [
        "داد",
        -9.533713340759277
      ],
      [
        "سئل",
        -9.53434944152832
      ],
      [
        "▁تدير",
        -9.53492259979248
      ],
      [
        "▁تبارك",
        -9.535139083862305
      ],
      [
        "حوس",
        -9.535762786865234
      ],
      [
        "lou",
        -9.53597354888916
      ],
      [
        "حترم",
        -9.535992622375488
      ],
      [
        "▁واه",
        -9.536274909973145
      ],
      [
        "طالب",
        -9.537138938903809
      ],
      [
        "دخول",
        -9.53714656829834
      ],
      [
        "زد",
        -9.537623405456543
      ],
      [
        "صيب",
        -9.53773021697998
      ],
      [
        "درت",
        -9.538725852966309
      ],
      [
        "اخر",
        -9.539325714111328
      ],
      [
        "▁ابدا",
        -9.540786743164062
      ],
      [
        "▁والع",
        -9.540929794311523
      ],
      [
        "يتها",
        -9.541227340698242
      ],
      [
        "▁الباب",
        -9.54150390625
      ],
      [
        "▁المرا",
        -9.54167652130127
      ],
      [
        "علام",
        -9.542176246643066
      ],
      [
        "▁برو",
        -9.542520523071289
      ],
      [
        "▁دعا",
        -9.54292106628418
      ],
      [
        "▁الحا",
        -9.543670654296875
      ],
      [
        "▁نقولو",
        -9.544403076171875
      ],
      [
        "▁قب",
        -9.544415473937988
      ],
      [
        "▁وجعل",
        -9.544997215270996
      ],
      [
        "زر",
        -9.545134544372559
      ],
      [
        "حزن",
        -9.545649528503418
      ],
      [
        "كار",
        -9.546011924743652
      ],
      [
        "وصف",
        -9.546796798706055
      ],
      [
        "غلب",
        -9.547107696533203
      ],
      [
        "صال",
        -9.547358512878418
      ],
      [
        "▁u",
        -9.547792434692383
      ],
      [
        "▁روطار",
        -9.548041343688965
      ],
      [
        "اهر",
        -9.548115730285645
      ],
      [
        "▁فلسفة",
        -9.548148155212402
      ],
      [
        "لغ",
        -9.549378395080566
      ],
      [
        "توقع",
        -9.549808502197266
      ],
      [
        "▁هك",
        -9.54982852935791
      ],
      [
        "فار",
        -9.549846649169922
      ],
      [
        "قض",
        -9.550281524658203
      ],
      [
        "▁نرقد",
        -9.550779342651367
      ],
      [
        "▁عيني",
        -9.551759719848633
      ],
      [
        "16",
        -9.551761627197266
      ],
      [
        "عقب",
        -9.551976203918457
      ],
      [
        "▁حديث",
        -9.552000045776367
      ],
      [
        "شكل",
        -9.552141189575195
      ],
      [
        "▁ذر",
        -9.552399635314941
      ],
      [
        "سية",
        -9.5527982711792
      ],
      [
        "do",
        -9.553571701049805
      ],
      [
        "▁وعند",
        -9.553743362426758
      ],
      [
        "▁شويا",
        -9.553827285766602
      ],
      [
        "يحة",
        -9.553964614868164
      ],
      [
        "▁أصبح",
        -9.554179191589355
      ],
      [
        "▁صعيب",
        -9.554207801818848
      ],
      [
        "age",
        -9.554464340209961
      ],
      [
        "▁مما",
        -9.554728507995605
      ],
      [
        "▁بالت",
        -9.554850578308105
      ],
      [
        "ul",
        -9.554941177368164
      ],
      [
        "▁un",
        -9.555587768554688
      ],
      [
        "هدا",
        -9.556392669677734
      ],
      [
        "لن",
        -9.557793617248535
      ],
      [
        "der",
        -9.558890342712402
      ],
      [
        "▁نحي",
        -9.559141159057617
      ],
      [
        "▁فلم",
        -9.559272766113281
      ],
      [
        "بسيط",
        -9.559438705444336
      ],
      [
        "▁أكبر",
        -9.559957504272461
      ],
      [
        "▁يتم",
        -9.561134338378906
      ],
      [
        "صفح",
        -9.561873435974121
      ],
      [
        "Z",
        -9.562445640563965
      ],
      [
        "▁بهذا",
        -9.563187599182129
      ],
      [
        "▁العرب",
        -9.564830780029297
      ],
      [
        "▁سهلا",
        -9.565195083618164
      ],
      [
        "▁redx",
        -9.565467834472656
      ],
      [
        "🤣🤣",
        -9.565560340881348
      ],
      [
        "▁حاج",
        -9.566363334655762
      ],
      [
        "▁دك",
        -9.566598892211914
      ],
      [
        "▁الثورة",
        -9.56694507598877
      ],
      [
        "▁{",
        -9.567536354064941
      ],
      [
        "))",
        -9.567736625671387
      ],
      [
        "▁ركليطة",
        -9.56860637664795
      ],
      [
        "▁وحده",
        -9.568936347961426
      ],
      [
        "tou",
        -9.569587707519531
      ],
      [
        "▁كلمات",
        -9.569662094116211
      ],
      [
        "▁الصالح",
        -9.571096420288086
      ],
      [
        "▁يسر",
        -9.571407318115234
      ],
      [
        "حساس",
        -9.572388648986816
      ],
      [
        "▁وبعد",
        -9.57270622253418
      ],
      [
        "▁الخل",
        -9.5730562210083
      ],
      [
        "▁يزيد",
        -9.57421588897705
      ],
      [
        "▁تجد",
        -9.574490547180176
      ],
      [
        "حصل",
        -9.574854850769043
      ],
      [
        "▁فم",
        -9.57607364654541
      ],
      [
        "▁يصبر",
        -9.576488494873047
      ],
      [
        "▁الرو",
        -9.576539039611816
      ],
      [
        "th",
        -9.576971054077148
      ],
      [
        "▁ka",
        -9.576986312866211
      ],
      [
        "سود",
        -9.5783109664917
      ],
      [
        "طبع",
        -9.578665733337402
      ],
      [
        "▁يهديك",
        -9.579337120056152
      ],
      [
        "▁بغيت",
        -9.579984664916992
      ],
      [
        "جات",
        -9.58047866821289
      ],
      [
        "▁U",
        -9.580716133117676
      ],
      [
        "▁كف",
        -9.581849098205566
      ],
      [
        "▁ادعي",
        -9.58241081237793
      ],
      [
        "▁سوف",
        -9.582930564880371
      ],
      [
        "▁يرزق",
        -9.583356857299805
      ],
      [
        "▁المحتوى",
        -9.584020614624023
      ],
      [
        "▁do",
        -9.584808349609375
      ],
      [
        "▁القسم",
        -9.585094451904297
      ],
      [
        "▁معنى",
        -9.58537483215332
      ],
      [
        "دعاء",
        -9.585405349731445
      ],
      [
        "▁قلبك",
        -9.585528373718262
      ],
      [
        "▁توصل",
        -9.58584976196289
      ],
      [
        "عز",
        -9.586068153381348
      ],
      [
        "▁واو",
        -9.586075782775879
      ],
      [
        "▁سنوات",
        -9.587970733642578
      ],
      [
        "سمى",
        -9.588479995727539
      ],
      [
        "▁نكتب",
        -9.589112281799316
      ],
      [
        "▁وهل",
        -9.589669227600098
      ],
      [
        "dr",
        -9.589829444885254
      ],
      [
        "قى",
        -9.589864730834961
      ],
      [
        "▁وراني",
        -9.59021282196045
      ],
      [
        "علوم",
        -9.590794563293457
      ],
      [
        "▁يعلم",
        -9.59115982055664
      ],
      [
        "▁أولا",
        -9.59122371673584
      ],
      [
        "▁لانه",
        -9.591463088989258
      ],
      [
        "▁فضل",
        -9.591662406921387
      ],
      [
        "ثن",
        -9.591670036315918
      ],
      [
        "ستغفر",
        -9.59191608428955
      ],
      [
        "عتقد",
        -9.59224796295166
      ],
      [
        "ضعف",
        -9.592459678649902
      ],
      [
        "▁يحط",
        -9.592535972595215
      ],
      [
        "رعب",
        -9.592597961425781
      ],
      [
        "مرأة",
        -9.59357738494873
      ],
      [
        "مسؤول",
        -9.593652725219727
      ],
      [
        "▁دارو",
        -9.594074249267578
      ],
      [
        "▁نحفظ",
        -9.594110488891602
      ],
      [
        "▁صلاة",
        -9.594305992126465
      ],
      [
        "▁استمر",
        -9.59524154663086
      ],
      [
        "دني",
        -9.59619426727295
      ],
      [
        "▁الباكالوريا",
        -9.59642505645752
      ],
      [
        "▁🙏",
        -9.596632957458496
      ],
      [
        "▁الذ",
        -9.597001075744629
      ],
      [
        "▁السيد",
        -9.597174644470215
      ],
      [
        "▁موجود",
        -9.597452163696289
      ],
      [
        "▁حالة",
        -9.598444938659668
      ],
      [
        "tch",
        -9.599729537963867
      ],
      [
        "💜",
        -9.599838256835938
      ],
      [
        "♥️",
        -9.599956512451172
      ],
      [
        "ــ",
        -9.599982261657715
      ],
      [
        "▁الرا",
        -9.600652694702148
      ],
      [
        "▁طفل",
        -9.600698471069336
      ],
      [
        "😘",
        -9.600752830505371
      ],
      [
        "▁حاس",
        -9.601125717163086
      ],
      [
        "يسر",
        -9.602581024169922
      ],
      [
        "▁نقولك",
        -9.602810859680176
      ],
      [
        "ک",
        -9.602850914001465
      ],
      [
        "دون",
        -9.603386878967285
      ],
      [
        "بور",
        -9.603468894958496
      ],
      [
        "▁مكنية",
        -9.604040145874023
      ],
      [
        "▁😮",
        -9.604110717773438
      ],
      [
        "he",
        -9.604681968688965
      ],
      [
        "▁المواضيع",
        -9.604835510253906
      ],
      [
        "▁واخ",
        -9.604937553405762
      ],
      [
        "▁هذيك",
        -9.605412483215332
      ],
      [
        "خلق",
        -9.605473518371582
      ],
      [
        "🥲",
        -9.605862617492676
      ],
      [
        "▁نخاف",
        -9.605932235717773
      ],
      [
        "▁فان",
        -9.60623550415039
      ],
      [
        "قلق",
        -9.606281280517578
      ],
      [
        "▁مسلسل",
        -9.60645866394043
      ],
      [
        "▁العشرية",
        -9.60683536529541
      ],
      [
        "▁وإنا",
        -9.607112884521484
      ],
      [
        "▁،،",
        -9.607707023620605
      ],
      [
        "حاسب",
        -9.607939720153809
      ],
      [
        "داب",
        -9.608562469482422
      ],
      [
        "▁ديريلنا",
        -9.60881519317627
      ],
      [
        "بح",
        -9.608859062194824
      ],
      [
        "▁قديم",
        -9.608986854553223
      ],
      [
        "▁الكريمة",
        -9.608991622924805
      ],
      [
        "▁no",
        -9.609099388122559
      ],
      [
        "▁بالأ",
        -9.609458923339844
      ],
      [
        "رحل",
        -9.609647750854492
      ],
      [
        "▁كت",
        -9.609888076782227
      ],
      [
        "💙",
        -9.610735893249512
      ],
      [
        "▁بلد",
        -9.61153507232666
      ],
      [
        "iya",
        -9.611737251281738
      ],
      [
        "▁يطيح",
        -9.612225532531738
      ],
      [
        "▁ومع",
        -9.612607955932617
      ],
      [
        "▁الدرس",
        -9.612956047058105
      ],
      [
        "▁المجتمع",
        -9.613214492797852
      ],
      [
        "شد",
        -9.613499641418457
      ],
      [
        "▁الاس",
        -9.613639831542969
      ],
      [
        "شغل",
        -9.614413261413574
      ],
      [
        "sta",
        -9.614622116088867
      ],
      [
        "ess",
        -9.616029739379883
      ],
      [
        "▁فور",
        -9.61607837677002
      ],
      [
        "▁الفا",
        -9.616219520568848
      ],
      [
        "▁خال",
        -9.616658210754395
      ],
      [
        "ke",
        -9.616976737976074
      ],
      [
        "▁رزق",
        -9.61819076538086
      ],
      [
        "▁إله",
        -9.61868953704834
      ],
      [
        "▁تتم",
        -9.618945121765137
      ],
      [
        "▁وينجح",
        -9.619404792785645
      ],
      [
        "ai",
        -9.61970329284668
      ],
      [
        "▁ضرب",
        -9.620465278625488
      ],
      [
        "نصح",
        -9.620759963989258
      ],
      [
        "مكان",
        -9.62187385559082
      ],
      [
        "▁يغفر",
        -9.621965408325195
      ],
      [
        "▁تعيشو",
        -9.622557640075684
      ],
      [
        "سمو",
        -9.623271942138672
      ],
      [
        "دود",
        -9.623374938964844
      ],
      [
        "▁يحفظكم",
        -9.62352466583252
      ],
      [
        "تحدث",
        -9.623879432678223
      ],
      [
        "▁هوا",
        -9.624107360839844
      ],
      [
        "if",
        -9.62462329864502
      ],
      [
        "ic",
        -9.624944686889648
      ],
      [
        "▁الغرب",
        -9.625381469726562
      ],
      [
        "▁طلعو",
        -9.626063346862793
      ],
      [
        "داع",
        -9.626111030578613
      ],
      [
        "▁سبحانه",
        -9.626152038574219
      ],
      [
        "U",
        -9.627325057983398
      ],
      [
        "صوص",
        -9.628508567810059
      ],
      [
        "عفو",
        -9.63004207611084
      ],
      [
        "▁أرجو",
        -9.630595207214355
      ],
      [
        "بعض",
        -9.630836486816406
      ],
      [
        "▁اجل",
        -9.631309509277344
      ],
      [
        "▁حقا",
        -9.631421089172363
      ],
      [
        "▁فلي",
        -9.63183307647705
      ],
      [
        "▁بداية",
        -9.632122039794922
      ],
      [
        "▁2021",
        -9.632342338562012
      ],
      [
        "اسم",
        -9.63265323638916
      ],
      [
        "▁رك",
        -9.633097648620605
      ],
      [
        "تميز",
        -9.633188247680664
      ],
      [
        "سابق",
        -9.63321304321289
      ],
      [
        "▁شوفي",
        -9.633403778076172
      ],
      [
        "▁طلع",
        -9.633805274963379
      ],
      [
        "oul",
        -9.634175300598145
      ],
      [
        "ائح",
        -9.634291648864746
      ],
      [
        "باقي",
        -9.634720802307129
      ],
      [
        "شهاد",
        -9.6353759765625
      ],
      [
        "قسم",
        -9.635380744934082
      ],
      [
        "عمار",
        -9.635416030883789
      ],
      [
        "▁أجمعين",
        -9.636834144592285
      ],
      [
        "▁مجرد",
        -9.636871337890625
      ],
      [
        "▁والن",
        -9.636884689331055
      ],
      [
        "بنت",
        -9.637384414672852
      ],
      [
        "▁المعلومات",
        -9.638032913208008
      ],
      [
        "▁💪",
        -9.638443946838379
      ],
      [
        "▁حلمي",
        -9.638794898986816
      ],
      [
        "rou",
        -9.638975143432617
      ],
      [
        "▁الشيطان",
        -9.639304161071777
      ],
      [
        "▁برنامج",
        -9.640339851379395
      ],
      [
        "▁وفقك",
        -9.640544891357422
      ],
      [
        "▁فعلا",
        -9.64063549041748
      ],
      [
        "كاين",
        -9.640884399414062
      ],
      [
        "أم",
        -9.641345024108887
      ],
      [
        "▁((",
        -9.641554832458496
      ],
      [
        "▁حكي",
        -9.641706466674805
      ],
      [
        "▁تقدم",
        -9.641904830932617
      ],
      [
        "▁طبعا",
        -9.642027854919434
      ],
      [
        "قود",
        -9.642065048217773
      ],
      [
        "▁يفهم",
        -9.642216682434082
      ],
      [
        "تلك",
        -9.642459869384766
      ],
      [
        "▁نشري",
        -9.643349647521973
      ],
      [
        "▁معاهم",
        -9.64382553100586
      ],
      [
        "▁يوسف",
        -9.6439208984375
      ],
      [
        "▁أجل",
        -9.644153594970703
      ],
      [
        "rk",
        -9.644444465637207
      ],
      [
        "برك",
        -9.644804954528809
      ],
      [
        "فون",
        -9.645666122436523
      ],
      [
        "بلغ",
        -9.645710945129395
      ],
      [
        "▁يسهل",
        -9.646622657775879
      ],
      [
        "▁Ana",
        -9.646988868713379
      ],
      [
        "rr",
        -9.647317886352539
      ],
      [
        "ائك",
        -9.647457122802734
      ],
      [
        "▁يوتيوبر",
        -9.647503852844238
      ],
      [
        "🌹",
        -9.6475191116333
      ],
      [
        "اساتذة",
        -9.647834777832031
      ],
      [
        "▁نجي",
        -9.647856712341309
      ],
      [
        "▁نشر",
        -9.648276329040527
      ],
      [
        "حشم",
        -9.648301124572754
      ],
      [
        "▁يجوز",
        -9.648725509643555
      ],
      [
        "▁هايلة",
        -9.649075508117676
      ],
      [
        "حذف",
        -9.649312973022461
      ],
      [
        "جام",
        -9.649494171142578
      ],
      [
        "▁قناتك",
        -9.649619102478027
      ],
      [
        "▁كملت",
        -9.650087356567383
      ],
      [
        "ont",
        -9.650601387023926
      ],
      [
        "▁راحت",
        -9.65065860748291
      ],
      [
        "▁ضد",
        -9.650787353515625
      ],
      [
        "▁تقولي",
        -9.651667594909668
      ],
      [
        "طرق",
        -9.651843070983887
      ],
      [
        "▁200",
        -9.652079582214355
      ],
      [
        "cha",
        -9.652100563049316
      ],
      [
        "رؤ",
        -9.652323722839355
      ],
      [
        "💖",
        -9.652634620666504
      ],
      [
        "▁اعطي",
        -9.653148651123047
      ],
      [
        "▁نربح",
        -9.653207778930664
      ],
      [
        "جتمع",
        -9.654438018798828
      ],
      [
        "▁هذ",
        -9.655546188354492
      ],
      [
        "▁مشترك",
        -9.655662536621094
      ],
      [
        "▁اسطورة",
        -9.65567398071289
      ],
      [
        "C",
        -9.65579891204834
      ],
      [
        "▁معلومات",
        -9.656953811645508
      ],
      [
        "▁نحوس",
        -9.656984329223633
      ],
      [
        "▁الدراسة",
        -9.657155990600586
      ],
      [
        "P",
        -9.6580810546875
      ],
      [
        "زان",
        -9.658102035522461
      ],
      [
        "▁الامر",
        -9.658166885375977
      ],
      [
        "hab",
        -9.658207893371582
      ],
      [
        "▁🥲",
        -9.659538269042969
      ],
      [
        "▁إليك",
        -9.659833908081055
      ],
      [
        "ائع",
        -9.660049438476562
      ],
      [
        "si",
        -9.660110473632812
      ],
      [
        "▁يفرح",
        -9.66016960144043
      ],
      [
        "▁صور",
        -9.66037368774414
      ],
      [
        "▁مادة",
        -9.66037654876709
      ],
      [
        "▁الحمدلله",
        -9.660706520080566
      ],
      [
        "شعور",
        -9.661080360412598
      ],
      [
        "ختار",
        -9.66126823425293
      ],
      [
        "نظم",
        -9.661494255065918
      ],
      [
        "▁لخ",
        -9.662544250488281
      ],
      [
        "▁هدر",
        -9.662625312805176
      ],
      [
        "▁ميلود",
        -9.664045333862305
      ],
      [
        "ant",
        -9.664304733276367
      ],
      [
        "nn",
        -9.665000915527344
      ],
      [
        "▁ظل",
        -9.665760040283203
      ],
      [
        "▁احبك",
        -9.66706371307373
      ],
      [
        "un",
        -9.667341232299805
      ],
      [
        "▁التف",
        -9.667485237121582
      ],
      [
        "▁tr",
        -9.667564392089844
      ],
      [
        "روس",
        -9.667791366577148
      ],
      [
        "▁best",
        -9.669059753417969
      ],
      [
        "▁درك",
        -9.669781684875488
      ],
      [
        "▁of",
        -9.67005443572998
      ],
      [
        "هدف",
        -9.670831680297852
      ],
      [
        "▁اجمل",
        -9.670882225036621
      ],
      [
        "▁سمع",
        -9.672889709472656
      ],
      [
        "▁حفظك",
        -9.672900199890137
      ],
      [
        "ائب",
        -9.673932075500488
      ],
      [
        "▁الفلسفة",
        -9.674005508422852
      ],
      [
        "صحيح",
        -9.674689292907715
      ],
      [
        "▁اسكو",
        -9.674759864807129
      ],
      [
        "نجليزي",
        -9.674964904785156
      ],
      [
        "▁قدم",
        -9.675167083740234
      ],
      [
        "▁عارف",
        -9.67525577545166
      ],
      [
        "▁رجال",
        -9.675691604614258
      ],
      [
        "14",
        -9.675882339477539
      ],
      [
        "فرق",
        -9.676143646240234
      ],
      [
        "▁السب",
        -9.676447868347168
      ],
      [
        "▁قبره",
        -9.676812171936035
      ],
      [
        "▁توك",
        -9.677007675170898
      ],
      [
        "ائن",
        -9.677638053894043
      ],
      [
        "pe",
        -9.677785873413086
      ],
      [
        "▁ذا",
        -9.678301811218262
      ],
      [
        "مجهود",
        -9.679216384887695
      ],
      [
        "▁غالي",
        -9.68017578125
      ],
      [
        "▁الرائع",
        -9.680316925048828
      ],
      [
        "عقل",
        -9.6815767288208
      ],
      [
        "▁لايف",
        -9.681636810302734
      ],
      [
        "قصة",
        -9.682172775268555
      ],
      [
        "▁وغير",
        -9.682394981384277
      ],
      [
        "▁المسلم",
        -9.682809829711914
      ],
      [
        "قضي",
        -9.683037757873535
      ],
      [
        "▁حرف",
        -9.68320369720459
      ],
      [
        "خسر",
        -9.6834077835083
      ],
      [
        "▁طولت",
        -9.68369197845459
      ],
      [
        "كسر",
        -9.68483829498291
      ],
      [
        "%",
        -9.685909271240234
      ],
      [
        "▁الدولة",
        -9.68667984008789
      ],
      [
        "12",
        -9.686897277832031
      ],
      [
        "الف",
        -9.687320709228516
      ],
      [
        "▁وأنا",
        -9.687455177307129
      ],
      [
        "نصر",
        -9.688551902770996
      ],
      [
        "خمم",
        -9.688937187194824
      ],
      [
        "🫶",
        -9.690200805664062
      ],
      [
        "سجد",
        -9.692596435546875
      ],
      [
        "pi",
        -9.693159103393555
      ],
      [
        "▁قاتل",
        -9.693436622619629
      ],
      [
        "▁موقع",
        -9.69382095336914
      ],
      [
        "▁شئ",
        -9.694090843200684
      ],
      [
        "▁وفقنا",
        -9.694674491882324
      ],
      [
        "▁العقل",
        -9.694745063781738
      ],
      [
        "▁ونفرح",
        -9.69484806060791
      ],
      [
        "▁كفاه",
        -9.694878578186035
      ],
      [
        "•",
        -9.694926261901855
      ],
      [
        "👌",
        -9.694955825805664
      ],
      [
        "▁الحكايات",
        -9.69545841217041
      ],
      [
        "▁حسبي",
        -9.695984840393066
      ],
      [
        "▁الصورة",
        -9.696121215820312
      ],
      [
        "▁الزوج",
        -9.696435928344727
      ],
      [
        "17",
        -9.698391914367676
      ],
      [
        "ماذا",
        -9.698477745056152
      ],
      [
        "▁الطريق",
        -9.698546409606934
      ],
      [
        "aa",
        -9.69856071472168
      ],
      [
        "جنب",
        -9.698956489562988
      ],
      [
        "▁الشرح",
        -9.699041366577148
      ],
      [
        "22",
        -9.699997901916504
      ],
      [
        "أخلاق",
        -9.700519561767578
      ],
      [
        "▁يخدم",
        -9.70192813873291
      ],
      [
        "▁الأسئلة",
        -9.702518463134766
      ],
      [
        "elle",
        -9.70294189453125
      ],
      [
        "▁تجرب",
        -9.702995300292969
      ],
      [
        "صلاح",
        -9.703291893005371
      ],
      [
        "▁فرنسا",
        -9.704146385192871
      ],
      [
        "افق",
        -9.70432186126709
      ],
      [
        "▁عرف",
        -9.707178115844727
      ],
      [
        "▁الأستاذ",
        -9.707314491271973
      ],
      [
        "▁طويل",
        -9.707694053649902
      ],
      [
        "▁merci",
        -9.707927703857422
      ],
      [
        "▁ملخص",
        -9.708179473876953
      ],
      [
        "▁قضية",
        -9.70848560333252
      ],
      [
        "▁والسلوان",
        -9.708803176879883
      ],
      [
        "▁ضحكت",
        -9.708832740783691
      ],
      [
        "▁توحشنا",
        -9.709599494934082
      ],
      [
        "▁روحو",
        -9.709650039672852
      ],
      [
        "▁تسما",
        -9.709683418273926
      ],
      [
        "هذا",
        -9.710400581359863
      ],
      [
        "▁الحي",
        -9.710840225219727
      ],
      [
        "▁مجهوداتك",
        -9.712308883666992
      ],
      [
        "▁موت",
        -9.71237564086914
      ],
      [
        "▁rah",
        -9.712546348571777
      ],
      [
        "فرج",
        -9.712945938110352
      ],
      [
        "▁رجعت",
        -9.71339225769043
      ],
      [
        "▁قولي",
        -9.714147567749023
      ],
      [
        "mou",
        -9.714802742004395
      ],
      [
        "▁حبيب",
        -9.714950561523438
      ],
      [
        "▁ورد",
        -9.715188980102539
      ],
      [
        "▁التر",
        -9.716070175170898
      ],
      [
        "▁🌹",
        -9.716141700744629
      ],
      [
        "حال",
        -9.716718673706055
      ],
      [
        "شخص",
        -9.716773986816406
      ],
      [
        "▁الجاي",
        -9.717456817626953
      ],
      [
        "G",
        -9.718184471130371
      ],
      [
        "▁علمي",
        -9.71863079071045
      ],
      [
        "♥",
        -9.719324111938477
      ],
      [
        "▁المد",
        -9.719772338867188
      ],
      [
        "and",
        -9.719918251037598
      ],
      [
        "▁حقيقة",
        -9.719990730285645
      ],
      [
        "▁تمارين",
        -9.720752716064453
      ],
      [
        "▁إي",
        -9.721170425415039
      ],
      [
        "▁الصباح",
        -9.722273826599121
      ],
      [
        "▁bi",
        -9.722408294677734
      ],
      [
        "▁كملي",
        -9.722600936889648
      ],
      [
        "نزع",
        -9.723577499389648
      ],
      [
        "▁تحس",
        -9.724836349487305
      ],
      [
        "▁شكل",
        -9.724883079528809
      ],
      [
        "▁تعطي",
        -9.72502613067627
      ],
      [
        "تأكد",
        -9.725077629089355
      ],
      [
        "نقل",
        -9.726056098937988
      ],
      [
        "▁الفيديوهات",
        -9.726234436035156
      ],
      [
        "▁درنا",
        -9.726411819458008
      ],
      [
        "▁ناجح",
        -9.727537155151367
      ],
      [
        "▁هداك",
        -9.727812767028809
      ],
      [
        "▁he",
        -9.72836685180664
      ],
      [
        "رمي",
        -9.728520393371582
      ],
      [
        "▁اسمي",
        -9.7289457321167
      ],
      [
        "▁صبر",
        -9.72926139831543
      ],
      [
        "▁اجر",
        -9.729698181152344
      ],
      [
        "▁الكبير",
        -9.729748725891113
      ],
      [
        "٠",
        -9.729986190795898
      ],
      [
        "▁مصطلحات",
        -9.731184005737305
      ],
      [
        "▁man",
        -9.731449127197266
      ],
      [
        "▁أيام",
        -9.731754302978516
      ],
      [
        "▁مميز",
        -9.732077598571777
      ],
      [
        "مرة",
        -9.732232093811035
      ],
      [
        "😔",
        -9.732295036315918
      ],
      [
        "قلت",
        -9.732391357421875
      ],
      [
        "▁تقدري",
        -9.732449531555176
      ],
      [
        "▁جال",
        -9.733185768127441
      ],
      [
        "▁خت",
        -9.733325958251953
      ],
      [
        "▁الحالة",
        -9.733757019042969
      ],
      [
        "▁حاول",
        -9.733853340148926
      ],
      [
        "تخيل",
        -9.734333992004395
      ],
      [
        "▁الفردوس",
        -9.734452247619629
      ],
      [
        "▁جب",
        -9.735211372375488
      ],
      [
        "▁الاجابة",
        -9.735455513000488
      ],
      [
        "▁وأنت",
        -9.735642433166504
      ],
      [
        "▁صاحبي",
        -9.735969543457031
      ],
      [
        "رز",
        -9.73604679107666
      ],
      [
        "صغر",
        -9.736536979675293
      ],
      [
        "▁بوركت",
        -9.736738204956055
      ],
      [
        "▁قولو",
        -9.737703323364258
      ],
      [
        "لاحظ",
        -9.737780570983887
      ],
      [
        "صلاة",
        -9.737870216369629
      ],
      [
        "▁قع",
        -9.73801040649414
      ],
      [
        "▁الحم",
        -9.738046646118164
      ],
      [
        "▁ارحمه",
        -9.738242149353027
      ],
      [
        "أهل",
        -9.738757133483887
      ],
      [
        "▁تغ",
        -9.739206314086914
      ],
      [
        "30",
        -9.73965835571289
      ],
      [
        "▁جناته",
        -9.73978042602539
      ],
      [
        "▁صرات",
        -9.739964485168457
      ],
      [
        "▁اعرف",
        -9.739975929260254
      ],
      [
        "▁ho",
        -9.74050521850586
      ],
      [
        "ts",
        -9.74077033996582
      ],
      [
        "▁La",
        -9.741466522216797
      ],
      [
        "▁حلقة",
        -9.7415189743042
      ],
      [
        "وضع",
        -9.741978645324707
      ],
      [
        "وصل",
        -9.742049217224121
      ],
      [
        "▁رايك",
        -9.742098808288574
      ],
      [
        "▁حس",
        -9.742837905883789
      ],
      [
        "ڤ",
        -9.743900299072266
      ],
      [
        "▁وصلت",
        -9.74405574798584
      ],
      [
        "▁نزيد",
        -9.744149208068848
      ],
      [
        "ميمز",
        -9.744568824768066
      ],
      [
        "اخلاق",
        -9.744807243347168
      ],
      [
        "ستفاد",
        -9.7448148727417
      ],
      [
        "ظيف",
        -9.74489688873291
      ],
      [
        "▁عزيز",
        -9.745380401611328
      ],
      [
        "▁تجريبية",
        -9.745718955993652
      ],
      [
        "▁الأولى",
        -9.746099472045898
      ],
      [
        "▁ذو",
        -9.746217727661133
      ],
      [
        "▁مض",
        -9.746915817260742
      ],
      [
        "▁المقال",
        -9.746963500976562
      ],
      [
        "▁كتبت",
        -9.747421264648438
      ],
      [
        "▁دعاء",
        -9.747480392456055
      ],
      [
        "▁الجواب",
        -9.74765682220459
      ],
      [
        "▁اقرا",
        -9.747833251953125
      ],
      [
        "▁عذاب",
        -9.747949600219727
      ],
      [
        "▁رواه",
        -9.748065948486328
      ],
      [
        "حف",
        -9.748298645019531
      ],
      [
        "🙄",
        -9.748886108398438
      ],
      [
        "ريس",
        -9.749654769897461
      ],
      [
        "💓",
        -9.749794960021973
      ],
      [
        "▁عجب",
        -9.750335693359375
      ],
      [
        "▁العلوم",
        -9.750523567199707
      ],
      [
        "▁ذات",
        -9.750750541687012
      ],
      [
        "▁شيئا",
        -9.75239086151123
      ],
      [
        "▁مراجعة",
        -9.753194808959961
      ],
      [
        "الق",
        -9.753667831420898
      ],
      [
        "▁قصصك",
        -9.753813743591309
      ],
      [
        "▁النساء",
        -9.754254341125488
      ],
      [
        "واحد",
        -9.754295349121094
      ],
      [
        "▁ابو",
        -9.754387855529785
      ],
      [
        "▁الواقع",
        -9.754426956176758
      ],
      [
        "N",
        -9.754494667053223
      ],
      [
        "▁المرة",
        -9.754773139953613
      ],
      [
        "ضغط",
        -9.75540828704834
      ],
      [
        "▁mais",
        -9.755690574645996
      ],
      [
        "ستمر",
        -9.756197929382324
      ],
      [
        "بول",
        -9.757853507995605
      ],
      [
        "قس",
        -9.7578706741333
      ],
      [
        "🤦",
        -9.759852409362793
      ],
      [
        "▁ومت",
        -9.760454177856445
      ],
      [
        "▁الصوت",
        -9.76183795928955
      ],
      [
        "تعليم",
        -9.761934280395508
      ],
      [
        "dj",
        -9.762009620666504
      ],
      [
        "🤔",
        -9.762496948242188
      ],
      [
        "▁غالب",
        -9.763532638549805
      ],
      [
        "عراب",
        -9.76380443572998
      ],
      [
        "جبت",
        -9.764324188232422
      ],
      [
        "تقبل",
        -9.76440143585205
      ],
      [
        "▁معاها",
        -9.765408515930176
      ],
      [
        "▁si",
        -9.766338348388672
      ],
      [
        "▁مرات",
        -9.766677856445312
      ],
      [
        "درك",
        -9.766711235046387
      ],
      [
        "😊😊",
        -9.76703929901123
      ],
      [
        "ment",
        -9.768535614013672
      ],
      [
        "شعار",
        -9.769309043884277
      ],
      [
        "▁أجر",
        -9.769445419311523
      ],
      [
        "▁rak",
        -9.769728660583496
      ],
      [
        "▁الرجال",
        -9.770135879516602
      ],
      [
        "▁ye",
        -9.77039909362793
      ],
      [
        "😎",
        -9.770476341247559
      ],
      [
        "▁شب",
        -9.770486831665039
      ],
      [
        "▁حبس",
        -9.77066707611084
      ],
      [
        "▁مهما",
        -9.770965576171875
      ],
      [
        "▁😂❤",
        -9.770965576171875
      ],
      [
        "😹",
        -9.771870613098145
      ],
      [
        "▁والديا",
        -9.772257804870605
      ],
      [
        "ali",
        -9.772468566894531
      ],
      [
        "ندم",
        -9.773138999938965
      ],
      [
        "▁ترد",
        -9.773310661315918
      ],
      [
        "▁لذلك",
        -9.773355484008789
      ],
      [
        "▁سياسي",
        -9.773423194885254
      ],
      [
        "▁اسمها",
        -9.773513793945312
      ],
      [
        "▁نحكي",
        -9.773707389831543
      ],
      [
        "▁خارج",
        -9.773914337158203
      ],
      [
        "end",
        -9.774541854858398
      ],
      [
        "▁لغة",
        -9.774662971496582
      ],
      [
        "▁والس",
        -9.775138854980469
      ],
      [
        "تحرك",
        -9.77520751953125
      ],
      [
        "▁منيش",
        -9.776263236999512
      ],
      [
        "▁فطورك",
[...]
