#version: 0.2
Ø §
Ù Ħ
Ġ Ù
Ġ Ø
Ù Ĭ
Ø§ ÙĦ
Ù Ĩ
Ù ħ
Ø§ Ø
Ġ Ø§ÙĦ
Ù Ī
Ø ±
Ù ĩ
Ø ª
Ù ĥ
ĠÙ Ī
Ø ¨
Ø ¯
Ø ©
Ø ¹
ĠÙ ħ
Ø Ń
Ù Ĥ
Ù ģ
Ø ³
č Ċ
ĠØ ¨
ĠÙ ģ
Ġ ÙĦ
ĠØ ¹
ĠÙ Ĭ
Ø§ ÙĨ
Ø ¬
ĠØ ª
Ø ´
ÙĦ Ùĩ
ĠØ £
Ù ī
ÙĦ ÙĬ
ð Ł
Ø µ
ĠÙģ ÙĬ
ĠÙ Ĩ
ĠÙ ĥ
ĠØ ±
Ø ®
ÙĬ ÙĨ
ĠÙħ ÙĨ
Ø £
Ø ·
Ø§Ø ±
Ø§Ø ª
Ø§ Ùħ
Ø ²
ĠØ§ÙĦ ÙĦÙĩ
ĠÙ ĩ
Ø °
ÙĬ Ø±
Ø ¶
Ġ Ø§Ø
ÙĨ Ø§
Ùĩ Ø§
ĠÙ Ĥ
ĠØ Ń
ĠØ§ÙĦ Ùħ
ÙĦ Ùī
ÙĬ Ø©
ðŁ ĺ
. .
Ø¨ ÙĬ
ĠØ ´
ÙĦ Ø§
Ùĩ Ùħ
ÙĪ ÙĨ
Ø§Ø ¨
Ø «
ĠØ ³
ĠÙĪ Ø§ÙĦ
Ø§Ø ¡
ÙĦ Ùħ
Ø¯ ÙĬ
Ø§Ø ¯
Ø Į
Ø± ÙĬ
Ø§ Ùĥ
ÙĪ ÙĦ
ĠØ ¬
ĠØ ¥
Ø§Ø ³
ĠØ ®
ĠØ ¯
Ø º
ĠØ¹ ÙĦÙī
Ġ Ø§ÙĨ
Øª ÙĬ
Ø§Ø ¹
â Ŀ
Ùħ Ø§
ĠØ µ
âĿ ¤
ĠØ¹ ÙĦÙĬ
Ùĥ Ùħ
ĠØ§ÙĦ Ø¹
ĠØ Į
ĠØ¹ ÙĨ
Ø§Ø Ń
ÙĪ Ø±
Ø§ Ùģ
Ø§ ÙĬ
.. .
Ø§ Ùĩ
ÙĨ ÙĬ
ĠØ£ ÙĨ
ØŃ Ùħ
Ø§Ø ¦
Ø ¥
Ø ¸
ÙĦ Ùĥ
ĠØ¨ Ø§ÙĦ
ĠÙĦ ÙĬ
ĠÙħ Ø¹
Ùĥ Ø±
Ø§Ø ´
ĠØ§ÙĦ Ø£
ÙĪ Ø§
Ø° Ø§
ðŁĺ Ĥ
Ø§Ø °
ÙĪ Ùħ
Ùģ ÙĬ
Ø³ Øª
Ø§Ø ¬
Ø§ ÙĪ
ĠØ§ÙĦ Ø³
ĠØ§ÙĦ Ø¬
ĠØ§ÙĦ Øª
ĠØ§ÙĦ ÙĨ
ĠØ§ÙĦ ØŃ
ĠÙħ Ø§
ĠØ§ÙĦ ÙĤ
Ø¨ Ø±
ÙĬ Ø¯
Ġ ðŁ
ÙĦ Ø§Ùħ
Ùħ ÙĨ
ĠÙĦ Ø§
ĠØ§Ø ³
ĠØ º
ĠØª Ø¹
Ġ .
Ùģ Ø±
ÙĦ Ø©
Ġ :
Ġ (
ĠØ§ÙĦ Ø¨
ĠØ ·
Ø¯ Ø±
Ø¹ Ø¯
ĠØ§ÙĦ Ø´
ÙĦ ÙĪ
Ø± Ø¨
Ø§ÙĨ ÙĬ
Øª ÙĪ
O N
E N
T I
M EN
TI ON
MEN TION
Øµ ØŃ
ÙĪ Ùģ
ÙĨ Øª
Ùħ ÙĬ
Ġ ...
ĠØ± Ø¨ÙĬ
ÙĤ ÙĬ
ĠÙĥ ÙĬ
Ø Ł
ĠÙĦ ÙĦ
Ø± Ùĥ
Ġ âĿ¤
Ġ -
ĠÙĥ ÙĦ
ÙĬ Ø§
ÙĬ Ø¨
ĠØ¹ÙĦÙĬ Ùĩ
ĠØ§ÙĦ Ø±
Ø± Ùģ
Ø³ ÙĦÙħ
ĠÙĥ Ø§ÙĨ
Ġ 1
Ø± Ø©
Ùĥ ÙĪÙĨ
Ùħ Ø¹
ĠÙĤ Ø§ÙĦ
Ġ ðŁĺ
ĠÙĪ ÙĦØ§
Ùĥ ÙĨ
ĠØ °
Ùħ Ø±
Ø¹ ÙĪ
Øª Ùĩ
ÙĤ Ø¯
ÙĤ Ø©
Ø³ ÙĬ
Ġ "
ĠÙĩ Ø°Ø§
Ø¯ Ø©
ĠØ§ÙĦ Ùĥ
Ø§ÙĦ ÙĦÙĩ
Ø§ÙĨ Ø§
ĠØ§Ø³ Øª
ĠÙĪ ÙĬ
Ø§Ø± Ùĥ
ĠÙĬ ØŃ
ĠÙĪ Ø£
Ø¹ Ø©
Ø¨ Ø©
Ø§Ø µ
Ø± ÙĪ
Ġ 2
Ø ¢
ĠØª ØŃ
Ùħ Ø©
ÙĤ Øª
Ø ¤
Ùĥ ÙĬ
Ø ¦
ĠÙĬ Ø¹
ĠØ§ÙĦ Ø¯
o u
ĠØ ²
ĠØ§ÙĦ Ø®
ĠØ§ÙĦ Øµ
Ø§Ø³ Øª
ĠØ§ÙĨ Ø§
ĠÙĬ Ø§
Ø§Ø ²
Ø¯ÙĬ ÙĪ
ĠØ «
ÙĦ Øª
Ø¯ Ø§
ĠÙĩ ÙĪ
ĠØ§ÙĦ Ø¥
ĠØ§ÙĦ Ùģ
ĠØ£ ÙĪ
ĠØ¹ÙĨ Ø¯
Ø® Ø±
ĠØ¨ ÙĨ
ĠÙĪ Øª
ÙĨ Ø©
ĠØ Ł
Ġ l
ÙĬ Ùĥ
ĠØ§ÙĦ ÙĪ
ĠØ§Ø ®
Ø§Ø ®
h a
ÙĤ ÙĪÙĦ
Ø± ØŃ
Ġ m
Ø± Ø¨ÙĬ
ĠÙĪ Ùĩ
ÙĬ Ùħ
ÙĥØ± Ø§
Ġ t
ĠØ§ÙĦ Ø°
ĠØ´ Ø§Ø¡
ĠØª Ø§Ø¹
ĠÙĦ Ùħ
ĠØº ÙĬØ±
ØŃÙħ Ø¯
ÙĪ Ø¬
ĠØ¥ ÙĦÙī
Ø¨ ÙĦ
Ø§Ø ·
Øª Ùī
ÙĦ Ø¨
Ø§Ø ©
Ùģ Ø³
ĠÙĪ ÙĨ
ĠÙĨ Øª
Ø¨ Ø¯
Ġ Ø§Ùħ
Ġ ðŁĺĤ
ĠÙĩ Ø°
ÙĪ Ø¯
Ùĥ ÙĦ
ÙĦ ÙĤ
Øª Ùĥ
ØŃ ÙĬ
Ø¹ Ùħ
Øª Ùħ
Ø³ ÙĦØ§Ùħ
Ø§Ø ¶
ĠÙĪ ØŃ
ÙĪ Ø¹
â Ģ
Ùģ Ø¸
ÙĤ Ø±
ĠÙħ Øª
ĠÙĪ Ø³ÙĦÙħ
Ø§ÙĦ Ùħ
Ø§Ø± Ø¨
Ø¹ Ø¨
Ø¹ ÙĦ
ĠØ§Ø ¨
ĠÙħ Ø´
ĠÙĪ Ùħ
ÙĤ Ø§ÙĦ
ÙĪ ÙĬ
ĠØ¥ ÙĨ
Øª Ø¨
ĠÙĦ Ùĩ
ĠÙĪ Ø¬
Ø¯ ÙĬØ±
Ø ¡
ØŃ Ø¨
Ø³ Ùħ
ĠÙĪ ÙĦ
ĠØ§ÙĦ Ø·
ĠØ§ÙĦ ÙĬ
ĠØ± ÙĪ
Ø³ Ø¨
r a
Ùģ Ø©
Ø§ ÙĤ
ĠÙĬ Ø¬
ĠÙĪ Ø±
ÙĦ ÙĨØ§
ĠØ¨ Ø²
ØŃ Ùĥ
ÙĪ Ùĥ
Ġ b
ĠØ® ÙĬØ±
ï ¸
ï¸ ı
ÙĬ Øª
Ø£ ÙĨ
Ġ a
ÙĬ Ø®
Ø³ ÙĨ
ĠØŃ ØªÙī
- -
ĠØ ¢
ĠØµ ÙĦÙī
e s
ÙĪ Øª
ðŁ ¤
Ø§Ø¯ Ø©
ØŃ Ø©
ÙĬ Ø§Øª
ĠÙĪ Ø¹
ĠÙĬ ÙĨ
ĠÙĦ Ùĥ
Ø± Ø¬
ĠØ¨ ÙĦ
Ø¥ ÙĨ
Ø® ÙĦ
ĠØ ¶
Ġ d
Ø² Ø§Ø¦
ÙĤ ÙĪ
Ø« Ø±
Ø± Ø¶
c h
Øª ØŃ
Ø¹ ÙĬ
o n
i n
ĠÙĪ Ø¨
Ùħ ÙĦ
Ġ2 0
Ġ 3
ĠØ¨ Ùĩ
Øµ ÙĦ
ĠÙĪØ§ÙĦ ÙĦÙĩ
ÙĦÙĩ Ø§
Ġ )
ĠØ¹ÙĦÙĬ ÙĥÙħ
ÙĪØ± Ø©
ĠØ§Ø³Øª Ø§Ø°
ÙĨ Ø³
ĠØ¨ Ø¹Ø¯
ĠÙĪ Ø§ØŃ
ÙĪ Ø³
Ùĥ Ø§ÙĨ
Ø§ÙĦ ÙĬ
Ùģ Ø¶
Ġ s
Ø§Ùħ ÙĦ
ĠØ§ÙĦ ØªÙĬ
Ġ Ø§ÙĪ
ĠØ¨ Ø¹
ĠØ° ÙĦÙĥ
ĠÙģÙĬ Ùĥ
Ġ w
ĠØ¨ ÙĬÙĨ
Øª Ø§Ø¨
l a
Ùĩ Ø±
r e
Øª Ø±
ĠØ£ Ø®
Ø² ÙĬ
* *
Ø¬ ØŃ
ĠÙĬ Ø±
Ùĩ ÙĦ
ĠÙģ Ø§ÙĦ
Ø¯ Ùħ
Ġ n
ĠÙĩØ° Ùĩ
ĠÙĨ Ø´
ĠØ§Ø Ń
Øµ Ø©
ĠÙĩ ÙĬ
ĠÙĦ ÙĦÙĩ
ÙĬØ± Ø©
ĠÙģÙĬ Ùĩ
ĠÙħ Ø±
ðŁ Ĵ
ÙĬÙĨ Ø§
ĠðŁ ¤
ĠØ¨Ø² Ø§Ùģ
Øª Ø´
Ġ Ø§
ÙĦ Ø³
Ø¯ ÙĪ
ĠÙħ ÙĪ
Ġ f
Ø® Øµ
Ø¨ ØŃ
ĠØ§ÙĦØ° ÙĬ
Ø¨ Ø§Ø±Ùĥ
Øª ÙĩØ§
ĠØ§ÙĦ Ø«
ĠØ¨ ÙĬ
ĠÙĥÙĬ Ùģ
Ø· ÙĬ
Ø¶ ÙĬ
ĠÙħ ØŃ
Ġ y
Ø§Ø¯ ÙĬ
ÙĪ Ø¨
ĠØ¯ ÙĬØ±
ĠØ£ Ùħ
Ø§Ø³Øª Ø§Ø°
ĠÙģÙĬ ÙĩØ§
Ġ Ø§ÙĬ
Ġ [
ĠØ± Ø¨
ĠÙĪ Ø´
ÙĦ Ùģ
ĠØ± Ø§Ùĥ
ÙĬ Ø´
Ġ k
Ø§ÙĦ Ùī
ÙĤ Ø·
ĠÙĦ ÙĪ
ĠØ£ ÙĬ
ĠØª Ø¬
Ġ Ø§Ø±
Ġ c
Ø§Ø± Ø©
ĠØ§Ø ¯
ÙĪ ÙĦÙĬ
e r
ĠÙģÙĬ Ø¯ÙĬÙĪ
ÙĬ ÙĦ
ĠÙĩ ÙĨØ§
ĠÙĪ ÙĦÙĬ
Øµ Ø±
Ø³ ÙĪÙĦ
ĠÙĨ ØŃ
ĠâĿ¤ âĿ¤
e n
ĠØ¨ ØµØŃ
Ġ âĢ
Ġ p
Ø« ÙĦ
Ø´ Ø±
ĠØ§ÙĦÙĦÙĩ Ùħ
Ø¨ Øª
ĠØ§ÙĦØ¬ Ø²Ø§Ø¦
ĠÙĨ Ø¬
ĠðŁĺĤ ðŁĺĤ
ĠÙĪØ§ØŃ Ø¯
ĠØ´ ÙĬ
Ø§Ø¨ Ø©
ĠØ¥ ÙĦØ§
Ø§Øª Ùĩ
ĠÙĬ Ø§Ø±Ø¨
ĠØ§ÙĦ Øº
ĠÙĩ Ùĩ
ĠÙĬ Øª
Ø§ ÙĬÙĨ
ðŁĺ ¢
ÙģÙĬ Ø¯ÙĬÙĪ
ĠÙħ ÙĬ
ĠÙĬ ÙĪÙħ
ĠØ´ ÙĥØ±Ø§
ĠØ® ÙĪ
Ø§ ÙĬØ©
Ø¹ Ø±
Ġ20 2
ĠÙħ Ø³
ĠÙĥ ÙĨØª
ØŃ Ø¯
0 0
Ø¶ Ø§
ÙĤ ÙĦ
ÙĪÙĨ ÙĬ
Ø§Øª Ùĥ
ĠØ§Ø ¹
ĠØªØ¹ Ø§ÙĦÙī
ĠÙĬ Ø´
ÙĤ Ø¯Ø±
ÙħÙĬ Ø¹
Ø¨ Ø¹
ĠÙĪ ÙħÙĨ
a n
ĠÙĥ ÙħØ§
ĠÙĨ Ø³
ĠØ¨ ÙĦÙĬ
ĠÙĬØŃ ÙģØ¸
Ùħ Øª
ĠØª ÙĪ
ĠÙĨ ÙģØ³
ĠØ± Ø§ÙĨÙĬ
ĠÙĥ Ø§ÙħÙĦ
ĠØ§ÙĦØ¨ Ø§Ùĥ
ÙĪ Ø´
ĠØ¹ÙĦÙĬ Ùĥ
ĠÙħ Ø¬
ĠÙĦ ÙĥÙĨ
Ø¨ Ùĩ
Ùģ Øª
ĠØ± Ø§Ùĩ
ĠØ¨ Ùĥ
ĠØ¯ Ø±
ĠÙĬ ÙĥÙĪÙĨ
Ø§Ø¹ Ø©
ĠØ§Ø¨ ÙĨ
ĠØ« Ùħ
ÙĪ Ø±ÙĬ
ĠØ³ ÙĬ
Ùĩ Ø¯
ĠØ§ÙĦÙħ ÙĪ
ĠØ§Ø ¬
ĠØ§ÙĦ Ø²
ĠØ¹ Ø¨Ø¯
ĠÙĩ ÙĦ
ĠØ§ÙĦÙĤ Ø±
ĠØ± ØŃÙħ
i s
ĠØ§ÙĦÙĨ Ø§Ø³
Ø¨ ÙĪ
Ø³ Ø±
ĠÙĤ Ø¯
ØŃ Ø±
Ø¹ÙĪ ÙĦÙĬ
Ùħ ÙĪ
ĠÙĬ Ø®
ĠØ§ÙĦ ØµØŃ
ÙĪÙģ ÙĤ
Ø§ ÙĩÙħ
Ø« ÙĬØ±
ĠØª Ø´
Ġ Ø§Ùĥ
Ùħ ÙĥÙĨ
Øº ÙĬØ±
Ã ©
Ø¹ ÙĦÙħ
Ø¯ ÙĬÙĨ
Ø§ÙĦ Ùĥ
Ø· Ø©
ĠÙħ ØŃÙħØ¯
ĠØµ ØŃ
ĠÙĬ Ø¯
Øµ Øµ
Ø¨ Ø§
ĠØª ÙĨ
ĠÙģ Ø¶
ĠÙĤ Ø¨ÙĦ
Ø¬ ÙĦ
l i
ĠØ¨ Ø±Ùĥ
ĠØ§ÙĦØ¹ ÙĦÙħ
Ùģ Ø¹
ĠÙĪ ÙĬÙĨ
ĠØ¨ Ø§Ùĥ
Ø§ÙĦÙĦÙĩ Ùħ
= =
ĠØ§ÙĦØ³ ÙĦØ§Ùħ
ĠØ§ÙĦØ¬Ø²Ø§Ø¦ Ø±
ĠØ± Ø³ÙĪÙĦ
ĠØª ÙĤ
Ùģ ÙĩÙħ
ÙĪ Ùĩ
ĠÙħ ÙĦÙĬ
ĠØ¥ ÙĦÙĬ
n a
t i
Ø´ ÙĥØ±Ø§
ĠðŁĺ ¢
âĿ¤ âĿ¤
Ø³Øª Ø§Ø°
Ø§ÙĦ Ø©
Ø¢ ÙĨ
ĠÙĥØ§ÙĨ Øª
İ ī
ĠØ§ÙĦ ÙĦ
ÙĦÙĬ ÙĦ
Ø§Ø «
Ø§Ùħ Ø©
ĠÙĪ Ø§Ø´
ĠØ§ÙĨ Øª
Ø² ÙĬØ¯
Ġ h
Ø¯ÙĬ Ø«
ĠØ¹ Ùħ
ÙĪ Ø©
ĠÙħ Ø§Ø´
ĠÙĪ Ùĥ
Ø¹ Øª
ĠÙĪÙĩ ÙĪ
Ø§Ø± ÙĬ
ÙĪ ÙĤ
ĠÙģ Ø±
ĠØ¨Ø¹ Ø¶
a r
ĠØ¨ Ø¯
ðŁĺĤ ðŁĺĤ
Ø° ÙĦÙĥ
ĠØ§ÙĦØ¹ Ø§ÙĦÙħ
Ø®Ø± Ø¬
_ _
ĠðŁ Ĵ
Ø¹ Ø±Ùģ
ĠÙĪ Ùģ
ĠÙĬØŃÙģØ¸ Ùĥ
Ġ Ø§Øª
ÙģØ± Ø¬
ĠÙĬ ÙĤÙĪÙĦ
ÙĬÙĨ ÙĬ
ĠØ¥ Ø°Ø§
ĠØª Øª
ĠØ¨ Ø§Ø±Ùĥ
ĠÙĪ Ø³
ĠÙĪ ÙĦÙĥ
Ø³ Ø§ÙĨ
ÙĦÙĩ Ùħ
ĠÙĬ Ø³
ĠØ§ÙĦÙħ ÙĨ
Ġ Ø§Ùģ
ĠÙĦ Ø£ÙĨ
ĠØ¨Ø§ÙĦ Ùħ
Ø§Ø° Ø§
Ġ ,
ĠÙĪØ§ÙĦ Ùħ
ĠØ§ÙĦÙĨ Ø¨ÙĬ
Ø¬ Ø±
ĠØ¹ ÙĦ
ĠØŃ Ùĥ
Ø§ ÙĪÙĦ
Ø§ÙĦ Ø³ÙĦØ§Ùħ
-- --
ÙĩÙħ Ø§
Ø´ ÙĬ
Ġ v
ĠØ¹ÙĨ Ùĩ
ĠØ¨ Ùħ
ĠØ§ÙĦÙħ Ø±
ĠØ¨ Ø±
ĠØª Ùħ
o m
ÙĨ Ø¯
ĠØ§ÙĦ Ø§Ø³
ĠØª Ø³
ĠÙĪ Ø¥
Ø±ÙĬ Ùħ
ĠÙĪ Øµ
ĠÙĦ Ø¨
Ø§ÙĦ ØŃ
ĠØ¹ ÙĦÙħ
Ġ 4
Ùħ ÙĬÙĨ
ĠØ¨ Ø§Ø´
Ùħ Ø§ÙĨ
Ø¸ Ø±
Ùĩ ÙĪ
Ø· Ø±
Ø±Ø¨ ÙĬØ©
ĠÙĩ Ø§Ø¯
ĠØ§ÙĦÙħ Ø´
ĠØª Ø®
ĠØª ÙĥÙĪÙĨ
a l
e l
ĠØ£ Ø³
ĠØ§ÙĦ ÙģØ±
i d
Ø² ÙĤ
Ø¨ ÙĤ
ĠØ§ÙĦ Ø§ÙĨ
ĠØŃ ÙĬ
ĠÙĤ Ø±
Ø¯ÙĬ Ø¯
ĠÙĨ Øµ
ĠØ§ÙĦ Ùī
ĠÙħ Ø§Øª
ÙĪØ±ÙĬ Ø§
ĠÙĪ ÙĤ
Ø§Ø¬ Ø©
ðŁ ¥
Ø² Ø§Ùĥ
Ø¶ ÙĪØ¹
Ø· ÙĦ
ĠÙĬ Ø³Øª
ĠØŁ ØŁ
ĠÙĦ ÙĦÙħ
ĠØ ¸
Ø¶ ÙĦ
ĠÙħ Ø³Øª
ĠØª Ø±
Ø¬ Ø¨
ĠÙĪ ÙģÙĬ
ÙĪ Ø§Øª
ĠØ¯ Ø§Ø±
Ø¯ Ùī
ĠÙĬ ÙĪÙģÙĤ
ĠÙģ Ø¥ÙĨ
ĠÙĥÙĬ ÙħØ§
ĠÙĦ Ø¹
Ġ â
ĠØ£ ÙĨØ§
ÙĦÙĬ Ø©
Ġm a
ÙħÙĨ Ùī
t a
ÙĬ Ø¹
ĠØ£ÙĨ Ùĩ
Ø° Ùĩ
ĠØ± Ø§ØŃ
ĠØ¹ÙĦÙĬ ÙĩØ§
Ø¤ Ø§ÙĦ
ĠÙĬØ± ØŃÙħ
Ø§Ø º
ĠØ¹ ÙĦØ§
ĠØ£ Ùĥ
Ø§ÙĦ ÙĪØ±ÙĬØ§
ĠØ®ÙĪ ÙĬØ§
ĠÙĪ Ø§ÙĨ
Ø´ Ø§Ø¡
ØŃ ÙĪ
ÙĨ Ùī
Ø¯ Øª
Ø³ Ø©
ĠØ§Ø °
ĠÙĥ ØªØ§Ø¨
ĠØ§ÙĦ ÙģÙĬØ¯ÙĬÙĪ
ĠØ§ÙĦÙħ Ø¬
Ø¯ Ùĩ
ðŁĺ Ĭ
ĠØ¨ ÙĩØ§
ØŃ ÙĤ
Ùĩ ÙĬ
ĠØ¹ÙĨ Ø¯ÙĬ
Ø· ÙĬÙĥ
ÙģÙĬ ÙĤ
Ġ 5
i r
ĠÙĦ Ø£
ÙĪ Ø²
ĠÙĦÙĬ Ø³
ĠØ§ÙĦÙħ Ø³ÙĦÙħ
o r
i t
Ø¯ ÙĦ
Ø§Ø± ÙĬØ®
ĠØ®ÙĬØ± Ø§
ĠÙĪ ÙħØ§
ĠÙģ Ø£
ØŁ ØŁ
Ġ g
ĠØ§ÙĦÙħ Ø³
Ļ Ĥ
ĠÙĬ ÙĤ
Ø§Ø² Ùħ
ÙĬÙĨ Ø©
ĠðŁ¤ ²
ĠØ§ÙĦ Ø¢
ĠÙĥ Ø§ÙĬÙĨ
ØŃÙħ Ø©
ĠØª Ø¨
ĠØ´ÙĬ Ø¡
Ø±ÙĬ ÙĤ
ĠÙĩ Ø§Ø°
ĠÙĨØ¬ ÙĬØ¨
ĠØ¨ Ø£
Ùĩ Ø§Ø±
ðŁĺ Ń
Ú ¨
y a
ĠØ¹ Ø§Ùħ
Ø§ÙĨ ÙĬØ©
ĠØ® ÙĦ
Ø§Øµ Ø©
ĠÙħ ÙĦ
ÙģØ¶ ÙĦ
ÙĪ Ø§ÙĨ
Ø§ÙĦ Ùĩ
ĠÙģ ÙĤØ·
ĠØ§ÙĦ Ø§Ø®
ĠØ§ÙĦÙĬ ÙĪÙħ
a h
ĠØ§ÙĦØ¥ Ø³ÙĦØ§Ùħ
ĠÙħ Ø®
ĠÙĬØ¹ ÙĨÙĬ
Ø¹ ÙĪÙĨ
ĠÙĪ ÙĤØ§ÙĦ
ĠØ§Ø ´
Ø±ÙĬ Ø¨
ĠØŃ Ø¨ÙĬ
Ø§ÙĬ Ø§
ĠÙĥ Ø¨
ÙĦ Ø§Ø©
Øº ÙģØ±
ĠÙĥ Ø«ÙĬØ±
ðŁ¤ ²
ĠØ¬ ÙħÙĬØ¹
ĠÙħÙĨ ÙĩØ§
ÙĪÙĦ Ø©
ĠØ¹ Ø¨
ðŁ ı
ĠØ§ÙĦ ØŃÙħØ¯
ĠØ± Ø¬
Ø¹ ÙĦÙĬ
ðŁ İī
ĠÙĪ ÙĤØ¯
ĠðŁ ¥
ĠØ£ Ø¨ÙĬ
Ø§Ø¯ Ø±
ĠØ± Ø¶ÙĬ
Ø§Øª ÙĬ
ĠÙĨ ØŃØ¨
Ø¬ Ø©
Ùħ Ø§ÙĦ
ĠÙĦ ÙĩØ§
Ø§Ø± Ø¨ÙĬ
ĠØ± Ø§Ø¬
ĠÙħÙĨ Ùĩ
l e
Ø¯ Ùĥ
d a
ĠÙĩ Ùĥ
Ø¶ Ø¹
ĠÙĦ ÙĨØ§
ĠØ¹ ÙħØ±
ĠÙĬ Ùĩ
Øº Ø©
ĠØ§ÙĦ Ø¯Ø±
ĠØ§ÙĦÙħ Ø¹
Ġ ha
ÙĤ Øµ
ĠØ§ÙĦØ£ Ùħ
ÙĬ Ùĩ
ĠÙħ Ùĥ
ðŁĺ ħ
Ġ Ø§Ùĩ
Ø¨Ø± Ùĥ
ĠØ§Ø® ØªÙĬ
ĠÙĪÙĦÙĥ ÙĨ
ĠÙħ Ø«
ĠØ§ÙĦ Ùĩ
Ø¹ Ø¨Ø©
ÙĪ ØªÙĬ
Ø±ÙĬ ÙĤØ©
ÙĤ Ø§
Ġ ra
ĠÙĦ Ø§ÙĨ
ĠØª Øµ
ÙĨÙĬ Ø§
ĠØ§Ø® ÙĬ
ĠØ³ ÙĨØ©
Ø° ÙĥØ±
e t
ĠØ§ÙĦØ¬ ÙĨØ©
ĠÙĪ ÙĤØª
ĠØ§ÙĦ Ø§
ÙĪ Ø§Ø¨
ĠØ§ÙĦÙĤØ± Ø¢ÙĨ
âĿ¤ ï¸ı
Ġ j
m a
ÙĦÙĬ ÙĨ
Ġ *
ĠØ¬ ÙĨ
ĠØ¯ ÙĬ
Ø§ÙĦ Ø¨
Ùħ Ø³
Ùħ Ø¶
ĠØ§Ø³ Ùħ
ĠÙĨ ÙĨ
Ø¶ Ø±
ĠÙĪ ÙĦÙħ
ĠØ£ Ø¹
Ø¯ Ø¯
Ùĩ Ùĩ
ðŁ¤ £
ÙĪ ÙĬØ©
Ø® ÙĬØ±
ĠÙĪ Ø¥ÙĨ
ÙĪ Ø§ÙĦ
ÙĬ ØŃ
ĠÙģ Øª
ÙĪ Øµ
ĠÙģØ¶ ÙĦÙĥ
ÙĤ Ø¹
ĠÙħØ§Ø´ ÙĬ
ĠØª Ùģ
ÙĪ Ø§ÙĦÙĦÙĩ
ðŁ ĳ
Ġ1 9
ÙĬØ¨ Ø©
Ø§Ø³ ÙĬØ©
Ø¨ Ø§ØŃ
Øª ÙĦ
i l
ĠØŃ Ø±
ÙĦÙħ Ø©
Øº ÙĬ
ĠØ§Ø µ
ĠØ§ÙĦØ® ÙĬØ±
ĠØ£ ØŃØ¯
ĠØ£ ÙĩÙĦ
Ø Ľ
Ø±ÙĬ Ø¯
ĠÙħ Ø±Ø©
ĠØ§Ø° Ø§
ĠØ§ÙĦ Ø¨ÙĬ
Ùĥ ÙĪ
ĠÙĪØ§ÙĦ Ø£
ÙĤÙĬ ÙĤØ©
ĠÙħ Øµ
ĠÙģ ÙĤØ§ÙĦ
Ø±ÙĪ ØŃ
Ø¸ ÙĬÙħ
ĠÙĬÙĨ Ø¬ØŃ
ĠÙĦ ÙĨ
ĠØ³ ÙĨ
ĠÙĤ ÙĦØª
ĠÙĤ ÙĦ
Ø¤ ÙħÙĨ
Ùħ Ø§Ùħ
ĠØ§ÙĦ Ø§Ùħ
Ø² Ø©
ĠØ§ÙĦØ´ ÙĬØ®
ĠØ¨Ø§ÙĦ ÙĦÙĩ
ĠØ§ÙĦ ÙĦÙĬ
ĠØ± Ø£
ĠØ£ ØŃ
** **
Ø§Ø¦ ÙĦ
ĠÙĬ Øµ
ĠÙħ ÙĤ
ĠØ° ÙĥØ±
ĠØ£ Ø¬
Ø¬ Ø§ØŃ
ĠÙĤ ØµØµ
ĠØ¬ Ø§Ùħ
ĠÙĪØ£ ÙĨ
ÙĪ ÙĦÙĩ
Øº Ø±
b i
Ø¨ Ø§Ø¨
ĠØ§ÙĦØ¯ ÙĬÙĨ
ĠÙĨ Ø¹
Ø¹Ø¯ ÙĦ
Ø¨ØŃ Ø§ÙĨ
ĠØ¥ÙĦÙĬ Ùĩ
ĠØ´ Ø±
Ġ !
ĠØµ ØŃÙĬ
ĠØ£ Øµ
ĠØ§ÙĦØ° ÙĬÙĨ
ĠØ§ÙĦÙħ ØŃ
ÙģØ± ØŃ
Ø¯ÙĬ Ùĥ
ĠÙĬ Ø¨Ø§Ø±Ùĥ
Ø¶ ØŃÙĥ
ĠØ£ Ø³ØªØ§Ø°
ĠØ³ Ø¨ØŃØ§ÙĨ
Ø§ÙĦ Ø§
ĠØ® Ø·
ÙĬØ¯ Ø©
ĠØŃ Ø³
ĠÙĪ Ø§ÙĨØ§
ĠÙĨ Ø¯ÙĬØ±
Ø¬ Ùħ
ĠÙĪØ§ÙĦ Øª
a s
Ø§Ø³ ÙĬ
ĠØ£ Ø±
Ø° ÙĬ
ĠØ¨ Ø´
Ø¯ Ø¹
ĠØ¨ Ø§Ø¨
ĠÙĤ ÙĨ
h e
ÙĤØ± Ø§
ĠÙĪØ± ØŃÙħØ©
Ø§ÙĪ ØªÙĬ
ØŃ Ø§ÙĦ
ĠØŃ Ø§Ø¬Ø©
ðŁı »
ĠØ±ØŃÙħ Ùĩ
ĠØ± ÙĬ
ÙħØ¶ Ø§ÙĨ
Ùĩ ÙĦØ§
ĠØ£Ø® ÙĬ
ĠØ§ÙĦØ´ ÙĬ
2 0
Ø§Ùĥ Ùħ
ĠØ§ÙĦ Ø§Ø³Øª
ĠÙĤ Ø§Ø¹
ĠØ¹ÙĦÙĬ ÙĩÙħ
ĠÙĦ Ø§Ø²Ùħ
ĠØŃ Ø³ÙĨ
ĠÙĪ ÙĥØ§ÙĨ
ĠÙĪ Ø®
ĠØ§ÙĦØ¹Ø§ÙĦÙħ ÙĬÙĨ
Ġl a
Ø² Ø§ÙĦ
ĠÙĨ Ø¨
ĠØ§ÙĦØ¬ ÙĨ
Ġ Â
Øª ÙĩÙħ
ĠØª Ùĥ
Ø§ÙĬ Ø§Øª
ĠÙģ ÙĦØ§
r o
) .
ĠâĿ¤ ï¸ı
ĠÙĦ Øª
t e
ĠØ¨ ÙĦØ§
Ø¯ ÙĤ
ĠØµ Ø±
Øª ÙĨØ§
ĠØ² ÙĪØ¬
Ø° ÙĨ
ĠØ´ Ø®Øµ
ĠÙģ ÙĦ
ĠØ§ÙĦØª ÙĪ
Ø² ÙĦ
9 9
Ø§Ùģ Ø©
ĠØª Ø³Øª
ĠÙĦ ÙħØ§
ÙĦÙĪ Ø¨
ĠÙĨØ´ ÙĪÙģ
ĠÙģ ÙĩÙħ
ĠÙĥ Ùħ
ĠØ§ÙĦÙĥ Ø±ÙĬÙħ
Ø³ ÙĦ
ĠÙĤ ØµØ©
ÙĪ ÙĬØ§
ĠØ¹ÙĦÙĬ ÙĨØ§
ĠØ¹ÙĨØ¯ Ùĥ
ĠØŃ ÙĬØ§Øª
ĠØ§ÙĦØ³ ÙĬ
ĠðŁĺ Ĭ
ÙĤ Ø§Øª
ðŁ ĩ
Ùģ ÙĦ
ĠÙħ Ø¨
ĠÙħ Ø«ÙĦ
ĠØ§ÙĦÙħØ³ÙĦÙħ ÙĬÙĨ
ÙĨ Ø§Ø¡
ÙĥÙĬ Ùģ
ĠØ¬ Ø¯Ø§
Øº ÙĦ
ĠÙħ ÙĥØ§ÙĨ
ĠØ´ Ùĩ
Ġ /
ĠØ§ÙĦÙħ Øª
ĠÙĬ Ùĥ
Ø§Ùħ Ø§
Ø£ Ø©
ĠØ§ÙĦÙħ ÙĨØª
ĠÙĨ ÙĪØ±
ĠØ§ÙĦØŃ ÙĬ
Ùģ ÙĪ
Ġ 9
ĠØ¨ Ø¥
d i
ĠÙĦ ÙĩÙħ
ĠÙĪØ§ÙĦ ÙĪ
ĠØ§ÙĦØ¹ Ø§Ùħ
ØŃ Ø´
ĠØ¨ Ø³
Ø§ØŃ Ø©
ÙĤ Ùħ
ØªÙĪ Ùī
ĠÙĦÙĪ ÙĦØ§
Ġ 7
ĠðŁĺ ħ
Ø¯ Ø§Ø±
Ø² ÙĪØ¬
Ġ 6
ĠØ§ÙĦÙħ Ø³Øª
Ø¯ Ø«
ĠÙĬ Ø¨
ĠØŃ Ùħ
== ==
Ùĩ Ø§Øª
ĠØ³ ÙħØ¹
ĠØ§ÙĦØŃ Ø¯ÙĬØ«
Ø§Ø³ Ø©
ÙĤ Ùĩ
ĠÙĨ ÙĤÙĪÙĦ
Ø§ ÙĬØ±
ĠØ§ÙĦØ¹ Ø¨
ĠØ§ÙĦØ¨ Ùĥ
ĠØ§ÙĦØµ ÙĦØ§Ø©
Ø¶ Ø§Ø¡
ĠÙĬ Ø¯ÙĬØ±
ÙĤ Ø¨
Ļ ¥
ĠØ§Ùħ ÙĬÙĨ
Ġt a
ĠÙĪÙĩ Ø°Ø§
q u
b a
ĠØª Ø£
Ø¹ ÙĨ
ĠÙĨØª Ø§Ø¹
ĠÙģ ÙĤØ¯
Ùĥ Øª
ĠØ¨ ØŃ
Ø¹ ÙĬÙĨ
ĠØ¨ ÙħØ§
ĠÙĬ ÙħÙĥÙĨ
ĠÙĨØª Ø§
Ø± Ø§Ùĥ
ĠÙģ Ø±ØŃ
Ø² Ø§ÙĨ
Ø¸ Ùħ
ĠØ§ÙĦØŃ ÙĤ
ĠÙĥ ÙĪÙĨ
ĠØ§ÙĦØµØŃ Ø©
ĠÙĤ ÙĪÙĦ
ĠÙĪ Ø±Ø¨ÙĬ
Ø· Ø§
Ø£ ÙĦ
ĠØª Ø¯
ĠØ± ÙħØ¶Ø§ÙĨ
ĠÙħ Ø³ÙĦÙħ
ĠÙĩ Ùħ
ðŁĴ Ķ
ĠØªØŃ Øª
ÙĬ ÙĬÙĨ
ÙĬ Ø³
Ùĩ Ø°Ø§
ÙĨ ÙĬØ©
ĠØ³ ÙĪ
ĠØ¯ Ø¹ÙĪ
ĠÙĬ Ùħ
Ø´ ÙĥÙĪÙĨ
Ø¨ÙĬ Ø§
ĠØªØ¹ ÙĦÙĬ
ØŃ Øª
ĠÙħ Ø§ÙĬ
ÙĤØ¯ Ùħ
ĠðŁ ĳ
Ø§ ÙĩØ§
ĠÙĪ Ø¨Ø±Ùĥ
ĠÙĦ ØŃ
ÙĬ Ùģ
ÙĤ ÙĬØ©
ĠÙħÙĨ ÙĩÙħ
ĠØ£ ÙħØ±
ØªÙĪ ÙģÙĬÙĤ
ĠØŃ Ø¨
ĠØ£ Ø´
Ø¨ Ø§Ùĥ
Ø¦ Ø©
Ø§ÙĦ ÙĬØ©
Ø§ÙĪ Ø¯
ĠØ£ Ø¨ÙĪ
ĠØ§ÙĦØ´ Ø±
ĠÙĨ Ùģ
ĠØ§ÙĦØ¯ ÙĨÙĬØ§
ĠØµ Ø§ØŃ
ĠÙĦ Ø§ÙĬ
Ù Ģ
ĠÙĨ ÙĤ
ĠØŃ ÙĤ
ĠÙĤ Øµ
ĠØ® ØªÙĬ
m e
ÙĦ ÙĪÙħ
ĠÙĦ ÙĥÙħ
ĠØ¯ ÙĬÙĨ
ĠØ£ Ø¨
ĠØ³ Ø¨
â ľ
ĠÙĪ ÙĥÙĦ
ĠØ± Ø§Ø¦
Ø¦ ÙĦØ©
ĠÙĩÙĨØ§ Ùĥ
ĠÙħÙĦÙĬ ØŃ
ĠØ§ÙĦØ£ Ø®
r i
la h
ĠÙĪÙĩ ÙĬ
ÙĦØ§ ÙĤ
ĠØ¨ Ø£ÙĨ
Ø¬ Ø¯
Ø± Ùħ
Ġd e
ĠÙĤ ÙĦØ¨
ĠðŁĺ Ń
ĠØª Ùĩ
ĠØ¬ Ø²Ø§Ùĥ
ĠÙĨ Ø®
ĠÙĬØŃ ÙģØ¶
Ø· Ø§ÙĨ
ĠØ§ÙĦØ± ØŃÙħ
Ø§Øµ ÙĦ
Ùĩ ÙĪØ¯
ĠØŃ Ø§ÙĦ
ĠØ£ÙĨ Øª
Ø° Ø±
ĠØŃ ÙĨØ§
Ġ re
ĠØ§ÙĦÙĥ ØªØ§Ø¨
ĠÙĨÙĨ Ø¬ØŃ
ĠØ± Ø§ÙĬ
ĠÙĬ ÙĪ
ĠÙĪØ§ÙĦ ÙĨ
ÙĦ ÙĦÙĩ
Ġ1 0
Ø· ÙĪ
ĠØªØ§Ø¹ Ùĥ
Ùģ Ø§Øª
ĠØ¨Ø§ÙĦÙħ Ø«ÙĦ
Ø§ÙĦ Ø«
ĠØ¨ Øª
Ø² Ø¡
ÙĦØ³ ÙģØ©
Ùģ Ùĩ
ou r
ĠÙĪØ¨Ø±Ùĥ Ø§ØªÙĩ
ĠØ³ Ø±
Ø§Ø¨ Ø¹
Ø¶ ÙĪ
__ __
ĠÙĬØ¹ Ø·ÙĬÙĥ
ĠØ± Ø§ÙĨØ§
ĠâĢ ĵ
ĠÙħ Ø¯
Ġ Ø§ÙĤ
Ø¹ÙĪ Ø¯
ĠØŃ ÙĦ
Ø²ÙĬ Ø²
Ø¨ ØªÙĬ
ĠÙĪÙĦÙĬ Ø¯
ÙĤØª Ø±ØŃ
Ø§Ø¯ Ø¹ÙĪÙĦÙĬ
ÙĦÙĪ ÙĦØ§
Ø° Ø¨
ÙĬØ± Ø§
ĠØ± Ø¶Ø§
ĠØ· ÙĦ
Ø§Ø± Ø§Øª
ÙĥØ± Ø©
ĠØªØ¹ ÙĬØ´
ÙĦ Ø§Ø«
ĠÙħ Ø§ÙĨ
ĠØª ÙĤÙĪÙĦ
Ø§Ùģ ÙĬ
Ø§ ÙĤÙĬ
ĠÙĬ Ùģ
Ùĥ Ø³
h o
ĠÙĨ Ø¯ÙĬ
ĠØ¬ Ùħ
Ļ ı
ÙĥÙħ ÙĦ
ĠØ§ ÙĪÙĦ
ĠØ³ ÙĬØ¯
ĠØ£Ùĥ Ø«Ø±
Ø£ Ø³
ĠØ£ ÙĪÙĦ
ĠØ§ÙĦØ³ ÙĨØ©
ĠÙĨ Ø³Øª
ÙĦÙĬ Ø´
ĠØŃÙĬ Ø«
Ø§ Ø§Ùģ
ĠÙĪØ¹ ÙĦÙī
ĠØ§ÙĦ Ø¨Ø±
Ġ Ġ
Ø¶ Ø©
ĠØµØŃÙĬ ØŃ
a c
Ø¨ Ùĥ
ĠØ£ ÙħØ§
ĠØ§ÙĦÙħÙĪ Ø¶ÙĪØ¹
ĠØ¨ Ø§Ùĩ
ĠØ§ÙĦ Ø§Ø¹
Øª ÙĨÙĬ
ĠÂ «
ĠÙģ Ø¹
ĠØ§ÙĦÙħ Øµ
---- ----
Ø· Ùģ
ĠØ§ÙĦÙĪ ÙĤØª
ĠÙĥØ«ÙĬØ± Ø§
ĠÙĪØ§ÙĦ Ø¹
ĠØ« Ø§ÙĨÙĬ
ĠØ³ Øª
Ø¨ Ø·
ĠÙĪØ§ÙĦ Ø³
Ġ ch
ĠØ§ÙĦØ£ Ø³
ĠØ¹ÙĦØ§ Ùĩ
ĠØ§ÙĦØ¨Ùĥ Ø§ÙĦÙĪØ±ÙĬØ§
i k
ÙĪ ÙĩØ§
ĠØ§ÙĦ Ø§Ø¬
ĠÙĥ ØªØ¨
Ġ +
ĠØ§Ø® Ø±
ĠØ±Ø§Ø¬ Ø¹ÙĪÙĨ
ĠÙħØ¹ Ø§Ùĥ
ĠÙĦØ¨ Ø§Ùĥ
ĠØ¯ Ø®
ĠØ¢ Ø®Ø±
ĠÙĨ Ø¹Ùħ
Ø¬ ÙĬ
ĠØ§Ùģ Ø¶ÙĦ
ĠØ¯ ÙĪÙĨ
Ġ u
Ø®Ø± Ùī
Â »
ĠÙĬÙĪÙģÙĤ Ùĥ
ÙħÙĬ ÙĦ
ĠØ§ÙĨ ØªÙĩ
ĠØ§ÙĦÙĤ ØµØ©
ĠØ§ÙĦØ¹ Ø¸ÙĬÙħ
ĠØ§ÙĨ ÙĬ
a m
ĠÙĩØ° ÙĬ
ÙĬ Ø§Ùħ
ĠÙĬ Ø·
Ġl es
ĠØ¬ Ø§Ø¡
ĠÙĨ Ø§Ø³
Ø§ÙĨ Ø©
e d
ĠÙĬ Ø£
ÙĬ Ø§Ø±Ø¨
ðŁĺ į
ĠØ® Ø±Ø¬
ÙĦØ§ Ùĩ
n i
ÙĤ Ùģ
ĠØŃ Ø§Ø¨
ĠÙĥ ÙĦØ§Ùħ
Ø¹ Ø§Ø¡
l h
Øº Ùħ
Ø¬ ÙĪ
ðŁ Į
Ø§ÙĦ Øª
ĠØµ ÙĦ
ĠÙĪÙĦ ÙĥÙħ
ĠÙĪ Ø·
es t
ĠÙĦ ÙĤ
ĠØŃ ÙģØ¸
Ùĩ Ø§Ø¯
Ø§Ø¹ Ø¯
Ø¹ Ø§
ÙĨ Ø¨
ĠØ® ÙĦÙĤ
Ùĥ Ø§Ø±
Ø§Ùĩ ÙĦ
ĠØ§ÙĦ Ø¸
Ø§Ø³ Ùħ
Ø§ÙĦ Ùģ
v e
ĠØ§ÙĦÙħÙĨØª Ø¯Ùī
ĠØ¨ Øµ
ØªÙħ Ø§Ø¹
ĠÙĪØŃ Ø¯
ĠØ§ÙĦØ« Ø§ÙĨÙĬ
a y
Ø§Ùĩ Ø±
ĠÙħ Ùĩ
ĠØ§ÙĦØ¹ Ø±Ø¨ÙĬØ©
ÙĦÙĬ Ø·Ø©
Ø¬ Ø§Ø¨
ĠØ±ÙĪ Ø§Ùĩ
ĠØ Ľ
ĠØ´ Ø±ØŃ
ÙĦÙħ Ø§
Ø· ÙĬÙĨ
en t
Ġ A
ĠØ§ÙĦ Ø§ØŃ
Ġ202 5
Ø± Ø¯
ØŃ ÙĦ
ÙĤ Ø¨ÙĦ
ĠØ¨ Ø·
ÙĤÙĬ Øª
ĠØ¨Ø² Ø§Ø§Ùģ
ĠðŁ ĻĤ
ĠØ§Ø¯ Ø¹ÙĪÙĦÙĬ
ĠØ® Ø§ØµØ©
Ø® Ø°
ĠØ¬ Ø¯ÙĬØ¯
ØŃ ÙĬÙĨ
ÙĪ Ø§Ø¬
Øª Ø§
ĠØ£ Øª
ĠØª Ø§Ø±ÙĬØ®
ĠØ¹ Ø²
ĠØ§ÙĦØ³ Ø¤Ø§ÙĦ
ĠØª Ø·
ÙĪ Ø¯Ø©
ĠÙħ ÙħÙĥÙĨ
ĠØ¹ÙĦÙĬ Ø§
ĠÙħØ´ ÙĬ
ĠÙĦ ÙĥÙĦ
ĠÙĨ Ø¯
ĠØ§ÙĦØŃ Ùĥ
ĠÙĪØŃ Ø¯Ø©
Ø± Ø´
ĠØŃ Ø¯ÙĬØ«
ĠÙħ Ø±ØŃ
ĠØŃÙĥ Ø§ÙĬØ©
ÙĬ ØŃØ©
a k
ĠØª Ø§ÙĨÙĬ
Ø§Ø¶ ÙĬØ¹
ĠØ´ Ùģ
Ķ ¥
ÙĦÙĬ Ùĥ
ĠÙĪ Ø¯
ÙĤ Ùī
ÙĪØ¬ Ø¯
Ø¯ÙĬ Ø¯Ø©
Ø´ Ø©
ĠØ§Ø º
Ø§Ùĩ Ø¯
Ø¹ ÙĬØ¯
ĠðŁ¤ £
ÙĨ Ø´
Ùģ ÙĤ
ĠØ±ØŃÙħ Ø©
ĠØ§ÙĦÙħ Øº
ĠØ±Ø§Ùĩ ÙĬ
ĠØ£ Ø¯
ðŁ ĻĤ
Ø® ÙĬ
ĠðŁ İī
ĠØ´Ùĩ Ø§Ø¯Ø©
Ø¯ÙĬ Øª
Ġv id
ĠØ±ÙĪ ØŃ
ĠÙĪ ÙĬØ±
ĠÙĬØŃÙģØ¶ Ùĥ
Ø§Ø¦ ÙĬ
i a
ĠÙĪÙģ ÙĤ
Ġ1 5
ĠØ§ÙĦÙĨ Øµ
ĠÙĬ Ø§Ø±Ø¨ÙĬ
ĠØ§ÙĦØ¬Ø²Ø§Ø¦ Ø±ÙĬ
ĠÙĩ Ø¯Ø§
ĠØ´ ÙĩØ±
U R
ÙĪÙħ Ø©
ĠÙģ ÙĩÙĪ
Ø£ ÙĨØ§
o o
ĠÙĪØ´ ÙĥØ±Ø§
Øµ ÙĦÙī
ĠØ§ÙĨØªÙĩ Ùī
ĠØ¯ÙĬØ± ÙĦÙĨØ§
Ø±Ø¬ Ø¹
ĠÙĤ Ø±ÙĬ
Ø¹Ùħ ÙĦ
Øª ÙħØ¹
ÙĪ ÙģÙĬ
ĠÙĨØŃØ¨ Ùĥ
ĠÙģÙĬ ÙĩÙħ
ĠÙĨ Ø±
ĠÙĦ Ø§Ø¨
ĠØ£ÙĬ Ø¶Ø§
ÙĪ Ø¶
ĠÙĬÙĨØ¬ØŃ ÙĨØ§
ĠØ¹ ÙĤ
Ø¯ÙĬÙĨ Ø©
ÙĬ Ø²
ĠÙĨØª ÙģØ±Ø¬
ĠØ§ÙĦØŃÙĬ Ø§Ø©
ĠØ§ÙĦØª Ø¹ÙĦÙĬ
ÙĪ ÙĬÙĨ
ĠØ¹ Ø±Ùģ
ĠØ· Ø±ÙĬÙĤ
ĠÙĨ ØªÙĬ
Ø¨ Ø¹Ø¯
ĠÙħØ¹ Ø¯ÙĦ
ĠÙĨ Ø¹Ø±Ùģ
Ø¬ Ø§Ø¨Ø©
ĠÙĤ Ø¯Ø±
ĠÙĥÙĬÙģ Ø§Ø´
Ġ 8
u r
Ø±Ùĥ Ø©
ĠØ¯ Ø§Ø¦
ĠØŃ Ø³Ø¨
ti on
ĠâĢ ı
Ø¨ Ø§Øª
ĠÙħÙĬ Ø²Ø§ÙĨ
ĠØ§ÙĨ Ø´Ø§Ø¡
n e
ĠØ¬ Ø²ÙĬ
Ø§Ùħ ÙĬ
ÙĦÙħ ÙĬ
ÙĪ Ø§Ø±
ĠØ§ÙĦÙĬ Ùĩ
ĠØ³ Ùħ
ĠØ³ Ø¤Ø§ÙĦ
ĠØ´ Ø¹Ø¨Ø©
ĠØ¨ ÙĪ
Ġ r
Ø§ÙĨ Øª
Ø§Ø¡ Ø©
ĠØ±ÙĪ ØŃÙĬ
ĠØ¨ ÙĨØª
ĠØ§ÙĦÙħ ÙĩÙħ
ĠÙĬØ¹ Ø±Ùģ
ĠØ§ÙĦØ¥ ÙĨØ³
ÙĪØ± Ùĥ
Ø³ÙĬ ØŃ
Ġl e
Ġ1 6
ĠÙĪ Ø²
ĠÙĨÙģØ³ Ùĩ
ĠØ« ÙĦØ§Ø«
ÙĬØ§Øª ÙĬ
Ġ1 8
ĠØ² ÙĬØ¯
ĠÙĥ Ø±
UR L
ĠØ´ÙĬ Ø¦
Ø§Ùģ ÙĬØ©
ĠÙħÙĪ Ø¶ÙĪØ¹
ðŁĺ ®
ĠÙĪ ÙĦÙĪ
ĠÙĨ ÙĩØ§Ø±
ĠØ§ÙĦ Ø¶
ĠØ® Ø§ÙĦ
ĠØ§ÙĦØ±ØŃÙħ ÙĨ
ĠÙĪ Ø§Ø¬
Ġ 0
Ø¨ ÙĬØ±
ĠÙĪØ§ÙĦ ØŃ
ĠÙħÙĨ Ùĥ
Ø± ÙĤ
ĠØª Ø±Ùĥ
ÙĬÙħ Ø§ÙĨ
ĠÙĥÙĬÙģ Ø§Ùĩ
Ġ in
ĠØ§ÙĦÙĤ ÙĬ
e m
Ġ( (
ĠÙĪ ÙħØ¹
ĠØŃ ÙĪÙĦ
ĠØ´ ÙĬØ®
Ùĩ Ø©
ĠØ± Ùĥ
ðŁ¥ º
ĠðŁĺ¢ ðŁĺ¢
Ø§Ø¶ ÙĬ
ĠØ§ÙĦØ£ ÙħØ±
Ø² Ùħ
ĠØ§ÙĦÙħ Ø®
1 0
ĠØ± Ø§ÙĩÙħ
Ġâ ľ
ĠÙħ ÙħØ§
Ø° Ø§Ø¨
ĠÙħ Ø¤
ĠÙĪ ØµØŃ
ĠØª ÙĦ
Ø° Ø©
Ø³Ø¨ Ø¨
Ġl i
ØŃ Ø§Øª
Ġ o
ĠÙĤ Øª
ĠØ§ÙĦÙĨ Ø¬Ø§ØŃ
Ø³ Ùĥ
ĠÙĬØ¬ Ø¨
ĠØ§Ùĥ Ø«Ø±
Ġ {
ĠÙħ Ø§ÙĦ
ĠÙħ Ø·
ĠØ´ ÙĥÙĪÙĨ
Øª Ø§Ø¬
ĠÙĩ Ø¯
ĠÙĪ ØºÙĬØ±
Ø¨Ø± ÙĪÙĥ
in g
ĠØªØ¹ Ø±Ùģ
n d
ĠÙĤ Ø¨
Øª Øµ
ÙĦ Ø§Ø¡
ĠÙĬ ÙĦ
Ø± Ø§ÙĨÙĬ
ĠÙĬØŃ Ø¨
ĠÙĥÙĦ Ø´
Ø²Ø§Ø¦ Ø±
ĠØ§ÙĦØ£ Ø±Ø¶
Ġ Ú¨
Ùĩ ÙĨ
ĠØª ÙĦÙĥ
ĠØ´ Ø¹Ø±
ÙĪ ÙĦØ§
Ġ1 7
Ġy ou
Ø¬ ÙĨ
Ø¥ Ø°Ø§
ÙĨØ§ Ùĥ
Ø±ÙĬ ØŃ
Ø§Ùħ Ø¬
ĠØ¯ Ø±ÙĪ
ĠØ¢ ÙħÙĬÙĨ
ÙĨØ³ Ø¨Ø©
ĠØ® Ø§Ø·
Ø§Ø¨ Ø¹Ø©
Ø¸ Ø©
a t
Ġ202 6
ĠØ§ÙĦØ® Ø·
ĠØ§ÙĦØŃ Ø±
Ġ e
ĠØ³ ÙĪØ±Ø©
Øª Ø¯
Ø¬ Ø¹
ÙĪ Ø§Ø´
ĠØ± ØŃ
Ġ B
ĠØ§ÙĦØ£ ÙĨ
ĠÙĥ ÙĨ
ĠÙĥ ÙĦÙħØ©
ĠØŃ ÙĥÙħ
ĠÙĦÙĬ Ùĥ
ĠØ§ÙĦÙĪ Ø·
Ø£ Ø³ØªØ§Ø°
ÙħÙĬ Ø²
ĠÙĥØ¨ ÙĬØ±
ĠÙħ ÙħØª
ĠØ§ÙĦØ´ Ø¹Ø±
ĠÙĨ ÙĤØ±Ø§
Ġ M
ĠØ± Ø³
Ġt he
ĠØ³Ø¨ØŃØ§ÙĨ Ùĩ
Ø¨ Ø§ÙĦ
ĠÙĪØ§ÙĦ Ø´
Øª Ø§Ø±
ÙħØ¹ ÙĬÙĨ
ĠØ¬ Ø¯
c i
ĠÙĪÙĦÙĬ Ø³
ÙĪ ÙĨØ§
ĠÙĦ ÙħÙĨ
ĠÙĥ Ø«
ĠØ· Ø±ÙĬÙĤØ©
ÙĦØ§ Ùģ
ĠØº ÙĬ
Ø±Ùģ Ø©
ĠØ± Ø¹Ø¨
ĠØ±Ø§Ùĥ ÙĬ
ĠÙħ Ø²Ø§ÙĦ
ĠØ§ÙĦÙĨ Ø³
ĠÙĤ ÙĪØ©
ĠÙħØŃ ØªÙĪÙī
ĠÙĨ ÙĤØ¯Ø±
Ø¯ÙĬ Ùħ
ĠðŁĺ į
ĠÙħØ¹ ÙĨØ§
ĠÙģ Ø§Øª
ÙĪ ØŃ
ĠØªØŃ ÙĬØ§ØªÙĬ
ĠØ§ÙĦØµ Ø¨Ø±
ØµØŃ Ø§Ø¨
Ø¨ÙĬ ÙĦ
ĠØ§ÙĦØ¹ ÙħÙĦ
ĠØ£ Ø¹ÙĦÙħ
Ø¨ Ø§Ø±
ĠÙĦ Øº
ĠÙĤÙĦ Ø¨ÙĬ
ĠØ¹ÙĨ ÙĩØ§
k a
ĠØ§ÙĦÙĦ ØºØ©
Ø¬ ÙħÙĬØ¹
ĠØ¨Ùħ Ø¹Ø¯ÙĦ
ĠØ® Ø§ÙĪØªÙĬ
ĠØŃ ÙĬÙĨ
Ø¹ ÙĬØ©
ĠØ´ ÙģØª
ĠðŁ Į
Ùģ Ø§Ø±
Ø¬ Ø²
ĠØ£Ø® ØªÙĬ
ÙĪ Ùī
Ø¯Ø§ ÙĬØ©
ØŃÙĥ Ø§ÙĬØ©
ĠÙħ Ø§Ùĩ
Ø¬ Ø¨Øª
ĠØ§ÙĦØ£ ÙĪÙĦ
ĠØ³ ÙĦØ§Ùħ
ĠØ¹ ÙĬÙĨ
ĠÙĥ ÙħÙĦ
ÙĪÙĦ ÙĨØ§
Ø³ Ø·
Ø¯ÙĬ Ùĩ
ÙģÙĬ Ø¯
ĠÙĨ Ø²
ĠÙĨØŃ ÙĨ
ĠØ¹ÙĨØ¯ ÙĪ
ĠØ£ ØŃÙħØ¯
ÙĤ Ø³ÙĬ
Ġf i
u s
Ġy a
Ø¨ ØµØŃ
Ø± Ø§
ĠÙĤ ÙĪÙĦÙĩ
Ø¨ÙĬ Ùĩ
20 2
Øª ÙĬÙĨ
ĠÙĥ Ø«Ø±
Ġ1 2
ĠØ§ÙĦÙħ Ø¤ÙħÙĨ
ĠÙĪ Ø§Ø¹
ĠØªØ¹ ÙĦÙħ
ĠÙĨ Ø¬ØŃ
ÙģØ³ ÙĬØ±
ÙĨ Ø§Øª
ĠØ¹ Ø§Ø¯ÙĬ
ĠØ¨ ÙĥÙĦ
Ø·ÙĬ Ø¹
Ùħ Ø´
Ø· Ø§Ø±
Ùĩ ÙĪØ±
Ø² ÙĨ
Ø¹Ùħ Ø§ÙĦ
Ø§Ø¯ Ùĩ
ÙĤ ØµØ©
Ø±ÙĬ Ùģ
ĠÙĪØ¬ Ùĩ
ĠØ£ ÙģØ¶ÙĦ
ĠÙģ ÙĪÙĤ
Ø´ Ùģ
Ø® Ø±Ø©
Ø¶ ÙĬØ©
ÙĤØªØ±ØŃ Ø§Øª
Ø¬ Ø§ÙĦ
ĠØ§ÙĦÙħ Ùĩ
ĠØ¹ÙĨØ¯ ÙħØ§
ĠØ§ÙĦÙĤ ØµØµ
ĠÙĨ Ùĩ
ĠØ§ÙĦÙĨ Ø§Ø±
Ø® Ø§Ø±ÙĬ
âľ ¨
ĠÙĬØ± Ø²ÙĤ
Ø§Ùģ Ø¶ÙĦ
Ø§ÙĪ Ø¨
ĠÙĩØ§Ø° ÙĬ
Øª ÙĤ
ĠØ£ Ø®Ø±Ùī
ĠØ¬ Ø§
ĠÙĨØ³ ÙħØ¹
ÙĪØªÙĬ ÙĪØ¨
Ġ Ã
ĠÙĪØ¬ ÙĦ
ĠØ¬Ø²ÙĬ ÙĦØ§
Ø± ÙĬÙĨ
ĠØ´ ØŃØ§ÙĦ
Ļ¥ ï¸ı
Ø² ÙĬØ©
o s
ÙĦÙħ Ø§Øª
ÙĨ Ø¹
ĠÙģ ÙĦÙĬ
ĠÙĬØ¬ Ø§Ø²
Ø¹ Ø§Ø¯Ø©
ĠÙģ ÙĨ
ĠÙĬÙĪÙģÙĤ ÙĨØ§
ÙĦ ÙĥÙħ
ĠðŁ ĩ
ÙĨ ÙĪ
ĠÙĪ Ø§Ø±
Ġk i
w a
Ø±Ø¨ Ø©
ĠØ§ÙĦØ± Ø³ÙĪÙĦ
ĠØ§ÙĦ Ø§Ø¨
ĠØ£ Ùĩ
ĠØŃØ³ÙĨ Ø§ØªÙĥ
! !
ĠÙħ Ø§Ø±
ĠØ¨ ÙĤ
Ø§Ùħ ÙĦØ©
ĠØ§ÙĨ ÙĪ
Ø§ÙĪ ÙĬ
ĸ ¤
ĠÙħ Øº
Ø¨ ÙĬÙĨ
Øª Ùģ
ÙĤÙĪ ÙĦÙĩ
ĠØ§ÙĦØ¨ ÙĦ
ĠØ§ÙĦØ¥ÙĨØ³ Ø§ÙĨ
ĠØµ Ø¨Ø§ØŃ
ĠØ¯Ø§Ø¦ ÙħØ§
ĠÙħØ§Ø´ Ø§Ø¡
o l
ĠÙĪØ§ÙĦ Ø¥
c e
ĠØ® Øµ
ÙĪØ§ ÙĤØ¹
ĠðŁ¥ º
ĠÙĩ Ø§Ø¯ÙĬ
ĠÙħ Ø§Ùĥ
ĠâĢ ¬
ĠÙĩ Ø§ÙĬ
ĠØ¨Ø§ÙĦ ÙĨ
Ø§Øª ÙĥÙħ
ĠØ¨Ø§ÙĦ ØªÙĪÙģÙĬÙĤ
ĠÙĥ Ùģ
ĠØ§ÙĨ Ùĩ
ĠØ§ÙĦØ¹ÙĦÙħ Ø§Ø¡
ÙĨ ÙĬÙĨ
Ø± Ø§Ø¨
ÙĦØ³ ÙĦØ©
ĠØ£ ØŃØ¨
Ġ qu
ĠØ§ÙĦØ´ Ø¹Ø¨
ÙĤ ÙĬÙĨ
ĠÙĪØª Ø¹
ĠØ§ÙĦÙħ ÙĦ
ĠØ´ Ø¹
Ø±Ø¶ Ø§
ĠØ³ÙĬØ¯ ÙĨØ§
Ùĥ Ø±ÙĬ
ÙĦØ³ Ø·ÙĬÙĨ
ÙħÙĬ ÙĦØ©
ĠÙĨ Ùħ
ÙĤØ± Ø£
ĠØ§ÙĦØ¨ Ø®Ø§Ø±ÙĬ
ÙĦ Ø§Øª
ĠØ§ÙĦØ§Ø³ ÙĦØ§Ùħ
Ø³ÙĬ Øª
ĠÙĪØ§ÙĦ Ø³ÙĦØ§Ùħ
ĠØ¨Ø¥ Ø°ÙĨ
ĠÙĤØ§ÙĦ Øª
Ùħ Ø§Ø´
ĠÙħØ±ØŃ Ø¨Ø§
ĠÙĨ Ø¸
ĠÙħÙĨ Ø§
âĢ ı
ĠØ§Ùħ Ø§
Ùĥ ÙĪØ±
ĠÙĪ Ø§Ø³
) ØĮ
ÙĬ Ø§Ø±Ø¨ÙĬ
ĠØ¯Ø± Øª
Ø¨Ø± Ø©
Ø¬ Ùĩ
ĠØ§ÙĦ Ø§Ø¯
ĠØŃØ¨ÙĬ Ø¨ØªÙĬ
1 9
ÙĨØ³ ÙĬØ©
Ø¹ Ùĩ
ĠØ§ÙĦÙģ Ø§Ø¶
Ø¨ÙĤ Ùī
Ġ1 4
ĠØ§ÙĦÙģ Øª
ÙħØ¹ Ø©
Ġ202 4
Ø± Øª
Ġ et
Ø¸ ÙĩØ±
ĠØ§ÙĦ Ø±ÙĬ
ĠÙĩÙĥ Ø§
ĠØ¨Ø§ÙĦ ÙĨØ³Ø¨Ø©
ĠÙĨ ÙĪØ¹
ĠØ· ÙĦØ¨
Ġ ou
ØŃ ÙĨ
ĠØ§ÙĦ ÙĥØ±
ĠØ¯ÙĬØ± ÙĬ
ĠØ¹ÙĦ ÙĪÙħ
ĠÙĤ Ø·
ĠØ§ÙĨ Ùĥ
ĠØ§ÙĦ Ø§ÙĪÙĦ
ĠØ± Ø¯
g e
a d
ĠÙĦ Ø®
ĠØ§ÙĦØ£Ùħ ÙĬØ±
ĠØ¯Ø¹ÙĪ Ø©
Øµ ÙĪÙĦ
ĠØ§ÙĦØ± Ø¬ÙĦ
ÙĬØ± ÙĬ
ĠØ¨ÙĦ Ø§Ø¯
ĠÙħ Ø§Ø¹
ĠÙħÙĨ Øª
Øª ÙĦÙģ
Ø§Ø ¸
Ùģ ÙĦØ©
Ġ L
ĠØµ Ùģ
Ø§ÙĦ Ø¬
Ø¨ÙĬ Ø¨
ĠØ§ÙĦØª ØŃ
ĠÙģÙĬ ÙħØ§
Ø§Ø± Ø¬
Ø§Ø ¤
ÙĦÙĬ ÙĥÙħ
c ha
Ġ! !
ĠØ¹ Ø§Ø¯
ĠÙĦÙĦ Ø£
ĠØ¹ ÙĬ
ĠØ§ÙĦØŃ ÙĦ
ĠØ¨ÙĬ Ùĩ
ĠØŃØ³ Ø§Ø¨
ĠØ³ Ø£
e k
Ø±ÙĬ Ùĥ
ĠÙĬØ¹ ÙĦÙħ
ÙĬ ÙħØ©
ĠØ¹ Ø§Ø¦
Ø§Ùĩ ÙĬÙħ
t o
ĠØ§ÙĦ ÙĦÙĬÙĦ
Ø§ØŃ Ø¯
Ø¬Ø¨ ÙĨÙĬ
Ùĩ Ø¨
Ø§Ø¦ Ø±
ĠØ§ÙĦØ¯ Ø§Ø±
ĠØ®ÙĦ Ø§ÙĦ
ĠÙĪ ÙĨØª
ĠØªØŃ ÙĥÙĬ
ĠÙħ ÙĪØ±
ĠØ¨ÙĬ ÙĩØ§
ĠØ² ÙĬ
Ø² Ø¹
Ø® Ø§ÙĪØªÙĬ
ĠÙħ Ø§Ùħ
ĠÙħ Ø§Ø²
ĠØ¬ ÙĬ
Ø±ÙĪ Ø¹
ĠØ§ÙĦÙĤ ÙĦØ¨
Ø§Øª Ø¨
i m
Ġ =
ĠØŃ Ø·
on t
Ø§Ø³ØªØ§Ø° Ø©
1 5
ĠÙĪ Ø§Ø¨
ÙĨØ³ Ø§
ĠØ¨ ÙĬÙĥ
ÙĥÙĬ ÙĦ
ĠÙģ Ø³ÙĬØŃ
ĠØ¹ Ø¯Ø¯
ĠÙĬØ¬ ÙĬ
Ø§Ùĥ ÙĦ
ĠØ§Ø± ØŃÙħ
ĠØ¬ÙħÙĬØ¹ Ø§
ĠØ³ ÙĦÙħ
ĠØ§ÙĦØ£ ÙĪ
ĠØ§ÙĦØ¥ ÙħØ§Ùħ
ĠØª ÙĦÙĤ
ÙĨ Ùĩ
ĠÙħ Ø§Ø°Ø§
Ø§Ø¦ ÙĤ
Ġ ?
ĠÙĬ Øº
ĠØµ Øº
ØŃÙħ ÙĦ
ĠÙĪ Ø¢
ĠÙĬ Ø®Ø±Ø¬
Øª Ø¹
ĠØµ Ø¯
ĠØ® ÙĦÙĬ
ĠØ³ÙħØ¹ Øª
ĠØ¨Ø§ÙĦ Ø£
ĠÙĪÙĦØ§ ÙĬØ©
ĠØ§ÙĦÙħØ± Ø£Ø©
ĠØ· ÙĪÙĦ
ĠØ§ÙĦØ« Ø§ÙĦØ«
ÙĦÙĪ Ø¯
ĠÙĦ ÙĤØ¯
Ø°Ùĩ Ø¨
Ø® ÙĪÙĬØ§
ĠÙĬ ÙĥÙĨ
ĠØ± ÙĤÙħ
Ġt o
ĠØ§ÙĦØ¬ ÙĦ
ĠØ§ÙĦÙĥ Ø«ÙĬØ±
ĠØ§ÙĦÙĤ ÙĨ
Ùģ Ùĥ
ĠØµ Ø§ÙĦØŃ
ĠÙĨ ÙĦÙĤ
ðŁ Ķ¥
ĠØ§ÙĦØª Ø¹
ÙĨ Ø§ÙħØ¬
e p
Ø¹ ÙĦÙī
Ġ R
ĠØ§ÙĦØª Ø§Ø±ÙĬØ®
ĠðŁ¤£ ðŁ¤£
ĠØ§Ùħ Ø±
Ø§Ø¦ Ø¯
Ø³ ÙĪ
Ø¹ Ø§Ùħ
ØªÙĪ Ø¨
ĠØŃÙĥ Ø§ÙĬØ§Øª
Ġk h
ÙĪÙĥ Ø§ÙĨ
ĠÙĪØ¨ Ø§Ø±Ùĥ
ĠØ¹ ÙħÙĦ
Ø± ÙĪÙģ
ðŁĺ¢ ðŁĺ¢
Ø³ Ø§Ùħ
ĠØŃ ÙĪ
Ø§ÙĬ Ùĩ
ï ´
Ùħ Ø§Ø¡
Ø² Ø§Ø¡
Ø¨ ÙĦÙĬ
ÙĨØ§ Ùĩ
ĠÙģ ÙħÙĨ
Ø· Ø¨
Ø¬ ÙĦÙĬ
ĠØ² Ø¹
ðŁ Ļı
ĠÙĥ Ø§ÙĦ
ĠØ¨ Ø¯ÙĬØª
ĠØ§ÙĦØ¹Ø¨ Ø§Ø³ÙĬØ©
ĠÙħ ØªÙĪ
Ø±Ø¨ ØŃ
1 2
Ø¯Ø± Ø³Ø©
ĠÙĥØ¨ ÙĬØ±Ø©
ÙĥØ± Ùĩ
ĠÙĦØ£ÙĨ Ùĩ
Ø¹ Ùĥ
ÙĤÙĪ ÙĦÙĬ
Ġ S
Ø§Ø¦ Ùĥ
ĠÙĨØ´ Ø§ÙĦÙĦÙĩ
ĠØ´ Ø¨Ø§Ø¨
Ø§ÙĪ ÙĬØ©
ĠÙĨ Ùĥ
Ùħ Ø§Ø±
ĠÙĪ ÙĪ
ĠÙģÙĬ ÙĥÙħ
ĠØ¬ Ø¯ÙĬØ¯Ø©
ĠØ§ÙĦØ¹ Ø±Ø¨ÙĬ
Ø¨ÙĬ Øª
ĠØ· ÙĪÙĬ
ĠØ´ÙĬØ¦ Ø§
ĠØ§ÙĦØª Ø¬
ĠØ§ÙĦØ´ Ø®Øµ
Ø¯ ÙĬØ©
Ġc ha
Ġ T
ĠÙĨ Ø§Ø¬
ĠÙĥ ÙĨØ§
ĠØ±ÙĪ Ø¹Ø©
Ø¯ÙĬØ± ÙĦÙĨØ§
ĠØ¯ Ø®ÙĦ
Ø¹ ÙĦÙĩØ§
ĠØ¹ Ø´Ø±
ØŃ ÙĬØ¯
ĠÙĪ Ø§Ø³Øª
Ġa l
Ø±ÙĬ ÙħØ©
ĠØ¨Ø¯ ÙĪÙĨ
Ø§ÙĨ Ùĩ
ĠØ¨ Øº
k h
ĠØ± Ø¬ÙĦ
ĠØ§ÙĦØ¹ ÙĤ
ĠØ¹ Ø´
Ø£ Øª
ĠØ±ÙĪ ØŃÙĥ
ĠÙģ Ø¹ÙĦ
ĠØ¯Ø±ÙĪ Ø³
ĠðŁ¤² ðŁı»
99 99
ĠÙħÙĨ ÙĬ
Øµ Ùģ
ĠØ· ÙĬØ¨Ø©
Ø± Ø³
ĠØŃ Ø¯
==== ====
ĠÙĬØ´ ÙĪÙģ
ĠÙħØ« ÙĦØ§
**** ****
h h
ĠÙĬ Ø§Ø®
Ġ I
ĠØ£ ÙĦÙģ
Ø§Ø¹ Ø§Øª
ĠÙģ Ø¥Ø°Ø§
Ø¤ ÙĦØ§Ø¡
a b
i re
Ø¹ÙĦ ÙĪÙħ
ĠØ§ÙĦØ· Ø¨
Øª ÙĥÙħ
ĠÙĦÙĦ ÙĨ
ÙĤØ± Ø§ÙĪ
ÙĦ Ø·
Ø·ÙĦ Ø¹
ĠÙģ ÙħØ§
ĠÙĦ Ø´
Ø§Ø¨ Ø·
ĠØ³ Ø§Ø¹Ø©
Ø³ Ø§Ø¨
ĠÙģ ÙĦÙħ
ĠÙĪÙĦ Ø¯
ÙĨ Ø³ÙĬ
Ùħ Ø¯
ĠÙĪØ§ÙĦ Ø¯
ĠØ® ÙĬ
ĠØ¹Ùħ Ø±ÙĬ
ĠØ¹ Ø¯Ùħ
ĠØ¨ ÙĨÙĬ
ĠÙĪÙĬ Ø¹
Ø¬ ÙĬØ¨
ĠÙĨ ÙĬ
ĠØ¯ Ø¹
ĠÙģ Ùī
ĠÙĬØ¬Ø§Ø² ÙĬÙĥ
ĠØ§Ø³ØªØ§Ø° Ø©
ĠØ¨ÙĦÙĬ Ø²
ĠÙħ Ø±ÙĬ
© ðŁĩ
ĠØ±Ø§Ùĩ ÙĪ
Ø®ÙĦ Øµ
ĠÙĨÙģ Ø³ÙĬ
Ø¬Ø¨Øª ÙĨÙĬ
Øª Ø±Ùĥ
ĠØŃ Ø§Ø¨Ø©
ĠÙĪ Ø§Ø®
ĠÙĥ Ø°ÙĦÙĥ
ĠØ¥ ÙĦÙĩ
1 6
00 00
Ø¯ Ø¨
©ðŁĩ ¿
ĠØ§Ø ·
ĠÙħÙĦÙĬ ÙĪÙĨ
ĠØ§ÙĦ Ø§ÙĪ
Ø§Ø¦ ÙĬØ©
ĠØ§ÙĦØ¯ Ø¹Ø§Ø¡
Ġh h
ĠØ§ÙĦ ÙģÙĬ
ÙĤØª ÙĦ
ĠÙĬ ØªÙħ
ĠÙħØ¹ Ø§ÙĬØ§
ÙĤ ÙĤ
Ġb e
ĠØ¨ Ø¬
ĠØ® ÙĪÙģ
ĠØ§ÙĦÙħ Ø¤
ĠØ¨ Ø®ÙĬØ±
ĠÙĨ ÙĪ
ÙĬØ¯ Ø§
Ø· ÙĪØ±
ĠØ§ÙĦÙĥ ÙĦØ§Ùħ
ĠØ£ Ùģ
Ø§ÙĦ Ø´
ÙĪÙĨ Ø©
Ø§Ø¶ ÙĬØ§Øª
ĠÙĬØ¬ ÙĪØ²
1 4
ĠØ§ÙĦÙħ ÙĤ
ÙĤÙĬ ÙĤ
ÙĨ Ø§Ø´
Ã ¨
Ø¬ Ø²Ø§Ùĥ
ĠÙĬØ´ ÙģÙĬ
ØŃØ¨ Ùĥ
ĠÙĤÙĨ Ø§Ø©
ĠØ¬ Ø§Øª
Ø§Ùħ ÙĬÙĨ
ĠØ§ØŃ Ø³ÙĨ
Ø§Ø¬ Ø¹Ø©
ÙĦÙĬ Ùħ
Ø§Ø² ÙĬ
ĠØ§ÙĨ Ø³Ø§ÙĨ
ĠØ§ÙĦØ¬ Ùħ
Øµ Ø§Ø±
Ø· ÙĪØ±Ø©
ĠÙĬ Ø¤
Ø§Ø· ÙĦ
ĠØµØ§ØŃ Ø¨
ĠØŃ Ø¯Ø«
ĠÙħ Ø§ÙħØ§
Ø§ÙĦ ÙĪ
ÙĤØ· Ø¹
ĠØ§ÙĦØ¬ ÙĪØ§Ø¨
ĠØ£ÙĨ ÙĩØ§
ĠÙĥØ§ÙĨ ÙĪØ§
ĠÙĪØ¹ ÙĨ
ðŁ¥ °
ÙĦØ§Ùħ Ø©
ĠØªØŃ Ø¨
Ø§Ùģ Ø±
ĠØ§ÙĦØ± Ø¯
ĠØ¨Ø§ÙĦ Ø¹
ĠØ¹ÙĨØ¯ ÙĩØ§
ĠÙģ ÙĤ
ĠÙĩÙĪ ÙħØ§
ĠÙĪ ÙĦÙĩ
Ø§Ø± ÙĬØ©
ĠØ¶ ØŃÙĥ
ĠØ§ÙĦØ¹ Ø±Ø¨
ĠÙĦÙĬ Ø³Øª
ĠØŃØ¨ÙĬ Øª
ĠØ§ÙĦØµ Ø§ÙĦØŃ
Ø« Ø©
ĠØªÙĪ ØŃØ´
Ø¯ÙĪ Ø©
ou s
ĠØ§ÙĦØ¢ ÙĬØ©
) )
Ø§Øª ÙĩØ§
ĠØ¯ Ø§Ø®
ĠØ¯Ø± Ø³
Ø¯ ÙħØ©
ĠØ¶ ÙĬ
Ø§Ø¨ ÙĬ
ĠØ¹ÙĦ Ø§Ø´
Ø§Ùģ Ø¸
ĠÙħ Ø§Ø¯
ĠØ§ÙĦØ´ÙĬ Ø·Ø§ÙĨ
ÙĨ Ø§ÙĨ
Ġ1 3
ĠØ§ÙĦ ØŃÙħ
ĠØª ÙĬ
ĠØº Ø§ÙĦ
ĠØ§Ø ¶
ĠØ§ÙĦØ¨ÙĬ Øª
ĠÙĨ ØªÙĪ
ĠØ¨ Ø§Ø³
Ø« Ø¨Øª
ĠÙĪØ§ØŃ Ø¯Ø©
Ø´ ÙĪ
ðŁĳ į
ĠÙħ Ø¶
ĠØ¨Ùĩ Ø°Ø§
1 3
ĠÙģ Ø³
Ø§Ø¦ Ùħ
Ø¯ ÙĪØ§
ØµÙĦ ØŃ
ĠÙĬ ÙĤØ¯Ø±
ĠÙģ ØªØŃ
Ġ **
Ø¯ÙĬ Ø§
ĠÙĪ ØªÙĪ
ĠÙĩÙĥ Ø°Ø§
ĠØµ ÙĪØª
ĠÙĪØ³ÙĦÙħ ØµÙĦÙī
ĠÙĪØ§ÙĦ Øµ
ĠØ§ÙĦØ¬Ø²Ø§Ø¦Ø± ÙĬØ©
Ø§Ø³ Ø¨
ĠØ´ ÙĪÙĬØ©
ĠÙħ ÙĩÙħ
ĠÙĪØ¨ Ø¹Ø¯
ĠÙħ ÙĪØ¬
ØŃ ÙĬÙħ
ÙĦÙĬ Ø·Ø§
ĠØ¨ Ø³Ø¨Ø¨
Ø§ÙĦ Ø³
Ø§ÙĦ ÙĤ
ĠØµ ÙĦØ§Ø©
ĠÙħ Ùģ
ĠØ§ÙĦÙħ Ø¯
Øª Ø¨Ø±
ðŁĴ Ĺ
ĠÙĦ ÙĪÙĥØ§ÙĨ
ĠØ§ÙĦÙħ Ø·
ĠØ´ ÙĪÙĬ
Ø§Ø¬ Ø¹
1 8
ĠØ§ÙĦ Ø§Ø±
ĠØ¨ Ø§ÙĬÙĨ
Ø¶ ØŃ
ĠØ£ ÙĤ
ĠÙĬØ¬ ÙĬØ¨
ĠØ´ Ø¹Ø¨
ĠÙĨØª ÙħÙĨÙī
ÙĪÙĨ Ø³
ĠÙħÙĨ Ø°
ĠÙģ ÙĪ
Ø§Øª ÙĩÙħ
ĠØ§ÙĦØª Ø³
ĠØ±Ø§Ø¦ Ø¹
Ùĥ Ø«Ø±
ðŁ¤ į
ĠÙĪÙĬ Ø³
Ø§Ø¹ ÙĬ
Ġs a
âĢ į
ĠØªØ¹ÙĦÙĬ ÙĤ
ĠØ¨ Ø®
ĠÙĪØ¨ ÙĬÙĨ
Ø§ÙĦ Ø¹
ĠØ§ÙĦØ± Ø¹Ø¨
e o
ÙĦÙĪ Ø§ÙĨ
ĠØ¥ ÙĨØ§
ÙĤÙĬ Ùħ
ĠØ¬ ÙĬØª
ĠÙĨ Ø·
Ø§ÙĦ ØŃÙħØ¯
ĠðŁ Ļı
ĠÙĬ ÙĨØª
ĠØ¯ Ø§ÙĬØ±
ĠÙĪØ¥ Ø°Ø§
ĠÙģØ¥ÙĨ Ùĩ
ÙĩØ§ ÙĬØ©
ĠØ¹ ÙĬØ¯
er ci
ĠÙĨ ÙģÙĩÙħ
Ø²Ø§Ø¦ Ø±ÙĬ
ĠØªØ§Ø¹ ÙĬ
ĠØ§ÙĦÙĤ Ø§Ø¯Ø±
ÙĬØ¹ Ø·ÙĬÙĥ
ÙĪ ÙĩÙħ
ĠØ§ÙĦØ« Ø§ÙĨÙĬØ©
ĠØªØ¬ ÙĬ
ĠØªØ´ ÙĪÙģ
ĠØ¹ÙĨØ¯ Ùĩ
ĠÙĦÙĬ ÙĦØ©
ĠØ¬ ÙĦ
Ø®Øµ Øµ
Ġ z
ĠÙĨØ´ Ø§ÙĦÙĩ
Ø¯ Ø§Ø¯
Ø± ØŃÙħ
Ø¬ Ø§
ĠÙĤ ÙĦÙĪØ¨
ÙĦØ§Ùħ ÙĬ
Ġ i
ĠØ¯ ÙĪ
ĠØ¨Ø§ÙĦ Ùĥ
1 7
Ø® ÙĦÙĬ
ĠÙħ Ø§Ùģ
Ø§ÙĦ Ø§Øª
ĠÙĬ ØªØŃ
ĠÙĪ Ø¹Ø¯
Ø¬Ùħ Ø§Ø¹Ø©
Ùģ Ø§
ĠØ§ÙĦÙĨØ³ Ø§Ø¡
Ġc om
ĠØ§Øª ÙħÙĨÙī
ĠØ¨Ùĥ Ø§ÙĦÙĪØ±ÙĬØ§
Ùħ Ùĩ
ĠÙģØ±ØŃ Ø©
ĠÙħÙĪ Ø§Ø¶ÙĬØ¹
ĠðŁĴ Ķ
ĠØ¨Ø±Ùĥ Ø§ØªÙĩ
ĠÙĪØ¬ Ø²Ø§Ùĥ
Ø§Ùĩ Ø±Ø©
ĠØ´Ø§Ø¡ ÙĦÙĦÙĩ
Ø¹ÙĬ ÙĦÙĬ
ÙĬ Ø§Ø®
Ø§Ø¦ Ø¹
ĠðŁĺŃ ðŁĺŃ
ĠÙĩ Ø±
ĠÙħÙĥØ§ÙĨ Ø´
ĠÙĬ ØªØ¨
ĠÙĦ Ø§Øª
ĠÙħ ÙĤØ§ÙĦ
ĠØ§ÙĦØ¬ Ø§Ùħ
ĠØª Øº
ĠÙĪ ÙħØ±
ĠØ§ÙĦÙĨ ÙģØ³
ĠØ§ÙĦ Ø¢ÙĨ
ĠØ´ Ø§Ùģ
ĠØ§ÙĦØ¨ ÙĤ
o t
~ ~
ĠØ¬ ÙħØ¹
Øµ Ø¯
Ø¬ ØŃÙĥ
ĠØ£ ÙĩÙĦØ§
ĠØª Ø¯ÙĬ
Ø±ÙĬ Ø§
Ø¨ÙĬ Ø§Ø¡
in e
ĠØ§ÙĦÙĪ Ø§ÙĦ
ØŃ Ø³
ĠÙĪØ£ ÙħØ§
ĠØ³ ÙĦ
ĠÙħØ¹ ÙĨÙī
ĠØ£ ØµØŃØ§Ø¨
Ø´ ÙĪÙģ
Ġw a
Ø®ÙĦ Ø§Øµ
ĠÙĬ ÙĪØ¬Ø¯
ĠÙĬ ÙģØ±
ĠØŃÙĥ Ø§ÙĬ
ĠÙħ Ø±Ø¶
ÙĤ ÙĪÙĨ
ĠÙĪ Ø§Øª
Ø§Ùĩ ÙĬ
Øª ÙĨ
ĠØ£ Ø³Øª
Ø· ÙĤØ©
ĠØ³ Ø¹ÙĬØ¯
ĠÙĤ Ø±ÙĬØ¨
ÙĦØ§ Ùĥ
ĠØ§ ÙĤØª
Ø±Ø¬ ÙĪ
ĠÙħ Ø²
ĠÙģ ÙĦØ³Ø·ÙĬÙĨ
ĠØ¹ÙĨØ¯ ÙĨØ§
ØªØŃ Ø§ÙĨ
ðŁ ĸ¤
ĠÙħØ¹ ÙĦÙĪÙħ
ĠØ³Ø¨ Ø¨
ĠØ§ÙĦØ£ÙĪ ÙĦÙī
ĠÙĪØ§ÙĦ Ø¬
] .
h i
ĠÙĥ Ø§Ø´
ĠØ¹ Ø§ÙĦÙħ
ĠØ´ Ø§Ø¨Ø©
ĠØ¬ Ø§Ø¨
Ø¶ Ø§ÙģØ©
ĠØ§ÙĦØª Ùģ
Ø§Ø¦ Ùĩ
Ø§Ø¹ Ø±
ĠØ§ÙĦØ¬ ÙħÙĬØ¹
ĠÙĪ ÙĩÙħ
ÙĪÙĦ ÙĪ
Ġm e
ĠÙĦØ§ÙĬ Ùĥ
Ġa na
Ġ C
d e
ĠÙĪØ§ÙĦ Ùģ
Ġ en
Ø¹ ÙĨØ¯
ĠØ® Ø§Øµ
ĠØ§ÙĦØŃ ÙĥÙħ
ĠðŁ¤ į
ĠØ£Ùĥ Ø¨Ø±
Øª ÙĤØ¯
Ø¯ÙĬ ÙĤ
ĠÙĤ Ø³Ùħ
ĠØ§ÙĦÙĤÙĬ Ø§ÙħØ©
s i
Ùģ Ùī
ĠÙĤ ÙĦÙĬ
Ø¹ ÙĦØ§Ùĩ
ĠØ¹ÙĨØ¯ ÙĩÙħ
ĠÙģ Ùħ
ĠÙĩ Ø§Ùĥ
ĠÙħ ÙĦÙĥ
Ø§ ÙĪÙĨ
ĠÙħÙħØª Ø§Ø²
ĠØ§ÙĦØ· ÙĬØ¨
ĠØª ÙĤØ¯Ø±
ĠÙĤ ÙĪ
Ø® ØªÙĬ
Ġ1 00
Ø§Ø± Ùģ
ĠØ§ÙĦÙģØ§Ø¶ ÙĦ
Ø® ÙĪÙģ
ĠØ¨ ÙĥØ±
ĠÙĬØ¯ Ø®ÙĦ
ĠØ¹ Ø·
ĠØªØ¬ ÙĬØ¨
ĠÙĪ Ø¶Ø¹
ĠØ§ÙĦÙħØº Ø±Ø¨
ĠÙģÙĬØ¯ÙĬÙĪ ÙĩØ§Øª
ĠØ§Ø «
ĠÙĪØŃ Ø¯ÙĬ
ÙĤÙĬ ÙĦ
ĠØ§ÙĦØ¢ Ø®Ø±
Ø§Ø¯ÙĬ Ø«
ĠÙĦ Ø³
ĠØ¯ ÙĪØ±
ĠØµ ØºÙĬØ±
Ø¯Ø± Ø³
Ùħ Ø²
ĠÙĪ Ø«
ĠØ§ÙĦØª ÙĨ
ÙĪÙĦ Ø¯
ĠØ§ÙĦÙĪ ÙĥÙĬÙĦ
Ġ D
Ø¨ÙĦ Øº
Ø§Ø¨ ÙĦ
____ ____
Ø¯ Ø¹ÙĪ
Ùģ Ø§Ø¡
Ø¶ Ø±Ø¨
Ø³Ùħ Ùī
ĠØ§ÙĦØŃ ÙĤÙĬÙĤØ©
ÙĪÙħ ÙĬ
Ø´Ø± ÙĬØ©
ĠØ± ØºÙħ
Ø³Ø¨ ØŃ
ĠÙħ ÙħÙĨ
ĠØ¨ Ø°ÙĦÙĥ
Ø§Ø¯ Ùħ
Ø¨Ø¯ Ø£
Ø¯Ø± Ø©
ĠØ§ÙĦÙħ ÙĪØª
ĠØ§ÙĦØ¬ÙĦ ÙģØ©
Ø§ÙĬ Ø´
ĠØ§ÙĦØ¬ Ø²Ø¡
ĠÙģØ± ÙĨØ³Ø§
Ø±ÙĬ Ø¹Ø©
ĠØ§ÙĦØŃÙĥ Ø§ÙĬØ©
ĠÙĪ ÙĬØ¨
ĠØ§ÙĦØ´ Ùĩ
ĠØ± Ø§Ø³
Ø³Ø¨ Ø§Ø¨
ĠÙħØ¹ ÙĦÙĬØ´
1 1
ĠØª Ø®Ø±Ø¬
ĠÙħ Ø¨Ø§Ø±Ùĥ
ÙĪÙĦ Ùĥ
Ø² Ø§ÙĬØ±
ĠÙĦ ÙĥÙĬ
ØµÙĦ Ø§Ø©
ĠØ¨ ÙĬØª
ĠØ®ÙĦ Ø§Øµ
ØªÙĥ ÙĦÙħ
Ø± Ø§Ø¡
ĠÙĦÙĬ ÙĪÙħ
s e
ĠØ¥ ÙĨÙĬ
ØŃ Ùĩ
ĠØª ÙģØ³ÙĬØ±
ĠÙħ Ø¨Ø±ÙĪÙĥ
ĠÙħØ¹ Ø§ÙĨØ§
ĠÙĦ Ùģ
ÙħØ§Ø´ Ø§Ø¡
ĠÙħ ÙĬÙħ
Ø³ Ùī
ÙĦÙĬ Ùĩ
ĠÙĦÙĦ Ø´
Ø§Øª ÙĪ
Ùĥ ÙĨØª
Ø§Ø° ÙĨ
ĠØ§ÙĦØ¨ Ø§Ø±
ĠÙĨÙĪØ± ÙħØ§ÙĦ
ĠÙĪÙĦÙĬ Øª
ØŃ ÙģØ¸
ØŃØ¨ Ø§
ĠÙĤ Ø¨Ø±
s a
Ø§ÙĨ ÙĪÙĨ
ĠØ¯Ø® ÙĦØª
Ø¬ Ø¹ÙĦ
ĠØ¯ÙĬØ± ÙĨØ§
ĠØ¥ Ø°
Ø¬ ÙĬÙĦ
ĠÙģ Ùĩ
ĠØ§ÙĦØ± ØŃÙĬÙħ
ĠØ§ÙĦÙĤ ÙħØ©
ĠØŃ ÙĤÙĬ
ĠØ§ÙĦÙĤ Ø¨
ĠÙĪÙĦ ÙĦÙĩ
ĠØ¨ Ø§Ø±
ĠÙĨ ÙĥÙĪÙĨ
ĠØ¬ Ø¹ÙĦ
ĠØ¬ ÙħÙĬÙĦ
ĠÙĦ ÙĤÙĬØª
ĠØ¹ ÙħÙĬ
ĠØª Ø¨Ø¹
Ġ4 0
ĠÙģÙĩÙħ Øª
âĢ Ļ
ĠØ¥ÙĨ ÙħØ§
ĠÙħ ÙĪØ³
Ùħ ÙĨØ§
Øª ÙĦÙĬ
Ø§Øª Ø°Ø©
ÙĦÙĪ Ùĥ
ĠØ£ÙĪ ÙĦØ§
ĠØ§ÙĦØ¥ ÙĬÙħØ§ÙĨ
Ø§Øª Ùģ
ĠÙĦ Ø¯ÙĬ
ĠÙħØ¹ Ùĩ
ĠÙĩ Ø¤ÙĦØ§Ø¡
Ø§Ùģ ÙĬØ§
ÙĪØ³ Ùģ
ĠØ£Øµ Ø¨ØŃ
Ø·ÙĦ ØŃØ§Øª
ĠÙĩ ÙĬØ§
Ùĩ Ø§Ø´
ĠØ¹ ÙĪØ¯Ø©
ĠØ±Ø§Ø¦ Ø¹Ø©
ÙĪØ§ ÙĬØ©
ĠÙĦÙĩ Ø°Ø§
ĠØ¹ÙĦ Ø§Ø¨
ĠØ§ÙĦØ¨ Ø§Ø¨
ĠØŃØ± Ø§Ùħ
ĠÙĤ Ø¯Ùħ
ĠØ§ÙĦØ³ Ø¨
ÙģÙĩÙħ ØªØ´
ÙĪØ¬ ÙĬ
ĠØ§ÙĦØ¹ Ùħ
ĠÙħØŃ ÙĦ
ÙĦÙĬ Ø§
Ø¹ ÙĪØ§
Ø±Ùĥ Ø²
ĠØ¥ Ø®
ÙĨ Ùģ
ĠØ¬ Ø²Ø¡
Ùĥ ÙĦØ©
ĠØ§ÙĦÙħØ¤ÙħÙĨ ÙĬÙĨ
ÙĨ Ø¯ÙĬ
ÙĬ ÙĪÙħ
ĠÙĪ Ø§
ĠØ§Ø¹ ÙĦÙħ
Ø³Ùħ Ø§Ø¡
ĠØ±Ø¨ ÙħØ§
ĠØ§ÙĦØªÙĪ ÙģÙĬÙĤ
ĠØ§ÙĦ Ø§Ø´
ÙĤØ· Ø©
Ø£ ÙĬ
ĠÙĥ ÙĦÙĩØ§
Ø£ Ùĥ
ĠÙĦ Ø°ÙĦÙĥ
ĠÙĪ ÙĥÙĬ
ĠÙĩØ± ÙĬØ±Ø©
ĠØ§Ø®Ø± Ùī
Ġ19 5
ĠØ§ÙĦØ§Ø¬ ØªÙħØ§Ø¹
f i
a u
ĠÙĨÙģØ³ Ùĥ
ĠÙĪ Ø°ÙĦÙĥ
ĠØ£ÙĬ Ø§Ùħ
ĠØ¹ Ø¯
Ø¨Ø± Ø§ÙĩÙĬÙħ
ĠØ§ÙĦØ« ÙĪØ±Ø©
Ø§ØŃ ÙĬ
ĠØµ ÙĪ
ĠØ£ÙĨ Ùĥ
ĠØ§ÙĬ Ø¶Ø§
ĠØ§ÙĦÙĤ ÙĪÙĦ
Ø§Ùģ ÙĤ
ĠÙĬ Ø²ÙĬØ¯
ĠÙĦÙĦ Øª
ĠÙĩØ° Ø§Ùĥ
ĠÙĪØ§ÙĨ Øª
Ġk ho
ĠØ¬Ùħ Ø§Ø¹Ø©
ĠØ´ Ùĥ
Ġ ]
ĠÙħ Ø§ÙĦÙĥ
Ø¨ ÙĨ
Ø® Ø§Ùģ
ĠØª ÙĤØ¯
ĠÙĬØ±ØŃÙħ ÙĩØ§
ĠÙĬØ§ Ø§Ø±Ø¨
ĠÙĥØ« ÙĬØ±Ø©
Ġ ï´
ĠØ§Ùĩ ÙĦØ§
Ø± Ø§Ø±
ĠØ¹ Ø«
ðŁ Ļ
ĠØ¬ ÙħÙĬÙĦØ©
Ùĥ Ø§ÙĬÙĨ
ĠÙĪØ§ÙĦ Ø®
ĠØ§ÙĬ Ø§Ùħ
ĠØ§ÙĦØª Ø´
ĠØ¬ Ø§ÙĬ
Ġ1 1
Ø§Ùĥ Ø³
ÙĦ ÙĦ
Ġm o
ĠÙĬÙĨ Ø¬ØŃÙĥ
ÙĤÙĪ Ø©
ĠØ§ÙĦØ³ ÙħØ§Ø¡
ĠØ§ÙĦ Ø§ÙĬ
ĠØŃÙĬØ§Øª Ùĥ
ĠÙģ Ø¯ÙĬÙĪ
ĠÙĦ ÙĬÙĨØ§
Ø¯Ø± Ùĥ
ĠðŁĺ ®
ĠØ§ÙĦØ¯ ÙĪÙĦØ©
l o
ĠØ§ÙĦ ÙĪØ±
ĠÙģ Ø§ÙĦÙħ
ØµØŃ ÙĬØŃ
ĠÙĪØ¬ ÙĪØ¯
z a
ĠØ§ÙĦØ³ ØŃØ±
ĠØ§Øº ÙģØ±
ĠÙĤ ØªÙĦ
Ø¨ ÙĬØ©
ĠÙĬ Ø±ÙĬØ¯
ĠÙĨØ³ ÙĤØ³ÙĬ
ĠÙħ ÙĤØªØ±ØŃØ§Øª
Ø§Ø¬ ÙĦ
ĠÙĪÙĩ ÙĦ
ĠÙħØ´ ÙĥÙĦ
Ø¯ Ø¹ÙĪÙĦÙĬ
ĠÙĨ Ø±ÙĪØŃ
ĠØ§ØŃ Ø¯
ĠØ±Ø§Ùĥ Ùħ
ĠØ§ÙĦØ³ Ø±
ĠÙħØ¹ Ø§Ùĩ
ĠØ¨Ø§Ø¨ Ø§
3 0
ĠØ¥ Ø³Ùħ
ĠØ¥ÙĨ Ùĩ
ĠØ³ Ø¨ÙĬÙĦ
ĠÙĪÙĦ Ø§Ø¯
Ø§ÙĦ ØŃØ©
ĠØª ÙĤØ±
Ø¹ÙĬ Ø´
ĠÙĦ Ø¬
ĠØµ ÙĦÙĬ
ĠØ§ÙĦØ£ ÙħØ©
ĠÙĥØ§ÙĨ ÙĪ
l lah
Ø±ÙĪ Ø¬
ĠØ¨Ø§ÙĦ Øª
ĠØªÙĩ Ø¯Ø±
-------- --------
ĠØ¹ Ø°Ø§Ø¨
ĠÙħØ¹ Ø§
ĠÙĪØ£ ÙĨØ§
ĠØ´ ÙĥØ±
Ø§Ø¨ ÙĤØ©
Ø² Ø§
ĠÙĦÙĦ Ø¹
ĠÙħØ³Øª Ø¬Ø§Ø¨Ø©
Ø§ÙĦ Ø£
Ø£ ÙĦÙĥ
ĠÙĪ Ø§ÙĤ
Ø¹ Ø§Ø±Ø©
ĠÙĦ Ø§ÙĦØ§
ÙĬÙĥ ÙĪØ±
ÙĨ ÙĪØ¨
ĠØ±Ø¬ Ø¹
ĠØ· ÙĬØ¨
Ø·ÙĬ Ùģ
Ø§Ø¯ Ø§
ĠÙħØ¬ ÙĩÙĪØ¯
ĠØŃÙĬØ§Øª ÙĬ
ĠØ± ÙĬØ¯
Ø§Ø¦ Ø¯Ø©
" .
ÙĦ Ø§Ø¨
Ġb ac
Ġ H
ØªØ¨ Ø§Ø±
Ø§Ø¹ Ø¯Ø©
ĠØª ØªÙħ
ÙĦÙĬ ÙĪÙĨ
Ø± Ùī
ĠÙģ ÙĩØ°Ø§
ĠØª ÙģÙĩÙħ
ĠÙĪØ§ÙĦ Ùĥ
ĠØ§ÙĦØª Øµ
Ø§Ùĥ ÙĨ
ĠØª ØªØŃ
ĠÙĥ ÙĦÙĩ
ĠÙĤØ§ÙĦ ÙĪØ§
ĠðŁĩ ©ðŁĩ¿
Ø§Øª ÙĦÙĬ
ĠÙĬÙĩ Ø¯Ø±
ĠØ§ÙĦØ£ ØŃ
ĠØª ÙģØ±Ø¬
ĠÙħ Ùħ
ĠÙĪØª ØŃ
Ø¨Ø¹ Ø§
ĠÙħÙĨ ÙĥÙħ
Ùģ ÙĪÙĨ
Ø§Ø¦ ØŃ
ÙĦØ¨ Ø§ÙĨÙĬ
Ø¨ Ø±ÙĬ
ĠØ¨ Ø³ÙĬ
Ø§ÙĦ ÙĩØ§
ĠÙģ ÙĥØ±Ø©
ĠØ§ÙĦÙħ ÙĦÙĥ
ĠÙĬ Ø¯ÙĬ
ĠÙĤ ÙĪÙĦÙĬ
Ø§Ø¨ Øª
ĠØµ Ø§Ø±
Ùĥ ÙĬÙĨ
ĠÙĦ Ø§ØŃ
ĠØ§ÙĦØŃ Ø³ÙĨ
ĠÙĥ ÙģØ±
ĠØ§ÙĦØ³ ÙĦ
ĠØ³ Ø§Ùħ
Ø¹ Ø§Ø±
ĠðŁ¥ °
ĠØ± Ø§
ĠØ§ÙĦØµØŃ Ø§Ø¨Ø©
ĠØ§ÙĦÙħØ¬ ØªÙħØ¹
ĠØ¥ ÙĬ
Ø¹ ÙĦÙĩ
Øµ Ø§Ø¯
ĠØ¯ Ùħ
ĠÙħÙĦÙĬ ØŃØ©
ĠØ§ÙĦØ² ÙĪØ¬
Ø§ÙĦ ÙĩÙħ
ĠÙĪØ¥ÙĨ ÙħØ§
ĠØ¬ Ø§ÙĪØ¨
ĠØ¹ÙĨ ÙĩÙħ
Ø¶ Ùī
ĠØŃ Ø§ÙĦØ©
ØªØ± Ø§Ùħ
ĠØ§Ø± Ø¬ÙĪ
ĠØ£ØŃ Ø³ÙĨ
Ø¯Ø¹ Ø§Ø¡
ĠÙĨØŃ ÙĥÙĬ
ÙĦØ³ ÙĦ
ĠØ§Ø³Øª Ø§Ø¯
ĠØµØº ÙĬØ±Ø©
ĠØ£ ÙĦØ§
ĠÙģ ÙĩÙĬ
ĠÙĩ Ø¯ÙĬ
Ġ _
ĠØ³ÙĬ Ø¨ÙĬØ§
ĠÙĤ Ø§Ùħ
ĠØ¯ Ø§ÙĬ
Ø¹ Ø¶
ÙĨ Ø¹Ùħ
a w
Ø¬ÙĦÙĬ Ø²ÙĬØ©
ĠØµ Ø§ÙĨ
ĠØ§ÙĦØ¹ Ø²ÙĬØ²
ĠÙħ ÙĬÙĨ
ĠØªØ¹ÙĦÙĬ ÙĤÙĬ
Ø¸ ÙĨ
Ø³ Ùĩ
ĠÙĪ Øº
ĠØ¨ Ø§Øº
Ø¬ Ø§Ø²
ĠÙĨ ÙĦ
ĠØµ ÙĪØ±Ø©
ÙĥÙĬ Øª
ĠÙĪØ£ ÙĨØª
Ø§Ø¨ Ùĩ
Ø¬ Ø±Ø©
ĠÙĦØ§ÙĨ ÙĪ
ĠØ³ÙĨ ÙĪØ§Øª
ĠØ£ Ø¬ÙĦ
ĠØ§ÙĦØŃ Ø§ÙĦ
ĠÙĪÙģ ÙĦØ³ÙģØ©
ĠØ§ÙĬ Ø§
ĠØ§ÙĦØª ØŃØ±
ĠØ¨Ø§ÙĦ Ø¥
ĠØ§ÙĦØ¯Ø± ÙĪØ³
ĠÙħÙĦ Ø§ØŃ
ÙĤ ÙĨ
ĠÙĦÙħ Ø§Ø°Ø§
ØºØ± Ø§ÙģÙĬØ§
ĠØ¨ ÙħØ¹
ĠÙĪØŃ Ø¯Ùĩ
ØŃ Ø«
ÙĪÙĨ Ùĩ
Ø¨ÙĬ Ø¹
Ùħ Ø§Øª
ĠØº Ø±ÙĬØ¨
Û ¡
ĠÙĦÙĬ Ø§
ĠØªØ® ÙĪÙģ
Ø· Ø§Ø¡
ĠÙħØ± Øª
ĠØªØ§Ø¹ ÙĪ
ĠÙĦ Ø¥
ĠÙĦ ÙģÙĬØ¯ÙĬÙĪ
ĠÙĪÙĨ Ø¹Ùħ
ĠÙĬØ¬ Ø¹ÙĦ
ĠØ§ÙĦØª ÙĤ
ĠÙĨØ¨ Ø¯Ø§
Ġt e
ĠØ¨ Ø§
ØªÙĪ Ø´
ĠØ§Ø¬ Ø¹ÙĦ
ĠØ¥ Ø¨Ø±Ø§ÙĩÙĬÙħ
â ĺ
ĠØ¬ Ø²Ø§Ø¦Ø±ÙĬ
Ø¨Ø¹ Ø¶
ĠâĿ¤ï¸ı âĿ¤ï¸ı
â Ļ¥ï¸ı
ĠðŁĳ į
ĠØ¢ ÙĦ
Ġvid Ã©
ÙĪÙĨ ÙĬØ©
Ġ el
ĠØ® Ø§ÙĬ
ĠÙĪØ§ÙĦ Ø¯ÙĬÙĥ
Ġj e
in a
âĢ ª
Ġâľ ¨
p p
ĠØ§ÙĦÙħ Ø§Ø¡
Ø±ÙĬ Øª
ĠÚ¨ Ø§Ø¹
ĠØ¨ ÙĩÙħ
ĠØ´Ø§Ø¡ Ø§ÙĦÙĦÙĩ
ĠØ§ÙĦÙħ Ø¯ÙĬÙĨØ©
ĠØ§ÙĦØ· Ø±ÙĬÙĤ
ch i
ÙĪ Ø¨Ø±
ĠØ¨ Ø§Øª
ĠÙģ Ùĥ
ĠÙĬØ±Ø²ÙĤ Ùĥ
ÙĥÙĨ Ùĩ
Ø¬ ÙĬØ©
ĠØ§ÙĦÙħ ØªÙĪ
ÙĪÙħ ÙĪÙĨ
ĠÙĩ Ø§Ø°Ø§
ĠØ§ÙĦØ§ÙĨ Ø³Ø§ÙĨ
ÙĨ ØŃØ¨Ùĥ
Ø± Ùĩ
Ġ is
ĠÙĪØ§ÙĦ ØŃÙħØ¯
ep ia
ĠØ´ ÙĪÙģ
Ġs u
ĠØ® Ø¯Ùħ
Ø« Ùħ
ĠÙĬÙĪ ÙħØ§
ĠØ§ÙĦØ± Ø¬Ø§ÙĦ
ĠØ· Ø§ØŃ
Ø§Ø± ÙĬÙĨ
ĠÙĪÙĦÙĥ ÙĦ
ĠØª ÙĤØ¯Ùħ
ĠÙĬØ¹ ÙĬØ´
Ùħ ÙĬØ±
Ø§ØŃ ÙĬØ©
ĠØ³ÙĪ Ø§Ø¡
ĠØ£Øª ÙħÙĨÙī
ĠØ· Ø¨
ĠØ§ÙĦÙħ Ø¨
Ø³ ÙĨØ©
ĠÙĬ Ø³Ø±
Ġ N
Ġf or
ĠØ¨ÙĦÙĬ ÙĬØ²
Ø® ÙĦÙĪ
Ø° ÙĬÙĨ
ĠØ§ÙĦØ® ÙĪÙģ
ĠØ¬Ùħ ÙĦØ©
s t
ĠØ§ÙĦ Ø±Ø¨
ĠØ² Ø§Ø¯
Ø§ÙĨ Ø¨
ÙĤØ¯Ø± Ø´
ĠØŃ Ø§Ø¬
ĠÙĪØªØ¹ Ø§ÙĦÙī
ĠØ±Ø§Ùĥ ÙĦÙĬØ·Ø©
Ø³ ÙĬÙĨ
Ø§ÙĨÙĬ Ø´
ðŁ «
ĠØ§ÙĦØ£ ÙĦØ¨Ø§ÙĨÙĬ
ĠØ²Ø¹ ÙħØ§
Ø§ÙĦ ÙĨ
ĠØ¶ Ø¯
ĠÙĪØ§ÙĦ Ø±
ĠØ¨Ùĥ Ø±ÙĬ
ĠÙģ Ø§Ø±
b e
Ø¨ØŃ Ø«
ÙĪØ¬ Ùĩ
Ø³ ÙĥØ±
ĠØ¨ Ø§ÙĨ
ĠÙĩ Ø¯Ø±
ĠðŁ Ļ
Ø± ÙĬØ©
Ø¨ Ø§Ø¡
Ø¹ÙĨ Ø¯ÙĬ
ĠØ± ØŃØª
ĠØ§ÙĦØ· Ø±ÙĬÙĤØ©
ĠØ¨Ø§ÙĦ Ø±
ĠØ§Ø¨ ÙĪÙĨÙĬ
ĠØ¨Ø§ÙĦ ØŃ
ĠØ¹ Ø±Ø¨ÙĬØ©
ĠÙģ Ø§ÙĨ
Ġa nd
ĠÙĦ ÙĪÙĦ
Ġp ar
ĠØ§ÙĦÙĥ Ø±ÙĬÙħØ©
ðŁĴ ª
ĠÙĪØ¹ ÙĦÙĬÙĥÙħ
Ø§ÙĪ Ùī
Ø« Ø§Ø±
ou m
i e
ĠØ§ÙĨ ÙĩØ§
ØŃ ÙĨØ§
Ø§Ø¦ ÙĦØ©
ĠØ¬Ø§Ùħ ÙĬ
ÙĪ Ø§Ùĩ
Ø±Ùģ Ø¹
Ø® Ø©
Ø® Ø¯Ùħ
ĠØ§ÙĦØ³ Ø§Ø¹Ø©
ou t
ĠÙĦ Ø·
ĠØ¹ ÙĨØ§
ĠØŃ ÙĤÙĬÙĤØ©
ĠØ§ÙĦÙĨ ÙĩØ§Ø±
ĠØ±Ø§Ø¬ ÙĦ
ÙĦØ§ÙħÙĬ Ø°
ĠÙĬØ® ÙĦÙĬÙĥ
ĠÙĦÙĦ Ø¬ÙħÙĬØ¹
ĠØ§ÙĦÙĤÙĨ Ø§Ø©
ĠØ¨ Ø§Ø°ÙĨ
Ùħ Ùħ
ĠØ³ÙĨ ÙĬÙĨ
ĠØ¨Ø§ÙĦ Ø¬
ĠØ³ ÙĦØ³ÙĦØ©
ĠØ§Ø¬ ÙħØ¹ÙĬÙĨ
Øµ Ø¨Ø§ØŃ
ĠØ§ÙĦØ£ Ø¹
Ø³Ø¨ØŃ Ø§ÙĨ
ØŃ Ø§Ø¨
ĠÙĬ ØªÙĪ
ĠØ¢ ÙħÙĨ
an a
Ø§ÙĪ Ø²
Ġvid eo
ĠÙĨ Ø¸Ø±
ĠØµ Ø¯ÙĤ
ĠØªØ¹ÙĬØ´ ÙĬ
ðŁĺ ģ
ĠØ¬ ÙĪ
ĠØ£Ø® Ø°
ĠÙĬ Ø²
ĠÙĬ ÙĤØ§ÙĦ
Ø§Ùģ Ø¹
ĠÙĦ Ø±
ĠØŃ ÙĤØ§
ĠØ¹ Ø¨Ø±
ĠØ±Ø£ ÙĬ
Ø±ÙĬ Ø³
ĠÙĪ ØµÙĦ
j a
Ġw e
ĠØ§ÙĦÙħ Ø¹ÙĦÙĪÙħ
ĠðŁ¤² ðŁ¤²
g h
ĠØ§Ø± ÙĬØ¯
ĠÙĦÙĦ Ø¬
ÙĬÙħ ÙĬÙĨ
ĠØŃ ØªØ§
ĠØ´ Ø¦
Ġp our
ĠØ£ÙĬ ÙĩØ§
Ø¯ ÙĪÙĨ
k om
ĠØ§Ùĥ Ø¨Ø±
ĠÙģÙĬ Ø§
ĠØ· Ø§ÙĦ
Ø§Øµ Ø±
ĠÙĨØ® Ø¯Ùħ
ĠØ¹ÙĦØ§ ÙĤØ©
Ø§Ø¨ ÙĤ
ÙĨ Ùĥ
ØŃÙĬ ÙĦ
Ø§Ø±Ùĥ Ø©
ĠØ§Ø® Øª
ĠØ¶ Ø¹ÙĬ
ĠØ§ÙĦØ£Ùħ ÙĪØ±
ĠÙĬÙĩ Ø¯ÙĬ
Øº Ø·
Ø§Øª ÙĨØ§
ĠØ§ÙĦÙĬ ÙĪØªÙĬÙĪØ¨
Ø§Ø¦ Ø¨
ĠÙħÙĪ ÙĤØ¹
2 2
ĠØ® Ø·Ø±
ĠØ¹Ø¨ Ø§Ø¯
ĠÙħ ØŃØ¨
Ø±Ø¨ Øª
ĠØ¹Ø¨ Ø§Ø³
ĠØ£Ø¬ ÙħØ¹ÙĬÙĨ
ĠÙĦÙĦ ØŃ
Ø§Ø¦ ÙħØ©
ÙĦÙĪ Ùĩ
Ø¯ Ø§Ùħ
ĠÙĤ ÙĪÙħ
ĠÙĪØ§ÙĦ Ø«
Ġp as
Ġp ro
ĠØ¨ÙĦ Øº
ĠÙĬ Ø§Ø³
Ø¹ Ùī
ĠØµ ÙĪØ±
ðŁ¤£ ðŁ¤£
ĠØ§ÙĦ Ø§Ø³ØªØ§Ø°
ĠØ£ÙĨ ÙĩÙħ
ĠØ§Ø± Ø²ÙĤ
ÙĤ Ø§ÙħØ©
ÙĪ ÙĪ
ĠØ§ÙĦÙħØ´ ÙĥÙĦ
ĠÙĪ Ø§Ø¶
ĠØ£ ÙĬÙĨ
ĠØ£ Ø®Ø±Ø¬
Ġ F
Ø³ÙĬ Ø¨ÙĬØ§
ĠØ§Ø¯ Ø§Ø¨
ĠØ³ ÙĪÙģ
ĠÙĬØª Ø¹
ĠØµ ØŃØ©
Ġ K
Ø° Ø§Ùĥ
ĠÙĦÙĦ Ø¨Ø§Ùĥ
ĠÙħÙĥ Ø§Ø´
a da
ĠÙĦ Ø¯
ĠØ· Ø§ÙĦØ¨
ĠØ§ÙĦÙĤ ÙĬÙħ
Ġd es
ĠØ¨Ø± ØŃÙħ
ÙĪ Ø§Ø¹
Ø¶ Ø¨
ĠØ§ÙĦØ´ ÙĥØ±
ĠØ§Ø³Øª ØºÙģØ±
ĠÙĤ Ø§Ø¯Ø±
Ø§Øµ ÙħØ©
Ø§Ø® Ø±
ĠÙĪ Ø²ÙĬØ¯
ÙħØ§ÙĨ Ø©
ĠØŃ ÙĦÙĬ
ĠØºÙĬØ± Ùĩ
ĠØ§ÙĦÙģØ± ÙĨØ³ÙĬØ©
ĠØ§ÙĦØª Ø±
Ø´ ØŃØ§ÙĦ
Ø¯ Ø®ÙĦ
ÙĩÙħ Ø´
Ø®ÙĬ Øµ
ØŃ ØªÙī
Ø® Ø§Øµ
ĠØ¯Ø± Ø§ÙĩÙħ
ĠÙĦ ÙĤÙĬ
Ġb a
Ġt h
Û Į
ĠÙĪ ÙĬØ¯
ĠØª Ø¨Ø§Ø±Ùĥ
ĠØ£ Ø¬Ø±
ĠÙĪØ§ÙĦ ÙĤ
ĠØ§ÙĦØ§Ø³ Ø¦ÙĦØ©
Ø·ÙĬ ØŃ
Ġ P
ĠÙĩØ§Ø¯ Ø§
Ø¨Ø¯ ÙĦ
ĠÙģØ¶ ÙĦÙĥÙħ
u t
ĠØ¯ Ø¹ÙĪÙĦÙĬ
ĠØ§ÙĦÙĤ Øµ
ĠÙħØ§Ø² Ø§ÙĦ
ĠØ® Ø¨Ø±
ĠØ§ÙĦØŃ Ø§ÙĦØ©
Ø³ Ø§
ĠÙĬ ÙģÙĩÙħ
Ġha d
Ø¦ ÙĦ
Ġl o
ĠÙĬ ØºÙģØ±
qu e
ĠØª Ø²
ĠØ« Ø§ÙĨ
ĠÙħ ØµØ±
Ùģ Ø§ÙĦ
ĠØ§ÙĦØ¹ ÙĦÙĪÙħ
Ø¯ Ø§Ø¡
ØŃØ¯ Ø«
ĠØ«ÙĦØ§Ø« Ø©
ĠØ£ Ø±Ø¨
Øµ ÙĬ
ØªÙĬ Ùĩ
Ġ202 3
ĠÙĨØ¬ÙĬØ¨ ÙĪ
ĠÙĨ ÙģØ±ØŃ
ĠØ§ÙĦØªØ¹ÙĦÙĬ ÙĤ
Ġ Ì
ĠØª ÙĪÙĦÙĬ
Ø· Ø¨ÙĬ
ĠÙĪØ¹ ÙĨØ¯
ĠðŁĺħ ðŁĺħ
ĠÙħØ¹ Ø±Ùģ
ĠÙĨÙĨØ¬ØŃ ÙĪ
ĠÙħØ¹ ÙĬ
Ġd ir
Ġb i
ðŁĺŃ ðŁĺŃ
ĠÙģ ÙĦÙħØ§
ĠÙħØ¬ Ø±Ø¯
d x
Ø§Ø® ØªÙĬ
Ø° Ùģ
ĠØ£ ÙĨÙĬ
ØªÙĪ ØŃØ´
ĠØ¯ ÙĬØª
ĠØ¢ ÙĦÙĩ
Ø¯ ÙĩØ§
ĠØ§ÙĦØ¥Ø³ÙĦØ§Ùħ ÙĬØ©
ĠØ£Ùħ ÙĬÙĨ
Ø¨Ø¹ Ø«
ðŁ¥ ¹
ĠÙĬ Ø§Ùĥ
Ø¦ ÙĬØ³
ĠØ§ÙĦÙģØ± Ø¯
Ø« Ø§ÙĦ
ĠØ§ÙĦ Ø§ÙĤ
ØºÙĬ ÙĬØ±
ĠÙģÙĬ ÙĨØ§
ĠØ§ÙĦØ· ÙģÙĦ
ĠØ§ÙĦØ¨ÙĤ Ø±Ø©
ĠÙħ ÙĥÙĨ
ĠØ¨ Ø¯Ø§ÙĬØ©
ĠØ£ Øº
ĠÙĦØº Ø§Øª
ĠÙĪØ± Ø³
5 5
ĠØ¨ Ø´Ø±
ĠÙĥ Øª
ĠØªØŃ ÙĬØ©
ĠÙĦØ¹ Ø²ÙĬØ²
ÙĪØ± Ø§
Ø§ÙĦÙħ ÙĪ
ĠØ± Ø²ÙĤ
ĠÙĬÙģØ± ØŃÙĥ
ðŁĺ ĺ
Ø§Ø³Øª Ø§Ø¯
Ùħ ÙħÙĥÙĨ
ha t
ĠâĢ ¢
ĠÙĪØµ Ùģ
ĠØ¨ ÙĬØ¯
Ø§Ø¯ Ø§Øª
ĠØª Ø®ÙĦ
ĠØ§ÙĦÙĪØ· ÙĨÙĬ
ĠÙĪ ÙħÙĬ
ÙĤÙĪ Ø¨Ø©
ĠÙĨÙħ ÙĪØª
ĠÙĦ Ø¹Ø¨
Ø§Ø³ Ø¨Ø©
Ø¸ Ø§Ø±
ĠÙĨØ¬ Ø§ØŃ
ĠÙħÙĪØ³ Ùī
ØŁ !
ÙĦ ØŃ
Ø± Ø§ØŃ
ĠØ¨ÙĬ ÙĩÙħ
ÙĪ Ø¡
ĠØ§ÙĦ Ø¶ÙĬ
ĠØ§ÙĦØª Ø£
ĠØŃ Ø±Ø©
ĠØ¹Ø§Ø¦ Ø´Ø©
l na
ĠØ¹ Ø¯Ø©
ĠÙĬ ÙĦÙĬ
ou ra
ĠØ³ ØŃØ±
Ø¯ÙĬØ± ÙĨØ§
ĠÙħØ± Ø§Øª
ĠÙĪ Ø§Øµ
ĠØ§ÙĦÙĪ ØŃ
ĠÙĨØ¯ Ø®ÙĦ
ĠØ§ÙĦØ¹ Ø¨Ø¯
ĠÙĪØ§Ø¨ ÙĨ
Øµ ÙĬÙĦ
Ġ W
ÙĦØª Ùĥ
ĠØ§ÙĦØµØŃ ÙĬØŃ
ĠÙģ ÙĩÙĦ
ĠÙģ Ø·
ĠÙħØ¹ Ùĥ
Ø§Ø¬ Ø¯
Ø§Ùħ Ø§Øª
Ġn ch
ĠØ£ Ø·
ĠØ³ ÙĬØ±
ĠÙĪ ÙĥÙĬÙģ
ØªØ± Ùħ
ĠØ¬ Ø²Ø§Ø¦Ø±
Ġâ Ļ¥ï¸ı
Ø£ Ùħ
Ø¯ÙĬ ÙħØ©
ĠØ§ÙĦÙĤ Ø³Ùħ
ĠØ¥ÙĦÙĬ Ùĥ
ĠØ¯Ø§Ø® ÙĦ
Øµ Ø¨
ĠØ· ÙģÙĦØ©
ĠØ¨ Ø±ÙĪ
ĠØ´ Ø§Ø¨
ÙĥØ± Ùħ
ĠØ§ÙĦØ£ Ø³ØªØ§Ø°
ĠðŁĴ Ĺ
k i
Ø¹ÙĪ Ø°
ðŁĳ ı
ĠÙĦ ØŃÙĥØ§ÙĬØ©
Ġc ont
ĠØ§Øµ ÙĦØ§
ĠÙħ Ø¯ÙĬÙĨØ©
ĠØ¯ Ø±Ø¬
Ø§Ø´ Ø±Ø©
a i
Ø² ÙĬÙĨ
ĠðŁ Ķ¥
ĠØ« Ø§ÙĦØ«
Ø· ÙĬÙĨÙĬ
ĠØµ Ø¹
ÙĪØ³ Ø¹
ĠÙĪØ³ ÙĩÙĦØ§
ĠÙĪÙĩ Ø°Ùĩ
Ġn e
ĠÙĨØ³Øª ÙĨØ§
h om
ĠØ³ Ø¹Ø¯
ĠØ§ÙĦÙĨ ÙĤ
ĠÙĪØµØŃ Ø¨Ùĩ
ĠØ® Ø±
ĠÙĬ ÙģØ±ØŃ
Ø¹ÙĦ Ø§Ø´
ÙĪÙĬ Ùĩ
ĠØªÙĤ Ø¨ÙĦ
ĠÙĪØ¥ ÙĨØ§
ĠÙģ Ø§ÙĩÙħ
Ø§Ø· Ø©
ĠØ§ÙĦÙħØ¬ ÙĩØ±
Ġ20 0
ĠØ· Ø¨ÙĬ
ĠÙģ Ø±ÙĬ
Ġ E
ÙĪØªÙĬ ÙĪØ¨Ø±
ÙĦÙĬ Ø³
ĠØĮ ØĮ
ĠâĢ ª
Ø¯ÙĬ Ø§Øª
ĠÙĤØ±ÙĬ Øª
ĠØ®Ø§Ø· Ø±
ĠØªØŃ Ø·
ĠÙĦ Øµ
ĠØ® ÙģØª
Ùħ Ø¨Ø±ÙĪÙĥ
ĠÙĬ ÙĪØ³Ùģ
ĠØ° Ø§Øª
ĠØ«Ø§ÙĨÙĬ Ø§
ĠØ§ÙĦÙĦ Øº
ĠÙħ Ø±ÙĪ
ĠÙĤ ÙħØ©
ĠØ¨ÙĦØ§ Ùĥ
ĠØ§ÙĦØ£ Ø´
Ø§Ø¦ Ø¬
Ù ł
ĠÙĪØ¬ Ø¯
ĠØ¸ ÙĩØ±
Ø§ÙĨÙĬ Ø§
ĠØª ÙĨØª
ÙĪÙĨ Ø³ÙĬ
ĠÙĤÙĦØ¨ Ùĥ
f a
ĠÙĪ Ø§Ø¯
Ø¨ ØºÙĬ
â Ļ
ĠØ£ÙĨ ÙģØ³
ĠØ§ÙĦØ¯Ø± Ø§Ø³Ø©
ĠØ¨Ø´ ÙĥÙĦ
Ġâ Ļ¥
ÙĦ Ø§ÙĨ
ĠØ±Ø¬ Ø§ÙĦ
ĠØ§ÙĦØ¥ Ø³Øª
Ø±Ùĥ Ø§Øª
Ø¨ÙĬ ÙĬÙĨ
Ø§ ÙĤØ©
ĠØ§ÙĦØŃ ÙĤÙĬ
ĠØ§ÙĦ Ø§Ùģ
Ø±Ø¶ Ùī
ĠØ£Ùħ Ø§Ùħ
ĠØ¯ÙĬ ÙħØ§
ĠØ§ÙĦÙħ Ø§ÙĦ
Ø¹ Ø§ÙĨ
3 3
Ø§ØŃ Ø¨
Ùĩ Ø§Ø°
ĠØ§ÙĨ ØªÙĬ
4 7
ĠØ¨ÙĨ ÙģØ³
ĠÙĨØµ ÙĬØŃØ©
ĠØ£ Ø«
ĠÙĨØª Ø¨Ø¹
ĠÙĨØ¨ ÙĬÙĨØ§
ĠÙĪ Ø³ÙĬ
Ø® Ø·
Ø¹ÙĪ Ø©
ĠÙħ Ø¯Ø©
Ø± Ø§ÙĨØ§
Ø· ÙĤ
ĠØ³ ÙĩÙĦØ§
ĠÙĪØ§ÙĦ ÙħØ¹
ĠÙĨØ¯ÙĬØ± ÙĪ
ĠØªØ¯ Ø®ÙĦ
Ø¬ Ø§Ø¬
ØŃ Ø§
ra n
Ġ }
ĠØ§ÙĦØ² ÙĪØ§Ø¬
ĠØ§ÙĦÙħØ¹ÙĦÙĪÙħ Ø§Øª
Ùģ ÙĬÙĨ
Ø§Ø´ ÙĬ
ĠØ° Ø§Ùĥ
ĠÙĪÙĥ Ø°ÙĦÙĥ
Ùģ ÙĨ
ĠØ§ÙĦØ§ÙĪ ÙĦÙī
ĠÙĨ Ø¶
ĠØŃÙĬ Ø§Ø©
ĠÙĦ ÙĦÙĥ
Ø§Ø¦Ùĥ Ø©
ĠØ§ÙĦØŃ Ø¨
ĠÙĩØ° ÙĪ
ĠØ¨Ø¹Ø¯ ÙĩØ§
ØŃÙĥ Ø§Ùħ
00 0
a tion
ĠØ§ÙĦÙĥ Ø¨ÙĬØ±
ĠØ¨ÙĦ Ø§Ø¯ÙĬ
ĠÙĦÙĦ Ø¥
Ø§Ø· Ø±
Ġb on
j i
ĠØ§ÙĦØ¹ÙĦÙħ ÙĬØ©
Ø±ÙĬØ¨ ÙĬØ©
ĠØ§Øµ Ø¨ØŃ
ĠÙĦ ØºØ©
ÙĪÙĦÙĬ Ø©
ĠÙĬØ±ØŃÙħ ÙĪ
ĠðŁİī ðŁİī
ÙĤØ¯ ÙħØ©
Øª Ø³
ÙĦÙĪ Ø±ÙĬØ§
ĠØ§ÙĦØ§Ø¯ Ø¨
ĠØ£ ØŃÙĬ
ĠØ§ÙĦØµ Ùģ
ÙĬ ÙĦÙĬ
ĠÙħØ´ Ø§Ø¡
Ø§Ø £
ĠØ¹ Ø§Ø´
ÙĪ Ø¹Ø©
ĠÙħ ÙĬØª
ĠØ¨ ÙĪØ±
ĠØ§ÙĦØ¹ ÙĬÙĨ
Ġm n
ĠØ² Ùĩ
ĠØ§ÙĦÙģØ± ÙĨØ³ÙĬ
ĠØ¥ Ø³Øª
Ġâ ĺ
ĠØ· Ø¨Ø¹Ø§
ĠØ§ÙĦØ® ÙĦÙĤ
Ø³Ùħ ØŃ
Øµ Ø¨ØŃ
ĠØ¯ ÙĤÙĬÙĤØ©
ĠÙĬØ¹ Ø·ÙĬ
ĠÙħ ØŃÙħ
Ġ #
Ø¨ Ø³Ùħ
Ø§ÙĨ Ø´Ø§Ø¡
Ø³ Ø¯
ĠÙģ ÙĥØ§ÙĨ
Ø¦ Ùĥ
ĠØ´ÙĥØ±Ø§ Ø§
ĠÙħØ¹ Ø§ÙĥÙħ
ĠØ¶ Ø¹
ĠÙĪØ± Ø¯
ĠØ§ÙĦØªØ¹ÙĦÙĬ Ùħ
ĠÙĪÙĥØ§ÙĨ Øª
Ø´ÙĬ Ø§Ø¡
ĠØ¬ ÙĬØ¨
Ùģ ÙĬØ©
Ġ3 0
ÙģØ± ØŃÙĪ
Ġs t
Ø§Ø± Ø§
ÙģÙĬ Ùĩ
Ø¨ Ø²
ĠØª ÙĪÙĥ
ĠðŁ¥ ¹
Ùģ ÙĥØ±
Øµ ÙĪØ±
ĠØ§ÙĦÙħÙĪ Ø§Ø¶ÙĬØ¹
ĠÙĨ Ø¨ÙĬ
ÙĢ ÙĢ
ĠÙħ ÙĦØ§
ĠÙĨ ÙĤÙĦ
Ø§Ø· ÙĬÙĨ
ÙĤÙĬ Ø§
ĠØ§ÙĦØŃ Ø±Ø¨
Ø¬ Ø§Øª
ĠÙĩ Ø§
ĠØ¯ Ø¹Ø§Ø¡
ĠØ¨Ø§ÙĦ Ø´
ĠØ¥ÙĦÙĬ ÙĩØ§
ĠÙĪØ§ÙĦ Ø¢
Ø§ÙĪ Ø¯ÙĬ
ĠØ¨Ø± ÙĨØ§ÙħØ¬
ĠÙĨØ§Ø¬ ØŃÙĬÙĨ
ĠØ§ÙĦØ£Ø³ Ø¦ÙĦØ©
ĠØ§ÙĦÙĥ ØªØ¨
ĠØ¯ ÙĪÙĥ
ĠÙĪØ¨ Ø§ÙĦ
an t
ĠÙĪÙĬ ÙĤÙĪÙĦ
Ø®Ø± ÙĬÙĨ
ÙĬØª ÙĩØ§
ĠÙħ ÙĪÙĦ
ĠØ¨ ÙħÙĨ
ĠØ§ÙĦØ± Ø³
ĠÙĩØ§Ø¯ ÙĪ
ÙĬ Ø·
ĠØ¨ ØºÙĬØ±
ĠØª ÙĤÙĪÙĦÙĬ
ĠÙĥ Ø£ÙĨ
ĠØ¯ ÙĦÙĬÙĦ
ĠÙĬØ¹ ÙħÙĦ
ĠØ§ÙĦØ§Ø³ Ùħ
ÙĬØ§Ø® ÙĪ
ĠÙĦØ¹ Ø§Ùħ
ĠðŁĺĬ ðŁĺĬ
ĠÙħ Ø§Ø¯Ø©
ĠÙģ Ø´
ĠØ± Ø¤
ĠØ§ÙĦØ¬ ÙħØ¹Ø©
Ġa n
ĠÙĥØªØ§Ø¨ Ùĩ
ĠØ§ÙĦØ³ ÙĦÙģ
ĠØ§ØŃ Ø¨
ĠÙĪ Ø¶
ĠØ§ÙĦØ® Ø§ØµØ©
ĠÙģ ÙĦØ³ÙģØ©
Ġo f
ĠØª Ø¯ÙĬØ±
H hh
ĠØ³ Ø¹
ĠØ´ ÙĪÙĬØ§
ĠØ¨ Ø³Ùħ
ĠÙĥ Ø±ÙĬÙħ
ĠØª Ø²ÙĬØ¯
ĠØªÙĤ Ø±ÙĬ
Ġra bi
ĠØ§ÙĦ ÙĪØ§ÙĤØ¹
ĠÙĬØ³ ÙħØ¹
ĠØ§ÙĦØµ ÙĪØ±Ø©
ĠÙĨØ± ÙĤØ¯
ÙĥØ± Ùĥ
ĠØ§ÙĦØ£ Øµ
Ø± Ø§ÙĨ
ĠÙģØ¹ ÙĦØ§
ĠÙħ ÙĩÙħØ§
ØªÙħ Ø¯
ka ya
ĠÙĩØ§Ø° ÙĪ
Ø§Ø± Ø¹
ĠØ±Ø¨ Ùĥ
ĠØªØ± Ùī
ĠØ¯ Ø§ÙĪØ¯
Ø±ÙĬØŃ ÙĬØ©
ĠØ³ Ø¤
ÙĤØª Ùĥ
ĠÙĨØ¹ Ø§ÙĪØ¯
ĠØŃ ÙĥÙĬ
Ø¯Ùĥ Ø³
Ø§ÙĨ Ø´
ĠÙħÙĨ ÙĪ
ĠØµØ± Ø§ØŃØ©
Ġqu e
Ø³ ØŃ
ÙĩØ¯ Ø§Ø¡
ĠØ£ ÙĩÙħ
ØŃ Ø³ÙĨ
d ir
ĠÙģ Ø¬
ĠØ§ÙĦÙħ ÙĤØ§ÙĦ
ĠØ¨Ùĩ Ø°Ùĩ
ĠØ§ÙĦØ§Ùħ Ø±
ĠØ§Ø¬ ØªÙħØ§Ø¹
ĠÙĥ ÙĦÙħ
ÙĨØª Ø§
Ø¨Ø± ÙĪ
ĠØ±ÙĪ Ø·Ø§Ø±
ĠÙĪØ± Ø§ÙĨÙĬ
Ġn ta
Ú ©
an i
ĠÙĪ Ø§ØµÙĦ
ĠØªØ¹ Ø¨
ÙĨÙĬ Ø´
Ġw lh
ĠØª ÙĨØ³
Ùĥ Ø´
ĠØµ ÙĨ
Ø§Ø¬ Ø¨
ĠØ¨Ø§ÙĦ Ùģ
Ø² ÙĪ
ĠØŃ ÙĦÙĪ
Ø§Ùģ ÙĬÙĥ
ĠØ¹ÙħØ± ÙĪ
ÙĬÙħ ÙĬØ©
ĠÙĪØ£ Ø³
il le
ÙĨ ØªÙĬ
ĠÙħ Ø§Ø¨
ĠØ§ÙĦØ³ÙĬ Ø§Ø³ÙĬ
ÙĤÙĪ ÙĤ
ĠØª Ø§ÙĪ
Y a
Ø®Ø± Ø§
Ø² Ø§Ùħ
ĠØŃ ÙĨ
ĠØ§Ùĩ ÙĦ
ĠØª Ø¶
ĠØ´ ØºÙĦ
ĠØ§ÙĬ Ùĩ
ĠØ£Ø¨ Ø¯Ø§
ÙĤ Ø§Ø¯
ĠÙĪÙħ Ø³ÙĦÙħ
ĠØ¨Ø§ÙĬÙĨ Ø©
ĠØ§ÙĦÙħØ³ Ø¬Ø¯
ĠØ§ÙĦØ¨ÙĦ Ø§Ø¯
5 0
ĠØ¨Ø§Ø³ ÙĥÙĪ
ĠÙĥ Ø§Ø±
ÙĪÙĬ ÙĦ
ĠÙĬØ¯ ÙĦ
Øµ ÙĦØª
ĠØ§ÙĦØ¯Ø± Ø³
ĠÙĪ Ø±ÙĪ
ĠÙĨÙĥ ØªØ¨
Ġa b
ĠØ±ÙĬ Ø§Ø¶
ĠðŁĺį ðŁĺį
ĠÙĬØŃÙģØ¸ ÙĥÙħ
ÙĦ Ø¹
Ø¸ Ø§ÙĩØ±
ĠØ§ ÙĬÙĨ
ĠØ§ÙĦÙĤØ± Ø§ÙĨ
ĠØ® ÙģÙĬ
ØŃÙĥ Ø§ÙĬØ§Øª
ĠÙĨØ³ÙĤØ³ÙĬ Ùĥ
Ġ G
ĠÙĪÙĨ ÙģØ±ØŃ
ÙĤ ØµØµ
Ø® Øª
ĠØ§ÙĦØµ Ø¨Ø§ØŃ
ĠØ®ÙĪ ØªÙĬ
ĠØ§ÙĦ ÙĩØ¯
ÙħÙĪ Ø¹Ø©
ĠØ§ÙĦÙĪ Øµ
ðŁĴ ľ
ĠØ¨Ø¹ ÙĬØ¯
ĠÙħ ÙĪØª
ĠÙĨØŃ ÙģØ¸
ha n
ÙĤÙĪ Ùī
Ġf a
Ø£ ÙģØ¶ÙĦ
ĠØ§ÙĦÙĥ ÙĦ
Ø´ Ø±ØŃ
ĠØ¬ Ø±
ĠÙĨÙģØ³ ÙĩØ§
Ø§ÙĬ Ø¬
ĠvidÃ© o
ĠØ§ÙĦØ¹ ÙĬØ¯
Øµ Ø¨Ø±
ĠØ± ÙģØ¹
Ø³ ÙħØ¹
Ø§Ùħ Ø±
m i
ĠØª ÙħØ±
ĠðŁĺ ģ
Ø³ÙĬ ÙĤÙī
ĠØ§ÙĦØ¥ ÙĨ
ĠØª Ø±Ø¬
ĠØ§ÙĦØ¨ ØŃØ±
ĠØ§ÙĨ Ø´
ĠÙĨØ´ Ø±ÙĬ
ĠØ§ÙĦØ³ ÙĨ
Ġc on
ĠØ¨ Ø§ÙĤÙĬ
Ø§Ùħ ÙĨ
Ø§Ø¬ Ø±
ðŁ¥ ²
ĠØ§ÙĦÙħØŃ ØªÙĪÙī
ĠÙĤØ± Ø§Ø¡Ø©
es s
ĠØ¯ ÙĪÙĦ
ĠØ§ÙĦØ¹ Ø´Ø±ÙĬØ©
Ùģ ØªØŃ
9999 9999
Ø§Ø¯ Ø±Ø©
ÙħØ± ØŃØ¨Ø§
ÙĪØ§ ÙĤ
ĠØ§ÙĦØ³ ÙĬØ¯
Ġg a
ĠÙģ Ø§ÙĬ
ĠØ§ÙĦØ¬ Ø¯ÙĬØ¯
Ø§Ø® ÙĬ
Ùħ ØŃ
Ø±ÙĪ Ø¨
ĠÙĨØ® Ø§Ùģ
ĠÙĬØ£ ØªÙĬ
Ø§ÙĦ ÙĨØ§
Ø¯ Ø®
ĠØ· Ø±Ùģ
ĠØ®Ø±Ø¬ Øª
ðŁĴ ĸ
ĠØ§ÙĦØ¨Ø§Ùĥ Ø§ÙĦÙĪØ±ÙĬØ§
ĠØ§ÙĦÙģ ÙĦØ³ÙģØ©
ðŁĮ ¹
Ø¸ ÙħØ©
ĠØ§ÙĦØ£ Ø¨
ÙĪ Ø£
ĠÙĩ ÙħØ§
ØŃÙħ Ùĩ
ĠÙĥ Ø´
Ø§Øµ ÙĬ
ĠÙħØ¹ Ø§ÙĩÙħ
ĠØ§ÙĦÙĨ ÙĪ
ou d
ĠØ¬ ÙĪØ§Ø¨
ĠðŁĴ ª
ĠÙĨØªÙĪ ÙħØ§
ĠÙĤ Ø¹Ø¯
ĠØ§ÙĦØ´ Ø±ØŃ
Ø¸ Ø§Ùħ
ĠØ§ÙĦØ¢ Ø®Ø±Ø©
ÙĦ Ø§ØŃ
ĠØ§ÙĦÙĨ Ùģ
t h
ĠØ¨ ÙĥÙħ
ĠÙĬ Ø¨ÙĤÙī
ĠØ§ÙĦØ· ÙĬØ¨Ø©
Ø§Ùĩ ÙĦØ§
c t
ĠØ¨ ÙĦÙħ
ÙģØ± ÙĤ
ÙħÙĬ Ùħ
ÙĬØ³ Ùī
f d
ĠØª Ø±ÙĪØŃ
ĠØ£Ø± Ø§Ø¯
Ġ č
ÙĪØ¯ Ø§Ø¡
Ú ¤
ĠØ² ÙħØ§ÙĨ
Ø¬ ÙĪØ¯
ĠØ§ÙĦÙĤ Ø¨Ø±
ĠÙĩØ° ÙĬÙĥ
Ø§Ùģ Ùĩ
ĠÙĪ Ø±Ø¨
ĠØ® Ø§Ø±Ø¬
ĠØ§ÙĦÙĬ ÙĩÙĪØ¯
Ø³ ÙĬØ¯
ĠØ§ÙĦØ¹ ÙĤÙĦ
ÙĤØ¯Ø± ØªØ´
l y
o w
Ùĩ Ø§Ø¨
ĠÙħØª Ø§Ø¨Ø¹
ĠÙħÙĥÙĨ ÙĬØ©
ĠÙĤØ¯ Ø§Ùħ
ĠØ£Ø® Ø¨Ø±
Ø§Ø¹ ÙĦ
ĠØ§ÙĦÙħ Ùĥ
ĠÙĪ Ø§ÙĬ
ĠØ§ÙĦÙħ Ø¨Ø§Ø±Ùĥ
ĠÙĪØ§ÙĦ Ø¨
Ø¸ ÙĬ
ĠØ§ÙĦÙĪ ÙĦØ§
ĠØ¹ Ùģ
ĠØ§ÙĦØ£ÙĨ Ø¨ÙĬØ§Ø¡
ĠØ§ÙĦØŃ Ø¯
ĠØ§ÙĦØ´ÙĬ Ø¡
ĠØ§ÙĦÙģØ±Ø¯ ÙĪØ³
ĠØ§Ø¯ Ø§
ĠØ¹ Ø§ÙĬØ´
ĠÙĦÙĬ ÙĦ
ĠÙĬÙģ ØªØŃ
ĠÙĨ Ø³ÙĬ
ĠØ¶ Ø±Ø¨
Ø§ÙĬ ÙĦ
Ø£ ÙĦØ©
ĠØ£Ø¹ Ø¸Ùħ
ĠÙĨ ÙĩØ§ÙĬØ©
Ø· ÙĨ
Ø° Ùĥ
ĠØ¹ÙĨ ÙĩÙħØ§
Ġu n
ĠÙĬØ® Ø¯Ùħ
ĠÙĨ Ø§ÙĤ
Ø± Ø§Ùĩ
Ø§ Ø§
ĠÙĬ Ø°ÙĥØ±
ĠØ¬ Ø¨Øª
ĠØ§ÙĦÙħØ¹ ÙĨÙī
ĠÙĬ ÙĪØªÙĬÙĪØ¨Ø±
ĠÙĨØ³ Ø£ÙĦ
ĠÙĤ ÙĬÙĦ
ÙĤ Ø§Ùħ
p e
ĠØ¨Ø¹ Ø«
ĠØ¨ Ø§ÙĬ
ØŃ Ø·
4 4
Ø¥ ÙĨØ§
ĠØ§ÙĦÙħ Ø±Ø©
ĠØ¹ Ø±Ø¨ÙĬ
ĠØ§ÙĦÙģØ± ÙĤ
Ø§Ùĥ Øª
ĠØµØŃ Ø§Ø¨
ĠÙĪÙĬ ÙĪÙģÙĤ
Ø§Ø¨ Ø±
ĠðŁ¥ ²
2 5
ĠÙħ Ø±ÙĬÙħ
ÙĨØ§ ÙĤ
ĠØŁ !
Ø¬ Ø§Ø±
ĠØ¨ Ø¨
ĠØ® ÙĦÙģ
ĠÙĪÙĬ Ø´
ÙĦØ¨ Ø³
ðŁ¤ Ķ
ĠØµ Ø¨Ø±
ĠÙĥ ØªØ±
Ġ202 1
Ø·Ø§ ÙĤØ©
ĠÙĬ Ø¶
Ġ Y
ÙĦØª ÙĩØ§
/ /
n t
ĠØ§ÙĦØµ Ø§ÙĦØŃØ©
ĠÙħØ§Øª Øª
ĠØ¹ Ø¶
ĠðŁĮ ¹
Ùħ Ùĥ
ĠÙĥ Ø§Ùħ
ĠÙħØ¹ Ø±ÙĪÙģ
ĠØ¬ Ø¹
ĠØ® Ùħ
ĠÙħØ±ÙĬ Ø¶
Ø§Ø¬ Ùĩ
ĠØ§ÙĦØ± Ø¬
ĠÙĤ ÙĬÙħØ©
Ø¬ ÙĪØ²
ĠØ§Ø ²
v o
Ġ, ,
ĠÙħØ§Ùĩ ÙĪ
ĠØª Ø°ÙĥØ±
" ØĮ
ĠÙģ ÙĪØ±
ÙĬØ± ÙĪ
ĠØ§Ø± Ø¬
ĠÙĩØ§ÙĬ ÙĦ
m ent
Ġ on
ĠÙģ ÙĥØ±
ĠØª ÙĬÙħÙĬØ©
ÙĤØµ ÙĪØ¯
ĠØ¨Ø£ Ø³
s s
ĠÙĨØŃ ÙĪ
Ġra k
Ø±Ø§Ùĥ ÙĦÙĬØ·Ø©
Ø« Ø±Ø©
ĠðŁ «
ĠØ§ÙĦØ´ Ø±Ùĥ
ĠÙĨ ÙĤØµ
Ø· ÙĪÙĦ
ØŃ Ø³Ø¨
ĠØ³ ÙĩÙĦ
ĠØ¯ Ø§
ĠÙĬ ÙħØ§
Øª Ø§ÙĨ
â Ļ¥
ĠØ¥ÙĨ Ø³Ø§ÙĨ
ĠÙĨ Ø³ÙĬØª
Ø· ÙĬÙĨØ©
ĠØ¢ ÙĬØ©
ĠØ³ Ùĩ
ĠØ¯ Ø±Ùĥ
ØºØ± Ø§Ùħ
ĠØ¹ Ø¬Ø¨ØªÙĨÙĬ
ĠÙĨ ÙĤØ±
ĠØ£Ùĩ ÙĦÙĩ
ĠÙĬÙĤ ÙĪÙħ
ĠØ£ÙĨ Ø³
ĠØ§ÙĦØ§Ø¬ Ø§Ø¨Ø©
Ġ O
ĠØ¯ÙĬØ± ÙĪ
ĠØ§ÙĦØ§Ø® Øª
ĠØ« Ø¨Øª
Ùģ Ø±ÙĬ
ĠØ³ Ø¨ÙĤ
ĠØ¶ ÙĬÙģ
ĠØ¸ ÙĦ
u x
ØªÙĩ Ø§Ø´
ĠÙħ ØªÙī
ĠØ§ÙĦÙĨ ÙĪØ¹
ĠØ± ÙĪØ§ÙĬØ©
Ø§Ø¹ Ùĩ
Ø´ÙĥØ±Ø§ Ø§
Ø·Ùģ Ùī
ĠØ¹ ÙĬÙĨÙĬ
ĠÙĬ ÙĤØª
ĠØ§ÙĦØ³Ø¨ Ø¨
Ġï´ ¿
ĠÙĪØ§ÙĦ ÙħØ±
ĠØ° ÙĩØ¨
Ø¹Ùħ Ø§Ø±
ĠÙĨØŃ ÙĪØ³
ĠØ§ÙĦÙħÙĪ Ø§Ø¯
ĠÙĬÙĥ ØªØ¨
ĠÙĪÙģÙĤ ÙĨØ§
ĠÙħØ§Ùĩ ÙĬ
Ø¹Ø¨ Ø§Ø³ÙĬØ©
Ġre dx
ĠØ§ÙĦÙĥ ÙĦÙħØ§Øª
ĠØª ØªÙĪ
ĠØ§ÙĦ ÙĦÙĤ
ĠÙĤ Ø§Ø¯Ø©
ĠØªØ¨ Ø§ÙĨ
ĠØ¨ÙĨ Ø§Øª
ĠØ¹ Ø±Ø¶
ĠØ± Ø§Ø¨
ĠÙĪØ§ÙĦØ³ ÙĦÙĪØ§ÙĨ
ĠØ¬ Ø²
Ø¹Ø¯ Ùĥ
Ø´ÙĬ Ø¡
ĠÙĬØ³Øª Ø±
ÙĨØ¯ÙĬ Ø´
ðŁĳ Į
Ġ âĿ
Ø¨Ø¯ ÙĪ
g er
ĠÙħØ¹ Ø±ÙģØ©
ĠØª Ø¤
Øª ÙĪØ§
Ùħ Ø±ÙĬ
ĠØ§ÙĦØ¹ ÙĦÙĬ
Ġ) )
ĠÙĥØ± Ùĩ
Ùħ ÙĪØ¹
ĠØ§Ø¹ Ø±Ùģ
Ø¨Ø§ ÙĤÙĬ
ĠØ¹ ÙĬØ³Ùī
ĠÙĨÙĤÙĪÙĦ ÙĪ
ĠÙħØ¹ Ø§ÙĩØ§
ĠÙĤ ÙĦÙĬÙĦ
Ġs e
Ġ** *
ØªÙħ Ø§Ùħ
Ġb est
ĠÙĥ Ø§ÙħÙĦØ©
ĠÙĬØ¯ÙĬØ± ÙĪ
ĠØ§ÙĦØ¬Ø²Ø§Ø¦Ø±ÙĬ ÙĬÙĨ
Ù ¡
ĠØ¹ Ø¸ÙĬÙħ
ĠÙĩ ÙĪØ§
ðŁĺħ ðŁĺħ
ĠÙħÙĦ Ø®Øµ
Ùģ Ø§Ø¯
ĠÙĦ ÙħØ±
Ùĩ Ø§ØªÙĥ
ĠØ§ÙĦØ¨ Ø´Ø±
ĠØ§ÙĦÙĥ ÙĦÙħØ©
Ø´ ÙĬØ®
ÙĦ Ø§ÙĦØ§
Ø§Ø¯ ÙĬØ©
ĠÙĬØŃ Ø·
Øº Ø±Ø¨
ou l
ĠØ¢ Ø¯Ùħ
ĠÙĪØŃ ØªÙī
Ġk ha
ĠØµØŃÙĬ ØŃØ©
ĠØ¹Ø« ÙħØ§ÙĨ
Ùħ ÙĪØª
Ø³ Ø§Ø³
ĠØŃ Ø¶
ØµØŃ Ùĥ
ĠØªÙħ Ø§Ø±ÙĬÙĨ
ĠØ§ÙĦØ´ Ø¨Ø§Ø¨
ĠØª ÙĥÙĨ
ĠÙĨØ¬ ÙĬ
Ø§Ø± Øª
ĠØ¯ ÙĪÙĦØ©
Ø§ÙĪ Ø©
ĠØ¨ÙĨ Ø§Ø¡
ðŁĴ ķ
ĠÙĦ ÙĦÙĪ
ĠØ§ÙĦÙģ Ø¬Ø±
ĠØŃ ÙĦÙħÙĬ
ðŁİī ðŁİī
ĠÙĪØ±Ø³ ÙĪÙĦÙĩ
2 4
Ø³Ø¨ ÙĪÙĥ
Ġf r
s h
ĠØ§ÙĦÙĤ Ø¯Ø±
ĠÙħØ³Øª ÙĪÙī
Ø° ÙĦ
ÙĤØª ØµØ§Ø¯
ĠØ¹ÙĦÙħ Ø§Ø¡
ĠØ³ÙĬ Ø¯ÙĬ
ĠØ±ÙĬ Ø¶Ø§
Ø£Ø³ Ùģ
ĠÙĪØª ÙĨ
oura ge
ĠÙĬ ÙĩØ¯
ĠØ¬ Ùĩ
Ø¯ Ø§Ø¨
ĠÙĪØ§ÙĦ Ø·
ĠØ¬ÙĨ Ø§ØªÙĩ
ĠØ¨Ø§ÙĦ Ø³
ĠØŃ ÙĦÙħ
ĠØ§Ø³Ùħ ÙĩØ§
ĠØ¨Ø· Ø±ÙĬÙĤØ©
2 3
ÙĤØ¯ ÙĬØ±
Ġg h
ĠØ§ÙĦØŃÙĥ Ø§ÙĬØ§Øª
ĠØ¹Ø±Ùģ Øª
ÙĬØ± Ø§ÙĨ
Ùĥ Ø§
ĠØ§ÙĦÙħ Ùģ
ĠØ§ÙĦØª Ø±Ùħ
ĠØ§ÙĦÙĥ Ø¨
ĠØ´Ø®Øµ ÙĬØ©
ĠØ§ÙĦ ÙĩÙħ
Ġ ~
Ø³Øª Ø§
ĠØ³ Ø§ÙĩÙĦ
ÙĤØ± Ø¢ÙĨ
ĠÙĩØ§ÙĬ ÙĦØ©
ĠØ§ÙĦØŃ Ø§Ø¬Ø©
Ùĩ Ø°ÙĬ
ĠØ§ÙĦØ´ ÙħØ³
ĠÙĪÙĨ Ø´
ðŁĺĬ ðŁĺĬ
ĠÙħ ÙģÙĩÙħØªØ´
ĠØ¨ Ø§Ø³Ùħ
ĠØ§Ø¬ ÙĦ
ĠÙĦÙĦ Ø§Ø³
Ø¶ÙĬ Ø¹
ĠÙģÙĬ ÙĤÙĪÙĦ
ĠÙĤÙĨ Ø§ØªÙĥ
ĠÙĬÙĩ Ø¯ÙĬÙĥ
ĠØ·ÙĪÙĬ ÙĦØ©
ðŁĺ Ķ
ÙĪØ¬ ÙĪØ¯
ĠØ¨Ø¹Ø¶ ÙĩÙħ
Ø²ÙĬ ÙĦ
ĠØ§ÙĦÙĨ Ø¸Ø±
ĠØ§ÙĦØ¨ ÙĨØ§Ø¡
Ø³ÙĨ Ø·ÙĬÙĨØ©
ĠÙĨÙĤÙĪÙĦ Ùĥ
Ø§Ø´ Ø±
ĠØªØ¬ Ø±ÙĬØ¨ÙĬØ©
ĠØ£ Ø±ÙĬØ¯
ĠØ±Ø§ØŃ Øª
ĠØªØ· Ø¨ÙĬ
Øª Ø¬
ĠØ§ÙĦÙĨ Ø¬
ĠØ® ÙħØ³
ĠØ¹Ùħ Ø±Ùĥ
Ùħ ÙĥØ§ÙĨ
ĠÙĬÙĤÙĪÙĦ ÙĪ
ĠØ§ÙĦÙģÙĬØ¯ÙĬÙĪ ÙĩØ§Øª
ĠØ¹ Øµ
ÙĥÙħ Ø©
ØªØ¨ Ø¹
ĠÙĪØ§ÙĦØ³ ÙĨØ©
ĠÙĨ Ø²ÙĬØ¯
ĠÙĬ ÙģØ±Ø¬
ĠØ§ÙĦØ¹ ÙĦØ§ÙħØ©
ĠÙĪØ± Ø§Ø¡
ĠÙĨØŃ Ø³
Øª Ø§ÙĦ
Øµ Ø§ÙĦ
ĠØ± Ø¨ØŃ
Ø· Ø§ÙĦ
ï¸ı â
Ø¯ ÙĨØ§
Ùģ ÙĪØ±
ĠØ§ÙĦØ¹ ÙĨ
ĠØ§ÙĦØµ ÙĪØª
ĠÙĨØ´ Ø§Ø¡
ĠØ§ÙĦØªØ±Ùħ Ø°ÙĬ
ĠÙĬ Ø±ÙĪØŃ
Ø¯ÙĬ ÙĦ
ĠÙĪØ§ÙĦ Ø¯ÙĬ
Ø§Ø¦ Ø©
ĠØº Ø¯ÙĪØ©
Ġ it
ĠÙĪÙħ Ø´
ĠØ±Ø¨ Ùĩ
ĠÙħØ¬ Ø§ÙĦ
ĠÙħØ± Ø§Ø¬Ø¹Ø©
c k
ĠÙĪØ£ÙĨ Ùĩ
ĠØ·ÙĪÙĬ ÙĦ
ĠÙħ Ø¯Ø±
ĠÙĬØ¬ Ø¹ÙĦÙĩØ§
ĠØ§ÙĦØº Ø±Ø¨
ĠÙĬ ØµØ±
Ø¯ÙĬ ÙĪØ§
ĠØ§ÙĦØ£ Ø¯Ø¨
ĠØ§ÙĦ Ø§Øª
ĠØ³ ÙĦÙĬ
ĠÃ ł
Ø§Ùĩ Ø¯Ø©
ĠØ§ÙĦØ® Ø§Øµ
o k
u l
ĠØª Ø®ØµØµ
Ø§Ø¨ Ø§
ĠØ¬ ÙĩØ©
ÙĪ Ø¨Ø©
ĠØªØ¬ Ø¯
ĠØ§ÙĦÙĨ Ø¨ÙĪ
ĠÙĤ ÙĬ
ÙĬÙĨ Ùĩ
ĠØ§ÙĦ Ø§Øµ
Ø®Øµ ÙĪØµ
ĠØ¹ Ø²ÙĬØ²
Ø¯ Ø§Ø¹
ĠØ¨ Ø¯Ø§
Ø· ÙĦØ¨
ĠØ§ÙĦÙĨ Ø§Ø¬
ĠØ£ Ø«Ø±
ĠØ´ Ø±Ùģ
ĠØ´ ÙĬÙĥÙĪØ±
ĠØºØ§ÙĦ Ø·
ĠØ±ÙĪ ØŃÙĪ
ĠÙħ Ø¯Ø±Ø³Ø©
ĠØ§ÙĦØ¬ ÙħÙĬÙĦ
Ġma is
ĠØ¹ ÙĤØ¯
ĠÙĬÙĨ Ø¨ØºÙĬ
ĠØ£Ø¹ Ø·
ĠÙħØ¨ Ø§Ø´Ø±Ø©
ĠÙħÙĨØª Ø¯Ùī
ĠÙħØ¬ÙĩÙĪØ¯ Ø§ØªÙĥ
Ø§Ø¨ Ø§Øª
Ø§Ø¦ ÙĩÙħ
ÙĬ ØªÙĬ
ĠØ§ÙĦÙħ Ø¹Ø¯ÙĦ
ĠØ±Ø³ Ø§ÙĦØ©
v er
ĠØª ÙĤØ±Ø§
Ø« ÙĬ
ĠØ· ÙģÙĦ
ĠðŁĺĤ âĿ¤
ĠØªÙĨ Ø¬ØŃ
ĠÙĨ ÙĤØ·Ø©
ĠØ§ÙĦØ´ ÙĩØ±
ÙĪÙħ ÙĨØª
ĠÙħ Ø¯ÙĬØ±
ÙĪÙĨ ÙĩØ§
ĠÙĦØ§ÙĬ Ùģ
ÙĪ Ø§ÙĨÙĬ
ÙĦØª ÙĨÙĬ
ĠÙĬ ÙħÙĨ
Ø¢ ÙħÙĬÙĨ
ĠÙĨØ¹ ÙħØ©
ĠÙħÙĨ ÙĬØ´
ĠØº ÙĦØ·
ĠØ§ÙĦÙĪ ØŃÙĬØ¯
ĠØ§ÙĦ Ø¯ÙĬ
Ø§Ø± Ø¶
ĠØ§ÙĦØ· Ø¨ÙĬ
ĠØ§ÙĦØ±ÙĬ Ø§Ø¶ÙĬØ§Øª
ĠØ£ Ø¹Ø¯
ĠÙĪÙĨ ØŃÙĨ
ĠØ§ÙĦØµØŃ ÙĬØŃØ©
ĠØª Ø²ÙĪØ¬
ĠØ£ Ø±Ø¬ÙĪ
Ø· Ø¹
ĠØ§Ø³ ÙħÙĬ
ĠØ³ ÙħØ§
ĠØ¬ Ø¨
ĠØ° ÙĬ
ĠÙĦØ§ÙĨ Ùĩ
ĠðŁĳ ı
ĠØ§ÙĦØ« ÙĤ
o i
ØªØŃ ÙĬØ§
ĠØŃ Ø¬Ø±
ĠØ¹ÙĦÙħ Ø§
ĠÙĬØµ Ø¨Ø±
ĠÙĪÙĬØ± Ø²ÙĤ
Ø¨ ÙĪØ¹
ĠÙĪØ§ÙĦ Ø¯ÙĬØ§
Ġ U
ĠØ¹ÙĦÙħ ÙĬØ©
ĠÙĪ Ø§Øº
ĠÙħÙĨ Ø¹Ø±Ùģ
ĠÙĪÙĦ Ø§Øª
ÙĥØª ÙĪØ±
Ùĥ Ø°Ø§
ĠØ§ÙĦÙģ ÙĥØ±Ø©
f t
ĠØ¯ ÙĤ
ĠÙĨØ´ Ø±
ĠØ±Ø¨ ÙĨØ§
ÙĨØ§ ÙĩØ§
ĠØµ ØŃØ¨
ĠØµØ± Ø§Øª
ĠØ§ÙĦÙĤ ÙĦÙĪØ¨
ĠØ§ÙĦÙĨ ÙĪØ±
ĠÙĦØ£ÙĨ ÙĩØ§
Ø¶ÙĪ Ø¡
ĠØµØ§ØŃ Ø¨ÙĬ
ĠØŃ Ø§ÙĪÙĦ
ĠÙĪØ§ÙĦ Ø°ÙĬ
ØªÙĬ Ø´
ĠØ§ÙĦØ¥ Ø¬Ø§Ø¨Ø©
ĠØ§ÙĦÙĪØ§ÙĦ Ø¯ÙĬÙĨ
Ø¹ÙĨØ¯ Ùĥ
Ø± Ø§Ùħ
ĠÙħØµ Ø·ÙĦØŃØ§Øª
Ø¨Ø± Ùī
ÙĪ Ø®
Ø¸ ÙĦÙħ
ĠØ§ÙĦÙĨ Øª
ĠØ¹ ÙĬØ´
ĠØª Ø±ÙĬØ¯
ĠØ° Ø§
ĠØ±Ø£ ÙĬÙĥ
ĠØ§ÙĦØ¹ Ø§ØµÙħØ©
ĠÙģØ¶ ÙĦ
2 6
ĠØ³ Ø¬
ĠØ§ÙĦØ´ Ø¹
ĠØ§ÙĦØ«Ø§ÙĦØ« Ø©
ĠØ¬ Ø¯ÙĬ
ĠÙĪÙħ Øª
s ta
ĠØ¬ ÙħØ§ÙĦ
ĠØªØ³ ÙħØ¹
ĠØ¨Ø§ÙĦÙĨ Ø¬Ø§ØŃ
======== ========
ĠÙħØ´ Ø±ÙĪØ¹
Ø±ÙĬ Ø¨Ø©
ĠÙĬØ± Ùī
ĠÙĬØŃ ÙĥÙĬ
ĠÙĪØ¬ Ø¯Øª
Ù ¢
ÙĪ Ø·
3 5
ĠØª Ø§ÙĨ
ĠØª ØŃÙħ
2 7
ĠØ§ÙĦØ¨ Ø¹Ø¶
Ø¹ÙĪ Ø¶
Ùħ ÙĨÙĬ
ĠÙĥ ÙĦÙħØ§Øª
ĠØ§ÙĦÙĪ Ø§Ø³
ĠØ§ÙĦØ« ÙĦØ§Ø«
ĠÙĩØ¯ Ø§Ùĥ
ĠØ§ÙĦØªØŃØ± ÙĬØ±
' '
2 8
Øª ÙĦÙĥ
ĠØª ØºÙĬØ±
ĠÙĪØŃ Ø¯Ùĥ
ĠÙĦÙĦÙĨ Ø§Ø³
ØªØ± Ø§Ùĥ
ĠØ§ÙĪ ÙĦØ§
ĠØ£ Ø¨Ø§
ĠÙĥ ÙĦÙħØ§
A na
ĠØ§ÙĦÙĪ Ø§ØŃØ¯
ĠÙĬØ¯ Ø¹ÙĬÙĦÙĬ
ĠÙħ ØªÙħ
ĠØ¹ ÙĪØ¯
Ø±ÙĬ Ø¹
ĠÙĪ ÙĤÙĬÙĦ
ĠØ¹ Ø¶ÙĪ
ĠÙĨ ÙĥÙħÙĦ
ĠÙĤ Ø¶ÙĬØ©
Ġc ourage
ĠÙħØ§Ùģ ÙĩÙħ
Ø§Ø¯ ÙĤ
ĠÙģ Ø±Ø¶
Ø±ÙĬ Ø¶
ĠÙĬØ¯ Ø¹ÙĪ
ÙĦÙħÙĬ Ø°
Ø±ÙĪ Ø·
Ùĥ ÙĬÙĨØ©
ĠØ« Ø§ÙĨÙĬØ©
ĠÙĤØ§ÙĦ ÙĪ
Ø¶ÙĬ Ùģ
Øµ Ø±Ùģ
ĠÙĪØ¬ Ø¹ÙĦ
ĠÙĪØµ ÙĦØª
ĠÙħØ® ÙĦÙĪ
ĠØ£Ø®Ø±Ø¬ Ùĩ
o d
ĠØ¨Ø§ÙĦ ÙħØ¹
ÙĥÙĨ ÙĩØ§
ĠØ®Øµ ÙĪØµ
ÙĪØ± ÙĪ
ĠÙĪØ§ÙĦ Ø§Ø³Øª
Ø§Ø¦ ÙĩØ§
Ø§Ø± Ùĩ
ĠØ§ÙĦØ£ Ø¹ÙħØ§ÙĦ
ÙħÙĬ Ø²Ø©
ĠÙĬØŃ Ø¯Ø«
ØŃ Ùī
ĠØ´ Ø¨Ùĩ
ĠØ¨ÙĬ Ø§ÙĨ
ÙĪ Ø§ØŃ
ĠØ¬ ÙĬØ¯Ø§
ĠÙĪÙĩ Ø±Ø§ÙĨ
ĠØ¯Ø¹ÙĪ Ø§ØªÙĥÙħ
ĠØ¨ ÙĤÙĬ
ĠØ¶Ø¹ÙĬ Ùģ
Ġ202 2
ĠÙĪÙĬ ØŃ
ĠÙĪÙĬ Ø³Øª
ĠÙĦÙĦ Ø¹ÙĦÙħ
Ø³ ÙĬØ©
ĠØ§ÙĦØ¹ Ø§Ø¯Ø©
ĠâĿ¤ ðŁİī
ĠØ£Ø³ØªØ§Ø° Ø©
ĠØ§ÙĦÙħ Ø¯Ø±Ø³Ø©
ĠÙĦØ§Ø¨ ÙĨ
Ø³ÙĬ ÙĬØ±
ĠØ² ÙħÙĨ
ĠÙĪÙĬÙĨ Ø¬ØŃ
ĠÙĪÙĦÙħ Ø§
f f
ĠØ£ ÙĤÙĪÙĦ
ÙĦÙĬ Ø¯
Øµ ÙĦÙĬ
ÙĪØ± ÙĬØ©
ĠÙĪØŃ Ø¯ÙĪ
ĠÙĬØ® ÙĪÙģ
ĠÙĪØ§ÙĦ ØªÙĬ
Ø³ÙĦÙħ ÙĬÙĨ
u m
ĠÙģØ± ÙĤ
ĠØ±ÙĬØ¯ ÙĥØ³
ĠØªØŃ ÙĬØ§
B ac
ĠØ§ÙĦØ¯ Ø¹ÙĪØ©
ĠÙĨØªØ§Ø¹ Ùĥ
ch e
ĠØ§ÙĦØ±ØŃÙħ Ø§ÙĨ
u i
ĠÙħÙĬ ÙĦÙĪØ¯
Ø§Ø²ÙĬ Øº
ĠÙĬØŃ ÙĬ
ĠÙĥÙģ Ø§Ùĩ
ĠØ¨Ø£ÙĨ Ùĩ
ĠØ§ÙĦØ¨ Ø·
ĠØ§ÙĦØ± ÙĪÙħ
ĠØ¥ Ø´
Ġ2 5
ĠØªÙĤ ÙĪÙħ
ÙĦ Ø§Ø²Ùħ
ĠØ§Ø³Ùħ Ùĩ
ĠØ®Ø· Ø£
ĠØ¹ Ø§ÙĦ
ÙħÙĨ Øª
ĠÙĨ ÙĤØ±Ø§ÙĪ
Ø§Ùĩ ÙĦØ©
ĠØ² ÙĬÙĨ
Ġs o
ĠÙħØ¹ÙĦÙĪÙħ Ø§Øª
ĠÙĦ ÙĦÙĬ
ðŁ İ
ĠÙĨ ØŃÙĬ
ĠØŃ Ø±Ùģ
ĠØ¯ Ø¹Ùħ
ĠØ§ÙĦÙģ ØµÙĦ
ĠØ¨ ÙģØ¶
ĠÙģ ÙĥÙĬÙģ
li k
ĠØ¨ÙĬÙĨ ÙĩÙħ
ĠØ§ÙĦ ÙĥÙĪÙĨ
ĠØ§Ø¨ ÙĬ
ĠØ¢ÙħÙĨ ÙĪØ§
ĠØ§ÙĦÙħ ÙĬ
ĠØ§ÙĦØ¬ Ø²Ø§Ø¡
ĠØ£ ØµÙĦ
ĠØ§ÙĦÙħ ÙĥØ§ÙĨ
ÙĦØ¨ ÙĬØ©
an d
Ø¨ Øº
ØµÙĦ Ø§ØŃ
ĠØ§ÙĦØ¥Ø³ÙĦØ§Ùħ ÙĬ
ĠØ§ÙĦØ£ ÙĬØ§Ùħ
ĠÙ ±
ÙĨ ÙģØ³
Ġ est
ĠðŁĳ Į
ĠØ¯ÙĬØ±ÙĬ ÙĦÙĨØ§
ĠØ§ÙħØ± Ø£Ø©
ĠØŃÙĤÙĬ ÙĤÙĬØ©
Øª Ø¨Ø©
ÙĦÙĬ ÙĨØ§
Ø® Ø¨Ø±
Ø±ÙĪ ØŃÙĪ
ĠØµ ÙģØ©
ĠØ§ÙĨ Ø¸Ø±
in u
ÙħÙĪ Ø§Øª
Ø¦ ÙħØ©
Ø· Ø±ÙĬÙĤØ©
ĠØ§ÙĦØ§Ø® ÙĬØ±
ĠÙĪØ§ÙĦ Øº
a bi
Ø± Ø¹
Ø§Ø¦ Ø¹Ø©
Ø¯ÙĪ Ø´
Ġ202 0
ĠØ®ÙĦÙĤ Ùĩ
ĠØ§ÙĦÙħ ØªØ§Ø¨
ĠØ§ÙĦØ£ØŃ Ø§Ø¯ÙĬØ«
ĠÙĦ Ø³Øª
ĠØ§ÙĦØ¹ ØµØ±
ĠØº Ø§ÙĬØ©
ĠØ§ÙĦØ® ÙĬ
ĠØ§ÙĦØª Ùĥ
ĠØªÙĥÙĪÙĨ ÙĬ
ĠÙħØ¨ Ø¹Ø¯
Ø· Ø§Ø¹
Ø§Øª Ùħ
ĠÙĪØŃ Ø³ÙĨ
ĠØ·ÙĦ Ø¹
ĠØ¥ÙĨ Ø´Ø§Ø¡
Ø· ÙĦÙĤ
ĠØ® Ø¯ÙħØ©
ĠðŁĺ Ķ
ĠØ§ÙĦØ¯ Ùħ
ÙĪØ¨ Ø§
Ø·Ùģ Ø§ÙĦ
ĠÙĪ Ø§Ùĥ
ĠØª ÙĤÙĪ
ĠØµØŃ Ø§
ĠØ§ÙĦÙĪØ· ÙĨ
ĠØ§ÙĦØ± ÙĪØŃ
Ø§Ø¶ ÙĬØ©
ĠØ§ÙĦØ´Ø± Ø¹ÙĬØ©
u n
Ġ Û
Ø¦ Ø§Øª
ĠÙĪÙĦÙĩ Ø°Ø§
Ø§Øª Ø´
ĠØ¬ ÙĬØ¯
ĠÙĤØ§ÙĦ Ùĥ
Ġn a
ĠØª Ø«
Ġ2 4
ØµØ± Ø§ØŃØ©
ĠÙĦ Ø§Ùħ
ĠØ¹ ØµØ±
Ø² ÙĦØ©
ĠØ¯ ÙĦ
ĠÙĪÙģÙĤ ÙĨÙĬ
ĠØ´ ÙĪÙģÙĬ
ĠØ±ÙĬ Ø§Ø¶ÙĬØ§Øª
ĠØ§ÙĦÙĪØ· ÙĨÙĬØ©
e b
ĠØ±ÙĪ Ùī
ĠØ§ÙĦØ§Ø± Ø¶
ĠØµ Ø¯ÙĬ
ĠÙħÙĪØ¬ ÙĪØ¯
ĠØ£ ÙĦ
Ø® ÙĪÙĦ
ĠØªÙĤØ±ÙĬ Ø¨Ø§
ÙĨ Øµ
ĠØ±Ø§ÙĬ ØŃØ©
ĠÙħÙĨ Ø·ÙĤØ©
ĠØ£ÙĨ ÙĨÙĬ
ĠØ§ÙĦÙĩ Ø§ØªÙģ
ØŃ ÙĦÙĬ
Ø¶ Ùħ
ĠØ§ÙĦ ÙĩÙĪ
ĠØ®Ø§ÙĬ ÙģØ©
Ø· Ø±Ø©
ĠØ° ÙĪ
ĠðŁ ĸ¤
ĠØ§ÙĦØ± ÙĪ
ĠÙĤØ¨Ø± Ùĩ
ðŁ ©
ĠÙĥ Ø§
ĠØ£Ùħ ÙĪØ±
ĠØ±Ø§Ùĥ ÙĦÙĬØ·Ø§
ĠØ§ÙĦØ± Ø§ØŃ
ÙĤ Ø±Ø¨
ØªÙĬ ÙĩØ§
Ø¹ÙĬ ÙĪÙĦÙĬ
ĠÙħØ« Ø§ÙĦ
ĠØ£ Ø²
ÙĦØ§ ÙĤØ©
ĠØ§ÙĦØª Ø±Ø¨ÙĬØ©
ĠØ±Ø£ ÙĬØª
ĠØ± Ø§Ø¨Ø·
ĠØº Ø§ÙĦØ¨
ÙĥÙĬÙģ Ø§Ø´
ĠØ¹ ÙĩØ¯
ĠØ¹ Ø¯ÙĦ
ÙĨØª Ùĩ
Ø± ÙģÙĬ
ĠØ¹ ÙħØ§
ĠØ§Ø³ ÙĥÙĪ
ĠØ§ÙĦØµ ÙĪØ±
ĠÙĨØª Ø¹
ĠØ¥ÙĨ Ùĥ
Ġm an
ĠÙĬ Ø±Ø¬Ø¹
ĠÙĦ Ø¯Ø±
ĠØ¹ Ø§ÙħØ©
ĠØªÙĤØ¯ Ø±ÙĬ
ĠÙħØ¹ ÙĩÙħ
Ø¨ÙĤ Ø§
ĠØŃÙĦ ÙĤØ©
it e
ĠØ¯ ÙĨÙĬØ§
ÙĪØ§ ÙĤÙģ
ĠÙĬØ¨ Ø§ÙĨ
ĠÙĥÙĬÙģ Ùĥ
ĠØ§ÙĦØ¨Ø± ÙĨØ§ÙħØ¬
ĠÙĥ Ø°Ø§
ĠÙĤÙĦÙĬ ÙĦØ§
ĠÙģÙĬ ÙĦÙħ
Ġv ous
ĠÙĬØ±ØŃÙħ Ùĩ
Ġt r
ĠØªÙĪ ÙģÙĬ
Ġha da
Ġe x
ÙĬ ÙĪ
ĠØ§ÙĦØ¹ ÙħØ±
ÙĪÙĬ ÙĦÙĬØ©
ĠØ±Ø§ÙĬ Ùĥ
ĠØ¬ Ø§ÙĦ
ĠÙĬØ´ÙģÙĬ Ùĥ
ĠÙħ ÙĦÙģ
ĠØ§ÙĦØ± ÙĤÙħ
ĠÙĬÙĨ ÙģØ¹
ĠØŃÙĬ ÙĤÙĪÙĨ
k ha
ĠÙĦÙĦ ÙĤ
ĠØ¨ÙħØ¹ ÙĨÙī
Øµ Ø¯ÙĤ
Ø¹ Ø¬Ø¨ØªÙĨÙĬ
Ø³ Ø§Ø¡
Ġb z
id a
ÙĨØ´ Ø§ÙĦÙĦÙĩ
t u
ĠØ¨Ø§ÙĦ Ø¶ØŃÙĥ
ĠÙĪÙĦ ÙĨ
ĠØªØ¬ Ø¹ÙĦ
ĠØ³ÙĪ Ùī
Øº Ø§ÙĦ
Ø§Ùģ Ø§Øª
Ø§ÙĤ Ø¨
ĠØ¬ÙĨ Ø§ÙĨÙĩ
ĠÙĬ Ø¹ÙĪØ¯
Ø§ÙĤ Ø¨Ø©
Ø® ÙĪØªÙĬ
ĠØ§ÙĦÙħ Ø²ÙĬØ¯
Ø¨ÙĦ Ø§Ø¯
Ġu ne
ĠØ¨ Ø¯Ø±
Ø§Ø¶ Ø¹
ØªØŃ ÙĬØ©
Ùħ Ø¨Ø±
ĠØ´ Ø§
0000 0000
Ø§Ø¦ ÙĬÙĦ
ĠÙħØ³ Ø¤
ĠÙĤ Ø¹
ĠÙĦ Ø³Ø§ÙĨ
ĠÙħØ´ ØªØ±Ùĥ
ĠÙĬØª ÙģØ±Ø¬
ĠÙĪÙĤ Ø¹
ĠØ§ÙĦØ¹ Ø§Ø¦ÙĦØ©
ĠØªØŃ Ø±Ùħ
ĠÙħØ³ ÙĥÙĬÙĨ
an s
i ya
ĠÙħ ÙĤØ±
ØµØŃ Ø©
ĠÙĬÙģ Ø¹ÙĦ
d r
ĠÙģ Ø¨
ÙģØ± Ø©
ĠÙĬØ±ØŃÙħ ÙĩÙħ
ĠØ°ÙĥØ± Ùĩ
202 5
ĠØªØ® Ø¯Ùħ
ĠØ§ÙĦØ¨ ØŃØ«
ØŃÙĤ ÙĤ
ÙĨØ´ Ø§ÙĦÙĩ
ĠØŃÙģØ¸ Ùĥ
ĠÙĬ Ø§Ø±
ĠØªØ¹ ÙħÙĦ
ĠÙĦ ØªØŃ
Ø³ Ø³
ÙħÙĬ ÙĬÙĨ
ĠØ±Ø¬ Ø¹Øª
ĠÙħÙĨ ÙĬÙĨ
o p
ĠÙĪÙĬ Ø¬Ø¹ÙĦ
Ø§ÙĦÙĬ ÙĪÙħ
ĠØ±Ø£ Ø³
ĠØ§ÙĦØª Ø±Ùĥ
ĠØ§ÙĦØµ Øº
ĠÙĪØºÙĬØ± ÙĩØ§
Ø§ÙĦÙħ ÙĬÙĨ
ĠØ¹ÙĦØ§Ø¨ Ø§ÙĦÙĬ
ĠØµØ§ÙĨ Ø¹
ĠØ¨ Ø±ÙĬ
ĠÙĦ ÙħØ¹
ĠØ§ÙĦØ¯ ÙĪÙĦ
ĠØ« ÙĤ
ĠØ§ÙĦ ÙĪÙĦ
ĠÙĬØ± Ø¯
âĺ º
Ùģ ÙĬØ±
ĠØª Ø¨ÙĤÙī
ĠØ¯ ÙģØ¹
d f
ĠÙĬ Ø®Øµ
ĠØ¹ÙĨ ÙĬ
ÙģØ± Ø¯
ĠØ®Ø§ÙĦ ØªÙĬ
t er
ðŁĺ ±
ĠÙĪ Ø°ÙĥØ±
ĠØŃØ¨ Ø³
ÙĪØ¯ Ùĥ
ĠØªÙĥ ØªØ¨
Ùħ Ø«
Ø¨ Ø§Ø³
ĠÙģ ÙĦÙĬÙĦ
ĠØ¬ Ø§ÙĪ
ĠØ§Ø¯ Ø¹ÙĪ
ØªÙĬ Ø¨
ĠØ¨Ø³ Ùĥ
Ø¨ÙĬ Ø¶
ØªÙĬ Ùĥ
ĠØ§ÙĦØ£ Ø®Ø±Ùī
ĠÙĥÙħ ÙĦØª
2 9
Ø§Ùĥ ÙĬ
ĠÙĦÙĦ Ø³
Ø±ØŃ ÙĬØ¨
ĠØ¨Ø¯ ÙĦ
Øª ÙģÙĬ
ĠØ§ÙĦØ² ÙħØ§ÙĨ
Ùħ Ø§Ø¹
ĠØ§ÙĦ Ø±Ùĥ
ĠÙĥÙĬ ÙģÙĬ
Ø° ÙĬØ¨
ĠØ§ÙĦØŃÙĤÙĬ ÙĤÙĬ
Ø§ÙĦ Ø¯
ĠÙĥ ÙĪØ±
ou n
is to
a la
ĠØ¨Ø±ØŃÙħ ØªÙĥ
ĠÙĬ ØµÙĦ
ĠÙĨ Ø§
ĠØ¢ ÙĬØ§Øª
Ø³ÙĬ ÙĦØ©
ĠÙĬØŃ ØªØ§Ø¬
Ùĥ Ø¯
ĠØ§ÙĦÙħÙĦ Ø§Ø¦ÙĥØ©
ĠØŃ Ø³ÙĬØª
Ø· Øª
Ø¹ Ø§Øª
ÙĨØ³ Ø§Ø¡
ÙĦÙĪ Ø´
ĠÙĪØ£ Ø¹
ĠØ§Ø¹ Øª
ĠØŃ Ø±Ø¨
ĠØªÙĪØŃØ´ ÙĨØ§Ùĥ
ÙĬØ¯ ÙĬÙĨ
ĠØ¶ Ø±
ØªÙĦ ÙģØ©
ĠðŁ¤ Ķ
ĠÙĦÙĨ ÙģØ³
ØªÙĬ Ùħ
ĠÙĨ Ø±Ø¨ØŃ
ĠØ§ÙĦØ³ ÙĦØ³ÙĦØ©
ĠÙĪØª Ø´
Ġm erci
ĠÙĥ Ø§Ø³
Ø§ÙĪ ÙĦÙĬ
ĠØ§ÙĦØ³ ÙħØ§
ĠØ§ÙĦÙħØ¬ ÙĩÙĪØ¯
Ú ª
ĠØ¨ Ø§Ø·ÙĦ
ĠÙĬ Ø§ÙĦ
Ø² Ø¨
ÙħØª Ø¹
ĠÙĤÙĦØ¨ Ùĩ
ĠØ¹ ÙĦØ§ÙħØ©
ĠØ§ÙĦØµ Ø±
Ø¦ Ø§
Ġm on
ĠØ§ÙĦØ° ÙĨÙĪØ¨
ĠðŁĴ ľ
ĠÙĤØµØµ Ùĥ
ĠØ¹Ø¨ Ø§Ø±Ø©
h k
ØŃ ÙĪØ±
ÙĥÙĬ ÙĦÙĨØ§
Ø® ÙĦÙĩ
ÙĬ ÙĩØ§
ĠØ´ Ø±ÙĬ
ĠØ³ Ø§Ø¹Ø§Øª
ÙĦÙĬ ÙģÙĪÙĨ
ĠØ¨ Ø§Ø¹
Ã© ri
ĠØªØ³Øª Ø§ÙĩÙĦ
Ùħ Ø²Ø§ÙĦ
Ø§Ø¦ ÙĨ
Ø® Ùģ
ÙĪÙĦ ÙĪØ¬
Ø§Ø¶ Ø±
han k
Ġ) .
h m
ĠØ¨ Ø¯ÙĬ
ÙĪÙĨ Ùĥ
ÙĬ Ø§Ø¡
Ġ Ã©
ĠÙħ Ø§Ø¡
ĠØ¹ÙĨ Ùĥ
ĠÙħØ¬ ÙħÙĪØ¹Ø©
ĠÙĪ Ø°
ÙĤ ÙĪØ§
ĠÙĤ Ø±Ø¨
ĠÙģØª Ø±Ø©
ĠØ§ÙĦØ® Ø±
Ø· Ùĩ
ĠØ£ÙĨ Ø²ÙĦ
ĠÙĪÙĬ Øª
ĠØ¨Ø¹Ø¯ Ùĩ
ĠØªØª Ø¹
ĠØªØ§ÙĪ Ø¹Ùĥ
Ø«ÙĦ Ø§Ø«
ĠØ§ÙĦÙħØ´ Ø¨Ùĩ
ðŁı ¼
ĠØ¸ ÙĦÙħ
ĠØ±Ø§ÙĬ ØŃ
ĠØ±Ø§ ÙĤØ¯
Ø§Ø¯ Ø«
ĠØ§Ø³ Ø·ÙĪØ±Ø©
ĠØ§ÙĦØ± Ø¹Ø¯
ðŁ¤² ðŁı»
ĠÙĪØ§ÙĦØ£ Ø±Ø¶
Ø´ ÙĦ
ĠØ§ÙĦØ£Ø¹ Ø¶Ø§Ø¡
ĠØª ÙĦÙħ
ĠðŁĺ ĺ
ĠÙĬØ¹ ØªØ¨Ø±
ĠØ§ÙĦÙģ ÙĤ
ĠØªØ§Ø¹ ÙĨØ§
ĠÙĪÙģÙĤ Ùĥ
ĠÙĬ Ø¶ØŃÙĥ
ĠØ± Ø§ÙĤÙĬ
ĠÂ »
ĠØ§Ø¨ Ø¯Ø§
ĠÙĪ Ø§Ùĩ
ĠØ£ Ø¹Ø±Ùģ
ĠØªÙĪ ÙģÙĬÙĤ
ĠØªØ¹ÙĬØ´ ÙĪ
ĠØ§ÙĦØ¥ Ø®
ĠÙĬ Ø¸ÙĩØ±
ĠØ§ØŃ Ø¨Ùĥ
Ġha di
ĠÙĪØŃØ¯ ÙĩØ§
ĠØ¯Ø§ÙĬ ÙħØ§
ĠÙħ Ø§ÙĦØ§
Ø´ Ø¹Ø±
ĠØ¬Ø²Ø§Ùĥ Ùħ
ĠÙĬÙĦ Ø¹Ø¨
t s
Ø¬ Ø§Ùħ
ĠØ§ÙĦØ¬Ø§Ùħ Ø¹Ø©
ĠØ§ÙĦØŃ Ø²ÙĨ
ĠØªØµ Ø±ÙĬØŃÙĬØ©
ĠØ§ÙĦØ§Ø¬ØªÙħØ§Ø¹ ÙĬ
ÙĨ Ø§Ø³
ĠÙĦ Ø¯Ø§Ø±
Ø´ Ø±Ø©
ĠØ³ Ø¨Ø¹
ĠØ§ÙĨ ÙĨÙĬ
Ġâľ ħ
ĠÙĦ Ø§ÙĨÙĬ
ĠÙĪÙĨ Øµ
ĠØ´ ÙĪ
ĠØ´ Ø±Ùĥ
ÙĪÙħ ÙĨ
Ø±Ø¶ ÙĬ
Ø¯ÙĪ Ùĩ
ĠØ§ÙĦØ® ÙĦ
ĠØªØ§Ø¹ ÙĩØ§
ÙĨØ¨ ÙĬØ©
ĠÙĬÙĤÙĪÙĦ ÙĪÙĨ
ĠØ§ÙĦØ¬Ùħ ÙĦØ©
Ø² ÙĪÙħ
ĠØ§ÙĦØŃ Ø¶
ĠØ§ÙĦØ² ÙħÙĨ
ĠØ§ÙĪÙĦ Ø§Ø¯
3 6
ÙĪ ÙħØ§
ØŃ Ø³Ø§ÙĨ
ou p
ĠØ´ ÙĥÙĦ
Ø¹ Ø¨Ø¯
ĠÙĬ ÙĤØ±Ø§
ĠØªØ³ ÙħØ§
ĠØªÙģ ÙĥØ±
ĠØ£ØŃ Ø¯Ø§
ĠÙĩ Ø§ØªÙĩ
ĠØ¯ Ø²Ø§ÙĬØ±
ĠÙħØ³ Ø¹ÙĪØ¯
ĠØ§ÙĦØº ÙĬØ¨
ĠØª ÙĦÙģ
Ġ? ?
ĠØ§ÙĦØ° ÙĥØ±
Ø§Ø· ÙĨ
ĠØ³ÙĪ Ø¡
Ġv ra
Ùĥ Ø¨Ø±
ĠØ¨ ØŃÙĬ
ÙĨÙĬ Øª
Ġ J
Ġ ro
Ø® Ø¨
ÙĨ Ø§Ø¬
ĠÙħ Ø§Ø®
Ø§Øª ÙĦ
ĠÙĬÙħ ÙĪØª
ĠØ§ÙĦØªØ³ Ø¬ÙĬÙĦ
ĠØªÙĪ ØµÙĦ
ĠØ§ÙĦØ¬ ÙĪ
ĠØ£ Ø³ÙħØ§Ø¡
Ø§ÙĬ Ø¹
Ø§Ø® Øª
ĠÙħØ® ØªÙĦÙģ
Ø¬ ÙĬØª
ĠÙĤ Ø³ÙĨØ·ÙĬÙĨØ©
ØºÙģØ± Ø©
m l
ĠØ§ÙĦØª Ø¹Ø¨
Ġp r
â ģ
ĠØ§ÙĦ ÙĨØ§
Ùĥ Ø§Ø©
ĠÙĦÙĬ ÙģÙĬØ¯ÙĬÙĪ
Ø³Ùħ ÙĬØ©
Ø±Ø¬ ÙĦ
ĠØ§ÙĦÙħØ± ÙĪØ±
ĠÙĬ Ø¹Ø¯
ÙĦÙĪ ÙĩØ§
ĠØ§ÙĦ Ø§Ø·
ĠØ¨ ÙģØ¶ÙĦ
ĠÙħØ¹ ÙĨØ¯
ĠÙĬÙĪÙħ ÙĬÙĨ
ĠØ³ Ø¨ÙĬ
ĠØ¨ÙĬÙĨ Ø§
ÙĦÙĥ ÙĨ
Ø¶Ø¹ Ùģ
202 6
Ġcont inu
ĠÙģ Ø§Ø¹
Øº Ø¨
ĠØ§ÙĦØ¢ ÙĬØ§Øª
ĠØ§ÙĦÙĪØŃ Ø¯Ø©
ĠÙĦÙĬ Ùĩ
ĠÙħØ³ ÙĦØ³ÙĦ
ĠØ¹ ÙĬØ¨
ĠâĿ¤ ðŁĺĬ
Ġ" .
ĠÙĪØ§ÙĦÙħ Ø´
ĠØ®Ø· Ø±Ø©
) :
4 0
ĠØ® ÙĦØ§Ùģ
ÙģÙĬ Ø¯Ø©
ĠØ§ÙĦØ® Ø§Ùħ
ĠØ§ÙĦØ¹ÙĦÙħ ÙĬÙĬÙĨ
ĠØ£ÙĪÙĦ Ø§Ø¯
ĠÙħ Ø§ÙĨÙĬØ´
ĠØµ Ø¯ÙĬÙĤ
ÙĪ ÙĬØ±
ĠÙĬ ÙĤØ±
ĠÙĪØ§ÙĦ ØµÙĦØ§Ø©
ĠØ§ÙĦØ¹ Ø±Ø´
ĠØ§ÙĦØ¬ ÙħØ¹
ĠØ¹Ø´ Ø±Ø©
ĠØ± Ø´
ØµØŃ Ø§
Ġp l
ĠÙĤÙĪÙĦ ÙĪ
ĠÙĦ Ø¹ÙĦ
ĠØ£ ÙĪØ±
Ùħ ÙĦÙĬ
ĠØ¨ Ùģ
Ø¯ÙĬÙĥ Ø³
ĠØ¨Øº ÙĬØª
ĠØ® ÙĦØ§
Ø§Ø² ÙĦ
ĠÙħÙĥ Ø©
ĠÙĪ ÙĤÙĪÙĦÙĩ
ĠÙĬ ÙĦÙĤ
ĠØ± Ùģ
ĠÙħØª Ø£
ĠØ± Ø§Ø³ÙĬ
ĠØ³ ÙħØ§ÙĨØ©
ĠÙĪØ£ Ø´
ĠØ§Ø¹ Ø·
ØªÙħ ÙĦ
ĠÙĦÙĩ Ø°Ùĩ
ĠÙħØª Ø§Ø¨Ø¹Ø©
ĠØ£Ø³ Ø£ÙĦ
ĠÙĬ ØªÙĥÙĦÙħ
ĠØº Ø§ÙĦÙĬ
ĠÙĪ Ø§Ùħ
Ġl ik
en d
ĠÙħØ¹ÙĨØ§ ÙĩØ§
Ø§ÙĦ Ø¥
Ø¨ÙĬ Ùĥ
ĠÙħØŃ ØªÙĪ
âĻ Ģ
Ø§Ø± Ø¨Ø©
ĠØ¹ Ø¬
ĠØª ÙĥÙħ
ĠÙĨØµ Ùģ
Ùĩ Ø±ÙĬ
ĠÙĨØ¸ Ø§Ùħ
******** ********
ÙĦÙĬ ÙĩØ§
ĠØ§ÙĦÙħ Ø±ØŃ
ĠØ§ÙĦÙĥ ÙģØ±
Ø§ÙĦÙĬ Ø´
ĠÙĬ Ø¤ÙħÙĨ
ĠÙĥ Ø°Ø¨
ĠÙĪØ§ÙĦ Ø§ÙĨ
Ø§Ø¹ ÙĬÙĦ
ĠØ§ÙĦÙĤ ÙĪÙħ
ĠðŁİī âĿ¤
âĢį âĻĢ
ĠØ§ÙĦ ÙĥÙħ
ĠØ§ÙĦØªÙĪ Ø§ØµÙĦ
ĠÙĬ ÙĤØ±Ø£
ĠØ§ÙĦØ¨ Ø¯
ĠØ¨ÙĦ Ø¯
Ġ5 0
Ø¹ ÙĩØ§
ĠÙħØ¹ ÙĩØ§
ĠØ¨ÙĨ ØªÙĬ
Ùħ Ø¦
ĠÙĪ Ø§Ùģ
ĠÙĩ Ø¨
ĠØ¨ÙĦ Ø§Øµ
ÙĤÙĪ Ø§ÙĦ
ĠØ¬Ø²Ø§Ø¦Ø± ÙĬØ©
i z
Ø§Ùĥ Ø´
ĠÙĬØŃ ÙĥÙħ
ĠØ§ÙĦØ¹Ø¨ Ø§Ø¯
ĠÙĪ Ø§Ø°Ø§
ĠØ± Ø§ÙĩØ§
ĠØ§Ùħ ØªØŃØ§ÙĨ
Øµ Ø§
ĠØ· Ø±ØŃ
Ø¹ÙĪ Ùĩ
Ġki ma
ĠÙĪØ§ÙĦØ¹ Ø§ÙģÙĬØ©
Ø®ÙĦ Ùģ
ĠÙĨ Ø²ÙĦ
ÙĪÙĦ Ø§Ø¯
ĠØ§ÙĦØ§Ùħ ØªØŃØ§ÙĨ
ĠÙĨÙĩ Ø¯Ø±
ĠØ§ÙĦØŃÙħØ¯ ÙĦÙĦÙĩ
oo d
ĠÙĬ Ø·ÙĬØŃ
ĠØ§ÙĦÙħ Ø§Ø¯Ø©
ĠØ§Ø³ Ø¦ÙĦØ©
Ø« ÙĪØ±Ø©
Ø§ØŃ Ø´
ĠØ¯Ø±Ø¬ Ø©
Ø§Ø± ØŃ
ĠØ§ÙĦÙĨ Ùĩ
ĠØŃØ§ÙĦ ÙĬØ§
ĠÙģ ØµÙĦ
ĠØªØŃ Ø±
ĠÙĨØ´ÙĪÙģ ÙĪ
ĠÙģÙĦÙĬ Ø³
Ùģ Ø²
ĠØ§ÙĦÙĨ Ø¹
ÙĦ Øº
ÙħÙĬ Øª
ÙĪØ§ ÙĪ
Ø§ÙĪÙĦ Ø©
ĠÙĨØ¬ØŃ ÙĨØ§
ĠÙģ ÙģÙĬ
Ø¸ ÙĬÙģ
ĠÙĪØ§Ø¬ Ø¹ÙĦ
ĠÙĪ Ø®ÙĦØ§Øµ
ÙĤ ÙĩØ§
ĠÙĤØ± Ø£
er s
ĠØ§ÙĦØ³ÙĬ Ø§Ø±Ø©
ĠØµ Ø§ÙĬ
ĠØ´Ùģ Ø§Ø¡
ĠØ± Ø¢
Ġh e
ĠØŃØ¨ÙĬ Ø¨ÙĬ
ĠÙĨØ³ ÙĥÙĨ
ĠÙħØ³Øª ØŃÙĬÙĦ
ĠØ¯Ø§Ø± ÙĪ
ĠÙĪ Ø¯Ø±
ĠØ§Ø³Øª Ø¹Ø§Ø±Ø©
ĠØ§ÙĦÙģ Ø¯ÙĬÙĪ
ĠÙĪØ® Ø§ØµØ©
Ùĩ Ø¯Ø§
ĠØ§ÙĦÙĨ ÙĪÙħ
Øª Ø±ÙĬ
ĠØª ÙģØ¶
ÙģÙĩ ÙĪÙħ
] ØĮ
ĠØ§ÙĦÙħ ÙĨØ§
Ġb ro
Ã© s
ĠØ§ÙĦÙĦ ØŃ
Ø§ÙĦ Øµ
Ø§Ø¦ Øµ
ĠÙħØ´ ÙĥÙĦØ©
Ùĩ Ø°Ùĩ
il oud
ĠØ§ÙĦØ®Ø· Ø§Ø¨
ĠØ§ÙĦØ¹ Ø§ÙħØ©
ĠÙħØª ØŃ
ĠØŃÙĬØ§Øª Ùĩ
ĠØ§Ùģ ÙĩÙħ
ĠÙĥ ÙĪ
Ø¹ ÙĨÙĬ
ĠÙĨ Ø¶ØŃÙĥ
ĠØ§ÙĦØ´ Ø±ÙĬØ¹Ø©
Ø¹ÙĪ Ø¯Ø©
ĠÙĪØª Ø±Ùĥ
ĠØ®Ø§ÙĦ Ø¯
ÙĬ ÙĥÙħ
ĠØ³ Ø§Ø¹
4 5
a ch
Ø³Øª Ø±
âĢ Ŀ
ĠØªÙħ Ø§ÙħØ§
ĠØ§ÙĦÙħØ³Øª Ø¹Ø§ÙĨ
ĠÙĪØ¹Ø¯ Ùħ
Ġs ah
ĠØ¹ Ø¸Ùħ
ĠÙĪÙħ Ø¨Ø¹Ø¯
ĠØ¨Ø§ÙĦÙħ Ø¹Ø¯ÙĦ
Ġ ^
ĠØª ØºÙĬÙĬØ±
ĠØªØŃØª Ø§Ø¬
ĠÙĬØ§Ø® ÙĪ
ĠØ£ÙĨ ÙĪØ§Ø¹
ĠÙĦÙĥ Ø§ÙĨ
Øª Øª
ĠÙĥÙĦ Ø´ÙĬ
ĠÙĬØ¬ ÙħØ¹
ĠÙĪØ³ Ø·
ĠØ§ÙĦØŃØ± Ø§Ùħ
ĠØ£ Ø±Ø¶
za f
Ġgh ir
âĢįâĻĢ ï¸ı
ĠÙģ ÙĥÙĦ
Ø² Ø±
ĠÙĥØªØ§Ø¨ Ùĥ
m o
ĠØ§ÙĦØŃ Ø¬
ĠÙĥÙĦØ§Ùħ Ùĥ
ĠØ¹ Ø§ÙĪØ¯
ÙĨÙĬ Ùĥ
ĠØ§ÙĦÙĤ Ø¶ÙĬØ©
ĠÙħØ´ Ø§Ø±Ùĥ
ĠØ£Ø¬ ÙħÙĦ
ĠØ§ÙĦØ£Ø® Øª
Ø¨ ÙĪÙĦ
Ø¯ Ø±ÙĬ
el le
ĠØŃÙģØ¸ Ùĩ
Ø§ Ø§Ø°
ÙĪ Ø§Ø¡
ĠØ§ÙĦØ£ Ø¹ÙĦÙī
ĠØ§ÙĦØ¹ ÙģÙĪ
ĠØ³ÙĬ Ø§Ø³ÙĬ
ĠÙģÙĦ Ø§ÙĨ
ĠÙĬ ÙĪÙĦÙĬ
ĠØ¬ Ø§Ø²
ĠØ§ÙĦØ³ ÙĪØ¯Ø§Ø¡
ĠØªØŃ ÙĤÙĬÙĤ
ĠØªÙĨ ØµØŃ
ĠÙĬØ³Øª Ø·ÙĬØ¹
ÙħÙĬ Ø³
ĠÙĪÙĬ ÙĥÙĪÙĨ
ĠÙĨÙĪØ± Ùħ
ÙĪ Ø§ÙĨØ§
ĠÙĦÙĦ Ùģ
ĠÙĪÙħÙĬ ÙĦÙĪØ¯
ĠØ§ÙĦØº Ø§ÙĦÙĬØ©
ĠØ§ÙĦÙħ ØªØŃ
ĠØ¨ÙĦØ§Ø¯ ÙĨØ§
ĠØ± Ø¦ÙĬØ³
ĠÙģØ§ÙĦ Ø¨Ø§Ùĥ
ĠÙĬ ÙĪØªÙĬÙĪØ¨
ĠØ¨ÙĬÙĨ ÙĨØ§
ĠØ¹Ø¨ Ø§Ø¯Ø©
ĠÙĪØ§Ø¬ Ø¨
Ø§ ÙĪØ±
Ùħ Ø´Ø§Ø¡
ĠÙĪ ÙĥÙħ
ØªÙĪ ÙħØ§
ÙĦ ØºØ©
Ø¦ Ø°
ĠÙĤØ§Ø¹ Ø¯
Ø· ÙĦØ§ÙĤ
ĠØ° ÙĨÙĪØ¨
Ø³Ø¨ ÙĪØ¹
Ġa re
ĠØ§ÙĦÙħÙĨ Ø·ÙĤØ©
ĠØ£Øµ ÙĦØ§
ÙĤ Ø±ÙĬ
ĠØ¯ ÙĪØ±Ø©
ĠÙĥØ« Ø±Ø©
ĠØ§ÙĦØ±Ø§ØŃ ÙħÙĬÙĨ
ĠØªØ¹ ÙĪØ¯
ĠØ§ÙĦÙģ ÙĤÙĩ
Ùģ Ø§Ø¯Ø©
ĠØ¨ Ø³Ø±
ĠÙĨ Ø±Ø¬Ø¹
ĠØ§ÙĦØª ÙĦØ§ÙħÙĬØ°
ĠØ§ÙĦÙħ Ø§Ø¶ÙĬ
ĠØ§ÙĦØ´ Ø§Ø¹Ø±
Ġl ah
ĠØ´Ø± Ø·
ĠÙĨØµ ÙĬØ¨
ĠÙĬØ· ÙĦØ¨
ĠÙħ Ø§Ø³
ĠÙĦ ØŃÙħ
ĠÙĨ ÙĪÙĦÙĬ
ĠÙģØª ÙĨØ©
ĠØ· Ø±ÙĬ
ØŃÙĬ Ø§Ø¡
ĠÙģØ§ÙĦ ÙĤ
Ø¬ Ø§ÙĪØ²
ÙħØ¹ ÙĦÙĬØ´
ĠÃ ¯
ĠØ³ÙĦÙĬ ÙħØ§ÙĨ
ĠØ¨ Ø§Ø³Øª
ĠÙĬ ØµÙĦØŃ
ĠØ§ÙĦØ£ Ùģ
ÙĤÙĬ ØªØ´
ĠÙĪØŃ ÙĨØ§
Â °
Ø§Ø¨ ÙĦØ©
ĠØ§ÙĦÙĥ Ø¨Ø±Ùī
ĠÙģÙĬØ¯ÙĬÙĪ ÙĩØ§ØªÙĥ
ĠØ£ Ø¹Øª
ĠØ´ Ø±ÙĬÙĥ
Ø¸ ÙĬÙħØ©
ĠÙĪÙĬ ØŃÙģØ¸
Ø° Ùī
ÙĪÙģ Ø©
ĠÙĪØ¢ ÙĦÙĩ
ĠÙĤÙĦÙĪØ¨ ÙĨØ§
Ġ il
ĠØ§ÙĦØ¬ ÙĩØ§Ø¯
ĠØ§ÙĦØ¹ÙĦÙħ ÙĬ
ĠÙģØ±ØŃ Øª
Øµ ÙĬØ©
ĠØ§ÙĦØŃ Ø§ÙģØ¸
ĠØ´Ø±ØŃ Ùĥ
2 1
ĠÙĤØ§Ø¹ Ø¯Ø©
R ed
Ø§ÙĪ Ø´
ØŃÙĬ Ø§Ø©
ĠðŁĺ¢ âĿ¤
ĠØ¯Ø§Ø± Øª
ĠØ§ÙĦÙĤÙĬ ÙħØ©
ĠØ§ÙĦÙħ ÙĦÙģ
ĠØ§ÙĦØ³ Ø¹Ø§Ø¯Ø©
ĠØµÙĪ Ø§ÙĦØŃ
Ùĥ ÙħØ§
6 0
ĠØ§ÙĦÙģØ§Ø¶ ÙĦØ©
ĠØª ÙĥÙħÙĦ
ØĮ ØĮ
ØªÙĬ Ø§Ø²
ĠÙĩØ§Ø¯ ÙĬÙĥ
Ġ V
ĠØ¬ ÙĪÙĬÙĦÙĬØ©
ĠØº Ø§Ø¯ÙĬ
ĠØ§Ø³Øª ÙħØ±
Ø§Øµ ÙĬÙĦ
ĠÙĨØ³ Ø§Ø¡
ĠØ£ Ø³Ø¨Ø§Ø¨
ĠØ§ÙĦÙĤ Ø§ÙĨÙĪÙĨ
ĠÙħØ§Ø¯ Ø§Ùħ
ĠØ§ÙĦÙĥ Ùĩ
ĠØ±ÙĪ Ø¶Ø©
ĠÙĬØ³ ÙĩÙĦ
ĠØ£Ø´ Ø¯
ĠØ¨Ø§ÙĦ ÙĤ
ĠÙĬØµ ÙĦÙĬ
ĠØŃØ¯Ø« ÙĨØ§
Ø§Ùĩ Ø©
ĠÙ ¡
ĠØ¨ ÙĦÙĪ
Ø§ÙģÙĬ ÙĩØ§
ĠØ³Ø¤ Ø§ÙĦÙĬ
ĠÙħ ÙĤØªØ±ØŃ
ĠÙĬ Ø«Ø¨Øª
Ø§ØŃ Ø³ÙĨ
ĠØ¨Ø§ÙĦ Øº
Ø¯Ùħ Øª
ÙĪÙĦ ÙĦÙĩ
ØªÙĪ Ø¨Ø±
ĠÙĪÙĥ ÙĨØª
ĠØŃÙħ Ø¯
Ø³ÙĨ Ø¯
ĠØ§ÙĦØªÙĪ ØŃÙĬØ¯
ĠÙĪÙĩ ÙĥØ°Ø§
ĠØ¹ÙĦ Ø§Ø¬
ĠÙģ Ø§Ø³
Ġn t
ĠÙĪÙħÙĨ ÙĩØ§
ĠÙĬÙĥ ÙģÙĬ
ĠÙĪ ÙĪÙģÙĤ
ĠØ§ÙĦØŃ Ø§Ø¬
ÙĪÙĦÙĬ ÙĨ
Øª ÙħØ±
ĠØ§ÙĦÙĨØ§Ø¬ ØŃÙĬÙĨ
ĠÙħ ÙħÙĬØ²
Øº ÙģØ§Ø±
ĠÙĦ Ø§Ø®
ĠØº Ø±
ĠØºÙĬØ± ÙĩØ§
ĠØ¨ ÙĨØ§
ĠØ£ ÙĦÙħ
ĠØ§ÙĦØ· ÙģÙĦØ©
ĠØŃ Ø·ÙĬ
ĠØ§ÙĦÙħ Ø¹Ø±
ĠØ§Ùĥ ÙĬØ¯
Ø±Ùģ ÙĬÙĨ
ĠØŃÙħ Ø²Ø©
ĠÙĦ Ø¢
Ø± Ø§Ø¯
ĠØµØ¯ ÙĤØ©
ĠØ® Ø³Ø±
ĠØ§ÙĦÙħÙĪ ÙĤØ¹
ĠØ±Ùĥ ÙĦÙĬØ·Ø©
Ø± Ø§ÙĩÙĬ
ĠÙĦ ØŃÙĤ
ĠØ¹ÙĦÙħ ÙĬ
ĠØ§ÙĦÙĪ Ø¬Ùĩ
Ġ x
ĠØ¨ÙĬ Ø³Ùĥ
ðŁĺ® ðŁĺ®
ÙĤØ± Ø§Ø¡Ø©
ĠØ§ÙĦÙĪØ§Ø³ Ø¹Ø©
Ġs epia
ÙĤØ¨ Ø§ÙĦ
ĠØ§ÙĦ ÙĬÙĥ
ĠØ³ÙĬ ÙĥÙĪÙĨ
ĠØµØ± Ø§
ĠØŃØ§Ø¨ ÙĬÙĨ
ÙĨ ÙĪÙĨ
ĠÙģ ØŃ
ÙĦÙĬ ÙĦØ©
ĠØŃ ØªÙĬ
Ġd u
ĠØ¨Ø§Ø¨ Ø§Ùĥ
ÙĨ Ø¬ØŃ
Ùħ Ø±Ø©
Ø§Ø¦ Ùģ
ÙĪØ± Ø§Øª
ĠÙħØ¬ ØªÙħØ¹
ĠÙĪØµØŃ ØŃÙĩ
l k
Ø¦ ÙĬ
ĠØ§Ø±ØŃÙħ Ùĩ
ĠØ·Ø§ÙĦ Ø¨Ø©
Ø¯Ø§Ø± Ø³
3 7
ĠÙĪ ÙģØ±
Ø§ÙĨ Ùĥ
Ø¬ Ø±ÙĬ
c a
ĠÙĦ ØºÙĬØ±
ĠÙĪØ¹ ÙĦÙħ
ĠØ§ÙĦØ´Ø®Øµ ÙĬØ©
ĠØ£ Ø¹ÙħØ§ÙĦ
ĠØŃ Ø´
ĠØ§Ø¬ ÙħÙĦ
ĠØ¨ Ø§Ø²
ĠØ± ÙĬØŃ
ĠØ§ÙĦÙħØ± Ø§Ø¬Ø¹Ø©
ĠÙĨ Ø®Ø±Ø¬
ĠÙĪÙĥ Ø°Ø§
ĠÙħ Ø¤ÙħÙĨ
Ø§ØŃ Ø±
Ø§ÙĦ Ø±
Ø¬ ÙĨØ©
ĠÙĤ Ø¯ÙĬÙħ
ĠÙĥØ¨ Ø§Ø±
ĠØ±Ø¬ ÙĦØ§
Ġra h
ĠÙĥÙħ ÙĦÙĬ
ĠØ³ ÙĥÙĨ
ÙĦØ§Ùħ Ø§Øª
Ġ Ø§Ø±Ø¨
ĠÙĦ ØŃØ¯
Ġm en
ĠÙĪÙĦ ÙĦ
Øµ ÙĨ
Ø§Ø± Ùī
Ø² ÙĬØ±
ĠØµ Ø¹Ø¨
ĠØ· ÙĬ
ar t
ĠØ§ÙĦØ¨Ø§Ø± Ø¯Ø©
ĠÙĪØ§ÙĦ Ø²
Ø§ÙĬ Ø³
ĠÙĦÙĦ Ø£Ø³Ùģ
ÙĪØ¨ ÙĬØ©
ĠØ¯Ø± Ø§Ø³Ø©
ĠÙħ Ø£
ĠØ± Ø¯ÙĬ
Ø¨Ø± Ø§
ĠÙĨØªÙĬ Ø¬Ø©
Ø§ÙĦ Ø®
Ùħ ÙĪÙĨ
Ø²ÙĬ Ø¯ÙĬ
ĠØ¨ ÙĤÙĪÙĦÙĩ
ĠÙĤØ§ÙĦ ÙĬ
ØªØ¨ Ùĩ
Ø¯ÙĬØ± ÙĬ
ĠÙħÙĪ Ø§Ø¯
ĠÙĪØ¥ ÙĬ
ÙĩÙĨ Ùħ
ĠÙĪÙĨØª Ø§
Ġcom p
ĠÙĬ ØŃÙħ
ĠÙĪØ¬ ÙħÙĬØ¹
ĠÙĬÙĨØ¬ØŃ ÙĥÙħ
ĠØ§ÙĦØŃ ÙģØ¸
ĠØ§ÙĦØ® Ø¨Ø±
ðŁĩ ©
ĠÙĬÙħÙĥÙĨ Ùĥ
ĠÙĬ Ø·ÙĦØ¹
ĠØ¨ Ø°
ĠØ§ÙĦØ£ Ø®ÙĬØ±
ĠØ§Ø¯ Ø¨
Ø§Ùĩ Ø¯ÙĬÙĨ
ĠÙĥØ§ÙĬÙĨ Ø©
ĠÙĦ Ø§Ø´
ĠØ¬ ÙĬØ´
ĠØ· ÙĬØŃ
ĠÙĬÙĨ Ø¸Ø±
ĠØ¶ Ø±Ùĥ
ĠÙĬÙĪÙģÙĤ ÙĥÙħ
ÙĬØ¹ ÙĨÙĬ
Ø´ Ùĥ
ĠØ£ Ø³Ø±
ÙĤØ± Ø§Ø¡
ĠØ§ÙĦØµÙģ ØŃØ©
Ø§Ø¦ ÙĨØ§
ĠÙĨØŃ ÙĦ
ĠØ§ÙĦÙħÙĨ ÙĥØ±
Ġnch lh
Ø² Ø§Ø±
Ø¨ÙĬ Ø§ÙĨ
ĠØ§ÙĨ ØªÙħ
ĠØ§ÙĦØ¹ Ø±
ÙĥÙĬÙģ Ø§Ùĩ
ĠÙĥ ÙĬÙĨ
ĠØ³ Ø§ÙĩÙĦØ©
ĠÙĪØ§ÙĦ ÙħÙĨ
ĠÙĬØ¹ Ø§ÙĪÙĨ
ĠÙĪØ§ÙĦ Ø¨Ø±
Ø§Ùģ ÙĪ
ĠØ¨Ø§ÙĦ ÙĬ
ĠØ®ØµÙĪØµ Ø§
Ø§ÙĦ Ø§ÙĦ
ÙĨØª Ø´
Ġa s
Ġs ur
ÙĦØ³ Ø§ÙĨ
ĠÙĨØµ Ø¨
ĠØ§ÙĦÙħØ³Øª ÙĤØ¨ÙĦ
ĠØ§ÙĦÙģ Ø¹ÙĦ
ĠØ§ÙĦÙģ ÙĥØ±ÙĬ
ĠÙĨØ³ Ø¨Ø©
ĠØ¹Ùħ ÙĦÙĬØ©
ĠÙĬØ³Øª Ø±Ùĥ
Ġï´ ¾
ĠØª ÙĪØ¬Ø¯
ĠÙĬØ® ÙĬ
Ã¨ re
Ø± Ø®
Ø²ÙĬØ¯ Ø´
ĠØŃÙĪ Ø§ÙĬØ¬
ÙĪÙħÙĪÙĨ ØªØ§Ø±
ĠØ§ÙĦØ¬ ÙħÙĬÙĦØ©
ÙĤØ± Ø§ÙĬ
ĠØ§ÙĦÙħÙĨ Ùĩ
ĠØŃØ³ Ø¨ÙĬ
ĠØ§ÙĦØ¯ ÙĥØªÙĪØ±
ÙĨ Ø·
ĠØ£ ÙħØ©
ĠØ¬ ÙĪØ§ÙĨ
ĠØ§ÙĦØ¹ Ø±ÙĪ
ĠØ¹ÙĨØ¯ ÙĥÙħ
ĠØŃØ± Ùħ
ĠÙĪÙĬ ØºÙģØ±
ÙĤØª ÙĩØ§
b le
ĠØ£ ÙħÙĬ
ĠÙĤ Ø§ÙĨÙĪÙĨ
ÙĦÙĤ Ø§
Ø¶ÙĬ ØŃ
Ġa m
ĠØªÙĥ ÙĦÙħ
Ø· Ø·
ĠØ¥ ÙĤØ§ÙħØ©
ĠØ³ Ø§Ø¨
ĠØ§ÙĦØ¬ Ø¯ÙĬØ¯Ø©
ĠØªÙĤ Ø¯ÙĬÙħ
ĠÙĨØ¬ØŃ ÙĨÙĬ
ĠØ§ÙĦØ§ÙĬ Ø§Ùħ
Ø¨Ø±ÙĪ ÙĪÙĥ
b o
Ø¹ Ø§Ø¯
ĠÙĪØ§ÙĦ ØªÙĪ
ĠÙĬØ³Øª ØŃÙĤ
ĠÌ ģ
ĠÙħ Ø³Ø¨
Ø±Ø¨ ÙĪ
ĠÙĥØªØ¨ Øª
Ø® ÙĪ
ĠØªØ´ Ø¨Ùĩ
ĠØªØ± Ø¯
li ta
Ø´ Ø¹Ø¨Ø©
ĠØ§ÙĦØ¨ÙĬ Ø§Ùħ
ĠØŃ Ø§Ø³
Ø§Ø¬ ÙĬ
ĠØ§ÙĦØµ ØºÙĬØ±
ĠØŃ Ø¶Ø±
Ġ2 3
Ġ2 7
ra vo
Ø¬Ø± Ø¯
ĠÙĦ Ø¯ÙĬÙĥ
Ġd o
ti k
ØªØ± ÙĨØª
ĠÙħ ÙĤØª
ĠØ§ÙĦÙħ Ø±Ø¶
ĠØ§ÙĦØ³ ÙĥÙĨ
ØŃÙĪ Ø§ÙĦ
ĠÙħØ¹ÙĨØ§ Ùĩ
ĠØ§ÙĦØŃ Ø¨ÙĬØ¨
ĠÙħØ´ ÙĥÙĪØ±
ĠØ§ÙĦØº Ø§ÙĦÙĬ
ĠØ§ÙĦÙĥØ± Ø§Ùħ
ĠØŃØ¯ ÙĪØ¯
Ùģ Ø§Ø¹
ĠÙĬ ÙĩÙħ
ĠØ¥ ÙħØ§
ĠØ±ÙĪ Ø§ØŃ
ĠØ¥ÙĦÙĬ ÙĩÙħ
ĠØª Ø¶ØŃÙĥ
ĠØ§ÙĦÙħ ÙĤØªØ±ØŃØ§Øª
ĠÙĥÙĬÙģ ÙĬØ©
ÙĬ ØªÙĩ
ĠØ§ÙĦØ£Ø® ÙĦØ§ÙĤ
ĠÙĦ Ø§Ø¹
ĠØ£ ÙĥÙĪÙĨ
Ø±ÙĪ Ø§ØŃ
ĠØ§Ùħ ÙĬ
ĠØŃØ³ ÙĨØ©
ĠØ£Ø« ÙĨØ§Ø¡
ĠØ£ ÙĤÙĦ
Ø£ÙĨ Ùĩ
Ø¸Ø± ÙĪÙģ
ĠÙĪÙĤØª ÙĩØ§
O U
Ã ª
________ ________
f e
ĠØ¯Ø± ÙĨØ§
ĠØ£Ø³ Ø¦ÙĦØ©
ĠØ§ÙĦØŃÙĦ ÙĤØ©
ĠØ§ÙĦÙĪØµ ÙģØ©
Ùĩ ÙĦÙĥ
Ø§Ø® ÙĬØ±Ø§
ÙĩØ§Ø° ÙĬ
Ùĩ Ø§Ø¯ÙĬ
ĠÙģ Øµ
ĠÙĬ ØµØŃ
ĠØ§ÙĦÙħ Ø°
Ø§Ø± ÙĤ
ĠØµØ± Ø§ØªÙĦÙĬ
ĠØ¹ ÙĪ
ĠÙĤ Ø¶
ĠØ§ÙĦÙĥ ÙģØ§Ø±
ĠØ³ ÙĪØ¬ÙĬ
ĠØ§ÙĦØ± ØŃÙħØ©
ÙĨØª ÙĩØ§
ĠÙĪØºÙĬØ± Ùĩ
ĠÙĨ Ø³Ø¨
Ø® ÙĬÙĦ
ĠÙĬØ· ÙĪÙĦ
? ?
ĠÙģ Ø±Ø¬
Ø² Ø§Ø¨
Ø« Ø¨Ø§Øª
ĠÙĨØª Ø¹ÙĦÙħ
ĠðŁĴ ĸ
ĠØŃ Ø¬
ĠØªØª ÙħÙĨÙī
ĠØ¨Ø§ÙĦ Ø¯
Ø§Ø± ÙĨØ©
ĠÙĬÙĩØ¯ ÙĬÙĨØ§
Â» .
ĠØ§ÙĦØ¹ ÙĦ
ĠÙħØ± Ø§
Ø¦ÙĦ ØªÙĬ
ÙĥÙĬ Ùĥ
Ġt u
ĠØ¹ Ø¬Ø¨
ĠØ± Ø¶
ĠØ§ÙĦÙĤ Ø¯Ùħ
ĠØ£Ø´ ÙĩØ±
ĠØ§ÙĤ Ø§ÙħØ©
Ø¨ÙĬ Ø¯
ĠØ§ÙĦØªÙĪ Ø¨Ø©
ĠØ²ÙĪØ¬ ÙĩØ§
Ø´ Ø¹
ĠÙĨ Ø§Ø±
ĠÙĪÙĨ Ø³
Ø¥ÙĨ Ø³Ø§ÙĨ
ĠØ§ÙĦØ¹ÙĤ ÙĬØ¯Ø©
ĠØ§ÙĦÙħ Ø¹ÙĦ
ĠÙĬÙħ Ø´ÙĬ
ĠÙĤ Ø§Ø¦
M erci
ĠØª Ø±ÙĬ
ÙĤ ÙĦÙĬ
Ġ2 8
ĠÙģ Ø§Ø³Øª
ĠÙĨ ÙĨØ³
Ø´ ÙĬØ±
ĠØ³ Ø·
ĠÙĪÙĬ Ø¬Ø¹
ĠÙħØ± Ø§Ø¯
ba c
ĠØµØ§ØŃ Ø¨Ø©
ĠÙģ ÙĦÙĪ
ĠØ£ØµØ¨ØŃ Øª
p s
ĠÙĬ ÙĤØªÙĦ
Ø§Øª ÙĪØ±
ĠØ¹ÙħØ± Ø§ÙĨ
ĠÙħ ÙĤØ¯Ø±ØªØ´
ØŃØ¨ Ø³
ĠÙģØ¶ ÙĦØ§
ÙĬÙĨ ÙĩØ§
ĠØ³ ÙĤ
ĠÙģØ± ØµØ©
ĠØ¹ Ø§Ø±
ĠÙĤ ÙĬØ§Ùħ
ĠÙħØ¹ Ø¯
Ø®ÙĦ Ø·
ĠØ§Ø¬ Ø±
ðŁĺį ðŁĺį
ĠÙħÙħØª Ø¹Ø©
ĠØŃÙĥØ§ÙĬ Ø§ØªÙĥ
Ø§ÙĪ Ùĩ
ĠØªØ¹ Ø·ÙĬ
ĠÙģØ§ÙĦ Ø¹
Ġlo ve
ĠÙĦ Ø§Ùĥ
ĠØ§ÙĦØ¹ Øµ
ĠâĢ ľ
Ø¨Øª Ø¯
ĠØ§ÙĦØ§ÙĨ Øª
ĠÙĪ Ø¹Ùħ
ha m
ĠÙħ Ø¨Ø¯
ØªØ± ÙĪÙĨÙĬØ©
ĠØ´Ùģ ØªÙĪ
i i
ĠØŃ Ø§Ùģ
ĠÙĬÙĤ Ø¨ÙĦ
ĠÙģ Ø¥
ĠØª ÙĪÙĨØ³
Ø±ÙĬ Ø§Øª
ĠØ§ÙĦØ¨ Ø¯Ø§ÙĬØ©
ĠØ§Ø³ØªØ§Ø° ÙĨØ§
ĠØªØ·Ø¨ÙĬ ÙĤ
ÙĦ ÙĪÙĨ
ÙĪ ÙĦÙĩØ§
ĠØº ÙģØ±
ĠØ§ÙĦÙħØ³ Ø¤
âĿ¤ï¸ı âĿ¤ï¸ı
ðŁ į
ĠØµ ÙĬ
ĠØµ Ø¯Ø±
ØªØµ Ø§Ø±
Ø³ Ø§Ø±Ø©
ĠÙĤ ÙĦÙĨØ§
ĠÙħØ¹ ÙĬÙĨ
ĠØ« ÙĪØ±Ø©
ØµØ± Ø§
ĠØ§ÙĦØ§Ø¹ Ø¶Ø§Ø¡
Ø²ÙĬ Ø§Ø¡
ĠÙĨØ¬ Ø¯
Ġ ~~
Ø§ÙĨ Ø§Øª
ĠØ¬ ÙĨØ©
ĠØº ÙĦ
Ø±ÙĪ ØŃÙĬ
ĠÙĦÙĥ ØªØ§Ø¨
ĠØ£ÙĨÙģØ³ ÙĩÙħ
d er
ĠØª Ø§Ø¨
ĠØ§Ø ¸
ĠØº Ø¯ÙĪØ§
Ã© e
ĠØª Ø¨Ø¯
ĠØ³ Ø·ÙĬÙģ
ĠÙĬØ´ Ø§ÙģÙĬÙĥ
ĠÙĪÙĬØ¹ Ø·ÙĬÙĥ
ĠØ§ÙĦØ³ÙħØ§ ÙĪØ§Øª
Ùĩ Ø§Ø¯Ø©
ĠÙĦ Ø¯Ùī
ĠÙĥ ÙĦÙĩÙħ
ØªÙĬ Ø¬Ø©
ØªØ§Ø¨ Ø¹
ĠÙĦÙĦØ§Ø³ Ùģ
Ġw ah
Ø´ ÙĬØ©
ĠØ® Ø§ÙĦÙĬ
ĠØ¯ Ùĥ
ĠÙĬØ¹ Ø¬Ø¨
ðŁĴ Ļ
ĠØ§ÙĦÙħØ³ÙĦÙħ ÙĪÙĨ
ĠØ§ÙĦØ´Ø± Ø¹
ĠÙĪÙĬØ± ØŃÙħ
ĠØ§ÙĦ Ø¶Ø±
ÙĬØ± Ùĩ
ĠØ§ÙĦÙħ ÙĤØµÙĪØ¯
ĠØ§ÙĦØ® Øµ
ØªÙĤ Ø§Ø¯
3 9
ĠØ§ÙĦ Ø¶ØŃÙĥ
ĠÙĪØ± ÙĤØ©
Ġa d
ÙĨ ÙĩØ§
ðŁĺĤ âĿ¤
ÙģÙĬ Ø§
Ġw in
ĠÙĥ Ø°
Ġm y
Ø§Ø· ÙĤ
ĠÙħ Ø±ÙĥØ²
ĠÙĦÙĦ Ø¨
ĠÙĦÙĥÙĨ Ùĩ
ĠØª ÙģØ±
Ø« ÙĤ
Ġma t
ĠØŃØ¨ÙĬ Ø¨
Øª Ø©
ĠØ¥ Ø³ÙĦØ§Ùħ
Ø§Ø· Ø§
ĠØ¨Ø§Øº ÙĬ
ĠØ§ÙĦ Ø§Ùĥ
ĠÙĬ Ø¶Ø±Ø¨
Ø® Ø¯Ø§Ùħ
ÙģØª ÙĨØ§
ĠØ§Ø¨ Øª
Ø²ÙĬ Ø²Ø©
ĠØ§ÙĦÙħ Ø¹ÙĦÙħ
ĠØ§Ùģ Ø±ÙĬ
ĠÙĦ Ø§Ùģ
ĠØ¹ Ø§Ø±Ùģ
Ø±ØŃÙħ Ùĩ
ÙĪ ÙĤØª
Ùĩ Ø¯ÙĬ
ĠØ¹ Ø¯Øª
Ġb la
ĠØ§Ø¯ Ø¹
ĠÙģÙĬØ¯ÙĬÙĪ Ø§Øª
ĠØªÙĩ Ø¨ÙĦ
ĠÙĥÙĨ ØªÙĬ
Ù ¤
ĠØ§Ø³ ÙħÙĪ
ĠÙĪØ£ ÙĬ
ĠÙħÙĪ ÙĤÙģ
ĠÙĪØŃ ÙģØ¸
ĠØ£Ø³ Ø£ÙĦÙĥ
Ø¹ ÙĨØ§
ĠØ§ÙĦÙĨ Ø«Ø±
ĠØ§ÙĦÙĪ ÙĤ
Ġbe au
ÙĪÙĦÙĪØ¬ ÙĬØ§
ĠØ¨Ø§ÙĦ Ø®ÙĬØ±
Ø£Ùĥ Ø¯
ĠØ¥ ÙĬÙħØ§ÙĨ
ĠØ¯ Ø§Ùħ
Ø§ÙĬ ÙĤ
7 7
ĠØª ÙĬÙĥ
ĠØ§ÙĦÙħ Ø³ÙĬØŃ
Ø¸ ÙĦ
ĠØ¶ ÙĦ
ĠØªÙĤ ÙĨÙĬ
ÙĪØ§ÙĨ ÙĨØ§
ĠÙħØ« ÙĦÙĥ
ĠØ±Ø³ ÙĪÙĦÙĩ
ÙĬ Ø§Ø±
ĠÙģ Ø§Ø·
ĠØ³ ØªØ±
ou f
ĠÙĪÙģÙĬ Ùĩ
ĠØ§ÙĦÙħÙĨ Ø²ÙĦ
ĠØ£ÙĪÙĦ Ø¦Ùĥ
w e
Ú ¾
ĠÙĦ ÙģØ¸
ĠØ§ÙĦØ¹Ø§ÙĦÙħ ÙĬØ©
âľ Į
ĠÙĦ Ø¨Ø¹Ø¶
ĠØµ ÙģØ§Øª
ĠÙĪØºÙĬØ± ÙĩÙħ
ĠÙħØŃ Ø±
ÙģØª Ø§ØŃ
ĠÙĬØ® Ø¨Ø·
Ø±ÙĬÙĥ Ø§
ĠØ¨Ø§ÙĦ Ø§Ùĥ
Ø±ÙĪ ÙĬ
Ø±ÙĪ Ùĥ
Ġd Ã©
Ġh na
ĠØ§ÙĤ Ø±Ø¨
ĠÙħØ±ÙĬ Ø¶Ø©
Ø´ ÙĥÙĦ
ĠØ¬ Ø§ÙĨ
ĠÙĪØ£ Ø¨ÙĪ
§ a
ĠÙĪ Ø§ÙĪ
ĠØ° Ùĩ
ĠØ³ÙĬ Ø§Ø±Ø©
Ġâĺ º
ĠÙĩ Ø¯ÙĪ
ĠÙĪØ§ÙĦ ÙĬ
ĠÙģ Ø§
ĠÙĥ Ø¨Ø±
ĠØ§ÙĦØ³ ÙģØ±
ÙģØ³ Ø©
ĠÙĬØ¬ Ø¯
ĠØ§ ÙĩÙħ
ĠÙĬØªØ¨ Ø¹
ĠÙħØª Øª
o f
ĠðŁĴ ķ
ĠØ§ÙĦØ´ÙĬ Ø¹Ø©
ĠÙĩ ÙĨ
ĠØ§Ùĥ ØªØ¨
ĠØ±Ø¬ Ø§Ø¡
ĠÙĪØ§ÙĦ Ùĩ
ĠØ¨ Ø§Ø¯ÙĬ
ĠØ§ÙĦØ£ Ø¯
Ø³ ÙĬØ±
ĠØ¹ Ø§Ø¬
ĠÙĤ ÙĬÙħ
ĠØ§ÙĦØ´ Ø§Ùħ
ĠÙĪÙĨ ØŃÙĪ
ĠØ¨ÙĨ Ø¬Ø§ØŃ
ðŁ« ¶
ĠØ« Ø§Ø¨Øª
ĠØªØ® Ø§Ùģ
ĠÙĪ ÙĨØ§
ĠÙĦ Ø°Ø§
ĠÙĨ ÙĨØª
Ø¶ Ø§Ùģ
Ġc e
ĠÙĬØ´ Ø¨Ùĩ
ĠØ§ÙĦÙħØ´ ÙĥÙĦØ©
ĠØ£ÙĤ Ø±Ø¨
ĠÙĪ Ø¯ÙĬ
ĠØ¹Ø« ÙĬÙħÙĬÙĨ
ĠÙĬ Ø³ÙħÙī
ĠØ° ÙĪÙĬ
is t
a ra
Ø§Ø¹ Ø§
on n
Ø¹ Ø¯ÙĬ
ĠØ¨ ØŃØ±
ÙħÙĪ Ø¶ÙĪØ¹
ĠÙĬ ÙĤÙĦ
ĠÙĦÙħ Ø¯Ø©
ĠØ§ÙĦÙĥØªØ§Ø¨ Ø©
ĠØ¨ÙĪØ± ÙĥØª
Ø§ÙĦ ÙģØ©
ha b
Ø´ ÙĤ
ĠØ§ÙĦØ± Ø§Ø¨Ø·
Ġp df
ĠØ¸ Ø§ÙĩØ±
ĠØ¹ÙĬØ¯ Ùĥ
u re
ØŃ Ø¨ÙĬ
ĠÙģ Ø§ÙĦÙĬ
ĠØ¹ Ø±Ø´
ĠØ³ ÙĥØ±
ĠØ¥ Ø¹
ĠÙĦÙĦ Øº
Ġd i
Ġra ni
ĠÙĤÙĨ Ø´ÙĪ
ÙĦ ÙĨ
ĠÙħ ÙģÙĩÙħ
ĠØ§ÙĦØ¹ Ø§ÙģÙĬØ©
u e
ØŃ Ø¨ÙĬØª
Ø² Ùĩ
ĠØ§ØŃ ÙģØ¸
ĠØ§ÙĦØ±Ø³ Ø§ÙĦØ©
ĠØª Ø±Ø¨
Ø±Ø§Ùĥ ÙĬ
ÙĦÙĪ Ø§Øª
ĠØ° Ø±
Ġ2 6
ÙĪØ§ÙĨ ÙĬÙĨ
ĠÙĬ Ø¯ÙĬÙĩ
ĠØ§ÙĦØŃ ÙĪ
ĠA l
ĠØª ÙĪØ¨
ÙĦÙĬ Ø§Øª
ĠØ¬ Ø§Ø±
Øª Ø§Ùĩ
ØŃ ÙĥÙħ
ĠØª Ø¨Ø±
ĠØ§ÙĦØ¬ Ø§Ùĩ
ĠØ§ÙĦØ· Ø§Ø¨Ø¹Ø©
ĠØ§ÙĨØª Ø¸Ø§Ø±
ĠØ§Ùħ Ø§Ùħ
Ø¹ÙĪØ¯ ÙĬØ©
Ø³ Ø§Ø¯
ĠØ± Ø®
Ø§Ø¨ Ø³
ĠØªØ¬ Ø±Ø¨Ø©
ĠÙĪØ± Ø§ØŃ
ĠÙĪÙģ Ø§Ø©
ÙĪÙĨ Ø¯ÙĬ
ĠØ³ ÙĪØ±
ĠØ§ÙĦØ± Ø§Ø¬ÙĦ
Ġn i
ĠÙĨØ± Ø§Ø¬Ø¹
ĠØ§ÙĦÙħ Ø¹Øª
ĠØ§ÙĦØµØ§ÙĦØŃ ÙĬÙĨ
Â «
Ġf o
ĠØ¯Ø® ÙĪÙĦ
3 8
Ùģ ÙĪØ§
ĠØ£Ø¹ ÙĦÙī
ÙĨ ÙĪØ±
ĠØ´ ÙħØ³
ĠØ§ÙĦØ³ Ø§Ø¨ÙĤØ©
ĠØªØ¹ Ø±Ø¶
Ġcontinu ation
ĠØ§ÙĦØ¹ Ø¶
ĠØ§ÙĦÙħØ® ÙĦÙĪ
ĠÙĬØ¹ÙĬØ´ Ùĥ
ĠØ¨ÙĬÙĨ ÙĩÙħØ§
ĠØ§ÙĦØ§ÙĨ Ø¬ÙĦÙĬØ²ÙĬØ©
ĠØ¨ØŃ Ø«
L A
ĠØ¨ ÙĪÙĦ
ĠØ¨ Ø´ÙĬØ¡
ĠÙĪÙĬ Ø³Ø±
Ġy e
ĠÙħØ¬ ÙħÙĪØ¹
ĠÙĪØ¬Ùĩ Ùĥ
âĿ¤ ðŁİī
ĠÙĨÙĦ ØŃÙĤ
ĠØª Ø³ÙĬÙĬØ±
ĠØªØ§Ø¹ ÙĩÙħ
ĠØµÙĪ ØªÙĥ
ĠØªÙĤØ± Ø§ÙĬ
ĠÙĤÙĨØ´ÙĪ Ø¨Ø©
ĠÙĨ Øº
ĠØ§ØŃ ØªØ±Ø§Ùħ
ĠØ·ÙĦ Ø¹ÙĪ
r es
ĠÙĨ ÙĪØ¶
ĠØ§Ø¨ Ø±
ĠØ£ØŃÙĬ Ø§ÙĨØ§
c om
Ù £
ĠÙģ Ø®
ĠØ§ÙĦØ¹ ÙĪ
ĠØ§Ø³Øª Ùģ
ĠØ§ÙĦ Ø§Øº
ĠÙĥ ÙĦÙĬ
ĠØ´ Ø±ÙĥØ©
ĠØ¨ ÙĤÙĪØ©
ĠØªØŃ ÙģØ¸
ĠØ£Ø¬ Ø¯
ÙĦ ÙĪÙĦ
ĠÙĥ ÙĦØ§
ðŁĺ ¹
ĠØ§ÙĦØ¬ Ø§ÙĬ
Ø§ÙĤ ÙĬØ©
ĠØ¸ Ø§ÙĩØ±Ø©
ĠÙģ ÙĦØ¨
Ø§Ø¹ ÙĬØ©
ĠÙĤÙĦÙĬ ÙĦØ©
ÙĤ ÙĦØ©
ĠØ§ÙĦØ¹ ÙĦÙĬØ§
ĠØ§ÙĦØ£ Ø´ÙĬØ§Ø¡
ĠØ§ÙĦØ± Ø§Ø¦Ø¹
Ġd ar
ĠØ±Ø£ Ùī
ĠØµØ¹ ÙĬØ¨
ĠÙħØ´ Ø§ÙĥÙĦ
ĠØ§ÙĦØº ÙĬØ±
ĠØ¹ Ø§ÙĪ
b b
ĠÙĬ ØŃÙħÙĦ
ĠØ² ÙĪØ§Ø¬
ĠÙĨÙĦÙĤ Ø§
Ø¹ ÙħØ±
Ùģ ØªØ´
ĠØ¨ ÙĪÙħ
ĠÙĦ Ø¬ÙħÙĬØ¹
ðŁĴ ĵ
ĠØµØ§ÙĨ Ø¹Ø©
ØŃ ØµÙĦ
ĠØª ÙĪÙģ
ĠÙĨ ÙģØ¹
ĠØŃ Ø§ÙģØ¸
Ġ2 2
ØŃÙĬ Ø§ØªÙĬ
ĠÙģÙĤ ÙĦØª
ĠØ¬ Ø§Ø±ÙĬØ©
ĠØ§ÙĨ Ø³
ĠØ§ÙĦÙĤ ÙĪ
ĠØ§ÙĦÙĤ ÙĬØ§Ùħ
Øª Ø³Ø¨
ĠØ§ÙĦØŃ ÙĦÙĪ
Ġj a
ĠØª Ø±Ø¬Ø¹
ĠÙĦÙĦ Ø±
ĠØ§Ø¨ ØªØ¯
ĠÙħØ± ÙĪØ±Ùĥ
ĠÙĨØŃ ØªØ§Ø¬
ĠØ¹ÙĨ ÙĪØ§ÙĨ
Ø§Ø² Ø©
ĠÙĨØ¨ ÙĥÙĬ
ÙĨ ØŃØ¨
ĠØ§ÙĦØ® Ø¯ÙħØ©
ĠÙĪÙħ ÙĥØ§ÙĨ
ĠØ§ÙĦÙĨØ¨ÙĪ ÙĬØ©
o la
ÙĥØ± Ø±
ĠØªØŃ Ø³
ĠÙĪÙħ Ø§Øª
Ġy our
Ø· ÙĦØ©
ĠÙĩÙĥ Ø¯Ø§
ĠÙĦØŃ Ø¸Ø©
ĠÙħØ¹Ø±Ùģ ØªØ´
ĠÙĨ Ø¹ÙĦÙħ
Ġa r
ĠØ§ÙĦÙħØ³Øª ÙĪÙī
Ø§ÙĦ ÙĤØµØ©
ĠØ¹ÙħØ± ÙĩØ§
t y
ÙĪ ÙĥÙħ
Ùĩ ÙĪØ©
ĠØ§ÙĦÙĤ Ø¯ÙĬÙħØ©
ÙģØ± Ø§Ø¯
l ou
Øª Ø¹ÙĬ
ĠØµÙģ ØŃØ©
ĠÙĬ Ø³Ùħ
ĠØ¬ ÙĬØ¯Ø©
ĠØ²ÙĬ Ø§Ø¯Ø©
Ø¬ Ø§Ùĩ
ĠÙĪØª Ø³
ĠØ³Ø¹ ÙĬØ¯Ø©
ÙģÙĬ Ø§ÙĨ
ĠÙĪÙĩ ÙĨØ§Ùĥ
Ġk am
ĠØ£Ø± Ùī
ĠÙĨÙĤ ÙĦÙĥ
ĠØŃ Ùģ
ĠØ¬ Ø±Ø¨
ĠØ¬ ÙĩÙĨÙħ
ĠØ§ØŃ ÙħØ¯
ÙĪØ§Øª ÙĬ
ĠÙĨÙĤØ¯Ø± ÙĪ
Ø¹ Ø«
ĠØ§ÙĦÙħ ÙĬØª
ĠØ§ÙĦØ¨ÙĦ Ø¯
ÙĪÙħÙĨØª Ø§Ø±
cha llah
ĠÙĪØ§Ø¶ ØŃ
ĠÙĪ Ø¨Ø±
ĠØ§ÙĦØ¨ Ø¯Ø¹
ĠØ· Ø±ÙĤ
ÙĪØ¯ ÙĬØ©
ĠØ¹Ø¨ Ø§Ø¯Ùĩ
ĠØ§ÙĦÙħ ØŃØ±
ĠØ§ÙĦØ¹ ÙĬ
ĠØ§ ÙĤÙĪÙĦ
Ø§Ùĥ Ø±
ĠØ¬ Ø¹ÙĦÙĩØ§
ĠØ§ÙĦØŃ Ø³Ø§Ø¨
ĠÙĬÙĤ Ø¹
ĠØ£Ùĩ ÙĦÙĩØ§
Ã¨ s
ĠØªÙĪØŃØ´ ÙĨØ§
Ø£ ÙĪÙĦ
ĠØ¶Ø¹ Ùģ
Ø§ÙĨ ÙĬÙĨ
ĠØªØ¨ ÙĥÙĬ
Ø² ÙĬÙĥ
ĠØ§ÙĦØ¹ Ø¯ÙĬØ¯
ĠÙĪÙĨ ÙģØ±ØŃÙĪ
ĠÙĪØ¬ ÙĪÙĩ
ĠÙĪ Ø¨Ø¯
ĠØ§ÙĦØ® Ø§Ø±Ø¬
ĠØŃ Ø±ÙĥØ©
ĠØº Ø¯Ø§
ha ha
ĠØ¯Ø± ØªÙĬ
Ø¬Ùħ ÙĦØ©
Ø¯Ø¹ÙĪ Ø§ØªÙĥÙħ
ĠÙĪØ§ÙĦØ¢ Ø®Ø±Ø©
Ġw la
ĠÙĪÙħ ØŃ
ØŃØ¯ Ùī
ĠØ§ÙĦÙħØ´ Ø±Ùĥ
ĠÙĪØ§ÙĦ Ø¹ÙĦÙħ
ĠØ§ÙĦØ¹ Ø¯ÙĪ
Ø±Ø§Ùĥ ÙĦÙĬØ·Ø§
ĠØ£ÙħØ± Ùĩ
Ø§Ùħ Ùĩ
ÙĦÙĪ ÙĥØ§ÙĨ
ðŁĩ ©ðŁĩ¿
oo p
Ø£Ø³ØªØ§Ø° Ø©
ÙĤ ÙĪÙħ
ĠØ± ÙĤØ¯
ĠÙĬØ´ÙĪÙģ ÙĪ
ðŁĴ ŀ
Ø¹Ø±Ùģ Ø´
ĠØ§ÙĦÙħØ¬ Ø§ÙĦ
Ø³ ÙħØ§
ĠØ¨Ø§ÙĦ Ø·
ĠÙĬ Ø³ÙĦÙħ
ØªÙĩ Ø¯
Ġw al
ĠØ§ÙĦØ¢Ø®Ø± ÙĬÙĨ
ØŃÙħØ¯ Ùĩ
ĠØ§ÙĦØ· Ø¹Ø§Ùħ
ĠÙĨØ§ÙĤ Øµ
ĠØ§ÙĦÙħ Ø«
Ø§Ø¯ Ø¹ÙĪ
ĠØªØ¬ Ø±ÙĬ
ĠÙĦØ¨ Ø§Ø³
Ø§ÙĦ ÙģÙĬØ¯ÙĬÙĪ
Ùĥ ØªØ¨
ĠÙħ Ø²ÙĬØ¯
Ġm ar
ĠØ¶ ÙħÙĨ
em ent
ĠØ§ÙĦÙĪÙĦØ§ ÙĬØ©
ĠÙħ ÙĪØ§ÙĤØ¹
ĠØ§ÙĦØ¹Ø¨ Ø§Ø¯Ø©
Ø§ÙĦ Ø¹Ø¨Ø§Ø³ÙĬØ©
ĠØª ÙĤÙĦ
ĠÙħØ¹ ÙĨØ¯ÙĬØ´
ĠØ§ÙĦØ´ÙĬ Ø§Ø·ÙĬÙĨ
ĠØ§ÙĦÙĦÙĤ Ø§Ø¡
Ø§ÙĦ Øº
Ø¨ ÙĩØ§
ĠØª ØŃÙħÙĦ
ÙĦÙĬ Ùģ
ĠÙĦ Ø§Ùĩ
ĠÙĬØ§Ø³ Ø±
ØŃ ÙĬØ©
Ø° ÙĪ
ĠØµØº Ø§Ø±
Øª ÙģØ±Ø¬
Ø· ÙĬÙĨØ§
ÙĨØ§ ÙĪ
Ġkh ou
Ùħ ÙĬØ©
ĠÙĥÙĨØª Ùħ
Ø®Ø§Ùģ Ø´
ĠØ ©
ĠÙĪ Ø³Ùħ
ĠÙĦÙĦ Ø·
ĠØ£Ùħ ÙĬØ±
ĠØ¬Ø§ÙĪØ¨ ÙĨÙĬ
ĠÙĪ Ø³Øª
ĠÙħ Ø§ÙĨÙĬ
Ø§Ùģ Ø¹ÙĬ
ĠØ¹Ø§Ùħ ÙĬ
ĠÙģØª Ø§ÙĪÙī
ÙħØ§Ø´ ÙĬ
ĠØ¨ÙĬØ¯ Ùĩ
ÙĪØ³ ÙĪ
Ø¯ Ø§Ø±Ø©
ĠØªØ¹ Ø±ÙģÙĬ
ĠØ¨Ø± Ø§
Ø¨ Ø§Ø¹
ĠÙħØª Ø¹
ĠÙĬ Ø±Ø¬
ÙĬÙĨ Ø§Øª
ĠØ§ÙĦÙħ Ùħ
ĠÙĪÙĥ Ø§ÙĬÙĨ
ĠÙĤØµ ØªÙĬ
ĠØ§ÙĦÙħØ¹ÙĦ ÙĪÙħØ©
ðŁĺ İ
ĠÙĬØ´ Ø§Ø¡
ĠØ§Ø®ØªÙĬ Ø§Ø±
ĠØ´Ø®Øµ ÙĬØ§
Ø¨ Ø³
ĠØ¨ ÙĤØ¯Ø±
ĠØ¹ Ø¬Ø¨ÙĨÙĬ
ĠØª ÙĪØ¬
ĠØªØ¹ ÙĬ
ĠØ§ÙĦØ¨ Øµ
Ø¹Ø¯ Ø©
ĠÙĪÙĬ Ø®
Ø§Øµ ÙĦØ©
H A
ĠØ¯Ø§Ø± ÙĨØ§
ĠØ£Ø¨ÙĪ Ø§Ø¨
ĠØ¨Ø§Ø¯ÙĬ Ø³
i c
Ø±ÙĬ Ùĩ
Ø§Ø³Øª ØºÙģØ±
ĠÙĪÙĨ ØªÙĬ
ĠØ® ÙĪÙĥ
ĠÙħØ¹ ÙĨ
ØªÙĪ Ø¨Ø©
Ø¨Ùĩ Ø©
ĠÙĪØ§ÙĦ Ø§Ø®
ĠØ§ÙĦÙĥ Ø°Ø¨
ĠÙĨØµ Ø§Ø¦ØŃ
Ø¹ÙĦÙĬ Ùĩ
1 00
ĠØ§ÙĦ ÙĦÙĪ
ĠØ§ÙĦ ÙĪÙģ
ĠØµ ÙĬØ§Ùħ
ÙģÙĬ ÙĩØ§
ĠÙĪØ§Ø± ØŃÙħ
Ø§Ø¶ Ø©
ĠÙĬØ® ÙĦÙĬ
ĠÙĬ ÙĤØ¯Ùħ
ÙĪØ¹ ÙĦÙĬÙĥÙħ
ÙĦØ³ ÙĦØ§Øª
ĠðŁĺĬ âĿ¤
ĠØ¬Ø§Ø¡ Øª
ĠÙĦ ØŃÙĥØ§ÙĬØ§Øª
ĠØ® Ø®
ÙĤÙĬ Ùĩ
Ø²ÙĪØ¬ Ø©
ĠÙĬÙĦ Ø²Ùħ
ĠÙĪÙĬÙĪÙģÙĤ Ùĥ
Ø¨ Ø§ÙĬÙĨ
ÙĪØª Ø±
ĠÙħÙħØªØ§Ø² Ø©
ĠØ¨ÙĦ Ø¹
ĠØ¨ÙĦ Ø§ØµØ©
ĠØ§ÙĦÙĩ Ø¯Ø±Ø©
ĠÙĦØ§ÙĨ ÙĩØ§
Ġch ik
ĠØ±Ø§Ø³ Ùĥ
ĠÙĨ Ø«Ø±
ĠØ§Ùħ ÙĬÙĬÙĨ
or t
ĠØ¨Ø§Øª ÙĨØ©
ØµØŃ Ùģ
Ġp la
ĠÙĨÙĪ ØµÙĦ
Ġbi en
Øª ÙĬÙĨÙĬ
Ø§Ø± Ø³
Ġa ve
ĠØªÙģ Ùĥ
Ø¨Ø§ÙĦ ØªÙĪÙģÙĬÙĤ
ĠØ§ÙĦØ£ Ø±Ø¨
ha r
3 1
ĠØŃ Øµ
ĠØªØ¹ ØªØ¨Ø±
ĠÙĬÙĪÙħ ÙĬØ§
ĠØ§ÙĨ ÙĩÙħ
ĠØ§ÙĦØ± ÙĤÙĬØ©
Ġy h
ĠØ¯ÙĬÙĨ Ùĩ
ØŃ Ø§Ø¯
ĠØ² Ø±
on ne
ĠÙĬØ® Ø§Ùģ
ÙĤØµ Ø¯
ĠÙħ ÙĬÙĦ
Ø±ÙĪ Ø¹Ø©
ÙĦØ³ Ø©
k e
ĠÙĬ ÙĤØ±Ø§ÙĪ
ĠÙĨØ³ Ø£ÙĦÙĥ
ĠØ§ÙĦØ¯ Ø§Ø®
ĠØ¯ÙĬ Ø§ÙĦÙĥ
ĠðŁĺ® ðŁĺ®
4 8
ÙĦÙĬ ÙħØ§
Ġma chi
ĠØµ Ø§Ø¯
ĠØ´Ø§Ø¨ ÙĬÙĨ
ĠØ§ÙĦØ¬ ÙĬØ´
ĠØ§ÙĦØ¯ Ø¬Ø§ÙĦ
ĠØ¨ÙĨ Ø§Ø¯Ùħ
Ø´ ÙĥØ±
ĠÙħØ³ ÙĥÙĪÙĨ
ØŃØ± Ø§Ùħ
ĠØ®ÙģÙĬ ÙģØ©
Ġ |
ÙĦØ§ ÙĪØ©
C h
ĠÙĪØ£ Ø®
ØªÙħ Ø¨Ø±
ĠØ§Ø¨ ÙĪ
ĠØªÙĦ Ø¹Ø¨
Ø¯Ø¹ÙĪ Ø©
m al
ØŃ ÙĦØ©
Ø§Ø· ÙĬ
âľ ħ
ĠØ±ÙĬØ¯ Ø§ÙĥØ³
Ùĥ Ø§ÙĦ
ĠÙĦ ÙģØ±
ÙĬÙĨ Ùĥ
ÙĪÙĦ ÙĥÙħ
ĠØ§ÙĦØ£ ØµÙĦ
Ġs i
ĠØ·ÙĪÙĦ Øª
ĠÙĪ Ø³ÙĦØ§Ùħ
Ø´ Ø§
Ġth is
ÙĨ ÙĤØ¯Ø±
Ø§Ø² Ø¹
Ø§Ø¦ ÙģØ©
ĠØ· Ø±
ĠØ· Ùģ
ĠÙħØ± Ø´
ĠØ¸ ÙĩÙĪØ±
ĠÙħÙĤØ§ÙĦ Ø©
6 6
D ir
Ø§Ø¨ Ø¹ÙĬÙĨ
ĠØ¸ ÙĨ
ĠÙĨØ¬ØŃ Øª
Ø§ÙĦ ÙĥÙħ
ÙĦØ§ ÙĬ
Øº Ø§ÙĨ
ĠØ§ÙĦØ£ Ø²
ĠØ§ÙĦÙĤØ± Ø§Ø¡Ø©
Ø§Ø´ Ø©
ØªÙĪ Ùĥ
ÙĪÙĤ Ùģ
ĠÙĪØ§ÙĦÙħ Ø³
ðŁ¤² ðŁ¤²
ØºÙĦ Ø·
our s
ĠÙħÙĦØ§ØŃ Ø¸Ø©
ĠÙĪ Ø±ØŃ
ðŁĺ ĩ
ĠØ² ÙĬØª
Ø¹Ø§ ÙĪÙĨ
isto ire
Ø² Ø§ÙĤ
Ø³ÙĨ ÙĬÙĨ
ĠÙħØ³ Ø§Ø¡
ĠØ°ÙĥØ± Øª
ĠØ§ÙĦÙħÙĩ Ø¯ÙĬ
Ø¶ Ø¨Ø·
ĠØ¬ ØºØ±Ø§ÙģÙĬØ§
ÙĪ ØªÙĥ
ÙĤ ÙĦØ¨
ĠÙĨ Ø¹ÙĬ
c oup
d o
l es
ĠØ¨ Ø¶ØŃÙĥ
ĠØ´ ÙĩØ¯
ĠØ§Ø± ÙĪØ¹
ĠØ§Ø¬ Ø¯
ĠØ³Ø§Ùħ ÙĬØ©
ĠØ¹ Ø§ÙĬ
Ø£ ÙĪ
ĠØ£Ø± ØŃÙħ
ĠØ«Ø§ÙĨ ÙĪÙĬ
ĠØ¨ Ø±Ø¬
ĠØ¹ Ø§ÙĦÙĬ
Ø° ÙĬØ±
ÙĨØª ÙĬÙĨ
ÙĪÙĬ ÙĤ
ĠØ§Ø³ØªØ§Ø° ÙĬ
ĠØ§ÙĦØ´Ùĩ ÙĬØ¯
ÙĪ ØªÙĪØ¨
ÙĤ ÙĦØª
ĠÙħØ¬ Ø¯
ĠØ¯ ÙħØª
ÙħØ§ Ùĩ
ĠÙĪØ¬ ÙĩÙĩ
ĠØ§ÙĦÙħØµ Ø¯Ø±
ĠØ§ÙĦÙħ Ø±ÙĬØ¶
âĢ ¢
ĠØ´Ùģ ØªÙĩØ§
Red x
Ġ ri
ĠÙĦ Ø¯ÙĬÙĩ
ĠÙĤ Ø§Ø¦ÙħØ©
Ø§Ø¦ Ø²
ĠØ· ÙĪØ§ÙĦ
Ø¨Ø±Ùĥ Ø©
Ø¬ ÙħØ¹
Ø´ Ùī
ĠØ§ÙĬ ÙħØ§ÙĨ
ĠÙĥØªØ§Ø¨ Ø©
Ġr Ã©
ĠØ£ Ø¸ÙĨ
Ø¨ ÙĪÙĨ
Ø¨ ÙĪØª
ĠØ¹ Ø±ÙĪ
ÙĨØ§ ÙĬØ©
ĠØªØŃ Ø¯Ø«
ĠØŃÙĥØ§ÙĬ ØªÙĬ
ØªØ¨ Ø§Ø±Ø§Øª
ĠÙĦÙĦÙħ Ø±
ĠÙĤÙĦÙĪØ¨ ÙĩÙħ
ĠØ§ÙĦØ± Ø§Ø¨Ø¹Ø©
ĠØ£ÙĪ ÙĦÙī
ĠÙħØµ Ø¯Ø±
ĠØ§ÙĦØ³ Ø§Ø¨ÙĤ
Ø¢ Ø¢
Ø§ÙĤ ÙĦ
ĠØ±Ø¬Ø¹ ÙĪÙĨÙĬ
Ø³Øª ØºØ±Ø§Ùħ
r k
ĠÙĤ Ø¯ÙĬÙħØ©
ĠÙĪØ§ÙĦÙĨ Ø¬Ø§ØŃ
ĠÙĩ Ø¯ÙĬÙĥ
ĠØ§ÙĦØ¹ Ø¶ÙĪ
ÙĦÙĤ Ùī
ĠÙĪÙĦ ÙĤØ¯
ĠØ§ÙĦØ« Ø§ÙĨ
ÙģØ¹ ÙĪÙĦ
ĠØ§ÙĦÙħØ± Ø§Ø¯
Ġt hat
R ak
m en
Ø§ÙĨ ÙĪ
ĠØª Ø±Ø¨ÙĬØ©
Ø« ÙĦØ©
ØŃØ¯ Ø§Ø«
L a
ĠÙĩ Ø¯Ùĩ
ĠÙĤ Ø¯ÙĬØ±
Ø³ÙĨ Ø§Ø¯
ĠÙĬØ£ Ø®Ø°
ĠÙĨØ² ÙĦØª
Ø³ÙĥØ± ÙĬØ©
ĠØ§ÙĦ ÙĬØ¯
ĠÙĦÙĬ ÙĩØ§
ĠØ§ÙĦØ´ ÙģØ§Ø¡
ĠØªØ³Øª Ø·ÙĬØ¹
ĠÙĬÙħ ÙĦÙĥ
ĠØ¬Ø§ÙĪØ¨ ÙĪÙĨÙĬ
ÙħÙĨ Ø©
ÙĪØ³ Ø©
ĠÙĬØ³ Ø£ÙĦ
Ø¹ Ø§ÙĬØ©
ĠØº Ø²Ø©
ĠØ§ÙĦØ¯ Ø®ÙĪÙĦ
ĠØ§ÙĦØ® Ø±ÙĪØ¬
Ġsa ha
u b
Øª Ø§Ø¹
ĠÙĨ Ø¨Ø¯
Ø§Ø± Ø¦
ĠØ§ÙĦØ³ ÙĦÙĪØ§ÙĨ
Ø°Ø± ÙĬØ©
ĠØ¬ Ø¨ÙĦ
ĠØµ Ø§ÙĦØŃØ©
ĠØ§ÙĦØ´ ÙĩØ¯Ø§Ø¡
ðŁ¤ Ĺ
ÙģØ¹ Ø§ÙĦ
ĠØ§ÙĦÙģ ÙĥØ±
Ø§Ø· Ø¹
ØµØ± ÙĬØ©
Ø³ Ø¹
ĠØ¨ ÙħØ±
ĠÙĤØ§ÙĦ Ùĩ
ĠÙĪØ§ÙĦØ¯ ÙĬÙĨØ§
ĠÙĨØŃÙĥÙĬ ÙĦÙĥ
ĠØ«Ø§ÙĦØ« Ø§
ĠØª ÙħÙĨ
Ø³Ø§Ùħ ØŃ
ĠÙĨÙĪØ±Ùħ Ø§ÙĦÙħÙĪ
ĠÙģ Ø·ÙĪØ±
Ø§Ø³ Ø§Øª
ĠØ§ØŃ ØªØ±
ĠØ§ÙĦÙħÙĪ Ø³ÙĬÙĤÙī
Ø·Ø¨ÙĬ ÙĤ
ĠØ± ÙĤ
ĠØ¬ Ø§ÙĨØ¨
Ø¹Ø¯ ÙĨÙĬ
ĠÙĬÙģ ÙĪØª
ĠØª Ø¸ÙĩØ±
Ø¨ÙĬ Ø§Øª
Ø±ÙĬ Ø¯ÙĥØ³
Ġg o
t ha
ĠÙģ Ø¯
ĠØ§ÙĦÙģØª ÙĨØ©
ĠØ¨ Ø«
ĠØ¨ ÙĬØ§
ĠØ§ÙĦØª Ø¯
ĠØ§ÙĦØ§Ø® Ø±
Ùĩ ÙĨØ§
ĠØ· Ø§Ø¹Ø©
Ġc an
Ġp e
Ø¨ÙĤ Ø§Ø´
ĠØªÙģØ±Ø¬ Øª
ĠÙĪÙĦ Ø¯ÙĬ
ÙĪØ± Ùĩ
ĠØ§ÙĦØ¹ Ø¯
ĠØ¹Ùħ Ø§Ø±
ĠÙħØ§Ø¹ ÙĨØ¯
ĠÙĬ ÙħØ±
ĠÙħÙĨ ÙĤØ¯Ø±Ø´
ĠØ§ÙĨ ØµØ±
ĠÙħÙĨØª Ø¯ÙĬØ§Øª
Ø§Ø¦ Ø±Ø©
ĠÙħØ¹ÙĦÙĪÙħ Ø©
---------------- ----------------
S epia
Øª Ø³Øª
Øµ Ùī
ðŁĺ ¥
ĠØ§ÙĦÙħ ÙħÙĬØ²
Ø§Ùģ ÙĬÙĩ
ĠØ§ÙĦØ¯ Ø¹Ùħ
ĠÙĤØ± Ø£Øª
ĠØ³ÙħØ¹ ØªÙĩØ§
ou k
ĠØªÙĦÙħ Ø³Ø§ÙĨ
Ùģ ÙĩØ§
ĠÙĨ ÙĪÙģ
ĠØ§ÙĦØŃ Ø§ÙĥÙħ
ĠØ§ÙĦØŃ ØµÙĪÙĦ
ĠÙĪÙĨ Ø¹
ĠØ¨ Ø®ØµÙĪØµ
ĠÙħØ´ Ùĥ
ĠØ§ÙĦØ· ÙĦ
ĠÙĪÙħØ± ØŃØ¨Ø§
ĠØ¨Ø³Ø± Ø¹Ø©
E D
Øº ÙĪ
ĠØ§ÙĦØ¬ Ø±
Øª Ø²
ĠÙħØ¹ ÙĥÙħ
ĠØ§ÙĦÙĨ Ø²
ØªÙĩ Ø§Ø¯
Ø¨ ØªÙĩ
ĠØ¨ Ø·Ø§ÙĤØ©
ĠØ¨Ø¯ Ø£Øª
ĠØ¹Ø§Ø¦ ÙĦØ©
Ù ¾
ĠØªØŃ ÙĥÙħ
' s
ĠÙĪØ§ÙĦ Ø°ÙĬÙĨ
Ø§Ø² Ø§ÙĦ
ĠØ§ÙĦÙĪ Ø§Ø±
ÙĨ ÙĨ
Ø´Ø± ÙĬÙĨ
ĠÙħÙĬ Ø³
ĠØ£Ø¨ ÙĨØ§Ø¡
3 4
ÙĪ Ø§Ùĥ
ĠÙĬ ÙĪØµ
Ø´ Ø§Ùħ
Ø£ ØªÙĬ
ĠØŃØ¨ Ø³Øª
ÙĪ Ø§ØŃÙĬ
ĠÙĬ Ø«
ĠÙĬØ§ Ø§
ĠÙĦØ¹ Ø¨Ø©
ĠÙħ Ø°
ra k
Ù ¥
Ø³ ÙĦÙĬÙĨ
Ġa u
ĠÙħÙĬÙħ Ø²
Ø®Ø± Ø§Ø¬
ĠØ¨Ø¯ Ø§Øª
v p
ĠÙĦ ÙĪÙĨ
ĠØº Ø±ÙĬØ¨Ø©
ĠØ§ÙĦØ¥ Ø¹
ðŁĴ ¯
ØŃ ÙĥÙĬ
ĠÙĦ Ø§Ø³Øª
ĠØ§ÙĦØ® ÙĦÙĬ
ĠÙĨØª Ø§Ø¦Ø¬
ĠÙĪÙĦ Ø°ÙĦÙĥ
99999999 99999999
ĠÙĤ ÙĪÙĬØ©
ĠØ§ÙĦØ¨ Ø§ÙĤÙĬ
ĠÙĬÙĤÙĪÙĦ Ùĥ
ĠØ§Ø´ Øª
ÙĪØ± Ø§ÙĦ
it h
ĠØ§ÙĦÙĨØµ ÙĬØŃØ©
ĠÙħÙĨ Ø²
ĠØ§ÙĦØª ÙĦÙģ
ØŃÙĬ Ø·
ÙĤÙĪ ÙĦÙĩØ§
ĠØ¨Ø±Ùĥ Ø©
ĠØŃØ³Ø¨ ÙĨØ§
ĠÙĪ ÙĤÙĬ
Ùģ Ø§ÙĤ
ĠÙĪÙĩ ÙĨØ§
ĠØ§ÙĦØ° Ùĩ
ĠØ§ØŃ ÙĨØ§
ĠØ§ÙĦÙħØ´ Ø§Ø±ÙĥØ©
ĠÙĬÙĨØ¬ØŃ ÙĨÙĬ
ÙģÙĬ Ùĥ
ĠØ§ÙĦÙģ Ø¶
ĠØ§ÙĦÙĥØ± Ø³ÙĬ
ĠÙĪØ§ÙĦ Ø¹ÙħÙĦ
ÙĪØ± ÙĩÙħ
ĠðŁĻĤ ðŁĴĶ
j e
ĠÙħ Ø§Ø¬
Ø§Ø® ÙĪØ©
Ġn o
Ġqu i
ĠØ§ÙĦØ¬Ø§Ùħ Ø¹
Ø¨ ÙĪÙĥ
ĠÙħ ÙĬØ¯
ĠØ§Ø³ ÙĦØ§Ùħ
ĠØªØ¹ Ø¨Øª
Ø§Ø¤ Ùĩ
ĠØ¯Ø§ÙĬ ÙħÙĨ
ĠØ¨ Ø¨Ø¹Ø¶
Ø¹Ø¯ Ø¯
ĠÙĬØ¯ Ùĩ
ĠØ§ÙĦÙħØ± Ø¡
ĠØ£ØŃ Ø§Ø¯ÙĬØ«
ĠÙĤØ· Ø¹
ĠÙģ Ø§Ø´
ĠÙĦØ£ ØŃØ¯
ĠÙħØ±ØŃ ÙĦØ©
ĠØ¨ ÙĤÙĬØ©
ĠØ¹ Ø±Ø¨
ÙĬØ± Ø§Øª
Ø¨ÙĬ ØŃ
ÙĪÙħ Ø§Øª
ĠðŁ Ķ
ĠÙĥÙĦ ÙĨØ§
ĠØ« ÙĤØ©
ĠÙĬØª Ø±Ùĥ
ĠÙħØ® ØªÙĦÙģØ©
Ø¯ÙĤ Ø§Ø¡
ĠØª Ø±Ø¨ØŃ
ĠØ§ÙĦÙĨ Ø¸Ø§Ùħ
ĠØ§Ùĥ ÙĪÙĨ
ĠØ§ÙĦØ§Ø³ Ø§ØªØ°Ø©
ĠÙĪÙħ ÙĪ
ĠÙĨÙĦÙĤ Ùī
ĠØ§ÙĦØ§ÙĤ ÙĦ
ĠÙģØ§Ø· ÙħØ©
ÙĦÙĬ Øª
Ø§Ø¯ ÙĦ
ĠØ² Ø§ÙĦ
Ø¨ ÙĪØ±
ÙĨØ§ ÙĪÙĦ
ĠÙĬØŃ ÙĦ
ĠØ§ÙĦØµ ÙģØ§Øª
ĠØ¹Ø¨Ø¯ Ø§ÙĦÙĦÙĩ
ĠÙħÙĩÙħ Ø©
ĠØ§ÙĦØŃÙĥÙħ Ø©
ĠØ¹ Ø³
Ø§ÙĬ Ø¯
as s
Ú ¯
ĠÙħ ØªÙĥ
Ø¨ÙĤ Ø±Ø©
Ġki f
Ø£ ÙĨØª
ĠØ§ÙĦÙħ ÙĤØ¯
ĠØ³ ÙĬÙĨ
ÙħÙĬ Ùĩ
ĠÙĨØ´ Ø§Ø·
ĠØ§ÙĦØ§Ø® ÙĬØ±Ø©
Ġ195 6
ĠØ´Ø¦ Øª
g ra
Ø§ÙĦ Ø·
Ùģ Ùģ
om a
ĠØªØµ Ø±Ùģ
202 4
ĠØªÙĦÙĤ Ùī
ĠðŁĻı ðŁĻı
ĠðŁĶ¥ ðŁĶ¥
ĠØµØ¹ ÙĬØ¨Ø©
im p
ĠØ¨ Ø±Ø¨ÙĬ
ĠØ£ Ø®Ø±
ĠØªØ´ ÙĪÙģÙĬ
Ø§ÙĦØª Ø§ÙĦÙĬ
ĠØŃÙĦÙĪ Ø©
ĠØ¹ Ø¯ÙĪ
Ø±ÙĬ Ø¶Ø§
Ġm in
ĠØªØª ÙģØ±Ø¬
ĠØ£ÙĨ ØªÙħ
ĠØ§ÙĦØ£ Ø³ÙħØ§Ø¡
Ġ: "
ĠÙħÙĤØ§ÙĦ Ø§Øª
ĠÙĨÙĦ Ø¹Ø¨
Ġlik e
ĠÙĦ Ø®Ø±
ĠÙģÙĬ ÙĥÙĪÙĨ
ĠØ¥ Ø°ÙĨ
ĠØ¨Ø§ÙĦÙħ Ø§Ø¡
ĠÙĬÙħ Ø¯
ĠØ¹ Ø§Ø¯Ø©
ĠØ£ Ø°
ĠØ§ÙĦØ¬ ÙĩÙĦ
Ġd a
ĠØ§ÙĤ ÙĦ
ĠÙĬ Ø³Ø¨
Ø§Øª ÙħØ©
ĠØ§ÙĦÙħ Ø«ÙĦ
ĠØ§ÙĦØŃØ± ÙĬØ©
Ġme ille
Ø§Ùĩ Ø¨
Ø¯ÙĬØ± ÙĪ
ĠØªØ¨ Ø¯Ø§
ĠØ§ÙĦØ¸ ÙĨ
ĠÙħÙĦØ§ ÙĬÙĨ
ĠÙĨ Ø±ÙĬØ¯
Ø§Ø¯ ÙħØ©
ĠØ§ÙĦØ´ Ø±ÙĬÙģ
ĠØ² Ø¹Ùħ
ÙĥÙĦ Ùģ
ĠÙħØ³ ÙĥÙĬÙĨØ©
ĠÙĪØµ ÙĦÙī
ĠÙĤÙĪÙĦÙĬ ÙĦÙĬ
ĠØ§Ø±Ø²ÙĤ ÙĨÙĬ
ĠÙħ Ø®Ø±Ø¬
ĠÙĨ ÙħÙĪ
ĠØ³ ÙĦÙĬÙħ
ĠØ§Ø³Ùħ Ùĥ
Ġbeau coup
Ùĥ Ø©
ĠÙħ ÙĥØ±
Ø¯ÙĪ ÙĤ
ĠØ§ÙĦÙĤ Ø¯ÙĬÙħ
ĠØ£ØŃØ¯ ÙĥÙħ
ĠÙĤ ÙĪÙĬ
ĠØŃ Øª
Ġto p
ĠØ¬ Ø³
ĠÙĪÙħÙĨ Ùĩ
ĠØªØ¨ ÙĬÙĨ
ĠØ±Ø£ Ø³Ùĩ
ðŁĮ ¸
ĠðŁ¥º ðŁ¥º
ĠÙħØŃÙħ Ø¯Ø§
ĠÙĤÙĦ ØªÙĬ
ĠØ·ÙĦ Ø¹Øª
ĠÙĤØ§ÙĦ ÙĩØ§
ÙĦØª ÙĨØ§
ĠÙĪØ± ØŃÙħ
ðŁ¥ Ģ
ĠØ¨ Ø§Ø®
ĠÙĨ Ø¯ÙĪ
ĠØ§ÙĦØ£Ø® ÙĬØ±Ø©
Ø±ÙĬ ÙĬÙĨ
Øª Ø§ØŃ
Ø´ ÙĩØ§Ø¯
ĠÙģØ£ ÙĨØ§
Ø¬Ùħ Ø§Ø¹
ĠØŃÙħ ÙĬØ¯
ĠØ¨Ø±ØŃÙħ ØªÙĩ
Ġ^ ^
ĠØ¥ ÙħØ§Ùħ
ØªÙĪØŃØ´ ÙĨØ§Ùĥ
Ã Ĺ
ĠØª ÙĤÙĬ
ĠØ§ÙĦØ£ ÙĤÙĦ
ĠØªØ¨ ÙĪÙĨ
m es
ÙħØ± ÙĬÙĨ
ĠØ§ÙĦÙĪ Ø¶Ø¹
ĠØºØ§ÙĦ Ø·Ø©
ĠØ¨ ØªÙĪ
ĠØ¨Ø§ÙĦ Ø®
ĠØ¨Ø¹ Ø¶Ø§
ĠÙĬØ¯ Ø¹ÙĬ
Øª Ø§Ùħ
ĠØ§ÙĦØ± Ø§Ø¨Ø¹
ĠØ§ÙĦÙĥ Ø§ØªØ¨
ĠØ§Ùħ ÙĦ
ĠØ§Ø´ ÙĩØ±
ĠØ£Ø¨ÙĬ Ùĩ
ĠØ§ÙĦØ§Ùħ ÙĪØ±
ÙĦØ§Ø¨ Ø§ÙĦÙĬØ´
ĠÙģ Ø£ÙĨ
ĠÙĬ Ø·ÙĬ
ĠÙĬ Ø¨Ø¹Ø«
ĠÙĪØ§ÙĦ ØªØŃ
ĠØ¨ÙĬÙĨ ÙħØ§
ÙĤÙĦ Ø§ÙĦ
ĠÙģÙĦ ÙĨ
âĢį â
ĠØ¬ Ø²Ø§Ø¡
ĠØ§ÙĦØ± Ø§ÙĤÙĬ
Ġf l
ĠØ§ÙĦÙĦ Ø¬ÙĨØ©
R abi
Ùħ ÙĪØ±
ĠØ§ÙĦ Ø²ÙĬ
ĠØŃ ÙĤÙĪÙĤ
Ø§Ø¯ Ø¦
ĠØªØ¹ ÙĨÙĬ
ĠÙĪØµ ÙģØ©
ï´ ¾
m in
ĠØ³ ÙģÙĬØ§ÙĨ
Ġ2 9
ĠØ§ÙĦÙģ ÙĩÙħ
ĠÙĪÙħÙĨ ÙĩÙħ
ĠÙħÙĪØ¬ ÙĪØ¯Ø©
ĠØ§ÙĦÙĪØ§ÙĦ Ø¯
v i
ĠØ§ÙĦÙĨ ÙĩØ§ÙĬØ©
ĠØ² ÙĩØ±
Â» ØĮ
ĠÙĬØ´ÙģÙĬ ÙĩØ§
ĠØ¨Ø³ÙĬ Ø·Ø©
ĠØŃ Ø²
ĠØ§ÙĦØŃ Ø³
ĠØ¯ÙĬ Ø¬Ø§
ĠØ§ÙĦØ§Ø³ÙĦØ§Ùħ ÙĬØ©
ĠØ§ÙĦÙģØª Ø§ÙĪÙī
t ou
ĠØ¨ Ø¢
ĠØµ ÙĨØ¹
ÙħÙĬ ÙĬØ²
Ø« Ùī
Ø´ Ø±ÙĬ
Ø§ØŃ ÙĦ
ðŁĴ ļ
ĠØ§ÙĦ Ø§Ø³ØªØ§Ø°Ø©
ĠØŃ Ø¸
ĠØ§ÙĦÙĤ ØªÙĦ
ĠØ§Ø³ ÙħØ¹
ĠØ§ÙĦØ± ÙħØ²
ĠØ§ÙĦÙħØ´ Ø§ÙĥÙĦ
ĠØ§ÙĦØ´Ùĩ Ø§Ø¯Ø©
t Ã©
ĠÙĬ ØªØ±
ĠÙĪØ§ÙĦ Ø§
ĠØ¨Ø§ÙĦ ÙħÙĨ
ĠÙĪØ¨ Ø¹Ø¶
ĠØ§Øµ ØŃØ§Ø¨
Ùĩ Ø§ÙĨ
ĠØ£ÙĨ ÙĨØ§
Ø±Ø¨ Ùĩ
Ø±ÙĪ ÙĤ
ĠÙĪÙĦ Ø§ÙĦØ§
ĠØ¨ÙĬ Ø§Ùħ
ĠÙģØ· ÙĪØ±Ùĥ
ĠÙĦØ¯Ø± Ø¬Ø©
ĠØŃÙĪ Ø§ÙĦÙĬ
ĠÙħØ³Ø¨ ÙĤØ§
ĠØ§ÙĦÙħ ÙĦÙĬÙĪÙĨ
âĿ¤ ðŁĺĬ
ĠØ§Ø® ØªØ±
ðŁĩ ¦
Ø¶ Øª
ĠÙĪÙħ Ø³
ĠÙĪØ¥ ÙĦØ§
ĠØ²Ùĩ Ø±Ø©
ðŁ Ĳ
ĠØ¹ÙĬØ¯ ÙĥÙħ
ai me
ĠØ¹ ÙĦØ¨
ĠÙĤ Ø¶Ø§Ø¡
Ø¹ÙĪ Ø¨
Ġt w
ØµÙĦ ØŃØ©
Ġfi ha
ĠØ§ÙĦÙģØª Ø±Ø©
Ùħ ØŃÙħØ¯
ØªÙĬ ÙĤ
ĠØ§ÙĦØ¹ Ø¯Ø¯
Ġy ah
ĠÙħØ³ÙĦÙħ ÙĬÙĨ
ĠØ¬ Ø§Ùĩ
ÙĬØ§ Ø§
ĠØ§ÙĦØ£ Ø·ÙģØ§ÙĦ
ĠðŁ İ
ĠðŁĻ Ħ
j b
ĠØ§ÙĦØ£ Ø¨ÙĬØ¶
ĠØ§ÙĦØµ ÙĬØ§Ùħ
ĠØ¬ÙħØ¹ ÙĬØ©
ĠØªØ³ ÙĦÙĬÙħØ§
ĠØ¨ÙģØ¶ ÙĦÙĥ
ÙĩØ§ ÙĬ
ĠØ§ÙĦØ£ Ø³Ø¨Ø§Ø¨
Ø·Ø± ÙĤ
ĠØ§ÙĦÙĩ ÙĨØ¯
ĠØ¨Ø§ÙĦØ± ØŃÙħØ©
S T
ĠØ§ÙĦØ· Ø±ÙĤ
ĠØ¹ÙĤ ÙĦÙĬ
4 6
Ùĩ Ø§ÙĦÙĥ
ĠØª ÙħØª
ĠÙĬØŃ ØµÙĦ
ĠÙħØµ Ø·ÙģÙī
3 2
Ġ2 1
ĠØ§ÙĦØµ Ø¯ÙĬÙĤ
ÙĦØª Ø´
ĠÙĪÙĦÙĥÙĨ Ùĩ
ĠÙĬØŃÙģØ¶ ÙĥÙħ
Ùģ ÙĪÙĤ
ĠØŃ Ø¬Ø©
ĠØ§ÙĦØ®Ø· Ø£
ĠØ§ÙĦÙĨÙĪ ÙĪÙĬ
ĠØ§Ø¨Ø± Ø§ÙĩÙĬÙħ
g a
ĠÙĨ ØµØŃ
ĠÙħÙĨ Ø¹
Ø±ÙĬ Ø¬
ĠØ§ÙĦØ¨ ÙĨØª
ðŁ¤ ©
ĠØ§ÙĦ Ø§ÙĦØª
ÙĪÙĨ ØªÙĬ
ĠØªØ¹ Ø±ÙĬÙģ
Ġd z
Ø²ÙĬ Ø§Ùħ
ĠØ§ÙĦÙħØ³ Ø£ÙĦØ©
ðŁĻ ĥ
Ø±Ø¨ ÙĩØ§
ĠØ§ÙĦØ² ÙĩØ¯
ĠÙĥØ¨ ÙĬØ±Ø§
ĠÙĦØ§Ø¨ Ø¯
ĠØ§ÙĦØµØº ÙĬØ±Ø©
ĠØ¥ ØŃ
ĠØ¯ Ø¬
ĠØ§ÙĦØ¯ ÙĦÙĬÙĦ
ĠÙĬØ³ ÙĥÙĨ
ĠÙĬØŃÙĬ Ùī
Ø³ Ø·Ø©
ĠØ§ÙĦÙħ Ø¶
ĠØ§Ø® ÙĪØªÙĬ
ĠÙħØ± ÙĪØ±
ÙĪÙĦ Ø§Øª
ĠØ±ØŃ ÙĬÙħ
ĠÙħ ÙĦØ§Ùĥ
ĠØ£ ÙĬØ§
ÙĪÙĨ ÙĩÙħ
ĠØ¥ ÙĨØª
ĠÙĪØ± Ø§Ùĥ
ĠØ§Ùģ ÙĥØ§Ø±
ĠÙĦØ§ØŃ Ø¸
Ø¨ Ø§ÙĨ
ĠØ§ÙĦØ¨ ÙĨØ§Øª
Ġ6 0
ĠÙĬÙĦ ØŃÙĤ
ĠØ¬ÙĬ Ø¬ÙĦ
ĠÙģÙĪ ÙĪØ±
Ùģ ÙĨØ§
ĠØ¬ ÙħÙĬ
ĠØ§ÙĦØ¨ ÙĨ
ĠÙĦÙĦ Ø¯
Ø¦ Øª
ĠØ§Ø¹ Ø±Ø§Ø¨
ĠØ§ÙĨØ´ Ø§ÙĦÙĦÙĩ
ĠØ³Ø§Ø¨ ÙĤØ§
ÙĪÙĨ ØªØ§Ø¬
Ø§Ø¶ ÙĦ
ĠØ¨Ø£ ÙĬ
ÙħØ´ ÙĥÙĪØ±
Ø· ÙĪØ±ÙĬ
Ø§Øª ÙĨÙĬ
ĠØ® Ø§Ùģ
ĠðŁ¤ ¦
ĠÙħÙĪ ØªÙī
ĠØ¨ ÙĪÙĥ
Ø¬ ØªÙħØ§Ø¹
ĠØŃ ØµØ©
ĠØ§Ø¨ Ø¯
ĠÙĦØ£ÙĨ ÙĩÙħ
Ø¤ÙħÙĨ ÙĬÙĨ
ĠØ£Ø± Ø¯Øª
ĠØ§ÙĦØªØ¹ÙĦÙĬ ÙħÙĬ
Ġkho ya
d u
ĠØ£ ØªÙī
ĠØ§ÙĦÙĨ Ø¨
ĠØ§ÙĦÙĨ Ø´
Ø±ÙĪ Ø§Ùĩ
ĠÙģØ§ÙĦ Ø¬
ĠÙĥÙħ ÙĦÙĨØ§
ĠÙĬØ· ÙĦÙĤ
Ø¬ ØªÙħØ¹
ĠØ´ Ø¯ÙĬØ¯
Ø²ÙĬ ÙħØ©
ĠØ¹Ùħ ÙĦÙĩ
ĠØ¨Ø¯ Ø£
ĠÙĪÙĤØª Ùĥ
ÙĦØ§ ÙĤØ§
ĠÙħØ§Ùģ ÙĬÙĩ
ĠÙħØ§ÙģÙĩÙħ ØªØ´
ĠØ³ ÙĬØ±ÙĬ
ĠØ¨Ø§ÙĦ ÙģØ±
ĠØ§ÙĦØ¨ ÙĪ
ĠØ§ÙĦÙģ Ø¶ÙĦ
ĠØ£ÙĪ ÙĤØ§Øª
ÙĪØ² ÙĬÙĨØ©
Ù ¦
Ùħ Ø´ÙĬ
Ø³ ÙĦÙĩ
ĠÙĪØª ÙĤ
ÙĪÙĬ Øª
ĠðŁ¥° ðŁ¥°
ðŁĺ ī
ĠØ§ÙĦÙĤ ÙĪØ©
ĠØ° ÙĪÙĬÙĩ
Ø¹Ø¨ Ø§Ø³
ĠØ¥ÙĨ ÙĩØ§
ĠÙĥ Ø§ÙģØ±
ĠØ° ÙĨØ¨
Ġp s
m an
ĠÙĥ Ø§Øª
ĠÙĦÙĬ ÙģØ§Øª
ðŁİī âĿ¤
ĠØªÙģ ØªØŃ
: :
Ùħ ÙģÙĩÙħØªØ´
ĠØŃ ØµÙĦ
ĠÙĪØ± Ø²ÙĤ
ĠÙĬØ§Ø® ÙĬ
ÙĪ Ø§Ø®ÙĬØ±Ø§
ĠÙħ Ø§ØŃ
ĠØ§ÙĦØ¹ Ø«
ĠØ§ÙĦØ£ ÙĪØ±
ĠÙĪØ£ ÙħØ±
ĠÙĤÙĪÙĦ ÙĪÙĦÙĬ
ĠØ§ÙĦÙħØªÙĪ Ø³Ø·
ĠÙĤ Ø§ØªÙĦÙĬ
ĠØ§ÙĦÙħ ÙģØ±
v a
ĠØ¹ ÙĥØ³
ĠØ§ÙĦÙħ Ø§Ø³
ĠÙħØ¹ Ø§ÙĨÙĬ
ĠÙħØ¹ Ø¸Ùħ
ĠØ§ÙĦØ± Ø§Ø¦Ø¹Ø©
Ø¹ÙĦÙĬ Ùħ
ĠÙĥÙĪÙĨ Øª
Ġbon ne
a f
Øª Ø¨ÙĬ
ĠÙħ Ø±Ùģ
Ø´ Ùħ
ĠØ³ ÙĦÙĥ
ĠÙģØ± ÙĪÙĨØ³ÙĬ
ĠÙĨÙĤ Ø§Ø·
ÙĤÙĨ Ø§Ø©
ĠÙĪ ØŃÙĬ
ĠÙĤ ÙħØª
ĠØ§ Ø§
ĠÙĬØ¨ Ø¹Ø¯
ĠÙģÙĩ Ø°Ùĩ
ĠÙĥ ÙħØ§ÙĦ
Ø±Ùĥ ÙĦÙĬØ·Ø©
ØªØ± ÙĪÙĨÙĬ
ĠØ§ÙĦ Ø³Øª
ĠÙĪ Ø²ÙĪØ¬
ĠÙĬ Ø§ÙĪ
ĠØ¬ Ø§ÙĨÙĬ
ĠØ§ÙĦØ³ Ø§Ø¯
ĠØªØ¹ Ø¯
ĠÙĬØ¹ ØªÙĤØ¯
ĠØ§ÙĦÙĪ Ø§Ø¬Ø¨
ĠØ§ÙĦØ§Ø³Øª Ø¶Ø§ÙģØ©
ĠØªØ³Øª ØŃÙĤ
ĠØ§ÙĦØŃØ¯ÙĬØ« Ø©
ĠØ¯ÙĪ ÙħØ§
c p
Ùħ Ø§Ø¬
ĠØ§ÙĦ Ø§Ùĩ
ĠØ§ÙĦÙħ Ø²
ĠØ§ÙĦØ¹ ÙĥØ³
Ø¯Ø± Ø§Ùĥ
ĠØ§Ø¨ ÙĨÙĬ
ĠðŁĴ Ļ
Ø§ÙĦ ØªÙĬ
ĠØ¨Ø§ÙĦ Ø¨
ĠØº Ø§Ø¶
ÙĪÙģ ÙĬØ©
âĢįâ ĻĤ
ĠÙģ Ø®Ø±
Øµ Ø§Ø¨
ĠÙĦÙĦ Ø®
ĠØ§ÙĦÙĥ Ø§ÙģØ±
ĠØ¨ÙĦÙħ Ø«ÙĦ
ĠÙħ ÙĪÙģÙĤ
Ø£ ÙħÙĬÙĨ
ĠØ´ Ø£ÙĨ
ĠØªØ¹ Ø¬Ø¨ÙĨÙĬ
ĠØ§ÙĤ Ø³Ùħ
ÙĬ ØªÙĥ
ĠÙĬ ÙĤÙĪÙĦÙĬ
ĠØ§ÙĦØ° ÙĩØ¨
ĠØ¨Ø¹ ÙĬØ¯Ø§
ĠÙĬÙĤ ØµØ¯
Ġal lah
ĠØ± ÙģØ¶
ha l
ĠÙħÙĪ Ø¶Ø¹
ĠØ§ÙĦØ§Ø³Øª Ø¹ÙħØ§Ø±
ĠØ§ÙĦØµ ÙĨ
ðŁĮ ·
ĠÙħØ¬Ø¯ Ø¯Ø§
ÙĦÙĤ Ø¨
ĠÙĪÙĦÙĬ Ø¯ÙĬ
ĠÙĬÙĥ ÙģØ±
ĠØ³ÙĦ Ø·Ø§ÙĨ
on e
ĠØªÙĦ ØŃÙĤ
ĠÙĪØ§Øº ÙģØ±
4 9
ÙģØ³ Ø±
is h
ĠÙĪØ§Ø± Ø²ÙĤ
Ùĩ Ø±Ø©
ĠØ¨Ø¹ Ø¯ÙĬ
ĠÙħÙĥ ØªÙĪØ¨
Ùĩ Ùī
ĠÙĪØ§ÙĦ ÙĬÙĪÙħ
Ø§Ø¯Ø± Ø§
ĠÙĩÙĥ Ø§Ùĥ
ĠÙ ¢
Ø±ØŃ Ø¨
ĠØªØ´ Ø¨ÙĬÙĩ
ĠØ§Ùĥ ØªØ´
ĠØ§ÙĦÙĨØµ ÙĪØµ
ĠÙĬ Ø¨Ø¯
ĠØª ÙĦØ§ÙħÙĬØ°
ĠØ§ÙĦØª Ø§ÙĦÙĬØ©
ÙĦØª ÙĩÙħ
ÙĦÙĤ Ø§Øª
ĠØ¨ØŃÙĬ Ø«
Ġave c
ĠØª ØµÙĦ
ĠÙĪØ§ÙĦ ÙĦ
ÙĨÙĬ Ùĩ
ĠØ§ ÙĪÙħ
ĠØ§ÙĦÙħØ¬ Ø§Ø²
d ou
o li
ÙĬ Ø§Ø¨
ĠÙħ Ø°ÙĩØ¨
ĠÙĬÙĨ ÙĤØµ
ĠØ£Ø³ Ø§Ø³
T he
Â §
ĠØ§ÙĦØ¨ Ø§Ø·ÙĦ
Ġk ada
ĠØ´ÙĬ Ø·Ø§ÙĨ
ĠØ§ÙĦØ§Ø¹ Ø±Ø§Ø¨
b y
ÙĨ ØŃÙĨ
ĠØ£ Ø¹ÙĪØ°
ÙĦÙĬ Ø¨
ĠÙĥ ÙĪÙĥ
Ġn ot
ĠØ¹ÙħØ± Ùĩ
ĠÙħØ§Ø± Ø³
ĠØªÙħØ± ÙĬÙĨ
ĠØ§ÙĦØµ Ø¯
ĠÙģØ¥ÙĨ ÙĩØ§
ur s
ĠØ§ÙĦØªØ¬ Ø§Ø±Ø©
ĠØ§ÙĦØ¨ÙĤ Ø§Ø¡
ÙĤ Ø§Ø¡
ĠÙĦ ÙĬÙĨ
ĠÙĦ Ø§Ø³
Ø£ ÙĩÙĦØ§
ðŁĺ ĳ
ðŁĺ Ĵ
ÙĪØ§ ÙĩØ§
ĠØ§ÙĦØª ÙĦ
ĠØ§ÙĦØ« ÙĪØ¨
ĠØ§ÙĦØ¨Ø§Ø± ØŃ
ĠØ§ÙĦÙĦØº ÙĪÙĬ
ĠØ§Ø±Ø¬ ÙĪÙĥ
t ni
ĠØ§ÙĦ ÙĥÙĨ
ĠØ³ Ø¹Ø±
ÙĨØª Ùĥ
ĠØ§ÙĦÙħØ´ Ø±ÙĪØ¹
ĠÙĬÙĪÙģÙĤ ÙĨÙĬ
ĠØª Ø¯ÙĦ
Ø´Ø± Ø¹
Ø®ÙĬØ± Ø§
Ùģ Ø¹Ø©
ðŁ Ķ
ĠØ¬ Ø¨Ø±ÙĬ
ĠØ§ÙĦØ£ Ø¹Ø±
Ø¹Ø¯ Ùħ
en s
ĠØ§ÙĦÙĤØ± ÙĨ
ÙĨØ¯ ÙĤ
ØªÙĦ Ø§ÙĦ
ĠØ§ÙĦØµØ§ÙĦØŃ Ø§Øª
ĠØ§ÙĦÙĥØ¨ ÙĬØ±Ø©
Ġpl us
ĠÙĨ Ø¹ÙĬØ´
ĠÙĬÙĪ ØµÙĦ
ĠØ¯ Ø¹Ø§
ĠÙħØ¹ Ø§ÙĪÙĬØ©
ĠÙħØ± Ùĩ
ĠØ§ÙĦÙĦØº Ø§Øª
Ø§Ùħ Ø¹
Ø§Ø¯ Ø¨
ĠØ¨Ø¹Ø¶ ÙĩØ§
ĠØªØ¨ ÙĨØ§Ø¬
ĠÙĬØ¨ Ø¯Ø§
ĠÙĪØ±Ø¨ ÙħØ§
ĠÙĪ ÙĤØ¯Ø±
Ø³ ÙħØ©
ĠÙĤ Ø§Øª
ĠØŃ ÙħÙĦ
ĠØ¬ ÙĬÙĦ
ÙħØ§ ÙĬØ©
ĠÙĬØ¬ Ø±ÙĬ
ĠØªØ´ Ø±ØŃ
ĠØ§Øº ÙĦØ¨
ÙĬ ÙĤ
Ø¬ ÙĪÙĨ
ĠØª ÙĤØ±Ø£
ĠØ¬ÙĨ Ø§Øª
ĠÙĨÙĤØ± Ùī
Øº Ø¨Ø©
ĠØ± Ùĩ
ĠØ´ Ø§Ø±Ùĥ
ĠÙĪÙĬ ÙģØ±ØŃ
ĠØ§ÙĦØ¹ÙĨ ÙĪØ§ÙĨ
ĠÙĬ Ø¨ÙĦØº
ĠÙĬÙĥÙĪÙĨ ÙĪ
ĠÙĩØ§Ø° ÙĬÙĥ
ĠØ£Øµ Ø§Ø¨
ĠÙħ ÙģÙĩÙĪÙħ
ĠØ¬ Ø¨ØªÙĬ
ĠØ§ÙĦØª Ø§ÙĦÙĬ
ĠØ±Ø§ØŃ Ø©
ĠÙħØ§Ùĥ Ø§ÙĨØ´
ĠØ§Ø± ÙħÙĬ
om e
ĠØµ Ø¨
Ø§Ø¦ Ø·
ĠØ§Ø³ ØªÙĪ
ĠØ³Ø¨ ØªÙħØ¨Ø±
ĠÙĪØ§Øª ÙĪØ¨
ĠØ§Ø±Ø²ÙĤ ÙĨØ§
ĠâĿ Į
ĠÙĬ Ø¨Ø¯ÙĪ
Ø· Ø£
ĠÙĪ Ø¯Ø¹
ĠØ§ÙĦØµ ÙĬÙģ
ÙģØ¹ ÙĦÙĩ
ĠØ¯Ø§Ø± ÙĩØ§
ĠØ§ÙĦØ¶ Ø¹ÙĬ
ðŁĻ Ħ
ĠØ§ÙĦÙħØ³ Ø§Ø¬Ø¯
R e
ĠÙĥ Ø§Ùģ
Øº Ø¶
ĠØ§ÙĦØª Ø¨
ĠØ° Ùĥ
Ġw h
ĠÙģ Ø§Ø¦Ø¯Ø©
Ø³ØŃ Ø§ÙĤ
ĠØ§ÙĦÙħØ¬ÙĩÙĪØ¯ Ø§Øª
Ø³ Ø§Øª
ĠÙĨ ØµØ±
ĠØ§ÙĦÙĤØ¨ ÙĪØ±
a li
ĠØ¨ Ø§Ùħ
ĠÙĬ Ø±ÙģØ¹
ĠÙĥ Ø±Ùħ
ĠØ§ÙĦØ¨ Ø±ÙĬØ¯
Ø¢ ÙĦ
ĠÙĬÙĨ Ø²ÙĦ
ĠØ¬Ø²ÙĬ ÙĦ
ĠØ¨ ØªØŃ
Ø§ÙĬ Ø¨
ÙĦÙĥ Ø©
ĠÙĬØŃ ÙĤÙĤ
ĠØ§ ÙĪØ±
ĠØ§ÙĦÙģØ± ØŃØ©
ĠÙĦØ¹ ÙĤÙĪØ¨Ø©
Ùĥ Ùģ
ĠØ¹ ÙĤÙĦ
ĠÙĪØ¹ ÙħØ±
Ø§Ø²ÙĬØº ÙĬØ©
ĠÙģ Ø¯Ø§Ø±
ĠÙĬ Ø¶Ø±
Ø¬ ÙĬÙĨ
ĠÙģØ£ ÙĨØª
č Ġč
ĠØª Ø§Ùĥ
Ø¸ Ø§Øª
ĠØ§ÙĦÙĨ ØªÙĬØ¬Ø©
ĠÙĪØ¥ ÙĦÙī
ĠØ§ÙĦÙĪØ± ÙĤØ©
ĠØ¨Ø³ÙĬ Ø·
ĠØ§ÙĦØ²ÙĪØ¬ Ø©
ĠØ§ÙĦÙĪÙĦØ§ ÙĬØ§Øª
ĠØ§ÙĦ Ø§Ø«
ĠØª ÙĥØ±
Ø±Ùģ Ø¶
ĠÙĪÙĨ Ø¨
ðŁ¤ ¦
ĠØ§ØŃ ÙĥÙĬ
ĠÙĦØ£ ÙĨÙĬ
il l
ĠØ¨Ø§ÙĦ Øµ
ĠØ¯ÙĬØ± Ø§ÙĥØª
ĠØªØ¬ Ø§Ø±Ø©
ĠØ§Ø¯ Ø¹ÙĬ
ĠØ§ÙĦØ´Ø± Ø¹ÙĬ
ĠÙħØªÙĪ Ø³Ø·
ĠÙħ Ø¸
ĠÙĬ Ø®ÙĦØµ
Ø² Ø§Ùģ
Ø±Ø¨ ÙħØ§
ji b
i g
ĠØ¨ Ø§ÙĨØª
ĠÙĦØ¨ ÙĨØ§Øª
ĠØ§ÙĦØ§Ø® ÙĪØ©
ĠØ³Ø± Ø¯
ĠÙĥÙģ Ø§Ø´
ĠØ§ÙĦÙħ ÙĪØ¬
ĠÙĪØ§ÙĦ ÙħÙĪ
ÙĬØ§ ÙĤ
ĠØ¨Ùħ Ø«ÙĦ
8 8
Ø° Ø§Øª
ĠØªÙħ ÙĪØª
t ch
Ø³ Ø³Ø©
ĠØ£Ø¹ Ø¶Ø§Ø¡
ĠØ¹Ø§ÙĬØ´ ÙĬÙĨ
ĠØ¹ Ø±
ĠØª ÙĤØªÙĦ
ĠØ¥ ØŃØ¯Ùī
ĠØ§ÙĦØ¬ Ùĩ
ÙĪÙĬ ÙĪÙĬ
ĠÙħØŃ Øª
ĠØ®Ùħ Ø³Ø©
e f
ĠÙħ Ø±Ùĥ
Ø§Ø¬ Ø¯Ùĥ
ĠÙĨØ¶ Øª
7 0
£ ï¸ı
ĠÙĩØ§Ø¯ Ø§Ùĥ
ĠÙĬÙĥ Ø«Ø±
âĢįâĻĤ ï¸ı
ĠØªØŃ ÙĦÙĬÙĦ
ĠÙĨØ¯ÙĬØ± ÙĩØ§
ĠØ§ÙĦØ¸ ÙĦÙħ
ÙĨ ÙĤ
Ø´ ÙĬØ±Ø©
ÙĥØ± Ø§Ùħ
ĠÙĦÙĦ Ø§Ø³Øª
ÙĤÙĪ Ø¨
Ø§ÙĦ Ø¨ÙĤØ±Ø©
ĠØŃ Ø§
ĠØ£ÙĪ ÙĦÙĬ
ĠÙĪÙĥ ÙħØ§
ĠØµÙĦ Ø§ØŃ
ØŃÙħ Ø±
ĠÙĦÙĨÙģØ³ Ùĩ
Ã©ri e
Ùĩ Ø´
Ø® ÙĦÙĩØ§
ĠØ¨Ø¯ Ø¹Ø©
9 0
ĠØª ÙģÙĬØ¯
Ø£ Ø®Ø°
ÙĥÙĬ ÙħØ§
ĠØ§ÙĦÙĪ Ø«
ĠÙĪÙĨ ØŃ
ĠÙĪÙĨ Ø¬ØŃ
ĠØ¨ÙĬ ØªÙĩ
ĠØ§ÙĦØµØŃ Ø±Ø§Ø¡
Ø¬Ùħ ÙĪØ¹
ĠØ³Øª ÙĥÙĪÙĨ
ĠØ£ Ø´ÙĬØ§Ø¡
ĠØ±Ø¨ ÙĩÙħ
ĠÙĪ Ø§ÙĤÙĬ
ĠÙħ ÙĤØ¯ÙħØ©
Ø¬ Ø§Ø¯
ĠØª ØªÙĥÙĦÙħ
ĠÙĨ Ø±Ø¬
ĠØ§ÙĦÙĪ Ø³
Ø´Ø± ÙĤ
ĠØ¹Ø§Ùħ ÙĬÙĨ
ĠØªÙģ Ø¹ÙĦ
ĠÙĬØµ Ø¨ØŃ
ĠØ¹Ø§Ø¯ ÙĬØ©
ĠØ§ÙĦØªØ¹ Ø±ÙĬÙģ
ĠØ¨Ø§ÙĦØ¹ Ø±Ø¨ÙĬØ©
ĠØ¯ ÙĬØ¯ÙĬÙĨ
Ø§Ø¬ Ùħ
Ø¹Ø¯ Ø§Ø¯
im ent
ĠØ§ÙĦ ÙĦØ³Ø§ÙĨ
ĠØ¨ Ø³Ø¨
ĠØ§Ø³ Ø¨ÙĪØ¹
ĠÙģØ± ÙĨØ³ÙĬØ©
ÙģÙĥ ÙĬØ±
ĠÙĥØ§ Ø§ÙħÙĦ
ĠÙĬ Ø§Ùħ
ĠÙĬ Ø¹ÙĪØ¶
ĠÙĩ ÙĨØ¯
ĠØ¬ Ø§ÙĬØ©
ĠØ¥ Ø³Ø±
ÙĪØª ÙĬÙĨ
ÙĪØª ÙĨØ§
ĠÙĬÙĩ Ø¨ÙĦ
ĠØ§ÙĦØ§ ÙĤØª
on i
ðŁĩ ¸
ĠÙĥØ§Ø± Ø«Ø©
et te
ĠÙģ ØªÙĪ
ØªÙħ ÙĬØ©
ĠØ¹Ø¨Ø¯ ÙĪ
ĠØ²Ø¹ ÙĬÙħ
ĠÙĨ ÙģØ±ØŃÙĪ
ĠØ³ Ø§Ø¦Ø±
Ø±ÙĬ ÙĦÙĨØ§
ĠØ§ÙĦØ³ÙĬ Ø§Ø³Ø©
ĠÙĪÙĬØ³ Ø¹Ø¯Ùĥ
c c
Ø§Ø¡ Ø§Øª
ĠØ§ÙĦÙĤ Ø·
ĠÙĪØª Ø±
ĠÙĪØ§ØŃ Ø¯Ø§
ĠÙĬ Ø²Ø§ÙĦ
ĠØª ÙĤØª
Ø¨Ø± Ø§ÙĨÙĬ
ĠÙĪØ¬ Ø§Ø¡
ch lh
la m
ĠØ§ÙĦØ¯ÙĬÙĨ ÙĬØ©
ĠØ§ÙĦØ¬ ÙĬ
ÙħÙĥØ§ÙĨ Ø´
ĠØ§ÙĦØ¬ ÙĦÙĬÙĦ
Ġâ Ļ
ĠØ´Ø± Ø¹
ĠØ§ÙĦØ¥ ÙĨØª
ĠØŃÙĤÙĬ ÙĤÙĬ
ĠÙĬÙĦÙĬ ÙĤ
ĠÙĨÙĪÙģ ÙħØ¨Ø±
ÙĨÙĬ ÙĬÙĨ
ØªÙĪ ÙĬ
ĠØ§ÙĦÙħØ¹Ø± ÙĪÙģ
ĠØ¬Ø¨Ø±ÙĬ ÙĦ
e ep
Ùħ Ø·
ĠØ£ Ø±Ø¬
ĠÙĪØª Øª
ĠÙĪÙħ ÙĦ
ĠØ§ÙĦÙģØª ÙĨ
ĠØ§ÙĦÙĪØŃ ÙĬØ¯Ø©
Ùĩ Ø¯Ø±
Ø³ ÙĪØ±Ø©
ĠÙĨ ÙĥÙħ
ĠØ¢ Ø¯Ø§Ø¨
ĠÙħØ³ Ø¬Ø¯
ĠÙħÙĨÙĩ Ø¬ÙĬØ©
ĠØ³ ØŃ
ĠØ§ØŃ ÙĬ
ĠÙĨØ¯ Ø¹ÙĬ
ĠÙĨØ§Ø¬ ØŃ
ĠØ£ØµØŃØ§Ø¨ Ùĩ
Ø± Ø§Ø¯Ø©
Ø¹ Ø·
ĠØ¯ Ø§Ùĥ
Ø¨ØŃ Ø±
ĠØ§ÙĦØªØ¹Ø¨ ÙĬØ±
ĠÙħØŃØªÙĪ Ø§Ùĥ
ĠÙĪ Ø¸
ÙĪØ§ÙĨ Ø§Øª
ĠØ§ÙĦØ¨ÙĬ Ø§ÙĨ
ĠÙĤ Ø·Ø±
ĠØ§ÙĦØ³ ÙĪØ±Ø©
A N
ĠÙħÙĨ Ø·
ĠØ§ÙĦÙĤ Ø§Ø¯Ùħ
Ø¹ÙĦ Ø§Ø¨
ĠØ§Ùĥ ÙĦ
ĠØ£Ùĥ ÙĬØ¯
ðŁĺ¢ âĿ¤
Ø§Ø±ÙĬ Ø¹
ĠØ´ÙĩØ± ÙĬÙĨ
ĠØ§ÙĦÙħØ¨Ø§Ø±Ùĥ Ø©
ĠÙĬ Ø¯ÙĪ
ĠØ£ ÙħÙĦ
ĠØ· Ø¨ÙĤ
Ø±Ø¬ Ø§ÙĦ
ĠÙħÙĤ Ø§Ùħ
ĠØ¬Ø¯ Ø§ØªÙĬ
Ø§ÙĦ ÙħØ§
Ùħ Ø§Ø°Ø§
ĠÙħÙĨ ÙĤÙĪÙĦ
ĠØ³ ÙĥØ§ÙĨ
ĠØ¯ÙĬÙĨ Ø§ØªÙĪØ±
ĠÙĪØ§Ø± ØŃÙħÙĩ
d j
ĠØ³ Ø§Ùĥ
ĠÙĪØ¹ ÙĦØ§
in i
Ġf ik
ĠØ¹ÙĬ ÙĬØª
f r
g le
Ġ ****
ĠØª Ø·ÙĦØ¹
ĠØ·Ø§ØŃ Øª
ĠÙģØ§ÙĦ Øª
li h
ĠÙĤØµ Ø¯
ĠØ§ÙĦ Ø§ÙģØ¶ÙĦ
ÙĨÙĬ Ùģ
ĠØ§ÙĦØ¬ Ø²
ĠØ§ÙĦÙĤ Ø¯
t t
ĠÙĦ ÙĬØ±
ĠÙĥ Ø£Ø³
ĠØ§ÙĦØ¬ Ø¯
ĠØ¹Ø¨ Ø§Ø³ÙĬØ©
ĠØµØ§ØŃ Ø¨Ùĩ
ĠÙħ ÙĪÙģ
ĠØ¨ ØŃÙĤ
Ø¬ ÙĬØ´
Ø² ÙĦØª
ĠØ¨Ø¹Ø¯ ÙħØ§
is s
ÙĤØµ Ùī
ĠØ§ÙĦÙħØªØ§Ø¨ Ø¹ÙĬÙĨ
Ġ Ú¤
ĠÙĥ Ø£
ĠØ§ÙĦØ£ ÙģØ¶ÙĦ
ĠÙĪØª ÙĥÙĪÙĨ
ĠØ¨ÙĬ Ø¶
ĠÙĪÙĤ Ø¨ÙĦ
ĠØ§ÙĦÙĦÙĬ ÙĦØ©
ĠØ±ÙĬ Ø§Ø¶ÙĬ
ĠØ§ÙĦØ¹ Ø°Ø§Ø¨
ĠØ§ÙĦØŃ ÙĦÙħ
ðŁĴ Ģ
ĠØµØŃ ØªÙĥ
Ġj us
ĠÙģØ·ÙĪØ± ÙĥÙħ
Ø¹ Ø§Ùĥ
Ø· Ø§Øª
ĠØŃ Ø°Ùģ
ĠÙħØª ÙģÙĤ
ĠÙĦÙĪ Ø§ÙĦ
ĠÙĥÙĦØ§Ùħ Ùĩ
ĠØ£Ø±Ø¨ Ø¹Ø©
ĠØ£ ØŃÙĥØ§Ùħ
ĠÙĨ Ø§ØŃÙĬØ©
Ø¨Ùĥ Ø§ÙĦÙĪØ±ÙĬØ§
ĠØ¨Ø§ÙĦÙħØ¹ Ø±ÙĪÙģ
ĠÙĥ Ø´Ùģ
Ø§Ø¯ Ø¹
ĠØ§ÙĦØŃ Ø¬Ø©
ĠØ§ÙĦÙģ ÙĪ
ĠØ§ÙĦÙģ Ø§Øª
Ø§ÙĦÙħ ÙĩÙħ
ĠØ§ÙĦØ§ÙĨ ØªØ±ÙĨØª
ĠØ§ÙĦØ³ÙĬ Ø§Ø±Ø§Øª
ĠÙĨØ³ØªÙĨØ§ ÙĪ
ĠÙĪØ±ÙĪ Ùī
ÙĦ ÙĪØ§
ĠØ§ÙĦ Ø¶ÙĪ
ĠØ³ ÙģØ±
ĠØ§Ø¯ Ø®ÙĦ
47 47
ĠØ§Ø¸ ÙĨ
ðŁ §
ĠØŃ Ø¨Ø©
ĠâĿ¤ ðŁ¤²
ØŃÙĬ ÙĦÙĬ
ĠÙħØª ÙĨ
Ġp a
Ø·ÙĦ ØŃ
ĠÙĤØ±ÙĬ Ø´
ĠÙħÙģ ØªÙĪ
Ø§ÙĬ Ø§Ùħ
ÙĪÙħ Ùĩ
ÙĥÙĬ Ùħ
ĠÙĨØ´ÙĪÙģ Ùĥ
ĠØ§ÙĦØªØŃØ±ÙĬØ± ÙĬØ©
Ġt ra
ĠØ§ÙĦÙģØ± ØµØ©
ĠØŃØ· ÙĬØª
Ø¨ ÙĦÙĪ
Ø¹ ÙĦÙĥ
ÙĦØª ÙĤÙĬ
ĠÙĬØ¹Ø·ÙĬ ÙĥÙħ
ĠØ§ÙĦØ°Ùĩ Ø¨ÙĬ
Ù ©
Ø´ Ø¹Ø¨
ÙĪÙĬ Ø§Øª
ĠØ³ÙĪ Ø§ÙĬØ¹
ĠØ§ÙĦÙħÙĩ Ø¬Ø±
ĠÙĪØ¹ÙĨØ¯ ÙħØ§
H a
Ù §
ÙĪ Ø§Ø¯
ĠÙģ Ø¶ÙĬ
Ø¬ Ø§ÙĨ
Ø§Ø¬ ÙħÙĦ
ĠØº Ø¶
ĠØ§Ø³Øª Ø¹ÙħØ§ÙĦ
ĠØ§ÙĦØ· Ø§ÙĩØ±
ĠØ¨ØŃ Ø§Ø¬Ø©
ĠØ²ÙĬØ¯ ÙĦÙĪ
Ù ¨
ĠðŁ Ĳ
ĠØ§ÙĦØ± Ø²ÙĤ
ÙĤÙĪ ÙĬÙħ
ĠÙĤØ¹Ø¯ Øª
ĠØ±Ø¢ Ùĩ
Ġ es
Ø¯ÙĬ Ø§ÙĨ
Ø§Ø¹ Ø¨
ĠØ§ÙĦØ³ Ùħ
ĠØ§ÙĦØª Ø®
ĠØªØ® ÙĦÙĬ
ĠØ¬Ø§Ùħ Ø¹Ø©
Ġre da
ĠÙħ ÙĤØ¯
ĠØ¹ ÙħÙĪ
ĠØ£ Ø³ÙĦÙħ
ĠÙĤ Ø¯ÙĪØ©
ĠØ§ÙĦØ¹ Ø¬
ĠØ§ØŃ Ø±Ø§Ø±
ĠÙĤØ±ÙĬ Ø¨Ø§
ĠÙĪ ÙĬØ§
ĠÙĪ Ø®Ø±Ø¬
ĠØ± Ùħ
ÙĪØ± ÙĩØ§
ĠØ·ÙĦ Ø§Ø¨
ĠÙĨØ¹Ø±Ùģ ÙĪ
ĠØŃØ· ÙĦÙĨØ§
ĠØ§ÙĦØ¹ÙĦ Ø§Ø¬
O ui
ĠØ´ Øº
ĠÙģØ¹ ÙĦÙĩ
ĠØ§ÙĦØ·Ø¨ Ø±ÙĬ
ĠØ§ÙĦØ± Ø£ÙĬ
ĠØŃÙĦ Ø§ÙĦ
ĠÙĨØ³Øª ÙĨÙī
ĠÙħ Ø¨Ø±
ĠØª ÙģØ¶ÙĦ
Ø¶ ÙħÙĨ
Ġw ith
ÙħÙĪ Ø§ÙĦ
ĠØ³Ø¨ØŃØ§ÙĨ ÙĪ
ĠØ§ÙĦÙħØ´Ø±Ùĥ ÙĬÙĨ
² ðŁĩ¦
Ø° Ø§Ø±
ĠØ§ÙĦØ£ ÙĤ
ĠØ§ÙĦÙĦ ÙģØ¸
ĠØ§ÙĦØª ÙģØ³ÙĬØ±
ĠÙĪØª Ùģ
ĠÙĪÙĦÙĬ Ø³Øª
ĠÙĬØª ÙĤØ¨ÙĦ
ĠØªØ¹ÙĦÙħ Øª
Ø§ÙĦØ¬ Ø²Ø§Ø¦Ø±
ĠÙĦ ÙħÙĬ
ĠÙĬ ÙĥØ±Ùĩ
ĠØ§ÙĦØ® ÙĦÙģ
on s
ĠÙĦØ£ÙĨ ÙĪ
ĠØ§ÙĦ Ø§Ø¶
ĠØ£ Ø¹Ùħ
ĠÙĪØ± ØŃÙħÙĩ
Ġd ire
ĠÙħØ³ Ø£ÙĦØ©
ĠØ¹ÙĦÙħ Ùĩ
ÙĤØ§ ÙĪÙħØ©
8 0
ĠØ¬ ÙĩØ¯
ĠØ§ÙĦØ¨ Ø´Ø±ÙĬØ©
ĠØ§ÙĦØ§Ùħ Ø§Ùħ
ĠØ§ÙĦØ§Ø¹ ÙĦÙī
ĠØ¹ Ø§ÙĪÙĨ
ĠØ¯Ø§ ÙĬØ±Ø©
ĠØ§ÙĦØ¬Ø§Ùĩ ÙĦÙĬØ©
ÙĬ Ø§ÙĪ
Ùģ Ø§Ùģ
ĠØ¹ Ø§ÙĦÙĬØ©
ÙģÙĬ Øª
ĠÙĪØª Ø¬
ĠÙĬÙĨ ØµØ±
ĠØ¹ Ø°Ø±
Ø¹ÙĪ Ø¨Ø©
ÙĪØ¹ Ø§
ÙĪØ¹ Ùĩ
Ø³Ùĥ Ø±ÙĬ
Ø´ ÙĩØ¯
ĠØ£ ÙħÙĨ
ĠØ§ÙĦÙĥ Ø§ÙħÙĦØ©
Ø§Ø² ÙħØ©
Ø¨Ø¹ Øª
ĠÙĪØ² Ø§Ø¯
2 00
Øª ÙģØ³ÙĬØ±
Ø´ Ø¯
ĠØ· Ø¨ÙĬØ¨
ĠØ§Ø® ÙĬØ±Ø§
ØŃØ¨ Ø´
ÙĪØ³ Ø·
ĠØ§ÙĦØ³ ÙħÙĪØ§Øª
ĠÙĨØŃ Ø·
ĠÙħÙĨ Ø§Ùģ
ĠØ¯ ÙĬÙĨØ§
ĠØ§ÙĦØ£ ÙĥØ¨Ø±
ĠðŁĺ ĳ
ĠØ§ÙĦØ« ÙĤØ©
Ġk ay
ĠØ§ÙĦØ¬Ùħ Ø§Ø¹Ø©
Ø§Ø¨ Ø¯
Ø§Ùģ Ø¶Ø©
ĠÙĪÙĨ Ø¬ÙĬØ¨
ĠØ§ÙĦØ³ÙĬ Ø§Ø³ÙĬØ©
ĠØ§ÙĦØŃÙħ ÙĬØ¯
E R
Ĺ ¿
ĠØ¨ ØªØ±
ĠÙħÙĨ ØŃ
Ø§ÙĪ Ø¯ÙĪ
ĠØªÙħ Ø´ÙĬ
ĠÙĬØªØ¹ ÙĦÙĤ
ĠØ§ÙĦ Ø¸Ø±ÙĪÙģ
ĠØ§ÙĦØ± Ø¦ÙĬØ³
ĠÙĪØ£ Ùħ
ĠØ§Ø® ØªÙĦÙģ
ÙĤØ± Ø§Ø±
ĠØ£ÙĬ Ø¯ÙĬ
ĠÙĬØ¹Ø§ÙĪÙĨ Ùĥ
ĠØ§ÙĦØ¨Ùĥ ÙĦÙĪØ±ÙĬØ§
ĠØ§ÙĦØ´Ø± ÙĤ
ĠÙĩØ§Ùĥ Ø§
ĠØ¹Ø¯ ÙĨØ§
ÙĬ Ø§ÙĦ
Ø° Ø§ÙĨ
Ø§Ùģ ÙĦ
ĠØ§ÙĦØ³ Ø¹ÙĪØ¯ÙĬØ©
ĠØªØ¹ Ø¬Ø¨
ĠðŁĺ ī
ĠØ§ÙĦØ· ÙĦØ¨
ĠØ±Ø¨ Ø¹
ĠØªÙĩ Ø¨ÙĦÙĬ
ĠØ§ÙĦÙģÙĬ ÙĦÙħ
ĠØŃ Ø§Ø³Ø©
ĠØ§ÙĦØ¬ ÙħØ§ÙĦ
ĠØ§ØŃ Ø³
Ø¨ÙĦÙĬ Ø²
k on
ĠÙĦ ÙĤØ¨
Ø±ÙĬ Ø´
ĠâĿ¤ ðŁĺ¢
ĠØ¥ÙĦÙĬ ÙĥÙħ
ĠÙĨØ¨ ØºÙĬ
ĠØ§ÙĦØ¸ Ø§ÙĦÙħÙĬÙĨ
~~ ~~
z id
Ø¯ÙĬ ØªØ´
ĠÙħØ¹ ÙĬÙĨØ©
ĠØ§ÙĦØ¨ Ø§ÙĦ
ĠØ§Ø° ÙĨ
ĠØ§Ùĩ ÙĦÙĩ
ĠÙħØ§Ùĥ Ø§ÙĨ
ĠØµÙĦÙĬ Øª
ĠØªØŃØ±Ùħ ÙĨØ§
ĠØ¹ Ø§Ø¦ÙĦ
ĠØª ÙĩØ¯
ĠØ¬ ÙħØ¹Ø©
ĠÙħØ¹ ÙĦÙħ
ÙħÙĨ ÙĬÙĨ
ĠÙĪÙĨ ØŃØ¨
ðŁĺĬ âĿ¤
ĠÙĬ Ø±Ø¶Ùī
ĠØ³ Ø£ÙĦ
ĠØ® Ø±ÙĪØ¬
ra h
ĠØªØ¬ Ø³ÙĬØ¯
ĠØ§ÙĦÙĪØ§ÙĦ Ø¯Ø©
ÙĪ Ø«
ĠØ¨ ØªÙĪÙģÙĬÙĤ
ĠÙĦ ÙĤÙĪÙĦÙĩ
Ø® Ø®
Øº ÙĬÙĥ
ĠØ§ÙĦØ£ Ø¬
ĠØ§ÙĦØ¬ ÙĬÙĦ
ĠÙĤØ§ÙĦ ÙĪÙĦÙĬ
ĠÙĪØ± Ø§Ùĩ
Ġd ans
ĠÙĦÙĦÙħ ÙĨØª
ĠÙĪÙģÙĬ ÙĩØ§
ðŁ ¦
ĠÙĪØ§ÙĦ ÙĪØ§
Ø¯ÙĬ ÙħØ§
ĠØ§ÙĦØ¥ ÙĦØª
ĠØ£Ø¯ Ø±ÙĬ
ĠÙĨØ§Ø¬ ØŃØ©
Ø³ Ùģ
ĠÙĥ Ø§ØªØ¨
Ø§Ø· ÙĬØ©
ĠØ±Ø§Ø¬ Ø¹
Ġâľ Į
Ġbz f
ĠØ¬ ÙĩÙĦ
ĠØ« ÙĦ
ĠØ§ÙĦÙħØ³ Ø§Ø¹Ø¯Ø©
o re
ĠðŁĺ Ĵ
ĠÙģØª Ø§Ø©
ĠØ§ÙĦØ¬ÙĨ ÙĪÙĨ
ĠØ ¡
Ø³ Ø¤Ø§ÙĦ
Øµ ÙĦØ©
ĠØ§ÙĦØ® ÙĦØ§
ĠØ¨Ø§Ùĥ Ø§ÙĦÙĪØ±ÙĬØ§
ĠØ²ÙĪØ¬ Ø©
Ø®Ø§Ùģ ÙĬØ´
ĠÙĪØ§Ø¶ ØŃØ©
Ø«ÙĦ Ø¬
Ġg ood
ĠÙĤØµ Ø¯ÙĬ
ĠØ§ØµØ¨ØŃ Øª
ĠÙħ Ø§Ø¦Ø©
ĠØ´ Ø§ÙĩØ¯
Ġk an
ĠØ§ÙĦØ² ÙĬØª
ĠØºÙĬ Ø§Ø¨
Ø´Ùģ Ø§Ø¡
ĠÙħ Ø¯Ø§Ø±
ĠÙĦ Ø®ÙĬØ±
ĠÙĨ Ø§Ùģ
ĠØ²ÙĬ Ø§Ø±Ø©
m ar
Ø´ ÙĬÙĥÙĪØ±
ðŁ ķ
ĠÙħÙĨ ÙĩÙħØ§
Ø§Ùĩ ÙĦÙĬ
ĠØ¨Ø§ÙĦ ÙĦØºØ©
ĠØ§ÙĦØª Ùĩ
ĠØ§Ø³ Ø§ÙĦ
ØªÙĩ Ùī
ĠÙĨØ¬ Ø±ÙĬ
ĠØªØ´ Ø®ÙĬØµ
ĠØ§ÙĦØ¯Ø± Ø¬Ø©
ĠØ±ÙĪØŃ ÙĩØ§
Ø¶ØŃ Ùī
ĠÙĪÙĬØ±Ø²ÙĤ Ùĥ
r y
Ġ id
Ø§Ø¯ Ø«Ø©
ÙĪØ± Ø¯
Ø§ÙĬ ÙĬ
Ø§Ùĩ ÙĬØ©
ĠÙĪØ¹ ÙĦÙĬÙĩ
Ġh kaya
ĠØªØ³ ÙĥÙĨ
ĠØ®ÙĦ Øµ
ĠÙģ ÙĦÙĩ
ĠØ§ÙĦÙĦÙĩ Ø¬Ø©
ÙĦØ§Ùħ Ùĥ
ĠØ¯Ø± ØªÙĩØ§
ĠØ§ÙĨØª Ø¸Ø±
ĠØ³Ùĩ ÙĦØ©
ĠØºØ§ÙĦÙĬ ØªÙĬ
ĠÙģÙĬ Ø¯ÙĬÙĪØ§
Ø¹Ø¨ Ø§Ø¯
ĠØªØµ ÙĦÙĬ
as t
ĠÂ ·
ĠØ§ÙĦØ¹Ùħ ÙĦÙĬØ©
ĠØ§ÙĦØ§Ø¬ØªÙħØ§Ø¹ ÙĬØ©
ĠØ§ÙĦØ¶ÙĬ Ø§ÙģØ©
ĠðŁĳı ðŁĳı
ĠØ§ÙĦØª Ùħ
ĠÙĬØ¹ Ø¨Ø¯
ĠÙħØ¯ Ø§Ùħ
ĠØ¹ÙĦØ§Ø¨ Ø§ÙĦÙĥ
6 5
ĠÙĬ ÙĥÙħÙĦ
ĠÙĪØ§ÙĦ Ø¥ÙĨ
ÙģÙĬ Ùģ
ĠÙħØª Ø®
ÙĪØ±ÙĬ Ø§Øª
ĠÙĦØ§ÙĨ Ùĥ
ĠØªØ¹ÙĦÙĬ Ùħ
ĠÙĬØ£ ÙħØ±
ĠÙģ Ø²
Ø§Ø¨ ÙĨ
ĠØ³ ÙĪÙĤ
ĠÙĪØ§ÙĦ Ø£ÙĨ
ĠØ¨Ø§ÙĦ Ø²
ĠØ§Ø³ Ø±
ĠØªØŃ ÙĦ
el l
ĠðŁĺħ ðŁĺĤ
ĠØ±Ø§Ø¦ Ø¯
ĠðŁĻ ĥ
ĠØ§ÙĦÙħ ÙĬÙĦ
Ø§Ø¹ ØªÙĩ
Ø¢ Ø¡
Ø§Øº Ø©
ĠØ§ÙĦÙĨØµ Ø§Ø±Ùī
ĠØ¬Ø§Ø¨ Ø±
ĠØ¬Ø¹ ÙģØ±
ĠØ¹ÙĬØ´ Ùĥ
ĠÙĪ ÙĪØ³Ø¹
ĠØ§ÙĦØ¯ Ø§Ø¦ÙħØ©
ĠØ§Ø¹ ØªÙĤØ¯
Ġh o
ĠØ¸ Ø±ÙĪÙģ
ĠØ§ÙĦØ«ÙĦØ§Ø« Ø©
M a
ĠÙĤ ØµØ±
ĠðŁĺ ±
ĠØ§ÙĦØ¯ ÙĦ
ĠØ§Ø¯ Ø¹ÙĬÙĦÙĬ
Ġu p
ĠØ§ÙĦÙĩØ¯ Ùģ
ĠØ§ÙĦ Ø§ÙħÙĦ
ĠÙħ Ø¯Ùī
ĠÙĪØ§ÙĦ Ø¯Ùĥ
ĠÙĦÙĬ ÙĥÙħ
Ø¹Øª Ø¨Ø±
ĠÙģØ¹ ÙĦØª
ĠØ§ÙĦØŃØ¯ ÙĪØ¯
Ù ±
ĠÙħ ÙĬØ´
Ùģ Ø³ÙĬ
Ø§ÙĨ ÙĩØ§
ĠÙĤ ÙĦÙħ
ĠØ´ Ø§Ùĩ
Ø§Ø¬ Ø§Øª
ØªØ¨ Ø§Ø¹
ĠÙģØ§ÙĦ ÙģÙĬØ¯ÙĬÙĪ
ĠØ§ÙĦÙĨØª Ø§Ø¦Ø¬
ÙĨØ· Ø§ÙĦØ¨
ĠØ§ÙĦØ·ÙĦ Ø¨Ø©
ĠÙĪ Ø¹ÙħÙĦ
ĠÙħ Ø®ÙĦ
ĠÙĬ Ø¶Ø¹
ĠØ± ÙĬØ¨
ÙĨØ§ ÙĬ
Ø¯Ø± Øª
ĠÙħØŃ ØªØ§Ø¬
ĠØ±Ø¨ ÙĥÙħ
ĠØ§ÙĦ ÙĦØ¨
Ø³ ÙĪÙĨ
ĠØª Ø§Ø¨Ø¹
Ø§ÙĬ ØŃ
ĠØ§ÙĦØ¥ Ùħ
Ø§ÙĦØ´ ÙĬØ®
ÙĨØµ ÙĬØŃØ©
ĠÙĪ ØºÙģØ±
ĠØŃ Ø§Ø·
ĠÙĪØ§ÙĦ ÙħØª
ĠØ§Ø® Ø°
ĠØ§ÙĦØ° Ø±ÙĬØ©
ĠÙħÙĪ Ø¹Ø¯
Øº ÙĬØ¨
ØªÙĬ ÙĦ
ĠÙĦÙĦÙħ Ø´
ĠØ§ÙĦØŃÙĥ ÙĪÙħØ©
ĠØ± ÙĪÙħ
Ø§Ø¯ Ùī
ÙģØ± ØŃÙĥ
ĠðŁĴ Ģ
tion s
ÙĦ ÙĤØ¯
ÙĪ Ø§ØŃØ¯
ĠØ® ÙĦÙĪ
ĠÙħØ± Ø¹Ø¨Ø©
ĠØ¯Ø± ØªÙĪ
ÙĪÙĤ Ø¹
ĠÙĪØ§ÙĦØ£ Ø®
ĠÙĤÙĨ ÙĪØ§Øª
ĠØ¬ÙĪ Ø§Ø²
. "
m d
Ġ ï
ÙĤ Ø§Ø·
Ø§Ùģ Ø±ÙĬÙĨ
ĠØ¨Ø§ÙĦ Ø«ÙĪØ±Ø©
ÙĬØ¯ Ùĩ
ĠØ´Ø¹ ÙĪØ±
ĠØ§ÙĦØªØ¹ Ø§ÙħÙĦ
ĠØ§ÙĦ ÙĪÙĦØ¯
ØŃ Ø§ÙĤ
ĠØŃ Ø±ÙĥØ§Øª
Ġf e
ĠÙħØ« ÙĦÙĩ
ĠÙĤØ¨Ø± ÙĩØ§
ĠÙħØ®ÙĦÙĪ ÙĤ
Ø± ÙĤØ¯
ÙĤ Ø³Ùħ
ĠÙĬ ÙħØª
ĠØ´ Ø§Ùĥ
ĠØ¬ Ø¹ÙĦÙĩ
ĠØ§ÙĦØŃ Ø¬Ø±
ĠØ§ÙĦØ¨ ÙĦÙĬ
Ø±ÙĪ Ùĩ
ĠÙĦÙĥ ÙĨÙĬ
li ha
ĠØ¨ÙĨÙģØ³ Ùĩ
ĠÙģØ§ÙĦÙĤ ÙħØ©
ĠÙĦ ÙĩÙħØ§
ĠØ± ÙħØ²
ĠØ§ÙĦØ¹ Ø±Ø¶
ĠØ¢ ÙĨ
ĠØ§ÙĦØ§Ùħ ÙĬØ±
ĠØ²ÙĬ Ø¯ÙĬ
ØªØ§ÙĦ ÙĬØ§Øª
ĠØª ÙģØ±ØŃ
Ø´ ÙģØª
ĠØ® Ø§ÙĪ
ĠØ§ÙĦØ´ Ø¨Ùĩ
ĠØ§ ÙĪÙĨ
ĠØ§ÙĦÙħØ± Ø§Ø©
ĠØ´Ø¹ Ø±Ùĥ
ĠØ§ÙĦÙĪÙĦ Ø§Ø¯Ø©
Â ·
Ùģ Ø¹ÙĦ
ĠØµ Ø§Ùħ
ĠÙĦÙĬ Øª
Ø¤ ÙĪÙĨ
ĠÙĨØª ÙħÙĨØ§
ĠØ§ÙĦÙħÙĪ ÙĦÙī
ah k
ĠØ§ÙĦØ´Ø± Ø·
g u
Ø¯ ÙħÙĬ
ĠÙĪØ§ÙĦ Ø¬ÙħØ§Ø¹Ø©
Ø¶ ÙĬØ±
Ø§Ø¦ ÙĥÙħ
ĠØ§ÙĦØ´ Ø§ÙģØ¹ÙĬ
ĠØ§Ø± ÙĪØ§ØŃ
ĠØ§ÙĦÙħØŃ Ø¨Ø©
ĠØ§ÙĦØ³ÙĬ Ø¨ÙĬØ§
ĠÙģØ¹ ÙĦÙĬØ©
Ø´ Øª
Øµ ÙĦÙĪ
ĠÙĩ Ø§Øª
ÙĬØ§ Ø§Ø±Ø¨
ĠÙĪÙĬ ØµØ¨Ø±
ĠØ§ÙĦÙħÙĨ ÙģÙī
ĠØªØµ Ø¨ØŃ
ØªÙĪØŃØ´ ÙĨØ§
Ø¨Ø² Ø§Ùģ
ÙħØ¹ Øª
ĠÙĨØ¬ ÙĪØ²
ĠØ³ÙĬ Ø¦
ĠØªØ£ ØªÙĬ
ÙĪØ§Ø¬ Ø¨
Ø§Ø± Ùħ
ĠÙĩ Ø´Ø§Ùħ
ĠØ¯ ÙħØ´
ĠØ§ÙĦÙģ ÙĪØ²
ĠÙĬØ¬ ÙĪ
ĠÙĪØµ ÙģØ§Øª
ĠÙĪØ§ÙĦØª Ø¹
Ġsu is
ÙĬ Ø¶
Ø³ Ø¨Ø©
ĠØ§ÙĦØ¯ ÙĤÙĬÙĤØ©
ĠØ¢ Ø«Ø§Ø±
ĠÙĦØ£ÙĨ Ùĥ
Ġz id
µ ðŁĩ¸
Øµ ÙĬØ±
ĠØº Ø²
ĠØ§ÙĦØ¯ ÙĪ
A R
p r
ĠÙħ Ø³ÙĬ
ĠØ§ÙĦØ³ Ùģ
ĠØºÙĬØ± ÙĩÙħ
ÙĪØ¬ Ø¨
ØªÙħ Ø§ÙĦ
ĠÙħØª Ø´
Ø¯Ø¹ ÙĪØ§
ÙĪØ¯Ùĥ Ø§Ø³Øª
ĠÙĪ ÙĦØª
ĠØ§ÙĦÙħ Ø«Ø§ÙĦ
ðŁĺ Ĩ
ĠÙĪØª Ùĥ
ĠÙħØ´ Ø§Ø±ÙĥØ©
ĠÙĬØ³ ÙĬØ±
ĠÙĤÙĨ Ø§ØªÙĬ
ĠðŁĳį ðŁĳį
b l
Ø« Ø§ÙĦÙĥ
ØªØ§Ø¨ Ø©
ĠÙĨÙĨ ØµØŃÙĥ
ĠØ§ÙĦØ´ Ø±Ùģ
ĠØ¶ Ùĥ
ÙĥÙĪ ÙĬÙĨ
ĠØ§ÙĨ ØªØ´
ĠØªØ¹ Ø§ÙĪØ¯
ĠØ§ÙĦÙģ ÙĦØ³Ø·ÙĬÙĨ
ĠØ§Ø® ØªØ§Ø±
ĠØ§Ùħ ÙĪØ±
Ø³Ø± Ùī
ĠÙĤØ± Ø¢ÙĨ
Ø·ÙĦ Ø¹ÙĪ
ĠØ£ÙħØ± Ø§
ĠvidÃ© os
Ø¨ Ø¹ÙĪ
Ø£ Ø¬
ĠØ§ÙĦÙĤ ÙĦÙħ
ĠÙĨØ³ Ø®Ø©
ĠØ¯ÙĪÙĦ Ø§Ø±
Ø³ ÙĬØ§
ĠØ¹ Ø¸ÙĬÙħØ©
ĠØŃ ÙĤÙĩ
ÙĦØ§ ÙĤÙĬ
Ø§Ø³ Ø¹
ĠÙħØª Ùģ
ĠØ¨ÙĬÙĨ Ùĩ
ĠØ§ÙĦÙĬÙĪÙħ ÙĬØ©
Ø¨ÙĬ ÙĩØ§
ĠØ§Ø³Øª Ø·Ø§Ø¹
Ø¹Øª ÙĨÙĬ
ĠØ£Ø³ØªØ§Ø° ÙĨØ§
ĠÙĨÙĨØ¬ØŃ ÙĪØ§
ĠØ¹ÙĤ ÙĬØ¯Ø©
ĠðŁ« ¶
ĠØ· ÙħÙĪ
ĠØ§ÙĦØ¥Ø® ÙĪØ©
' t
w i
Ø¹ Ø§ÙĦ
ĠÙĦ ÙĪÙĦØ©
Ø¯Ø± Ø§Øª
ÙĤØ¯ Ø§Ùħ
ĠÙĬØ¹ Ø·
ou h
ĠØ¯ÙĬØ± ÙĬÙĨØ§
Ġ9 0
ĠÙĨØªØ§Ø¹ ÙĬ
ĠÙĪØ¬Ø²Ø§Ùĥ Ùħ
ĠðŁĸ¤ ðŁĸ¤
ĠÙģÙĬ Ø²Ø§
ĠØŃ Ø§Ø´
ĠØ§ÙĦØŃ Ø±ÙĥØ©
ÙĤÙĪÙĦ ÙĪ
ĠÙħÙĤ Ø¨
ĠÙĨÙĪØ± Øª
ĠÙĥØ§Ùħ ÙĦÙĬÙĨ
Ø± ÙĨØ§
ĠØ· Ø§Ø¨Ø¹Ø©
ÙĤÙĪÙĦ Ø©
Ġt out
ĠÙĪØ¹ ÙĦØ§Ùĩ
ĠÙĬÙħÙĨ Ø¹
ĠÙĦ Ø®Ø±ÙĬÙĨ
Ø§ÙĨ Ø¹
ĠÙĪØ§ÙĦ Ø§ØŃ
ĠÙħØ´ Øª
ĠØ§ÙĦÙħÙĦ Ø®Øµ
ĠØ¯ÙħØ´ ÙĤ
Ø¨ Ø«
ĠØ¨ Ø°ÙĥØ±
ĠØ¨ ÙĤÙĬØª
Ø±Ø¨ Ø¹
ĠÙħØŃ Ø¨Ø©
Ø¨ÙĤ Ø§ÙĪ
ĠØ§ÙĦÙħØµ Ø·ÙĦØŃØ§Øª
ĠÙħ Ø¯Ø§
ĠØŃ Ø°
ĠØ´ Ùħ
ĠØ³ Ùĥ
ĠÙħ ÙĬØ®
Ø³ Ø®
ĠØ£ Ø±ÙĪØ¹
ĠØ§ÙĦØ¯ ÙĨØ³
Ø§Ø« Ø©
ĠØ¬Ø§Øª ÙĨÙĬ
ĠØ§Ø®Øª ÙĦØ§Ùģ
ĠØ±Ø¤ ÙĬØ©
A C
ÙĨ Ùħ
ÙĨ Ø´Ø§Ø¡
ĠØ£Ùģ ÙĥØ§Ø±
ĠØ¨ Ø§Ø·
ĠÙĬ Ø°ÙĩØ¨
ÙĨÙĬ Ø§Øª
ĠØ§ÙĦØ® Ø§ÙĦÙĤ
Ġd ay
ĠÙĪØ³ Ø§Ø¦ÙĦ
ĠÙħØ³Øª ÙĤØ¨
ĠÙĦØŃ ÙĤØª
ĠØ§ÙģØ±ÙĬ ÙĤÙĬØ§
> >
Ø£ ÙĦÙĩ
ÙħØ§Ø± ÙĬÙĨ
Ø¨ÙĬ ÙĦØ©
ĠØ¬ Ø¯Ø¯
ĠØ§ÙĦØ´ Ø§Ø¨
ĠØ³ÙĬ Ø§Ø³Ø©
ĠÙħ Ø¨Øª
ĠÙĬ Ø±Ø¶
Ø¨ÙĬ Ø¨Ø©
ĠØ´ Ø¯Ø©
ĠØ§ÙĦØ¨ Ø§Ø±ÙĬ
ĠØ§ÙĦÙħÙĪ ÙĤÙģ
ĠÙĪÙĤØª Ø§Ø´
âģ Ħ
ĠÙģØ¶ ÙĦÙĩ
ĠØ£ØŃ Ø³
Ø¨ ÙĨÙĬ
ĠØ£ Ø³Ùħ
Ġg ra
ĠØ§ÙĦØ³ÙĦ Ø·Ø§ÙĨ
ĠÙĨ ÙĪØµ
Ø£ ÙĦÙģ
ĠØŃ ÙģØ¶
ĠØ¥ Ø³ØŃØ§ÙĤ
ĠØ§ÙĦØµ Ø§Ø¨
-- -
ĠÙĦÙĥÙĨ ÙĩØ§
as e
ĠØ§ÙĦØ³ ØŃ
ÙĤÙĪÙĦ Ùĥ
ĠÙĨÙģØ³ ÙĪ
ĠÙĪÙĥ Ø£ÙĨ
Ø¹Øª ÙĬÙĨ
ĠÙĬØµ ÙĬØ¨
ĠØ¯ÙĤ Ø§ÙĬÙĤ
ĠØ§Ø³ØªÙģ Ø¯Øª
ĠØª Ø¨Ø¯Ø£
ĠÙĥ ÙĪÙħ
ĠØ¥ Ø«Ø¨Ø§Øª
ĠØ¨Ø§ÙĦ ØªÙģ
ĠØ§ÙĦØ£ Ø¦ÙħØ©
Ø±Ùģ Øª
Ø³ÙĬ Ø³
ĠÙģØ§ÙĦ ØŃ
ĠØ§ÙĦØ§Ø® Ø±Ùī
ĠØ§ÙĦØ£Ùħ Ùħ
ĠØªØŃ Ø·ÙĬ
ÙģØ³ Ø¯
ĠÙħØ± Ø§Ùĩ
ĠÙĨØ¬ÙĬØ¨ ÙĪÙĩ
ĠØ£ØŃØ¯ ÙĩÙħ
ĠÙĪØ§Øµ ÙĦÙĬ
Ùĥ Ùī
Øµ Ø·ÙĦØŃØ§Øª
ĠØŃ Ø±Ø¬
Ø±ÙĬ Ø·
ĠØ§ÙĦØ¹ Ø´Ø§Ø¡
ĠØ§ÙĦØ£ Ø±
ha k
ÙĦÙĤ Ùĩ
ĠÙĪØ§ÙĨ ØªÙħ
Ġ19 9
Ø§Ø³ Ø·ÙĪØ±Ø©
ĠØ§ÙĦØ£ ÙħÙĦ
ĠØ§ÙĦØ± Ø³ÙĦ
ĠØ§Ø® ÙĪØ©
ĠØª Ø¶Ø¹
ĠØµ Ø¹Ø¨Ø©
Ø§Ø¦ ÙħØ§
ĠÙħÙĤ Ø§Ø¨ÙĦ
ĠÙĨØªÙģØ±Ø¬ ÙĪ
ĠØ¹Ø²ÙĬØ² ØªÙĬ
ĠÙ± ÙĦ
Ã ¢
ĠØ¹ ÙĪØ¶
ĠØ§ÙĦÙĤØ¨ Ø§Ø¦ÙĦ
ĠØµØŃØ¨ ØªÙĬ
j et
ĠØ§ÙĦ Ø¶ÙĪØ¡
ĠØ¨ Ø·ÙĦ
ĠØ§ÙĦÙħ ÙĪØ§ÙĤÙģ
ĠØ¹ÙĨ Ø§Ø¨Ø©
ĠØ§ÙĦØª Ø±ØŃÙĬØ¨
Ġ3 5
ĠÙħ Ø¸Ø§ÙĩØ±
ĠØ¹ ÙĦØ§ÙħØ§Øª
ĠØª ØµØ±
ĠÙħØ´ ÙĩÙĪØ±
ÙĤÙĦ Ø¨ÙĬ
ĠØ¯Ø§Ø± Ùĩ
ĠØ²ÙĪØ¬ ØªÙĩ
Ø·Ø¨ Ø®
ĠØ¹Ø§ÙĪ Ø¯Øª
ĠØ´ Ø±ÙĪØ·
ĠØ¨Ø§ÙĦ ÙħØ±
ĠØ§ÙĦØ´ Ø¯ÙĬØ¯
ra bi
ĠÙģØ§ÙĦ Ø£
al ly
Â» (
ĠÙĪØ§ÙĤ Ø¹
g l
ÙĥØ± ÙĪ
ĠØ§ÙĦÙĨ ÙĬØ©
ĠØ§ÙĦÙĤ Ø¶Ø§Ø¡
ĠØº ÙĬØ¨Ø©
ĠØªØ« Ø¨ÙĬØª
Ùĩ ÙĪÙĦ
ĠÙħ Ø§Ø¬Ùĩ
ĠØ¨ ÙĥÙĬØª
ĠØ³ ÙĤØ³ÙĬ
ĠØ§ÙĦØ³ Ø±Ø¯
ĠØ¶ÙĬ ÙģØªÙĨØ§
ĠÙĬØª ÙĨ
ti f
Ġ195 5
ðŁĺ ¨
ÙĦØ§ ÙĬÙģ
ÙĪÙĦÙĬ Ø´
ĠØ§ÙĦØ§Ø¨ ØªØ¯
ĠÙĦÙĦØ´ ÙĬØ®
, ,
Ø£ ÙħÙĦ
Ø· ØŃ
ĠðŁ į
ĠÙħØ´ Ø§ÙĩØ¯Ø©
ĠØªØŃ ØµÙĦØª
ĠØ² Ø¯Øª
ĠØ§ÙĦÙģ ÙĤØ±
Ġv o
ir es
ĠÙģØ§ÙĩÙħ Ø©
Ø¹ Ø¬Ø¨ÙĨÙĬ
ĠÙĦ Ø¨ÙĦ
Ø¹Ø¯ ÙĪ
ĠÙħØŃ Ø±Ùħ
ĠÙħØ« ÙĪØ§Ùĩ
ba b
ĠØ§ÙĦÙĨÙĤ Ø¯ÙĬ
ĠØºÙĦØ· Øª
Ø³ ÙħÙĬ
ĠØ® ØªÙĥ
ĠÙĦÙĦ Øµ
Ø³ÙĬ ÙĦ
ĠÙĪØ¬ ÙĩØ©
ĠÙħÙĥ ØªØ¨
ØŃ Ø¯Ø©
ÙĬØª ÙĩÙħ
ØªÙĦ Ø§Ø·
ĠÙĬØ¨ ÙĥÙĬ
ĠâĻ¥ï¸ı âĻ¥ï¸ı
âĺº ï¸ı
Ø§ÙĦ Ø²
ĠØªØŃ Ø³Ø¨
ĠA llah
ĠØ§ÙĦØ³Ø± Ø¹Ø©
ĠØ¨ ÙĤØ§
ĠÙĥ ØŃÙĦ
ĠØ³ Ø¦ÙĦ
ĠØ§ÙĨ Ø³ØªØ§
ĠÙĨØ¹ ÙĬÙħ
ĠÙĬØ¹ÙĦÙħ ÙĪÙĨ
Ġfa it
ĠØ¥Ø³Ø± Ø§Ø¦ÙĬÙĦ
ĠÙĬ ØªØ´
ĠØ§ÙĦÙħ ÙģØ¶
Ø±ÙĬ Ø¯Ø©
ĠØ§ÙĦØµ Ø¯ÙĤ
Ø²Ø¹ ÙħØ§
ĠØ§ÙĦØªØ§Ø±ÙĬØ® ÙĬØ©
Ùħ ÙĦÙĬÙĪÙĨ
ÙĪ Ø§ØµÙĦ
Ø§Ø³ ØªÙĬ
ÙĥÙħ Ø§ÙĦ
ĠÙĪÙĬ ÙĪÙħ
Ø¢ Ùħ
ĠØ§ÙĦÙģ Ø³Ø§Ø¯
ÙģØ³ Ø§Ø±
re k
ĠØªÙĦÙĤ Ø§ÙĬ
ĠÙĬ ØªÙĬ
ĠØ¯ ÙĬÙĥ
ØŃÙĥ Ø§ÙĬ
Ø®ÙĦ Ø¹
ĠâĢ Ŀ
ĠÙģØªØŃ Øª
ĠÙĦÙĦØ¬ Ø²Ø§Ø¦Ø±
ĠØ§ÙĦ Ø§ÙĦÙĥ
ĠØ¨Ø§ÙĦ ØµØŃØ©
ĠÙĪÙĬ Ø¬
ĠØ§ÙĦØº Ø±Ø¨ÙĬØ©
ĠØ§ÙĦÙĦ ÙĪÙĨ
ĠØªØ£ Ø«ÙĬØ±
Ø« ÙĨØ§Ø¡
ĠØ³ ÙĦÙģ
ĠÙĪØ§ÙĦ Ø¯Ùĩ
Ġm al
ĠÙĪØ¢ Ø®Ø±
ĠÙĥÙĨØ§ ÙĬØ©
ĠØªÙĪÙģÙĬÙĤ Ùĥ
f or
ÙĬ ÙĩÙħ
ÙĨ ÙĪØ§
ĠØ§ÙĦÙħ ÙĪØ±Ø§ÙĦ
Ø§Ø¯ ÙĦØ©
ĠØ¬ Ø¯Ùĥ
ĠØ¨Ø§ÙĦ Ø¹ÙĦÙħ
ĠÙĬØ´ Ø¹Ø±
ĠØ§Ø±ØŃÙħ ÙĩØ§
Ø¸ÙĬ ÙģØ©
Ø§Ø¬ ØªÙħØ§Ø¹
ĠØ¹Ø¨Ø¯ Ùĩ
ĠØ§ÙĦÙħØ³ Ø§Ø¨ÙĤØ©
ÙĪØ§Ø± Ø¬
Ġkh ir
ÙĨ Ø¬
ĠØ¹ Ø±Ø³
ĠØª Ø³Ø±
ĠØ¬ ÙĪØ²
Øº Ø¯ÙĪØ©
ĠØ§ÙĦØ£ ÙħÙĨ
Ø¯Ø± ÙĪØ³
ĠðŁĺ ¥
Ġm es
ĠØ±ÙĪ ÙĪØ¹Ø©
ĠÙħØ± ØªÙĬÙĨ
ĠÙħ ÙģØ±
ĠØ¨ Ø¹Ùħ
ĠÙĦ ÙĤØ±
ĠÙĪØ§ÙĦ ØªÙĪÙģÙĬÙĤ
ĠÙħØª ÙĨØ³
Ø± ÙħØ¶Ø§ÙĨ
ÙĤ Ø§Ø¯Ø©
ĠØ± Ø³Ùħ
Ø¶ Ø§Ø±
ĠØ§ÙĦÙħ ÙģØ¶ÙĦ
ØªÙĪ Ùĩ
ĠØ¨Ø¹ ÙĬÙĨ
ĠØ¨Ø¹ ÙĬØ¯Ø©
ĠØ¨ÙĬ Ø¹
ĠØ¬ÙĨ Ø§ØªÙĥ
ØŃ ÙĤÙĪ
ĠØ¨ ÙĪØ³
ĠÙĥ ÙħÙĨ
ðŁĺ Ĳ
ĠØ§ÙĦØ£ Ø¬Ø±
ĠÙĪØ£ ÙĥØ«Ø±
ĠÙħØª Ø±Ø´
ĠØ§ÙĦÙĩØ¯ Ùī
L e
Ùĩ ÙĦÙĩ
ĠÙħ ÙģØ¹ÙĪÙĦ
ĠÙĤ ÙĦØ©
Øº Ø§
ĠØ§ÙĦØ¹ Ø§Øµ
ÙĦØ¨ Ùĩ
Ø¹Ø± Ø§Ø¶
ÙĥÙĪ Ø¨ÙĬ
ĠØ¨Ø¬ Ø§ÙĬØ©
ĠØ¯ÙĤ Ø§Ø¦ÙĤ
b er
ÙĦØ§ ÙĬÙĥ
Ø§Ø³ Ø±
ĠØ§ÙĦØ¬ Ø§ÙĬØ©
ĠØ§ÙĦØŃ ÙĨ
ĠÙģÙĤØ§ÙĦ Øª
ÙħÙĨØª Ø¯Ùī
Ã ł
ĠÙĪ ÙģÙĩÙħ
Ø¬ ÙĬØ¹
ĠØª Ø®Øµ
ĠØ§ÙĦÙĤ ÙħØ±
Ġ10 6
ĠØŃÙĬÙĨ ÙħØ§
ĠØ¯Ø§ÙĬØ± ÙĬÙĨ
ĠÙĤÙĪ Ø§Ø¹Ø¯
ĠÙĦÙĦØ¹ÙĦÙħ ÙĬÙĬÙĨ
w f
ĠÙĦ Ø²ÙĪØ¬
ĠÙĨ ÙĪÙħ
ĠØ§ÙĦÙħ ÙĪØ§ÙĤØ¹
Ø±ÙĬ ØŃØ©
ĠÙĬØŃ Ø¨ÙĪ
ĠØ§Ø® ØªØ¨Ø§Ø±
ÙĥØ§ÙĨ Øª
ar i
ĠÙĩØ¯Ø± Øª
Ġvra i
ÙĪ Ø°
ĠØ¹ Ø¨ÙĬØ¯
ĠØª ÙĦÙħÙĬØ°
ÙĦÙĬ ÙĪÙħ
ĠØ§ÙĨ ÙĨØ§
ĠÙĪØ£ ØµØŃØ§Ø¨
ĠÙĪØª Ùħ
ĠÙģØ£ Ø¬Ø§Ø¨
ĠØ¨Ø³ ÙĥÙĪ
ĠØ¨Ø³ ÙĥØ±Ø©
Ùĩ ÙĪØ±Ø©
ĠÙĦÙħ Ø³
ĠØ§Ø¨ ØŃØ«
Ġh om
ĠØªØ³ Ø§Ø¹Ø¯
ĠØ§ÙĦÙģÙĦØ³Ø·ÙĬÙĨ ÙĬØ©
ÙĨ ÙħÙĪØª
ĠÙħ ØŃÙĬ
ĠØ¨ ÙĪØ¬ÙĪØ¯
ĠÙĬ ÙĪÙĦØ¯
ÙĤÙĪ ÙĦÙĩÙħ
ĠØ§ÙĦÙģÙĬØ¯ÙĬÙĪ Ø§Øª
ðŁĸ¤ ðŁĸ¤
ĠÙĪ Ø®ÙĬØ±
Ø§ÙĨ ØªÙĬ
ĠØª Ø§
Ø° ÙĬÙĥ
Ø¯ÙĬ Ø¯Ø§
ĠØ±Ø¨ÙĬ Ø¹
ĠÙĬØŃ Ø±Ùħ
Ġm iloud
ĠÙĨØŃ ÙģØ¶
ĠØ§ÙĦØ² ÙĩØ±ÙĬ
ĠØ¬ÙĨ ÙĪÙĨ
ĠØ³ÙĨ ÙĨ
ĠðŁĮ ¸
ÙĪÙĨ Ø§ÙĦ
ĠØ® Ø´
ĠØ§ÙĦØŃ Ø¬Ø§Ø¨
ĠÙĪÙĬ Ùĥ
ĠÙĦÙĪ ÙĤØª
ĠØªÙĪ ÙģØ±
ĠØ§Ø´ Ø±ØŃ
ĠØ¨Øµ ÙģØ©
Ø§Ø¨ÙĬ ÙĩØ§
ĠÙħØ¨Ø§Ø±Ùĥ Ø©
ĠØ§ÙĦØ§Ùģ ÙĥØ§Ø±
ĠØ§ÙĦØª ÙĦÙħÙĬØ°
ĠÙĩØ° ÙĪÙĥ
ĠÙħØ´ ÙĪ
Ġn dir
ĠÙĪØ´ Ø±
ĠÙĬØª Ø²ÙĪØ¬
is e
Ø±ÙĬ ÙĦ
ĠØ§ÙĦØ¨ ÙĦØ§Ø¡
ĠØ§ÙĦØµ ÙĨÙģ
ĠØ¨ÙĬÙĨ ÙĩØ§
ÙĤØ· Ø§Ø¹
ĠÙĦÙĦÙħ ÙĪ
ĠØ£Ø¨ ÙĨ
ĠÙĨÙĦÙĤ Ø§ÙĪ
fd k
ĠÙģÙĦØ¨ Ø§Ùĥ
ĠØ§ÙĦØ¹ ÙĪØ¯Ø©
ĠðŁ ©
ĠØ§Ø± Ø¶
ĠØ§ÙĦØ¨ÙĬ Ø§ÙĨÙĬØ©
Ġre bi
ĠØ±Ùĥ Ø²
ĠÙĨØ· ÙĦØ¨
ĠØ§ÙĦØŃÙĤÙĬ ÙĤÙĬØ©
r Ã©
Ùĥ ØªØ§Ø¨
ĠØ§ÙĦÙħ Ø¹Ø±Ùģ
ĠØ§Ø³Øª Ø§Ø§Ø°
ĠØ§Øµ ÙĦ
ĠØ®Ø· ÙĪØ©
ĠðŁĻĤ ðŁĻĤ
ĠÙĨØ± Ùī
Ø§ÙĦØ´ Ø¹Ø¨
Ø§ÙĦØ³ Ø¤Ø§ÙĦ
ÙĨØ§ÙĤ Ø¶
ĠÙĪØª Ø¯
ĠØ®Øµ Ø§Ø¦Øµ
g i
ÙĦ Ø§Ø´
ÙĬ Ø§ÙĨ
Ø§Ø± Ø¯
ĠØ´ Ø±ÙĬØª
ĠØ§ÙĨ ØµØŃ
âĢ ŀ
ÙģØª Ø®Ø±
Ġv er
ĠØ§ÙĦÙħØ¬ Ø§ÙĩØ¯ÙĬÙĨ
ĠØŃØ³ ÙĬÙĨ
ĠØ§ÙĦÙģØª Ø§Ø©
ĠÙĬØ§Ø³ ÙĬÙĨ
ĠØ§ÙĦØ£Ø¯ ÙĦØ©
ĠÙħÙĪÙģ ÙĤØ©
ĠÙħ ÙģÙĬØ¯Ø©
ĠÙħ Ø¨Ø±ÙĪÙĪÙĥ
ĠÙĦ Ø§ÙĥÙĨ
Øµ Ø§ØŃ
ĠÙĩØ§Ø¯ ÙĪÙĥ
ĠØ´Ø®Øµ ÙĬØ§Øª
ĠØ³Øª Ø©
ÙĨ Ø§Ø©
ĠÙħÙĨ Ø´
ĠÙħÙĨ Øµ
ĠØ§ÙĦÙħ ÙĤØ¯ÙħØ©
ÙĪÙħ ÙĬÙĨ
ĠØ§ÙĦØ¬ Ø³Ùħ
ĠØ¨Ø± ÙĤÙħ
Ġ '
ĠÙĪ Ø¯Ø§Ø±
ĠÙĦ ØªÙĪ
ĠÙħÙĨ Ø¨Ø¹Ø¯
ĠØ§ÙĦØ¹ Ø´Ø±
ĠðŁĺ İ
ĠØ¨ÙĦ Ø¯ÙĬØ©
Ġd er
ÙħÙĪ Ø²ÙĬÙĨ
ĠÙĤØ± Ø§ÙĬ
ĠØ£Øµ ÙĪÙĦ
ĠÙĪØ§Ø³ Ø¹
ðŁ© ·
ĠØ§ÙĦØ£Ùģ ÙĥØ§Ø±
ĠØ§ÙĦ ÙĨÙĬ
ĠØ¹ Ø§
ÙĪØ± Øª
ÙĬØ§ ÙĤØ©
ĠðŁĺ Ĳ
ĠØ§ÙĦÙĪ ØµÙĪÙĦ
Ġw as
Ġk ol
ĠÙħØ³ Ø§Ø¹Ø¯Ø©
ĠÙĬØ´ ÙĩØ¯
ĠØ§ÙĤØª Ø¨Ø§Ø³
] )
ĠØ§ÙĦ ÙĩÙĬ
ĠÙģ ÙĦÙĥ
ĠØ§ÙĦØ£ ÙĦÙħ
ĠØ§ÙĦØ¬ ØºØ±Ø§ÙģÙĬØ§
ĠØ§ÙĦÙģ Ø¶ÙĬ
ĠÙĪØ¨ ØŃÙħØ¯Ùĩ
cha lah
ðŁİ Ģ
Ġ ;
Ùģ Ø§Ø¸
ĠØ¹ Ø¨Ø±Ø©
ĠØ´ ÙĪÙĥ
ĠÙĪØ§ÙĦ Ø¯ÙĬÙĨ
ĠØ§ÙĦØª Ø®ØµØµ
ĠÙĪÙĦØ§ ÙĤÙĪØ©
ĠØ³Ø¨ØŃØ§ÙĨ Ùĥ
ĠØ³Ø¨ Ø¨Ø§
ĠÙħÙĪØ± Ø§Ùĥ
ĠÙĬ Ø¯Ø±
ĠÙĬ ÙģÙĬØ¯
ĠØ§Ø³ Ø§Ø³
ĠØ§ÙĦØ¥ ÙĦÙĥ
ĠØªØ¬ Ø±Ø¨
ĠÙĬÙĥÙĪÙĨ ÙĪØ§
ÙħÙĪ Ùĩ
ĠÙħØ® Øª
ĠÙĬÙħ Ø§Ùĥ
Ø§ÙĦØŃÙħØ¯ ÙĦÙĦÙĩ
: "
ĠØ± Ø§Ø¨Ø¹
Ø§Ø³ Ùĥ
ĠØ¨Ø§ÙĦ Ø®ÙĪÙģ
ÙģÙĬ Ø²
ĠØŃÙĬØ§Øª ÙĨØ§
ĠÙĥØ±Ùĩ Øª
ĠØ§ÙĦÙĤÙĪ Ø§Ø¹Ø¯
ĠÙħ Ø²ÙĬØ©
ĠÙĬ ÙĪÙĨØ³
Ø§ÙĨ Ø³Ø§ÙĨ
Ø¹ÙĦÙĬ ÙĤ
Ø´Ùģ Ùī
Ø§ÙĪØ¨ ÙĨÙĬ
ĠØ§ÙĦØ´Ø¹ ÙĪØ±
Ùħ Ø³Øª
Ø¯ ÙĪØ¯
Ø£ Ø«Ø±
Øº ÙĦØ¨
Ø§Ùģ Ø¸Ø©
ĠØ¨Ø§ÙĦ ØŃÙĤ
ĠâĿ¤ ðŁĺĤ
ĠØ§ÙĦØ± Ø¤
Ø³ÙĬ ÙĪ
ØªØ§Ø¨ Ø¹Ø©
ir st
ĠÙĪØ¨Ø¹Ø¯ ÙĩØ§
6 7
ĠÙĪ ÙĤØ±
ĠØ§ÙĦØ¬ ÙħÙĦ
Ø¹Ø¨ Ø§Ø¯Ø©
ĠÙĪØ± Ø¬
Ġc a
ĠØ¹Ø§Ø¬ ÙĦØ§
ĠÙħ ÙħÙĬØ²Ø©
ĠÙĬ Ø§Ø£
ĠØ§ÙĦÙĨ Ø¹Ùħ
ĠÙĪÙĦØ§ ÙĪ
ĠÙĪØª Ø³Øª
ĠÙħØª ØŃÙħ
ĠØ£Ø® ØªÙĨØ§
ĠØ§ÙĦÙħÙĨØ§ ÙģÙĤ
ĠÙģ Ø¸
ĠÙĪØ§ÙĦ ÙģØ±
Ø§Ø¦ ÙĬØ§
Ġ20 19
ĠØ§ÙĦØº Ø±ÙĬØ¨
ĠÙĦÙĦÙħ Ø³ÙĦÙħÙĬÙĨ
Ø§Ø· Ùģ
ĠØ§ÙĦÙĨØ¬ ÙĪÙħ
ĠÙĥÙĪØ± Ø§Ø¬
+ +
ĠÙħ Ø§ÙĦÙĬ
ÙĤ Ø¶
ĠØ§ÙĦØ± ÙĪØ§ÙĬØ©
Ø¨Ø¯ Ø§Ø¹
ĠÙĪÙĤ Ùģ
ĠÙĨÙĨ ØµØŃ
n j
Ø« ÙĬÙĦ
ĠØµ ÙģØ±
ĠØªØŃ ÙĤÙĤ
Ø¦ ÙĦØªÙĥ
** *
ĠÙĨØŃ Ø§ÙĪÙĦ
ĠØ§ÙĦØ¹Ø± Ø§ÙĤ
ĠØ¨ ÙĪÙĨ
ĠØª ØµØŃÙĬØŃ
ĠðŁ ĵ
ĠÙĬØŃ Ø¨Ùĩ
Ø§ÙĦÙħ ÙĪÙĨ
ĠðŁĴ ĵ
ĠÙĪØ§ÙĦÙħ Ø³ÙĦÙħ
ĠØ£Ø³ Ø¹Ø¯
ĠÙħØ³ÙĦÙħ Ø©
8 9
ĠØ¨ Ø¶
ØªØ¨ ÙĬÙĨ
ĠØ£Ùħ Ùĩ
ĠØ¹Ø¨Ø¯ Ùĥ
ĠÙĦØ£ Ø®
Ø§ÙĩØ¯ Ø§Øª
ĠØ§ÙĦØªØ¹ÙĦÙĬ ÙĤØ§Øª
ĠØ£Øº ÙĦØ¨
4 3
ĠÙĪØ¬ Ø¨
ĠØ§ÙĦØ¯Ø± Ø§ÙĩÙħ
ĠÙĤØµ ÙĬØ±Ø©
ĠØ±Ø§ÙĬ ØŃÙĬÙĨ
ĠÙĪØ§ÙĦØŃ Ø¯ÙĬØ«
ĠÙħØ¶ Ø§Ùģ
ĠØ¥Ø³Ùħ Ø§Ø¹ÙĬÙĦ
ĠÙģ Ø§ÙĦÙĦÙĩ
ĠØ´ Ø±ÙĬØ¹Ø©
Ø¯Ø± Ø§Ø³Ø©
ĠØ§ÙĦÙĩ Ø¬Ø±Ø©
ĠÙĥØªØ¨ Ùĩ
ĠÙĨ Ø§ÙģØ¹
ĠØ§ÙĦØª ÙĤØ¯ÙĬØ±
ĠÙħØ¬ Ø§Ø²
ĠØ§Øª Ø®Ø°
ĠÙĤØ± Ø§Ø¡
ĠÙģÙĤØ§ÙĦ ÙĪØ§
ĠÙĪÙĬØ¨ Ø§Ø±Ùĥ
ĠÙĤ Ø§
ĠØ§Ø³Øª Ø·ÙĬØ¹
Ġf el
ĠØ¨ØŃ ÙĥÙħ
ĠØ§ÙĤØª ØµØ§Ø¯
ÙĪ Ø§ÙĦØŃ
ĠÙģ Ø§ÙĬØ±
Ø· ÙĬØ¨
Ø§ÙĬ Ùĥ
Ø§Ø¸ Ø±
Ø· Ø¨ÙĤ
ĠØ§ÙĦÙĤ Ø¯Ø±Ø©
ĠØªÙĪ ÙĤ
ĠØ£ØŃØ¨ Ùĥ
ĠØµØ¯ÙĬ ÙĤÙĬ
ÙĤ Ø§Ø¨
Ø´ Ø§Ø±Ø©
ĠÙĬØŃ Ø³ÙĨ
Ø§Ø· ÙģØ©
Ġs h
ĠÙĦØ£ ÙĬ
ĠØ¶ØŃÙĥ Øª
ĠØ®Ø§ÙĬ Ùģ
ĠØ²ÙĬÙĨ Ø¨
ĠØ§ÙĦÙħØªØ§Ø¨ Ø¹Ø©
A llah
ĠØ± ÙĪÙĬ
ĠÙĪØ¹ Ø¨Ø¯
ĠØ§ÙĦØ£Ø´ Ø®Ø§Øµ
ĠØ·Ø±ÙĬ ÙĤØªÙĥ
l l
ĠÙħ ÙĬØ±
ĠØ¨ Ø±Ø¨
ĠÙĬ Ø¨Ø¯Ø£
ĠØª ØµÙĦØŃ
ĠÙĨ ÙĤØ¯
ĠÙĪØ£ ØŃ
ĠÙĪØŃ Ø¨
ĠØ¨ÙĬ ÙĪØª
ĠØ§ÙĦÙĤØ± Ø·Ø¨ÙĬ
Ġma k
ĠØŃØ± ÙĬØ©
ĠÙħÙĪØ± Ø§ÙĬØ§
ĠØ§ÙĦÙħØ¤ Ø±Ø®
Ġ <
ĠÙĥ Ø³
Ø° ÙĥØ§Ø±
Ø§Ø³ ÙĦ
ĠØªØª Ø±Ùĥ
ĠØ±Ø§ØŃ ÙĪ
ĠÙĬØ¨ ÙĬÙĨ
ðŁĻĤ ðŁĴĶ
ÙĥØ±ÙĬ Ø§Øª
Ø¶ØŃ ÙĬØ©
ÙĪ Ø¨ÙĬ
Ø¹ Ø¸Ùħ
ÙĤØ± Ø§Ø·ÙĬØ©
ĠØ§ÙĦØ· Ø¨ÙĬØ¨
ĠØ§Ø¬Ø± ÙĥÙħ
ĠÙĪ ÙĦØ¨
ÙĦÙĪ Ø³
ĠØ§ÙĦÙĬ ÙĤÙĬÙĨ
ĠÙĦÙĤ Ø§Ø¡
ĠØ¯ÙĪÙĥ Ø§
ÙĤ Ø§Ø¹
ÙĦÙĬ Ø·
Ø§Ùħ ÙĬØ©
Ø¯ÙĬ ÙĩØ§
ĠØ§ÙĦÙģ ÙĦØ³
ÙĤØ¯Ø± ÙĪØ´
ĠÙĬØ¯ ÙĪØ±
ĠÙĤØ¨ ÙĦÙĩ
Ø® Ø§Ø°
Ø¹Ø¯ Øª
ÙħÙĬ Ø§
ĠðŁĺ ĩ
ÙħØ± Øª
ĠðŁ¤ Ĺ
ĠØ§ÙĦØ¸ Ø§ÙĩØ±Ø©
ĠØ§ÙĦØ§ØŃ Ø¯
Ġyou tu
p a
Ø² ØŃ
ðŁĺ ©
ĠØ¥ Ø¶Ø§ÙģØ©
Øº ÙĨÙĬ
ĠØ§Ø³Øª Ø®Ø¯Ø§Ùħ
ĠØ£ØŃØ¯ ÙĩÙħØ§
ĠØ²ÙĪØ¬ ÙĬ
ĠØªØ£ Ø®Ø°
ĠÙĨØ¸ Ø±Ø©
ĠØ²Ùĩ Ø±ÙĬ
Ø§Ø± Ø¬ÙĬ
ĠØ§ÙĦÙħ ØŃØ¯Ø«
Ø§Ø³Øª Ø¹Ø§Ø±Ø©
ĠØ§ÙĦØ° Ø§Øª
ĠØ§ÙĦØ£Ø³ Ø±Ø©
6 2
Ùħ Ø§Ùĥ
ĠØª Ø®ÙĦØµ
ĠØ§ÙĦØ¹ ÙĦØ§ÙĤØ©
ĠØ§ÙĦÙĪ ØŃÙĬ
ĠØ§Ùħ Ùĥ
ÙħØ³ Ùĥ
ĠÙĦ ÙĪØ¬Ùĩ
ĠÙĬ ÙĦØª
ĠØª Ø³ÙħÙī
ĠÙĨ ÙĪØŃ
ĠØŃ ÙĥÙĬØª
ØŃØª Ø§Ø¬
Ø§Ø¤ ÙĦ
ĠÙĬØªØŃ Ø¯Ø«
00000000 00000000
ĠÙĪ ØªÙĩ
ÙĨØª ÙħÙĨÙī
ha d
ĠØ§ÙĦÙħØµ Ø·ÙģÙī
Ġch e
Ãª me
ĠØ¹Ø§Ø± ÙģØ©
ĠØ§ÙĦØ§ÙĦØª Ø²Ø§Ùħ
u p
ĠÙĪ Ø³Ø±
ÙĦØ§ ÙĤØ§Øª
Ø¨ÙĬØ¨ ÙĨØ§
ĠØ£Ø³Øª ØºÙģØ±
ĠØ§Ø¬ØªÙħØ§Ø¹ ÙĬØ§Øª
ĠØ§ÙĦÙħØ° ÙĥÙĪØ±
Ġâĺº ï¸ı
Ùħ ØªÙĩ
ĠÙĦ Ø¹ÙĦÙħ
ĠÙĪØ§ÙĦ ÙĩÙħ
en ce
ĠØ¨ ÙĦÙĤ
ĠÙģ Ø±ÙĬÙĤ
ĠØ§ÙĦØŃ Ø³ÙĬÙĨ
ĠØ§ÙĦØ´ Ø§ÙħÙĦØ©
ĠØ° ÙĨ
ĠØ§ÙĦÙħØ± Ø³ÙĦÙĬÙĨ
ÙĬ Øµ
ÙĨ Ø§Ùħ
ðŁĺ ı
ĠÙĪØ§ÙĦ Ø¬ÙĨ
ĠØ§ÙĦØª ÙģÙĥÙĬØ±
ĠØº Ø±Ø¨
ĠÙĪØ´ ÙĨÙĪ
ĠÙĪÙħÙĨ ÙĥÙħ
ĠØ§Øª Ø¨Ø§Ø¹
ĠÙĪØ§Ø³ ÙĥÙĨÙĩ
t k
ĠØ´ ÙħØ§ÙĦ
ÙĪÙĨ Ø¯
Ø§ÙĪ ÙĪ
ÙĪØ¯ Ùĩ
ĠØ¬Ø§Ùħ Ø¹
ĠØ§ÙĦØ§Ø· ÙģØ§ÙĦ
ĠØ£ Ø³Ø¨ÙĪØ¹
âĿ¤ ðŁĺĤ
ĠØ§ÙĦØª ÙħØ§Ø±ÙĬÙĨ
ĠØ§ÙĦÙĨ ØµØ±
ĠÙĦÙħ ÙĪ
ÙĩÙĬ Ùĩ
ĠB ac
ĠØ§ÙĦØ¬Ùħ ÙĩÙĪØ±
ðŁ© ¹
Ø§ÙĦ ØªÙĩ
Ø§ÙĦ ØŃÙĥØ§ÙĬØ©
Ø¨ Ø§Ùĩ
ĠØ£ Ø°ÙĥØ±
ĠÙĨ Ø§Ø¶
ĠØ± ÙĤØ§Ø¯
Ø³Øª Ø§ÙĨ
ĠØ§ÙĦØ³ Ø¬ÙĨ
Ġb l
ĠÙĬØ® ØªÙĦÙģ
da k
ĠØ±Ø²ÙĤ Ùĥ
ĠÙĨÙĤÙĦ ÙĥÙħ
7 9
ĠØ³ ÙĨØ¯
Ø§Ùģ ÙĤØ©
ĠØ§ÙĦØ¯ ÙĪØ±Ø©
ĠØ¨ ÙĪØ¹
Ø§ÙĨÙĬ ÙĬÙĨ
Ø§Ø· Ø¨
ÙħÙĥÙĨ ÙĬØ©
ĠØ±ÙĬ Ø¯ÙĬÙĥØ³
ÙĪÙĦØ§ ÙĬØ©
ĠÙĪØ§ ÙĤØªØµØ§Ø¯
Ùħ Ø§Ø¯
ĠðŁĴĶ ðŁĴĶ
ĠÙĬ Ø§Ø¨
ĠÙĨ ÙĥØ±Ùĩ
ĠÙĨ Ø¨Ø¹Ø«
ĠØ± Ø§Ø¯
ĠØ± Ø§Ùģ
ØªÙĬ ÙĦÙĬ
ĠÙħÙĦÙĬ Ø§Ø±
ĠÙģØ± Ø§ÙĤ
ĠØ§ÙĦØ®Ø§Ùħ Ø³Ø©
Ġ or
ĠÙĬ Ø¯Ø±Ø³
ĠØª ØªØ±
Ø· Ø¦
ðŁĺ Ģ
Øº ÙĬÙĦ
Ø¹Ùħ Ø±ÙĬ
Ø·ÙĬ ÙĥÙħ
ĠØ§ÙĦÙģÙĤ ÙĬØ¯
ÙħØ§ ÙĬ
ĠØ· Ø¹Ø§Ùħ
ĠØŃØ± ÙĪÙģ
ĠÙĬÙĥ Ø°Ø¨
ĠÃ §a
Ø¬ ÙĪÙħ
Ø³ÙĬ Ùħ
ĠÙĨÙģ ØªØŃ
ĠØ§ÙĦØªÙĤ ÙĦÙĬ
w al
Ø¯ Ø§Ùĥ
ĠØ§ÙĦÙħ Ø¯Ø§Ø±Ø³
ÙĦØ§ Ø§Ùħ
Ġ- -
Ø³ÙĬ Ùģ
ĠØ§ÙĦØ¯ ÙĪØ±
Ø§Ø® Ø°
ĠØ¯ÙĬÙĨ Ùĥ
ĠØ§ÙĨÙĪ Ø§Ø¹
l t
ĠØ§ÙĦÙĨ ÙĤÙĦ
ĠØ² ÙĪ
ĠÙģØ§ÙĦ Ø¯
ĠØ¨ØŃ Ø³Ø¨
ĠØ£Ø¯ Ø¨
Ùĩ ÙĪÙĦØ©
ĠØ§ÙĦÙħ Ø¬Ø±
ĠÙĦÙĬ ÙĥÙĪÙĨ
ĠÙħØ¹ ÙĨØªÙĩØ§
ÙĤØ± Ø§Ùħ
Ġn s
ĠØ¨ÙĬ Ø²Ø§Ø±
ĠØ§ÙĦØ² ÙĥØ§Ø©
ĠØªØ± Ø§Ø¨
ĠØ§ÙĦÙħØ¬ Ø§ÙĩØ¯
ĠØµØ¯ Ø±ÙĬ
Ø§ÙĦ ÙħØ±
ĠÙĬ ÙĥÙħ
ĠØ£ ØªÙħ
ĠØ§Ø³ ÙĦÙĪØ¨
ĠØªÙĤ Ø¹
ĠÙĨØ¯ Ø¹Ùħ
ĠØ§ÙĦÙĨÙģØ³ ÙĬØ©
Ø± Ø§Ùģ
ĠØ£ ÙĤÙĪØ§ÙĦ
Ø±Ø¨ ØŃÙĪ
ĠØ§ÙĦÙĤÙĨ ÙĪØ§Øª
Ø® Ùħ
ĠÙĤ Ùħ
ĠØ³ ÙĪØ¯Ø§Ø¡
ÙĦÙħ Ø§Ø°Ø§
Ø§ÙĬ Ø¯Ø©
ĠÙħÙĨÙĩ Ø¬
ĠðŁ¥º ðŁ¤²
ĠÙĪØ£ÙĨØª Ùħ
ĠØ±Ø£ÙĬ ÙĬ
r c
Ø§Ùħ Øª
Ø¯ÙĬ Ø´
ĠÙĪÙĬ ÙģØ±ØŃÙĥ
ÙĬÙħ ÙĪ
ÙĪÙĩ ÙĪ
ĠÙĬØ³Øª Ø§ÙĩÙĦ
ĠØ§ÙĦÙħØ³ ÙĦØ³ÙĦ
ĠØ¶Ø¹ÙĬ ÙģØ©
ĠØ§ÙĦØ¥ÙĨ Ø¬ÙĦÙĬØ²ÙĬØ©
d k
ÙĦ Ø²Ùħ
ÙĨ ØŃ
ĠØª ÙĪØ¹
ĠØ§ÙĦÙĤ Ø§Ø¯ÙħØ©
ĠÙĪØ£ ÙĪÙĦ
ĠÙħØª Ø§Ø¨Ø¹ÙĬÙĨ
Ġ20 16
ĠÙĨØ³ Ø®
ĠØ§ÙĦØ¯Ø± Ø§Ø³ÙĬ
Øª Ø±Ùģ
ĠØ¨ ÙĪØ±Ùĥ
Ø§Ùģ Ø§
ÙĤÙĬ Ø§Ùħ
Ġp re
ĠØªÙĨ Ø²ÙĬÙĦ
ĠÙĤØ¯Ø± Øª
ĠØ§ÙĦØªØŃØ± Ø±
ĠÙĬ Ø°
ĠØ§ÙĦÙħ ÙĥØª
ĠØ¨Ø§ÙĦ Ø¶Ø¨Ø·
Ø¯Ø§ ÙĤØ©
Ø¹ÙĦ ÙĤØ©
ÙĪÙĬ Ø³
ĠØ¯ÙĬÙĨ Ø§Ø±
ĠØµØŃÙĬØŃ Ùĩ
ĠØ¯Ø±ÙĪ Ùĥ
ĠØ·Ø¨ÙĬ Ø¹ÙĬ
ĠØŃ Ø³ÙĬ
ÙģØ³ Ø§Ø¯
ĠÙħØª Ø±
ÙĤØ§ÙĦ ÙĬØ¯
ĠØ§ ÙĤØ±Ø§ÙĬ
Ø¯ÙĪ Ø§Øª
Ġv e
ĠØªØ³ ÙĬØ±
ĠÙĤØ± Ø§
Ø§ÙĦ ÙĪØ±ÙĬØ§Øª
ĠÙĪÙħ ÙħØ§
ĠÙĨØŃ Ø³Ø¨
ĠÙĬØª Ø¹ÙĦÙħ
ĠÙĦØ¨ Ø§Ø±ØŃ
Ġha y
ĠÙĤØ¯Ùħ Øª
ĠÙĪØ³ÙĬ ÙĦØ©
I N
ÙĨ ÙĩØ§Ø±
ĠÙĪ Ø³Ø¨
ĠÙĥ Ø±Ø©
ÙĦÙĪ ÙĩÙħ
ĠÙĪØ§ÙĦÙħ ØŃ
Ø¶Ø± ÙĪØ±Ø©
ĠØªØ· ÙĦØ¨
ÙĦ ØŃÙĤ
ĠØ® Ø§ÙĪØ©
ÙĪØ§ ÙĤÙĬ
ĠØªØ¹ ÙĦÙĤ
ĠØªØŃ ÙĦÙĬ
ĠÙĪØª Ø¨
Ø²ÙĬ ÙĪÙĨ
ĠØ¯Ø§Ø± Ø§
ĠÙĤØª ÙĦØªÙĨÙĬ
ĠÙĨØªØ¨Ø¹ Ùĥ
J e
Ùĥ Ø§ÙħÙĦ
ÙĤ ÙĦÙĥ
ĠØ¨ ÙģØ±
ĠØ¨ Ø§Ø±ÙĬ
ĠØ¹ ÙĪÙĨ
ÙĬØ± ØŃÙħ
ĠÙĤ Ø§Ø¯
Ø« ÙĬÙĨ
ĠØ§ÙĦØ± Ø§Ø¨
ØªÙħ Ø§Ø¯
ĠØªÙĤ ÙĦÙĬ
ĠØ¹Ùħ ÙĦØ§
ĠÙĪÙĤ ÙĦØª
ĠÙħÙĤ Ø§Ø±ÙĨØ©
ĠØ´Ø± Ø¹ÙĬØ©
ĠØ¨Ø§Ø± Ø¯Ø©
Ø¨ Ø´
ĠÙĦ Ø°
ĠØ£ ÙĥÙĦ
Ø« ÙĦÙĩ
ÙĤØ§ÙĦ Ùĥ
ĠØªØ¬ Ø§ÙĪØ²
Ø§Ø¯Ø± Ø§Ùĥ
ÙĨÙĪ Ø¹Ø©
ĠØ®ÙĬ ØªÙĬ
ĠÙħØªØ§Ø¨Ø¹ ØªÙĥ
Ø¸ÙĬ ÙħØ§
ĠØ§ÙĦØ®Ø§Ùħ Ø³
ĠÙĨÙĨØª Ø¸Ø±
v id
Ø« Ø§ÙĨ
Ø§ØŃ Ø¸
ĠÙĪØ£ ÙĩÙĦ
ĠØ¨ÙĦ Ø§ÙĦ
ĠØ§ÙĦØŃÙĦ Ø§ÙĦ
ĠÙĦØ´ Ø¹Ø¨Ø©
E S
ĠÙĪ Ø¯ÙĬØ±
Ø³ Ø®Ø±
ĠØ¨ ØºÙĬ
ðŁĺ Ħ
ĠØ§ÙĦØ¹ ÙĩØ¯
Ø¥ Ø°ÙĨ
ĠØ§ÙĦØ¥ ÙĦÙĩ
ĠØ§ÙĦÙĪ Ø¬ÙĪØ¯
Ø³Ùħ Ø¨Ø±
ĠØ®ÙĪ ÙĨØ§
ĠØªÙĪ ÙĤÙĬ
ĠÙĦØ£ÙĨ ÙĨÙĬ
ĠØ§ÙĦØ£Ø³ ÙĪØ¯
Ġpro f
ĠÙĦÙĦÙħÙĨØª Ø¯Ùī
ĠÙħ ÙģÙĬØ¯
ĠÙĬ Ø±ÙĪ
ĠÙĬ ØºÙĬØ±
Ùī Ø¡
Ø±Ùģ ØªØ´
ĠØ´Ø± Ø§Ø¡
Ġfi h
ĠÙĬØ¤ Ø¯ÙĬ
ĠØ£Ø±Ø¨ Ø¹
ĠÙħÙĨØ¹Ø±Ùģ Ø´
ĠÙĩ Ø¨Ø·
ÙĪÙĨ ÙĬØ´
ĠØ§ÙĦØ£ ØŃÙĥØ§Ùħ
ĠØ§Ø³ Ø§ØªØ°Ø©
Ġl y
ĠÙĬØ´ Ø±ØŃ
ĠØ¹Ø§Ùħ Ø±
ĠÙĪØ§ÙĦÙĪ Ø§Ø¬Ø¨
ĠØ¹Ø±Ùģ Ø©
ÙħÙĥ Ø§Ø´
ĠØ§ÙĦØ´ Ùĥ
ĠÙħÙĪ Ø§ÙĦ
ĠØ¯Ø± ÙĦÙĨØ§
ĠÙĦ Ø¨ÙĦØ§Ø¯
Øµ ÙĦÙĨØ§
ÙĨØ§ ÙĩÙħ
ĠØ§ÙĦÙĤ Ø§Ø¶ÙĬ
ĠðŁĺ ¹
ĠØ±ØŃÙħ ÙĩØ§
ÙģÙĦ ØŃ
ĠØ®Ø§Ø· Ø±Ø´
ÙĬ Ø§ÙĪØ¯ÙĬ
ĠÙģÙĬ ÙĨ
Ø² ÙĪÙĨ
Ø¶ Ø§Ø¹
ĠØ´ ÙĨ
ĠØ® Ø¯
âĿ Į
ĠØ£Ùħ ØªÙĬ
Ø¹Ø± Ø§Ø¨
ĠÙĨØµ ÙĪØµ
ÙĨØ³ ÙĤØ³ÙĬ
ĠØ¹Ùħ ØªÙĬ
Ġ5 00
ĠØ®ÙĦ ÙĤØª
ĠØ± ÙĨÙĬ
Ø±ÙĬ ÙģØ©
ĠØ§ÙĦØ¹ Ø¯ÙĦ
Ø²Ø§ÙĨ Ø©
ĠÙĨØ® ÙħÙħ
ĠÙĨÙĪØ¹ Ø§
ĠÙĬ Ø¨Øª
ĠÙĨ ÙģØ±
ĠÙħÙĨ Ø§ÙĦ
ĠØ¨Ø§ÙĦ ÙĤØ±Ø¢ÙĨ
ĠØªØŃ Ø¯ÙĬØ¯
ĠØ§ÙĦØ® ÙĬÙħØ©
ĠØ§ÙĦØ¥ Ø³Ø±
Ø§Ø· ÙĪ
ĠÙĪØ¬ Ø¹ÙĦÙĩØ§
ĠØ§ÙĪ ÙĦÙī
ĠÙĦÙĪ Ø§ØŃØ¯
Ġc ar
ĠÙħØ³ Ø§Ø¹Ø¯
ĠØ§ÙĦØ§ÙĨ Ø¨ÙĬØ§Ø¡
me d
ĠÙģÙħ Ùĥ
z iz
Ø¬ Ø§Ø¹Ø©
Øº Ø§Ø±
Ġha b
ĠØ¨Ø§ÙĦØ± ØºÙħ
r it
t es
ĠØ§ÙĦØ³ ÙĪÙĤ
ĠØ§Ø³ ÙĪØ¯
Ġs vp
ĠÙģØ§ÙĦ Ùĥ
ĠØªÙħ ÙĨÙĬØª
Ġ4 5
Ġkhou ya
) ).
A L
Ø§ ÙĤØª
Øª ØŃÙĬØ§ØªÙĬ
ĠÙĥ Ø±ÙĬ
ÙĩÙħ ÙĬØ©
Øº Ø±ÙĬØ¨
ĠØ§ÙĦØ¹ Ø§Ø¬ÙĦ
ĠØ¹Ø§Ùħ Ø§
ĠØ§ÙĦØ§ ÙĤØªØµØ§Ø¯
ĠØ®Ø¯Ùħ Øª
ĠÙħØŃÙħ ÙĪØ¯
ĠØ¨ ØµØ±Ø§ØŃØ©
Ø§Ø± Ø«
ĠØ¬ ÙĨØ³
ĠÙĦÙĦ Ø¯Ø§Ø±
ĠØ§ÙĦØ² Ø¨ÙĬØ±
ĠØŃØ¨ Ø§ÙĨ
ĠØ³ÙĤ ÙħØ§
Ùĥ ÙĬØ©
ĠÙħ ØªÙĩ
ĠØª Ø§ÙģÙĩ
Ø£ Ø³Øª
ĠØ§ÙĦÙħ ÙħØª
ĠØ§ÙĨ Ø¬ØŃ
ÙĥÙħ ÙĦÙĬ
ĠÙĪÙĨ ÙģØ¹
ĠÙĬØ³ Ø§Ø¹Ø¯
ĠØ§ÙĦÙħØ´ Ø§Ø±Ùĥ
ĠØ±ÙĪØŃ Ùĩ
ĠØ¨Ø§ÙĦ ØªÙĪ
ĠÙĪØ£ ÙĦÙĩÙħ
ĠØ§ÙĦÙĪ Ø³Ø·
ĠØ¶ÙĬ ÙģØ©
e x
ĠÙĩ Ø¯Ø±Ø©
ĠØ¨Ø§ÙĦ ÙĪ
ØªÙĪ ÙĨØ§
ÙĬØ¨ Ø§
ĠØ§ÙĦØ± Ø§ÙģØ¶Ø©
ĠÙĪØ¨ Ø§ÙĦØªØ§ÙĦÙĬ
ÙĪØ´ Ø©
ØŃ ÙĩØ§
ĠØ® Ø¨Ø±Ø©
ĠÙħØ¹ Ø¬
ĠÙħØ¹ Ø±ÙĥØ©
Ø¨Ø± Ùĩ
ĠØ§ÙĦÙĥ Ùģ
ĠÙħÙĪ ØµÙĪÙĦ
ĠðŁĴ ļ
ĠÙĦØ¹ ÙĨ
ĠØ§ÙĦØ®Ø· Ø§ÙĬØ§
ĠØµØ§ÙĦØŃ Ø§
ĠØ§ÙĦÙĨØ¹ ÙĬÙħ
ĠÙĦ Ø²
Ø§ÙĨ Ø¯
ĠÙħÙĨ ÙĥØ±
ĠÙħØ¹ Ø±Ø¶
ĠØ§ÙĦØ¬ Ø§ÙĨØ¨
ĠØ§ÙĦÙĨ ÙĩÙĬ
or mal
ĠØ¨Ø£ ÙħØ±
ĠÙĨØŃØ¨ ÙĪÙĥ
ĠÙĪØ§ÙĦØª ÙĤØ¯ÙĬØ±
ĠØ¯ÙĬÙĨ ÙĩÙħ
ÙĩØ§Ø¯ Ø§
ĠÙĩØ¯ ÙĬØ©
ĠðŁĻı ðŁı»
A l
ĠÙĨ ÙĩØ§
ĠÙĥ ÙĬØ¯
ĠØ³ Ø®
ĠØªÙĨ Ø¬
ĠØ§ÙĦØ§Ø³ Ø¨ÙĪØ¹
ĠÙĦØ£ Ø¬ÙĦ
ĠØ§ÙĦÙĨÙĩ Ø§Ø¦ÙĬØ©
. âĢı
ÙĬ ÙĪØ³Ùģ
ĠØ§ÙĦ Ø§ÙĦ
ĠØ® Ø°
ĠØ§Ø® ØªÙĥ
ĠÙħØ¬ ÙĦØ³
ÙħØ§ÙĨ ÙĬØ©
ÙĩÙĪ Ø¯ÙĬ
ĠØ§ÙĦØ§Ø® ÙĦØ§ÙĤ
Ø±ÙĬØ¯ Ø§ÙĥØ³
ĠØŃØ³ ÙĨØ§
ĠÙĪØ· ÙĦØ¨
ĠØ§ÙĦØ«Ø§ÙĨ ÙĪÙĬØ©
i b
ÙĬ Ø¨ÙĬ
ĠØª ÙĪØ³
ĠØ§ÙĦÙħ Ø±Ùĥ
ĠØ§ÙĦÙħ Ø³ÙĬÙĦØ©
ĠØ§ÙĦØ¬ Ø³Ø¯
ĠØ« ÙĪØ¨
ĠÙĪØª Ø®
ĠØ§ ÙĬØ©
ØµØ± Ùĩ
ĠØ§ÙĦØ«ÙĤ Ø§ÙģØ©
7 5
Ùħ ÙĤ
Ø¬ Øª
ĠÙĥ ÙĦÙĬØ©
Ø¯ÙĬ Ø¬Ø©
ÙĥÙĬ Ø´
ĠØ§ÙĦØµ Ø§Ø¯ÙĤ
Ġl bac
ĠØ§ÙĦØ§ØŃ Ø±Ø§Ø±
Ġr bi
ĠÙĪØ¹ÙĨ Ø¯ÙĬ
ĠðŁĺģ ðŁĺģ
ĠÛ ŀ
ĠÙħÙĨ Ø²ÙĦ
Ø£ Ø®ÙĬ
ĠØ§ÙĦØ¹ Ø³ÙĥØ±ÙĬØ©
ĠØ§ÙĦØ³ Ø¬ÙĪØ¯
ĠØ§ÙĦØµ ÙģØ±
ĠØ¨ÙĨ ÙĬØ©
ĠÙĪØª ÙĤÙĪÙĦ
ĠØ¶ Ø±Ø¨Ø©
ĠØ£Ø¹Ø· Ùī
ĠÙĬØµØ¨Ø± ÙĥÙħ
m ou
Ø¯ ÙĨ
Ø° Ø±Ø©
ĠÙĦÙĦ ØªÙĪ
ĠØ§ØŃ ÙĦÙī
ĠØ§Ø¬ ÙĨØ¨ÙĬØ©
ĠØ§ÙĦØ§Ø¬ØªÙħØ§Ø¹ ÙĬØ§Øª
ÙĪ Øº
ĠØ£ Ø¨Ø¯
ĠØ¬ Ø±Ø¨Øª
ĠØ§ÙĦØ¹ ÙĤØ¯
ĠØ¹Ùħ ÙĦÙĥ
ĠØªØ£ Ùĥ
ĠØ§ÙĦ Ø¶Ø¹Ùģ
ÙĪÙĦ ÙĪØ§
ĠØ® Ø³Ø§Ø±Ø©
ĠÙĪÙĬ ÙĪØ³Ø¹
ĠÙĪÙĥ ØªØ¨
Ġma y
ĠØ±ÙħØ¶Ø§ÙĨ Ùĥ
ĠØ¹Ø´Ø± ÙĬÙĨ
ĠÙĦØ´ Ø®Øµ
ĠØ§ÙĦ ÙĬÙħ
ĠØ£ÙĨ ÙĪ
Ø¨Ø± Ø²
ĠØ§ÙĦØµ ÙĪÙħ
ĠØ« ÙħÙĨ
ØŃÙĦ Ø§ÙĦ
ĠÙĬØ±Ø²ÙĤ ÙĨÙĬ
ĠÙĦ ÙģÙĬ
ĠØŃ Ø§ÙĦÙĥ
ĠØ´ Ø¬Ø±Ø©
ĠÙĪØ§ÙĦ Ø§Ø¹
ĠØ£Ùħ ÙĪØ§ÙĦ
ĠØªØ¬ ÙħØ¹
ÙĩØ¯ Ø§Ùģ
ĠØ®ÙģÙĬ Ùģ
ĠØ§ÙĦØŃØ¶ Ø§Ø±Ø©
ĠØ¹ Ø¬Ø²
ĠØµ Ø§Ø¨
Ø·ÙĬ Ùĩ
ĠÙĨØ¯ÙĬ Ùĩ
ĠØ¨Øµ ÙĪØª
ĠØ³Ùħ Ø§Ø¹
ØµØ§Ø± Ùī
ĠØ§ÙĦÙĤØµ ÙĬØ¯Ø©
ÙĤÙĬ ÙĤÙĩ
ÙĥÙĬ ØªØ´
ĠØ§ÙĦØµ ØºØ±
Ġd j
Ġd is
ĠðŁĴ ŀ
ĠÙĬÙħÙĥÙĨ ÙĨÙĬ
ĠØ³Ø£ ÙĦØª
ĠØ§ÙĦØ·Ø¨ Ø®
ĠØ§ÙĦØ¶ÙĬ Ùģ
ĠÙĬÙģØ±ØŃ ÙĨØ§
Ø¨Ø§ÙĬÙĨ Ø©
h b
ĠÙģ Ø¹ÙĨ
ĠÙĨ ÙĬØ©
Ø§Ùħ Ø¹Ø©
ĠÙĪØ§ÙĦ ÙĦÙĤØ¨
ĠØ¯ ÙĬÙĨÙĬ
Ø§ØŃ ÙĥÙĬÙĦÙĨØ§
ĠÙĪÙĨ Ø´ÙĪÙģ
ÙĦÙĤ Ø§Ø¡
Ø²ÙĬ Ø§Ø¯Ø©
ĠØ§ÙĦØªØ¬ Ø±Ø¨Ø©
ĠØ§ÙĦØ¹ÙĤ ÙĦÙĬØ©
ØºØ§ÙĨ Ùħ
B on
ÙĪÙĦ ÙĥÙĨ
ÙĪØ± ÙĬÙĨ
ĠØ§ÙĦØª Ùī
ĠØ§ÙĦÙĪ Ø²
ĠØªÙĨ ÙģØ¹
ĠÙģØ± Ø¹ÙĪÙĨ
ĠÙĤØ± Ø§Ø±
ĠØªØ¨ Ø³Ø©
ĠØŃÙģØ¸ Øª
ĠØŃÙĥÙħ Ø©
Ġpar t
Ùł Ùł
ĠÙĪÙĬÙĨØ¬ØŃ ÙĨØ§
p i
ĠÙĬ ÙĦØ§
Ø§Ùħ ÙĬÙĬÙĨ
Ø« Ø±ÙĬ
ĠØ¨Ø§ÙĦ Ø¯Ø¹Ø§Ø¡
ĠØ§ÙĦØª Ø±Ø§Ø¨
ĠÙħÙĪ Ø³ÙĬÙĤÙī
ĠØ§Ø¹ Ø·ÙĬÙĨÙĬ
al lah
Ø¨ ØªÙĩØ§
Ø§ÙĬ ÙħØ§
ÙħØ± Ø§Ø±
Ø³ÙĬ Ø·
ĠÙĬØ£ ÙĥÙĦ
4 1
Øª Ø¯ÙĬ
ĠØ£ ÙĥØ±Ùħ
ĠØ± Ø¯ÙĥØ³
on a
ĠØªÙĨ Ø´Ø±
ĠØªØª Ø¹ÙĦÙħ
ĠØªÙĥ Ø°Ø¨
ĠØ§ÙĦÙħÙģØ¶ ÙĦØ©
A D
ĠÙĬØŃ Ø§ÙĪÙĦ
ĠØ§ÙĪ ÙĬÙĦÙĬ
ĠØ§ÙĦÙħØ¹ Ø§ØµÙĬ
ĠØ§ÙĦØ§Ø³Øª ØºÙģØ§Ø±
Ø¨ Ø§Ø´
ÙĥÙĪÙĨ Ø´
ĠØ±ØŃÙħ ØªÙĥ
ĠÙĨÙĪØ± Ø§
Ġch w
Ĩ Ĺ
Ùĩ Ø§Ø°Ø§
ĠÙĨ ÙģÙĬ
Ø« Ùĩ
ĠÙģØ§ÙĦ Ø´
ĠØªÙĪ ÙĤÙģ
ĠÙĨÙģØ³ ÙĬØ©
ĠØ§ÙĦÙħØ´ Ø±Ùģ
ÙĪØ§ÙĨ Ùĩ
ĠØ¨Ø§ÙĦØ¹ ÙĥØ³
ĠØ§ÙĦÙĨÙģ ÙĪØ³
ÙħØ¦ ÙĨ
ĠØ¹Ø±Ø´ Ùĩ
ĠÙĬ Ø¸ÙĨ
ĠØ§ÙĦØ³ ÙĬØ¯Ø©
Ø¦ ÙĬÙĨ
ĠØ§ÙĦØµ ÙĪÙģÙĬØ©
ĠØ§ÙĦØ· Ø§ÙĦØ¨
ĠØ¯ÙĬÙĨ ÙĨØ§
ØŃØ³ Ø¨ÙĬ
ĠØ£Ø³Øª Ø·ÙĬØ¹
ĠØ³ÙĬØ±ÙĬ ÙĪ
Ø¹ Ø±Ø¶
ĠÙģ ÙĦÙĤ
ĠØª Ø³Ø¨
ĠÙĤ Ø§Ø±
ØªÙĬ Øª
ÙĦÙĪ Ø¹
ĠØ§ÙĦÙĪ Ø¬
ĠÙĪÙĤ Ø¹Øª
ĠØ£Ø´ Ø±Ùģ
Ø¬Ø§Ø¨ ÙĬØ©
ĠÙĤØ¨ ÙĪÙĦ
ĠØªØ®ÙĦ Ø·
r f
Ø´ ÙĪÙģÙĬ
ĠÙĨ ÙĬØ´
ĠØ¨Ø§ÙĦ Ùĩ
ĠÙħØ¹ Ø³ÙĥØ±
ĠØ§ÙĦØ³ Ø¹Ø¯ÙĬ
ØªØ± Ø§Ùģ
ĠØ§ÙĦÙħÙĨ Ø§Ø³Ø¨
ĠØ§ÙĦÙħØ§Ø³ ÙĪÙĨÙĬØ©
ÙĪ Ø³Øª
ĠØ± Ø§ÙĪ
ĠØ³ Ø§Ø±
ĠØ§ÙĦÙĤ ÙĦÙĬÙĦ
ĠØ² ÙĥØ±ÙĬ
Ø§Ø® ÙĦ
Ġy dir
ĠØ§Ùĩ ØªÙħØ§Ùħ
ĠØ§ÙĦØ·Ø¨ÙĬ Ø¹Ø©
Øª ÙĪØ±
ĠÙħ ÙĦØª
Ø¬ Ø±Ø¨
ĠÙĬÙĩØ¯ÙĬ ÙĩÙħ
ĠÙĬÙģØ±ØŃ ÙĥÙħ
ĠØ§ÙĦÙĨØ¨ÙĪ Ø©
ĠÙĪ Ø§Ø«
ĠØª ÙĥÙĦ
ĠÙĨ Ø¨ÙĬÙĩ
Ø· Ø§Ø¬
ĠØ§ÙĦÙħ ÙħÙĬØ²Ø©
ĠØ´ ÙĩØ¯Ø§Ø¡
ØªÙĪ ÙĩØ§
ØªÙĩ ÙĨ
Ġt i
ar k
ĠØ¨Ùħ Ø³
ĠÙĤØ§ÙĦØª ÙĦÙĬ
ĠØ§Ø¯Ø¹ ÙĪÙĦÙĨØ§
Ġ q
Øª ÙĪÙĨ
ĠØ³ ÙĬØª
ØªØ§Ø¨ Ø¹ÙĬÙĨ
ĠÙģØ± ÙĨØ³ÙĬ
ĠØ§Ø´ Ø¹Ø§Ø±
ĠØ§ÙĦÙħØªØŃ Ø¯Ø©
ĠÙĪØ§ÙĦØ¨Ø± Ø¯
Ùģ ÙĬÙĨÙĬ
ĠÙģ Ø¹ÙĦÙĬ
Ø£ ÙħÙĨ
an e
ĠØŃÙħ Ø¨ÙĪÙĥ
oo k
ĠÙĩØ§ÙĬ ÙĦÙĬÙĨ
ĠØªØ±Ø¬ ÙħØ©
h ou
ÙĦ Ø®
ĠÙĤ Ø§Ø¯Ø±Ø©
ĠØ´ Ø§ÙĬ
ĠØ§Ø³Øª Ø¹Ùħ
ĠØ§ÙĦØ¯ ÙĬÙĨÙĬ
ĠØ§ÙĦØ² ÙĩØ±
ĠÙģØ± Ø§Ø´
ĠÙĪØ§Ø¹ Ø±Ø©
ĠØŃÙĥØ§ÙĬ ØªÙĥ
Øµ Ø§Ùģ
ĠÙĥ Ø§Ø¹
ĠÙĪØ§ÙĦ Ø¯ÙĬÙĩ
ĠØ§ÙĦÙĤ Ø¯ÙĬØ±
ĠÙĥÙĬ ÙĪØª
Ø§Øµ Ø¨
Ġt b
ĠØ§Ø¨ÙĨ Ùĩ
ĠØ§Ùģ Øª
ĠØ§Ø· ÙĦ
4 2
Ø¯ ÙĨÙĬ
ĠÙħ Ø¨ÙĤØ§Ø´
ĠØ¨ Ø¯Ùħ
ĠÙĪØ§ÙĦÙħ Ø¤ÙħÙĨ
ðŁĮ ļ
ĠØ³Ùħ ØŃ
ĠðŁĴª ðŁĴª
ĠÙħØ³ÙĥÙĪÙĨ Ø©
ÙĬØ± ÙĩØ§
ĠØ¯ Ùģ
ÙħØ§ ÙĤ
ĠØ§ÙĦØ³ Ø§Ø¦ÙĦ
Ø§ÙĤ Ø³Ùħ
ĠØ¨ÙĦ Ø¹Ø¨Ø§Ø³
ĠØ§Ø¬ ØªÙħØ¹
ĠÙħ ÙĥÙħ
ĠØ¨ ÙħÙĪ
ÙĦÙĬ ÙĬÙĨ
ĠÙĥ ÙĪÙĦ
Ø£ Ø®
ÙģÙĬ Ø´
Ġa pp
Ġf in
ĠØ§Ø¯ Ø¹ÙĪØ§
ĠØ¹ÙĦÙħ ÙĬÙĬÙĨ
ĠØ§ÙĦÙģØ± ØŃ
ĠY ou
a ha
ÙĪ Ø¯ÙĬ
ĠØ£ ÙĦÙĩÙħ
ĠØ£ Ø°ÙĨ
ĠÙĥ Ø§ÙģØ©
ĠØŃ Ø²ÙĨ
Ġt ah
ĠÙħØª Ø¨
Ã ®
ĠÙĪØ§ÙĦ Ø§Ø³
Ø§Ø¹ Ùĥ
ĠØ§ÙĦÙĤ Ø§Ø³Ùħ
ĠØ§Ø¹ ÙĦÙī
ØŃØ± Ùħ
ĠÙĪØ¥ ÙħØ§
Ø¯ÙĦ ÙĪÙĦ
Ġcha n
ĠÙĪØ§ÙĦØ« Ø§ÙĨÙĬ
ED X
ĠØ¨Ø§Ø® ØªØµØ§Ø±
c ation
ĠÙĬ Ø¨ØŃØ«
ÙĤØ§ÙĦ Ø©
ĠØ£Ùħ Ø§ÙĨ
ĠÙĬÙħ Ø«ÙĦ
Ġ100 0
ĠØ³Ø¬ ÙĦØª
Ø§ÙĦ ÙĬØ¨
ĠØ£ ÙģÙĩÙħ
Ø§Ùĥ ÙĬÙĨ
ĠÙĦÙĬ ÙĩÙħ
ĠØªØ± Ø¯ÙĬ
Ġvid e
ĠÙĨÙĩ Ùī
ĠØªØ´ÙĪÙģ ÙĪ
Ġvra iment
ĠØ¬Ø§ÙĨ ÙģÙĬ
Ø§ÙĦÙħ Ø´ÙĥÙĦ
ĠØ§Ø± Ùī
ÙĪÙĦÙĬ Ø³
ĠÙĤÙĪÙĦ Ùĥ
ĠðŁĩ µðŁĩ¸
ĠØºØ§ÙĦ Ø¨Ø§
ĠÙĪ ÙĤÙĦ
ĠÙģ ÙĥØ±ÙĬ
Ø§Ùĥ Ø¯
ĠÙĬØ§ Ø§Ø±Ø¨ÙĬ
ĠØ« ÙĪØ§Ø¨
ĠØ§ÙĦÙĬ ÙĪØªÙĪØ¨
ĠØ§ÙĦØ¨Ø§Ùĥ ÙĦÙĪØ±ÙĬØ§
ĠðŁĩ ²ðŁĩ¦
ĠÙĨÙĨØ³ Ùī
t re
ĠØ§ÙĦÙħ Ø¸
ĠÙĪØ£ Ø®Ø°
ĠÙĬÙĨ Ùģ
ĠÙĤØ¨ ÙĦÙĩØ§
ĠÙģÙĨ ØŃÙĨ
ĠÙĨØªÙĪ Ø§ØµÙĦ
ĠØ¨Ø§ÙĦÙģ Ø¹ÙĦ
Ùĩ Ø²
Ø¨ ØªÙĥ
ĠØª Ø«Ø¨Øª
ĠØ§ÙĦØ¯ Ø§ÙĦØ©
ĠÙĪÙĨ Ø¯ÙĬØ±
ĠØ§ÙĦÙĬ ÙħÙĨ
ĠØ§ÙĦØ¹Ø¨ Ø§Ø³
ĠØ±ØŃ ÙĦØ©
ĠÙĥØ«Ø± ÙĦÙĨØ§
ĠØŃØ§Ø¬ Ø§
ĠØ§ÙĦÙħÙĨÙĩ Ø¬ÙĬØ©
m erci
Ø¯Ùħ Ø§Øª
ĠØªÙħ ÙĦÙĥ
- :
ĠÙĪ ÙģØ±ØŃ
ĠØ± Ø¯Ùĥ
Ø£ ÙĬØª
ĠØŃ ØªØ§ÙĨ
ĠØ§ÙĦØ¹ ÙĨÙģ
ĠÙĨØª ÙģÙĥØ±
Ġf ran
ĠØ§Ùĩ ÙĦÙĩØ§
ĠØŃØ§ÙĦ Ø§Øª
ĠÙĪØ£ÙĬ Ø¶Ø§
: âĢı
W lh
Û ©
ĠÙĪ Ø¯ÙĬÙĨ
ĠØª Ø¨ØŃØ«
ĠØ³ Ø§Ø¹Ø¯
ĠØ³ Ø¹Ø§Ø¯Ø©
ĠØ§ÙĦØµ ÙħØ¯
ĠØºÙĬØ± Ùĥ
ĠÙģØ± Ø¯
ĠØªØ® ØªÙĦÙģ
ĠÙģÙĦØ§ ÙĪÙĨ
sta d
5 6
w ti
ĠØ¨ Ø§ØŃ
ĠÙģ Ø±Ùĥ
ĠØ³ ÙĤØ·
Ø§Ø° ÙĬ
ĠØ§ÙĦØ³ Ø¨Øª
ĠØº Ø±Ùģ
ĠØ§Ø¬ Ø§Ø¨Ø©
Ġh bb
ĠÙĨØµ ÙĬØŃ
ĠØ§Ø³Ùħ Ø§Ø¡
ĠÙĨÙĤÙĪÙĦ ÙĥÙħ
ĠÙĪØ§ÙĦ Ø³ÙĬ
Ø±ÙĬ Ø§Ø¶ÙĬØ§Øª
Ø§Ø³ ÙħØ¹
Ø±Ø¨ ÙĨØ§
ĠØ§ÙĦÙģ Ø·Ø±
ĠØ£Ø® ÙĦØ§ÙĤ
ĠØ£ÙĬ ÙħÙĨ
Ġh istoire
ĠØŃÙĤ ÙĤ
ĠØ³Ùħ ØŃØª
ĠØŃØ§ÙĪÙĦ Øª
ĠØ§ÙĦÙĨØ´ Ø§Ø·
Ø¯ Ø¹ÙĬ
ĠÙĦØ£ ÙĩÙĦ
ĠØ§ÙĦØ§ØŃ ØªØ±Ø§Ùħ
Ø£Ùĥ ÙĬØ¯
t r
y s
ĠÙħ ÙģØªØ§ØŃ
ĠØª Ø¨Ø¯ÙĦ
ĠÙĨ Ø§ÙĬ
ØªÙĪ ÙĦÙĬ
ĠØ° Ø±Ùĥ
ĠÙħÙĦ ÙĤÙĬØªØ´
ĠØ³Ø± Ø¯Ùĥ
ĠØ§ÙĦÙĨØµ Ø§Ø¦ØŃ
ĠÙĪÙĨØª ÙħÙĨÙī
ĠØ§ÙĦØ¹Ùħ ÙĪÙħ
u ch
ÙĦ Ø¹Ø¨
ĠÙĬ Ø³ÙħØŃ
Ø§Ø³ ÙĦØ©
ĠØ§ÙĦØª Ø·Ø¨ÙĬÙĤ
ĠØ§ÙĦØŃ Ø³ÙĨØ©
ĠØ¨ÙĬ ÙĥÙħ
ĠØ§ÙĦØ¸ Ø§ÙĩØ±
ĠØ¯Ùħ ÙĪØ¹
ĠÙĬØ·ÙĬ ØŃÙĪ
ĠÙĨ Ø±Ø¬ÙĪ
Ø§Ø¬ ÙĩØ©
ĠØ· ÙĪ
ĠØ§ÙĦØ® Ùħ
Ø¶ÙĬ ÙĤ
ĠØªØ± ÙĤØ¯
Ø± ÙĨØª
ĠÙħ ÙĤÙĦ
ĠØ¹ ÙģØ³Ø©
ĠÙĨ Ø¹Øª
ĠØŃ Ø¨Ø§
ĠÙĦØ¨ Ø³
ĠØ³ÙĬØ± ØªÙĪ
ĠÙģ ÙĦØ³
ĠÙĬ Ø±ÙĪØŃÙĪ
ĠØµ Ø±ØŃ
Ø´Ø± Ø§Ùģ
ĠÙħÙĤ Ø¨ÙĦ
ĠØªÙģÙĩÙħ ÙĬ
ĠÙĤØ§Ùħ Øª
ĠØ£Ø¹Ø¯ Ø§Ø¡
Ùħ Ø¬
ĠÙĨ Ø±ÙĥØ²
ĠØ§ÙĦÙħ ÙĬØ³
ĠØ¯ ÙĨÙĬ
ĠÙĦÙĬ ÙħÙĪØ²ÙĬÙĨ
ĠÙĪÙĬ Ø²ÙĬØ¯
re e
ĠÙĬØ· Ø§ÙĦØ¨
ĠÙĪØ² Ø§Ø±Ø©
ĠÙĥÙģØ± ÙĪØ§
ÙĥÙĬÙĥ Ø¯Ø©
Ġ( [
Ø±ÙĪ Ø±ÙĬ
Ġma s
ĠØ£Ø± Ø³
ÙĦÙħÙĬ Ø°Ø©
Ø°Ùĥ ÙĬØ±
ĠØºÙĦ Ø·Ø©
l m
ĠÙħ Ø¢
ĠØ¨ ÙĬØ±
ĠØ£ Ø¦ÙħØ©
ĠÙĥ Ø³Ø±
ĠØ® ØªÙħ
ĠØ§ÙĦÙģ Ø§Ø³
ĠØªØ´ Ø¹Ø±
ĠØ¬ÙĨ ÙĪØ¨
ĠØŃÙĦ ÙĪÙĦ
ĠØ±Ø¨ØŃ Øª
ÙĬÙĨ Ø§Ùĩ
ou ma
ĠØ¨ÙĨ Ø³Ø¨Ø©
Ġt ro
ĠØ¨Ùĥ Ø«ÙĬØ±
ĠØ¹Ùħ Ùĥ
Ø§Øº ÙĬ
ĠÙĪØ§ÙĦÙĨ Ø§Ø³
ĠØ§Ø« Ø±
ĠÙĬÙĩØ¯Ø± ÙĪ
ĠØ§ØŃÙĬ Ø§ÙĨØ§
ĠØ§ÙĦØ¥ÙĦØª ØŃØ§ÙĤ
ÙĦ ÙĤØ©
Ø¹ Ø§Ø¨
ĠÙħ Ø§Ø¯Ø±
ĠØ¯ Ø²
ĠÙĬÙĨ ÙĤÙī
al e
ĠØ§ÙĦÙħÙĤ Ø§Ùħ
ĠØ§ÙĦ Ø§ÙħØ©
ĠÙĪ ÙģØ¶
Ø´ Ø§Ø±
ĠÙĨØª Ø§Ø¨Ø¹
ĠÙĬØ´ Ø§ÙģÙĬÙĩØ§
ĠÙĪÙģÙĬ Ùĥ
ĠÙĪØ§Ø³ Ø¹Ø©
ĠÙĬØº Ø§Ø¯Ø±
ĠØªÙĤØ¯ ÙĬØ±
ĠØ§ÙĦØ£ Ø«Ø±
ĠØ¨ÙĦ ÙĪÙĨ
Ġw or
ØŃØ± Ø§Ø±
ĠÙĬØ¯ Ø¹ÙĪÙĨ
ĠðŁĴ ¯
ĠÙħÙĥ ÙĨØªØ´
ĠØŃÙħ ÙĦØ©
ĠØ¹ÙħÙĪ ÙħØ§
Ø§ÙĦ ÙħØ¹
ĠØ¬ Ø³Ùħ
Ø§ØŃ ÙĥÙĬ
ĠØ§ÙĦÙĨ ÙĤØ·Ø©
ĠØ§ÙĦØµ Ø±ØŃ
Ø®Ø± Ø·
ĠØ§Ø¯ Ø¹ÙĬÙĪÙĦÙĬ
ÙħÙĪ Ø¶
te k
Ùģ Ø¯ÙĬÙĪ
Ø¨Ø± ÙĨØ§ÙħØ¬
ĠØ§Ùħ Ø¨Ø¹Ø¯
ÙĪÙĤ Ø§Øª
ĠÙģØ£ ÙħØ§
Ġcha ba
ĠØ±Ø¤ ÙĪØ³
ĠØŃØ¨ÙĬØ¨ ÙĨØ§
Ùĥ ÙĬÙĨØ§
ĠÙħ Ø³Ùħ
Ġb d
ĠÙĪØ§ÙĦÙħ Ø³ÙĦÙħÙĬÙĨ
ĠÙĬØ±ØŃÙħ Ùĥ
Ġal l
ĠðŁĺĺ ðŁĺĺ
Ø³ Ø§Ø¹Ø©
ĠØ³ ÙĦÙħØ©
ÙĤÙĪ Ø·
ĠØ¹ÙĦÙħ Øª
ĠÙĬÙĤ ÙĦÙĥ
ĠÙģ ÙĩØ§Ø¯
ĠØª ÙĥØ±Ùĩ
ĠØ§ÙĦÙħ ÙĥØ±
ĠÙĪØ§ÙĦ ÙħÙĦ
ĠØ§ÙĦÙģ ÙĦ
or i
ĠØ¶ÙĬ ÙĤ
ĠØ£Ø¬Ø± ÙĥÙħ
ĠÙĪØµÙģ Ø§ØªÙĥ
ĠØªÙĨØ³ Ùī
Ø§ÙĦ ÙĬÙĨ
ĠÙĤ ÙĪØ§ÙĨÙĬÙĨ
ÙĪØ¬ ÙĬØ§Øª
le k
ĠØ§ÙĦÙħØª Ø£
Ġ7 0
ĠÙĦØ§Ø¨ Ø³
ĠÙĬØ±ÙĬØ¯ ÙĪÙĨ
ĠÙĨØ´Ø±ÙĬ Ùĩ
5 9
z i
ĠØ³ ÙħÙĬ
ĠØ³ Ø¬ÙĦ
ĠØ§ÙĦÙģ Ø§Ø±
ĠÙħÙĦ ØŃ
ĠØ¨Ø§ÙĦØ¥ Ø¶Ø§ÙģØ©
ĠØ·Ø¨ÙĬ Ø¹Ø©
ĠÙĦ ÙģØª
Ø« Ø§
ĠðŁ §
ĠØ§Ø³Øª ÙħØ±ÙĬ
ĠÙĪÙĬ Ø¤
ĠÙģØ§ÙĦ Ø¯Ø§Ø±
ĠØµØŃ Ø¨ÙĬ
ĠØ¯ÙĬ Ø³ÙħØ¨Ø±
ĠÙĥØ§Ùħ ÙĦØ§
ĠØ¨Ø§ÙĦ ØªØŃ
ĠØ§ÙĦØ£ Ø³Ø¨ÙĪØ¹
Ø¯Ø± ÙĪ
ĠÙħØŃ Ø§ÙĪÙĦØ©
ÙĩØ§Ø± Ø§Øª
ĠØ§ÙĦØŃØ± ÙĪÙģ
ĠØ§ÙĦØŃØ³ÙĨ Ø§Øª
ĠÙĪØ¶ Ø¹Øª
ĠØ§ÙĦØ±ÙĪ Ø§ÙĬØ§Øª
ĠÙģ Ø§Ø¬
ÙĦØ§ ÙĪ
ĠÙĦÙĬ Ø²ÙĪÙħ
ĠØ§ÙĦØ£ ØŃØ¯Ø§Ø«
Ø¹Ø¯ Ø¯Ø©
Ø±Ø¨ ÙĪØ§
Ġd on
ĠØ§ÙĪ Øª
ĠØ§Ùģ ØªØŃ
ĠØªØ¯ Ø¹ÙĪ
ĠÙĪØ§Ø¹ Ø±
Ùħ Ø¬ÙħÙĪØ¹
ØŃ Ø§ÙĪÙĦ
ĠØ§ÙĦÙĪ Ø¶ÙĪØ¡
Ø±Ø¬ ÙħØ©
ĠØ¨Ùħ Ø¬Ø±Ø¯
ĠØªÙħ ÙĨÙĬ
ĠØ§ÙĦÙģØ± Ø¶ÙĬØ©
ĠÙħØ§Ùĩ ÙĪØ´
ĠØ§Ø¬ØªÙħØ§Ø¹ ÙĬ
ÙĤ Ø°
ĠÙĥ ÙĪÙĨÙĬ
Ø§Ø¨ ÙĬØ©
ĠØ§ÙĦØ£ ØŃÙĬØ§Ø¡
ĠÙĬØŃ Ø¶Ø±
ĠØ§ÙĦØµ ÙĬÙĨ
ĠØ§Ùħ Ø±ÙĬ
ĠÙģØ¥ÙĨ ÙĩÙħ
ĠØ£Ø± Ø³ÙĦ
ĠØ±ØŃ ÙĨØ§
ĠØ£Ø¹Øª ÙĤØ¯
ĠØ§ÙĦÙħ Ø·Ø±
ĠÙĪØ£ ØŃØ³ÙĨ
ĠØŃØ± ÙģÙĬØ§
Ø¬Ø² Ø§Ø¡
ĠØ§ÙĦØ¥Ø³Øª Ø´ÙĩØ§Ø¯
ĠØ¹Ùģ ÙĪØ§
Ķ ï¸ı
Ø¹ Ø¬Ø¨
ĠÙħ Ø§ÙĦÙĩ
ĠØ£ ÙĦÙĬØ³
ĠØ§ÙĦÙħ Ø¯Ø©
ĠÙĪØ¨ ÙħØ§
ĠØ£Ùħ Ø±ÙĬ
ĠØ§ÙĦØ² ÙĪ
ĠÙĨÙģ ÙĪØª
Ø· Ø¹Øª
ĠÙĤ ÙĬØ³
ĠØ§ÙĦÙħ ÙĤØ·Ø¹
ĠÙĦÙĬ ÙĦØ§
ĠØº Ø¶Ø¨
Ø¦ Ø§Ø¨
ĠØ¯Ø± Ø§Ø³Øª
ĠØŃÙĬØ§Øª ÙĩØ§
ĠØ³Ùħ ØŃÙĦÙĬ
ĠÙĬØŃØ¨ Ø³
5 4
ĠÙĪ ÙĤÙĪÙĦ
ĠØª Ø°
ĠØª Ø±Ø¨ÙĬ
ĠØ§ÙĦØ£ ÙħÙĬÙĨ
ĠØ§ÙĦØ¥ ØŃ
ĠÙĦØ£ Ø¨ÙĬ
Ø§ÙĦÙĨ Ø§Ø³
Øª Ø§Ø¡
ĠØ± ÙģÙĬÙĤ
ĠÙĩ Ø¯Ùī
ðŁĺ ¡
ÙĪØ§ ÙĩÙħ
ĠØ§ÙĦÙģ ØªØŃ
ĠØ§Ø® ÙĪØ§ÙĨÙĨØ§
ĠØ¨ÙĬÙĨ ÙĥÙħ
ĠØ¸ Ø±Ùģ
ĠÙħØ§ÙģÙĬÙĩ Ø§Ø´
ĠÙĪ ÙĩÙħØ§
ĠÙģ Ø§Ø¯
ĠØª ÙħØ§
ÙĦÙĩ Ø§Ø´
Ø¸ ÙĩØ§Ø±
ĠÙĪÙĬ ÙħÙĥÙĨ
ĠÙĪÙħ Ø²Ø§ÙĦ
ĠØ¨Ùħ Ø´
ĠØ§ÙĦØ¨ÙĬ Ø¶
ĠØŃÙĬØ§Øª ÙĩÙħ
ĠØ§ÙĦØ£Ø³ Ø§ØªØ°Ø©
Ø¨ÙĦÙĬ Ø³
ĠÙĪÙĬØ¬Ø¹ ÙĦÙĩØ§
m er
Ø§ÙĦ ÙĦ
ĠÙĪ Ø§Ø³Ùħ
ĠØ£ ÙĤÙĪ
Øµ ÙĬØ¨
ĠÙĩ Ø§ØªÙģ
Ø§Ø¯ Ø¨ÙĬÙĬÙĨ
Ø§ØŃ Ø¯Ø©
Ø§ØŃ Ø¨Ùĥ
ĠØ¨Ø§ÙĦ Ø´ÙģØ§Ø¡
ĠØº ÙĨÙĬ
Ø¦ ÙĨ
ĠÙĬØ¹ Ø¬Ø¨ÙĨÙĬ
Ġt ou
Ø¨ÙĤ Ø§Øª
ĠÙĦØ§ÙĨ ÙĨÙĬ
ĠØ§ÙĦÙħØ¯ ÙĨÙĬØ©
ĠØ§ÙĦÙħÙĬÙĦ Ø§Ø¯
ĠÙĦ ÙĥÙĪÙĨ
ĠØª Ø§ÙĦÙĬ
ĠØ§ÙĦÙħ Ø¯ÙĬØ±
ĠØ§ÙĦØ´ ÙħØ§ÙĦ
ĠðŁĺ ©
ĠÙĪØ£ Ø¨
ĠÙĪØ£ ØµØ¨ØŃ
ĠØ« ÙĤÙĬ
ĠØ§ ÙĤØ±Ø§
Ø·ÙĪ Ø·
ĠÙĦØ§Ø¨ Ø§Ø³
ĠÙĪØ¨Ø§ÙĦ ØªÙĪÙģÙĬÙĤ
k oun
Ùħ Ø«ÙĦ
ØªÙĬ Ø§Ø±
ĠØªØŃ ØµÙĦ
ĠÙĪÙĨ ÙģØ³
Ġy ak
ĠØ³ÙĬ Ø¦Ø©
Ġ8 0
Ø§ÙĦØ´ Ø¹Ø±
T hank
ĠØª Ø¯Ø±Ø³
ÙĬÙĨ ÙĪ
ĠÙĩ Ø²
ĠØŃ ÙĨØ§ÙĨ
ĠØ¯ Ø§Ø¹
ĠØ¹ÙĦ Ø§Ø¨ÙĬÙĩØ§
âĻ ¡
Ġfr r
Ø§ Ø§Ùĩ
ĠÙĪØ§ÙĦ Ø§Ùħ
ĠØ§ÙĦØ¹ Ø²ÙĬØ²Ø©
ĠÙħØ¹ Ø§Ø°
ĠÙħØ³Øª ÙĤØ¨ÙĦ
ĠØ¹ÙĤ ÙĦÙĬØ©
ĠØµÙģ ØŃØ§Øª
Ġon e
Ń Ĳ
Ø± Ø§ÙĩÙħ
ĠÙĪØ£ ÙĥØ±Ùħ
ĠÙħÙĦ Ø®Ø±
Ġha ve
ĠØ§ÙĦÙħØ³Øª ÙĤÙĬÙħ
ĠØ¨Øª Ø³
ĠØ§ÙĦÙħÙĩÙħ Ø©
ĠÙĤØª ÙĦÙĪ
ĠÙĪØ§ÙĦØ´ ÙĥØ±
ĠÙģÙĥØ§ÙĨ Øª
Ġ ================
ĠØ± ØŃÙĦ
Ø¯Ø± ÙĨØ§
ĠÙĥÙĦ Ø¨
ĠØ§ÙĦÙģ Ø§Ø¦Ø¯Ø©
ĠÙĦÙħ Ø´
ĠÙħØ´ Ø±Ùģ
ĠØ§ØŃ Øª
ĠØ±ØŃÙħ ØªÙĩ
ar d
ÙĪØ§Ø¨ Ø·
ĠØªØ· ÙĪØ±
ĠÙĤØ¯Ø± Ø©
ĠÙħØ¶ Ùī
ĠÙħÙĪØª Ø§ÙĨØ§
ĠØ§ÙĦÙħÙģØ± ÙĪØ¶
b al
u ck
Ø§ÙĦ ÙĦÙĬ
Ø¨ Ø¯Ø©
ĠØ¹ Ø¯ÙĬ
ĠÙĨ Ø±ÙĪØŃÙĪ
ĠØ§ÙĦÙħ ÙĤØ¨
Ø§ÙĬ ØªÙĩ
ĠØ§ÙĦØ¨ ØµØ±
ĠØ£Ø³ Ø¦ÙĦØªÙĬ
ĠÙħØµ Ø§ÙĦØŃ
Ø±ÙĬÙĥ ÙĬØ©
ĠØ§Ø³ØªØºÙģØ± Ø§ÙĦÙĦÙĩ
ĠØ§ÙĦÙħ ØµØŃÙģ
Ø¸ Ùģ
ĠØº Ø¨Ø§Ø¡
ØµØŃ Ùī
ĠØ§ÙĦØ± Ø²Ø§ÙĤ
ĠØ§Ø± Ø¯Øª
ĠÙħØ® ÙĬ
ĠÙĨÙĤ Ø¹Ø¯
ØªØµ Ø§Øµ
ĠðŁĴĹ ðŁĴĹ
Ã ¯
ĠØ§ÙĦØŃ Ø§ÙĦØ§Øª
Ø±Ùĥ ÙĬ
ĠØ² ÙĬÙĨØ©
Ġv i
ĠØªØµ Ø¯ÙĤ
Ġou i
Ġ ********
ĠÙģ Ø±ÙĪ
ĠØª ØªØ¨Ø¹
ĠØ£ Ø¶
ĠÙĪØ§ÙĦ Ø«ÙĦØ¬
Ø§Ø¦ ÙĤØ©
ÙħØ± Ø§
Ø¡ Ø©
Ġ3 1
Ġs am
ĠØ§ÙĦØº Ø¶Ø¨
ĠØ®Ø· Ø§Ùĥ
Ø²Ø¹ Ø¬
fd ek
ĠØ§ÙĦÙĦØŃ Ø¸Ø©
Ġï ģ
5 8
ĠØ§ÙĦØŃ ÙĤÙĪÙĤ
ĠØªØŃ Ø¨ÙĬÙĨ
ĠØ¨Ùĥ Ø«Ø±Ø©
ĠØ§ÙĦÙħØ¬ ÙĦØ³
Ġha k
ĠØŃØ§Ø¨ Ø§ØªÙĪ
Ġgo ing
w l
Ø§Øª ÙħÙĨÙī
ĠØªØ¹ Ø§ÙĪÙĨ
ĠÙĪØŃ Ø´
ĠØ§Ùģ ØªØ±
ĠØ§ÙĦØ§ØŃ Ø³Ø§Ø³
ĠØ¨ÙĦØ§Ø¯ Ùĥ
ĠØ§ÙĦÙĥÙĩ Ùģ
ØªØ¹ÙĬ Ø´ÙĬ
a a
ĠÙĬ Ø¶ÙĬØ¹
ĠÙĥ Ø¹Ø¨
Ø§Ø± ÙĩØ§
Ø§ØŃ Ùĩ
ĠØ§ÙĦØ³ Ø¨Ø¹
Ġ20 13
ĠØ¨ÙĬ Ø¶Ø§Ø¡
ĠÙĪÙĦÙħ Ø§Ø°Ø§
ĠØ³ÙĨ Ùĩ
ĠØ´Ùĩ ÙĬØ¯
ĠØŃÙĤ Ùĥ
Ġin s
ĠØ¬ÙħÙĬ ÙĦØ§
W e
Øµ ÙĪØª
ĠØ³ Ø§Ø±Ø©
ÙĪÙħ ÙĪ
ĠØ§ÙĦØ¨ Ø´ÙĬØ±
ĠÙĪÙħ Ø³Øª
ĠØ¢ Ø¨
ĠØ§ÙĦØº ÙĬ
ĠÙħØ³ Ø¬
ĠØªÙĤ ØµØ¯
Ø¶ÙĦ Ø§ÙĦ
ĠÙĦÙģ Ø¯ÙĬÙĪ
ĠØ§ÙĦÙħØ±ØŃ ÙĦØ©
ĠØ± ÙĤÙĬØ©
ĠØº ÙĦÙĬ
ØŃØ¨ Ø§Ø¨
Ġb li
ĠØ£Ø³ ÙĦÙĪØ¨
ĠØ³ÙħØ¹ ÙĨØ§
ĠØ§ÙĦÙħØµ Ø§Ø¨
ĠØ§ÙĦØ¥ÙĨØ³ Ø§ÙĨÙĬØ©
Ġcom me
ĠØ¬Ùĩ Ø§Ø²
0 1
L es
Øª ØºÙĦ
ĠÙĬ Ø±Ø¨ØŃ
ĠØ± Ø¶Ùī
ĠÙĪØ§ÙĦ ØªØ±
Ø§Ø¯ Ø¹ÙĬÙĪÙĦÙĬ
ØŃÙħ ÙĬÙĦ
ĠØ§ÙĦÙĨ Ø¸
ĠØ§ÙĦØ® ÙĪØ§Ø±Ø¬
ĠØªØ§Ø¹ ÙĥÙħ
ĠÙĨØ´ Ø§
ĠÙĬØ´ Ø±Ùĥ
ĠØ¬Ø¯Ø§ Ø§
ĠÙĨØ² ÙĪÙĦ
ĠÙĦÙĦØ´ Ø¹Ø¨
ĠØ¨Ø§ÙĦØ¬ Ø²Ø§Ø¦Ø±
ĠØ§ÙĦÙħÙĤØ§ÙĦ Ø§Øª
6 9
Ùħ Ø£ÙĨ
Ùħ Ø¬Ø©
ĠÙĦ Ùī
Ø§ÙĨ Ø§Ø´
ĠØª Ø§Ø¬
ĠðŁ¤ ©
ĠÙĪÙĤØ§ÙĦ Øª
ĠØ£ÙĨÙģØ³ ÙĥÙħ
Ùħ ÙĩÙħ
ĠÙĪ ØŃÙħ
Ùģ ÙĦÙĬ
ĠÙĬ ÙĦØ¨Ø³
Ø§ÙĬ ÙĦØ©
ÙģÙĬ Ø°
ĠØ§ÙĦØ¥ Ø¬ØªÙħØ§Ø¹
ĠØ§Ø® ÙĪØ§ÙĨÙĬ
ĠÙĬÙĨ ÙĥØ±
ĠØ§ØŃ ÙĦØ§Ùħ
ĠØ§ÙĦØ² ÙĨØ§
ĠØ±Ùĥ ÙĦÙĬØ·Ø§
th er
Ġtr Ã¨s
0 4
0 6
Ø± Ø§Ø¬
Ø¨ ÙĦØ§Ùĥ
ĠØ£ ÙĦÙĬ
Ø§ÙĪ Ø¬
ĠØ§ÙĦØŃ ÙĥÙĬÙħ
ĠØ§ÙĦÙĤ ÙĪØ§ÙĨÙĬÙĨ
ĠØ¨ØµØŃ ØªÙĥ
ĠØ§Ùĥ ØªÙģÙĬ
ØªÙĦ Ø§Ø¡
ĠÙĪØ§Øª ÙħÙĨÙī
ĠØŃØ§Ø¬ Ùĩ
ĠØªØ®ÙĦ Ø¹
p t
ĠÙģ Ø§ØŃ
Ø° Ø¬
ÙĦÙĥ Ø´
ĠÙħØ¹ Ø§ÙĨ
ĠØ§ÙĦØ£ ØŃÙĪØ§ÙĦ
ĠØªØŃ ÙĪÙĦ
Ġl h
ĠÙĪÙĨ ÙĨØ¬ØŃ
ĠÙĪØŃ ÙĥÙħ
ØªØ± Ø·
Ġk ml
Ġp le
ĠØ§ÙĦØ¬ÙĨ Ø§ÙĨ
ĠÙĤÙĦØ¨ ÙĩØ§
ĠØ¯Ø§Ø¦ Ø±Ø©
ĠðŁĮ ·
ĠÙĦÙĦÙħØ± Ø£Ø©
Ġvide os
ĠØª ÙħÙĬØ²
ĠÙģÙĬ Ø³
ĠØ® Ø§ØªÙħ
Ø§Ùģ Øª
ra b
Ġd r
Ø¯ÙĪ Ùī
ĠØ§Ø° ÙĥØ±
ĠØ·ÙĦ ØŃØ©
ĠØ¹Ø§ÙĬ Ø´Ø©
n o
ł ï¸ı
Øª ÙģØ¹
ĠØ¹ Ø§Øµ
ĠØ§ÙĦØ¹ ÙĬØ´
Ø³ÙĨ Ø§Ø¯Ùĩ
ĠØªÙĨ Ø²ÙĦ
ĠØ¹ÙĦÙħ Ùĥ
ĠØ£Ø³ Ø§ÙħØ©
ĠØ§ÙĦØ¬ÙĨ Ùĩ
ĠÙĪØ· Ø±ÙĬÙĤØ©
ĠÙĤØ· Ø¹Ø©
Ġwa ch
ĠÙĪØ§ÙĦÙħØ³ÙĦÙħ Ø§Øª
ĠØ¹ Ø³Ùī
Ø¶ Ø§Ùĩ
ĠØ° Ø§ØªÙĩ
la k
ĠÙħØ¬ ÙĬØ¯
Ġr es
ĠØ¹Ø§Ø¯ ÙĦ
ĠÙģØ§Ø± Ø³
ĠÙħÙĦØ§ ÙĬÙĬÙĨ
ĠÙĪÙĬØŃÙģØ¸ Ùĥ
ĠÙĪ Ø¨ÙĦ
ĠÙħ ÙģÙĬ
ĠØª Ø§ÙĬ
Ø¨ÙĬ ØŃØ©
ĠØ® Ø·Ø©
ĠØ§ÙĦØ¬ Ø¨Ø§ÙĦ
Ġ... !
ØªØ¨ Ø§Ùĩ
Ġb ut
ÙĩØ± Ø§ÙĨ
ĠÙĬØ® Ø§ÙĦÙģ
ĠØªÙĨ Ø¸ÙĬÙħ
ÙĪØŃ Ø¯Ø©
ĠØ§ÙĦØ¨ÙĦÙĬ Ø¯Ø©
ĠÙĥ Ø³Ø¨
ĠØ§ÙĦØ¹ Ø¸ÙĬÙħØ©
ĠØ§ÙĦÙĥ Ø§ÙħÙĦ
ĠÙħÙĦ ÙĤÙĬ
r ou
Ùħ Ùī
Ø¨ÙĬ Ø«
ĠØ· Ø§ÙĤØ©
Ġ- :
ĠØªØŃ Ø±ÙĬÙħ
ĠØ§Ø® Ø±Ø¬
ĠÙĦÙħ ØŃ
ĠÙĪØ± Ø¯Ø©
ÙĬØª Ø´
ĠØ§ ÙĤØ±Ø£
ĠÙĬØ® Ø¨Ø±
Ø´ÙĬ ØŃØ©
ĠÙĤØª ÙĦÙĥ
ĠÙĨÙĥÙĪÙĨ ÙĪ
ÙĪ ÙĦÙĩÙħ
ĠÙĪ Ø¨ÙĬ
ĠÙĪ ÙĤÙĪ
ĠÙĦ Ø±Ø¨ÙĬ
ĠØ§ÙĦØª ÙĤÙĪÙĬÙħ
ĠØ§ÙĦØ® Ø§ÙĦ
ĠØ§ÙĦØ® ÙĪ
ĠØ£Ø® Ø¨Ø§Ø±
Ø§Ø« Ø±
ĠÙĨØ¨ ØºÙĬÙĥ
ØŃØ³ Ø§Ø³
ĠØ³Ø¤ Ø§ÙĦÙĥ
ĠÙĬØ®ÙĪÙģ ÙĪ
7 8
Ø® ÙĦØª
Ø« ÙħØ§Ø±
ĠØ§ÙĦØª Ø±Ø¨
ĠØ§Ø³ Ø§ÙħØ©
ĠØ§ÙĦØµ ÙĪØ§Ø¨
Ø¨Ø¯ Ø¹
ĠØ¨ÙĬÙĨ ÙĬ
ĠÙĤØ± Ø±Øª
ĠÙħØ¯ Ø®ÙĦÙĩ
ĠÙĪØ§Ø¹ Ùģ
ĠØªØªØŃ Ø¯Ø«
gh t
ĠØªÙģÙĥ ÙĬØ±
ĠÙħ Ø¨ÙĦØº
ØŃ ÙĤÙĬ
ĠØ´ Ø±Ø¨
ĠØ® Ø¯ÙĬØ¬Ø©
ĠØ§ÙĦØ³ ÙĦØ·
Ø§Ø· Ø¦
Ġb zaf
ĠÙĬØŃÙģØ¸ ÙĩØ§
ĠØ£ÙħØ± ÙĨØ§
ĠÙĨØ² ÙĦÙĩ
6 1
Ø³ ÙĨØ§
Ø³ Ø§Ø·Ø©
Ø¹ÙĬ Ùĩ
in s
ðŁı» âĢįâĻĢï¸ı
ðŁĮ º
Ø³Ø§Ùħ ÙĬØ©
ĠØ¹ÙĤØ¯ Ø©
d ar
p ia
Øª ÙĬÙĨØ§
ĠØ¹ ÙĤØ¨
Ø§Ø± Ø¬ÙĪ
Ø¶ Ùĩ
ĠØ§ÙĦÙħ ÙĬÙħ
ĠØ§ÙĦØ³ ÙħØ¹
ĠÙĪØ³ Ø¹
ĠÙħØµ Ø§Ø¯Ø±
ÙĦÙĪÙħ Ø§Øª
e y
Ġ imp
ĠØŃ Ø§Ø¶
ĠÙĪØ§ÙĦ Ø´Ø±
ĠØ¯ Ø±Ø¨
Ø§ØŃ ÙĦÙī
ĠØ§ÙĦØ³ ÙĬØ§ÙĤØ©
ĠØ§ÙĦÙĤ Ø§ÙĩØ±Ø©
ĠØªØŃ ÙģØ©
Ġt es
ĠÙĪØŃ ÙĬÙĨ
ĠÙħØ± Ø§Ùĥ
ĠØ§Ø¨ÙĨ Ø§Ø¡
ĠØ§Ø¬ Ø§Ø¨
ĠØ³Ø¨ Ø¹Ø©
ĠØ¯Ø® ÙĦÙĥ
Ġu s
ĠØ¹ÙĤ Ø¨Ø©
ĠØªØŃØ¨ Ø³
ĠÙģØ¬ Ø§Ø¡
ĠØªØ²ÙĪØ¬ Øª
ĠÙĦ ØªÙħ
ĠØ³ ÙĬØ¨
ÙħÙĨ Ø§ÙĦÙĥ
ĠðŁĺ ı
ta h
ĠØ¹Ø¨ Ø§Ø¯ÙĬ
ĠØªÙĪØŃØ´ ØªÙĥ
ĠÙĨØ§ÙĤ ØµØ©
ĠØ¹ Ø¯ÙĬØ¯Ø©
ĠØ£ ÙĤÙĪÙī
Ø§ÙĬ ÙģÙĬØ©
ĠØ§ÙĦØŃ ÙĪØ§Ø±
ĠØ§ÙĦØµ ÙħØª
Ġt al
ĠØ§ÙĦØ· Ø§ÙĤØ©
ĠØ¢ ÙħÙĬÙĬÙĨ
ĠØ³ÙĬ Ø§Ø³ÙĬØ©
ĠØ£Ø³ Ø·ÙĪØ±Ø©
ĠØ£Ùĥ ØªØ¨
ĠÙĬÙĩ ÙĨÙĬÙĥ
ØµÙģ ØŃ
ĠØ§ÙĦÙģØ±ÙĨØ³ÙĬ ÙĬÙĨ
Ùħ Ø¨Ø±ÙĪÙĪÙĥ
ĠÙĬ Ø±Ùģ
ĠÙĬ ÙħÙĬÙĨ
ĠØ§ÙĦØ· Ùģ
Ġa t
ĠØ§ÙĦØ« ÙĦ
ĠØªØ´ Ø±ÙĬ
ĠÙĬØ¯ Ø®ÙĦÙĪ
ĠØªÙĤ Ø¹Ø¯
ĠØ§ÙĦØ¶ ÙħÙĬØ±
ĠØªÙĨØª ÙĩÙĬ
Ø§ÙĦ ÙħÙĬ
ĠÙħ ÙĬÙĥ
ĠÙģ ÙĤØ±
ĠØº Ø§ÙĦÙĬØ©
ON G
ĠØ§Ø¹ Ø¶Ø§Ø¡
ĠØµÙĨ Ø§Ø¹Ø©
ĠÙĪØ¥ÙĬ Ø§ÙĥÙħ
M e
o h
Ø± Ø±
Ø£ ÙĬÙĨ
ðŁĺ Į
Ø¨ÙĬ ÙĪØªØ±
ÙĪÙĨ ÙĪ
ĠØ§Ø³ Ø§ÙĦÙĥ
ĠØ· Ø§Ø¦ÙģØ©
ĠØ° ÙĬÙĥ
ĠØªØ§Ø¹ Ùĩ
ĠØ§ÙĦØ· Ø¨Ø±Ø§ÙĨÙĬ
ÙĪÙĦÙĬ Ø§Ø¡
ĠÙĤØµ ÙĬØ±
ĠØ§ÙĦØ£Ø® Ø¨Ø§Ø±
ĠÙħØ¤ ØªÙħØ±
ĠØ§ÙĦÙħ ÙĪÙĦ
ĠØ¹ÙĦÙĬ Ùħ
ĠØ§ÙĦØª Ø§ÙĨÙĬ
ÙĤØª Ø´
ĠØ§ÙĦÙĪ ØµÙģ
ĠÙĪØŃ Ø¨ÙĬØ¨ÙĨØ§
ØªØ´ Ø¨Ùĩ
ĠðŁĮ ļ
us e
Ø¨ØµØŃ ØªÙĥ
ĠØ´Ø¹ Ø§ÙĦ
ðŁĻı ðŁĻı
ĠØ§ÙĦØ§Øª ØµØ§ÙĦ
ĠØ³ Ø¬ÙĨ
ĠØ§ÙĦØ¬ Ø²Ø§ÙĬØ±
ØªÙħ Ø§ÙĨ
ĠÙĬÙĨ ØµØŃ
ĠÙħØ® Ø·Ø·
ĠØ£Øµ Ø¯ÙĤ
ĠÙĥØ´ ÙħØ§
ĠØ¹Ø¶ ÙĪØ©
Ø§Ø± ÙĬØ¯
ĠØ§ÙĦØ£ ÙĦÙģ
ĠØ§ÙĦØ³ Ø§ØŃØ±
ĠØ° Ø±ÙĬØ©
ĠÙĪØ¬ ØºØ±Ø§ÙģÙĬØ§
on d
ĠÙĬØ® ÙĦÙĤ
ĠÙħØ® Ø§ÙĦÙģ
ĠÙĨØŃØ¨ ÙĪ
ĠÚ¨ Ø¹
ĠØ¶ØŃÙĥ ØªÙĨÙĬ
T u
ĠÙĪ ÙĥÙĨ
Ø¨ ÙĦØ§
ĠØ£ Ø¯Ø±Ùĥ
ĠØŃ Ø§ØªÙħ
ĠØªÙĪ ØŃÙĬØ¯
ĠÙĦÙĥÙĨ ÙĨÙĬ
ĠØªÙģ Ø§ØµÙĬÙĦ
ĠÙĥÙĦØ§Ùħ ÙĬ
âľ¨ ï¸ı
ØªÙģ Ø§Ø¹
// //
Û© Û©
0 5
ĠÙĦ Ø¹Ùħ
ĠÙĬ Ø§ÙĥÙĦ
ĠØŃ Ø²Ø¨
ĠÙĪØ§ÙĦ Ø¹ÙĬ
Ø§Ø¯ ÙĪ
ĠØ§ÙĦØ³ Ø¹Ø±
ĠØ· ÙĦÙĤ
ĠØ§ÙĦÙĥ Ø¹Ø¨Ø©
ĠØ§Ø³Øª Ø±
ĠÙĬØŃ Ø³Ø¨
ĠØ§ÙĦØ® ÙħØ±
Ġb ravo
Ø³ÙĨ ÙĪØ§Øª
Ġf il
ĠÙģÙĩÙħ ØªØ´
ØŃÙĦ ÙĤØ©
Ø±Ø¬Ø¹ ÙĪÙĨÙĬ
ĠÙĬÙĨØª Ø¸Ø±
ĠØ¬Ø¨ ØªÙĪ
ĠØ§ÙĦØ±ÙĪÙħ Ø§ÙĨ
ST R
ĠÙħ ÙĤØ¯Ùħ
ĠØ¨ ÙĦÙī
Ø£ Ø¯Ø¹ÙĪÙĦÙĬ
ĠØ³ Ùģ
ĠØ§ÙĦØª Ø·
ĠØ§ÙĦØŃ Ø§Ø³
Ø¹Ø¯ Ø§Ùħ
ĠÙĬØ¹ ÙĬØ·
Ġb el
ĠØ¨ÙĬ ØªÙĥ
ĠØ§ÙĦÙĦ Ø·ÙĬÙģ
ĠØ§Ùģ ÙĦØ§Ùħ
Ø´ÙĬ Ø·Ø§ÙĨ
Ġ/ /
ĠÙĬØ§Ø® ÙĪÙĬØ§
ĠØ¹Ø· Ø§Ø¡
ĠØ±ÙĤØ¯ Øª
Ġmeille ur
7 1
ĠÙĬ ÙħØ³
ĠØµ Ø§Ø±ÙĬ
ĠØ§ÙĦØµ ÙĬ
ĠØ§ÙĦØµ ÙĦÙĪØ§Øª
Ġt hank
ĠÙĪÙĦ Ø§Ø²Ùħ
ĠØ§ÙĦØ§Ø³ ÙĪØ¯
ĠØ§ÙĦØ§ÙĨ Ø³
Ġha ka
ĠÙģÙĤØ¯ Øª
ĠÙĨØ³ÙħØ¹ ÙĪ
ĠØ®ÙĬ Ø§ÙĦ
ĠÙħØ¹Ø±ÙĪÙģ Ø©
Ø£ ÙĬÙĥ
ÙĦÙħ Ùĩ
ĠØµ Ø¨ØŃ
Ø¯Ø± Ø¬
ÙĤØ¯ Ø§Ø±
Ø§ÙĤ Ùħ
Ġma da
ĠØ£ØŃ ÙĦØ§Ùħ
ĠØ§ÙĦØ±Ø¯ ÙĪØ¯
ĠÙħØ¬ÙĩÙĪØ¯ Ùĥ
ĠØªØ¨Ø§ÙĨ ÙĦÙĬ
ĠÙģØ¥ ÙĨÙĬ
6 8
a ya
ĠÙĬ Ø¯Ø±Ùĥ
ĠØ£ ÙģØ±Ø§Ø¯
ĠØ¥ ÙĬÙħ
Øº ÙĨ
ÙĪØ± Ø§Ø©
ĠØ¨Ø§ÙĦ ØµÙĦØ§Ø©
ĠØ§ÙĦØ´ Ø§Ø±Ø¹
ÙħØ± ÙĪ
ĠÙĪØª Øµ
ĠÙĪÙĨ ÙħÙĪØª
ĠÙĪØ¬ ÙĩÙĬ
ĠÙĪÙĤ ØªÙĬ
ĠÙĦÙĦÙħ Ø³
ĠÙĥØ§ÙĦ Ø¹Ø§Ø¯Ø©
ĠÙĬØ§Ø± ÙĬØª
ĠØ«ÙĤ Ø§ÙģØ©
b ah
ÙĦ Ø§ÙĦ
ĠÙĦ Ø¹Ø¯Ùħ
ĠØª ØµØŃ
ĠÙģÙĬ Ø³Ø¨ÙĪÙĥ
ĠØŃ ÙĬØ§
ĠØ§ÙĦØ¨ Øº
ĠØ§ÙĦØ´ ÙĥÙĦ
ĠÙĪÙĬ Ø·ÙĪÙĦ
ĠÙĪØ¬ ÙĪØ¨
ĠØªÙĪ Ø¶ÙĬØŃ
ĠÙħØ§Øª ØªÙħ
Ø¨Ø§ÙĦ ÙĨØ³Ø¨Ø©
ĠðŁ© ·
ĠØ§ÙĦÙħØ¹Ø±Ùģ Ø©
w s
ĠÙĪ ÙĥÙĪÙĨ
ĠØ¨ Ø¬ÙĪ
ĠÙģ Ø§ÙĨØª
ĠÙĦÙĬ Ø³ÙĬ
ĠØ§ÙĦØ± Ø£Ø³
ĠØ§ÙĦØ¯ ÙĪÙĦÙĬ
ĠØ§ÙĦØ® ÙħÙĬØ³
Ø§ÙĤ Ùĩ
in t
ĠØ§Ø¹ ÙħÙĦ
ĠÙĬØ¯ ÙģØ¹
ĠÙĨØµ ÙĦÙĬ
ĠØ§ÙĦØ§Ø® ØªØ¨Ø§Ø±
ĠØ§Ø´ ØªØ±Ø§Ùĥ
Ġ19 8
ĠØ±Ø§ÙĬ ÙĥÙħ
202 3
Ø¹ÙĨØ¯ ÙħØ§
ĠØ¹Ø§Ø´ ÙĪØ±
ĠØ§ÙĦØ¬ÙħØ¹ ÙĬØ©
ĠØ¨ ÙĤØ§Øª
ĠØŃ ØµÙĦØª
ÙĦØ§ ÙĬÙĨ
ĠØ³ Ø§ÙĦÙħ
Ø±ÙĬ Ø·Ø©
ĠØªÙħ Ø¯
ĠØ£Ø³ ÙħØ¹
ĠÙĬØ³Øª Ø¹ÙħÙĦ
ĠÙĬÙĤ Ø¹Ø¯
ĠØ¹Ø§ÙĦÙħ ÙĬØ©
ĠØ¸ÙĩØ± Øª
ĠØ¨ ÙĪØ¨
ÙĩØ§ ÙĩØ§
Ø¯ÙĬ ÙĤØ©
ÙĪØ± Ø¨ÙĬ
ÙĪØ§ Ø§
ĠÙĦÙĦ Ø²
ÙĤØ¯ Ø©
Ġb rk
ĠØ£Ø® ÙĬÙĩ
ĠØ§ØŃ ÙĥÙĬÙĦÙĨØ§
ĠÙħØ± Ø³ÙĬ
ĠØ§ÙĦÙĦ Ø¹Ø¨Ø©
ĠØªØµ ÙĬØ¨
Ø¨Ø§ØŃ Ø©
ĠØ£Ø¯ Ø¹ÙĪ
ĠØ£Ø¯ Ø®ÙĦ
Ùĩ ÙĬØ§
Ø£ ÙĨÙĬ
Øº Ùī
ĠØ§ÙĦÙĤ ØªØ§ÙĦ
ÙģØ³ ÙĩÙħ
ĠØ¯Ø± Ø³Øª
Ġwe la
c tion
Ø± Ø§ÙĥÙħ
Ø¯ ÙĪØ±
ĠÙĦ Ø§Øµ
ĠÙĪØ§ÙĦ Ø³Ø±
ĠÙĪØ§ÙĦÙĨ ØµØ§Ø±Ùī
ĠØªØ±Ùĥ ÙĬØ§
ĠØ¨Ø³ÙĬ Ùģ
ĠØ§ÙĦÙĨÙĤ Ø§Ø´
ÃĹ ÃĹ
ĠØ§ÙĦ Ø§ØµÙĦ
ÙĪ ÙĬØ±Ø©
Ùĥ Ø§Ø´
ĠÙĪ ÙĪØµ
ĠÙħ Ø§ÙĪ
ÙĨÙĬ ØªÙĬ
ĠØ§ÙĦØ¥ ÙĬ
Ġt ani
ĠØ§Ø± ÙĪØ§ØŃÙĬ
ĠØ¹Ùħ ÙĦØª
ĠÙĪØ§ÙĨ Ø¸Ø±
ĠØ§ÙĦØ¸ ÙĩØ±
ĠÙĪØ² ÙĬØ±
ĠÙĩØ¯ Ùģ
ĠØªØ¨Ø¹ Ø«
Ġpar ti
ĠØŃÙĦÙĬ Øª
ĠØ§ÙĦ ÙĬÙħÙĬÙĨ
ÙĤ Ø³
ðŁĺ ĥ
ðŁĺ ŀ
ØŃÙħ ÙĬ
ĠØ§ÙĦÙĤ ÙĩÙĪØ©
Ø®Øµ ÙĬØ§Øª
ĠØªÙĤ Ø¶ÙĬ
ĠØ§ÙĦÙħÙĨ Ø§Ùħ
ĠðŁ¤² ðŁı¼
ĠØ§ÙĦÙĨØ³ Ø§Ø¦ÙĬ
ĠØªÙĬ Ø§Ø±Øª
ĠÙĪ Ø³ÙĨ
ĠØ¨ ÙĪØª
ĠÙģ Ø°ÙĥØ±
Ø§Ùħ ØŃ
ĠØ§ÙĦÙħ Ø§Ùĥ
ĠÙĬØ¹ ÙĤÙĪØ¨
ĠØ§ÙĦØ¥ ÙĤØ§ÙħØ©
Ġp ers
ĠØ¥ÙĦÙĬ ÙĨØ§
ĠØ§Øª Ø¨Ø¹
ĠØ°ÙĥØ± Ùī
ĠÙĬÙĪ Ø§ÙģÙĤ
Ø¨Ùĥ Ø©
ĠØ¨Øµ ÙħØ©
ĠÙĦÙĦÙĨ Ø¨ÙĬ
ĠØ§ÙĦØ³ÙĨ ÙĨ
ĠØ¹ Ø¯Ø§
ĠÙħÙĨ ØªØ¯
Ø§Ø¨ Ùĥ
ĠØ§ÙĦÙĪ ÙĦÙĬØ¯
Ġm Ãªme
ĠÙħØª ÙĤ
ðŁ¥° ðŁ¥°
ĠØªØªØŃ Ø±Ùĥ
ÙĬ Ø³Ø±
Ø§Ø± ÙĪÙĨ
ĠØ§ÙĪ ÙĥÙĬ
ĠÙĬØ± Ø§Ø¬Ø¹
ĠÙħØ¬ Ø§ÙĩØ¯
ti ve
ðŁ¥º ðŁ¥º
ĠØ§ÙĦØ§ÙĪÙĦ Ø§Ø¯
si on
ĠØ¶ÙĬÙģ ÙĨØ§
ĠØ§ÙĦØ® Ø§ØªÙħØ©
ĠÙĪÙĦ Ø£ÙĨ
ĠØ§ÙĦÙħÙĪ ØªÙī
ĠÙĪÙĩÙĪ ÙħØ§
Ġg u
ĠÙĬØµ Ø¯ÙĤ
te ur
ĠØ§ÙĦØ¹Ø¨ Ø§Ø±Ø©
ĠØ±ÙħØ¶Ø§ÙĨ ÙĥÙħ
ĠÙĪØ´ÙĥØ±Ø§ Ø§
ĠØ§ÙĦÙħØ¤ÙħÙĨ ÙĪÙĨ
j r
ĠØ¬ ÙĬÙĩ
ĠØ° Ø§ÙĦÙĥ
ÙĤØª ÙĬÙĨ
ØŃÙĬ Ø§ÙĨ
ĠÙĪØŃ Ùĥ
ra t
ĠØ§ÙĦØ³ÙĦØ§Ùħ Ø©
ĠÙĩØ§Ø° Ø§Ùĥ
ĠÙĨØªØ§Ø¹ ÙĪ
Ø³ÙħØŃ ÙĦÙĬ
ÙĪ Ø§ÙĬ
Ùģ Ø§ÙĬ
ĠÙĬ Ø¨Ø±
Ø£ Ø¨
ÙĪÙħ Ø§ÙĨ
ĠØ² Ø§ÙĪÙĬØ©
ĠØ§ÙĦØ° ÙĩØ§Ø¨
ĠÙĪÙħ Ø¨
te d
ĠÙģØ§Øª Øª
ĠØªÙĦÙĤ Ø§
Ġbac k
ĠØªÙĤÙĪ ÙĬÙħ
ĠØ³Ø§Ø¹ ØªÙĬÙĨ
K i
ÙĬ ÙĦØ©
ĠÙĪ Ø®ÙĦ
ĠØ¨ ÙģØ§Ø±
ĠØ¬ Ø§Ùĥ
ĠØ¬ ÙĩØ§Ø¯
ĠØ§ÙĦØ£ ÙħÙĪØ§ÙĦ
ĠØªØŃ ÙĪØ³
ĠÙĪØ¹ ÙĬ
ĠØ¨Ø¹ ÙĨ
ĠØ§ØŃ ØªØ§Ø¬
Ø¯ÙĪ Ø¯Ø©
ĠØ§ÙĦÙĦ ÙĪÙĦ
ĠØªØª Ø²ÙĪØ¬
Ú¨ Ùĩ
ĠÙĨÙģ ÙĪØ³
ĠØªÙĤÙĪÙĦ ÙĪ
ĠÙĨÙĦÙĤ Ø§Ùĩ
ĠÙĬÙĤØ¯Ø± Ùĥ
STR ONG
7 6
ĠØª ÙĪØ¬Ùĩ
ĠØ§ÙĦÙħ Ø±Ø¶Ùī
ĠØ§ÙĦØ¹ Ø§Ø¨
Ø¹Ø¯ Ø§Ø¡
ÙĤÙĬ Ø§Ø³
ÙĬØª ÙĨØ§
Ġs er
Ġn r
Ø·ÙĪ ÙĬØ±
ĠØ¹ÙĤ ÙĦÙĥ
ĠØ§ÙĦÙĪÙģ Ø§Ø¡
ĠØ¹ ÙĤÙĪØ¨Ø©
ĠØ± ÙĨØ§
Ø® Ø§Ø¨Ø§Øª
Ø§Ø¯ Øª
Ø§Ø¦ Ø²Ø©
ĠØ§ÙĦØ´ Ø±ÙĥØ©
ÙĥÙĬ Ø§Øª
ĠØ¶ ÙĪ
ĠØ§ÙĦØº Ø±Ø¶
ØºÙĬ Ø«
> <
w ah
Ø³ Ø§Ø±
ĠÙģ ÙĤÙĩ
ĠØª Ø§Ùħ
ĠØª Ø¯Ø¹
ĠÙĩ Ø§Ø±Ø¨
ĠØŃ ÙĪÙĦÙĩ
ĠØº ÙĬØ¨
ĠÙĥÙĦ Ø§Ø´
ĠðŁĺ Į
ĠØ§ÙĦØ¯ ÙĩØ±
ĠØ§ ÙĪÙħÙĬ
ĠØ§ÙĬ ÙħÙĨ
ĠØ§Ø± Ø³
ĠØ§Ø¹ ØªÙĤØ§Ø¯
ĠÙĬØ® ÙĦÙĬÙĥÙħ
ĠØ§ÙĦØ¨ÙĬ Ø¹
Ġmo i
ĠØ¯Ø±Ø¬ Ø§Øª
ĠØ§ÙĦØµØº Ø§Ø±
ĠØªÙģÙĥØ± Øª
ĠÙģ Ø§ÙĨØ§
ĠØ® Ø¨
ĠØªØŃ Ø±Ùĥ
Ġ3 9
en ti
ĠÙĬÙĪÙħ Ø¦Ø°
ÙģÙĩÙħ Ø´
ĠØ§ÙĦÙħÙĨ Ø§Ø·ÙĤ
ÙĩÙĪ Ø§Ø¡
ĠÙĨØ³Øª Ø·ÙĬØ¹
ĠÙĥØ± Ø³ÙĬ
ĠØ£Ø±Ø¨ Ø¹ÙĬÙĨ
Ø§ÙĦ Ø¯ÙĬÙĨ
ĠØ¨ ÙĩÙħØ§
ĠÙĦ Ø§Ø²
ĠØ¨Ø§ÙĦ Ø§Ø³Øª
ÙĪÙĩ Ø§Ø´
Ø³Ø³ Ø§Øª
f o
f in
Ùħ Ø§Ø·
ĠØ± Øµ
ĠØ§ÙĦØ¹ Ø²
ĠØ· Ùĩ
Ø±Ø¨ Ø·
ĠÙĪÙĦØ§ ÙĥÙĨ
Ø¦ Ø±
ĠÙĪÙĦÙĬ ÙĨØ§
ĠØ¬ÙĬ ØªÙĬ
lo w
ĠØ¹ÙĬÙĨÙĬ Ùĩ
5 3
c o
Ùģ ÙĤØ¯
Ø¶ ÙħØ§Ùħ
ĠØ§ÙĨ Ùģ
ĠØ§ÙĦØ± Ø¨ÙĬØ¹
ĠØ¯ÙĬØ± ÙĩØ§
ÙĪÙĦÙĬ Ø¯
ma is
ĠØ§ÙĦØ¶ ØºØ·
ĠØ§ÙĦØªØ§Ø±ÙĬØ® ÙĬ
ĠØ¨Ø§Øº ÙĬØ©
ĠØ®Ø·Ø± Ø§
ØªØ³ ÙħØ§
Ø°Ùĥ ÙĪØ±Ø©
ĠÙĬØµØ± Ø§
( (
5 2
Ã §a
ĠØ§ÙĦ Ø§Ø²
Øª ÙħØ©
ĠØ¨ ÙĦØ¨
ĠÙĬ ÙģØª
Ø´ Ø£
ĠØŃ Ø§Ùħ
ĠÙħØ¹ Ø¬Ø¨
Ø§ÙĪ ÙĩØ§
ĠØ§ÙĦÙĤ Ø¶
ĠØº ÙĦØ¨
Ø±Ø¨ ÙĬÙĨ
ĠØ§ÙĦÙĥ Ø¨Ø§Ø±
ĠØŁ .
ĠØ§ÙĦØªÙĬ Ùĥ
ĠØ£Ø® Øª
ĠÙħÙĪ ÙĤ
ĠØ§Ø¹ ÙĦØ§ÙĨ
ĠÙħØ§Ùĥ Ø§Ø´
ĠØªÙĨØ¬ ØŃÙĬ
ĠÙĨ Ø¨Ø¯Ø£
ĠØŃ Ø§ÙĦÙĩ
ĠØ¨Ø§ÙĦ Ø°Ø±ÙĬØ©
Ġm i
ĠØ¶ ÙħÙĬØ±
ĠØ§ÙĦØ§Ø¹ ÙħØ§ÙĦ
ĠÙĤØª ÙĦÙĩØ§
âģ ł
ĠØ§ÙĦÙħØ³Ø¤ ÙĪÙĦÙĬØ©
ĠÙħ Ø¯ÙĬ
ĠØ¨ Ø¯ÙĬÙĨ
ĠÙĨ Ø§Ø¦ÙĦ
ĠØ³ Ø§Ø¨ÙĤ
Øº Ø¯ÙĪØ§
ĠØ§ÙĦØŃ Ø¨Ø±
ĠØ§ÙĦÙĤ Ø§Ø±Ø¦
ĠØ¹ÙĦÙħ ÙĨØ§
ĠÙħØ§Øª ÙĪ
ĠÙģØ±ØŃ Ø§
ĠØ·ÙĦ Ø¨Ø©
ĠØ§ÙĦÙħØº Ø±Ø¨ÙĬ
ĠÙĪ ÙĩØ§
ĠÙĦ Ø·ÙĬÙģ
ĠÙĤ Ø§ØªÙĦ
Ø§Ø¯ ÙĨ
ĠØ§ÙĦØ¹ Ø·ÙĦØ©
ĠÙĪÙĬ Ùĩ
ØªÙĥ Ø´
ĠÙĪØ± Ø§ÙĬØ§
ĠØªØ± ØªÙĬØ¨
ĠÙħÙĤ ÙĪØ¯
ol o
Ġal ger
ĠÙħØ§ØªØª ÙħÙĨÙī
ĠØ§ØŃØªØ± Ø§ÙħÙĬ
ĠØ§ÙĦ ÙĪØ§ÙĤ
ĠÙĦ Ø¨ÙĬ
ĠÙĨ Ø°ÙĥØ±
ĠØ§ÙĦÙħ Ø¯Ø±
ĠØ§ÙĦÙħ ØªØ¨
ĠØ§ÙĦØ´ Ùģ
ĠØ§ÙĦØ¯ ÙĪØ§ÙĦ
ĠØ§ÙĦØµ Ø¨ØŃ
ÙĬÙħ ÙĥÙĨ
Ø§Ø· ÙĬØ±
ĠÙĪØ¨ Ø§Ø¨Ø§
ÙģØ¶ Ø©
ØªØ´ Ùģ
ĠØ§ÙĦØº ÙĬØ¨Ø©
ĠØ¨Ø£ Ø®
ĠÙĨØ² Ø¹
ĠØ¬Ø§ÙĪØ¨ ÙĬÙĨÙĬ
T A
k ho
Ùĩ Ø°Ø§Ùĥ
ĠÙħ ÙĤØ·Ø¹
Ø§ÙĨ Ø³
ĠÙĩ Ø¬Ø±
Ø§Ùĥ Ø«Ø±
ĠØ¥ Ø¬Ø§Ø¨Ø©
Ø§Ø¹ Ø¯Ùĥ
ĠØµ Ø¹ÙĪØ¨Ø©
ĠÙĬØŃ ÙĤ
ĠØ§Ø® ØªÙĨØ§
Ġm uch
ĠÙĪÙĨ Ø³Øª
ØŃÙĬ Ø§Ø²
ĠØªÙħ Ø«ÙĦ
ĠØªØ£ Ø«Ø±
ĠÙĨØ² Ø¹Ø©
ĠØ¨ÙĦØº Øª
ĠÙĥØ´ ØºÙĦ
Ø§Ø³ Ùģ
Ø§Ø° ÙĥØ±
ĠØ§ÙĦØ³ ÙĪØ¡
ĠØ¢ ÙĦÙĦÙĩ
ĠØ§ÙĦØº Ø±Ø¨ÙĬ
ĠÙĤØ¯ Ø§ÙħÙĬ
ĠØµÙĦ ÙĪØ§
R A
m n
y e
ÙĤ Ø¶ÙĬØ©
ĠØª Ø³ÙĦÙħ
ĠØ¥ Ø¬Ø§Ø¨
Øº Ø±ÙĬ
Ø¹ÙĪ Ø¯ÙĬ
ĠØ§ÙĦØ® Ø¶Ø±
Ġm s
ĠÙĪØ´ ÙħÙĨ
ĠØ§ÙĦØº Ø§ÙĦØ¨
ĠØªØ® ØªØ§Ø±
ĠØ§Ø´ ÙĬØ§Ø¡
Ġj our
ĠÙħÙĩ Ø¨ÙĪÙĦ
ĠÙĨÙĬ ØªÙĥ
ĠÙģØ§Ø± Øº
ĠØ®Ø± Ø·ÙĬ
ĠØ±Ø¬Ø§Ø¡ Ø§
ĠØ§ÙĦÙģØ§Øª ØŃØ©
' m
ĸ ª
ĠÙĪ Ø¹ÙĦØ§Ø´
ĠØ´ Ø§ÙħÙĦØ©
ÙĦÙĪ Ø¨Ø©
ĠØ§ÙĦØ± Ø§Ø³
Ø¯Ø§ ÙĪÙĦ
ĠØ§ÙĦØ° ÙĨØ¨
ÙĥÙĦ ÙĨØ§
Ġk eep
ĠØ¯Ø§Ø± ÙĩÙħ
ĠÙĨØ³ÙħØ¹ ÙĩØ§
ĠØ®ÙĦÙĬ ÙģØ©
ĠÙĬØªØŃ Ø±Ùĥ
ĠØªØŃÙħ ÙĬÙĦ
ĠÙĥÙĬÙĨ Øº
ĠØ«ÙĦ Ø«
ĠÙħ Ø§Ø·
ÙĤ ØªÙĩ
ĠØª ÙĩÙħ
ĠÙĨ Ø·ÙĦØ¹
ĠÙĨ ÙģØ±ÙĤ
Ø§Ø¨ ÙĪÙĨÙĬ
Ø±ÙĪ Ø³
ĠØ¶ ÙĪØ¡
Ġs on
ĠÙĪÙĤØ§ÙĦ ÙĪØ§
ĠØ§ÙĦÙħØ® ØªÙĦÙģØ©
ĠØ¨ÙĨÙģØ³ Ùĥ
gra m
ĠÙģ Ø¬Ø¹ÙĦ
Ø¬ Ø§Ø±Ø©
ĠØ± ØŃØ¨
ĠØ® ÙĦÙĬÙĦ
ĠØ§ÙĦØ³ ÙĥØ§ÙĨ
Ø¹Ø¯ ÙĨØ§
ĠØ§ÙĦØ¯ Ø§ÙĦ
ĠØ§ÙĦÙĪ Ùĥ
ĠÙĪØ³ ÙĨØ©
ĠØŃØ³ÙĨ Ø§Øª
ĠØªØ¯ Ø¹Ùħ
Ø·Ùģ ÙĦØ©
ĠØµÙĦ Ø§ØªÙĩ
ĠØŃØ¯ÙĬØ« Ø§
Ø¯ÙĬØ±ÙĬ ÙĦÙĨØ§
ĠÙĪ Ø«ÙĦØ§Ø«
ĠØ§ÙĦØŃ Ø§ÙĦÙĬ
ĠØ§ÙĦÙĤ Ø±ÙĬØ¨
ĠÙĦÙĦ Ø¢
ĠØ§ÙĦØ® ÙħØ³
ĠÙħØ± ØªÙĪ
ĠÙĬÙĪÙħ ÙĬ
ĠÙĪØµ Ø¯ÙĤ
Ø·Ø± Ø§
ĠØµÙĦ Ø§ØªÙĥ
ĠÙħØ§Ø´Ø§Ø¡ Ø§ÙĦÙĦÙĩ
ĠðŁ¤Ķ ðŁ¤Ķ
Y ou
| |
Ø§ÙĦ Ø£ÙĨ
Ø¹ Ø§ÙĨØ©
Ùģ ÙĦØ§
ĠØ¬ Ø±ØŃ
Ø§Ø¹ Øª
Ø¯Ø± ÙĦÙĨØ§
Ø¹ÙĪ ÙĩØ§
ĠÙĪØ£ ØŃÙħØ¯
Ø§Ø³Øª Ø§Ø§Ø°
ĠÙĪØª ÙģØ±
ĠØ§ÙĦØ· ÙĦØ§ÙĤ
Ø±Ø¬ Ø§Ø¡
ĠØªÙĨ ØŃÙĬ
ĠØ§ÙĨØª ÙĤÙĦ
ĠØ¯ÙĬÙĨ ÙĬØ©
Ġ0 1
Ġo k
ðŁĳį ðŁĳį
ĠØªØ¬ÙĬ Ø¨ÙĬ
ĠØ£Ø² ÙĪØ§Ø¬
ĠÙĬØ¤ÙħÙĨ ÙĪÙĨ
Ø¯ Ø±ÙĬØ³
Ø§Ø³ Ùĩ
ĠØ§ÙĦØ£ ØŃÙĬØ§ÙĨ
ĠØ§Ø³ Ùĥ
ĠÙĪØ¹ ÙĦÙĬ
Ġn as
ĠÙĦÙĦÙħ ÙĦÙĬÙĪÙĨ
ĠØ§ÙĦØ¬ÙĨ ÙĪØ¨
ĠØªØ¯ Ø¹ÙĬ
I n
p le
Ùĩ ÙĦÙĩØ§
ĠØ¨ ÙĤØ±
ĠØ¹ ÙĦØ§Ùħ
ĠØ¨Ø§ÙĦ ØµØ¨Ø±
Ø±ÙĪ Ø´
Ø¹ÙĦ Ø§ÙĨ
ĠÙĤØ± ÙĬØ©
ĠØ¬Ø¯ ØªÙĬ
ĠÙħØ§Ùĩ ÙĬØ´
ĠØ§ÙĦØ³Ø¨ ÙĪØ±Ø©
ĠÙĨØ¨Ø¯ Ø§ÙĪ
Ġ================ ================
z f
ĠÙĪ ÙĦÙī
ĠÙħ ÙĪØ§ÙĤÙģ
ðŁĺ ĵ
ĠÙĪØ§ÙĦ Ø¯Ø¹Ø§Ø¡
Ø§ÙĬ Ø®
ĠØ§ÙĦØ± Ø§ØŃØ©
ØªÙĩ ÙĬ
ĠÙĪØ± Ø§
ÙĪÙĥ Ø§
ĠÙħØ± Ø¹Ø¨
ĠÙĦØ¯ÙĬ ÙĩÙħ
ĠØ§ÙĦÙĨØ¨ ÙĪÙĬ
ĠÙĪ ÙĪØ§ÙĦ
ĠØ£ Ø±ÙĪØ§ØŃ
Ø· Ø´
ĠÙĤ Ø§Ø³Ùħ
ØªÙĪ Ø¬
ĠÙĬØ¹ ØªÙħØ¯
ĠÙĪØª Ø£
Ø±Ø¬ Ùħ
Ġ3 2
ĠÙĦÙĪ ØŃØ¯
ĠØ¨Ø¯ Ø§ÙĪ
ĠØªØ± Ø§Ùĩ
Ġg ha
ØºÙĦ Ø§ÙĦ
ĠÙħØ· ÙĦÙĤØ§
ĠØ¹Ø¨Ø§Ø¯ Ùĥ
ĠØ£ÙĩÙħ ÙĬØ©
ĠØ§ÙĦÙĨØ² Ø¹Ø©
ĠØ§Ø³ÙĦØ§Ùħ ÙĬØ©
Ø¨ ÙĬØ±Ø©
ĠÙģÙĬ ÙħÙĨ
ðŁĺ °
ĠÙĥÙĬ Ø´
ĠØ§ÙĦÙħØ± Ø§ØªØ¨
ĠØªØ³ Ø¬ÙĬÙĦ
ĠØ§ÙĦØŃÙħ Ø§Ùħ
ĠØ¬ÙĬØ¨ ÙĪ
Ø¨ÙĪØ± ÙĥØª
ĠÙĦ ÙĤÙĪÙĦ
ĠÙĥ ÙĪÙħÙĨØªØ§Ø±
ĠØ± Ø¬Ø¨
ĠØ§ÙĦÙĪ ÙĩØ§Ø¨
ĠÙĬÙĩ Ø¯ÙĬÙĩ
ĠÙħØ±Ø¶ Ùī
ĠØ·ÙĬØ¨ Ø§
ĠÙĦØ§ØŃ ÙĪÙĦ
>< /
z al
ĠØ§ÙĦ Ø¨Ø±ÙĥØ©
ĠØª Ø±ØŃÙĬØ¨
ĠÙĨ Ø¨Ø¹
ĠÙĪØ§ÙĦ ØŃØ±
ĠØ¬ Ø±ÙĬÙħØ©
ĠØ§ÙĦØ¹ Ø§ÙĦÙĬØ©
Ø§Ùģ ÙĦØ©
Ġ- --
ĠØ§Øª Ø¬Ø§Ùĩ
ĠÙħØº Ø±Ø¨ÙĬ
ĠØµØ§ØŃØ¨ ÙĩØ§
ĠØªÙĬ ÙĦÙĬÙģÙĪÙĨ
ĠØ§ÙĦØªÙģ Ø§ØµÙĬÙĦ
ØŃØ³Ø¨ ÙĨØ§
ĠØ§ÙĦÙħÙĪØ¬ ÙĪØ¯Ø©
0 2
Ġ ''
Ø³ ÙĪØ±
ĠØ£ Ø´Ø±
ĠÙĥ Ø°Ø§Ø¨
ĠØ¬ Ø§ÙĩÙĦ
ĠØ¨Ø§ÙĦ Ø¯ÙĬÙĨ
ĠÙħØ¹ ÙħØ±
ĠØ§ÙĦØ³ ÙĬØ±
ĠØ· ÙĦØ©
ĠÙĪÙħ Ø§Ø°Ø§
ĠØ§ÙĦØ· ÙĦØ§Ø¨
Ġy b
Ġp ub
Ġra na
ĠÙĬØ¨Ø§Ø±Ùĥ ÙĦÙĥ
ĠØ¨Ø£ÙĨ ÙĩØ§
ĠR abi
ØªØ±Ùħ Ø°ÙĬ
ĠÙħØ±ÙĪ Ø§ÙĨ
ÙħØŃ ØªÙĪÙī
ĠÌģ ØŁ
ĠØ¨ÙĪÙħ Ø¯ÙĬÙĨ
ĠØ§ÙĦØµØ¯ ÙĤØ©
ĠÙĬ Ø§Ø¹
ĠØ± ÙĤÙĬ
Ø§Ø¨ ÙĬÙĥ
Ø§Ø¯ ÙĬÙĨ
ĠØ§ÙĨ Ø³ØªØºØ±Ø§Ùħ
Ø¦ Ùĩ
ĠØ§ÙĦÙĪ Ø¹ÙĬ
ĠÙĪÙĨ ÙĤÙĪÙĦ
ĠÙħØª Ø²ÙĪØ¬
Ø¥ÙĨ Ø´Ø§Ø¡
ĠÙĪØµ Ø§ÙĬ
ĠØµØ¨Ø§ØŃ Ø§
Ġlo la
Ġcomp te
ĠÙģØ§ÙĦÙĬ ÙĪØªÙĬÙĪØ¨
ĠØ§ÙĦÙĪØ« Ø§Ø¦ÙĤ
Øª Ø¹ÙĬØ´
ĠØ± Ø§Ø¶ÙĬØ©
ĠØ§ÙĨ ÙħØ§
ÙħØ± Ø§Øª
ĠØ§Ø³Øª Øº
Ø±ÙĪ Ø©
ĠÙĬØ¹ Ø±Ø¶
Ø§ÙĤ Ø§Øª
ĠÙĬÙĤÙĪÙĦ ÙĪØ§
ĠÙħØ³Øª ØºØ§ÙĨÙħ
ĠØ§ÙĦØ±ÙĬ Ø§Ø¶Ø©
ĠØ§ÙĦØŃØ³ÙĨ Ùī
ĠØ£ÙĨÙģØ³ ÙĨØ§
ĠØ°Ùĩ Ø¨Øª
ĠÙģ Ø¦Ø©
Ø§ÙĨ ÙĩÙħ
ĠØª ØªØ¨
ĠÙĨ ÙģÙĪ
âĿ¤ ðŁĺ¢
ĠØ£ÙĨ ÙĥØ±
ĠØ¨Ø§ÙĦ Ø§Ø®
Ġs m
Ġc ette
ÙĪÙĩ Ø´
ĠÙĬÙģ ÙĥØ±
ĠØ§ÙĦØ§Ø¯ Ø¨ÙĬÙĬÙĨ
ĠØ·ÙĦØ¨ Øª
ĠØ§ÙĦØ´Ø®Øµ ÙĬØ§Øª
Ø§Ø·ÙĦ Ø§Ø¹
Ø§ÙĩÙĬ ÙħÙĬ
ĠÙģÙĩ ÙĨØ§Ùĥ
Ø§ÙĦ ÙħØ©
ĠØ§ÙĦ Ø±ÙĬØŃ
ĠÙĪØ± Ø¯Øª
ØªØ± Ø´
ĠØ§Ø¹ ØªØ¨Ø±
ĠØªÙĪ ÙĤØ¹
ĠÙĬØ¯ Ø¹Ùħ
ĠØ§ÙĦØ§ ÙĪØ±
ot re
ĠØ§ÙĦØ³Ø§Ø¯ Ø³Ø©
k oum
s ah
ĠØ¹ Ø¬ÙĪØ²
ĠÙĬ Ø®ÙĦ
ĠÙĪØ§ÙĦ ØªÙħ
ÙģÙĬ Ø§Øª
ĠØ§Ø³ Ø¦ÙĦØªÙĬ
ĠÙĪÙĬ Ø¬Ø¨
ĠØ§Ø³Ùħ ÙĬØ©
ĠÙħØ§Ø² ÙĦØª
ĠØ¯Ø¹ Ø§ÙĦÙĬ
ĠÙĬØ¬ÙĬØ¨ ÙĪ
ĠÙħØ³Ø¤ ÙĪÙĦ
Ġho wa
0 3
ÙĬ Ø§Ùĥ
Ø± Ø§ÙĦ
ĠØ¹ Ø¸ÙĬÙħØ§
ĠØµ ÙĦØ©
ĠØ¹ÙĦÙĬ ÙĩÙħØ§
ĠÙħØ¹ ÙĦØ§Ø¨Ø§ÙĦÙĬØ´
ĠÙĦÙĦ Ø¹ÙħÙĦ
ĠØ« ÙĨ
Ġt f
ÙħØ§ÙĦ Ø§
ĠØ§ÙĦÙħÙĨØª Ø¯ÙĬØ§Øª
ØŃØª Ø§
ĠÙĦÙĤ ØµØµ
ĠØ£ÙĤ Ø³Ø§Ùħ
ĠÙħÙĦØ®Øµ Ø§Øª
ĠØ±ÙĪØ§ØŃ ÙĥÙħ
ĠÙĪ ÙĦÙĤ
ÙĦÙĬ ÙĤ
ĠØ± ÙĬØª
ØªÙĬ ÙĩÙħ
ĠØ§ÙĦÙĤ Ø§Ø¦ÙĦ
ĠÙĦÙĦ Ø§Ø®
Ø§Ø±ÙĬ ÙĪ
Ġ4 8
ĠÙħØµ ÙĬØ¨Ø©
ĠÙģØ¹ ÙĦÙī
ĠÙĪØŃØ¯ ÙĩÙħ
Ġ0 2
ĠÙħØ· Ø§Ø±
ĠÙĪØ§Ø¹ ÙĦÙħ
Ø®ÙĪÙģ Ø´
ĠÙģØ±Ùĥ ÙĪØ³
I D
ĠÙĦ Ø²Ùħ
ĠØ¹ Ø¨ÙĬ
ĠØª ÙĨØ§
ĠÙĩ Ø§Ùĩ
ĠØ³ Ø§ØŃ
ĠØº Ø§Ùħ
Ø§ÙĤ ÙĬÙĨ
ĠØ²ÙĬØ¯ ÙĦÙĨØ§
ĠØ¨ Ø±ØŃ
ðŁĺ ³
ÙĪÙĨ Ø§Øª
Ø±Ø¨ Ø§Ø¡
ĠÙħØ´ Ø§Ø¹Ø±
Ġa h
ÙĬØ´ Ø©
an ce
ĠÙģØ£ Ø®Ø°
ĠÙĬØ¬Ø§Ø² ÙĬÙĥÙħ
ĠØ´Ø¹ Ø±ÙĬ
ØªØ³Øª Ø§ÙĩÙĦ
j o
ĠØ³ ÙĪÙĬ
ĠØ§ÙĦØ¹ ÙĬØ¨
ĠÙĬØŃ Ùģ
ÙĤØ§ÙĦ Ø§Øª
ĠØ¶ ØºØ·
ĠØ§ÙĬ ÙĩØ§
ĠØ§Ø¯ Ø¨ÙĬØ©
ĠÙģØ¥ÙĨ Ùĥ
di o
us si
ðŁĶ¥ ðŁĶ¥
ĠÙĦØ³ Ø§ÙĨÙĬ
ĠØµØ§Ø± Øª
ĠÌ Ħ
ĠØ§ÙĦØ´Ø¹ Ø¨ÙĬ
ĠÙĬ Ø¨ÙĤ
ĠØ® Ø§Ø±
ĠØ§Ø³ Ø¨Ø§Ø¨
ĠØ§ÙĦØ± Ø®
ĠØ§Ùħ Ø³Ùī
ÙħÙĪ Ø²
ĠÙĪÙĬÙĨ ØªØ§
ĠØ°ÙĥØ± ÙĩØ§
ĠÙĪÙĥØ§ÙĨ ÙĪØ§
Ġ0 3
ĠÙĬÙĦ Ø¯
ĠÙĬØ±Ø²ÙĤ ÙĨØ§
ĠØ§ÙĦØ´Ø®Øµ ÙĬ
ĠØ®ÙĪÙģ Ø§
ĠÙħØ§Ø¯ ÙĬØ±
gl ish
Ġ om
ĠÙģ ÙĪØª
ĠÙĨ ÙĤØ±Ø£
ĠØ§ÙĦØ¥ Ø¯Ø§Ø±Ø©
Ø¡ Ø§ÙĨ
Ġd id
Ġh k
ðŁĺħ ðŁĺĤ
ĠØ¯ÙĬ Ø§Ø±
ĠØ£Ø¹ ÙĬÙĨ
ĠØªØ¹ÙĦÙĬ ÙħÙĬ
Ġre nd
ĠØ§Ø¬Ø¹ÙĦ ÙĨÙĬ
ĠØ§ÙĦØµØ± Ø§ØŃØ©
ĠÙĨÙĬØ´ Ø§ÙĨ
ĠØŃ Ø³Ø§ÙĨ
ÙĬØ¨ Ø§ÙĨ
ĠÙĥÙĬÙģ ÙĥÙĬÙģ
Ø§ÙĦØ¨ Ø§Ùĥ
ĠÙħÙĩ ÙĪØ´
ĠÙĤØª ÙĦØª
ĠÙĬØ´ÙģÙĬ Ùĩ
Ġex p
Ø¯ ÙĤÙĬÙĤØ©
ĠÙĥ Ø§ÙĦÙħ
ĠØµ ÙĪÙħ
Ø§Ùģ ÙĤØ§Øª
ĠÙĬØ¹ ÙħØ±
Ġn ous
Ø¬ÙĨ ÙĪÙĨ
ĠÙĪØ§ÙĦØ´ ÙĬØ®
ĠØ¨ÙĤ Ø±Ø©
Ø§ØªØ¨ Ø§Ø¹
ĠØ¨Ø§Ø³ Ùĥ
ĠØ§ÙĦØ«ÙĤ Ø§ÙģÙĬ
ĠÙĤØ§Ø¦ ÙĦØ§
Rak lita
6 4
ĠÙģ ÙĨØ¯ÙĤ
ĠØª Ø²Ø§ÙĦ
ĠØŃ ÙģØ±
ĠØ§ÙĦÙħ ØŃØ¨
Ø§Ø³ ÙĨ
ĠØ§ÙĦØ¥ Ø®ÙĦØ§Øµ
Ġ3 00
ØªØ± Ùī
Ø¬ÙĦ Ø§Øª
ĠØ´Ø± Ø¹ÙĬ
ĠØ¨ÙĪ Ø§Ø³
ĠØªØ±Ùĥ Øª
ĠØ§ÙĦÙģÙĬ Ø²ÙĬØ§Ø¡
ĠÙĥØ£ÙĨ Ùĩ
ĠØ±Ø§ÙĤØ¯ Ø©
ĠØ¹ÙĦØ§Ø¬ Ø§ÙĦ
b ou
ĠØ£ Ø±Ùĥ
Ø£ ÙħØ§
ĠØŃ Ø§ÙĪÙĦÙĬ
ĠØ§ÙĦØŃ ØµØ©
ĠØ§Ø³ Ø·ÙĪØ±ÙĬ
ĠØº Ø±ÙģØ©
Ø±Ø¨ Ø§
ĠØ§Ø± Ø¬Ø¹
Ø³Ø± Ø§
ĠÙĬØ¯ ÙĪÙħ
ĠÙĪØ³ Ø¯Ø¯
ĠØ§ÙĦØ§Ø³Øª Ø¹Ø§Ø±Ø©
ĠØªØ¹ÙĦÙĬ ÙĤØ§Øª
ĠØ£Ø´ ÙĩØ¯
Ã¨ me
ĠØ§ÙĦØªØ±Ùĥ ÙĬØ²
ĠØŃØ§Ùģ Ø¸Ø©
6 3
i ch
Ø¬ ÙĬØ§Øª
ĠØ§ÙĦØ£ ÙĤÙĪØ§ÙĦ
ÙĦØ¨ Ø§Ø¨
ĠÙĪØ¨ ÙĨ
ĠÙĬØ³ Ø¹Ø¯Ùĥ
ĠÙĤØµ Ø¯Ùĥ
Ø¬ÙĪ Ø¨Ø©
ĠØ¨Ø· Ø±ÙĬÙĤ
ĠØ§ÙĦÙħØ· ÙĦÙĪØ¨
ĠØ´Ø¹Ø¨ Ø§ÙĨ
ĠÙĬØªØŃ ÙĤÙĤ
ĠØ£ÙĪÙĦÙĬ Ø§Ø¡
ĠØ§ÙĦÙģÙĪØ² Ø§ÙĨ
Ø§ÙĦ Ø¹ÙĦÙħ
ĠØª ÙĦØ§
ĠÙĪØ§ÙĦ ØªØ´
Ø¢ Øª
ĠØ§Ø® ÙĪØ§Øª
Ø³Ùħ Ø§ÙĨØ©
ØµÙĦ ÙĪØ§
an di
ĠÙĨØ³ Ø§
ĠØ§ÙĦÙĨÙģ Ø³ÙĬ
Ġrak lita
ĠØ§ÙĦÙĪØ§Ø± Ø¯Ø©
ĠÙĦØ§ØŃØ¸ Øª
Ø¹ Ø§Ø¯ÙĬ
ĠØ¨ Ø¯ÙĪ
ĠÙħÙĨ Ø§Ø²Ø¹
ĠØªØ¹ ÙĬØ·
Ġt oop
Ġw el
ĠØ§ÙĦØ« Ø§Ø¨Øª
ĠØ¨Ùĥ ÙĦÙħØ©
ĠÙħØ§Øª Ø´
ĠØ§ÙĦÙħØ¹ Ø§Ø±Ùģ
ĠØ¯ÙĬ ØªÙĬ
ĠØ¯ÙĬ Ø§ÙĦÙĬ
ĠÙĦÙĬÙĥ ÙĪØ±
ĠÙĬÙĩØ¯ÙĬ ÙĥÙħ
ĠÙħØ´Ùĥ ÙĪØ±Ø©
ÙĪ ØŃØ¯
ĠØ§ÙĦØª Ø«
ĠØ§ÙĦØ¨ Ø·Ø§ÙĤØ©
ĠÙĪØ¬ Ø¹
Ġ20 15
ĠÙĬØ¯ Ùĥ
ĠØ§Ø´ ØªØ±Ùĥ
ĠØ§ÙĦØ¹Ø¨ Ø§Ø¯Ø§Øª
ĠØŃÙĥÙĬ Ùħ
ĠAl ger
ĠÙģØ¶ÙĬ ÙĦØ©
ĠØ¨ÙģØ§Ø± Øº
Ø¯ ÙĩÙħ
ØŃ Ø§Ø¯ÙĬØ«
Ø¬ Ø£
ĠÙĩ Ø§Ø¬Ø±
Ø±ÙĬ Ø¶Ø©
ĠØ§Ùħ Ø±ÙĬÙĥØ§
ĠØ§ÙĦØº Ø²
ĠØªÙħ Ø³
ĠØ§ÙĦÙħØ³ Ø§Ø¡
ĠÙħÙĬÙħ ÙĪÙĨØ©
ØŃÙģØ¸ Ùĥ
ĠÙħØ¹ÙĨ Ø¯ÙĪØ´
Ø´ ÙĩØ±
ĠØ¯ Ø¹ÙĬ
ĠØ§ÙĦÙĨ ÙħÙĪ
ĠØ§ÙĦØ´ Ø§ÙģÙĬ
ĠØ§ÙĦØ± ÙĤ
ĠÙĪÙĬ ÙĤ
ĠÙĪØ¹ ÙĦÙĬÙĥ
ðŁĴ ĭ
Ø¯ÙĪ Ø¡
ĠÙĪØ§ÙĦÙħ Ø³Øª
ĠØ¨Ø£ ÙĦÙģ
ĠÙħØ® Ø§ÙĦÙģØ©
ĠØ§ÙĦØ§Ø³Øª ÙĤÙĦØ§ÙĦ
ĠÙħØ¨ Ø§Ø´Ø±
ĠØªÙĦ Ø®ÙĬØµ
ØªØµ Ø±ÙĬØŃÙĬØ©
ĠØ§Ø¶ ØŃÙī
ĠØ®Ø¯Ùħ Ø§Øª
ĠÙĦØ§Ø´ Ø§ÙĨ
ĠØ§ÙĦØ®Øµ ÙĪØµ
ĠØ§ÙĦØ®ÙĦØ§ ÙģØ©
ĠØ¨Ø¹ÙĨ ÙĪØ§ÙĨ
à ¤
Ġ Z
Ø± Øµ
ĠÙĬ Ø¯ÙĬÙĥ
ĠØŃ Ø§Ø¶Ø±
ðŁĺ ¶
ĠØ´ Ø§Ø¹Ø±
ĠØ¥ Ø¨ÙĦÙĬØ³
ÙĪØ± ÙĥÙħ
Ø§ÙĪ Ùĥ
Ġm il
ĠØ§Ùħ Øª
ĠÙĬØ¬ ÙĬÙĥ
ĠØ§ÙĦÙħØ³ ÙĦØ³ÙĦØ§Øª
ĠØ£ØŃØ¯ Ø«
ĠÙĨØ¹Ø±Ùģ ÙĩØ§
ĠØ§ÙĦØ£ÙĨ ØµØ§Ø±
ĠØ§ÙĦ ÙģØ±Ø¬
Ø¯ Ø¬
ĠØª Ø¨Øª
Ø· Ø±ÙĬÙĤ
ĠØŃ ÙħØ±
ĠØŃ ÙĦÙģ
Ø§ÙĨÙĬ Ùĥ
Ø®Ø±Ø¬ Ùĩ
ĠØ¯Ø® ÙĦÙĪ
ĠÙĪÙĨØ´ Ø§ÙĦÙĦÙĩ
n ow
ĠÙģ ØªÙĬ
ĠÙħÙĨ Ø¸
ĠÙħÙĨ Ø§Ø·ÙĤ
ĠØ³ ÙĦÙĪÙĥ
ĠØ§ÙĦØ£ Øº
Ġ3 3
Ġs ont
ĠØ§Ùĥ ØªØ±
di k
ĠØ¨Øª Ø§Ø±ÙĬØ®
Ġto i
Ø§Ø¯Ø¹ ÙĪÙĦÙĨØ§
ĠØ§ÙĦÙģØ¶ÙĬ ÙĦ
ĠÙħ Ø³ÙħÙī
ÙĤ ÙĦÙĩ
ĠØ³ ÙĥÙĬÙĥØ¯Ø©
ĠØ¨Ø§ÙĦ Ø§Ø³
ĠÙħØ¹ ØµÙĬØ©
ĠØ§Ø³ Ø£ÙĦÙĥ
ĠÙĦÙĦ Ø¥ÙĨØ³Ø§ÙĨ
ĠØ¨Ø¹Ø¯ Ùħ
ĠØ¨Ùĥ ÙĦØ§Ùħ
Ø·ÙĦ ÙĤØ©
ĠØ§ÙĦÙĨÙĤ Ø§Ø·
ĠØ§ÙĦØ·Ø¨ÙĬ Ø¹ÙĬ
B ravo
ĠÙ £
ĠÙĬ ÙĦÙĩÙħ
ĠÙĬ Ø¨ÙĬØ¹
Ø§Ø± ÙĪØ¹
Ø° Ø§Ø¡
ĠØ§ÙĦÙħ Ø´Ø±ÙĤ
ĠØ§ÙĦØ¹ ÙĦØ§ÙĤØ§Øª
ÙģÙĬ ÙĦ
ÙħÙĨ Ùĩ
ĠÙĬØŃ ÙĪØ³
ĠØ§Ø¯ Ø±Ø³
ĠØªÙĨ ÙĤØµ
ĠÙĤØ±ÙĬ Ø¨Ø©
Ø±ÙĤ Ø§Ø¡
ĠÙħØ¤ Ø®Ø±Ø§
ĠØªØ¹ÙĦÙħ ÙĪÙĨ
Ø·ÙĪØ± ÙĬØ©
ĠÙħÙħÙĨ ÙĪØ¹
Ùĥ ÙĦÙħ
ĠÙĬ Ø²ÙĦ
ĠØº Ø±Ø¶
Ø¢ Ø©
Ø³ÙĨ Ùī
ĠØ±Ø¨ Ø§
ĠÙĪÙģ Ø§ØªÙĩ
ĠÙĤØ± ÙĬÙĨØ§
ØºØ± ÙĤ
ĠØŃÙħ Ø§Ø±
Ø§ÙĦØ¬ Ø²Ø¡
ĠØ§ÙĦÙĤØµ Ùĩ
ÙĦ ÙĤÙĬ
Øª Ø¯Ùī
Øµ ÙĪØµ
ĠØŃ Ø¬Ùħ
Ø§Ùĥ ÙĬØ¯
Ø§ØŃ Ø§
ĠØ· Ø¨Ø¹
ĠØ§ÙĦØ´ Ø§ÙĪÙĬØ©
Ø§Ø· ÙĬØ´
ĠØªØ¬ ÙĪØ²
ĠÙĨÙģØ³ ÙĬØ§
== =
ĠÙĦÙĦÙħ Ø±Ø©
Ġin challah
ĠØ²ÙĬ Ø§Ø±
ĠÙħÙĬÙħ ØªÙĬ
ĠÙĤÙĪÙħ Ùĩ
ĠØªÙĩØ¯ Ø±ÙĬ
ĠØ§ÙĦ Ø§Ø°
ĠÙħ Ø¶ØŃÙĥ
ĠØ¹ Ø§ÙħÙĦ
ĠØ± Ø¯Ø©
ĠÙĩ ÙĨÙĬ
ĠØŃ Ø¬Ø§Ø¨
ĠØµ Ø±ÙĬØŃ
ha ch
ĠÙĦÙħ Ø§ÙħØ§
ĠÙĪÙĦ Ø£
ĠÙĬØ¬ Ø¹ÙĦÙĩ
ĠÙħØ± ØªØ¨
Ø§ÙĦØŃ ÙĬÙĨ
or y
ĠÙĤÙĦØª ÙĦÙĩØ§
ĠØ¨Ø³ ØŃ
ĠÙĪØŃØ³ÙĨ Ùĩ
ĠÙħÙĤØªØ±ØŃ Ø©
à ¢
Ø§ÙĨ Ùī
ĠØ³ ÙĬØ±Ø©
Ø§Ùĥ Ø±Ø©
ĠØ® Ø§Ùħ
ĠØ§ÙĦØ¬ Ø¨ÙĦ
ĠÙĪØ¬ Ø¹ÙĦÙĩ
ÙģØ¶ ÙĦÙĥ
ĠÙĪØ´ ÙĬ
ĠØ®ÙĪ Ø§Øª
__ _
ĠØªÙħ Ø§Ùħ
ĠÙĨØ¸ ÙĨ
ÙħØ§Ø± Ø³Ø©
ĠÙĨØ®Ø¯Ùħ ÙĪ
g Ã©rie
ĠÙĤ Ø§Ø³
ĠØ· Ø§ÙĩØ±
ĠÙĪÙģ ØªØŃ
ĠÙĦÙĨ Ø§Ø³
ĠÙħÙĤ Ø±ÙĬ
ĠÙĤØµ ÙĬØ¯Ø©
ĠØ®ÙĦÙĬ ÙĨØ§
b t
d em
Ø¨ ÙĨØª
ĠØ§ÙĦÙħ ÙĪØ¬ÙĪØ¯
ĠØ¨Ø§ÙĦ Ø¢
ĠÙħØ§ ÙĬÙĨ
ĠÙĪÙĬ Øµ
ÙĤØª ÙĨØ§
ĠØ®ÙĬØ± Ùĥ
ĠØ³ÙĬ Ùģ
ĠØ§Øª ÙģÙĤ
ĠÙģØ¥ÙĨ ÙħØ§
ĠØªØ±Ùĥ ÙĬØ¨
ĠÙĨØ³ÙĤØ³ÙĬ ÙĥÙħ
ĠØ§Ø¬Ø¹ÙĦ ÙĨØ§
Ġba ch
ĠØ±Ø§Ø¨ ØŃ
ĠØ®Ø³Ø± Øª
Ø² Ø§Ø¯
Ø§ØŃ Ø¸Ø©
ĠØ§Ø³Øª Ø·Ø¹Øª
ĠÙĨØª ØŃØµÙĦ
Ø§ÙĦÙħ Ø´
Ġn ormal
Ġv u
ĠÙĤØµ Ùĩ
ĠØ±Ùĥ Ø¹ØªÙĬÙĨ
ĠØ¹ÙĬ Ø·
Ġab onn
ĠØ§ÙĦØ®ÙĦÙĬ ÙģØ©
ØªÙĬÙĤ Ø¸
ĠØ§ÙĦ Ø¯ÙĬÙħ
ĠØ£ ÙĥÙĨ
ĠØ¬ Ø²Ø§ÙĬØ±
ĠØ¯ ÙĦÙĬ
Ø§Ø¦ Ø¶
ĠØ¨Ø§ÙĦ ÙħÙĨØªØ¯Ùī
ĠØ§ÙĦØ¬ Ø¨
ĠØ§ÙĦØ± Ø´
ĠØ§ÙĦØ¯ Ø¹ÙĪ
Ġl an
ØŃÙĬ ÙĬÙĨ
ĠØ¨ÙĬÙĨ Ø§ØªÙĩÙħ
ĠØªÙĪ Ø§ØµÙĦ
ĠØªÙĪ ØµÙĦÙĬ
li d
ĠÙĦÙĤ ØµØ©
ĠÙĤØ±ÙĬ ØªÙĬ
ĠØ¶ÙĬ ÙĪÙģ
ĠØ§ÙĦÙħØ¯ ÙĨ
ĠÙģØ¯ÙĬÙĪ ÙĩØ§Øª
ĠØ¨Ø§ÙĦØ¬ ÙĨØ©
ĠØ§ÙĦØ£Ø±Ø¨ Ø¹Ø©
Ġyoutu be
5 7
i o
Ùħ ÙĪØ§
ĠØª Ø¤ÙħÙĨ
ĠÙĥ Ø±ÙĬÙħØ©
ĠØº ÙĨÙĬØ©
ĠØªØ¹ Ø¨Ùĥ
Ø³ÙĬ Ø§ÙĨ
ĠØªØŃ Ø¨ÙĬ
ĠÙħØª Ø¨Ø¹
Ġ3 8
ĠÙĨØ´ ÙĥØ±
ĠØ¯ÙĬØ± ÙĦÙĬ
ĠØ§Ø¯ Ø±ÙĬ
ĠØªØµ ÙĪØ±
202 1
ĠØµÙģ ØŃ
ĠØ¯Ùħ ØªÙħ
ĠØ§Ø±Ø¬ ÙĪØ§
ĠØ§ÙĦØ¶Ø¹ÙĬ ÙģØ©
ÙĨ ØªÙĪÙħØ§
ĠÙħ ÙĦÙĤ
ĠØª ÙĥÙĪÙĬÙĨ
ĠØ£ ÙĤØ±
ĠÙĪØ§ÙĦ ÙĦÙĬ
ĠÙĦÙĦ Ø°ÙĬÙĨ
ĠÙħØ´ Ø±ÙĪ
ĠÙĪÙħ Ø¬
ĠÙĬØ¬ Ø²ÙĬÙĥ
ĠÙħÙĬ Ø³ÙĬ
ÙģØ¹ ÙĦØ§
ÙĩÙĬ ÙĩÙĬ
Ġg hi
ĠÙħÙĥ ØªØ¨Ø©
ĠØµØ± Ø§ÙĦÙĬ
ĠØ·ÙĦ Ø¨ÙĬ
ĠØ§ÙĦØ¹ÙĤ ÙĦÙĬ
ĠÙĨÙģÙĩÙħ ÙĪ
ĠÙĨØ¹ÙĬ Ø·
Ø± ÙĩØ§
Ùĥ ØªØ±
ĠÙĪ ÙĪØ¬
Ø² ÙĪÙĦ
Ø¶ Ø±Ø©
ĠÙĤ Ø¨ÙĬÙĦ
ĠØ§ÙĦÙħ ÙĤØª
ĠØ§ÙĦØ¨ Ø§Ø·
ĠÙĬØŃ Ø³
ĠØ§ÙĦÙģ ÙĨ
ĠØªØª ÙĨ
ĠÙĪØ§ÙĦÙħ ØºÙģØ±Ø©
ĠÙħÙĩ ÙĬØ´
ĠØªØ¹Ø±Ùģ Øª
wa f
ĠÙĬØ®Ø±Ø¬ ÙĪ
ĠÙĪÙĪ Ø¶Ø¹
ĠØ§ÙĦØ®ÙĬ Ø§ÙĦ
ĠØ§ÙĦØŃ Ø¯ÙĬØ¯
ÙĤØª ÙĩÙħ
ĠÙĬØ§ Ø§Ø³ØªØ§Ø°
ĠØ§ÙĦÙĪ ÙĬ
ĠØ§ÙĦØ· Ø§Ø¹Ø©
Ġs ou
ĠÙĩØ§Ø° ÙĪÙĥ
ĠÙĬØµ Ø¨Ø±Ùĥ
ÙĦÙĪÙħ Ø©
ay s
ĠØ¨ÙĤÙĬ Ø§Ø¯Ø©
ðŁ¦ ĭ
g o
Ùħ ÙĪÙĦ
Øª Ø³Ø§Ø¨
ØŃ ÙĪØ§
ĠØ¨ ÙĪØ¬
ĠÙģ Ø§Øº
ĠÙĬ Ø·ÙĦ
ĠÙĤ ÙĦÙĪ
ĠØ¥ Ø¹Ø§Ø¯Ø©
ĠÙĬØ¹ ÙĬ
ĠØ§ÙĦÙĬ ÙĦ
ĠØ¢ ÙĦØ§Ùģ
Ġ20 14
ĠÙĬØ´ Ø§ÙģÙĬ
ĠØ§Ø° ÙĩØ¨
ĠØ®ÙĪÙģ ØªÙĨÙĬ
ĠÙĪØ£Ø³ ÙĥÙĨÙĩ
ĠØ§ÙĦÙĩÙĪ Ùī
ĠÙĪØ£ØµØŃØ§Ø¨ Ùĩ
Ø± Ø§Ø³
ĠÙĨ Ø±Ø¨ØŃÙĪ
ÙĦØ§ ÙĩØ§
ĠÙĦÙĦ Ø§ÙĨ
ĠÙĦÙĦ ÙĤØµØµ
ĠÙĬØ¹ Ø§ÙĪØ¯
ĠØ§Ø® ÙĦØ§ÙĤ
ĠÙħØ± Ø±Øª
ĠØ´ÙĬ ÙĪØ®
ĠØ§ÙĦØº Ø±ÙģØ©
ÙģÙĩÙħ Øª
il na
am i
ĠÙĦÙĦØ£ Ø®
ĠÙĨØ¸Ø± Ø§
Ø¯Ø® ÙĦØª
Ø§ÙĦØ§ÙĦ Ø§ÙĦØ§ÙĦ
ĠÙĪ Ø±ÙĪØŃ
ĠØª Ø°ÙĩØ¨
ĠØ£ ØºÙģØ±
ĠØ§ÙĦØ¹ Ø§Ø¯Ø§Øª
ĠØº ÙģÙĪØ±
Ø§Øµ Ø±Ø©
ĠØ§ÙĦÙħØ³ÙĦÙħ Ø©
ma t
ĠØ£Ø¬ ÙħØ¹
ĠÙĬØ² Ø¹Ùħ
ĠØ§ÙĦØµØ± Ø§Ø·
ĠØ±Ø¶ ÙĪØ§ÙĨ
ĠØ§ÙĦÙĪØ³ Ø§Ø¦ÙĦ
t he
u d
Ùĩ ÙĬØ¯
ĠÙħ ØµÙĦØŃØ©
ĠÙģ ÙĤØª
ĠÙĨ Ø§ÙĥÙĦ
ĠØŃ Ø°Ø±
ĠØ¬ ÙĩÙĪØ¯
ĠÙĪØ£ ØŃØ¨
ĠØ§ÙĦØ¯ ÙĪØ§Ø¡
ĠÙĪÙħ Ø§ÙħØ§
ĠØ§ÙĦÙĬ ÙĩØ§
ĠÙĤØ¯ Ø§Ùĩ
ĠÙĪÙĥ Ø«Ø±
Ġj d
à¢ ª
Øª ÙĤØ¯Ø±
ĠÙĪ Ø§Ø¯ÙĬ
Ø³ Ø±Ø©
ĠÙĬ Ø±Ùĥ
ĠØ§ÙĦÙħ Ø³ÙĬ
ĠØ³ Ø§ØŃØ±
ĠÙĪØ§ÙĦ ØŃÙĤ
Ø§Ø³ Ø§ÙĨ
ĠØ¯ Ø§Ø¹ÙĬ
ĠØ§ÙĦØ³ Ø§Ø¨
Ġy ar
ĠÙĬØ³ Ø¹Ùī
Ġv is
ĠØªÙĦ ÙĤÙĬ
ĠÃ ª
c es
Ġ ________________
ĠÙĪ Ø«Ø¨Øª
ĠÙĬ ÙĨØ§
ĠØª Ø±ÙĪØŃÙĬ
ĠØ£ Ø«Ø¨Øª
ĠÙĨ Ø¹ÙĪØ¯
ĠÙĥ ÙĪÙħÙĪÙĨØªØ§Ø±
ÙĦØ§ ÙĬØ©
ĠØ¥ Ùħ
Ø§Ùģ ÙĬÙĨØ§
Ø§Ùĩ ÙĦÙĪ
ĠØ¨Ø§ÙĦ ØµØŃ
ĠØ§ÙĦØ£ ÙĥÙĦ
ĠÙĦÙĦ ÙģÙĬØ¯ÙĬÙĪ
ØªÙĩ Ø±
ĠØªØŃ ÙĬØ§Øª
ĠÙģØ± ÙĤØ©
ĠÙĪØ§ÙĨ ØªÙĬ
ĠØ§ÙĦÙħØ³ Ø§Ø¦ÙĦ
ĠØ«ÙĦØ§Ø« Ø§
ĠØŃÙĬÙĨ ÙĩØ§
ĠÙħØ§Ø¹ ÙĨØ¯ÙĬØ´
ĠØ§Ø¶ Ø·Ø±
ĠØªØ¹ÙĦÙĬÙĤ Ùĥ
ĠØ¨Ø® ÙĦØ§Ùģ
ĠÙĬØªØ¨ Ø¹ÙĪ
ĠØ±Ø® ØµØ©
ĠØ§ÙĦÙħÙĤØ¯ Ø³
( [
L ola
ĠÙģ ÙĪØ¬
ĠØ¹ Ø²ÙĪØ¬
ĠØ£ ÙĤØ¯Ùħ
ĠØ³ ÙĦØ·
ĠØ§ÙĦØ¹ ÙĤÙĪÙĦ
ĠÙĪØ£ Øµ
ĠØ² Ùħ
ĠØ§ÙĦØ· Ø±
ĠØ§ØŃ ØªÙĬ
ĠÙĨØŃ ÙĤÙĤ
ÙĪØ´ ÙĬ
ĠÙĤØ± ÙĨ
ÙĥÙĪ ÙĪØ±
ĠÙĤØ§Ø¹ Ø¯ÙĬÙĨ
ØªÙĩÙħ Ø´
ĠØ§Ø· ÙģØ§ÙĦ
ĠØ¨Ø¬ Ø§Ùħ
ĠðŁ¤į ðŁ¤į
ĠÙģØ¬ Ø£Ø©
ĠÙģØ§ÙĬ Ø¯Ø©
ala m
9999999999999999 9999999999999999
ĠØ¨ ØªØŃÙĬØ©
Ø§Ùħ Ø±Ø©
ĠØ§ÙĦØ¹ ÙĦÙĪ
Ø§Ø´ ÙĬØ®
ĠÙĪØ£ Ø¨ÙĬ
Ø§Ø· Ø¹Ø©
Ġd y
ĠØ§ÙĦÙħÙĨ Ø§Ø³Ø¨Ø©
or d
ĠØªØ£ Ø®Ø±
ĠØ¯Ø® ÙĦÙĨØ§
0 7
s o
Ø§ÙĦ ÙĪÙĨ
ĠÙĪ ÙĥØ±
ĠØŃ ÙĬØ±
ĠðŁĺ Ģ
ĠÙĪØ£ Øª
Ø§Ø® ÙĪØ§Øª
Ø´Ø± Ùĩ
ĠÙĨØ¬ Ø§ÙĪØ¨
it Ã©
ĠðŁ¤² âĿ¤ï¸ı
ĠØ±Ø§ÙĬ ÙĬ
ĠØ§ÙĦØ§ØŃ ØªÙĬ
ĠØ£Ùĩ ÙĦÙĥ
ĠØ§ÙĦØ·ÙĬØ¨ ÙĬÙĨ
Ùĥ Ø§ØŃ
ĠØ£ ÙĥÙħÙĦ
ĠØ¥ Ø¶
Ø§ØŃ Ùģ
ĠØ§ÙĦØ³ ÙĬØ±Ø©
ĠØ§ÙĦØŃ Ø¬Ø§Ø¬
Ø§ÙĨÙĬ Ùĩ
ĠØ§ÙĦÙĥ ÙĪØ±
ĠÙĪØ£ ÙĩÙĦØ§
ðŁĴ Ľ
ĠØ¨Ùĥ ØªØ§Ø¨
ĠØ§ÙĦØ§ØŃ ØªÙĦØ§ÙĦ
Ø±ØŃÙħ ÙĨ
ĠÙĪØ§ÙĦÙģ ÙĦØ³ÙģØ©
ĠØ§ÙĦØ±Ø¬ Ø§Ø¡
ĠØ§ÙĦØ³ÙĦØ· Ø§Øª
I A
ĠÙĦ Ø¨Ø±
Ø¬ ÙĪØ±
ÙĦÙĬ ØªØ§
ĠØªÙĪ Ø¨Ø©
id e
ĠØ§ÙĦØ¨ÙĬ ÙĪØª
ĠØ´Ø± Ø¹Ø§
ĠØ§ÙĦØ·Ø¨ÙĬ Ø¹ÙĬØ©
ÙĪÙĨØ§ÙĦ Ø¯ÙĪ
0 8
ĠØ£ ÙĤØ±Ø£
ĠÙĨ Ø§ØµØ±
ĠØ§ÙĦØ¬ ÙĨØ³
ĠØ§ÙĦÙĪ ØŃØ¯
Ġd ra
li ch
ĠØ¯ÙĬ Ø§ÙĦ
ĠØ£Ø³ØªØ§Ø° ÙĬ
ĠØ§ÙĦØ§Ø´ ÙĬØ§Ø¡
y ou
Ø³ ÙĩØ§
ðŁ ĵ
ĠÙģÙĬ ÙĩÙħØ§
ĠÙĥ Ùĩ
ĠØŃ Ø§Ùĥ
Ø¨Ø± Ø§ÙĩÙĬÙħÙĬ
Ø§Ø¶ Ø¹Ø©
Ø§ÙĦÙħ ÙĬØ©
ĠÙħØ³ Ø§ÙĥÙĨ
ĠðŁĴ Ľ
ĠØªØ£ Ø´ÙĬØ±Ø©
ĠØªØ¯ Ø±ÙĬ
ĠØ«Ø§ÙĦØ« Ø©
p h
Ùħ ÙĦØ©
Ùĥ Ø§Ø¡
Ø³ Ø±ÙĪ
ĠÙĥ ÙģØ§Ø±
ĠØ± Ø¯Ø§
Ø§Ùħ Ùĥ
Ø² Ùĥ
ÙĨØ§ Ø§
ĠØ§ÙĦØª ØºÙĬÙĬØ±
ĠØ§ÙĦØ´ Ø¹ÙĪØ¨
ĠØ« ÙĨØ§
ØªØ¨ Ø§Ø±Ùĥ
Ġd it
Ġw ho
ĠØ£Ø® ÙĬØ±Ø§
ĠÙĦØ§ÙĨ ÙĩÙħ
ĠÙĨØ¸ Ø±ÙĬ
Ø§Ø²ÙĬ ØºÙĬ
ÙĥØ«Ø± ÙĦÙĨØ§
ĠâĻ¥ âĻ¥
ĠØªÙĥÙħ ÙĦÙĬ
ĠØ°ÙĪÙĬ ÙĩØ§
ĠØ§ÙĦÙħÙĨØ§ÙģÙĤ ÙĬÙĨ
Ùħ Øµ
Ùħ Ø§Ø²Ø§ÙĦ
Ø¨ Ùī
Ø¹ Ø±ÙĬ
ĠÙĤ Ø¨ÙĬÙĦØ©
ÙħØ§ ÙĩÙĬ
ĠØ§ÙĦØ¹ Ø§ÙĦÙĬ
ĠØ² ÙħÙĦ
ÙĪØ¹ ÙĦØ§Ùĩ
ĠØ¨ÙĬ ØªÙĬ
ĠØªØ¬ Ø§Ùĩ
en a
ĠØ¨Ø± Ø¯
ĠÙĤÙĪÙĦ ÙĪØ§
Ġcom men
ØŃØ¨ÙĬ Ø¨ØªÙĬ
Ġ Ú©
Ùĩ ÙĬØ¨
ĠÙĬ ÙĪØ³Ø¹
ĠÙĪØ§ÙĦ Ø§Ø±
ĠØªØ¹ Ùħ
ĠØªØ¹ Ø¯ÙĬÙĦ
ĠØªØŃ Ø¨ÙĪ
ĠÙħØ³ Ø§Ø¨ÙĤØ©
Ø²ÙĤ ÙĨÙĬ
ĠÙĥÙģ ÙĪØ§
Ġfr om
Ùĩ Ø¨Ø©
ĠØª Ø¶Ø±Ø¨
Ø§Ø¨ ÙĪ
ĠØµ ØºØ±
ÙģÙĬ Ø¶
ĠØ§ÙĦØ´ Ø·Ø±
ĠÙĦÙĦ Ø£Ø³
Ġe ver
ĠÙĪÙĬØ® ÙĦÙĬÙĥ
Ġ ****************
Ùħ Ø²ÙĬØ©
Ø¨ Ø®
ĠØ¹ ÙĤÙĪÙĦ
Ø¬ ÙĬØ±
Ġ... ØŁ
ĠÙĪØª Ø¹ÙĦÙħ
ĠÙĦÙĩ Ø¬
ĠØ§ÙĦÙĬ ØªÙĬÙħ
Ø¯ÙĪ ÙĦÙĬ
ĠØ§ÙĦØº Ø±
ĠØ³ÙĬ ÙħØ§
ĠØ§ÙĦÙĨØ¨ÙĬ ÙĬÙĨ
ĠØ§ÙĦØ§Ø® ØªØ¨Ø§Ø±Ø§Øª
ĠÙĦÙĤ ÙĬÙĨØ§
Ø±Ø¯ Ø§Ø³
ĠØ£Ø¯ Ø§Ø¡
ĠØ¥ÙĬ Ø§Ùĩ
ĠØŃÙĦÙĬ Ø¨
ÙĦ Ø£ÙĨ
ĠÙģ Ø·Ø±
ĠØ± Ø¹Ø¯
Ø£ ÙĪÙĦØ§
ĠØ§ÙĦÙħ Ø£Ùħ
ÙĪÙĨ Ø§Ø´
ĠØ³ Ø§Ø¨ÙĤØ©
ĠÙĪØ§ÙĦ ØªØ±ÙħØ°ÙĬ
Ø§Ø¯ ÙĬØ±
Ø§Ø³ Ø§
Ø§Ø¹ ÙĨ
ÙĥÙĨ ÙĩÙħ
ĠØ§ÙĦØ¯ ÙģØ¹
Ġl m
ĠÙģØ§ÙĦ ÙĦÙĬÙĦ
Ø¯ÙĪ ÙĩØ§
ĠÙĪÙĥ Ø§ÙħÙĦ
ĠØ§Ø´ ÙĥØ±Ùĥ
ĠÙĥÙħ ÙĬØ©
ĠØ¬Ùħ ÙĩÙĪØ±
ĠØ®Ø§ÙĦ ÙĤ
ĠØ³ÙĦØ§Ùħ ØªÙĥ
ĠØ´Ø§Ùģ Øª
ĠØ§ÙĦØªØ´ Ø¨ÙĬÙĩ
ĠØªÙĨØµØŃ ÙĨÙĬ
ÙĪ ÙĤØ¯
ÙĪ Ø¯Ø§
ÙĤ Ø±ÙĬØ¨
ĠÙĬ ØªÙĪØ¨
ĠØŃ ÙĬØ©
ĠØ® Ø§ÙĦÙģ
ĠØ§ÙĦØª ÙĪØ±Ø§Ø©
ØµØŃ ÙĬØª
ĠðŁĺ Ĩ
ĠØªØŃ Ø§ÙĪÙĦ
ĠØ¥ÙĨ ÙĩÙħ
Ġb sh
ÙĬØª ÙĬÙĨ
Ġf au
ĠØªØ´ ÙĪ
ĠÙĬÙĪ ØªÙĪØ¨
ĠØ§ÙĦØ®Ø· Ø±Ø©
ĠÙĨÙħ Ø´ÙĬ
ĠØ§ÙĦØ±ÙĬ Ø§Ø¶ÙĬ
ĠØ®Ø·Ø± Ø§Øª
ĠÙĬØ¹ÙħÙĦ ÙĪÙĨ
ĠÙĬØ³ØªØ± ÙĨØ§
ĠÙħÙĬÙĦ Ø§Ø¯
ĠØ§Ø³Ø± Ø§Ø¦ÙĬÙĦ
ÙĨ Ø³ÙĬØª
ĠÙĩ ÙĦÙĥ
ĠØ§Ùħ Ø«Ø§ÙĦÙĥ
ĠØ£Ø¹ ÙĦØ§Ùħ
ĠÙĬÙĤØ¯Ø± ÙĪ
ĠØ§ÙĦÙħØ¨ Ø§Ø¯Ø±Ø©
5 1
e z
t f
Ø· ÙĬØ©
ĠØ§ÙĦÙħ Ø§ÙĦÙĥ
ĠÙĪØ§ÙĦ ÙĨØ³
ĠØ§ÙĦØ¹ ÙĦÙĬÙħ
ĠØ§Ø³ ÙĩÙĦ
ĠØ§Ùħ Ø§ÙĨ
ÙĪÙĬ ÙĦØ©
ÙĨØ³ Ø£ÙĦ
ĠÙĩÙĬ Ø¦Ø©
Ġh isto
ĠØªÙģ ÙĪØª
20 20
ĠØ¨Ø· ÙĨ
10 6
ĠÙĤØª ÙĦÙĩ
ĠØ§ÙĦØ§Øª ØŃØ§Ø¯
ĠØ§ÙĪÙħ Ø¨Ø¹Ø¯
ĠÙĨ ÙĤÙĬ
ĠÙĩ Ø§Ùħ
ĠØ§ÙĦÙħ Ø¹ÙĬ
âĿ £ï¸ı
ÙħØ§ ÙģÙĩÙħØªØ´
ĠØ§Ø³Øª Ø§Ø¯Ø©
Ø§Ø® Ø±Ø©
ĠÙĬØª Ø¬
ĠØ¨Ø± Ø§ÙģÙĪ
ÙĩÙĪ Ø§Øª
ĠØ¹Ø¨ Ø¯Ø§
ÙĤØµ Ø§Ø¡
ĠÙħØµ Ø·ÙĦØŃ
ĠØ±Ø¯ ÙĪØ¯
ĠØªØŃØ± Ø±
ĠÙĬØ¹Ø¬Ø¨ ÙĪÙĨÙĬ
Ú¨Ùĩ Ú¨Ùĩ
C H
h oum
Ġ Q
Ġ X
Ùģ Ø§ÙĨ
Øµ Ø§Ø±ÙĬ
ĠØŃ Ø§Ø±
Ø§Ø¨ Ø±Ø©
ĠØ§ÙĦØ¥ ØµÙĦØ§ØŃ
ĠØ¨ÙĨ ÙĪ
ĠÙħØª Ø³
ĠÙĪÙĦ Ø¹ÙĦ
ĠØªØ³Øª Ø§ÙĩÙĦÙĬ
ĠÙĥÙħ ÙĦÙĪ
ĠØ§ÙĦØŃÙĬ ÙĪØ§ÙĨØ§Øª
Ø¶ÙĪ ØŃ
ĠÙħØ§ÙĨ Ø¹Ø±Ùģ
ÙĪÙĤØª Ø§Ø´
ĠØ¨Ø§ÙĦØªÙģ ØµÙĬÙĦ
Ã §
ĠØ§ÙĦØª Ø¹ÙĦÙħ
ĠØªØ¹ Ø¨Ø¯
ĠØ§ÙĦÙĥ Ø§Ùħ
ÙĬÙĥ ÙĪ
ĠÙĪÙĦ Ø§Ø¯ÙĬ
ĠØ£Ø® Ø·
ĠÙħÙĪ Ø§ÙĦÙģ
ĠÙģØ£ Ø®Ø¨Ø±
ĠØ§ÙĦØ§Ø³Øª Ø§Ø¯
ĠØŃÙĤ ÙĩØ§
ĠØ®ÙĦØ§ÙĦ ÙĩØ§
ĠØ§ÙĨØ³Ø§ÙĨ Ø©
ĠØ§ÙĦØªØ£ ÙĦÙĤ
ĠE n
ØŃ Øµ
ĠØ¨ ÙĤÙĪÙĦ
ĠÙĦ ÙĦØ§Ùħ
Ø¬ ÙĪØ§ÙĨ
ĠØ§ÙĦÙħ Ø±ÙĪ
ðŁĺ ķ
Ø±ÙĬ Ø¨ÙĬ
ĠØ§ÙĦØ³ Ø¨ÙĬÙĦ
Ø³Ùħ ÙĪ
ĠÙħÙĪ ØªÙĩ
ĠÙħØ³ ØŃ
ĠØ§ÙĦØ¢ Ø«Ø§Ø±
ĠØ±Ø§Ø¬ ÙĦÙĩØ§
ðŁĳ ĳ
ĠÙħØ¨ ÙĨÙĬ
ĠØ£Ø´ ÙĥØ±
ĠØµØ¯ ÙģØ©
ĠØ¨Ø§ÙĦØ£ Ø®
Ġmo re
ĠØ§ÙĦØ§ÙĬ ÙħØ§ÙĨ
Ø§ÙĦ ÙĨØ³Ø§Ø¡
ĠØª ÙĤØ·Ø¹
ĠÙĨ ÙĥØ±
ĠÙĨ ÙĥØª
ĠÙĨ Ø¯ÙħØª
ĠØ§ÙĦÙħ ÙĤØ±
ĠØ´ Øª
Ø§ØŃ Ø¨ÙĬ
ĠÙĦÙĬ Ø´
ĠØ§ÙĦØ® Ø¯Ø±ÙĬ
in k
ĠØ§ ÙĤØ±
ÙĪÙĦÙĬ Øª
ĠØ±ØŃÙħ Ùĥ
ĠM a
ÙģØ±ÙĬ ÙĤÙĬØ§
od c
ĠÙģØ§ÙĦØ¬ Ø²Ø§Ø¦Ø±
0 9
E n
v en
ĠÙħ Ø¯ÙĬÙĨ
ĠØ¨ ÙĪØµ
ĠØ± Ø§Ø¶
ĠØ° Ø±ÙĬ
ĠØ§Ø³Øª Ø¶Ø§ÙģØ©
ĠØ£ÙĪ Ø¯
ĠØ§Ùħ Ùħ
ðŁĴ «
ĠÙĪÙĥ ØªØ§Ø¨
ĠØ§ÙĦØ´Ø± Ø·Ø©
ĠØ®Ø±Ø¬ ÙĦÙĬ
ĠØ£Ø¯ Ø¹ÙĪÙĦÙĬ
ĠÙħØ§ÙģÙĩÙħ Øª
ĠØ±Ø§Ø¨Ø¹ Ø§
ĠÙģ Ø§Ø¶
ĠÙĦ ØŃÙĬ
Ø§ÙĬ ÙĥÙĪ
ĠØ§ÙĦØ£ ØŃØ¯
Ø§ÙĪ ÙĦØ§
Ø¹ÙĪ Ø°Ø©
ĠØ§ÙĦÙģ Ø±ÙĬÙĤ
ĠØ§Ø¨ ÙĪØ§Ø¨
ÙĤÙĪ Ø³
ĠÙĪØ¨ ÙĩØ°Ø§
ÙĪØ³ ÙĬÙĨ
ĠÙħØ± Ø§ÙĥØ´
ĠÙħÙĪ Ø´
Ġv otre
ĠØ§ÙĦÙħØ¹ Ø±ÙĥØ©
ĠÙĪØ§ÙĦØ£ ÙħØ±
ĠØ§ÙĦØ§ÙĨØ³Ø§ÙĨ ÙĬØ©
ĠÙĦØ¯ ÙĬÙĨØ§
ĠØ¶ÙĬÙģ Ø§
ĠØ§Ø±Ø¨ Ø¹ÙĬÙĨ
ÙĪ Ø³ÙĬ
ĠØ¨ ØŃØ§ÙĦ
ĠÙģ Ø§Ø¹ÙĦ
ĠØª ØµØ±Ø§
ÙĦØ§ ÙĤÙĩ
ĠØ¬ Ø±ÙĬØ¯Ø©
ĠØ§ÙĦØ¥ Ø³
ĠÙĪØŃ Ø¯Ø§
ĠÙħØª Ø¹Ø¯Ø¯Ø©
ÙĤÙĪ Ùĩ
ĠÙĪØµ ÙĦÙĨØ§
ĠØ§ÙĦÙĥØ¨ Ø§Ø¦Ø±
ĠØ¨ØªØ± ÙĤÙĬÙħ
i la
i ve
ÙĨ Ø¨ÙĬ
Ùĥ ÙĨØ§
Ø¹ ÙĪØ±
Ø§Ø³ ØªÙĩ
ĠØ¯ Ø¨Ø±
ÙĥÙĪÙĨ Ø©
Ġs p
ĠØ§Ùĥ Ø³
ĠÙĪØ±ØŃ Øª
o b
Ùħ Ø¹Ø¯ÙĦ
Øª Ø¹Ø±Ùģ
Ùģ Ø´
Ø¬ ÙĬÙĩ
ĠØª Ø±ÙģØ¹
Ø· Ùī
ĠØ§ÙĦÙħ ÙģØ³
ĠÙĨØª ÙĦØ§ÙĤ
ĠØ§ÙĦØµØŃ Ø§Ø¨ÙĬ
ĠÙĪÙĬÙĨ Ø¸Ø±
ĠØ§ÙĦØ¨ÙĬ Ø¶Ø§Ø¡
ĠØªÙĥ Ø«Ø±
ĠÙħØ³ÙĦÙħ Ø§
ĠØ³ÙĪ Ø§Ùĩ
ĠÙħØ§Ø¹ ÙĨ
ĠÙĬØ¤ Ø«Ø±
Ġan s
ĠÙĬÙħØ§ Ùĩ
ĠÙĥ Ø±Ø¨
Ø® Ø§ÙĬÙĦ
ÙģÙĬ Ø¸
ĠØªØ® ÙĬÙĦ
ĠÙĨØ´ÙĪÙģ ÙĩØ§
ĠÙĬÙĥ Ø¨Ø±
Ġch i
ĠÙĬØ¹Ø±Ùģ ÙĪ
ĠÙĥØ«Ø± Øª
ĠØ§ÙĦÙħØ¨ Ø°
Ġ Ø§ØªÙĩ
Ø² Ø²
ĠØ§ÙĦØ® ÙĦØ§Ùģ
ĠÙĪØ¨ Ùĩ
ÙĤØ· Ø¹Ø©
ĠØŃØ¨ÙĬ Ø¨Ø©
ØºÙĬ Ø¶
ĠØŃØ³ÙĨ Ø§ØªÙĥÙħ
ĠØŃÙĬØ§Øª ÙĪ
ĠÙĥÙĨ Ø²
ĠØ§ÙĦØ§Ùĩ ØªÙħØ§Ùħ
ĠØ§ÙĦØ§Ø¨ØªØ¯ Ø§Ø¦ÙĬ
Ġ &
ĠÙĪ Ø±ÙĬ
Ø¯ Ùģ
ðŁ Ĺ¿
Øµ ÙĬÙĨ
ĠØ± Øº
ĠØ¯ Ø§Ø±Ùĥ
ĠØ§ÙĨ Ø¬ÙĦÙĬØ²ÙĬØ©
ĠØ§ÙĦÙĥ ÙĦØ¨
ĠØ§ÙĦÙĩ Ø¯Ø§ÙĬØ©
ĠØ£Ø´ Ø®Ø§Øµ
ĠØ£Ø¨ Ùī
ĠÙĬØ¹Ø±Ùģ ÙĪÙĨ
ĠÙĦÙĤÙĬ ØªÙĩØ§
ĠØ£ØŃÙĬ ÙĬÙĥÙħ
" "
L I
ĠØ§ÙĦ Ø§Ø±Ø¨
ÙĤ ÙĬØ¯Ø©
ĠÙĬ Ø¢
ĠØ¬ ÙĪØ§Ø±
ĠØ§ÙĦØ³ ÙħØ§ÙĨØ©
ÙĪÙģ Ø§
ĠØ§ÙĦÙģ Ø¦Ø©
ĠÙĪÙĨ ØµÙģ
ĠØ®ÙĪ ÙĩØ§
ĠØ§ÙĦØ§Ø® Ø±Ø©
ĠØ±ÙĬ Ø§ÙĦ
ĠØªÙĦÙĤ Ø§Ùĩ
ĠðŁĳį ðŁı»
Ġps q
ĠØŃ Ø·ÙĪ
ĠØ£ÙĨ Ø²
Ø±Ø¨ Ùī
ĠÙĬØŃ Øª
Ø§Øµ Ø¯
ÙĤØª ÙĨÙĬ
ou ch
ĠÙĪØª Ø¹Ø¨
ĠÙĪÙĦ Ø¹
Ø²ÙĬØ¯ ÙĦÙĨØ§
ĠØªÙĥ ÙģÙĬ
ĠÙĦÙĪÙĦØ§ ÙĬØ©
ĠØ£Ø¨ ÙĪÙĨÙĬ
ĠØ§ÙĦÙħÙĩ ÙĨØ©
ĠØ¨Øº Ø¶
ĠÙħØ§Ø¨ Ø±ØŃ
ĠØµØ¯ÙĬÙĤ ØªÙĬ
l d
ÙĬ ÙĤÙĪÙĦ
Ø§ÙĦ Ø¹Ø©
ÙĪ ØµÙĦ
ĠØª Ø¨ÙĦØº
ĠÙĥ Ø§ÙģÙĬ
Ø® ÙģØª
ĠØ´ Ø§Ø±
ĠØ§ÙĦØ´ ØºÙĦ
ĠÙĦÙĦ ØªØŃ
ÙĪØª ÙĩØ§
ÙĤÙĪ Ø´
ĠØ¨Ùĩ Ø§Ø¯
ĠØ¨ÙĬÙĨ Ùĥ
ĠØ§ØŃ Ø³Ø§Ø³
ÙĪÙĩ Ø±ÙĬ
ĠØªØ³Øª Ø¹ÙħÙĦ
ĠØ·Ø±ÙĬÙĤ Ùĩ
ØŃØ³ Ø´
ĠØ§ÙĦÙĨØ§ ÙģØ¹
Re da
N A
Ø§ÙĦ Ø§Ùħ
ĠÙģ Ø³ÙĬ
ĠØŃ ÙĨÙĬ
ĠØ§ÙĦØ± Ø§Ø´
ĠØ² Ø¯
ÙĤØ§ÙĦ ÙĬ
ĠÙĨØ´ Ø§Ø±Ùĥ
ĠÙħØ® ØªØµ
ĠÙĪÙĦÙĥÙĨ ÙĩØ§
ĠÙħØ§ÙĨ Ø¹
ðŁĻĤ ðŁĻĤ
ĠØ§ÙĦÙĨØ¬Ø§ØŃ Ø§Øª
ĠØ§ÙĦØªØµ ÙĪÙĬØ±
ÙĤØµØµ Ùĥ
ÙĦ Ø§Øµ
ĠÙħ Ø®ÙĦØµ
ĠØª Ø§ÙĥÙĦ
ĠØ£ ØªÙĪ
ĠÙħÙĨ Ø¸ÙħØ©
ĠØ§ÙĦÙħ Ø§Ø¦Ø¯Ø©
ðŁĺ Ī
ĠØµ ÙĦÙĪØ§Øª
ĠØªØ¹ Ùĥ
ĠÙĥØ§ÙĨ Ø´
Ø§Ø³Øª Ø±
ØŃÙĬ Ùĩ
ĠÙĬØ´ Ø§Ø±Ùĥ
ĠØªØ± ÙĤÙĬ
Ġha ja
ĠØŃØ§ÙĦ ØªÙĬ
os t
âĢı :âĢı
ĠÙĬÙĨØª ÙĩÙĬ
Ġcom ment
Ġhom mes
N chlh
ĠÙĪ Ø§ÙĪÙĦ
ĠÙģ Ø§ÙĤ
ĠØ§ÙĦØ¹ Ø·Ø±
ĠØ¨Ø§ÙĦ Ø§ÙĨ
ÙĤØ¯Ø± Ø©
ĠØ´Ùģ ØªÙĬ
ĠR e
ĠØ¯ÙĪ Ø§Ø¡
ĠØ§ÙĦØ±Ø¨ Ø§
ĠØ§ÙĦØ¨ÙĦØ¯ Ø§ÙĨ
Ø§ÙĦ Ø¬ÙĨ
ĠØ¹ ÙĦÙĤ
Ø´ ÙĪØ±
ĠÙĤ Ø³
ĠØŃ Ø±Ùĥ
Øº Øª
Ġm Ã©
ĠÙĪÙħ Ø§ÙĨ
ĠØ¥ÙĨ ÙĥØ§Ø±
ÙģØ¶ Ùĥ
ĠØ§ÙĦÙħÙĨ ØŃ
ĠÙħÙĦ Ø¡
he m
ĠÙĦØª ÙĨ
Ø°ÙĨ Ø¨
ĠØ¹Ø´Ø± ÙĬØ©
ĠÙĬØ§Ø® ØªÙĬ
ĠÙĤÙĦÙĪØ¨ ÙĥÙħ
ĠÙĪØ§ÙĤÙĬ ÙĦ
o ra
Ø¨ ÙĨØ§
ĠÙģ ÙĦØª
ĠÙģ Ø°ÙĦÙĥ
ĠØ± Ø§ÙĬØ©
ĠØ³ ÙĪØ±ÙĬØ§
ĠØ¥ Øµ
ĠÙħØ§ ÙĤØ¯Ø±ØªØ´
ĠØ£ÙħØ± ÙĩÙħ
ĠØ§ÙĦÙħØ® Ø¯Ø±Ø§Øª
ĠðŁĮ º
ĠÙħØ§Ø² Ø§ÙĦØª
ĠØ§ÙĦØ§Ø« ÙĨÙĬÙĨ
Ø± Ø¯ÙĥØ³
Øª Ø§ÙĦÙĬØ©
ĠØ£ Ø¯Ø±
ĠÙĨ Ø¯ÙĬÙĪ
Ø§ÙĬ Øª
... )
Ø§Ø° Ø©
ĠØ§ÙĦØ¨ Ùĩ
ĠØ§ÙĦØ´ ÙĪ
ĠØ§ÙĦØµ ÙģØ©
ĠØ§ÙĦÙģ ÙĤØ±Ø§Ø¡
la ch
ĠÙĨØ´ ÙĥØ±Ùĥ
ÙģØª Ø§ÙĪÙī
ĠÙģØ± ÙĬÙĨØ©
ĠÙĦØ£ ÙĪÙĦ
ĠØ§ÙĦÙħØ¹ Ø§ÙĨÙĬ
ĠÙĤÙĪ ÙĦÙĩÙħ
ĠØ´ÙĪÙģ ÙĪ
ĠÙĬ ÙģØ¹ÙĦÙĩ
Ø¬ Ø§ÙħÙĬ
Ø£ ÙĦÙħ
ĠØŃ Ø§ÙĥÙħ
ĠØ´ Ø§ÙĨ
ĠÙĦÙĦ ÙĤØ±Ø¢ÙĨ
ĠÙĤØ§ÙĦ ÙĨØ§
ĠðŁĺ ŀ
ĠØ§Ø³Øª Ø¶Ø§Ùģ
ĠØ¶ ØŃ
on g
ĠØ§Ø¬ØªÙħØ§Ø¹ ÙĬØ©
ÙĦØ§ØŃ ÙĪÙĦ
ĠÙĪØ§ÙĦÙħØ¤ÙħÙĨ Ø§Øª
ĠØ¨ÙĪØ§Ø³ Ø·Ø©
o c
y y
z z
Ġ á
ĠÙĦ Ø¶
ĠÙĦ ÙĨØª
ĠØ³ ÙĪØ¬ÙĬØ§Øª
ĠØ¬ ÙĦØ³
ÙĪØ± Ø«
ĠØ¨Ø§ÙĦ Ø¯Ø±
ĠØ§Ø³ Ø£ÙĦ
ĠÙĪØ£ Ø®Ø¨Ø±
ĠÙĬØ¹ ÙĬÙĨ
ÙĦØª ÙĬÙĨ
Ø¹ÙĦ ÙĨØ§
ĠÙĪØ¬ ÙħØ¹
ĠÙĪØ± Ø¶Ø§
ÙħÙĦ Ø£
ĠÙħØ¬ ÙĦØ©
ĠÙĨØ¬ÙĬØ¨ ÙĪØ§
ðŁı ½
ĠØ§Ø³Ùħ Ø§Ø¹ÙĬÙĦ
ĠØ§ÙĦØ¨Ø± Ø§ÙħØ¬
cha lh
Ø±Ø§Ùĩ ÙĪ
ĠâĻ ¡
ĠØ¹Ø²ÙĪØ¬ ÙĦ
ÙĨ Ø²
Ø¬ Ø²Ø¡
ĠØ´ Ø§Ø±Ø¹
Ø§Ùĩ ÙĬØ±
ĠØ§ÙĦØ£ ÙĪÙĤØ§Øª
ĠØ§ÙĦØ¨ Ø¹Ø¯
ĠØ§ÙĦØ´ Ø±ÙĪØ·
ÙĨØ³ Ø§Ø´
Ġn b
ĠÙĨØ³ ÙĨØ§
ĠÙĬÙĤ Ø¶ÙĬ
Ġte x
ĠÙĦÙĦØ¥ Ø³ÙĦØ§Ùħ
m iloud
u la
Ùĩ ÙĦÙĬ
ĠØ¨ Ø¹Ø¨
Ø£ ØªÙĩ
Ø§Ùħ ÙĩØ§
ĠÙĤ Ø¯ÙĬÙħØ§
ĠØ¥ ØµÙĦØ§ØŃ
Ø¦ ÙĬØ©
ÙĪÙĬ ÙĬÙĨ
ĠØ§ÙĦÙħÙĨ Ø¨Ø±
Ġra b
ĠÙģÙħ Ø§Ø°Ø§
ĠØ§ÙĦÙħÙĥ ØªØ¨
ÙĨØ§ÙĤ Ø´
âľĮ ï¸ı
ĠÙĪØ§ÙĦØ¹ÙĬ Ø§Ø°
O R
b r
ĠØ¨ Ø¬ÙħÙĬØ¹
ĠÙģ Ø®Ø±Ø¬
Ø§Ø¯ ÙĩØ§
Ø§Ùģ ÙĩØ©
ĠðŁĺ Ħ
ĠØ§ÙĦÙĥ Ø§ÙģØ±ÙĬÙĨ
ĠÙĪÙħ Ø®
Ġb ay
ĠÙĬÙĨ Ø´Ø±
ĠÙĬØª ÙĤ
ĠØªÙĤ Ø¨ÙĦÙĬ
ĠÙģØ± Ø§Øº
ĠØ¨Ø± Ø§ÙħØ¬
ĠÙĦØ¨ ÙĨ
ĠÙĪÙĤ ØªÙĩ
ĠÙĪØ§ÙĨ Ø´Ø§Ø¡
ĠÙĥØªØ§Ø¨ Ø§
ĠÙĥÙĪÙĨ Ùĩ
ĠØ³Ø± Ø§
ÙĨØ´ ÙĦØ©
ĠÙĤØ±ÙĬ ØªÙĩØ§
ÙĬØ§Ø® ÙĪÙĬØ§
ĠØ§ÙĤØª Ø±Ø§ØŃ
ĠØ§ÙĦÙĪØµ ÙģØ§Øª
ĠØ§ÙĦÙģÙĤÙĩ Ø§Ø¡
Ùħ ÙĩØ§
ĠÙĥ Ø¨ÙĬ
ĠØ§ÙĦÙħ ÙģÙĬØ¯
ĠØ¥ Ø·
ĠØ§ÙĦØ£ ØµÙĪÙĦ
ĠØ§ÙĦØª ÙħØ«
ĠØ§ÙĦÙĨ ÙĤØ¯
ĠØº Ø±ÙĬ
Ø§Øµ Ø¨ØŃ
ĠÙĪØ± ÙĤÙĦØ©
ĠØ£Ùħ Ùĥ
ÙĩØ¯ Ùī
ĠØ§ÙĦÙħØ¬ ÙħÙĪØ¹
ĠðŁĺŃ ðŁĴĶ
ĠÙħØ¤ ÙĦÙģ
Ġal g
ĠØªÙĨØª Ø¸Ø±
ĠÙĬØ³ÙĦÙħ Ùĥ
M A
Øª Ø§Ø±ÙĬØ®
ĠÙħ Ø²ÙĬ
Ùģ ÙĥØ±Ø©
ĠØª Ø·ÙĦ
Øµ ÙĬØŃØ©
ĠÙģÙĬ ÙģØ±ÙĬ
Ø§Ø¨ ÙĩØ§
ĠØ§ÙĦØŃ Ø¸
ĠÙĪÙĨ ÙĪØ±
re dx
Ø¯Ùħ ÙĪØ¹
ÙĪØ´ ÙĥØ±Ø§
ĠØ¹Ùħ ÙĪÙħ
ma tion
ĠØ§ÙĦÙħØµ Ø§Ø¯Ø±
-------- ----
Ø§Ø¤ Ùĥ
ĠÙĦÙĦØ£ ÙħÙĬØ±
Â° Â°
ĠÙĩÙĨ Ø§ÙĦÙĥ
ĠØ§ÙĦØ¹Ø« ÙħØ§ÙĨÙĬØ©
ĠØª ØªÙĥ
ĠÙĥ Ø¯
Ø® Ø±ÙĬ
ĠØ§ÙĦÙħ Ø§ÙĦÙĬØ©
ÙĪØ± Ùī
ĠØ§ÙĦØª ÙħØ±ÙĬÙĨ
ĠÙĪÙħ Øµ
ĠÙĬØ¬ ÙĬÙĨÙĬ
ĠÙĬÙĨ Ø³Ø¨
ĠØ§ÙĦÙĤØ± Ø§ÙĬØ©
ti v
ĠØ¹Ùħ ÙĦÙĬ
ĠÙĦÙĦÙħ ÙĨ
ĠÙĬÙĤ Ø±Ø¨
ĠØªØ§Ø±ÙĬØ® ÙĬ
ĠØ£Ø¯ ÙĨÙī
ĠÙħÙĪØ¶ÙĪØ¹ Ùĥ
Ø¬Ø§Ø² ÙĬÙĥ
ĠØ²Ø§Ø¯ Øª
ĠÙĪØ§ÙĬ Ø¶Ø§
ĠØ¬Ø¹ ÙĦØª
ĠØ¹ÙĪØ¯ ØªÙĥ
Ġfo is
Ø± Ø³ÙĦ
ĠØ¹ ÙĦÙĪ
Ø² ÙĬÙĨØ©
ĠÙĤ Ø§Ø¨
ĠØŃ Ø§Ø¯Ø«
ĠØ§ÙĦÙħ ÙħÙĥÙĨ
ÙĪÙĦ Ø´
ĠØ¯ Ø§ÙĪ
ĠÙħØ¹ Ø§ÙĬ
ÙĦÙĪ Ø©
ĠØ§ÙĦÙĥ ÙĪØ²ÙĬÙĨØ©
ĠØ§ ÙĤØªØ±ØŃ
ĠÙĬØª Ø®Ø°
ĠÙĪÙĥ Ø§ÙĦØ©
ĠÙħØ¤ Ø³Ø³Ø©
ĠØ¨ÙĤ Ø§ÙĪ
ĠØ§ÙĦØ§Ø³ÙĦØ§Ùħ ÙĬ
ĠØ§Ø« ÙĨÙĬÙĨ
ĠØ¯ÙĪØ± Ø§Øª
ĠÙħÙĬØª Ø©
Ø§ÙĦ ÙĪØ§
Ø± Ø§Ø¶
ĠÙħ ÙĪÙĨ
ĠØ¯ ÙĪØ§ÙĦ
ĠØ§ÙĦØ¹ Ø³ÙĥØ±ÙĬ
ou nt
ĠÙĦÙĩ Ø§Ø¯
Ġa k
Ġa v
ðŁĴ ¥
ĠØ§ÙĦÙħØ± Ø§Ùĩ
ĠØªØ¯ ÙģØ¹
ĠðŁĴľ ðŁĴľ
7 4
h na
Ùĩ Ø§ÙĨÙĬ
ĠÙĦ Ø§Ø±
Ø´ Ø±Ùģ
Ø° ÙĬØ©
ĠØŃ ÙĦÙĤØ§Øª
ĠØ¥ Ø³
Ø§ÙĪ Øª
ĠØ§ÙĦØ³ ÙħÙĬØ¹
ĠØ§ÙĦØ¬ ÙĩØ¯
ĠØ§Ø³ ØªÙĩ
Ø±Ùĥ ÙĦÙĬØ·Ø§
Ġt ch
re at
ĠØªÙĪ Ø§Ø±ÙĬØ®
ĠØ¨Ø³ ÙħØ©
ĠÙĪØ² ÙĪ
Ø±Ø³ Ø§ÙĦ
Ġdir lna
ĠØ·Ø¨ÙĬ Ø¨Ø©
ĠÙĥÙĦÙħ Ø§ØªÙĩ
ĠÙĪÙĬÙĪÙģÙĤ ÙĨØ§
¬ Ĩ
ĠØ¨Ø§ÙĦ ÙħÙĪ
ĠÙĪÙħ ØŃÙħØ¯
ĠØ¬ÙĨ Ø§ÙĨÙĥ
ĠØ§ÙĦÙħØª Ø¹ÙĦÙĤØ©
ĠÙĪØ· ÙĨÙĬØ©
Ġ195 4
ĠØ¨Ø´Ø± Ø·
ÙĬ ÙĦØ§
Ùģ ÙĥØ§Ø±
ĠØ§ÙĦÙħ ÙĪØ³
ĠØµ ÙĬÙģ
ĠÙĬØ¹ Ø§ÙĨÙĬ
ĠÙĨØª ØŃ
ĠÙĪÙĦÙĬ Ùĥ
ĠØ§ÙĦÙĦ ØŃÙħ
ÙĪØµ ÙģØ©
ĠØ§ÙĦØ§Ø³Øª ÙģØ§Ø¯Ø©
ĠÙĪØ§ÙĦÙĨ ÙĩÙĬ
ĠØ´ÙĬØ® ÙĨØ§
ĠØ·ÙĪÙĬ ÙĦØ§
ĠØ§ÙĦØ£Ø³ØªØ§Ø° Ø©
ĠØ±Ø® ÙĬØ³
ĠØ§ÙĦØ§ÙĦÙĥ ØªØ±ÙĪÙĨÙĬØ©
ĠÙģØ¸ ÙĦÙĥ
â ŃĲ
Ø³ Ø§Ø¹Ø§Øª
ĠÙĬ ÙĤØ·Ø¹
ĠØª ÙģØª
ĠØª ÙħÙĥÙĨ
Ø® ÙĦÙĥ
ĠØ³ Ø±ÙĬ
ĠØ§ÙĦØ¬ ÙĩØ©
ĠØ§ÙĦØ± ÙĤØ§Ø¯
Ø§Ø³Øª ÙħØ±
ĠÙħØ´ ÙĩÙĪØ±Ø©
Ø¶ÙĬ ÙģØ©
ĠØ´ÙĬ Ø§Ø·ÙĬÙĨ
ĠØ§ÙĦØ² Ø¹
ÙĪÙģÙĤ Ùĥ
Ø¹ÙĦÙĬ ÙĤØ§Øª
ĠØ®Ø· ÙĪØ§Øª
Ø¬Ø²Ø§Ùĥ Ùħ
ĠØ·Ø§ØŃ ÙĪ
ĠÙħØ±ÙĪ Ø©
Ø°Ùĥ Ø§Ø¡
Ch ik
Ø¹ Ø¬
ĠØ¹ Ø§Ùģ
ĠÙĨ Ø®ÙĦØµ
ĠØ± ØŃÙĬ
Ø§Ø¯ ÙĤØ©
ĠØ® Ø¨Ø²
ĠØ¯ Ø§ÙĦØ©
ĠØµ ØŃØ±
ÙĥÙħ Ø´
ĠØ§ÙĦØª ÙĤØ¯Ùħ
ØŁ !!
ĠØ£ÙĪ Øª
ĠÙĪÙĨ ØªÙĪÙħØ§
ĠÙħØ± Ø§ØŃØ´
ĠÙħØ³ ÙĬØ±
li t
ĠØªÙĤ Øµ
ta ge
or s
ĠÙĪÙĤØª ÙĨØ§
Ø°ÙĬ ÙģØ©
Ø¯Ø¹ ÙĬØ©
ĠØ§ÙĦØµØŃÙĬØŃ ÙĬÙĨ
Ġnch of
ĠØ·Ø¨ÙĬ Ø¹ÙĬØ©
7 3
T S
ØŃ Ø§Ø±
ĠÙĤ Ø§Ø¯Ø§
Ø« ÙĦØ§
Ø« ÙĬØ±Ø©
Ø¯ÙĬ Ø¨
Ø§Ø¹ Ùħ
ĠØªØ¹ Ø§Ùħ
ĠÙĪØª Ø§ÙĨÙĬ
ĠÙĨØª Ø§ÙĪ
Ø¨ÙĪ Ùĩ
Ø·Ø± Ø§Ùģ
ĠÙĪØ§ÙĦØª ÙĨ
Ø¬Ø§Ø¨ ÙĬ
ĠÙĨØ· ÙĬØ¨
ĠÙĨÙĤØ± Ø§Ùĩ
ĠÙħØªÙħ ÙĨÙĬ
g g
Ø§ÙĦ Ø°ÙĬ
ÙĤ Ø´
ĠÙĤ ÙĬØ¯
ĠØ§ÙĦÙħ ØºÙģØ±Ø©
ĠØ³ ÙĨÙĬ
ĠðŁĺĤ ðŁĴĶ
Ø¹Ùħ Ø§Ø±ÙĬØ©
la y
Ġy nj
ĠÙħÙĥØ§ÙĨ Ùĩ
ĠðŁĳ ĩ
ĠÙħØ¤ Ø«Ø±
Ġkh ti
ĠÙĦÙĦØŃ ØµÙĪÙĦ
ĠÙħØ±Ø´ ØŃ
ĠØ§ÙĦØ³ØŃ Ø±Ø©
A B
a pp
o ve
Ø¶ ÙĪØ§
ĠØ§ÙĦÙħ ØŃÙĬØ·
Ø§Ø¯ ÙĩÙħ
ĠØ±ÙĪ ØŃØª
ĠÙĪØ¨ ÙĥÙĦ
ĠØ§ÙĪ ÙĤØ§Øª
ĠØªØ¬ Ø§ÙĪØ¨
ĠÙĪØ³ Ø£
ĠÙĦÙĦÙħ Ø³Øª
ĠÙĥØ§ÙĬÙĨ ÙĬÙĨ
ĠØ§ÙĦØ¯Ø± Ø§Ø³ÙĬØ©
ĠØªØµ ÙĨØ¹
ĠØ¯Ø§Ø® ÙĦØ©
ĠÙĪØ§Ùĥ Ø«Ø±
ĠØ§ÙĦØ¨Ø¯ Ø¹Ø©
ĠØ³ÙĪØ± ØªÙĪ
ÙħØ£ÙĨ ÙĬÙĨØ©
ĠÙĦ Ø§Ø¬
ĠØ± Ø§ÙĪÙĬØ©
Ø§Øª Ø±
ĠØ§ÙĦØ¹ Ø«Ùħ
ĠØ§ÙĦØ¹ ÙĤÙĪØ¨Ø©
Ø§Ø¦ ÙĦÙĬØ©
ĠØ§ÙĦØ´ ÙĪÙĥ
ÙĨØª Ø¬
ĠØ§ÙĪ Ùĥ
ĠØ¨Ø¹ ÙĦÙħ
ĠØ£Ùħ Ø±ÙĬÙĥØ§
ĠØ§ÙĦØ² ÙĨ
ĠØªÙĨ Ø¸Ø±
Ø·Ø± Ø´
Ø¬ÙĦÙĬ Ø²ÙĬ
ĠÙĪÙĬØ¹ Ø§ÙģÙĬÙĥ
ĠØªÙĦÙģ ÙĪÙĨ
Ø§Ø ¥
ĠÙħ ÙĤØµ
ĠÙħ Ø§ÙģÙĬ
ÙĤ Ø¯ÙĬ
ĠØ¹ Ø§ÙĪØ¯ÙĬ
ĠØ§ÙĦÙħ ÙĤØªØ±ØŃ
ĠØ§ÙĦØ³ ÙĥØ±
ĠØ§ÙĦØ´ Ø¬Ø±Ø©
ÙĦÙĪ ÙĨØ§
ĠØ§ÙĦØµ Ø¯Ø±
ÙĦØª ÙĥÙħ
ĠØ§ÙĦØ° Ùī
ÙĪØ¹ ÙĬØ©
ĠØ§ØŃ ØªØ±Ùħ
ĠÙħØŃ Ø¯
ĠØªØ³ Ø¹
ĠØ§ÙĦÙħØ´ ÙĩÙĪØ±
Ú¨ Ø±ÙĬ
ĠÙħØ« ÙĪØ§ÙĩØ§
ĠØ´Ùĩ ÙĪØ±
ĠØ§ÙĦØ¶ Ø±Ø¨
ĠÙĪÙħØ¹ ÙĨÙī
Ø·Ø¨ Ø§Ø¡
ĠÙĥ ØŃ
ĠÙħÙĨ Ø§ÙĤ
ÙĨØ§ Ùģ
ÙħØ§ ÙĩÙĪ
Ġ- --------------------------------
ĠÙĪØŃ Ø³Ø¨
ĠØ§ÙĦØ· Ø±ØŃ
Ġf ac
ÙħÙĪ ÙĩØ§
ĠØµØŃ ØŃ
ĠØ®ÙĦÙĤ ÙĨØ§
ĠØŃØ³Ø¨ Øª
ĠÙħØ§Ø± Ø§Ùĩ
Ø¨ÙĦÙĬ ÙĬØ²
ĠØ§ÙĦØ±Ø¬ ÙĬÙħ
ĠØ£ÙĪØ± ÙĪØ¨Ø§
ĠÙĪÙĪÙģÙĤ Ùĥ
ĠØŃØ¬ Ø±Ùĥ
ÙĨÙĪØ± Ùħ
ĠØ§ÙĦÙħØ®ÙĦÙĪ ÙĤØ§Øª
Ġkam l
Ø§ÙĦ Ø§Ø®
ĠØ¹ Ø§ÙĤÙĦ
ĠÙĬ Ø§Ùĩ
Ø´ Ø·
ĠØ§ÙĨ ÙģÙĥ
ĠØ§ÙĦØ£ ÙĥØ«Ø±
ĠØ§ÙĦÙĤ ÙĪÙĬ
ĠØ§ÙĦÙĤ Ø§Ø¹Ø¯Ø©
Ø¨Ø¯ Ø¹Ø©
ĠÙĬØ¬ Ø¹ÙĦÙĥ
la s
ĠØ£Ùħ Ø«Ø§ÙĦ
ĠØ³Ø± Ø¹Ø©
ĠØ§ÙĦØªØ´ Ø±ÙĬØ¹
ĠÙĪØµÙģ Ø§ØªÙĩ
ĠØ£Ø®Ø¨Ø± ÙĨØ§
ÙĦØº Ø§Øª
0 35
ĠØ¨ ØŃØ¨
ĠØ® Ø§ÙĨ
ĠØµ Ø±Ùģ
Ø¥ ÙĦÙī
ĠØ§ÙĦØ¨ Ø§ØŃ
ĠØ§ÙĦØ± Ø¶Ø§
ĠÙĪØ£ Ø¯Ø®
ĠØ§Ùħ ÙĥÙĨ
ÙĤØ± Ø§ÙĨ
Ø¹ÙĦ ÙĨ
ÙĤØ§ÙĦ ÙĪ
ðŁ¤ ¨
Ø®Øµ ØµØ©
ĠÙĪØ´ Ø±ØŃ
ĠØ§ÙĦØµØŃ Ùĩ
ĠÙĦØ¹ Ø¨Ø¯
Ø°ÙĨ ÙĪØ¨
ĠÙĬÙĪ ØªÙĪØ¨Ø±
ĠØ®Øµ ÙĨÙĬ
ĠÙħÙĪØ§Ø¶ÙĬØ¹ Ùĥ
Ø®Ø§Ùģ ÙĪØ´
ĠØ§ÙĦÙĪØ± Ø¯
ĠØ¯ÙĦ Ø§ÙĦØ©
ĠÙĥÙĪØ± ÙĪÙĨØ§
Ġfo or
ĠØ§ÙĦØ³Ø§Ø¯ Ø³
! ØŁ
7 2
Ø§ Ø§Ùĥ
Øª Ø§Ø²
ĠØª ÙĦØ¨Ø³
Ø£ Ùī
ØªÙĬ Ø¨Ø©
ĠØµ ÙĪØ§Ø¨
ĠØ§ÙĦØ¹ Ø§ÙĤØ¨Ø©
Ø§ÙĦÙĬ Ùģ
ĠÙĬØ´ Ø±ÙĬ
ĠØ¨Ùħ Ø«
ĠØªØ³ ÙħÙĬ
ĠØµØ¯ ÙĤØª
Ġsu jet
ĠØ³Ø¹ Ø§Ø¯
b re
m y
Ø± ØºÙħ
Øª Ø®
Ø¯ Ø¨Ø±
ĠØ§ÙĦÙħ ØµØ±ÙĬØ©
Ø« ÙħØ§ÙĨ
ĠØ¯ Ø§Ùģ
Ø¤ Ø§Ø¯
Ġw hat
Ø´Ø± Ø§Øª
ĠØµØŃ Ø§Ø¨ÙĬ
ÙĪÙĩ Ø°Ø§
ĠØ§ÙĦÙħØ¹ ØµÙĬØ©
ĠØ§ÙĦØ®ÙĬØ± Ø§Øª
ĠÙħÙĩ ØªÙħ
ĠÙĨØ¯ Ø®ÙĦÙĪ
ĠØ§ÙĦØ±Ø¬ ÙĪØ¹
ĠØ§ÙĦØ¥Ø³Ø± Ø§Ø¡
â Ĺ
ĠØ§ÙĦÙħ ÙĦÙĬ
ĠØ´ Ø¯
ĠØ¯ ÙĥØªÙĪØ±
ĠØ§Ø³ Ø¹Ø¯
Ø¹ÙĦ Ø§Ø¬
ĠÙĦÙĩ Ø¬Ø©
ĠØ¨Ùĩ Ø§Ø°
Ġy es
ĠÙĨØ³ Ø¬ÙĦ
ĠØ§ÙĦØ² Ø§ÙĪÙĬØ©
ĠÙĤÙĦØª ÙĩØ§
ĠØŃØ¯ÙĬØ« Ùĩ
ĠØ§ÙĦØ¬ÙĦ Ø§ÙĦ
Ø±Ø³ Ø§ÙĦØ©
ĠÙĪØ¹Ø¯ Ø¯
ĠØ§ÙĦØªØ± ØªÙĬØ¨
55 55
ĠØ§Ø¨ØªØ¯ Ø§Ø¡
ĠØ§ÙĦØªÙĦ Ø®ÙĬØµ
Ùĩ ÙĬÙĦ
Ø³ Ø£
ĠØµ ÙħØª
ĠØ§ÙĦØµ ÙĬØ¯
ÙĦÙĤ ÙĪØ§
ĠÙĪÙĦ Ø¬ÙħÙĬØ¹
Ġb elle
ĠÙĦÙĦÙħ Ø¤ÙħÙĨÙĬÙĨ
ĠÙħØ® Ø·
ĠÙĬØµ ÙĬØ±
ĠÙħØ§ÙĨ ÙĤØ¯Ø±Ø´
ĠØ§ÙĦØ£ÙħØ± Ø§Ø¶
ĠØ§ÙĦØ¬Ø§Ùħ Ø¹ÙĬØ©
ĠØ§ÙĦÙĤØ¨ ÙĪÙĦ
ĠÙĪØ§ÙĦØ¯ÙĬ ÙĥÙħ
ĠØ£ ØŃÙĪØ§ÙĦ
ĠÙģÙĬ Ø¯ÙĪ
ĠØŃ Ø¯ÙĪ
ĠØ³ Ø§
ĠØ¹ÙĨ ÙĥÙħ
ĠØ§ÙĦØ· Ø¹ÙĨ
ĠØ¨Ø² ÙĪØ¬
Ġw ch
ĠÙĬØ± ÙĤÙĬ
Ġla z
ĠØ®Ø§ÙĦ Øµ
ĠØ§ÙĦÙĤØµ Ø§Øµ
ĠÙĬØ®Ø¯Ùħ ÙĪ
ĠÙħØ³Ø¤ ÙĪÙĦÙĬØ©
ĸª ï¸ıâ
Ġhisto ires
n di
ĠØ§ÙĦ Ø±Ø¨ØŃ
ĠÙĪ ÙĪÙĦ
Ø¨ Ø¶
ÙĬÙĨ Ø§Ø´
ĠØ§ÙĦÙħ Ø·Ø§Ø±
ĠØ§ÙĦÙħ Ø·Ø¨Ø®
ĠØ® Ø·ÙĬ
ÙģÙĬ Ø²ÙĬ
ÙĬØ¨ ÙĪØ¨
ĠØ§ÙĦØ¥ Ø¨Ø±Ø§ÙĩÙĬÙħÙĬ
ĠÙĨØª Ø¹Ø±Ùģ
ĠÙĪØ´ ØŃØ§ÙĦ
Ġ0 5
ĠØ¹ÙĬÙĨ ÙĬÙĥ
l s
ĠÙĦ ØªØ±
ĠÙĦ ØªØ´
ĠØª Ø¨Ùĩ
ĠØ£ ÙģØ±
ÙģÙĬ ÙĦÙħ
Ø³Øª ÙĩØ§
ĠØ· Ø±Ø§Ø¨
ĠÙĪÙĨ Ø²ÙĬØ¯
ĠÙħØª Ø²ÙĪØ¬Ø©
ÙĨØ³ Ùī
ĠÙĬØ± ÙĪÙĨ
ĠÙĬØ± Ø§Ùĩ
ĠØ§ÙĦÙĤØ± Ø£ÙĨ
ĠÙĪÙĥ Ø«ÙĬØ±
Ġ! ØŁ
ĠØ¨Øµ ÙĬ
ĠØ´Ùģ ØªÙĥ
ĠØ¹Ø· ÙĦØ©
ĠØ´Ø§ Ø§Ø¡
ĠØ§ÙĦØªÙĦÙģ Ø§Ø²
ÙĪ Ø¥ÙĨ
Ø³ Ø§ÙĤ
ĠØª Ø¶ÙĬØ¹
ÙĪØ± ÙĨØ§
ĠØ§ÙĦØŃ Ø±Ùģ
Ø±ØŃ ÙĦ
Ġm chi
ÙĤÙĪ Ø¯Ø©
re n
ĠðŁ¤ ·
ĠØªØ¬ Ø§Ø±Ø¨
ĠØ§Ø± ØªÙĥ
ĠØ§Ø¯ ÙħØ§ÙĨ
ĠØ§ÙĦØº ÙĬØ±Ø©
ĠØ§Ùĥ Ø±Ø§Ùħ
ÙħØ³ Ø§Ø¡
ĠØ¨Ø§Ø¨ Ø§ÙĩØ§
ÙģÙĪ Ø¸
ĠØŃÙĦ ÙĦØª
ĠÙĪØ§Ø® ØªÙĬ
ĠØ§ÙĦØ´Ø¨Ùĩ Ø§Øª
ĠÙħØ³ØªÙĤØ¨ ÙĦØ§
Ø§ÙĦ ÙģØ±
ØŃ Ø¨Ø©
Ø£ ÙħØ±
ĠÙĤ Ø¶Ùī
ĠØ§ÙĦÙħ Ø°ÙĩØ¨
ĠØ¬ Ø°
Ø§Øµ ÙĦÙĬ
ĠÙģØ§ÙĦ Ø³
ĠØ§ÙĦØ§Ø® ØªÙĬØ§Ø±
ĠÙĪØ§ÙĦØª Ùģ
ĠØ£Ø´ Ø¨Ùĩ
ĠÙĨØ³Øª ÙģØ§Ø¯
Ġ0 4
ĠÙħØ´Øª Ø±ÙĥØ©
R ani
Ġ 00
ÙĬ ÙĤØ©
ØŃ Ùģ
ĠØª ÙħÙĬÙĬØ²
ĠØ£ Ø¸ÙĩØ±
ĠØ§ÙĦÙħ ÙĦØ§
Ø§Ùĥ Ø©
Ø§Ø¬ Ø¨Ø§Øª
ĠØ§ÙĦØ³ Ø®
Ø±ÙĪ ÙĩØ§
ĠÙĬØ¹ ÙĬÙĨÙĥ
ĠÙĪØ± Ø¹Ø§Ùĥ
ĠØ§ÙĦØ² ÙĬÙĨØ©
ĠØ¨Ø¹Ø¶ ÙĨØ§
ĠÙĪØ£ÙĨ ÙĩØ§
ĠØ¨ØŃ ÙģØ¸
ĠÙĦØµ Ø§ØŃØ¨
ĠÙħØªÙħ ÙĥÙĨ
ĠØ§ÙĦØ¬Ø²Ø§Ø¡ Ø±
ĠØ¨ÙĪØ³ Ø¹Ø§Ø¯Ø©
ÙĪ ÙĤØ§ÙĦ
Ø± ÙĤÙħ
Ùĩ Ø°
ĠÙĦ ØŃÙĥ
ĠÙħÙĨ Ø§Ø³Ø¨Ø©
ĠØ¯ Ø§Ø¡
ĠÙĪØª ÙģØ±ØŃ
âĢ Į
ĠØ§Ø¯ Ùħ
ĠÙĬØª ÙģÙĤ
ĠØ¨ÙĦÙĬ Øº
ĠÙħØ¬ ÙĩØ±
ĠÙĨØ¹ ØªÙħØ¯
ĠØ®Ø· ÙĬØ±
ĠØ´Ø®Øµ Ø§
ĠÙĪØ¬Ùĩ ÙĩØ§
ĠÙĪØ§Ø® ÙĬØ±Ø§
ĠØ§ÙĦØªØµ Ø±Ùģ
ĠÙĬØ§Ø³ ÙħÙĬÙĨ
ĠØ§ÙĦÙĨÙģ Ø§ÙĤ
ĠØ§Ø¨ØªØ¯ Ø§Ø¦ÙĬ
t ar
Ø± ÙĨ
Ø¹ ÙĬØ¨
ĠØ¨Ø§ÙĦ ÙĦÙĬ
ĠØ§ÙĦØ° Ø§ÙĥØ±Ø©
ĠÙĪÙĨ Ø¯ÙĬ
ĠÙĪØ¬ ÙĪØ§Ø¨
ĠØ¨ÙĦ Ø§Øº
ĠÙĪØ¨ ÙĨØ§Øª
ĠÙħØ¯ Ø®ÙĦ
ĠÙĥÙĦÙħ Ø§ØªÙĥ
ĠØ§ÙĦØ³ÙĨ ÙĪØ§Øª
ĠÙĨÙĥÙħ ÙĦÙĪ
ĠØ§ÙĦÙĤØ¯ Ø³
ĠØ§ÙĦÙĪØ² Ø§Ø±Ø©
â ļ
Ùħ Ø®
ÙĤ ÙĨØ§
Ùģ Ø¥ÙĨ
ĠØ£ ØŃÙĪ
Ø¶ Ø§Øª
ĠØ³ ÙĥØª
Øº Ø§Ø´
ĠØ§ÙĦØ¹ Ø´Ø±Ø©
Ġt s
ĠØ±ÙĪ Ø§Ø¯
Ø§ÙĤ Ø§
Ġ20 10
ĠÙĬØ± Ø³ÙĦ
ĠØ®ÙĦ Ø§ØµØ©
ĠØ´Ø± ÙĤ
ĠÙĤÙĨ Ø§Øª
Ø¹ÙĨ Ø¯ÙĪ
ĠÙĪØ§ÙĦØ¥ ÙĬÙħØ§ÙĨ
ĠØµÙģ ÙĪÙģ
ĠÙĪÙĬØ³ ÙĥÙĨÙĩ
ĠÙĨØ· Ø§ÙĦØ¨
ĠØ§ÙĦØ§Ø´ ØªØ±Ø§Ùĥ
ĠðŁĴĸ ðŁĴĸ
ĠÙħÙģØªÙĪ ØŃ
] ).
b k
b s
j our
Û ģ
Ùĥ Ø§Ùħ
ĠÙĪ Ø±ÙģØ¹
ĠÙĬ ÙĥØ±
ĠØŃ Ø§ØµÙĦØ©
Ø§Ùĩ ÙĦÙĬÙĨ
ĠØ§ÙĦØŃ Ø§Ø¶Ø±
ĠØªØ¹ Ø·ÙĬÙĨÙĬ
ĠØ² ÙĨ
ĠØ±ÙĪ Ø§ÙĬØ§Øª
ĠÙĪØ± Ø§ÙĨØ§
Ġ3 6
Ø·ÙĬ Ø·
ĠÙħØŃ Ø°
ĠØŃÙĥ Ø§ÙĬØ§
ĠÙĦÙĬØ³ ÙĪØ§
ĠØ§ÙĦØ£Ø³ Ø§Ø³ÙĬØ©
ĠØ¯Ø±Øª ÙĦÙĥ
ĠØ±Ø§Ø³ ÙĪ
ĠØ§ÙĦÙĪÙĥ Ø§ÙĦØ©
Ã ´
ÙĬ Ø§Ø¯Ø±Ø§
Ùĩ ÙĨØ§Ùĥ
ĠÙģ Ø§ÙħÙĬ
Ø· ÙĬØª
ĠØ¥ Ø«
Ø§ÙĪ Ø¨ÙĪ
ĠØ§ÙĦØ³ Ø§Ø¨Ø¹
ĠØ§ÙĦØ® Ø¨Ø²
Ġt an
ĠÙĨØª Ø¨Ø¹ÙĪ
ÙĪØ¯ Ø§ÙĨ
ĠØ§Øª Ø®Ø§Ø°
ĠØ§ÙĦÙħØ´ Ø±ÙģÙĬÙĨ
ĠØ§ÙĦÙħØ¹ ÙĨ
ĠØ¨Øª ÙĦÙĥ
ĠØ§ÙĦØ§Ø¨ ÙĬØ¶
ĠØ§ÙĦØ¶Ø¹ÙĬ Ùģ
ĠÙħØ¯Ø§ ÙĬØ±
k n
ĠÙĬ Ø¨ÙĬ
ĠØ£ Ø¶Ø¹
ĠØ§ÙĦÙħ Ø³ÙĨØ¯
ĠØ§ÙĦØ¹ Ø¬Ø¨
Ø§ØŃ Øª
ĠØ§ÙĦØ¯ Ùģ
ĠØ§ÙĦØ¯ ÙģØ§Ø¹
ĠÙĪØ´ ÙĥØ±
ĠÙĬØª ØºÙħ
ÙģÙĬØ¯ÙĬÙĪ ÙĩØ§Øª
ĠÙħØ¬ ÙħØ¹
ĠÙĬØ¯ Ø¹
ĠØ£ØŃØ¯ Ø§Ø«
ĠÙĬØµ ÙĨØ¹
ĠÙĦØª ÙĥÙĪÙĨ
ĠØ§ÙĦØŃÙĤ Ø§Ø¦ÙĤ
ĠØ£Ø´ Ø¹Ø±
ĠÙĨÙĤ Ø¯ÙĬ
Ø·ÙĪ ÙĨØ§
ĠÙħØ· Ø§ÙĦØ¨
ĠÙĨÙĩ Ø§Ø¦ÙĬØ§
ĠØªØ¨Ø¹ Øª
ĠØ¨Ø§ ÙĬÙĨØ§
ĠÙĥØª ÙĬØ±
ĠÙĦØ¢ Ø®Ø±
A H
ĠÙ ī
ÙĤ Ø§Ø´
ÙĬØ± ÙĬØ©
ĠØ´ Ø§ÙħÙĦ
Ø³Øª Ùĩ
ĠØ§ÙĦØŃ ÙģØ§Ø¸
ĠÙĪÙĦØ§ ÙĬØªÙĬ
ĠØ§ÙĦÙģ Ø§ÙĬ
Ġm t
ĠÙħØ³ Ø¬ÙĦ
ĠØ§ÙĨØª Ø§Ø¹
ĠØŃÙĪ Ø³Øª
ĠÙģÙĤ Ø§Ùħ
ĠØ§ÙĦØªÙģ Ø§Ø¹ÙĦ
ĠØ§ÙĦØ¯Ø§Ø® ÙĦÙĬØ©
Ø§ÙĦ Ø¨Ø©
Ùĩ Ø°ÙĪ
ĠÙħ Ø§Ø£
ĠÙĦ ÙĦØ§
ĠÙĦ ØŃØ§ÙĦ
ĠÙħÙĨ ØµØ¨
ĠØµ ÙĦÙĪ
ĠØ§ÙĦØ£ Ø±ÙĪØ§ØŃ
ĠØ§ÙĦÙĨ ÙħØ·
ĠØ· Ø¹Ùħ
ĠÙĪÙĬ Ø¹ÙĦÙħ
Ø§Ø³Øª Ø§Ø¯Ø©
ĠÙĪÙĩ Ø§Ø¯
ÙĪØ¹ ÙĬ
ĠÙĪØ¬ ÙĬ
ĠØ¹Ø¨ Ø¯ÙĬ
ĠØµØŃÙĬ Øª
ĠØ§ÙĦÙģÙĬ Ø³
ĠØ§Ø¶ ØºØ·
ĠÙħØ² ÙĦØª
ĠØ³Ø¬ ÙĬÙĨ
ĠÙĦØ¹ÙĦ ÙĥÙħ
ĠÙĥØ¨Ø± Øª
ĠØ§ÙĦØµØ§Ø¨ Ø±ÙĬÙĨ
ĠÙħØªØ±Ø´ ØŃØ©
ĠÙĬ ØªÙĥ
ðŁ ļ
ĠØ§Ø³Øª ÙģØ³Ø§Ø±
Ø§Ø¶ ØŃ
ĠÙĪÙĦ ÙĨØ§
ĠØ±ÙĪ Ø§Ø¨Ø·
Ġn jib
ĠØ§ÙĦØ« ÙĪØ§Ø¨
ĠØ§ÙĦÙĤØ± Ø§Ø¡
ĠÙĬØ³ ÙĦÙĥ
ĠØ§ÙĦØ§Ø³ Ø·ÙĪØ±Ø©
Ø·ÙĦ Ø¨Ø©
Ġra hi
ØºÙĬ Ø³
ĠØ±ÙĬ Ø§ÙĨ
ĠØŃØ³ÙĨ Ø§ØªÙĩ
ÙĨØ¨ ØºÙĬ
ĠØ§ÙĦÙħÙĬ Ø²Ø§ÙĨ
i ma
ÙĪ ÙĥÙĦ
Ø¯ ÙĦØ©
ÙĤ Ø¯ÙĬÙħ
ĠØ£ ÙĬØªÙĩØ§
ĠÙĤ ÙĪÙĦØ§
ĠÙĤ ÙĩÙĪØ©
ĠØ§ÙĦØ¨ Ø±ÙĬ
ĠØ§ÙĦØ¨ Ø·ÙĦ
ĠðŁĺ ķ
ĠØ§ÙĦØ® ÙĦÙĦ
ÙĬÙĥ Ø§ÙĨ
Ġs ay
ĠÙĬØ± ÙĤØ¯
ĠÙģØ£ ÙħØ±
ĠØ§Ùĩ ØªÙħ
ðŁĳ »
ĠÙħØµ Ø§Ø¨
ĠØ§ÙĦØªÙĪ ÙĥÙĦ
ĠØ§ÙĦØ³ÙĬ Ø§ØŃÙĬØ©
ĠØ¹ÙĤ ÙĬØ¯
Ġya ha
ĠÙħØªÙĪ ÙģØ±
ÙĪÙħÙĬ Ø¯ÙĬØ§
ĠØ§ÙĦØ¥Ø¹ ÙĦØ§Ùħ
l ina
ÙĪ ÙĦÙī
Ø¯ ÙĪÙĥ
Ø¹ Ø´
Ø§Ø± ÙĨ
ĠØŃ ÙħØ§ÙĬØ©
ĠØ¥ Ø²
ĠØ¥ Ø³ÙĨØ§Ø¯
ĠÙħØ¹ ÙĦØ¨
ĠØ§ÙĦØ£ ÙĤØµÙī
ĠØ§ÙĦØ¬ Ø±ØŃ
ĠØ§Ø³Øª Ø·Ø¹
ou li
ĠØ§ÙĦØ¥ ØŃØ³Ø§ÙĨ
ĠÙħØª Ø®Ø§ÙģÙĬØ´
ĠÙĩÙĨØ§ Ø§
Ġ202 7
ĠØ±Ø§Ø¬ ÙĦÙĬ
ĠØ§ÙĦØ£Ø® ÙĪØ©
Ø¬Ø² Ø§Øª
ĠØ¥Ø® ÙĪØ§ÙĨ
ĠØ¹Ùģ Ø§ÙĨ
ĠØ¨ÙģØ¶ ÙĦØ©
ĠØµØ§ÙĬ ÙĬ
ĠØ¨ÙĪÙĦ Ø¹ÙĬØ¯
9 8
ĠØª ØªÙĩ
ĠÙĥ Ø§ÙģÙĬØ©
ĠØ´ ÙģÙĬ
Ø§Ø¯ Ø¹ÙĬ
Ø§ÙĬ ÙĦÙĬ
ĠØ§ÙĦØ£ Ø°Ùī
ÙĪØ§ Ø§ÙĪ
Ø§ÙĪ Ø³
ĠØ§ÙĦØ³ ÙĨÙĬÙĨ
ĠØ§ÙĦØ¬ ÙĨØ³ÙĬØ©
ĠÙĪÙĨ Ø§Ø³
ØªØ¨ Ø§ÙĨ
ØªØ¨ ÙĤÙī
ðŁ¤ Į
ĠÙĪØ¨ Ùĥ
fi que
ĠØ§ÙĦØ³ÙĦ Ø·Ø©
ĠØ¶Ø± ÙĪØ±Ø©
ĠØ§Ø³ØªÙĪ Ø¯Ø¹
t ra
Ġ ome
Ùĩ Ø²Ø©
ĠÙĥ Ø§Ø°
Ø² Ø§Øª
ĠØŃ Ø±ÙĬ
ĠØŃ ÙĨÙĬÙĨ
ĠØ¯ ÙĪØ±ÙĬ
ĠØ£ÙĨ Ø¸Ø±
ĠØŁ !!
ĠØªØ³ Ø£ÙĦ
ĠÙĪÙĤ ØªÙĪ
ĠÙĪÙĦÙħ ÙĨ
Ø§Ø³ÙĬ ÙĪ
ĠØ¨ÙĨØª Ùĥ
ØªÙģ Ùī
ĠÙģÙĪ Ø§Ø¦Ø¯
ðŁĺģ ðŁĺģ
ĠØ¨ÙĦØº ÙĨØ§
Ġhadi k
ĠØ±Ùģ ÙĤØ©
ĠØªÙĪØ¬ ÙĬÙĩ
ĠØª Ø³ÙħØŃ
Øµ ÙĪØ±Ø©
ĠØ® ÙĦØ§Ùĩ
Ø§ÙĪ ÙĨØ§
ÙĪØ¯ ÙĬÙĨ
ĠØ§ÙĦÙĬ Ø§Ø³
ĠÙĬØ³Øª Ø®Ø¯Ùħ
ØŃÙĪ Ø§ÙĬØ¬
ĠÙĨØ¹ Ø·ÙĬÙĥ
Ġre d
ØªÙģ Ø§Ø¡
ĠØªÙģØ³ÙĬØ± Ùĩ
ĠØ§ÙĦØ³ÙĦ Ø§ØŃ
ĠÌ Ī
ĠÙħØ±ÙĪ Ø±ÙĬ
ĠÙĥØ§Øª Ø¨Ø©
ĠØ§ÙĦØ®ÙĦÙģ Ø§Ø¡
ĠØ¹Ø§Ø¦ÙĦ ØªÙĬ
Ø¶ Ø£
ĠØ® Ø§
ĠØ§ÙĦØµ ÙĪØ§ÙĦØŃ
Ġa ussi
Ø¯ÙĪ Ø²
Ġp odc
ĠÙĪÙĬÙĨ Ø¬ØŃÙĥ
ĠØ§ÙĦØ§Ø® Ø±ÙĬÙĨ
ĠÙĨØ¹ Ø§ÙĪÙĨ
ĠÙĨØªÙĬ Ø§
ĠØ¹Ø´ Øª
ðŁĳı ðŁĳı
Ġfa ire
ĠØ¬Ø± ÙĬØ±
Ø·ÙĨ Ø§Ø¹ÙĬ
ĠØ«Ø§Ø¨Øª Ø©
Z id
ħ ł
Ø¨ Ø§ÙĦÙĬ
ĠÙĦ ÙģØ§Øª
ðŁĺ «
ĠØ³ ÙħÙĬØª
ĠØ§ÙĦØª ÙħÙĬØ²
ĠØ§Ø³ Ø¦
ĠÙĪÙĨ ÙĩØ§Ø±
ĠÙĪØ¹ Ø°Ø§Ø¨
ĠÙħØ± Ø£Ø©
ĠØ§ÙĦÙĤØ± Ø§Ø±
ĠÙħÙĦÙĬ Ùĥ
ĠØ¨Ø¯ Ø§ÙĬ
ĠØªØ± ÙĬÙĨ
Ø¯Øª ÙĨØ§
Ø§ØªÙĬ ØŃ
ĠØªØµ ÙĪÙĬØ±
ĠÙģÙĩÙħ ÙĨØ§
ĠØ§ÙĦØ£Ø® Ø·Ø§Ø¡
ĠØ§ÙĤ ØµØ¯
ĠÙĦØªØŃ ÙĤÙĬÙĤ
ĠØ§ÙĦØ¬Ø² ÙĬØ±Ø©
ĠØ²ÙĥØ±ÙĬ Ø§
Ġrend u
g end
ÙĪ ØªÙĩ
Ø¹ Ø§ÙĪØ¯
ĠØ± Ø¹Ø§ÙĬØ©
Ø£ Ø±
Ø±ÙĬ ÙĤØªÙĥ
Øº ÙĪÙĦ
Ø§Ø¬ Ø§
ĠØ§ÙĦØª ØµØŃÙĬØŃ
Ø±ÙĪ Ø¶
ĠÙĪØª ÙĤØ¨ÙĦ
ÙĬÙħ Ø§Ø¡
Ø§ÙħÙĦ Ø§Øª
is te
ĠÙĪØ³ Ø§Ø¦Ø±
ĠÙĬØ±ØŃÙħ ÙĪØ§
Ú¨ ÙĦ
ĠÙħØ« ÙĦÙħØ§
ĠÙĬØ· Ø±ØŃ
o de
p n
Ùħ Ø±ÙĬÙħ
Ø¯ Ø¹Ùħ
ÙĤ Ø±ÙĬØª
Ùģ ØµÙĦ
Ø§Ø³ ÙĦØ§Ùħ
ĠØ§ÙĨ ÙĤØ·Ø§Ø¹
ĠØ§ÙĦØª ÙĥÙĨ
ĠðŁĺ ¨
ĠØ§ÙĦÙĥ Ø§Ø±
ĠØ§ÙĦØ® Ø´
Ġd ahk
ØªØ± ÙħØ©
ĠØ±Ø¨ Ø·
ĠÙĬÙĩ ØªÙħ
ĠØ´Ø®Øµ ÙĬØªÙĥ
ĠÙģØ³ Ø§Ø¯
Ø§ØªÙģ Ø§ÙĤ
Ġst p
ĠÙħØªØ£ Ø®Ø±Ø©
g hi
ĠØ¨ ÙĪØ¯ÙĥØ§Ø³Øª
ĠÙĨ Ø¨ÙĪ
ĠØŃ ÙĪÙħ
ĠØŃ Ø§Ø³Ø¨
ĠØ³ Ø§ÙĩÙħ
ÙģÙĬ Ø³
ÙĦÙĪ Øº
ĠðŁĺ ³
ĠÙħØª Ø£Ùĥ
ĠÙĦØ¨ Ø§Ø¨
ta k
ĠØ®ÙĦÙĤ Ùĥ
ĠØ±Ø³ ÙĪÙĦØ§
ĠØªØŃÙĥÙĬ ÙĦÙĨØ§
ĠÙĦØ· Ø§ÙĦÙħØ§
ĠÙĦÙĤÙĬ ØªÙĪ
ĠØ«Ø§ÙĨ ÙĪÙĬØ©
ĠÙĬÙĪØªÙĬÙĪØ¨Ø± Ø²
ĠØ¹Ø¶ ÙĪØ§
ĠÙħÙĨØªØ¯ Ø§ÙĨØ§
ĸªï¸ıâ ĸªï¸ıâ
v el
Ø§ Ø§Øª
Øª Ø¦
Ø³ ÙĪØ³
ĠÙģ Ø§ÙĨÙĬ
ĠÙģ ØªØ±
ĠØª ÙĦØª
Øµ Ùħ
Øµ Ø§Ø¯ÙĬ
ĠØ§ÙĦØ¹ Ø±Ø³
ĠðŁ ¦
Ġt k
ĠÙĪØ¹ Ø§ÙģÙĬØ©
ĠÙħØŃ Ø¯Ø«
ĠÙĨØ³ Ø§ÙĦ
ĠØªÙĪ ØµÙĬÙĦ
ta ire
ĠÙħØ® Ø¯
ĠØ§ÙĦØªÙĪ Ø¶ÙĬØŃ
ĠØ¨Ø³ ÙĩÙĪÙĦØ©
ĠØ§ÙĦØ¨Ùĥ Ø§Ø¡
ĠÙĤÙĪ ÙħØ§
ĠÙĪØ§ÙĤ Ùģ
ĠØ§ÙģØ±ÙĬ ÙĦ
ĠØ§ÙĦÙħØ®ÙĦÙĪ ÙĤ
ĠØ§ÙĦØ¯Ø§Ø® ÙĦ
ĠØ§ÙĦØ¹Ø« ÙĬÙħÙĬÙĨ
C hk
ØŃ Ø§Ø¡
ĠÙģ Ø³Ø±
Ø¯ÙĬ ÙĤÙĬÙĨ
ĠØ§ÙĦØ¹ Ø²Ø©
ĠØ§ÙĦØª Ø·ÙĪØ±
ĠØ§ÙĦØŃ Ø§Ø±Ø«
Ø³ÙĬ ÙĪÙĨ
ĠÙĪØ£ Ø¬
ĠØ§ÙĦØº ÙĨØ§Ø¡
ĠÙħØ³ Ø§ØŃØ©
ĠÙĬØŃÙģØ¸ ÙĦÙĥ
ĠØ§Ø¨ÙĨ ØªÙĬ
ĠÙĦØ£ ÙħØ±
ĠØ®ÙĦ ÙĦ
ĠÙħØ§Ùĥ Ø´
ĠÙĦØµ Ø§ØŃ
ĠØŃÙĨ ÙĪÙĨØ©
d m
ÙĨ Ø³Øª
ĠÙĤ Ø§Ø¦Ø¯
ÙĩÙħ Ø©
ĠØ¥ ÙģØ±ÙĬÙĤÙĬØ§
ĠØµ ÙĬØ¯
ĠØ¨Ø§ÙĦ Ø¬ÙĨ
ĠØ§ÙĦØ¬ Ø±ÙĬÙħØ©
ĠØ§Ø³ Ø§Ø³ÙĬØ©
ĠðŁĺ ĵ
ĠØ§ÙĦÙĥ ÙĬ
ĠÙĪÙĬ ÙĤØ§ÙĦ
ĠØ§ÙĦØ¯ Ø§Ø¦Ùħ
ĠÙĦÙĩ ÙĨ
Ġ) ØĮ
Ġf am
Ø¨Øª ÙĨØ§
ØŃØ± Ø§Ùģ
ĠÙĤØ± Ø§Øª
ĠÙģØ£ ÙĪÙĦ
ĠÙĬØµ Ø¯Ø±
ĠØ§ÙĦØ³ÙĬ Ø¦Ø©
Ġch bab
ĠØªØ¹Ø±Ùģ ÙĪ
ØªØ¯ Ø§Ø¡
ĠØ§ÙĦØ·ÙĬØ¨ Ø§Øª
ĠØ§ÙĦØ¬ÙĪ Ø²ÙĬ
p er
ÙĪ ÙĥÙĬ
ÙĤ ÙĬØ¯
ĠØ¨ ØŃØ¯
ĠÙĬ Ø±ÙĬ
ĠÙĬ ÙģØ¶
ĠÙĬ Ø¨Ø¯ÙĦ
ĠØ§ÙĦÙħ ØŃÙħ
ĠØ§ÙĦÙħ Ø°ÙĥÙĪØ±Ø©
ĠØ³ Ø§ÙĥÙĨ
... !
ĠØ§ÙĦØ£ Ø¨ÙĪ
Ø¤ ÙĦ
Ġw ill
ĠÙĤØ± ÙĬÙĨØ©
ĠØ§Ùĩ Ø¯Ø±
ĠÙĪØ§ÙĦØª Ø³
ĠØªØ±Ùĥ Ùĩ
ĠØªÙģØ±Ø¬ ØªÙĪ
I R
i h
r u
Ġ \
Ø§ÙĦ Ø§ÙĪÙĦ
ĠØ§ÙĦ ÙĥØ±Ø©
ĠØ£ Ø¶ØŃÙī
ðŁ ĸ
ÙģÙĬ ÙģØ©
ĠØ§ÙĦØª ÙĤÙĬ
ĠØ§ÙĦØ± Ø§ÙĪÙĬ
ĠØ§ÙĦØ¯ ÙħØ§Ø¡
ĠÙĪÙĦ ÙĦÙħ
Ġb ra
Ġ20 17
ti que
ĠØªÙħ Ø«ÙĬÙĦ
ðŁĳ ĩ
Ø§Ø³ÙĬ ÙĪÙĨ
ðŁĴĶ ðŁĴĶ
ĠØ¥Ø³ÙĦØ§Ùħ ÙĬØ©
ĠØ¹ Ø§ÙĤ
ĠØ§ÙĦÙħ Ø¯ÙĬØ©
ÙĥØ± Ø§Ø±
Ġ: )
ĠÙĦÙĦ Ø³ÙĬ
ĠÙħØª ÙĦ
ĠØ£ÙĬ ÙĪØ¨
ĠÙĬØª Ø¬Ø§ÙĪØ²
ĠÙħØ³ Ø§Ø¦ÙĦ
ĠÙĬØ´ Ø±Ø¨
ĠØ®ÙĦ Ø¯ÙĪÙĨ
ĠÙħØµ Ø¯
ðŁĮ ¼
ĠÙĨØ¯ ÙĪØ±
ĠØ¨ÙĪØ± ÙĨØ§ÙĨ
ĠÙĪØ¯Ø± Øª
ĠÙħØ¬ØªÙħØ¹ ÙĨØ§
l lh
Ùĥ ÙĪÙĥ
ĠÙĪ ÙĨÙĬ
ĠÙħ Ø°ÙĥØ±
ĠÙĦ ÙĤØ·
ĠØ¯ ÙĬØ¨
Ø§Ø¦ ÙħÙĬÙĨ
Ø±ÙĪ ÙĨØ§
ĠØ¨ÙĨ Øµ
ðŁ¤ ®
Ġk now
ĠÙħØ³ Ø±
ĠØ§ÙĦÙĦ Ø®Ø±
ĠÙģØª ÙĨ
ĠØ£Ø¬ Ø²Ø§Ø¡
ĠØ§ÙĦØ¨Ø± Ø¯
Ø¨Ø· Ø§ÙĦ
Ġr ida
ĠØ§ÙĦØ£ÙĪÙĦ Ø§Ø¯
ĠØ§ÙĦØ§Ø¨ Ø¯Ø§Ø¹
ĠÙĪØ« Ø§ÙĨÙĬ
ĠØ§ÙĦÙħÙĨÙĩ Ø¬
Ùĩ Ø§Ùħ
ĠØª ÙĤØ±Ø§ÙĪ
ĠØ³ ØŃÙĪØ±
Ø§Ø´ Øª
ĠØ§ÙĦÙĨ Ø®
ĠØ§ÙĦÙĥ ÙĪÙħÙĪÙĨØªØ§Ø±
Ġl kh
Ø±ØŃ Øª
ĠðŁĺĤ ðŁĺħ
ĠÙĨØ´ Ø£
Ø·ÙĬ ÙĦ
ĠØªØª Ø¹Ø¨
ĠÙĦØª Ø¹ÙĦÙħ
ĠÙĨÙĤØ±Ø§ ÙĩØ§
ĠØ§ÙĦÙĥØ± Ùħ
ĠØ§ÙĦØªØŃ ÙĬØ©
ĠØ§ÙĦØ§ÙĤ Ø§ÙħØ©
Ġjus t
ĠØ§ÙĦØ¯ÙĬÙħ ÙĤØ±Ø§Ø·ÙĬØ©
ĠÙħ Ø±Ø¨ÙĬ
Ùģ Ø§Ùĩ
ĠÙĦ ÙĪØ±
ĠØª Ø²ÙĬØ¯ÙĬ
ĠÙĨ ÙħØª
ĠÙĤ Ø§Ø¦Ùħ
ĠØ¥ Ø·ÙĦØ§ÙĤ
ha llah
ĠÙĬØ¬ ÙĦØ³
ĠÙħØŃ Ø¨ÙĬ
ĠØ§Ø´ ÙĥØ±
ĠðŁ¥ Ģ
ĠØªÙĥ Ø¨Ø±
ĠØªØ¯ Ø®ÙĦÙĬ
ĠÙĤØª Ø§Ø¯Ø©
ĠØ®ÙĬ Ø§Ø±
Ġz a
ĠÙĪÙĬØ¨ ÙĤÙī
= ØŁ
j ours
Ùħ ÙĤØªØ±ØŃØ§Øª
ĠÙħ Ø±Ø¨
Ø³ ÙĪÙģ
ĠÙģ ÙĤÙĬÙĦ
ĠØª Ø¯ÙĬÙĩ
ĠÙħÙĨ Ø§Ùħ
ĠØ§ÙĦÙħ ÙĤØ§ÙĪÙħØ©
ĠØ¬ Ø¨Ø¯
ÙĪÙħ Ø´
Ø§Ø² ÙĨ
Ġ3 4
Ġy t
ĠØªÙĪ ÙĥÙĦ
ĠØ³ÙĬ Ø§Ø±Ø§Øª
ĠðŁ¤² âĿ¤
ĠØ¹Ø¨ Ø§Ø±Ø§Øª
ĠÙĨØ¹ Ø§ÙĨÙĬ
ĠÙĨØ´ÙĪÙģ ÙĩÙħ
ĠÙĪØ¯ Ø®ÙĦ
ĠØ¯Ø§Ø¦ Ùħ
ĠØ±Ùĥ Ø¹Ø©
ĠÙĪØ§ÙĦØ± ØŃÙħØ©
Ġhada k
ÙĪØ³ÙĪ Ø³Øª
ĠØ§ÙĦØ¨Øµ Ø±ÙĬ
Ġple ase
w d
Ùĩ ÙĦÙĨØ§
Ø¨ Ø¥Ø°ÙĨ
ĠðŁĺ ¡
ĠÙĪØ£ ØªÙĪØ¨
ĠÙħØŃ ÙĤ
ĠÙĬØ³ ÙĩÙĦÙĥ
ĠØ¨Ø§ÙĦÙħ Ø³
ĠØ§ÙĦÙħØª Ø¹
ĠØªØ· ÙĦÙĤ
ĠØ³Ùħ Ø§ØŃ
ĠÙĦØ® Ø¶Ø±
ĠÙħÙĪØ± Ø§ÙĩØ§
ĠØ³ÙĬØ± ÙĬÙĨ
ĠÙĪØªÙģØ± ØŃÙĬ
z e
Ùĩ ÙĦØ©
ĠÙĪ ÙĦÙĪÙĦØ§
Ø´ ØŃ
ĠÙģÙĬ Ø¬Ø¨
ĠØµ Ø§Ø¯ÙĤ
ĠØ§ÙĦØª ÙĪØ³
Ø¯Ø± Ø´
ĠÙĪØµ Ø§Ø±
ĠØŃÙĬ ÙĪØ§ÙĨ
ĠØ§ÙĦÙħØ¬ ÙĬØ¯
ĠÙĨØŃØ¨ Ø³
ĠÙĪÙĬØ± Ø¶Ùī
ØªØµ Ùģ
ĠØ¨Ø§ÙĦÙĨ Ø§Ø³
ĠØ¥Ø® ÙĪØªÙĬ
ĠØ§Ø±Ø¬ÙĪ ÙĥÙħ
ĠØ§ÙĦØ£Ø¹ Ø¸Ùħ
ĠØ§ÙĦÙħØŃØ± Ùħ
ĠÙħÙĥØ± ÙĪÙĩ
r in
Ø§ Ø§Ø¡
Ø§ÙĦ ÙĬÙħ
ĠØ§ÙĦ Ø³ØªØ±
ĠÙĦ Ø¯ÙĬÙĨ
ÙĬÙĨ ÙĬØ©
Ø² ÙĬØ§
ĠÙĤ Ø¯ÙĪ
ÙĦÙĥ ÙĦ
ĠÙĬØ¹ Ø¬Ø²
Ġl b
ÙĦØ¨ Ùĥ
ĠÙħØª ÙĨÙĪØ¹Ø©
Ø¯ÙĬØ± Ø´
Ġb cp
ĠØ§Ø± Øª
ĠØ§ÙĦØº ÙģÙĪØ±
ĠÙĪÙĤ Ø§Ø¹
ĠØ¨Ø´ Ø¯Ø©
ĠØ¨Ø§Ø¨ Ø§Ùĩ
ĠØ§ÙĦÙħØª Ø¹Ø©
ĠÙĪØ§ÙĦØ³ Ø¯Ø§Ø¯
Ġin for
ĠÙĦØ§Øª ØŃØ±
ĠØ§ÙĦØ«ÙĤ Ø§ÙģÙĬØ©
ĠØªÙĤÙĬ ÙĬÙħ
ĠÙĬØ¹ÙĪØ¶ Ùĥ
ĠØ§ÙĦØ¬ÙħÙĩÙĪØ± ÙĬØ©
9 1
A M
m s
o or
ĠØ¨ ÙĤÙī
ĠØ± ÙħÙĬ
ÙĩØ§ Ø§
ĠØªØ¹ ØªÙħØ¯
ĠØ§ÙĦØ¯ Ø®
Ġ20 18
ĠÙħØ± Ø§Ø¬Ø¹
Ø¹Ø±Ùģ ÙĪØ´
ĠØ§ÙĦÙħØ¬ Ø§ÙĦØ§Øª
ĠØ§ÙĦÙħØŃ ÙĦ
ĠâĿ¤ï¸ı ðŁĶ¥
ĠØµØ± Ø§Ø¹
ĠÙĬØªØ¨ ÙĬÙĨ
ĠØ§ÙĦØ£ØŃ Ø²Ø§Ø¨
ĠØ³Ø§Ùħ ØŃ
ĠØ·ÙĬ ÙĦØ©
ĠØ§ÙĦØ¥ÙĦÙĥ ØªØ±ÙĪÙĨÙĬØ©
Ø§ÙĦ Ø§Ø³ØªØ§Ø°
ĠÙĪ Ø±Ùģ
ĠØ± ÙĪÙĨØ§ÙĦØ¯ÙĪ
Ø§Øª Ø§
ĠÙĬØŃ Ø²ÙĨ
ĠÙħØ´ Ø±Ùĥ
ÙĬØ§Øª Ùĩ
ĠÙĬÙĨ ÙĤÙĦ
ĠØ¯ÙĬØ± ÙĪÙĦÙĬ
ĠØ±Ø¨ Ø§Ùĥ
ĠØ§ÙĦÙĤØ± Ø¡Ø§ÙĨ
ÙħØ¶ Ø§ÙĨÙĬØ©
ĠÙħÙĤ Ø¨ÙĪÙĦ
ĠØ·ÙĦ Ø¹ÙĪÙĦÙĬ
ĠØ§ÙĦØ§ØŃ Ø³ÙĨ
ĠØ³Ùħ Ø§Ø¡
Ġli ve
ĠØ§ÙĦØ´Ø¹Ø¨ ÙĬØ©
ĠÙĦØ§ØŃ ÙĤØ§
ĠØ¨Ø§Ø¹ ØªØ¨Ø§Ø±
ĠØª Ø¶Ø±
ĠØŃ Ø§ÙĨ
ĠØªØ¹ ØªÙĤØ¯
ĠØªØ¹ Ø§ÙĪØ¯ÙĬ
ĠØ§Ø¨ ÙĨØ©
ĠØ§Ø¨ Ø¹Ø«
ĠÙĪØ¨ ÙĨØª
Ø¯Ùħ Ø§Ø¬
Ġp os
ĠÙĬÙĪÙħ ÙĨØ§
ĠÙħØµ ÙĬØ¨
ĠØ´Ùģ ÙĨØ§
ĠÙĪØ§ÙĦØ¥ Ø³ÙĦØ§Ùħ
Ø² Ùī
ĠØ§ÙĦÙħ Ø¨ÙĦØº
ĠØ§ÙĦØ¹ Ø·Ø§Ø¡
ĠØ§ÙĦØ´ ØªØ§Ø¡
Ø±ÙĪ Ø§ÙĦ
ĠØ§ÙĦÙĪ Ø§Ø¯ÙĬ
ĠÙħØŃ ØªØ±Ùħ
na k
ĠØŃØ¨ÙĬ ØªÙĬ
ĠØ¨Ø´ ÙĬØ±
ÙĤØ§Øª ÙĦ
ĠØ¨Øª ÙĨ
ĠL a
ØªØ¹ Ø¬Ø¨ÙĨÙĬ
ĠÙħÙĬÙħ ØªÙĥ
ĠÙģØ§Ø± ØºØ©
Ġab out
ĠÙħØ¯ÙĬØ± Ø´
ÙĨØ³ÙĤØ³ÙĬ Ùĥ
T oop
f ar
Ġ Ø§ØªÙĥ
Ġ ida
Ø§ Ø§ÙĦ
ĠÙĥ ÙĬØ±
ĠØ± Ø¹
ÙĬØ± ÙĪØ²
ĠØªØŃ Ø³ÙĬÙĨ
ĠØ§ÙĦØ® Ø¯ÙħØ§Øª
ĠÙĪØ¬ Ø¨Øª
ĠØ¯Ø± Ø§Ø³ØªÙĬ
ĠØªÙĤ ÙĦÙĬØ¯
ĠØ¨Ø¯ ÙĦØª
ĠÙģØ¹ ÙĨØ¯
ĠÙĩØ¯ ÙĪÙĥ
ĠØ§ÙĦÙģÙĬ Ø³Ø¨ÙĪÙĥ
ĠØ§Ø¶ Ø§ÙģØ©
ĠØ³ÙĦ Ø§ØŃ
ĠØªÙĪÙĥ ÙĦØª
ĠØ§ÙĦØªÙħØ« ÙĬÙĦ
Ùħ ÙĦÙĥ
ĠÙģ Øº
ĠÙĨ ÙĩØ±
ĠØ´ ÙĤ
ĠØ¬ Ø¨Ø±
ĠØ¥ Ø³ÙĨØ§Ø¯Ùĩ
Ø§Ùģ ÙĤÙĬÙĨ
ĠðŁ Ĺ¿
ĠØ§Ø® ÙĪØ§ØªÙĬ
ĠÙħØª Ø²ÙĬØ¯Ø´
ĠØ§ÙĦØ· ÙĪÙĬÙĦ
ĠØ§ÙĦØº ÙĦ
ĠØ§Ø¹ Ø·ÙĬ
Ø¹Øª ÙĤØ¯
ĠØ§Ùĩ Ø¯
ÙĬ Ø³Øª
ÙĪ Ø·ÙĬ
ĠÙħ Ø¦Ø©
ĠÙģ Ø¬Ø±
ĠØ£ ÙĤØµØ¯
ĠÙĥ Ø¹
ĠØ± ØºØ¨Ø©
Ø¨ÙĬ Ø¹Ø©
ÙĪÙĨ Øª
Ø±ÙĬ Ø¯ÙĬÙĥØ³
ĠØ¥ Ø¨ÙĨ
ĠØ§ÙĦØ¹ ÙħÙĬ
ĠØ¨Ø§ÙĦ ØªØ±
Ø¦ Ø³
ĠÙĪÙĩ Ø¨
Ø¨ÙĦ Ø§Ø¡
es se
ĠØ§ÙĦØº ÙĨÙĬ
ĠØ±ØŃÙħ ÙĩÙħ
ĠÙĪÙĥ ØªØ§Ùĩ
ĠÙĪØ¥ ÙĨÙĬ
ĠÙħØ³Øª Ø¬Ø§Ø¨
ĠØ®Ø±Ø¬ ÙĪ
ØªÙģ Ø§ÙĦ
ĠÙĬØº ÙĨÙĬ
ĠØ§Ø· ÙĦØ¨
ÙħØ§Ø´Ø§Ø¡ Ø§ÙĦÙĦÙĩ
Ġbro ther
ĠØ¨ÙĪÙħ Ø±Ø¯Ø§Ø³
l Ã©
Ùĥ ÙĪØª
ĠÙĦ ÙĤØ·Ø©
Øµ ÙĪØªÙĥ
Ø§Ø¯ Ø§Ø¨
ĠØ¬ ÙħÙĦ
ĠØ§ÙĦØ£ Ø¨Ø±
ĠØ§ÙĦØŃ Ø¨ÙĬØ¨Ø©
Ø§ÙĨÙĬ Ø§Øª
Ġp er
ÙģØª ÙĨØ©
ĠØ§ÙĨØª Ø§
ĠØ§Ùģ Ø¹ÙĦ
Ġin sta
ĠÙĪØ§ÙĦØµ Ø¨Ø±
ĠØ§ÙĦØµÙģ ØŃØ§Øª
Ø¨Øº ÙĬØª
ÙģØ±Ø¯ Ø§Øª
ĠÙĪØ¥ÙĬ Ø§Ùĥ
ØªØ¹ÙĬ Ø´ÙĪ
ÙĬ Ø§Ø¹
ÙĨ Ø¹Ø±Ùģ
Ø¹ ÙĦÙĩÙħ
ĠÙĬ Ø¸ÙĦÙħ
Ø§Ø´ ÙĬØ©
ĠØ§ÙĦØª Ø§Ø¨Ø¹ÙĬÙĨ
ĠØ· Ø¹ÙĨ
ÙħÙĬ Ø²Ø§ÙĨ
ĠÙĪÙĬ Ø®Ø±Ø¬
ĠØ§ÙĦØ¯ Ø¬Ø§Ø¬
re f
ĠÙħØ± Ø§ØŃÙĦ
ĠÙĬØª Ùģ
ĠÙĬØª ØºÙĬØ±
Ø¯ÙĦ Ø§ÙĦ
ĠÙģÙĦ Ø§Ø´
ĠØ§ÙĦÙħØª ØªØ§ÙĦÙĬØ§Øª
ĠÙĬØ¨ ØºÙĬ
ĠØªØŃØª Ø³Ø¨
ĠÙĤÙĦØ¨ ÙĪ
ĠA L
ĠÙĤØ¨ ÙĦÙĥ
ĠØ§ÙĦØ£ÙĨ Ø¹Ø§Ùħ
Ø®ØµÙĪØµ Ø§
ĠØªÙģØ¶ ÙĦÙĬ
ĠÙħÙģÙĩÙħ Øª
ĠØ§ÙĦÙģÙĪ Ø§Ø¦Ø¯
u is
w el
ĠÙħØ¹ ÙĦØ§Ø¨
Ø¯Ø± Ø§ÙĨ
ĠÙĪÙĨ ÙĤÙĦ
ĠÙĪØŃ ÙĤ
ĠØ£Ùħ ØªÙĩ
ĠØ§ÙĦØº Ø§Ø²
ĠÙĬØ® ÙģÙī
ÙĪÙĩ Ø±Ø©
ĠØ¨Ø± ÙĪÙģ
ĠÙĪÙĤ ÙģØª
ĠÙĬÙĨØ¬ØŃ ÙĪ
Ġre c
ĠÙĨØ¯ Ø¹ÙĪ
ĠÙĥØ± Ø§Ùħ
ĠØ·ÙĪÙĦ ØªÙĬ
ĠØ§ÙĦØ¹ÙĤ Ø§Ø¨
ÙĦØ§ØŃ Ø¸
ĠØ§ÙĦÙĨØ¬ ÙħØ©
ĠØ§ÙĦÙĩÙĪ Ø§Ø¡
A K
n n
Ø³ ÙĦØ³ÙĦØ©
ĠØ¹ ÙģÙĪ
ĠÙĬ Ø±Ø¶ÙĬ
ĠØ§ÙĦÙħ Ø§Ø¶ÙĬØ©
ĠØµ Ø§ÙģÙĬ
ĠØ§ÙĦØ£ Ùĥ
ÙħØ± Ø£Ø©
Ø§Øµ ØŃØ§Ø¨
ou i
Ø¯ÙĬÙĨ ÙĬ
ĠØ§ÙĦÙħÙĨ Ø·ÙĤ
ĠØ§Ø´ Ø®Ø§Øµ
ĠØ§ÙĦØ¨ÙĬ Ùĩ
di a
ĠØ£Ø¨ Ø¹Ø¯
Ø§Ø¤ ÙĩØ§
ĠÙħØ´ÙĥÙĦ ØªÙĬ
ĠÙĪØ§ÙĬ Ø§ÙĥÙħ
ĠØ¥Ø´ Ø§Ø±Ø©
ĠØ§ÙĦØ¹Ø¶ ÙĪÙĬØ©
ĠØ§ÙĦØ£Ø¹Ø± Ø§Ùģ
c ri
e h
¹ ï¸ı
ĠØ ¤
ĠØ¹ Ø³ÙĦ
ĠØ± Ø§Ø¡
ĠÙĪØ§ÙĦ Ùī
ĠÙĪØ§ÙĦ ÙĤØ±Ø¢ÙĨ
ĠØ§ÙĦØ£ ÙĬ
ÙħÙĬ ÙħØ©
Ø§Ø² ÙĬÙĨ
ĠÙĪÙħ Ø«ÙĦ
ĠØ§ÙĦØ· ÙĬ
ØªØ± ÙĤ
ĠÙĪØ´ Ø¨ÙĬÙĥ
ĠØ§ÙĦÙħØ± Ø³ÙĦ
ĠÙĤØ± Ø§ÙĨ
ĠÙĨØ¹ ÙĤØ¨
ĠØ§ÙĦØ±ÙĬ Ø§Ø¶
ĠR ed
ĠØªÙĤØ¯Ùħ Ùĩ
ĠØ¹Ùģ Ø§ÙĬØ³
ĠØ¬Ø² ÙĬØ±Ø©
ĠØ§ÙĦØ¹Ø±ÙĪ Ø³
ps on
ĠÙħØ¨Ø¯ Ø¹
ĠÙĪØ§ÙĤÙĬ ÙĦØ§
) (
9 3
w la
Ùģ Ø¯
Ùģ Ø®
ĠØª Ø§Ø±Ø©
ðŁĺ »
ĠØ§ÙĦØ¹ Ø¸Ùħ
ĠØ§ÙĦØ³ ÙĦÙĪÙĥ
ĠðŁ ı
ĠØ§ÙĦÙģ ØªÙĪÙī
ĠÙħØª Ø¹Ø©
ĠØ£Ùħ Ø³Ùī
ĠÙĨØŃ ÙĥÙħ
ĠØ§Ø¹ ØªÙħ
ĠØ¸ Ø§ÙĦÙħ
ĠØ§ÙĦÙĩ Ø§Ø¯
202 2
ĠØªÙĬ Ø²ÙĬ
ĠØ§ÙĦØªØ± Ø§Ø«
ĠØªØ¯ÙĬØ± ÙĬ
ĠØ´Ø±ÙĬ ÙĥÙĬ
ĠÙĦØºÙĬØ± Ùĩ
ĠðŁ«¶ ðŁı»
ĠØ·ÙħÙĪ ØŃ
E L
Ùĥ ÙĨÙĬ
ØŃ Ø§Ø¨Ø©
ĠÙģ ØŃØ³Ø¨
ĠÙĬ ÙĪÙĤ
ĠØ§ÙĦÙħ Ø±ÙĥØ²
ĠØ´ Ø±ÙĥØ§Øª
ĠØ¬ ÙĨÙĬ
ĠØ§ÙĦØ¹ Ø§Ø±
ĠØªØ¹ Ø·ÙĬÙĨØ§
Ø³ÙĬ ØªÙĬ
Ġy ch
ĠÙħØ¨ Ø³Ø·
ĠÙħØ¨ Ø§Ø¯Ø¦
ĠØ§ÙĦØ§Ùģ ØªØ±
ĠØ§ÙĦØ³ÙĦÙģ ÙĬØ©
Ø³ÙħØ¹ Øª
ĠØ¹Ø°Ø± Ø§
A S
l ha
Ø§ÙĦ Ø§ÙĨ
ĠÙĪ ØµØ±
ĠÙħØ¹ Øª
ĠØº Ø§Ø¨
ĠÙĦÙĦ Ø§ØŃ
ĠðŁĺ ¶
Ġl uck
ĠÙĬØª Ø¹Ø¨
ĠØ§ÙĦÙħØ´ Ø§Ø±ÙĬØ¹
ĠØ§ÙĦØ§Ø¬ Ø±
ÙĩØ§Ø¯ ÙĪ
ĠÙĪØºÙĬØ± ÙĩÙħØ§
ĠØµØ¯ÙĤ ÙĨÙĬ
Ã§a is
T op
o y
ĠÙģ ÙħØ¹
Ø¯ÙĬ ÙĩÙħ
Øº Ùģ
... ØŁ
ĠØ¨Ø§ÙĦ Ø°Ø§Øª
ĠÙħØ¹ ÙĬØ§
ĠØ§ÙĦØ± Ø³ÙħÙĬØ©
ĠØ° ÙĪÙĤ
ĠÙĪÙĬ Ø¹Ø±Ùģ
âĢ ł
Ġk ont
ĠØ§Ø± Ø§Ø¯
ĠÙĦØ£ÙĨ ÙĨØ§
ĠØ§ÙĦØ§Ø³ Ø§Ø³ÙĬØ©
ĠØªØ® Ø¨Ø±
ĠÙģØ£ ØµØ¨ØŃ
ĠØ®Ø±Ø¬ ØªÙĦÙĬ
ĠÙĤØ¨ Ø§Ø¦ÙĦ
de x
ĠØªÙĤØ± Ùī
Ġfr Ã¨re
ĠÚ¤ Ø§Ø¹
ĠØ¹Ø¨ÙĬ Ø¯Ø©
b ti
u ne
â ķ
Ġ ==
Ùħ Ø¤
ĠÙħ Ø§Ø¶
ĠÙģÙĬ ÙĤØ§ÙĦ
ĠÙħÙĨ Ø²ÙĦØ©
ĠØ´ Ø§ÙĦÙĦÙĩ
ĠØ³ ÙĤÙĪØ·
ÙģÙĬ ÙĬÙĨ
ĠØºÙĬØ± ÙĬ
ÙĪØ¹ ÙĦØ§Ø´
ÙĪÙĬ ÙĬ
Ġa ya
Ġk a
ĠØ§ÙĦØº Ø¯
ĠØ£Ø³ ÙĥÙĨÙĩ
ĠØ®Ø· ÙĬØ±Ø©
ĠØ¨ØŃ Ø¬Ø©
ĠÙĨÙĤ Ø§Ø´
Ø¬Ø§Ø¨ Ø§Øª
at ch
ĠØŃÙĬÙĨ Ø¦Ø°
ĠÙĥØ«Ø± ÙĨØ§
ĠÙĪØ§ÙĦØ¯ ÙĦÙĬÙĦ
ĠØ§ÙĦØ¬Ùĩ Ø§Ø²
) ...
K ada
Ø§ÙĦ ÙħÙĨ
Ø§ÙĦ Ø¬Ø©
ĠÙĦ Ø·Ùģ
ĠØª Ø¶ÙĬ
ĠÙĩ ÙĦØ§
ĠØ§ÙĦÙħ Ø¨ØªØ¯
ÙĬØ§ Ø§Ø±Ø¨ÙĬ
ĠØ§ÙĦÙĥ Ø§ÙģÙĬ
ĠØ² ÙĦ
en se
Ġp o
ĠØ§Ø¬ Ø¹ÙĦÙĩ
ĠÙĤØ± Ø±
ĠØ§ÙĦÙħØ¬ ÙħÙĪØ¹Ø©
Ø¯Ùĥ ØªÙĪØ±
ĠØ£Ø¹ Ø·ÙĬ
ĠØ§ÙĦÙħØ® Øª
ĠÙĪØ§ÙĦØ´ ÙĩØ¯Ø§Ø¡
ĠØ§ÙĦÙħØ¤ ÙĦÙģ
ĠØ§Ø¶ Ø¹
Ùħ Ø¨
Ùĥ ÙĦÙħØ©
ĠÙĪ Ø±Ùĥ
ĠØ§ÙĦÙħ ØŃØ¯
ĠÙĪØ§ÙĦ ÙĤÙĬØ§Ùħ
ĠØ® Ø¯Ø§Ùħ
ÙĥØ± Øª
ĠØ§ÙĦØ£ ÙĨØ¯
Ø§ÙĪ Ø§Ø©
ĠÙĪÙĦ Ø¯Øª
ÙħØª Ø§Ø¹
ĠØªØ´ Ø§Ø¡
ĠØ¨Ø¯ Ø¹
Ġv a
ĠØ§ÙĨØ´Ø§Ø¡ Ø§ÙĦÙĦÙĩ
ÙĪØ§Ø± Ø¹
ĠØ§ÙĦØ´Ø¹Ø± Ø§Ø¡
ĠÙĨÙĪØ¹ ÙĩØ§
ĠÙĨØ· ÙĤ
ĠØµØºÙĬØ± Ø§
ĠÙħØŃØ¨ Ø´
ÙĪØ£ Ø®ÙĬØ±Ø§
ĠØ¨ÙĦÙħ Ø§Ø¶ÙĬ
ĠØ§ÙĦÙĦÙĤ Ø¨
ĠØªØªØ¹ ÙĦÙĤ
ĠØ§ÙĦÙĥÙħ Ø§ÙĦ
Ø¹ÙĦØ§Ø¨ Ø§ÙĦÙĥ
ĠØ¨ÙĦÙĤ Ø§Ø³Ùħ
Ġchw iya
8 3
O M
ØŃ ÙĪÙĨ
ĠØ£ Ø¯Ùī
ĠØ´ ÙĥÙĪØ¨ÙĬ
ĠØ§ÙĦØ³ ÙĪØ¬ÙĬ
ĠØº Ø³
ĠØ· Ø§Ø¹
ĠØ¨Ø¹Ø¯ ÙĩÙħ
ĠØ§Ùĥ ÙħÙĦ
ĠØªØ¯ ÙĪØ±
ĠÙĦØŃ ÙģØ¸
ÙĪØ¶ Ùī
ĠÙħØº Ø±Ø¨ÙĬØ©
Ø§Ø¦Ùĥ ØªÙĩ
ĠÙĬØ¯ÙĬ ÙĩØ§
ĠÙĨØ¸Ø± ÙĬØ©
ĠØªØŃØ· ÙĦÙĨØ§
ĠÙĬØ¹Ø·ÙĬ Ùĩ
ĠØ¨Ø¨ Ø³Ø§Ø·Ø©
ĠðŁĮ¹ ðŁĮ¹
ĠÙħÙĤØ¨ ÙĪÙĦØ©
Ø³ Ø§ÙħØ©
ĠÙĩ Ø§Ø±ÙĪÙĨ
ĠØ¬ ÙĪØ¯Ø©
Ø§Ùģ Ø¶
ĠØ§ÙĦØ£ ÙħØ§ÙĨØ©
ĠØ§ÙĦØŃ Ø³Ø¯
ĠØº Ø§Ø¹
ÙħÙĬ ÙĩØ§
ĠÙĦÙĦ Ø±Ø¬ÙĦ
ĠÙĪÙħ Ø¯Ø§Ø¯
Ø¯ÙĬØ± ÙĪÙĦÙĨØ§
ĠÙĬÙĨ Ø¬
ĠÙĨØŃ ÙĦÙĪ
ĠØ§ÙĦØ§Ø¹ ØªØ¨Ø§Ø±
Ġ15 0
ĠØ§ÙħØ± Ø§Ø©
ĠØŃØ¯Ø« Øª
ĠØ£Ø³Øª Ø§Ø¯
ØªÙĤØ¯ Ø±ÙĬ
ĠØ§ÙĦØŃØ¨ Ø³
ĠØµØ¨Ø± Ø§
ĠØ§ÙĦÙĨØ¹ ÙħØ©
ĠØŃØ·ÙĬ ÙĦÙĨØ§
L ah
ĠÙĦ Ø°Ø©
ĠØ¹ ÙħÙĨ
ĠØ§ÙĦÙħ Ø¨Øª
ĠØ´ Ø¬
ĠØ³ Ø§Ø¦
Ø§Ùĩ ÙĨ
ĠØ§ÙĦØ³ ÙĪÙģÙĬ
ĠØ§ÙĦØ³ ÙĦØ¨ÙĬØ©
ĠØªØ¹ Ø§ÙĨÙĬ
Ġa ni
ĠÙĬØ¯ Ø±ÙĬ
ĠØªÙģ ØµÙĦÙĨØ§
ĠØ´Ø± Ø§
Ġta e
ĠL es
ĠØ§ÙĦØŃÙĦ ÙĪÙĦ
ĠÙĪØ§ÙĦØ¬ ØºØ±Ø§ÙģÙĬØ§
ĠØ§ÙĦØªØ± ØºÙĬØ¨
ĠØ®Ùħ ÙĬØ±Ø©
ĠÙĬÙĦÙĤ Ùī
ĠØ§ÙĦØ¹ÙĬ ÙĪÙĨ
Ùħ ØªÙĪ
ØŃ ÙĥÙħØ©
Ø· Ùĥ
ĠÙĪØ§ÙĦ Ø´ÙĬ
ĠÙĪÙĬ ØŃØ¨
ĠÙĪÙĬ ÙĤØ¯Ø±
ĠÙĬØ¹ Ø°Ø¨
ĠÙĪÙĨ Ø³ÙħØ¹
ĠÙĪØ± ÙĤ
ĠÙģØ§ÙĦ Ø¥
ĠØ§ÙĦÙħØ³Øª Ø¹ÙħØ±
ĠØ¯ÙĪÙĨ Ùĩ
ĠÙĤØ¯Ø± Ùĩ
ĠÙħØ²Ø§ÙĦ ÙĪ
Ø§Ø¤ ÙĩÙħ
ĠT he
ĠÙĪÙĬØ¨ Ø¹Ø¯
Ġ200 8
ĠØªØªÙĪ ÙĤÙģ
ĠØ§ÙĦØ¬Ø± Ø§Ø¦Ùħ
ĠÙħÙĬØ³ Ø§Ø¬
ĠÙħØŃØª Ø§Ø¬Ø©
Ù ¹
Ø§ÙĦ Ø±ØŃÙħÙĨ
ĠÙĬ ÙĤØ·
ĠØª Ø¨ÙĬØ¹
ĠÙĨ ÙĤØª
ĠÙĥ ÙĪÙħÙĪÙĨ
Ø§Ø° Ø¬
Ø§Ø¬ Ø±ÙĬÙĨ
ĠØ§ÙĦØ³ Ø¬
ĠØ§Ø³ ÙĪØ¡
ĠØ· Ø§Ø¨
ĠØ§ÙĦØµ Ø¯Ø§ÙĤØ©
ĠØ¥ÙĨ Ø³
ĠØ§ÙĦØ· ÙĪ
ĠØ§ØŃ ØªÙħØ§ÙĦ
ĠÙĪØµ ÙģÙĩ
ĠÙĤØ± Ø§ÙĬØ©
ĠÙĬÙĤ Ùģ
ĠØ§ÙĦØ¯Ø± Ø¯Ø§Ø¡
ĠØ§ÙĦØ³ÙĬ Ø¦Ø§Øª
ĠØ£Ø´ ÙĥØ±Ùĥ
ĠØ´Ø¹ Ø§Ø±
kaya t
ĠØªÙĤÙĪ ÙĬØ©
ĠØ¬Ø±Ø¨ ØªÙĩØ§
ĠÙĪØ§Ø±ØŃÙħ ÙĩØ§
ĠØ§ÙĦØ¨ÙĬÙĩ ÙĤÙĬ
Ùģ Ø°
ĠØ¨ ÙĪØ§ÙĦ
ĠØ§ÙĦØ¹ Ø§Ø±Ùģ
Ø§ÙĪ ÙĦÙī
ĠØ§ÙĦÙĨ Ø§ØŃÙĬØ©
ĠØªØŃ ÙĬ
ĠØ¹ÙĨØ¯ ÙĪØ§
ĠÙĪØŃ Ø¯ÙĬØ«
ĠÙħØª ÙģØ±Ø¬
ĠÙģØ§ÙĦ ÙĨ
ĠÙħØ± Ø³ÙĦ
ĠØ§Ø¯ Ø¨ÙĬÙĬÙĨ
Ø¹Ø± Ø§Ùģ
ÙħØª Ø¹Øª
ĠØªØ´ ÙĥÙĦ
ĠØ§Øª Ø¹ÙĦÙħ
ĠØªØ§Ø±ÙĬØ® ÙĬØ©
ĠØ¨ÙĪ ÙĦØ§ÙĬØ©
ĠØ¬ÙĬ Ø¨ÙĬ
Ġpro du
ĠØµÙĨ Ø¯ÙĪÙĤ
ĠÙĬÙĤØª Ø¶ÙĬ
ĠØ¨Ø§ÙĦØ¯ ÙģØ¹
ĠØ¥ÙĬÙħ Ø§ÙĨØ§
W a
W in
^ ^
y n
ÙĬ Ø¬Ø¨
ÙĤ ÙĨÙĬ
Ùģ ØªÙĬ
ĠØ¨ Ø¹ÙĪØ¯
Ø£ Ø®Ø±
ĠÙĩ Ø±Ø¨Øª
ĠÙĤ Ùĩ
ĠØ§ÙĦÙħ ÙĪÙĨØªØ§Ø¬
ĠØ§ÙĦØª Ø¶
ĠØ§ÙĦÙĤ Ø§Ø¦ÙħØ©
ĠØªØ¹ Ø¨ÙĬØ±
ĠØ² ÙĥØ§Ø©
Ø¨ÙĦ Ø¹
ĠÙĪØ¹ Ø´Ø±ÙĬÙĨ
ĠÙħÙĪ Ø«
ĠØ§ÙĦÙģØ± Ø§Øº
ĠÙĨÙĤ Ø§Ø±Ø¹
ÙĨØ´ ÙĪØ¨Ø©
ĠØ§ÙĦÙħØº Ø§Ø±Ø¨Ø©
âĢı .âĢı
ØªØ¹ Ø§Ø¯
ĠØµØ¯ ÙħØ©
ðŁĺĺ ðŁĺĺ
ĠÙĤÙĬ Ø§Ø¯Ø©
Ġsah bi
ĠØ¨Ø§ÙĦÙģØ± ÙĨØ³ÙĬØ©
ĠØ¨Ø§Ø±ÙĬ Ø³
ĠðŁĺ¹ ðŁĺ¹
ĠÙģ ÙĦÙģ
Ø£ Ùĩ
ĠØ¨Ø§ÙĦ Ø§ØŃ
ĠØ° Ùħ
Ø¤ ÙĬØ©
ĠØ§ÙĦØ° ÙĥÙĪØ±
ĠÙĪÙħ Ø¤
Ø¹ÙĬ ÙĬÙĨ
Ø¯Ùħ ÙĪ
ĠÙħØŃ Ø¯Ø¯
ĠÙħØ« ÙĦÙĬ
ĠÙĬÙħÙĥÙĨ Ùĩ
ĠÙħØ§ÙĦ ÙĤÙĬ
ĠØ§ÙĦØ¨ÙĦ Ø¯ÙĬØ©
ĠÙģÙĤ ÙĬØ±
ĠØ®ÙĦÙģ Ùĩ
ĠÙĪÙĨØ´ Ø§ÙĦÙĩ
ĠØ§ÙĦØ£ÙĤ Ø³Ø§Ùħ
h istoire
Ùĩ Ø¬
ĠÙħ ÙĤØ¯Ø±
ĠÙħ ÙģÙĩ
ĠØ¹ ÙĪÙģ
ĠØ± Ø§ÙĪÙĬ
ĠØŃ Ø²Ùħ
ĠØ³ Ø§Ø¬
Ø§Ø¹ Ùģ
ĠØ§ÙĦØ¹ Ø¨Ø±Ø©
ĠØ§ÙĦØª ÙĤÙĪÙī
ĠÙĥÙĦ Ø§Ø¨
Ø¢ Ùĩ
ĠØ§ÙĦÙĬ ÙħÙĨÙī
ĠØ¨ØµØŃ Ø©
ĠÙħØ³ ÙĦØ³ÙĦØ§Øª
ĠØ§ÙĦÙĦ Ø¹Ø¨
Ø§Ø³ÙĬ Ø³
Ġ7 00
ĠØ¨Ø£ÙĨ Ùĥ
ĠÙĬÙģ ÙĤÙĩ
ĠØ§ÙĦØ£Ø³ Ø§Ø³
ĠØ¬Ø¯ Ø§ØªÙĥ
ĠÃ ¢
ĠØ§ÙĦÙħØ¨ Ø§Ø´Ø±
ĠU n
ĠØ±ÙĪØ§ØŃ ÙĩÙħ
ĠÙĬØ¹Ø¬Ø¨ Ùĥ
ĠØ§ÙĦØ¹Ø¯ Ø§ÙĦØ©
ĠÙĪØ§ÙĦÙĨØ³ Ø§Ø¦ÙĬ
8 2
p on
s p
ĠØª ÙģØ±ÙĤ
ðŁĺ £
ĠØ³ ÙĬÙħ
ĠÙĪØ§ÙĦ Ø¨Ø§ÙĤÙĬ
ĠØ¬ ÙĦØ³Ø©
ĠØ¥ Ø¬Ø¹ÙĦ
ĠØ§ÙĦØ£ Ø¯ÙĬØ§ÙĨ
ÙĦÙĪ ÙĥÙĬ
ĠØ§Ùħ Ø©
Ġa ut
ĠÙĨÙģØ³ Ø§
ĠÙĪÙĤØª ÙĦ
ĠØ²ÙĪØ¬ Ùĥ
Ġbe li
ĠØ§ÙĦØ£Ø¯Ø¨ ÙĬØ©
ĠØ¨ØµÙĬ ØºØ©
f ik
Ø§ÙĦ ØªÙĥ
Ø§ÙĨ ØªÙĩÙī
ĠØª ØºÙħ
ĠØ£ ÙĬØ©
ĠÙĩ Ø¨ÙĦ
ĠØ§ÙĦØ³ ÙĪØ±
ĠØ§ÙĦØ¨ Ø¹
ĠØªØŃ Ø³ÙĨ
Ġm us
ĠØ¨ÙĬ Ø¯ÙĬ
ÙģØª Ø§Ø¡
Ø¯Øª ÙĨÙĬ
ĠÙĬÙĤ Ø±ÙĬ
Ø£Ø³ Ø£ÙĦ
ĠØµØŃÙĬØŃ Ø§
ĠØ§ÙĦÙħØ® ØªØ§Ø±
ĠÙĪØ§ÙĤ Ø¹ÙĬØ©
ĠØ£Ø¬Ø± Ùĩ
Ġcont ent
ĠØŃÙĨ Ø¨ÙĦ
ĠØ§ÙĦØ¨Ø· Ø±ÙĬÙĤ
ĠÙĦÙĨÙģØ³ Ùĥ
ĠØ§ÙĦØŃØ§Ø³ ÙĪØ¨
Ùĩ Ø§ÙĦÙĬ
ĠÙħ ØµØŃÙģ
ĠÙĪØ§ÙĦ Ø§Ø¯Ø±Ø§Ùĥ
ĠØ® ÙĨØ´ÙĦØ©
ĠØ§Ø® Ø¨Ø±
ĠÙĪÙĨ Ø´Ø±
ÙĦÙĤ ÙĪ
ĠÙħØ´ Ø§ÙĩØ¯
ĠØ§ÙĪ Ø¯
ĠØ§Ø± ÙģØ¹
ĠØ§ÙĦØº ÙĨÙĬØ©
ĠÙħØ³ ÙĬØ±Ø©
ĠØ§Øª Ø§Ø¨Ø¹
Ø¹ÙĨ ÙĪØ§ÙĨ
ĠÙĪØ§ÙĦØŃ ÙĥÙħØ©
ĠØ±Ø³ Ø§Ø¦ÙĦ
ĠØ§ÙĦØ§Ø¯ Ø¨ÙĬØ©
ĠI n
Ġel le
ĠÙĦØ± Ø³ÙĪÙĦ
ðŁ¤Ķ ðŁ¤Ķ
ĠØ£ÙĬØ¯ÙĬ ÙĩÙħ
8 4
ĠÙĦ Ø§Ø®Ø±
ĠÙĨ Ø§Ùħ
ĠÙĨ ÙĤØ·
ĠØ¬ ÙĨØªÙĥ
ĠØ§ÙĨ ØªØ¨Ùĩ
ĠØ§ÙĦØ´ Ø±ÙĥØ§Øª
ÙħÙĬ ÙĦÙĪØ¯
ĠÙĪÙĬ ØªÙħ
ĠÙĪÙĬ Ø¬Ø§Ø²ÙĬÙĥ
ĠÙĪØ£ Ø®ÙĬØ±Ø§
ĠÙĪØª Ø§Ø±ÙĬØ®
ĠÙħØ´ Ø§Ø±ÙĬØ¹
ĠÙĨÙģØ³ ÙĩÙħ
ĠØ¯Ø± Ø§Ø±ÙĬ
ĠØ§ÙĦÙħØ´ Ø§ÙĩØ¯Ø§Øª
ĠØµØŃÙĬ ØªÙĬ
ĠØ¨ÙĦØ§ ÙĬ
ÙĨØ¨ ÙĪÙĦ
ĠM erci
ĠØªÙĪØŃØ´ Øª
ĠÙĤÙĪ ÙĤÙĦ
ĠØ§Ø®Øª Ø§Ùĩ
ĠÙĦÙħØ± Ø§
ĠÙĬØ¨Ø§ÙĨ ÙĪ
8 5
9 7
N ta
ĠÙĪ Ø¨ÙĬØ§ÙĨ
ĠÙħ Ø§Ø¶ÙĬ
ĠÙĨ Ú¨
Ø« ÙĨ
ĠØ§ÙĦØ¹ ÙĦØ§ÙħØ§Øª
Ġl k
ĠØ§ÙĦÙĪ Ø²ÙĬØ±
ĠÙĪÙĨ Ø¸Ø±
ĠÙĨØª ÙħÙĨØ§ÙĦÙĥ
ĠØ§ÙĦØ· Ø±Ùģ
ĠØ¨ÙĦ Ø³Ø§ÙĨ
ĠÙĦÙĪ Ø·
Ġp i
ĠØ¨Ùħ Ø¯ÙĬÙĨØ©
Ġha s
ĠÙĨØ® ÙĦÙĬ
ĠðŁ¥º âĿ¤ï¸ı
ĠØ¥Ø® ÙĪØ§ÙĨÙĨØ§
ĠÙĪØ§ÙĦØ¯ÙĬ ÙĩØ§
8 7
Ùĥ Ø«Ø§Ø±
Ø¨ Ø§Ø·
Ø¶ ÙĪØ±
ĠØ³ Ø§Ø¯
ĠØ³ ÙĪØ§
ĠØ¥ Ø«Ø±
ĠØ§ÙĦØ¬ ÙĨÙĬ
ĠØº Ø§ÙĬ
ÙĤÙĬ Ø¹
ĠðŁĺĤ ðŁ¤£
ØªÙħ Ø§ÙĦØ§Øª
Ġa c
ĠÙĬÙĨ Ø·ÙĤ
ĠØ£Ùħ ÙĩØ§Øª
ĠÙĪÙĤ ØµØµ
ĠØ®ÙĬØ±Ø§ Ø§
ĠØ§ÙĦØ®Ø· ÙĪØ§Øª
Ġba ba
ĠÙĦØ¹Ø¨ Ø§Ø³ÙĬØ©
ĠÛ ļ
L i
ĠÙĪ Ø¯Ø§
ØŃ Ø§Ø¬Ø©
ĠÙĬ ÙĤØ¯
ĠØª ÙĨØ§ÙĪÙĦ
Ø§ØŃ Ùħ
ĠØ§ÙĦØ³ Ø±ÙĬØ¹
ĠØ§ÙĦÙĤ Ø§Ø¦Ø¯
Ø³ÙĨ Ø§Øª
Ġy s
ba rek
ĠÙĨØªØ§Ø¹ ÙĩØ§
ĠØ§ÙĦÙħØ¤ ØªÙħØ±
ĠØªØ¹Ø¨ ÙĨØ§
ĠÙģØ§ÙĬ Ø³Ø¨ÙĪÙĥ
ĠØ§Ø¨ÙĬ Ø¶
ĠØ§ÙĦØ®ÙĦ Ø¹Ø©
Ø§Ø®Øª ÙĦØ§Ùģ
ĠØ§ÙĦØ§ÙĨØª Ø¸Ø§Ø±
ĠØµØ§Ø¯ ÙĤØ©
b el
ĠÙģ Ø§Ø®
Ø£ ÙĥÙĦ
ĠØŃ Ø¬Ø²
ĠØ§ÙĦÙħ Ø¸Ø§ÙĩØ±
ĠØ§ÙĦÙħ Ø§ØªØ´
ĠØ¬ Ø§ÙĦØ³
Ø§Ø³ ÙħÙĬ
Ø§Ø³ ÙģØ©
Øº Ø§Ø«Ø©
ĠØ£ÙĨ Ø§Ø³
ĠÙĪÙĨ ÙĤ
ĠÙĪØ¹ Ø±Ùģ
Ø´Ø± ÙĪÙĨ
ĠØªØ´ ÙĩØ¯
ĠØ¨Ø§Ùĥ ÙĦÙĪØ±ÙĬØ§
ĠÙĪÙĤ ÙĪØ¹
ĠØªØ¨ ØºÙĬ
ĠÙħÙħØª Ø¹
ĠØ¹ÙħÙĬ ÙĤ
ĠØ¨Ø¯ÙĬ ØªÙĬ
ÙĨÙĪØ± ÙħØ§ÙĦ
ĠÙħØ²ÙĬØ¯ Ø§
Ġyh fdk
ĠâľĮ ï¸ı
K h
d z
h ch
ÙĪ Ø§Ø·
ĠØ¨ Ø±ÙĪØŃ
ĠØª ÙĪØ³ÙĪØ³Øª
Ø® Ø³
Ø£ ØŃØ³ÙĨ
ĠØ§ÙĦØ¬ ÙĬØ±Ø§ÙĨ
ĠÙĤØ§ÙĦ ÙĩÙħ
Ø¦ ØªÙĩ
Ø·ÙĬ Ø´
ĠØªÙĨ ÙħØ±
ĠØ§ÙĦÙĤØ±Ø¢ÙĨ ÙĬØ©
ĠÙĦØª Ø³
ĠØ§ÙĦØ´Ø± ÙĤÙĬØ©
ĠØ§ÙĦØŃØ± Ø§Ø±Ø©
ĠØ§Ø±ØŃÙħ ÙĨØ§
ĠÙħÙĪØ§ÙĦ ÙĬØ¯
Ġtro p
V id
m ine
ĠÙĪ Ø§Ø²
ĠÙĪ Ø¯ÙĬØª
Ø¯ Ø´
ĠÙħ ØµØŃ
ĠÙħ ÙĤÙĪÙĦ
ĠØª Ø±Ø¶
Ø´ Ø®Øµ
ðŁĺ ľ
ĠØ³ ÙħÙĬØ¹
ĠðŁ ķ
ĠØ· Ø§Ø¨Ø¹
ĠØ² ÙĬØ±ÙĪ
Ġm r
Ġt ri
ĠØ§ÙĦØ° ÙĥØ§Ø¡
ĠÙĪØ± Ø¬ÙĦ
ÙĪØ¨ Ùĩ
ÙħØª Ø¹Ø©
ĠØªÙĨ Ø³ÙĬ
ĠØ¨Ø¯ ÙĦØ§
ĠÙĬØ³ ÙĤØ·
ĠØ§ÙĦÙħÙĩ Ø¬Ø±ÙĬ
ĠÙĨÙĦÙĤ Ø§Ùĥ
ĠØ¯ÙĪ Ø²ÙĬØ§Ùħ
ĠØŃØ¶ ÙĪØ±
ĠØªØŃØ±Ùħ ÙĨÙĬ
Øµ Ùĩ
ĠÙĩ Ø§ÙĨÙĬ
ĠÙĪØ§ÙĦ Ø§Ø¨
ÙĪÙĦ ÙĪØ¬ÙĬ
ĠØ§ÙĨ Ø³Øª
ÙĨÙĬ Ø³Ø©
ĠØ§ÙĦÙĨ ÙĥØ§ØŃ
ĠØ§Ø³ Ø·
ĠÙĪÙĨ ÙĨ
ĠÙĪÙĦ Ø¯Ùĩ
ðŁ¤ Ŀ
ðŁ¤ Ń
Ø²ÙĬ Ø¹
Ġn et
ĠØ§ÙĦØ« Ø¨Ø§Øª
ĠØ£Ùħ ÙĥÙĨ
Ø³Ø± Øª
ĠÙĨØŃØ¨ ÙĩØ§
ĠØªØ£ Ø³ÙĬØ³
ĠØ§ÙĦØ¸ ÙĦ
ĠØ¨Øµ Ø¯ÙĤ
ĠØ®Ø§Ø· Ø¦Ø©
ĠL e
Ø±ØŃÙħ ÙĩØ§
Ġne ed
ĠÙĨÙĥØªØ¨ ÙĪ
44 44
ĠÙĦØ³Ø§ÙĨ Ùĩ
ĠÙĦØŃÙħ ÙĬ
ĠÙĤØ¶ Ø§ÙĬØ§
fr j
I S
t el
Ùĥ ÙĦØ§Ùħ
ĠÙĪ ÙĤØ±Ø§Ø¡Ø©
Ø¨ Ø¯ÙĬØª
ĠÙĨ ÙĤØ¯Ùħ
ĠÙĨ Ø±ØŃØ¨
ĠÙĤ ÙĪØª
Ø±ÙĬ Ø§ÙĨ
ĠØ¨Ø§ÙĦ Ø¹ÙħÙĦ
ĠØ§ÙĦØ£ ÙĪÙĦÙĬØ§Ø¡
ĠØ§ÙĦÙĨ ØŃÙĦ
ĠÙĪÙĬ Ø·
ĠØ¨ÙĨ ÙĬÙĨØ©
ÙĪØ¹ ÙĦÙī
ĠØ§Ø¨ Ø¯Ø§Ø¹
ĠÙĬÙĨ ØŃ
re d
Ø¬Ø± Ø§Ø¡
ĠÙĬÙĤ ÙĦÙĬ
ĠÙĬÙĤ ÙĬÙĨ
ĠØ®Ø· Ø§
ĠØ¬Ø¯ ÙĪÙĦ
ĠØ§ÙĦÙģÙĬ Ø¯ÙĬÙĪØ§
ĠÙĪØ§ÙĦØµ Ø§ÙĦØŃÙĬÙĨ
ĠØªØº ÙĬØ¨
ĠØ¬Ø§Ø¨ Øª
ĠØ§ÙĦØªØ±Ùĥ ÙĬØ©
ĠÙĥØ° Ø§ÙĦÙĥ
ĠØ§ÙĦÙĦØ¨ Ø§Ø³
n c
Ùħ Øº
ĠØ§ÙĦ Ø²Ø§Ø¦
ĠØ¨ ÙĤØ±Ø§Ø¡Ø©
ĠÙĬ ÙĤÙĬÙħ
ĠÙĥ Ø§Ø¯
Ø£ ØŃ
Ø« Ø±ÙĪ
ĠØ¬ Ø¯Ùĩ
Ø§Ø¦ ÙĦÙĬ
ĠØ§ÙĦØ± Ø³Ùħ
ĠØ§ÙĦØ± ØºÙħ
ĠØ§ÙĦÙģ Ø¶Ø§Ø¡
Ø§Ø¶ Ø§ÙģØ©
Ġb y
ĠÙĬØª Ø®
ÙħÙĪ ØªÙĪ
li on
ĠØ¹Ùħ ÙĩØ§
it y
ØªÙĦ Ø·
ĠÙħØµ ÙĬØ±
qu es
Ġde ux
ĠÙħØ· ÙĦÙĤ
ĠØ§ÙĦØ£ÙĨ ØµØ§Ø±ÙĬ
ĠÙģÙĦÙħ Ø§Ø°Ø§
ĠØ§ÙĦØªØ³ ÙĦÙĬÙħ
ĠØ§Ø« ÙĨØ§Ø¡
ĠÙĦØ³ ÙĨØ©
ĠÙħÙĪÙĦ Ø§Øª
Ø·ÙĪÙĦ Øª
Ø·Ø§ÙĦ Ø¨Ø©
ĠØ¨Ùģ Ø¹ÙĦ
ÙĪ Ø§ÙĩØ±
Øµ Ø§Øª
ĠÙĨ ÙĤÙĪÙĦÙĩØ§
Ø¶ ÙĨ
ĠØ³ Ø®Ø±
ĠØ¥ Ø·Ø§Ø±
ĠØ® Ø¶Ø±
ĠØ¨Ø§ÙĦ ÙĤÙĪÙĦ
ĠÙĪØ± ØºÙħ
ÙĬØ® ÙĬ
ĠØ£Ø® Ø·Ø£
ĠØ§Ø¯ ÙĬØ±
ĠÙĪÙĥ ÙĦÙħØ§
ĠÙħÙĦ Ø§Ø¨Ø³
ĠØ§ÙĦØ¨Ø± Ø¨Ø±
ĠØ§ÙĨØªÙĩ Øª
ĠÙĪÙģÙĤ ÙĥÙħ
Ø·Ø¨ Ø§ÙĤ
ĠØ£Ø®Ø° Øª
ĠÙĪÙĬØ´ ÙģÙĬ
ĠØ§ÙĦØ§Ø®Øª ÙĦØ§Ùģ
ĠØ§ÙĦØ«ÙĦØ§Ø« Ø§Ø¡
ĠØ§ÙĦØ§ÙħØªØŃØ§ÙĨ Ø§Øª
ĠØ§ØŃØªØ±Ø§Ùħ Ø§ØªÙĬ
ĠØ²ÙĩØ± ÙĬØ©
ĠØ§ÙĦØ§ØŃØ¯ Ø§Ø«
ĠØ§ÙĦÙĪØŃØ¯ Ø§Øª
. *
ĠÙĪ Ø§Ø·
ĠÙħ ÙĦÙĪÙĥ
ĠÙĦ Ø§ÙģÙĬ
ĠÙĨ Ø§Ø´
Ø² Øª
ĠØ§ÙĦØ£ Ø¬ÙĪØ¨Ø©
ĠØ§Ø³ ÙĥÙĨÙĩ
ĠØ· Ø¹
ÙĨØª Ø§Ø¬
ĠÙĪÙĬ ØŃÙĤÙĤ
ĠØªØŃ Ø¯ÙĬ
ĠØ§ÙĦØ® ÙĨ
Ø§Ø² ÙĦØª
ĠÙĪÙĩ Ø¯Ø§
ĠÙĪØ¬ ÙĬØª
ĠØ¨ÙĦ ØŃ
Ġn d
ĠØ§Ø¬ ÙħØ¹
ĠØªÙĥÙĪÙĨ ÙĪØ§
Ġg r
ĠØªØ¨ Ø§ÙĦÙĬ
ĠÙħÙĥ ØªÙĪØ¨Ø©
ĠÙĦØª Ø¹
ĠØ§ÙĦØŃÙĬ Ø§Ø¡
ĠØªØ· Ø¨Ø¹
ĠØ§ÙĦØ®Ø§Ø±Ø¬ ÙĬØ©
ÙĦ Ø¨ÙĬ
ÙĪ ÙĤØ©
ĠÙħ Ø¨ØªØ¯
Ø³ ØªÙĬ
Ø§Ø¦ Ø¨Ø©
ĠØ¨Ø§ÙĦ Ø£Ø³
Ø§Ø¬ Ø§Ø¨Ø©
ĠÙĦÙĦ ØŃØ¨Ø³
ĠÙĪÙĬ Ø§Ùĥ
ĠØ¢ ÙħÙĨØ§
Ġs c
ĠØ§ÙĪ Ø¯ÙĬ
ĠØ³Ø± Ø±Øª
ĠÙĬØ²ÙĬØ¯ ÙĪ
ĠØ§ÙĦØ²ÙĪØ¬ ÙĬÙĨ
ðŁ« Ģ
ĠÙĩØ¯Ø± ØªÙĥ
ĠØ§Ø¹Ø· ÙĬÙĨØ§
ÙħØ§Ùĩ ÙĬØ±
ĠÙĥÙĪÙĥ Ø¨
ĠØŃÙĨÙĬ ÙģØ©
9 6
b on
r or
Ġ Úª
ĠÙĪ Ø·ÙĦ
ĠØ¨ ÙĦÙĩ
ĠØª Ø±Ùģ
ĠÙĨ ÙħØ±
ĠØ¯ Ø¨ÙĬ
Ø§ØŃ Ø§Øª
ĠØ§ÙĦÙĨ ØŃÙĪ
ĠØ· Ø§ÙĦØ¹
ĠØ§Ø³Øª Ø®Ø¯Ùħ
Ġt l
Ġy r
ĠÙĪØ´ Ø¹Ø±
ĠÙħÙĦÙĬ Ø¦Ø©
ĠØªØ± Ø§Ø¬Ø¹
Ø±ÙĬØ¨ ÙĪÙĨØ¯ÙĬ
ĠÙĪØ§ÙĦØª Ø³Ø§ÙħØŃ
ĠØ§ÙĦØ§Ø¹ ÙĦØ§Ùħ
ĠØ§ÙĦÙĤÙĬ ÙĪÙħ
ĠØ§ÙĦØŃÙħ ÙĦØ©
ĠØ§ÙĦØªÙĤÙĦÙĬ Ø¯ÙĬØ©
ĠØ§ÙĦØªØ±Ø¨ ÙĪÙĬØ©
ĠÙģÙĬ Ø¶
ĠØ§ÙĦÙħ ÙĪÙģÙĤ
ĠØ´ Ø¯ÙĬØ¯Ø§
ĠØ¬ ÙĦØ¨
âĿ¤ ðŁ¤²
ĠØ¶ Ø±ÙĪØ±ÙĬ
ĠÙħØ³ ÙħØ¹
Ġh iya
ĠØ§ÙĦÙħØ´ Ø§Ø¹Ø±
ĠØ¹ÙĬÙĨ Ùĥ
Ø´ÙĪÙģ ÙĪ
ĠØ§ÙĦØ§Ø´ Ø®Ø§Øµ
ÙĩØ§Ø° ÙĪ
Ø§ÙĨØ´ Ø§ÙĦÙĦÙĩ
ĠÙģÙĥØ± Øª
ĠÙĦÙĦØº Ø§ÙĬØ©
9 5
ĠØ§ÙĦ Ø§ÙĦÙħ
Øª Ø¹ÙĦÙħ
Ø¹ Ø¶Ø§Ø¡
ĠØª ÙĤØ§ÙĦ
ĠØ¯ ÙĬÙħ
ĠØ§ÙĦØ£ ØŃÙħØ±
ÙĤÙĬ ÙħØ©
Ġ" ...
ĠÙĪÙĬ Ø²
ĠÙĬØŃ Ø§Ø³Ø¨
la t
Ġn ji
ĠÙĩÙĬ Ùĩ
ĠØ£Ùħ ÙĬØ©
Ġc ri
ĠÙħØ¬ ÙĬØ¨
ĠÙĬØ¯ ÙĩØ§
ĠÙĪØ³ ÙħØ¹
ĠØ§ÙĦØ§Ø³ Ø¨Ø§Ø¨
ĠØ£Ø³ Ø§ØªØ°Ø©
ĠÙħÙĦ Ø§Ø¦ÙĥØ©
ðŁĳ ½
Ġ19 45
ĠØ§ÙĦÙħØŃ Ø±Ùĥ
ĠÙģÙĩÙħ ØªÙĬ
ĠØ¨Ø£ÙĨ ÙĩÙħ
ĠR EDX
ĠØŃØ¯Ø« ÙĨÙĬ
ĠÙĦÙĪÙĦ Ø§Ø¯
fa ch
ĠØŃÙĥÙĬ Ø§Øª
ĠâĿ £ï¸ı
ĠØŃÙĦÙħ Ùĥ
ĠÙħØŃØ± ÙĪÙħ
ĠÙħØªØª Ø§ÙĦÙĬØ©
ĠÙħØ¹Ø¬ Ø²Ø©
ĠÙĪ ÙĥÙĬÙĦ
ĠØª ÙĬØ¨
ĠÙģÙĬ Ø³Øª
Ø² Ø§Ø²
ĠØ§ÙĦÙħ Ø§
ĠØ³ Ø§ÙĤ
ĠØ¥ Ø¯Ø±ÙĬØ³
ĠØº Ø§Ø±
ĠÙĪØ£ Ø¨Ø¯
ĠØ§ÙĦØ¥ Ø´
Ø§Ø® ÙĬØ±
ha ba
Ø³ÙĨ Ø§ÙĨ
ĠÙĬÙĨ ÙĪØ±Ùĥ
ØªØ± ÙĪÙĦ
ĠÙģØ§ÙĦ Ø¨
ĠÙĪØ£ÙĨ ÙĩÙħ
ĠÙħØ¨ ÙĬÙĨ
ĠÙĦØŃ Ø¸Ø§Øª
ĠÙĪØ§Ø³ ÙĥÙĨÙĩØ§
ĠØ¹Ø§Ø¯ Øª
ĠØ§ÙĦÙħØ· ÙĦÙĪØ¨Ø©
ĠÙĪØ£Ø´ ÙĩØ¯
Ġtex te
ĠÙ ¤
ØŃ Ø¯ÙĬØ«
ĠØ¨ Ø¹ÙħÙĦ
Ø¬ Ø§ÙĪØ¨
ĠØ£ ØŃÙĤ
ĠØ£ Ø·ÙģØ§ÙĦ
ĠÙĨ Ø¨ÙĬØ§
Ø§Ø¨ ÙĪÙĬ
ĠðŁĺ ĥ
ĠØ° Ø±Ø©
ĠØ§ÙĦÙĪ Ø§ØŃØ¯Ø©
ĠÙħØª ÙĤØ¯Ø±Ø´
ra f
Ġb as
Ø¶ÙĬ Ø§Ùģ
ĠÙĬØ® ØªØ§Ø±
ĠÙĬØ³ ÙħØ§
Ġg am
ĠâĿ¤ï¸ı ðŁ©¹
ĠØŃØ¨ Ùĥ
ĠØ§ÙĦØ§ØŃ ÙħØ±
oo l
ĠØ¬Ø¹ÙĦ ÙĨØ§
ĠØ§ÙĦÙĨÙĩ Ø¶Ø©
Ġwah d
ĠØ§ÙĦÙħÙħ ÙĦÙĥØ©
ĠðŁİ Ģ
ĠØ®Ø§ÙĪ ØªÙĨØ§
E P
Y A
Ø¬ ÙĨØ¨
ĠØ± Ø¯ÙĪ
ĠÙĩ Ø±Ø¨
ĠÙĤ Ø§ÙĨ
Øº Ø¯Ø§
Ø§Ø´ Ùħ
ĠØ§ÙĦØ³ ÙĦÙħÙĬ
ĠÙĦÙĦ Ø¬ÙĨ
ĠÙĪÙĦØ§ ÙĬØ§Øª
ĠÙĬØŃ Ø§Ø±Ø¨
ÙģØ³ ÙĨØ§
ĠØ§ÙĦÙĬ Ø³Ø±Ùī
Ø³ÙĨ Ø¯Ùĩ
Ġ) :
ĠØ§ÙĦØ² ÙĬÙĨ
ĠØ§Ùĥ Ø±Ùħ
Ø¹Øª ÙĩÙħ
Ġv ie
ÙĩÙĪ ÙĬØ©
Ø§Ø¦ÙĦ Ø§Øª
ĠØ§ÙĦÙħØ¤ Ø«Ø±
ĠØ¨Ø® Ø·
ĠØ§ÙĦØªÙĨ ÙħØ±
ĠØµØ¯ÙĬ ÙĤØ©
" :
ØŃ ØªÙĪÙī
ĠÙģ Ø§Ø²
ĠØ¹ ÙĪÙĨÙĥ
ĠØŃ Ø§Ø¯Ø«Ø©
ĠØ´ Ø¯ÙĬØ¯Ø©
ĠØ£ÙĨ Ø¹Ùħ
ÙĤÙĬ Ø¨
Ġl ma
ĠÙģØ¶ Ø§Ø¦ÙĦ
al l
ĠÙħÙĩ ÙĨØ©
ĠðŁ¤£ ðŁĺĤ
ĠØ³ÙĦØ§Ùħ Ø©
ĠØ¹ÙĬÙĨ Ùĩ
ĠÙĦÙĤÙĬ ØªÙĥ
Ġnch ouf
ØªØ³ Ø§ÙħØ©
Ġst ory
ĠØ§ÙĦÙħÙĬÙħ Ø²
8 6
k an
Ø¨ Ø¯Ø§
ĠÙħ ÙĩÙĬ
ĠÙĬ ÙĪÙģ
ĠØ£ ØªØŃ
Ø£ Ø®ØªÙĬ
ÙĪÙĦ Øª
Ø¥ Ø³Øª
ĠÙħØ¹ ØªÙĤØ¯
ĠØ§ÙĦØª Ø·Ø¨ÙĬ
ĠÙĦÙĦ Ø®Ø±
ÙĪØ¯ Ø¹
ĠÙģØ§ÙĦ Øµ
ĠØµØŃ ØªÙĩ
ĠØ§ÙĦÙħØ± Ø§
ĠØ¬ÙĨ Ø§ØŃ
Ø±ÙĪØŃ Ø´
ĠÂ °
ĠðŁĺħ âĿ¤
ĠÙĪØ§ÙĦÙĨ ÙĩØ§Ø±
Ø¶ÙĪ Ø§Ø¡
ĠØ§ÙĦØŃÙĥ Ø§Ùħ
ĠØªØº ÙĨÙĬ
ĠØµÙĨ Ø§Ø¹
ĠØºØ² ÙĪØ©
ĠØ§ÙĦØ£Ø¨Ø± Ø§Ø±
ĠÙĪ Ø¯Ùħ
ĠØ¨ Ø¬Ø¯
ĠÙĦ Ø§Ø£
ĠØª ØªØ´
ĠØ£ Ø¨Ø±Ø²
ĠØ§ÙĦØ³ ØŃÙĪØ±
ĠÙĦÙĦ Ø«ÙĪØ±Ø©
Ġ- ----
ÙĥÙĪÙĨ ÙĬ
ĠÙĪÙĬ ÙģØªØŃ
ĠÙĬØ¹ ÙĬØ¯
ĠØ§ÙĦØ¯ Ø¹
Ġm ou
ĠØ§Ø¹ ÙħØ§ÙĦ
ĠØ£Ø³ ÙĪØ¯
Ġ5 1
ĠÙĪØ® ØªÙĬ
ĠØµØ± Øª
ĠØ§ÙĦØŃÙĬ ÙĪØ§ÙĨ
ĠØ§ÙĦÙħØ³Øª ØŃÙĬÙĦ
ĠØ¨ØŃ ÙĪÙĦ
ĠÙĩÙħ Ùĥ
ĠÙĪÙĬØ± Ø¶Ø§Ùĩ
âĻ¥ï¸ı âĻ¥ï¸ı
Ø¦ÙĬ Ø³ÙĬ
Ġja mais
Ha di
ĠÙĨØªØ§Ø¨Ø¹ Ùĥ
ĠØ§ÙĦ ÙĦØ§ÙĬÙģ
ĠÙħ ÙĪÙĨØªØ§Ø¬
ĠØ¹ Ø§ØµÙħØ©
Ø¬ ÙħØ§ÙĦ
ĠØ£ ÙģØ¹Ø§ÙĦ
ĠÙĨ Ø§Ø¨
ĠÙĨ Ø¶Ø±Ø¨
ĠØŃ ÙĤÙĦ
ĠØ§ÙĨ Ø¹Ùĥ
ĠØ¨Ø§ÙĦ Ø¶Ø±ÙĪØ±Ø©
ĠØ§ÙĦØ¨ Ø¯ÙĬ
ĠÙĩÙĪ Ø§ÙĬ
ĠØ§ÙĦØ¥ Ø³Ùħ
ra j
ĠÙħÙĪ Øµ
ĠØ§Ø¯ ÙĬ
ĠÙĪÙĥ Ø«Ø±Ø©
ĠØ§Øª Ø±Ùĥ
ĠÙĪØ¥ Ø®
ĠÙĬÙĩ Ø¨ÙĦÙĪ
ĠÙģØª Ø¦
Ø±Ø´ Ø§Ø¯
ĠØ¬Ø§Ø¨ ÙĪ
ĠÙĨØŃÙĥÙĬ ÙĩØ§ÙĦÙĥ
ĠØ§ÙĦÙħØ±ØŃ ÙĪÙħ
ĠðŁĺ± ðŁĺ±
ĨĹ ï¸ıâ
ÙĨ ÙĩÙħ
Ùħ ØªÙī
ĠØª ÙĦÙħÙĬØ°Ø©
ĠØ£ ØªÙĬ
ĠÙģÙĬ Ø²ÙĬØ§Ø¡
ÙĦÙĥ ÙĬ
ĠØ§ÙĦØ£ Ø³Ø±
ĠØ§ÙĦØª Ø²Ø§Ùħ
ĠØ· Ø§Ø¹ØªÙĩ
ÙĤØ¯ ÙĬÙĨ
ĠØ§ÙĦÙĥ Ø§Ø°
Ø§Øµ ÙĦØ§
ĠØ¨ÙĨ Ø¹Ùħ
ĠÙĪÙĨ Ø¯Ø®ÙĦ
ĠÙĪÙħ ØªÙī
ĠÙĪØ§ØŃ Ø³ÙĨ
ĠØªØ´ ÙĪÙĥ
ĠÙĪÙĥ ÙĦØ§Ùħ
ĠØ§Øª ØŃØµÙĦ
ĠØ§ÙĦØ§ÙĨ ØŃÙĬØ§Ø²
ĠØ£Ùĥ ØªÙĪØ¨Ø±
to p
ĠØ§ÙĦÙħØ· ÙĦØ¨
ðŁ« ¡
ĠÙĬØªÙĪ ÙĤÙģ
ĠØ§ÙĦÙĥØ¨ Ø´
ĠÙħÙģÙĬ ÙĩØ§Ø´
8 1
a di
Øª ÙĨØ¨
ĠØ¹ Ø¬Ø¨Øª
ĠÙĬ ÙĪØ¬
ĠÙĨ Ø§Øµ
ĠØŃ Ø§ÙħÙĦ
ĠØ´ ÙĦÙģ
ÙĪÙĦ ÙĪÙĨ
ÙĥÙħ ÙĦØª
ĠØ§ÙĦØ£ ÙģØ¹Ø§ÙĦ
ĠØ§ÙĦÙģ Ø®Ø±
Ġt el
ĠÙĪÙħ Ø¯
ĠØ¨Ø¹Ø¯ Ùĥ
Ø¨Ø¹ Ø§Ø¯
ĠØ¨Ø± Ø¹Ø§ÙĬØ©
ĠØ·Ø±ÙĬÙĤ Ùĥ
Ġin ter
ol na
ĠØ§ÙĦØªÙģ ÙĪÙĤ
ĠÙħÙħ Ø¨Ø¹Ø¯
ĠØ§ÙĦØµØ± Ø§Ø¹
Ø´Ùĥ ÙĦÙĬ
ĠØ¨Ø¹Ø¶Ø§ ÙĩÙħ
ÙħØ§Ø¯ Ø§Ùħ
ĠØ§ÙĦØ£ÙĦÙģ Ø§Ø¸
m t
Ø§ÙĦ ÙĬØ§
Ø¨ ÙĪØ§
ĠÙģ Ø§Ùħ
Ø¬ Ø§Ø¡
ĠØŃ Ø«
ĠØ® ÙĪØª
Ø¸ Ù¹
ĠØ§ÙĦÙĥ Ø§Ùģ
ĠØ§Ø® Ø¨Ø§Ø±
Ø³Ø¨ Øª
ĠÙĬØ¬ ØªÙħØ¹
ĠØ§ÙĦØ« ÙĪØ±ÙĬ
ĠÙĪÙĦÙĥ ÙĨÙĬ
Ø§Øº ÙĬØ©
ÙħØ³ ÙĥÙĬÙĨ
ĠÙħÙĥØ§ÙĨ Ø©
ĠØ§ÙĦØ£Ø® Ø¶Ø±
ĠÙħØ§ÙĦ ÙĤÙĬØªØ´
ĠÙĬØŃØ¨ ÙĪÙĨ
ĠØ¹Ø§Ø¯ Ø§Øª
Ġcom m
ÙĥØ§ÙĬÙĨ Ø©
ĠÙĤØªÙĦ ÙĨÙĬ
ĠÙģØ´ ÙĦØª
ĠÙĦÙħØ¹ Ø±ÙģØ©
ĠØ§ÙĦØŃÙĦÙĪ ÙĬØ§Øª
ĠÙĪ ÙĦÙĩÙħ
ĠÙħ ÙĤØ·
ØŃ Ø¶Ø±
ĠÙĦ Ø±Ø¨
Ø´ Ø§Øª
ĠØ£ ÙĤØ¨ÙĦ
ÙĦÙĬ ÙħØ©
ĠÙħÙĨ ØŃØ³Ø´
ĠØ¹ÙĦÙĬÙĩ ÙĨ
ĠØ° Ø¨ØŃ
Ø¹ÙĪ Ø¨Ø§Øª
ĠØ² Ùĥ
es tion
Ø¯Ùħ ØªØ´
ĠØ¨ÙĬ ÙĪÙħ
Ø¨Ø§ Ø§Ùĥ
ĠÙħÙĥ Ø´
ĠØ¹ÙĬÙĨ ÙĬØ§
ĠR ak
ĠØ£ÙĤ Ø³Ùħ
ĠÙģÙħ Ø«ÙĦØ§
ĠØªÙĤÙĪÙĦÙĬ ÙĦÙĬ
ĠO K
ĠØ§ÙĦØ²ÙĬ Ø§Ø¯Ø©
ĠØ§ÙĦØ²ÙĩØ±ÙĬ ÙĬÙĨ
ĠÙħ Ø¯Ø§Ø±Ø³
ĠÙĬ ÙĦØ¨
ĠØª Ø§Ø¨Ø¹Ø©
ĠØ¬ Ø¨Ø§ÙĦ
ĠØ¬ Ø¨ÙĩØ©
ĠØ¨Ø§ÙĦ ÙĦÙĬÙĦ
ĠØ§ÙĦØª Ø±Ø¬ÙħØ©
ĠØªØ¹ Ø±Ø¨
ĠÙĦÙĦ ÙģØ±
ĠØ§Ø³Øª Ø¹
ÙĦÙĤ ÙĬÙĨ
ĠØ¨Ø² ÙĬ
Ø²ÙĬ Ø§Ø±Ø©
ĠÙĨØ¬ ÙħØ©
ĠÙħØ¬ Ø±
ĠØªØ´ Ø§Ø±Ùĥ
ĠØµØŃ ØŃÙĩ
ĠÙĪØ³ ÙĪÙģ
ÙĪØ§ÙĨ Øª
ĠØ§Øµ Ø¯ÙĤ
ĠðŁĳ ĳ
ĠØ¨ÙĪ Ø§Ø´
ĠØ®Ø§Ø· Ø±ÙĬ
ĠØŃÙĥÙħ Ùĩ
ĠÙĨØ¸ Ø±Ùĥ
ĠØ§ÙĦØ£ÙĪ Ø§Ø¦ÙĦ
ĠØ¨Ø§Ø± Ø¯
ĠØªÙĤØ± ÙĬØ±
ĠØ¨Ø§ÙĨ ÙĪ
ØªÙĪØŃØ´ ØªÙĥ
ĠÙĨÙħÙĪ Ø°Ø¬
ĠÙħÙģØªÙĪ ØŃØ©
ĠÙĤØ§ Ø§Ø¹
b ar
m p
â ĸ
Ùħ Ø§Ø±Ø©
Ùģ ÙĪØª
Ø§Ùħ ÙĨØ©
ĠÙĪØ§ÙĦ Ø¶
ĠØ¯ Ùĩ
Ø¥ ÙĦØ§
Ø¸ Ùĩ
ĠØ§ÙĦØ¬ Ø¯Ø¯
Ø³ÙĬ Ø·Ø©
ĠØ§ÙĦÙģ Ø·Ø±Ø©
ĠÙĪÙĨ ØŃØ¨Ùĥ
ĠØ¢ Øª
ĠØ§ ÙĤØ±Ø§ÙĪ
ĠØ¨ÙĬ Ø³Ø©
ÙĦÙģ ÙĬÙĨ
Ø·Ø± Ø¯
Ø¯Øª ÙĩÙħ
ĠØ§ÙĪÙĦ Ø§Ø¯ÙĬ
ĠØ§ÙĦØªØŃ ÙĥÙħ
ĠÙħØ§Ùģ ØªØ¦
ĠðŁĳĮ ðŁĳĮ
ĠØ§Ø¹Øª Ø°Ø±
ĠØ³Ø¨Ø¹ ÙĬÙĨ
ĠÙħÙĦÙĬÙĥ Ø§ÙĨØ§
e ur
ÙĪ ØªÙĪ
Ø³ ÙĨÙĬ
ĠØª ÙĪØ±
ĠÙĩ Ø±Ùħ
ĠÙĤ Ø´ÙĬØŃØ©
Ø§Ø¦ Ø´Ø©
ĠÙĪØª ÙĤØ¯
ĠÙĪÙĩ Ø¤ÙĦØ§Ø¡
Ġt t
ĠÙĦÙħ Ø³Øª
Ø¹ÙĬ Ø§ÙĨ
ĠØ§ÙĦÙĤØ± ÙĬÙĨ
ĠØªÙĤ Ø±Ø¨
ĠØ¨Ø¯ Ø¡
ĠØ§ÙĦÙħØ± Ø¹Ø¨Ø©
ĠÙĬØ³Øª Ø·Ø¹
Ġ5 5
ĠØ§ÙĦÙħØŃ ÙĦÙĬØ©
ÙĤØ¨ ÙĪÙĦ
ĠÙĤØª ÙĦÙĬ
ĠØ¨ÙĦØ§Ø¯ ÙĥÙħ
ĠØ¨Ø´Ø± Ùī
ĠØ£Ø· ÙĦÙĤ
ĠðŁ¥¹ ðŁ¥¹
ĠØºØ± Ø¯Ø§ÙĬØ©
ĠØ¨Ø§ÙĦÙħÙĨ Ø§Ø³Ø¨Ø©
ĠÙĨÙĪØµ ÙĦÙĪ
ĠØ§ÙĦÙħÙĬØ³ ÙĪÙħ
ĠÙĦ ÙĤØ§Øª
ĠÙĬ Ø§ÙĦÙĦÙĩ
ĠØ´ ÙĪÙħ
Ø§Ø¨ ÙĬÙĨ
ĠØ¬ ÙĨØ¯
ĠØ¯ ÙģÙĨ
ĠØ¨Ø§ÙĦ Ø³ÙĬ
ÙħÙĨ ÙĬØ©
ĠÙĦÙĦ ØºØ©
Ø¢ Ø®Ø±
ĠØ§ÙĦØµ ÙĩÙĬ
ĠÙĪØª ÙĤØ¯ÙĬØ±
Ø¹ÙĬ Ø·
Ø·ÙĬ ØŃØ´
ÙĪØ§Øª ÙĩØ§
ĠØªØµ ÙħÙĬÙħ
ĠÙĪÙĤØª Ø§
ĠØ£Ø¬ ÙĨØ¨ÙĬØ©
ĠØ¨Ø´ Ø§Ø±
ĠØªÙĥ ÙģÙĬØ±
ĠÙĤÙĪÙĦ ÙĨØ§
ĠØ³Ø± ÙĪØ±
ĠØ§ÙĦØ£Ø³ ÙĦÙĪØ¨
ĠÙĬØ¹Ø±Ùģ ÙĩØ§
ĠØ§ÙĦØ´Ùĩ Ø±Ø©
ĠØ§ÙĦØ£Ø´ Ø¹Ø±ÙĬ
vo ir
ĠÙĬØµÙĦ ÙĪÙĨ
ĠÙĤØ§Ø¦ ÙħØ§
Ġchik our
ĠØ§ÙĦÙĪØ§ÙĤ Ø¹Ø©
ĠÙģØ§Øº ÙģØ±
Ø² ÙĪØ§Ø¬
ĠØŃ Ø°ÙĬÙģØ©
ĠØ¬ Ø§Ø±ÙĬ
ĠÙĦØ§ ÙĪÙĦ
ĠÙĬØ¹ Ø¨Ø±
ĠÙĪÙĨ ÙĤÙĩ
ĠÙĪØ± Ø¬Ø¹
ĠÙĪØ¹ Ø±Ø¶
Ġ20 00
Ġs ci
ĠðŁ¤ ¨
Ø²ÙĬØ¯ ÙĦÙĪ
ĠØªØ³ Ø¹Ø©
ĠÙĪØ§ÙĨ ÙħØ§
ĠØ§Øµ Ø¹Ø¨
ĠÙħÙĤ Ø¨Ø±Ø©
ĠØ¯ÙĬÙĨ ÙĥÙħ
ĠØ§ÙĦÙħØµ Ø±ÙĬ
ĠØ§ÙĦØ¸ ÙĦØ§Ùħ
ĠâĢı âĢı
ĠÙĤØª Ø§ÙĦ
ĠØ§ÙĦÙħÙĤ Ø¨Ø±Ø©
ðŁĴĹ ðŁĴĹ
ĠÙĬÙĨØª ÙħÙĬ
Ø¹ÙĬØ´ Ùĥ
ĠÙĦØ· ÙĦØ¨
ĠÙĬÙģÙĩÙħ ÙĨÙĬ
ĠÙĪØ±ÙĪ Ø§Ùĩ
ĠØ¹ÙĪØ¯ Ùĩ
ĠØ§ÙĦÙĥÙħ Ø¨ÙĬÙĪØªØ±
ĠÙħØªØŃÙħ Ø³Ø©
F irst
K ha
Ø§ÙĦ Ø¨Ø±
ĠØ¨ Ø³Ø¨Ø§Ø¨
ĠØ§ÙĦÙħ ÙĦØ©
ĠØ³ ÙĩØ±
ĠØ® Ø±ÙĪ
ĠØ§ÙĦØª ÙĪØ§Ø¨
ĠØ§ÙĦÙĨ Ø³Ø¨
Ġm l
Ġt on
ĠØ§Ùħ ÙĨ
Ø±Ø¬ Ø§Ø¹
Ġn chalah
ÙĦÙģ Øª
ĠÙĬØ´ ØªØ±Ø·
ÙģØª ÙĩÙħ
ÙĩØ¯ Ùģ
ĠØ§ÙĦÙħØ± Ø§Ø¬Ø¹
ĠÙĪØ® ÙĦÙĬ
ĠÙħØ¯ Ø±ÙĬØ¯
ik h
ĠØ§ÙĦØ¸ ÙĦÙħØ§Øª
ðŁĻ Į
ĠÙĪØ§ÙĦØŃÙħØ¯ ÙĦÙĦÙĩ
ĠØªØ¹ÙĬ ÙĬØ´
Ùģ ÙĨÙĬ
ĠÙĬ ÙĤÙĪÙĦÙĩ
Ø¬ ÙĩØ§
ĠØ® Ø´ÙĬØ©
ĠØ¨Ø§ÙĦ Ø§Ùħ
Ø§ÙĪ ÙĬÙĨ
ÙĬØ§ ÙĩØ§
ĠØ² ØŃ
ĠØ§ÙĦÙģ Ø´ÙĦ
ĠØ§Ø¹ ØªØ¨Ø§Ø±
ĠØªÙĪ Ø¶ÙĬ
ĠØ¹Ùħ Ùĩ
Ø§ÙĪÙĦ Ø§Øª
ĠØ§ÙĦØ§Ø³ Ø§Ø³
Ø±ÙĬÙĤ ÙĬØ©
ĠÙħØ« ÙĦÙĩØ§
ĠØ§ÙĦØ§Ø¹ ÙĦØ§ÙĨ
ĠA na
ĠðŁ¥º ðŁĴĶ
ĠÙĤØ· Ø¹Øª
Ø¬ÙĬØ¨ ÙĪ
ÙĬØ§Ø® ÙĬ
ĠÙħØ¨Ø§Ø±Ùĥ Ø§
ĠÙĪØ¬ÙĪØ¯ Ùĩ
ĠØ·Ø§ÙĦ ÙħØ§
ĠÙĪÙĬÙĤÙĪÙĦ ÙĪÙĨ
LA H
ĠØ§ÙĦÙĪØ¬ ÙĪÙĩ
ĠÙħØªØ£Ùĥ Ø¯Ø©
i on
ĠØ§ÙĦ Ø§Ø·ÙĦØ§Ø¹
ĠÙĪ Ø§ÙģÙĤ
ĠÙģ Ø¹ÙĦÙĬÙĩ
Øµ Ø±ÙĬ
ĠÙĩ Ùī
ĠÙĤ Ø§Ø±ÙĬ
ĠØŃ ÙĦÙĤ
ĠØ³ ÙĨØ§
Ø¸ Ø§
ĠØ§ÙĦØª ÙħØ±
ĠØ§ÙĦÙĨ Ø´Ø±
ĠØ§ÙĦØ´ Ùħ
ÙĨØª ÙģØ±Ø¬
ĠÙĪÙħ ÙĨØ§
ÙĪØª Ø©
re re
ÙĩØ¯ Ø§Ùĥ
Ø§ÙĩÙħ Ø©
ÙĦÙĩÙħ Ø´
ĠÙĦØ¹ Ø²ÙĬØ²Ø©
ĠÙĦØ£ ØµØŃØ§Ø¨
ĠØªØ¨ Ø¹ÙĬ
ĠÙĪØ§ÙĦØ£ ÙħÙĪØ§Øª
ĠÙħÙĤ Ø§Ø·Ø¹
ĠØ£Øµ Ø¹Ø¨
Ø¬ÙĬ Ø§ÙĦ
Ġe pson
ĠØ§ÙĦÙħÙĦ Ø§Ø¨Ø³
ĠØ§ÙĦØªØŃØ± Ø´
ĠÙĤØ§Ø¯Ø± ÙĬÙĨ
ĠØ£Ø¹ÙħØ§ÙĦ ÙĩÙħ
ĠØ§ÙĦØ³Ùħ Ø§ØŃ
I L
Øª Øº
ĠÙĪ Ø¯ÙĪ
ĠÙĪ Ø¨ÙĦØº
Ø¹ ÙĥØ³
ĠÙħ ÙĥÙħÙĦ
ÙĤ ÙĦÙĬØ©
ĠÙĬ ÙģÙĬ
ĠØ£ ÙģØ¹
ĠÙĤ ÙĦÙĤ
ĠØ³ Ø§ÙĨ
ĠØ¥ Ø®Ø±Ø§Ø¬
ĠØ§ÙĦØª Ø¨Ø±
ĠØ§ÙĦØŃ Ø§Ø¯Ø«Ø©
ĠØ§ÙĦØ± Ø§ÙĬ
ÙĤØ¯ Øª
ĠØ² ÙĦØª
ĠØ¨ÙĦ ØºØ©
ĠØ§ØŃ Ø¯Ùī
ĠØ£Ùħ Ø§ÙĥÙĨ
ĠØ§ÙĦØµØŃ ÙĬ
ĠØªØ® Ø³Ø±
ĠØ£ØŃ Ø§ÙĪÙĦ
ĠÙĨÙĤ ÙĦÙĩ
ĠÙĤØ¨ Ø¶
ĠØ´ÙģØª ÙĩÙħ
Ø§ÙĦÙĤ Ø§Ø¯Ø±
Ġ195 7
ĠÙĬØ³Ø± Ø§
oul d
ĠØµØŃØ¨ Ùĩ
ĠØ¹ÙĬØ¨ Ø§Ø¯
ĠØ§ÙĦÙħÙĦÙģ Ø§Øª
Ø£Ø¬ ÙħÙĦ
ĠØ§ÙĦØ§ÙĤØªØµØ§Ø¯ ÙĬØ©
' re
9 2
E M
Ġ 99
ÙĦ ØŃÙĥØ§ÙĬØ©
ĠØ§ÙĦ ÙĩØ±
ĠØ§ÙĦ ØŃÙħÙĦ
ĠÙĪ Ø§ÙĬÙĨ
ĠÙħ ÙĤØµÙĪØ¯
Ø§Øª Ø©
ĠØŃ ÙģØ±Ø©
Ø§Ø³ Ø¯
ĠØ® Ùģ
ĠØ® ÙĬÙħØ©
Ø§Ø¹ Ø±Ø©
ĠØ§ÙĦØ³ Ø·
ĠØ§ÙĦØª Ø¹Ø±Ùģ
ØªÙĩ Ø§Ø¡
ĠÙĬØ¹ Ø§ÙģÙĬÙĨØ§
ĠØ§ÙĦØ¥ Øµ
ØªØ± ÙĪÙĨ
ĠÙĬØ³Øª ÙģÙĬØ¯
ĠØ¯Ø§Ø± ÙĪÙĩØ§
ĠØ§ÙĦØ§Ø® ØªÙĦØ§Ø·
ĠØ§ÙĦØ£Ùħ Ø§ÙĥÙĨ
ĠÙĪÙĤØª Ø§Ùĩ
ĠÙĬØµ Ø±Ùģ
Ø¶ØŃÙĥ ØªÙĨÙĬ
ĠâĿ¤ï¸ı ðŁ¤²
ĠØµØ± Ø§ÙĦÙĩØ§
ĠÙħØ¨ Ø¯ÙĬØªØ´
Ø¨Ø§ÙĦ Øº
ĠØ¹ÙĬ Ø§ÙĨ
ĠÙĦØ¬ ÙĨØ©
ĠØ§Ø±Ø¬ Ø¹ÙĬ
Ġkha wti
ĠÙĬÙĦØ¹Ø¨ ÙĪ
ĠØºØ§Ø¶ ØªÙĨÙĬ
ĠØ«ÙĤÙĬ ÙĦØ©
Ġ================================ ===
Ø± Ø¹Ø¨
Ùĥ ÙĬØ±
ĠÙĪ Ø®Øµ
Ø¯ Ø§ÙĨ
ĠØŃ ÙħØ§Ùħ
ĠØ§ÙĦÙħ Ø§Ø¯ÙĬØ©
ĠØ´ Ø±ÙĬÙģ
ĠØ® ÙĦÙĬÙĥ
Øº Ø§Ø¶
ĠØ§ÙĦØ¹ Ø§Ø¯ÙĬ
Ø§ÙĬ Ø§Ùĩ
ĠØº Ø³ÙĦ
ÙħÙĬ Ø§Øª
ĠÙĪØŃ ÙĬØ¯
ĠØ§ÙĪ ÙĪ
ĠØ£Ùħ Ø³
ĠâĢ Į
li c
ĠÙĪØ³ Ø§Ùħ
ĠÙĪØ§ÙĦÙħ Ø¤
ĠÙģØ£ ÙĬ
Ġg al
ĠØ£Øµ ÙĪØ§Øª
ba t
ĠÙħØ¤ ÙĤØª
ĠØ§ÙĦØ±ÙĬ Ø§Ø¶ÙĬØ©
Ø²Ø§Ø¦Ø±ÙĬ ÙĬÙĨ
ĠJ e
ĠØµØ¯Ø± Ùĩ
ĠØ§ÙĦØªØ¯ Ø±ÙĬØ³
ĠÙĨØ¯Ø¹ÙĬ ÙĦÙĥ
Ø§ÙĦ ØªØŃ
Ø¹ ÙĦØ§Ùħ
ĠÙĬ ÙģØ¶ÙĦ
ĠÙģÙĬ ÙĥÙĬ
Ø® Ø°Ùĩ
ĠØ¥ Ø¸ÙĩØ§Ø±
Ø§ÙĬ ÙĬÙĨ
ĠØ§ÙĦØ³ Ø¹ÙĬØ¯
ĠÙĪØª Ø¬Ø§ÙĪØ²
ĠØ§Ùħ Ø±Ø§
ĠÙĬÙĨ Ø³Ùī
Ġ20 12
ĠØ£Ø® Ø·Ø§Ø¡
Ġn k
ĠÙĨØ³ ÙħØ©
ÙĪØ´ ÙĨÙĪ
ĠØ¨Ùĥ ÙĦÙħØ§Øª
ĠØªØ± ØŃÙħ
le t
ĠØ§ÙĦÙħØ¹ Ø§Ø¯
ĠØ£ÙĨØª Ø¸Ø±
ĠÙĬØºÙģØ± ÙĦÙĥ
ÙĦØ¹ Ø²ÙĬØ²
ĠØ§Ø±Ø¨ Ø¹
ĠØ§ÙĦÙģÙĦØ³ Ø·ÙĬÙĨÙĬ
i en
Ø§ Ø§Ùħ
ÙĦ ÙĪÙĦØ©
ÙĪ ÙĬØ¯
ÙĤ Ùĥ
ĠØ¨ Ø¨ÙĦ
ĠÙĦ ÙĤØ¯Ùħ
ĠØ¹ Ø§Ùĥ
ĠØª Ø±Ø¶Ùī
Øµ Ø¯Ø±
ĠØ§ÙĦÙħ ÙĤØ¯Ùħ
Ø§Ùģ ÙĩØ§
ÙĤÙĪÙĦ Ø´
ØªØ¨ Ø§Ø·
ĠØ§ÙĦÙĬ ÙĪÙĨ
ĠØ¶ ØŃÙĬØ©
ĠØ§ ÙĤØ¯Ùħ
ĠØ§Ø¬ ÙĬØ¨
Ø¬ÙĦ ÙģØ©
ØĽ ØĽ
ĠØ³Øª Ø¬Ø¯
ĠØ®Ø±Ø¬ ÙĨØ§
ĠÙĥØ« ÙĬ
ĠØ§ÙĦÙĪÙĤ ÙĪÙģ
Ġchik h
ĠØ§ÙĨØªØ´ Ø§Ø±
ĠØ¨Ø¹ÙĪØ¯ ØªÙĥ
Ġ ent
ĠÙĪ ÙĪÙĤ
ĠÙģ Ø¯Ø¹
ĠÙĬ ÙģØ³
ðŁĺ ĭ
ĠØ§ÙĨ ÙĥÙħ
ĠØ§ÙĦØ¹ ÙĪÙĨ
ĠØ¨Ø§ÙĦ Ø³ÙĬÙģ
ĠÙĦÙĦ ØµÙĦØ§Ø©
Ġt oo
ĠÙģØ§ÙĦ Ùģ
ĠØ§ÙĦÙħÙĪ Ø§ÙģÙĤ
Ø¬ÙĦ Ø¯
ĠØ§ÙĦØ¢ Ø¨Ø§Ø¡
ĠØ°ÙĥØ± ÙĨØ§
ĠÙħÙĩ Ø¯ÙĬ
ðŁ¥º ðŁ¤²
ĠÙħÙĦÙĥ Ø©
ĠÙĪÙĬØ¯ Ø®ÙĦ
ĠÌ §
ØŃÙĥØ§ÙĬ Ø§ØªÙĥ
h er
ÙĦ ÙĨØ§Ø´
Ø³ ÙĦÙĩØ§
ĠÙģ Ø§Ùĥ
ĠÙĬ ÙĥÙĦ
ĠÙĤ Ø±ÙĪØ¨
ĠØ§ÙĦÙħ Ø§Øª
ĠØ³ ØŃØ¨
ĠØ§ÙĨ ÙĤ
ÙĨÙĬ Ø¹
ĠØ· Ø§Ø±
Ø§Ø² ÙĬÙĦ
ĠÙĪÙħ ØŃØ¨
Ġa kh
ĠÙģØ§ÙĦ ÙħØ±
Ø¯ÙĪ ÙĨØ§
Ġk ing
ar n
ĠØ£Ø³ Ø±Ø©
ĠÙĦØª ÙĦÙĥ
Ġta w
ĠØªÙĤÙĪÙĦ ÙĨØ§
ĠØ¹ÙĤ ÙĦÙĩ
ĠÙĪÙĦØ¯ ÙĩØ§
ĠØ§ÙĦØ¬Ø§Ùħ Ø¹Ø§Øª
ĠØ§ÙĦØªÙĨ Ø¨ÙĬÙĩ
ĠØ¹Ø§ÙĦ ÙħÙĬ
ĠÙĬØ¬ÙħØ¹ ÙĨÙĬ
ĠØ§ÙĦ ÙĬØ¯ÙĬÙĨ
Ùĥ ÙĦÙĬ
ĠØª ÙģÙĬ
ĠÙĥ Ø§Ø¨
ĠÙĥ ÙĥÙĦ
ĠØ§ÙĦÙĥ Ø«ÙĬØ±Ø©
ĠÙĪÙĬ ÙĦÙĩÙħ
Ø¢ ÙĨÙĬ
Ġp ho
ØŃØ¯ ÙĬÙĨ
ĠØªÙħ Ø³Ùĥ
ĠÙĦØ¹ ÙĦÙĬ
it ch
ĠØ§ÙĦÙħØª ØªØ§ÙĦÙĬØ©
ĠÙĤØµ ØªÙĥ
ĠØ¨Øª Ùģ
ĠØ§ÙĦØ§Ø¹ ØªÙĤØ§Ø¯
Ø¨ÙĬÙĩ ÙĤÙĬ
ĠØªØ¤ Ø«Ø±
ĠØ§ÙĦØŃÙĪ Ø§Ø¯Ø«
ĠØ§ÙĦÙħØŃØ± ÙħØ§Øª
ĠØ§ÙĪØ± ÙĪØ¨Ø§
ĠÙĨØ±Ø¬ ÙĪØ§
ĠØ§ÙĦØ·Ùģ ÙĪÙĦØ©
S a
ĠÙĥ ÙĤÙĪÙĦÙĩ
ĠØŃ Ø¯Ø§
ĠØ´ Ø£ÙĨÙĩ
ÙĪÙħ ÙĬØ©
ĠØ§ÙĦØª ÙħÙĬÙĬØ²
ĠØ§ÙĦØŃ Ø°Ø±
ĠØªØ¹ Ø¨Ø±
ĠØ· ÙĪÙĦÙĬ
ĠÙĪØ£ ÙģØ¶ÙĦ
ĠØ² Ø¨Ø¯Ø©
Ø¹Ùħ ÙĦÙĩØ§
ĠØ§ÙĦÙĬ Ø§Ø¨
Ġb ah
ĠÙĪÙĦÙĥ ÙĬ
ĠÙĪØ§ÙĦÙħ Ø®
ĠÙĪØµ Ø¨Ø±
ĠÙĥØ¨ Ø´
ĠØ§Ø³Ùħ ØŃÙĦÙĬ
Ġ0 8
ĠÙĪØ§ÙĦØ´ Ø¹Ø±
ce pt
ĠÙĦØ¯ÙĬ ÙĩØ§
Ø®Ø· Ø£
ĠÙĪØ§Øº Ø³ÙĦÙĩ
'' ''
Ø· Ø§ÙĦØ¨
ĠØ§ÙĦÙħ ÙĬØ¯
ĠØ´ Ø§Ø¨Ùĩ
Ø§Ø¨ ÙĩØ©
ĠØ¬ Ø§Ø¦Ø²Ø©
ĠØ¥ Ø¯Ø§Ø±Ø©
ĠØ§ÙĦÙĨ Ø¯Ø§Ø¡
ĠØªØ¹ Ø§ÙĦÙĬ
ĠØ§Ø³Øª Ø¹ÙħÙĦ
ĠÙĬÙĨ Ø³
ØªØ´ Ø¨ÙĬÙĩ
ĠØ§Ø¹ ÙĪØ°
ĠØªÙĪ ÙĪØ¨
Ġu r
ĠÙĥÙĨ Ø¯Ø§
ĠØ§ÙĦØªØ¬ Ø±ÙĬØ¨ÙĬØ©
ĠÙħØ±Øª Ø¨Ø©
ĠÙĬØªØ¹ Ø§ÙħÙĦ
ĠØŃØ¶Ø± Øª
ĠÙĬØ±Ø¬ Ùī
ĠØ§ÙĦØªÙĤÙĦÙĬ Ø¯ÙĬ
H ada
} .
ĠÙħ ÙĦØ§Ùħ
ĠÙħÙĨ Ø·ÙĤ
Ø° Ø¨ÙĪ
ĠØ§ÙĦÙħ Ø±ÙĪÙĥ
ĠØ¥ ÙĦ
Ġm li
Ġm em
Ø§Ø· Ø±Ø´
Ø³Ø¨ Ùĩ
ĠÙħÙĪ Ø§Ø·ÙĨ
ĠÙĬØª Ø³
ĠØ§ÙĦÙĦ ÙĪÙĦØ©
ĠÙĨÙĤ ÙĪÙħ
ĠÙĪÙĥÙĦ Ø´
ĠÙħØªÙĪ Ø³Ø·Ø©
ĠÙĪØ§ÙĦØ® Ø·
ĠØ¨Ø§ÙĦØ¥ Ø³ÙĦØ§Ùħ
ðŁİ ĵ
ÙĥÙģ Ø§Ùĩ
Ġver y
ĠØ§ÙĦØ®Ø§ÙĦ ØµØ©
ã Ģ
Ø§ÙĦ Ø³ÙĬØ¨ÙĬØ§
ĠÙĪ Ø¶ØŃ
ĠÙĪ Ø¸ÙĬÙģØ©
Ø¯ Ø§ÙĬ
Ø¹ ÙĦØ§
ĠÙħ ÙĦÙħ
Ùģ ØªÙĩ
ĠØª Ø·ÙĬ
ĠØ³ ÙĨØªÙĬÙĨ
ĠÙĪØ§ÙĦ Ø¹Ùħ
ĠØ¬ Ø¦Øª
ĠØ§ÙĦØ¹ Ø§ÙĦÙħÙĬ
Ø§Ø¦ ÙĦÙĩ
ĠØ§ÙĦØª Ø³ÙħÙĬØ©
ÙĬØ¯ Ùĥ
ou na
ĠÙĦÙħ ÙĩÙħ
Ø§Ø¶ Ø±Ø©
ðŁ¤ ¡
ðŁĴ ¨
Ø§ÙĩÙħ Ø´
Ġ4 3
Ġâ ļ
ĠðŁ¤² ðŁ¥º
Ø¹ÙĦÙĬ Ùĥ
ĠØ§ÙĦØ£Ùħ Ø±ÙĬÙĥÙĬØ©
ĠØªÙģ ØµÙĬÙĦ
ĠÙĨØ¹ Ø¨Ø¯
ĠØªÙĥ ØªØ¨ÙĬ
ĠÙģÙĩÙħ ÙĪÙĨÙĬ
ĠØ¨Øª Ø¹
ĠÙĥØªØ¨ ØªÙĩ
ĠÙĤØ¯Ø± ØªØ´
ĠÙħØ§ÙĦ ÙĤØ±ÙĬ
ĠØ§ÙĦØ§Ø¨ Ø§ÙĦÙĦÙĩ
ĠØ±Ø¯ ÙĪØ¯Ùĥ
ĠÙĪÙĥÙĬÙģ Ø§Ùĩ
ĠE l
ĠØ§ÙĦÙħÙĤØ§ÙĦ Ø©
ĠØ§ÙĦØ¹Ø¶ ÙĬÙħ
ÙĪØ§Ùĥ Ø¨
ÙĨÙĪØ±Ùħ Ø§ÙĦÙħÙĪ
y i
Ĩ ĸ
ĠÙĪ Ø®ØµÙĪØµØ§
ĠÙĬ ØªÙĩ
ĠØª Ø³Ùħ
Ø® Ø§ØµØ©
ĠÙħÙĨ ØµØ©
ĠØŃ ÙĪØ³
ĠØ§ÙĦØ¬ Ø§Ø±
ÙħÙĨ ÙĪ
ÙħØ¹ Ø§
ĠØ§ÙĦØ¯ ÙĪÙĦÙĬØ©
ĠØ§ÙĦØ® Ø¨Ø±Ø©
ĠÙĪØª ØŃØª
Ġm er
ĠØ¯ÙĬØ± ÙĪÙĦÙĨØ§
ĠÙĪÙģ ÙĤØ·
ĠØ§ÙĦÙħÙĨ Ø¸ÙħØ©
Ø¨ÙĤ Ø§Ø¡
ĠÙĪØ§ÙĦØª Øµ
Ø·Ùģ Ø¦
Ġ0 6
ĠØ§ÙĦØ®Ø· Ø¨Ø©
ĠÙĬØ±Ø²ÙĤ ÙĥÙħ
ĠØ§ÙĦÙħØ¤ Ø³Ø³Ø©
ĠØ¬ÙĦ Ø§ÙĦÙĩ
ĠØ³ÙĦ Ø¹Ø©
ĠØ§ÙĦØ£Ø¨ ÙĨØ§Ø¡
ĠðŁ« ¡
Ø±ÙĤØ¯ Ø´
ĠØ¢ÙĨ Ø°Ø§Ùĥ
Ġfran Ã§ais
ĠØ§ÙĦØ¹Ø«Ùħ Ø§ÙĨÙĬ
ĠØ§ÙĦØª ÙĪØµ
ĠÙĬØ¹ ÙĤÙĦ
ĠØ§ÙĦØ¯ ÙĨÙĬ
ĠØ² ÙĩØ¯
Ø§ÙĦÙĬ Ùĩ
ĠÙĨØŃ ÙĦÙħ
ĠØ§ÙĦØº Ø±Ø¨Ø©
ĠØªØµ Ùģ
Ø°Ø± ÙĪØ§
ĠØ³ÙĬØ¯ ØªÙĬ
ĠÙĬØ· ÙĬØ¨
ĠØ¨ÙĨØª ÙĩØ§
ĠL ola
ĠÙĪÙĦØ§Ø¯ ÙĩØ§
ĠØŃØ¶ Ø§Ø±Ø©
ØªØ² Ø§Ø²
ĠÙģØ£ÙĨ Ø²ÙĦ
ĠØ§ÙĦÙħØ¨Ø° ÙĪÙĦØ©
n Ã©
Ø§ ÙĪÙĨÙĬ
Ø± Ø§Ø¦Ø¹
ĠÙĦ ÙĪØ¬
ĠÙĬ Ø§ÙħÙĨ
ĠØ£ ØŃØ±
ĠÙĨ ÙĬØ±ÙĪØ²
Ø¨ÙĬ Ø§Ùħ
ĠØ³ ÙĦØ¨ÙĬØ©
Ø¯ÙĬ ØŃ
Ø§Ø³ ÙĥÙĪ
ĠÙħØ¹ Øµ
ĠØ§ÙĦØ£ Ø°ÙĥØ§Ø±
ĠØ§ÙĦØ± ÙĪØ¹Ø©
ĠÙĪØ¬ ÙĩÙĪ
Ġa la
ĠØ¶ ÙĬØ¹
ØªØ± Ø§Ø¶
Ø¯ÙĪ ÙĬØ©
ĠØ®ÙĪ ÙĥÙħ
ÙĪØ´ ÙħÙĨ
ma d
ĠÙĪØ§ÙĦØª Ø¬
ĠØŃÙĤ ÙĩÙħ
Ø·ÙĪ ÙĩØ§
ĠÙĨÙħ Ø·
Ø®ÙĦÙĪ ÙĤ
ĠØ¹Ø§Ø´ ÙĤ
ÙĦØ¹ Ø§Ø¨
ĠØ§ÙĦÙħØ¹Ø¯ÙĦ Ø§Øª
eb ek
ĠØ§ÙĦÙħØ¹Ø± ÙĪÙģØ©
Ø´Ø¹ Ø§ÙĦ
ĠØµÙĬ ØºØ©
ĠØ§ÙĦÙĪØ¶Ø¹ ÙĬØ©
:: ::
ĠÙĪÙĨØ¨ ÙĬÙĨØ§
ĠÙĦØ£Ø® ÙĬÙĩ
g ni
s k
ĠÙħ Ø§ØŃØ¨
ĠÙģ Ø§ÙĦÙĦÙĩÙħ
ĠÙĬ Ø³ÙĬ
Ø¬ ÙĦØª
ĠØª Ø¯ÙĪ
ĠÙĪØ§ÙĦ ØµØŃ
Ø§ÙĬ ØŃØ©
ĠÙħØ¹ Ø§ÙħÙĦ
ĠØ§ÙĦÙĨ Ø¶
ÙĪÙģ ÙĪ
ĠÙĪÙĬ Ø®ÙĦÙĬ
ĠÙĪØ£ Ø®Ø±Ø¬
ĠÙĬØ¹ Øª
ĠØ§ÙĦÙĪ Ø¨Ø§Ø¡
ra l
ĠÙĪØ± Ø«
ĠØ³ÙĬ ØªÙħ
Ø³Ø± Ø¹
Ã© pia
ÙĪÙĤ Ø§
ĠØªØ® ÙħØ§Ùħ
Ø§Øº ÙĪØª
ĠØ§Øµ ÙĪØ§Øª
ĠÙĦÙĨ ÙģØ³ÙĬ
ĠÙĪØ® ÙĦÙĤ
ĠÙĬÙħÙĥÙĨ ÙĨØ§
ĠØªØ· ÙĪÙĦ
ĠB on
ĠÙĨÙĩ Ø§Ø¦ÙĬØ©
ĠØ£ØŃØ¨ Ø¨Øª
ĠØ§ÙĦØ³Ø± ÙĬØ©
Ġfor t
ĠØ§ÙĦÙĦØº ÙĪÙĬØ©
ĠØ¶Ø± Ø±
ĠØ³Ø¨ÙĬ ÙĦØ§
Ġ ÛĮ
ĠÙĦ Ø¦
ĠÙĬ Ø§ÙĨ
ĠØ£ Ø°ÙĩØ¨
ĠØ± ÙĪØ¹
ĠÙħÙĨ Ø¯
ĠØ´ Ø¨Ø¹
ĠØ³ Ø¹Ø©
ĠØ³ Ø·Ø±
ĠÙĪØ§ÙĦ ÙĥØ±
ĠÙĪØ§ÙĦ ØªÙĥ
ĠÙĪØ§ÙĦ ØªØ¨
Ø§Ø¦ ÙĨØ§Øª
ĠðŁ ļ
ÙģØ± Øº
Ġ... )
ĠÙĦÙĦ ÙĨØ³Ø§Ø¡
Ġm z
ĠÙĦÙħ Ø±Ø©
ĠÙĪÙħ Ø±Ø©
ĠÙĪØ± Ø§ÙĩÙħ
ĠØ¨ÙĦ ÙģØ¸
ÙĤÙĪ ÙĦÙĬØ´
ØªØŃ Øª
ðŁĴ Ŀ
ĠØ¨ÙĬ Ø¶Ø©
ĠØ§Ø¯ Ø¹Ùħ
ÙħØª ÙĨØ§
ĠØ¨Ùĥ ÙĦÙĪØ±ÙĬØ§
ĠØ§Øª ÙĤÙĪØ§
ĠØªØª ØºÙĬØ±
ĠØŃØ³ Ø¯
ĠÙĪØ§ÙĦØª Ø£
ĠØ§ÙĦØªÙĪ ØŃØ¯
ĠÙĪØµØŃ Ø§
ĠÙģØ§Øª ÙĪ
ĠðŁ¤į ðŁ¤²
ĠØ§ÙĦÙħØ° Ø§ÙĩØ¨
ĠØ§ÙĦØ£ÙĪØ± Ø§Ø³
ĠÙħØ´ÙĪ ÙĤØ©
ĠÙĨÙĨØµØŃ ÙĥÙħ
ĠØ¨ÙĬØ± ÙĪØª
ĠØªØ´ÙĪ ÙĥÙĬØª
Ø¤ÙĦ Ø¤
o ha
ĠÙĪ ÙĦÙĩØ§
ĠÙħ Ø¶ÙĬ
ÙĤ ÙħØ©
ĠØ¨ Ø°ÙĦ
ĠÙĬ Ø±Ø¨ÙĬ
ĠØ± Ø§ÙħÙĬ
Ø£ Ø°ÙĨ
ĠÙĪØ§ÙĦ Ø¢ÙĨ
ĠØ¯ ÙĦØª
ÙĥÙħ ÙĦÙĨØ§
ĠØ§ÙĦØ¬ ÙĬØ¯
ĠØ§ÙĦÙĨ Ø³ÙĬØ§ÙĨ
ĠØ§ÙĦÙĥ Ø°Ø§Ø¨
ĠÙĬØŃ ÙĥÙĪ
ĠØ¨ÙĨ ØªÙĪ
ha di
ĠÙĨØª Ø®ÙĬÙĦ
Ġb n
Ġn on
Ġy kh
ĠÙģÙĬØ¯ÙĬÙĪ Ø§ØªÙĥ
ĠÙĬØ´ ÙħÙĦ
ĠÙħØ¬ ÙĩÙĪÙĦ
ĠØ§Ø¬ Ø²Ø§Ø¡
ÙħÙĪ Ø¯ÙĬ
ĠØ§ÙĦØ§Ø³ Ø±Ø©
Ø§ÙĦØŃ ÙĦ
ĠÙħØ« ÙĤÙģ
ĠØ°ÙĥØ± ØªÙĩ
ĠØ±ÙĬ ØŃØ©
ĠÙĬÙĥ Ø§Ø¯
ĠØ§ÙĦÙħÙĨØª Ø¬
ĠØ¨Ø§ÙĦØ£ Ø®Øª
ï´ ¿
ðŁĺ± ðŁĺ±
ĠØªÙĪÙģ ÙĬØ±
ĠØ§ÙĦÙħØ¸ ÙĦÙĪÙħ
ĠØ§ÙĦØ®ÙĪ Ø§Ø·Ø±
f ul
h y
ĠØ¨ ÙģØªØŃ
ĠÙĨ Ø¸Ùħ
Ø£ Ø¨ÙĪ
ĠØŃ ÙĤÙĪ
Ø¨ÙĬ Ø³
ØĮ ...
ĠØ¬ ÙĪØ¬
ĠØ§Ø³Øª Ø¬Ø§Ø¨Ø©
ĠØ§Ø³Øª Ø¯Ø¹Ø§Ø¡
ĠÙĪÙĩ Ø°ÙĬ
ĠÙĨØª ÙĥÙĦÙħ
ĠØ§Ùħ ÙĩØ§
re j
ĠÙħØŃ ØªÙĪØ§
ĠØ§Ø¹ Ø§Ø¯Ø©
ĠØ§ÙĦÙħÙĪ Ø§Ø·ÙĨ
ĠØªÙħ Ø§Ùĥ
ta t
ĠÙĨÙĤÙĪÙĦ ÙĪØ§
ĠØ®ØªÙĬ ØªÙĪ
ĠØ¨Øµ ÙĪØ±Ø©
ĠÙĪØ¯ Ø¹ÙĪ
ĠÙħØ§Ùĥ ÙĨØªØ´
Ø³ÙĪ Ø¡
ĠÙħØªÙĪ ÙĤØ¹
ĠØ¨Øº Ø¯Ø§Ø¯
ĠÙĦÙĦÙĨ Ø¬Ø§ØŃ
ĠØ§ØŃØ¯ Ø§Ø«
ĠØŃØ§Ø¬ Ø§Øª
ĠØ¹Ø¶ ÙĪÙĬ
ĠØ¬Ø¯ÙĬ Ø¯Ø§
ĠØ³Ø· Ø§ÙĬÙģÙĬØ©
ĠØŃØ² ÙĬÙĨØ©
ĠÙĪØ§ÙĦØ³Ø± ÙĪØ±
Ùĥ Ùĥ
ĠÙĬ Ø§ØŃ
ĠØ£ Ø¨ØŃØ«
ĠØŃ ØµÙĪÙĦ
ĠØ³ Ø¹ÙĬ
ĠØ¥ Ø¯Ø±Ø§Ùĥ
ĠØ¯ Ø§Øª
Ø§ÙĬ ÙĬÙĩ
Ø§Ø¦ Ø³
ĠÙħØ¹ ØªÙħ
ÙĤØª ÙĦØªÙĨÙĬ
ĠØ² ÙĪÙħ
ÙĥÙĦ ÙģØ©
ra m
en n
ĠØ®ÙĪ Ùĩ
Ø·ÙĦ ÙĤØª
ĠØ´Ùĩ Ø§Ø¨
ĠØ±Ø§Ø¦ ØŃØ©
ĠÙĥØ± Ø§Ø³
ĠØ§ÙĦÙĤÙĬ Ø§Ø¯Ø©
ðŁ¥º ðŁ¥Ģ
ĠÙħØ¤ Ø«Ø±Ø©
ad ore
ĠØ³ÙĦÙħ Ø§ÙĨ
ĠØ£ÙĦÙģ Ø§
ĠÙĬØµØ± Ø§ÙĪ
ĠØ¹Ø§ÙĦ ÙħØ§
Ø«ÙĦØ§Ø« Ø©
ĠØ§ÙĦÙģØ¶ ÙĪÙĦ
ĠØ¹ÙĦØ¨ Ø§ÙĦÙĬ
ĠØ§ÙĥØªØ´ ÙģØª
ĠØ£Ø±Ùĥ Ø§ÙĨ
ÙĨ Ø¢
ĠØ¨ ÙģÙĬØ¯ÙĬÙĪ
ĠØ£ ØµÙĦØŃ
Ø· Ø§ÙĨÙĬØ©
ĠØ¬ Ø¯ÙĦ
ĠØ§ÙĦØ¹ ÙħØ§ÙĦ
ĠØ§ÙĦØ¹ Ø³ÙĦ
ĠÙĦÙĬ Ø¨ÙĬØ§
Ø¹Ø¯ Ùī
ÙĦÙĪ Ùģ
ĠÙĬØ¹ Ùħ
es h
ĠÙĨØ¬ Ø±Ø¨
Ø¹Øª ÙĨØ§
ĠØ¨Ø§ÙĦÙħ Ø´
ÙħØ³ Ø®Ø±
ĠÙĪÙĬØ³ ÙĥÙĨÙĩØ§
ĠÙħØ±Ø¶ Øª
ĠØ±Ø§ Ø§Ø¦Ø¹
ĠØ£ÙĬÙĨ ÙħØ§
ĠÙħÙĤØ± Ø±
ĠÙĪØ£Ø¹ Ø¸Ùħ
ÙĩØ§ÙĬ ÙĦØ©
Ġpre mi
p is
ĠÙĨ ÙĪØ¬Ø¯
ĠØ³ Ø¨Ø©
ĠÙĪØ§ÙĦ Ø§Ø¬ØªÙħØ§Ø¹
Øº Ø§Øª
ĠØ§ÙĦØŃ ÙĤÙĦ
ĠØ· ØŃØª
Ø¹Ø¯ Ùĩ
ĠØ§ÙĦÙĥ ÙĦØ§Ø¨
ĠØ§ÙĦØ¥ Ø¨Ø¯Ø§Ø¹
ĠØ§ÙĦÙģ Ø³
Ġt em
Ġt ous
ĠÙĪØŃ ÙĤÙĤ
ĠÙħØª Ø§Ø¹
ĠÙħØª ØªØ¨
ĠØ§ÙĦØ· Ø§Ø¹Ø§Øª
ĠÙĬØ¬ Ø§ÙĪØ¨ÙĨÙĬ
ĠØ§ÙĦØ« ÙħÙĨ
ĠÙĪÙħÙĨ Ø¨Ø¹Ø¯
ÙħØª ÙĩÙħ
ĠÙģØ± Ø¯Ø§
ĠÙĦØ¹ ÙĨØ¯
ĠØ£ØŃ ÙĦÙī
ĠØ®Ø· Ø¨Ø©
ĠÙĨØ¯ÙĬØ± ÙĪØ§
ĠØ§ÙĦØ´ÙĬ Ø¦
ĠØ±Ø§ÙĬ ØŃØ§
ĠØ£Ø¯ ÙĦØ©
ĠÙħØº Ø±Ùģ
ĠØµÙģ Ø§
ĠØµÙģ Ø§ØªÙĩ
ĠØ§ÙĦØªØ³ ÙĪÙĬÙĤ
ĠÙĪØ§ ÙĤØª
ĠÙĥÙģØ± Ø§
ie u
ĠØ¨ÙħÙĨ Ø§Ø³Ø¨Ø©
ĠØ§ÙĦØ®ÙĬ Ø§ÙĨØ©
ĠØ¹ÙĪ Ø§ÙħÙĦ
ĠÙĤÙĦÙħ Ùĥ
ĠØ§ÙĦØ¥ÙĦÙĥ ØªØ±ÙĪÙĨÙĬ
r j
ĠØ§ÙĦ Ø§ÙĬØ©
Øª ÙĥÙĬ
ĠÙĪ Ø§ÙģØ¶ÙĦ
Ø¹ ÙĦÙĪ
Ø¹ ÙħÙĬ
ĠÙħ Ø§Øµ
ÙĪÙĨ ØªØ§Ø±
Ø±ÙĬ ÙĥÙĬ
ĠØ§ÙĦØ¹ Ø¬ÙĪØ²
Ø§Ùĩ Ø§Øª
ĠØ§ÙĦØ¬ ÙĦÙģ
ĠØ§ÙĦØŃ Ø²Ø¨
Ġ: -
ĠØ§ÙĦØ´ Ø§Ø´Ø©
ØŃÙĬ Ø§Øª
Ø³Ùħ ÙĩØ§
ĠÙĬØª ÙħÙĨÙī
ĠØ¨Ùĥ Ø§ÙĦÙĪØ±ÙĬØ§Øª
ĠØ§Ùĥ ÙĬ
ĠÙĦØ¨ ÙĨØªÙĬ
Ø¯ÙĦ Ø§Ø¹
ĠÙĥÙĪÙĨ Ùĥ
Ġre ally
ĠØµÙĦ Ø§ØªÙĬ
ĠØ§ÙĦÙĨØµ Ùģ
ĠÙĦØ® Ø§Ø·Ø±
ĠÙħÙģ ØµÙĦ
âĺ łï¸ı
Ø«ÙĬ ÙĤØ©
vid eo
ÙĨ Ø±ÙĬØ¯
ĠØ§ÙĦ ÙĦÙħ
ĠÙħ Ø±Ø¬Ø¹
ĠØª Ø¯ÙĬØ±ÙĦÙĨØ§
ĠØ® Ø±Ø§
Ø§ÙĪ Ø§Ùĩ
ĠØ§ÙĦØ± Øµ
ĠØ° ÙĥØ±ÙĬØ§Øª
ĠØ§ÙĦÙĥ ÙĬØ¨ÙĪØ¨
ĠØªØŃ ÙĤ
ĠØ§ÙĦÙģ ØµØŃÙī
ĠÙĪÙĨ ÙĥÙĪÙĨ
ĠÙĪØŃ ÙĦ
ĠÙħØ´ Ø¨Ùĩ
Ġa i
ĠÙĪØ¨ Ø°ÙĦÙĥ
ĠÙħØŃ ÙĪØ±
ĠØ¯ÙĬØ± Ùĩ
ĠØªØ¬ Ø¯Ùĩ
ĠÙħØ¬ Ø¨
ÙħÙĪ ØŃ
ĠØ§Øª Ø¨
ĠØ¯ÙĬ Ø§ÙĦÙĪ
ÙħØ³ ÙĦØ³ÙĦ
ĠÙĦÙĨ Ø¬Ø§ØŃ
ĠÙĪØ· ÙĨ
ĠØ·Ø±ÙĬÙĤ Ø§
ĠÙħÙĨØª Ø®Ø¨
ĠØ¹Ø§Ø¦ ÙĦØªÙĥ
ĠØ¥Ø® ÙĪØ§ÙĨÙĬ
Ġti me
ĠÙħÙĤØ±ÙĬ ØªØ´
n k
ÙĨ Ø§Øµ
ÙĪ ÙĦÙħ
ÙĪ Ø¸
ĠÙĬ Ø§Øª
ĠÙĬ Ø²ÙĪØ¬
ĠØª Ø¯Ø±
ĠØª Ø³ÙĬ
Ø® ÙħØ©
ĠØ§ÙĦÙħ Ø±Ø¬Ø¹
ĠØ³ Ø¨Ø§Ø¨
Ø§Ø¯ ØªÙĩ
ĠØ¬ Ø§Ø¦Ø²
ĠØ® Ø§Ø¯Ùħ
ĠØªØ¹ ÙĨØ§
ÙħØ± Ø³ÙĬ
ĠØªØŃ Ø¶Ø±
ĠØªØŃ Ø²ÙĨ
ĠÙĪÙħ Ø«
is a
ĠðŁĺ¢ ðŁĴĶ
Ø§Ø« ÙĤ
ĠÙħØ¨ Ø§Ø±
ĠØ§ÙĦØ§Ø¬ ØªÙĩØ§Ø¯
ĠØ¹Ø±Ùģ ÙĨØ§
ĠÙĤØ¨ ÙĪØ±ÙĩÙħ
Ġe la
os e
ĠÙħØ§Ø± Ø§ÙĨÙĬØ´
ĠÙĪØ§ÙĦØµ ÙģØ§Øª
ĠØ§ÙĦÙħØ¯ Ø§Ø¦ØŃ
ĠØ§ÙĦÙħØ· ÙĦÙĤ
ÙĪÙħÙĬ Ø¯ÙĬ
ĠØ¬Ø²Ø¡ Ø§
ĠØ§ÙĦØ§Ø´ Ø±Ø§Ùģ
ĠÙĩØ¨ ÙĦØª
ĠØªÙħÙĨ Ø¹
T h
f s
g es
v es
ÙĨ ØŃÙĬ
ÙĪ Ø§Ùħ
ÙĤ Ø§Ø±
ĠÙĤ Ø§Ø¦ÙĦ
ĠØŃ Ø¨ÙĪ
ĠØ´ ÙĬÙħØ§Ø¡
ĠØµ Ø¯Ø±Ùĥ
ĠØ§ÙĦØ£ ÙħØ§ÙĨ
ĠØ§ÙĦØ¨ Ø§Ø·ÙĨ
ĠØ² Ø±ÙĤØ§Ø¡
Ġm et
ÙģØ³ Ø§Ø±Ø§Øª
ĠÙĦÙĩ ÙĨØ§
re r
ĠÙĨØ¬ Ø±Ø¨ÙĩØ§
Ø¹Ø± ÙģÙĬ
ĠØªÙĪ ÙĦÙī
ĠØ§ÙĦØ² Ø±
ar s
ĠÙĬÙĤÙĪÙĦ ÙĪÙĦÙĬ
ĠØ£Ø³ Ø¹Ø¯ÙĨÙĬ
ðŁ¥ ³
ĠØ®ÙĦ Ø·
ĠÙĬØµ Ùģ
ĠØ´Ùĩ Ø±Ø©
ĠØ¨ØŃ Ø¯ÙĬØ«
ĠØ§ÙĤ ÙĪÙī
ĠÙĬØ¹Ø±Ùģ Ùĩ
ĠÙħØ¤ ÙħÙĨØ§
ĠØªØ¤ Ø¯ÙĬ
ĠÙĦØ§Ø¹ Ø¨
ĠØ§ÙĦØ®ÙĦÙĬ Ø¬
ĠÙĪÙĤÙĬ ÙĦØ§
ĠØªÙĪÙĤ ÙģØª
ĠØ§ÙĦÙħØ´Ø§Ø±Ùĥ Ø§Øª
r t
ĠØ§ÙĦ ÙģÙĬØ¯
ĠØ¨ ØŃÙĪ
ĠÙħÙĨ Ø§Ø³Ø¨
ĠØ§ÙĦÙħ ØŃÙĤ
Ø§Ø¡ Ùĩ
Ø§Ø¹ Ø§Ø©
ĠØ£ÙĨ Ùģ
Ø³Øª ÙĩØ§Ø´
ÙģØ± Ø§ÙĨ
ĠØ§ÙĦÙĥ ÙĪÙĥ
ĠØ§Ø³Øª ÙĥÙħØ§ÙĦ
ĠØªØŃ ÙĬØªÙĬ
ĠØ« ÙĤÙĬÙĦ
ÙĦÙģ ÙĪÙĨ
ĠÙĨØ¬ ÙĪÙħ
ĠØ³ÙĬ Ø§ØŃÙĬØ©
ĠØ¨Ø§Ø´ Ø§
Ø·Ø± Ø§Ø¨
ĠØµØ¯ ÙĤØ§
ÙħÙĦÙĬ ØŃ
ĠØ¬Ø³ Ø¯Ùĩ
T a
c on
ĠØ§ÙĦ ÙĦØ§Ùħ
ĠØ¨ ÙĥÙĬ
ĠÙĬ ÙĦÙħ
Ø· ÙĬØ±
ĠØ¨Ø§ÙĦ ÙĥÙħ
ĠØ§ÙĦØ£ Ø¨Ø¯
ĠØ§ÙĦØª Ø§Ø³Ø¹
ĠØ§Ø³ Ø¨
Ø¦ ÙĪÙĨ
ĠÙĬØ¹ Ø§ÙĦØ¬
ra ni
ĠÙĪØ± Ø³ÙĪÙĦ
Ġa cc
ĠØ¯ÙĬØ± ÙĥØª
ĠÙĬØ´ Ø§ÙģÙĬÙĩ
ĠÙĪØ³ ÙĩÙĦ
ĠØ¨Ø§ÙĦÙħ Ø¦Ø©
ĠØ§ÙĦÙħØ¬ Ø¯
ĠÙĪØ¥ÙĨ Ùĩ
ĠÙģØª ØŃÙĬ
ĠÙĪØ® ÙĪÙĬØ§
ĠÙģØ±ØŃ Ø§Øª
ĠØŃØ§Ø¨ Ø§
Ø¬Ø¹ ÙĦÙĩØ§
ĠØ¨Ø¥Ø°ÙĨ Ùĩ
ĠØ®ÙĦÙĬ Øª
ĠØ§ÙĦÙĤØ¨ ÙĦØ©
ĠØ§ÙĦÙħÙĬ Ø§Ùĩ
ÙħØ¦ ÙĨØ©
ĠÙĪØ§ÙĦØ§ØŃ ØªØ±Ø§Ùħ
n y
s epia
Ø¨ ÙħØ§
Ø¯ ÙĬÙĨØ§
ĠÙħ Ø±Ø¨Ø¹
Ø³ Ø§Ø¹
ĠØ± ÙĥÙĨ
Ø£ ÙĦØ§
ĠÙĩ ÙĪÙĦ
Ø° Ø¨Ùĩ
ĠØ³ Ø±ÙĬØ¹Ø©
ÙĬØ¯ ÙĬØ±
ĠØ£Ø® Ø§Ùģ
ĠÙħØ± Ø§Ø©
ĠÙĪØ´ ÙģØª
Ġk oul
ĠÙħÙĬ ÙĦØ©
Ø¨Ø¹ ÙĬØ¯
ĠØ§Øª ÙĤ
ĠÙĬØ³ ÙĥÙĨÙĩ
ĠØ¯ÙĬ ØªÙĪ
ĠÙĤÙĦ ØªÙĩ
ĠØµØ¨Ø§ØŃ ÙĥÙħ
za af
ĠØªØªØŃ ÙĤÙĤ
ĠØ¨Ø§ÙĦØ¥ ÙĬÙħØ§ÙĨ
Ø¶Ùħ ÙĪÙĨ
ĠØªØŃØ± ÙĬØ±
0000000000000000 0000000000000000
9 4
ĠØ¨ Ø¶Ø¹
ĠÙĬ ÙĪØ¬Ø¨
ĠØ¬ Ø¯ÙĪÙī
ĠØ® ØªÙĩØ§
ĠØ¯ ÙħØ±
ĠØ§ÙĦØŃ ØµØµ
ĠØ§ÙĦÙĥ Ø¨Ø±
ĠØ§ÙĦÙĥ ÙĪÙħÙĨØªØ§Ø±
Ġ2 50
ÙĥÙĦ Ø´
ĠØ±ÙĪ Ø§ÙĬ
Ġb ik
Ġa w
ĠØ§ØŃ Ø§ÙĪÙĦ
ĠØ§Ø´ ØªØ±ÙĬ
ĠØ£Ø´ Ø§Ø±
ĠÙĪØ§ÙĦÙĨ Ø§Ø±
ĠØŃÙĪÙĦ Ùĥ
ĠØ®Øµ ÙĨØ§
ĠÙĨØ· Ø¨ÙĤ
ĠØ¨Ø§ÙĦØª Ø§ÙĦÙĬ
ĠØ§ÙĦØ±Ø³ Ø§Ø¦ÙĦ
ĠØªØ·Ø¨ÙĬ ÙĤØ§Øª
ĠØ§ÙĦØ±Ùĥ ÙĪØ¹
ĠØªØ¬Ø±ÙĬ Ø¨ÙĬ
ðŁķ ĭ
ĠØ§ÙĦÙĬÙħ Ø§ÙħØ©
Ġfau t
Ø§ÙĦ Ø³ÙĬ
Ø± ØŃÙħØ©
ĠØª Ø·ÙĪÙĬØ±
ĠÙĨ ÙĬÙħÙĪ
ĠÙĥ ÙĪÙħÙĨØª
ĠÙħÙĨ Ø§Ø²ÙĦ
ĠÙħÙĨ ØªØµÙģ
ĠØ® ÙĬØ§ØªÙĬ
ĠØ¯ Ø¹ÙĬÙĦÙĬ
Ø§ØŃ Ø´Ø©
ĠØ§ÙĦÙĤ ØµØ±
ĠØº Ø§ÙĬØ§
ĠØ§ÙĦØ¨ Ø§Ø³
ĠØ° Ø§Ø¦ÙĤØ©
Ø¹ÙĪ Ø´
Ġ" ØĮ
ĠØ§Ùħ Ø³
ØŃÙĬ Ø§ÙĨØ§
ĠØ§ÙĦØ· Ø§Ø¨ÙĤ
ĠØ£Ùħ ÙĦÙĥ
ĠØªÙĪ Ø¶ØŃ
ĠÙĪØ§ÙĦÙħ Ø¯ÙĦÙĪÙĦ
Ġg ir
ĠØ¨Ø´ ÙĩØ§Ø¯Ø©
ĠÙĬØ¹ÙĦÙħ Ùĩ
ĠØ£Ùģ Ø¹ÙĦ
ĠÙĪØ« ÙĬÙĤØ©
ðŁĴª ðŁĴª
ĠØ§ÙĦÙĥÙĨ Ø²
Ġ im
Ø± ÙĪÙĨ
Ø¨ Ø§Ø±ÙĬ
ĠÙģ Ø¢
ĠØ§ÙĦÙħ Ø¹Ø¯
ĠÙĪØ§ÙĦ Ø°
ĠØ¬ Ø±Ùī
Øº ÙĬØª
ĠÙħØ¹ ÙĨÙĬ
ĠØ§ÙĦØ³ Ø¹ÙĬ
ĠØ· ÙĩÙĪØ±
Ø¹ÙĪ Ø§Ùħ
ĠØ§ÙĦØµ Ø¨
ĠØ§ÙĦØµ Ø¹Ø¨Ø©
Ø§Ø² Ùģ
Ø§Ø· ÙĨÙĬÙĨ
ĠÙĪØ¹ Ø§ÙģÙĩ
ĠØªÙĤ Ø¨
ĠØªØª Ùģ
ĠØ£Ùĥ ØªÙģÙĬ
ĠØ§ÙĦØ§Ùħ Ø§Ø²ÙĬØºÙĬØ©
ĠÙĪØ· ÙĨÙĬ
ĠØ´Ø¹Ø± ÙĩØ§
ĠØ§ÙĦØ¬ÙĦ Ø¯
ant s
ĠØ§ÙĦÙĪÙĬ Ø¬Ø§
i ba
Ùħ Ø§ÙĦÙĥ
Ùģ ÙĦØ³Ø·ÙĬÙĨ
ĠÙĦ ÙĤØ§
ĠØ¹ Ø³Ø§Ø³
ĠÙĨ Ø±Ø¯
ĠÙĥ Ø±ÙĪ
ĠØ³ ÙĬØ¯Ø©
ĠØº ÙĦÙĤ
Ø³ÙĬ Ùĥ
Ø¢ ÙħÙĬÙĬÙĨ
ĠÙħØª Ø®Ø§ÙģØ´
Ġb ts
Ø·ÙĬ ÙĩØ§
Ġk he
ĠÙĬØª Ø·ÙĦØ¨
ĠØ§Øª ØµØ§ÙĦ
Ġ4 4
ĠØ§ÙĦÙģØ± Ø§Ø´
ĠØ§ÙĦÙģØ± ÙĤØ©
ĠÙħØ³Øª ØŃÙĬ
ĠØªÙģ ÙĤØ¯
ĠØ§ÙĦÙħØŃ ØªØ±Ùħ
ÙĩØ§Ø¯ Ø§Øª
ĠÙĪØµØŃ Ø©
ĠÃ Ĺ
ĠØ¹ÙĬ ÙĪØ¨
ĠØ§ÙĦØªØ¬ Ø§Ø±ÙĬØ©
Ø§ÙĦÙĤ ØµØµ
ĠÙĬÙĨØª ÙĤÙħ
ĠØ§ÙĦØªÙĨ Ø¸ÙĬÙħ
ÙĦÙĦ Ø§Ø³Ùģ
ĠØ§ÙĦÙĩÙĪ ÙĬØ©
Ġbz zf
ĠØŃÙģ ØµØ©
ĠØ¨Ø§ÙĦØ· Ø¨Ø¹
ĠØ¯Ø±Ø§Ø³Øª Ùĥ
ĠØ§ÙĦØªÙĪØµ ÙĬÙĦ
L E
N i
k o
ĠØ§ÙĦ ÙĩÙĦ
ĠÙĪ Ø¹Ø¨
ĠÙħ ÙĬØ¨
Ùģ Ø¯Øª
ĠÙĦ Ø¥ÙĨ
ĠØ¹ ÙģØ©
ĠØ£ ØªØ¨Ø§Ø¹
ĠÙģÙĬ Øª
ĠØ± ÙĪØ¹Ùĩ
Ø® Ø§
Ø· Ø±ØŃ
Ø¨ÙĬ Ø·Ø§Ø±
ĠØ³ ÙĬØ§ÙĤ
ĠØ§ÙĨ Ø¬Ø§Ø²
ĠØ§ÙĦØ£ ÙĦÙĪØ§ÙĨ
ĠÙĪÙĬ Øº
ĠØ² Ø±Ø¹
ĠØ§ÙĦØ¥ Ùģ
ĠØ§ÙĦØ¥ Ø³ÙĨØ§Ø¯
ĠÙĪÙĨ Ø¬Ø§ØŃ
ĠÙĪØ¹ Ø§Ø¯
Ġ3 7
ĠÙħØ± Ø§Ø³ÙĦØ©
ĠØ§ÙĦØº Ø§Ùģ
ĠÙĬØ¯ Ø¹Ùī
ĠØªÙĤ Ø³ÙĬÙħ
ÙĪÙĩ ÙĬ
ĠØ§ÙĦÙĦ Ø°ÙĬÙĨ
ĠØ³ÙĨ Ø¹ÙĪØ¯
ĠÙĨØ¹ Ø§ÙĪØ¯ÙĪ
Ø³ÙĦ Ø·Ø§ÙĨ
ĠØ§ÙĦÙħØµ Ø§ÙĦØŃ
ĠÙĬØ· Ø¨ÙĤ
ĠØ§ÙĦØ¶ ØŃ
ĠÙĨÙħ Ø¯
ĠØ§ÙĦØªØ¬ Ø§Ø±ÙĬ
ĠÙĦØ· Ø±ØŃ
ĠÙĬØ³ØªØ± ÙĥÙħ
Ġparti e
Ġalg Ã©ri
ĠØ§ÙĦØªÙĪØ³ ÙĦ
ĠÙĪ ÙĥÙħÙĦ
ĠÙĪ ÙĤÙĪØ©
ÙĤ ÙĪØ¯
Øµ ÙĤ
Ø² ÙħØ©
ĠÙĩ Ø§ÙĪ
ĠØµ ÙĨÙģ
ĠØ§ÙĦØŃ Ø¯Ø«
ĠØ§ÙĦÙĥ ÙĪ
ĠÙĪØ¹ ÙĬÙĨ
ĠÙĬÙĨ Ø§Ùħ
Ġw n
ĠÙģØ§ÙĦ ÙĪØ§Ø¬Ø¨
ĠÙĨØ´ Ø±Ø¨
ĠØ§ Ø§Ùĩ
ĠØ§ÙĦØ« Ø§ÙħÙĨ
Ø¶ÙĬ Ùĩ
ØµØ± Øª
ĠÙĪØµ ÙĪÙĦ
ĠÙĪÙĤ Ø§Ùħ
ĠÙĬÙĤ Ø§ØªÙĦ
da m
ĠØ§ÙĦØ¯Ø± Ø¬Ø§Øª
ĠØ¯Ø¹ÙĪ Øª
ĠÙĦØŃ ÙĦ
ĠÙĨØ¹Ùħ ÙĦ
ĠÙĪØ² ÙĨØ©
ĠØ§ÙĦØ¯Ø§Ø± ÙĬÙĨ
ĠØªØŃÙĥÙĬ ÙĩØ§
ĠØ§ÙĦØ²ÙĪØ¬ ÙĬØ©
ĠÙĥØ£ÙĨ ÙĩØ§
ĠØ§ÙĦÙħÙĪÙĦ ÙĪØ¯
ĠÙĨØªØ§ÙĪ Ø¹Ùĥ
r is
y l
Ġ ed
Øµ Ø§ØŃØ¨
ĠÙĥ ÙĦÙĬØ§
ĠØ± ØºØ¨
ĠÙħÙĨ ØªØ´
ĠØ´ ÙĬØ¨Ø©
ĠØ³ ÙĪØ§ÙĦ
ĠÙĪØ§ÙĦ Ø®ÙĬØ±
ĠØ¯ Ø§Ø±ÙĬ
ÙĨØª ÙĩÙħ
ĠØªØŃ Ø¨Ùĩ
ĠØ² Ø§ÙĬØ¯
ĠÙĪÙĩ ÙĬØ§
ĠÙĪÙĨ Ø¹Ø±Ùģ
ÙĪÙĥ Ø³
ÙĤÙĪ Ø¨Ø§Øª
Ġy d
ĠØ¹Ø¨Ø¯ Ø§ÙĦÙĤØ§Ø¯Ø±
ÙģØ¹ ÙĦÙĩØ§
ĠØ¨Ø§Ø±Ùĥ Øª
Ø¬Ø± Ø§Ùħ
Ġv oi
Ġg en
Ø±Ø§Ø¨ Ø·
ĠØ¶ÙĬ Ø§Ùģ
ĠØªØ±Ø¬ Ø¹ÙĬ
ĠØ§ÙĦØ±Ø§Ø´ Ø¯ÙĬÙĨ
ĠÙģØ£ÙĪÙĦ Ø¦Ùĥ
V E
ØŃ ÙĩÙħ
ĠØª ÙĦØ§Ùħ
Øµ ÙĨØ©
ĠÙĨ Ø¯Ùħ
Ø® ÙĪØ±
ÙĬØ± Ø§Ø«
ØªÙĬ Ø§Øª
ĠØ£ÙĨ ÙĥÙħ
ĠØ§ÙĦØª ØŃÙĤ
ĠØ§Ø³ Ø¹Ø¯ÙĨÙĬ
ĠÙĦÙĦ Ø³ÙĨØ©
ĠØªØŃ ØªÙĩØ§
ÙĪÙĬ ÙĦÙĬ
ÙĤÙĪ Ø§Ø¹Ø¯
Ġ) ).
ÙĪØ³ ÙĬØ©
ĠÙħØ³ ÙĥÙĨ
ĠÙĪÙĥ ÙģØ±
ĠØ§Øª Ùģ
ĠÙĪØ¥ Ø°
ĠØ§ÙĦÙģØ± Ø³
ĠØ¯Ø§Ø± ÙĥÙħ
ĠØ§ÙĦÙħØª ÙĨ
ĠÙĥÙĪÙĨ ÙĩØ§
ĠØ§ÙĦØ£Ø® Ø°
Ø£Ø³ Ø·ÙĪØ±Ø©
ĠÙħÙĪØ¶ÙĪØ¹ ÙĬ
ĠØ§ÙĦÙħÙĦ ØŃ
ĠØªÙģØ±Ø¬ ØªÙĩØ§
ĠØ§ÙĦØ±Ø¨ ÙĪØ¨ÙĬØ©
ĠØ¨ÙĦØ¹ ÙĤÙĦ
ĠØ§Ø´Øª ÙĤØª
ĠÙĦÙĦÙħÙĪ Ø¶ÙĪØ¹
e ch
g ue
Ġ %
ÙĦ Ø´
ĠÙħ ØµÙĦØŃ
ĠØ¨ ØŃÙħØ¯
ĠØª ÙĦÙĬÙģÙĪÙĨ
Øµ Ø§ÙĦØŃ
ĠÙħÙĨ ØµÙĪØ±
Ø· Ø§ÙĨÙĬØ§
ĠØ§ÙĦÙħ Ø§Ø±
ĠÙĪØ§ÙĦ ØªØ§Ø¨Ø¹ÙĬÙĨ
Ø§ØŃ ÙĨØ§
ĠØ§ÙĦØŃ Ø±Ùħ
ÙĦØ§Ùħ Ø§
ĠØ· ÙĬØ±
ĠØ§ÙĦØ´ Ø±ÙĬÙģØ©
ÙĤÙĬ Ø´
ĠÙĦÙĦ ØªÙģ
Ø§ÙĨØ§ Ø§
ĠÙĬØŃ Ø¯Ø¯
ra na
ĠÙĪØ¨ Ø´Ø±
Ġs ho
Ġn ti
ĠÙĬØ³Øª Ø¬ÙĬØ¨
ĠØ¹ÙĦØ§ ÙĤØ§Øª
ĠÙĬØµ Ø¹Ø¨
ĠØ¨Ø´ Ø®Øµ
ÙĤØ¨ ÙĦÙĩ
ĠÙħØ§ÙĬ Ùĥ
ĠØ£Ø´ Ø±Ùĥ
ri b
ĠØªØ§ÙĨÙĬ Ùĥ
ĠB AC
ĠØ§ÙĦÙĨØ³ Ø®Ø©
ĠØ§ÙĦØ·Ø¨ Ø§Ø¹Ø©
ĠÙĬØ¯Ø®ÙĦ ÙĪÙĨ
ĠØ£Ø· ÙĬØ¨
ĠÙĬÙĤØ± Ùī
ĠØ§ÙĦØ¹ÙĪ Ø§Ùħ
ĠØ§ÙĦØŃÙĦÙĪ Ø©
b li
ĠÙĬ Ø¶ÙĦ
ĠÙĥ Ø±Ø´
ĠØ§ÙĦÙħ Ø£
ĠØ§ÙĨ ØµØŃÙĥ
ĠØµ Ø¨Øª
ĠØ§ÙĦØ¹ Ø§Ø¯ÙĬØ©
ĠØ§ÙĦØ³ Ø§Ø¨Ø¹Ø©
ĠØ§ÙĦÙĨ ØµØŃ
ØŁ .
ĠÙĦÙĦ Ø¨ÙĥØ§ÙĦÙĪØ±ÙĬØ§
ĠÙĬØ¹ ÙĦÙī
ĠÙĪÙħ Ùĥ
Ġb ar
ĠÙħØ± Ø§ÙĨÙĬØ´
Ø·ÙĬ Ø¹ÙĪÙĨ
ĠØªØ¬ ÙĨØ¨
ĠØ¯Ø± ÙĩÙħ
ĠØ§Ùĥ ØªÙĪØ¨Ø±
ĠØ¨Ø¯ ÙĦÙĬÙĦ
ĠØ£Ø³ ÙĩÙĦ
ĠÙĪÙĤ ÙĦØ©
ĠØ£Ø± Ø¯
ĠÙħØ§ÙĨ Ø´ÙĪÙģ
ĠÙĦÙĤ Ø§ÙĪ
ĠÙħÙĩ ÙĨØ¯
ĠØ´Ø±ØŃ ÙĩØ§
ĠØ³Ø£ Ø¹ÙĪØ¯
ĠØ§ÙĦØªØ¬ Ø±ÙĬØ¨ÙĬ
ĠÙħÙĦÙĥ Ø§
ĠØ§ÙĦØªÙĤ ÙĨÙĬØ©
22 22
ĠÙĪØ§Øµ Ø¨ØŃ
ĠØ¬Ø± Ø§Ø¦Ùħ
ĠØ®ÙħØ³ ÙĬÙĨ
ĠØ´Ø¨Ùĩ Ø©
Ø±ÙĪÙĬ Ø¬
ĠÙħØ° ÙĥÙĪØ±
ĠÙĥØ§Ùģ Ø±Ø§
ĠØ¨Ø§Ùħ ØªÙĬØ§Ø²
ĠØ§ÙĦÙħÙĤØªØ±ØŃ Ø©
ĠØ¨ÙħØ« Ø§Ø¨Ø©
Ø± Ø§Øª
Ùģ ÙĬÙĨØ§
Ø° ÙĪØ±
ĠÙĪØ§ÙĦ ÙĨØ³Ø§Ø¡
ĠØ¨Ø§ÙĦ Ø°ÙĥØ±
ĠØªØ¹ ÙĩØ§
ĠØªØ¹ Ø¸ÙĬÙħ
ĠØ· ÙĪØ¨
ĠÙĦÙĦ Ø®ÙĬØ±
ĠØ§ÙĦØ¥ Ø¹Ø±Ø§Ø¨
ra ka
ĠØ¨ÙĬÙĨ Ø§ØªÙĨØ§
ĠØ§Ùĥ ÙĨ
ĠØ§Ùģ Ø±ØŃ
ĠÙĪØ§ÙĦÙħ ØºØ±Ø¨
ĠÙħÙĨÙĩ ÙĨ
ĠÙĪØ§ÙĦØ£ Ø³
ĠØ§ÙĦØ§Ø³Øª Ø¹ÙħØ§Ø±ÙĬØ©
ĠĠ Ġ
ĠØ¢Ø®Ø± ÙĬÙĨ
ĠØ¹Ø±Ùģ ØªÙĩØ§
ĠØ¨Ø§ÙĦÙĨ ÙģØ³
ĠØ§ÙĦÙħØ¯ Ø¹ÙĪ
ĠØ§ÙĦØªÙģ Ø§ÙĩØ©
ĠØ§ÙĦØ±Ø³ ÙħÙĬ
ĠØ¨Ø§ÙĦØ³ ØŃØ±
ĠðŁĺĶ ðŁĺĶ
ĠØ§ÙĦØ®Ø± Ø·ÙĬ
ØªÙģØ±Ø¬ Øª
Tu be
Ġá ħł
O O
ĠØ§ÙĦ Ú¨
Ø¬ ÙĪØ¬
ĠÙĨ Ø¨Ùĩ
ĠØ§ÙĦÙħ Ø´ÙĬ
Øº ÙĪØ·
ĠØµ Ùħ
Ø§ÙĪ ÙĬØŃ
ÙĪÙģ Ø§Ø¡
ĠØ§ÙĦØ¥ Ø´Ø§Ø±Ø©
ĠÙĪÙħ Ø§Ø²Ø§ÙĦ
ÙĪÙĬ Ø¹
ØŃØ¨ ÙĪØ´
ĠØ§ÙĦÙĬ ÙĪØªÙĬÙĪØ¨Ø±
Ø²ÙĬ Ùĩ
ĠØ§Ø¯ Ø¹Ùī
ĠÙħÙĬ Ø²
ĠØªØ´ ÙĬØ±
ĠØ§Ùĥ ØªØ¨ÙĬ
ĠØªØ³ ÙĤØ·
ĠØªØµ Ø§ÙĪØ±
ĠÙĤÙĦØª ÙĦÙĨØ§
ĠØ§ÙĦØ´Ø± ÙĤÙĬ
ak h
Ġo stad
ĠØ´Ø¹ ÙĪØ±Ùĥ
Ø²Ø¹ ÙĬÙħ
Ø§ÙĦØ£ Ø®
ĠÙĪÙĥÙĬÙģ Ø§Ø´
ĠÙħØ³Ø¤ ÙĪÙĦÙĬ
ĠØ§ÙĦØŃØ¶ ÙĪØ±
ĠØ¶ÙĦ Ø§ÙĦØ©
Ġkam el
ĠÙģØ² Ø¯
Ùħ ÙĨÙĬØ´
ĠØ¹ Ø·Ø±
Ø® ÙĨ
Ø® ØªÙĦÙģ
Ø§Øª Ø°
ĠÙĤ ÙĬÙĪÙħ
ĠØŃ Ø¬Ø§
ĠØ§ÙĦÙħ ØªÙħ
ĠØ§ÙĦÙħ ÙĤØ¨ÙĦ
ĠØ§ÙĦÙħ ÙĦÙĪÙĥ
ðŁĺ µ
ĠØ® Ø¨ÙĬØ±
Ø§Ø¦ ÙĬØ§Øª
ĠÙĪØ£ ÙĩÙĦÙĩ
ĠØ§ÙĦØµ ÙĦØ§ØŃ
ĠØ¨ÙĨ ÙĪØ±
ĠØ§ÙĦØ° ÙĦ
Ø§ÙĦÙħ Ø§Ø¦Ø¯Ø©
ĠÙĪÙħ Ø§Ø´ÙĬ
ĠØ§ÙĦÙĬ Ø³
ÙĬÙĨØ§ ÙĩØ§
ĠØ§ÙĦÙĤØ± ÙĬØ©
ĠØªÙĤ ÙĦØ¨
ĠØ¨Ø¯ Ø§Ø®
Ø³Ø§ÙĨ ÙĬØ¯
ĠÙĦÙĦÙħ Ø³ÙĦÙħ
ĠØ±Ø¬ ÙĦÙĬ
ĠÙĬØµ ÙĪØ±
ĠÙĨØ³Øª Ø¹Ø±Ùģ
ĠÙĪØ§ÙĦØ³ Ø¹Ø§Ø¯Ø©
ĠØ§ÙĨØªÙĩ Ø§Ø¡
Ġ0 7
ĠÙĪØ§ÙĦØŃ ÙĥÙħ
ĠØ§ÙĦÙħØ· Ø§ÙĦØ¹Ø©
ĠÙħØ² ÙĬØ§
ĠÙĪØ§ÙĦØ£Ø® ÙĦØ§ÙĤ
ĠØ§ÙĦÙħÙĦØ®Øµ Ø§Øª
ĠØ§ÙĦØ®ØµÙĪØµ ÙĬØ©
b d
ÙĪ Ø£ÙĨ
Ø¯ Ø§Ø¦ÙħØ§
ĠØ¹ Ø§Ø·
ðŁĺ ļ
ĠØ³ Ø¯
ĠØ§ÙĦØª Ø³Ø§ÙħØŃ
ĠÙĪÙĬ ÙĦ
Ø¤ ÙĪÙĦÙĬØ©
ĠØ² Ø§ÙĦØª
ĠØ§ÙĦØ¥ Ø·ÙĦØ§ÙĤ
ĠÙĪÙħ Ø§Ø¹
ÙĤÙĪ ÙĩØ§
ĠÙħØŃ Ø§ÙĦ
ĠÙĪÙĦÙĬ Ø§
ĠØ§ÙĦÙħÙĨ Ø²
ðŁĺŃ ðŁĴĶ
Ø¹ÙĨ Ùģ
ĠÙħØ²Ø§ÙĦ ÙĨÙĬ
ĠÙħØ§Ø¯ Ø§Ø±
ĠØ£ÙĤ ÙĪÙħ
ĠÙĬÙĨØª ÙģØ¹
ĠØªØ¬ÙĬØ¨ ÙĪ
ĠØªØªÙħ ÙĨØ§ÙĬ
ĠØ¬Ø²Ø§Ø¦Ø±ÙĬ ÙĬÙĨ
ĠØ§ÙĦØ¶ÙĬ ÙĪÙģ
ĠØ§ÙĦÙĩØ¯ ÙĬØ©
ĠØ§ÙĦØ¨Ø¯ ÙĨ
ĠØ°Ùĥ Ø§Ø¡
) ØĽ
ÙĪ ÙĤÙĬÙĦ
Ø¯ ÙĪÙģ
ĠÙħ ÙĩØ§
ĠÙĬ ÙģÙĦØŃ
ĠØª ÙĦÙĪ
ĠØª Ø¯Ø±Ùĥ
ĠØª Ø§ÙģÙĩØ©
Ø® ÙĦÙĩÙħ
ĠØ§ÙĦÙħ ÙģÙĬØ¯Ø©
ĠØ¥ ÙĥØ±Ø§Ùħ
ĠØ§ÙĦØ£ ÙħÙĪØ§Øª
ĠØ§ÙĦØ¬ Ø¨Ø§Ø±
ĠÙĥÙĬ Ùħ
ou ni
ĠØ² Ø§Ø±
Ġt kh
ĠÙĪØŃ Ø±
ĠÙĪÙĦ Ø°Ø§
ĠÙĪØ´ Ø®ØµÙĬØ§Øª
ĠØªØ¬ Ø¹ÙĦÙĩ
ĠÙħØ³ Ùĥ
ĠØªØ³ Ø¹Ùī
Ø¯Ø¹ ÙĪÙĦÙĨØ§
ĠÙĨØ¨ Ø§Øª
ĠØ§ÙĦÙħÙĨØª Ø®Ø¨
Ġ6 5
ĠÙĪØ· ÙĬØ¨
ĠØ¨ÙĪ Ø¶Ø¹
ÙĦÙĦ Ø£Ø³Ùģ
Ø§Ø¨ÙĤ Ø§Ø´
ĠØ¢ÙĬØ§Øª Ùĩ
ĠØ±Ø§ÙĤØ¯ ÙĬÙĨ
ĠÙĨØ®Ø±Ø¬ ÙĪ
ĠØ§ÙĦØ¶ØŃÙĥ Ø©
ĠðŁĴķ ðŁĴķ
Ġpodc ast
Ø± ÙĨÙĬ
Ùĩ Ø§Ø±Ø©
ĠØ¨ Ø³ÙĦØ§Ùħ
ĠØª Ø³Ø¨Ø¨
Ø´ Ø§Ø¨
ĠØ³ ÙĦØ³
Ø§Ø¯ Ø¹ÙĪØ§
ĠØ§ÙĦØ¹ ØµÙĪØ±
ĠØ§ÙĦØ¬ Ø§ÙĩÙĦ
ĠÙĦÙĦ ØªÙĨ
ĠØ§ÙĦÙĪ Ø§Ø¬Ø¨Ø§Øª
Ġm lih
ĠØ§Ùħ Ùĩ
ĠÙĪØ¬ ÙĩØ§
in er
Ġy wf
Ġp c
ĠÙĬØª ÙħÙĬØ²
ĠÙĬØ® Ø·Ø¨
ĠØªÙĨ Ø²
Ø°Ø± ÙĨÙĬ
ĠÙħØ§Ø¹ Ø±ÙģØªØ´
ĠØ¹ÙĬ Ø§Ø¶
ĠÙħÙĨÙĬ ØªÙĥ
ĠØ®ÙĬ Ø§ÙĦÙĬØ©
ĠØ¶ØŃÙĥ Ø©
ĠÙĦÙħØ± ÙĪØ±Ùĥ
ĠÙĪÙĨØ³ Ø£ÙĦ
ĠØªÙĥØ± Ø§Ø±
ĠØ§ÙĦÙħØ¬Ø± ÙħÙĬÙĨ
ÙĨ Ø¯Ø§
ĠÙħ Ø°Ùĩ
ĠÙĦ Ø§Ø¯
Ø¶ ÙĬÙĨ
ĠÙĤ ÙĪÙħÙĬ
ĠØŃ Ø¨Ùĩ
ĠØ§ÙĦÙħ ÙĪÙĦØ¯
ĠØ´ ØªÙī
ĠÙĪØ§ÙĦ Ø±Ø¯
ĠØ¯ ÙĤÙĬÙĤ
ðŁĺĤ ðŁĺħ
ĠØº Ø¯
ØªØ¨ Ø§Ø¹Ùĩ
Ø¹ÙĬ Ùģ
ĠØ³ÙĬ Ø³
ĠØ§ÙĦÙħÙĨ Ø¹
ĠÙħÙĤ Ø§Ø¨ÙĦØ©
ĠÙģÙĩÙħ ØªÙĩØ§
ĠØªØ£ ÙĥÙĦ
ĠÙħØ²Ø§ÙĦ Øª
ĠÙģÙĨ Ø§Ø¯ÙĤ
ĠÙĨÙĥ Ø°Ø¨
ĠØ§ÙĦØ§ÙĤ Ø³Ø§Ùħ
ĠÙĦÙĤØ± Ø§ÙĬØ©
ĠØ¹Ø§Øµ Ùħ
f hm
g ha
Øª ÙĦØ§Ùģ
Ø¨ Ø§ÙĦÙĥ
ĠØ¨ ÙĪØ¯
ĠØª Ø§ÙĦÙĬØ©
ĠØª Ø³ÙħÙĬØ©
ĠÙĨ Ø§Ùĥ
ðŁĺ ¤
ĠØ§ÙĦØ£ Ø¹Ø¯Ø§Ø¡
ĠØ§ÙĦØ´ Ø¨ÙĥØ©
ĠØ§Ø³Øª Ø®Ø±Ø§Ø¬
ĠÙĪØª Ø®Ø±Ø¬
ĠØ§ÙĦÙĪ Ø³ÙĬÙĦØ©
ĠÙħØª Ø¨Ø±
ĠÙĪØ¬ Ùħ
ĠÙĪØ¹ Ø¸Ùħ
ĠÙĨØ¬ Ø§ÙĪØ¨ÙĪ
ĠØªÙĨ ÙĪØ¶
Ø¬ÙĦ Ø§ÙĦ
ĠÙĬØ³ Ø¬Ø¯
Ġâ Ĺ
ya a
ĠØ§ÙĦØ¯Ø± Ø¨
ĠÙģÙĦ ÙĤØ¯
ĠÙĬØ£ Øª
ĠÙĤØ±ÙĬ ØªÙĪ
ĠØ¹Ø±Ùģ ØªÙĥ
ĠØªØ¹ÙĦÙħ ÙĨØ§
ĠÙĬØ´ÙĪÙģ ÙĩØ§
âĢį ðŁĴ¨
ĠØ¬Ø§ÙĬ ÙĬÙĨ
ĠØ¶Ø¹ ÙģÙĩ
ĠÙħØ§Ø¨ ÙĬÙĨ
ĠÙĬÙħØ§ ÙĩØ§
ĠÙħØ®Øª ØµØ±
b in
j h
m m
ĠÙħ Ø·ÙĦØ¹
ÙĤ Ø¨ÙĪ
ĠØ¹ Ø¨ÙĪ
ĠØ¹ Ø±ÙĤ
ĠÙĬ Ø³Ø¨Ø¨
Ø§Ø¬ Ø¹ÙĪ
ĠØ§ÙĦÙĨ Ø¯Ùħ
ĠØ§ÙĦØ± ØŃÙĦØ©
ĠÙĬØŃ Ø·ÙĪ
ĠØªØŃ Ø±ÙĤ
ĠØ§ÙĦØ® Ø·Ø±
ĠØ§ÙĦÙģ ÙĪØ±
Ġm or
ĠÙĬØ¬ Ø¨Ø±
Ġn har
ÙĪØ¨ Ø§Øª
ĠÙĬØª Ø¶ÙħÙĨ
ĠØªØ´ Ø¬ÙĬØ¹
ĠØµØŃ ÙĬØ©
ĠÙģØ± Øµ
ĠØ§ÙĦÙħÙĨ Ø´
ĠØ§ÙĦÙħØ´ Ø§ÙĩØ¯
ĠØ§ÙĦØ£Ùħ Ø§Ø²ÙĬØºÙĬØ©
ĠØŃØ± Øª
Ø¯ÙĬÙĥ Ø§Ø³
ĠØ§ÙĦØ§Ø¨ ÙĬØ§Øª
ĠÙħØº ÙĦÙĪ
Ø§Ø¤ ÙĥÙħ
ĠØ¨Ø§ÙĦØ£ ÙħØ±
ab y
ĠØ¨Ø¬ Ø§ÙĨØ¨
ĠÙĪØªØŃ ÙĬØ§
ĠØ°Ø§Ùĥ Ø±
ĠØ§ÙĦÙģÙĤÙĩ ÙĬØ©
ĠØ£ØŃØ³ ÙĨØª
Ġlan gu
ĠÙĪØ£Øª ÙħÙĨÙī
¬Ĩ ï¸ıâ
H E
w lh
ĠÙħ Ø¯Ø±Ø³
ĠØ¨ Ø¬ÙĨ
ĠÙĦ Ø®Øµ
ĠÙĬ ÙĪÙĤÙģ
ĠÙĥ Ø§Ø¦ÙĨ
ÙĩØ§ ÙĬÙĨØ©
ĠØŃ Ø¯ÙĬØ¯
ĠØ´ ÙĥÙĬØª
Ø§Ùĥ Ø§ÙĪ
ĠØº ÙĪ
ĠØªØŃ ØªÙĪÙĬ
ĠØ§Ø® ÙĪÙĥ
Ġt er
ĠÙĦÙĩ Ø§Ø°
ĠÙĨØ¬ Ùħ
an g
ĠØ§ÙĦØ² ÙĦ
li kom
ĠØ§ÙĦØ¹ÙĦÙħ ÙĬÙĨ
ĠØ£Ø³ Ø³
da y
ĠÙģØª Ø¬Ø§ÙĪØ²
ĠØ´Ø¹Ø± Øª
Ġe ff
ĠÙĦÙĬÙĥ ÙĬØ¨
ĠØ§ÙĦÙĨØ³ Ø§
ĠØ¨ÙħØ¹Ø¯ÙĦ Ø§Øª
ĠÙĬØ¬Ø¹ÙĦ ÙĨØ§
ĠÙħØ¨Ø¯ Ø¹Ø©
ĠØªÙģØ± ØŃÙĬ
ĠØ¨ÙĪØ¹ Ø±
) ]
. (
t l
Â ±
ĠÙģ Ø¨ÙĦ
ĠÙģ ÙĦÙĬÙĥ
Ø¬ ÙĦØ³
ĠÙĨ Ø§Ø¯
ĠØŃ Ø§ØµÙĦ
ĠØ§ÙĦÙħ ÙģØªØ§ØŃ
ĠÙĪØ§ÙĦ Ø§Ø±Ø¶
Ø§Ø³ Ø¨Ø§Øª
ĠØ§ÙĨ Ø²
Ø§Ø¦ ØŃØ©
ĠØ§ÙĦØ£ ØŃØ±Ø§Ø±
ÙħÙĬ Ø´
ĠÙĦÙĦ Ø§Ø¯Ø¨ÙĬÙĬÙĨ
Ø±Ùĥ ÙĦØ·
ĠÙĩÙĪ Ø¯
Ġm dr
ÙĦØ¨ ÙĨØ§Øª
ĠÙĪØŃ Ø·
ÙĤØ± Ø§Ø´
ĠØ§ÙĦØ· Ø¹ÙĪÙĨ
Ġc as
en de
ĠØ§Ø¬ ØªÙĬØ§Ø²
ĠØªÙĤ ÙĦÙĤ
ĠØ¨Ø¹Ø¶ Ùĩ
ĠØªØ¨ Ø¹ÙĪ
ĠØ§ÙĦÙĦÙĬ Ø³ÙĬ
ĠØ¨ÙĦØ§ ÙĬÙĦÙĬ
ĠØªØ³Øª Ø®Ø¯Ùħ
ĠØŃØ¨ Ø¨
ÙģÙĩ Ø§Ùħ
ĠØ®Ø±Ø¬ ÙĪØ§
oo gle
ĠØ±Ùĥ Ø²ÙĬ
ĠØŃØ³Ø§Ø¨ Ùĥ
ĠÙĪÙĨØª ÙģØ±Ø¬
im o
Ġbe zaf
ĠÙĬØªØ¨ Ø§Ø¹
ĠØ§ÙĦÙĤØ¨ Ø¶
ĠØ¬Ø¹ÙĦ ØªÙĩ
ðŁĻ ĭ
ĠÙħØŃØ± ÙħØ©
U n
b ro
g ol
k k
u u
ĠÙ ¥
ÙĨ Ø§Ø¹
ÙĪ ÙĤÙĬ
ĠÙĨ Ø®ÙĬØ±
ĠØŃ Ø§Ø±Ø¨
ĠØ³ ØªØŃ
ĠØ§ÙĦØ³ ÙĬÙĨ
ĠØ§ÙĦÙĤ Ø§ØªÙĦ
ØªÙĪ Ø§Ùĥ
Ø®ÙĦ Ø§ØµØ©
ĠÙħÙĪ Ø§Ø¶Ø¹
ĠÙħØ³ Ø§Ø¬Ø¯
ĠØ§ÙĦÙħÙĪ Ø§ÙģÙĤØ§Øª
ĠØ§Ø¬ Ø±Ùĥ
ĠÙĬÙĤÙĪÙĦ ÙĨØ§
ĠØ§ÙĦØªÙĪ Ø§Ø¶Ø¹
ĠÙĪØ² ÙĨ
ĠÙĪÙħØ¹ Ø±ÙģØ©
ĠØ±Ø³ Ø§ÙĦØªÙĩ
ĠØ§ÙĦÙħÙĩ Ø§Ø¬Ø±ÙĬÙĨ
ĠØ¨ÙĦÙĬØ² Ø²
ĠØ·Ø¨ Ø®
ĠØ±Ø£ÙĬ ÙĥÙħ
ĠØ³Ø¹Ø¯ Øª
md an
ĠØºÙĦÙĬ Ø²Ø§ÙĨ
f ad
ĠÙĬ Ø´Ø±Ø¹
ĠØª Ø¨ÙĬ
ĠØ£ ÙĩØ¯Ø§Ùģ
ĠÙĩ Ø¨Ø©
ĠÙĩ Ø§ÙħØ©
ĠØ¯ ÙĬØ¯
ĠØ§ÙĦØ£ Ø¹Ùħ
ĠØ§ÙĦØ£ ÙĪØ³Ø·
Ø§ÙĪ Ø¯Ø©
ĠØ§ÙĦØ´ ÙĨ
ĠØ§ÙĦØ´ Ø¨ÙĩØ©
ØªÙĪ Ø§Ø¡
ØµØŃ ØŃ
ĠÙĪÙĬ ÙĩØ¯ÙĬ
ĠÙĪØ£ Ø±Ø¬ÙĪ
ĠØªØŃ Ø±ÙĬ
ĠÙĪÙĨ ØŃÙĤÙĤ
ĠÙģØ¶ ÙĪÙĦ
ĠØ§ÙĦÙħÙĨ Ø¬Ø¯
ĠØ¨Ø§ÙĦÙħ ÙĤ
ĠÙĦØ¨ ÙĨÙī
Ø°Ùĩ Ø§Ø¨
ĠØ®ÙĦ Ø¹ØªÙĨÙĬ
ĠØ£Ø¹ Ø²
ĠÙĬÙħÙĥÙĨ ÙĥÙħ
ĠÙĥÙĪÙĨ Ø§ÙĨ
ĠÙĪØ· Ø¨Ø¹Ø§
ĠØ¹ÙĤ Ø§Ø¦Ø¯
ĠØ¹Ø´ ÙĪ
ĠÙĪÙĦØ§Ø¯ Ùĥ
ĠÙĤØ§Ùħ ÙĪØ§
ĠØ§ÙĦØ±Ø¨ Ø·
ĠÙĪÙĨÙģØ±ØŃ ÙĪØ§
ĠØ§ÙĦÙģÙĤ ÙĬØ±
ĠØ³ÙĥÙĨ Ø§Øª
ĠØ°ÙĨ Ø¨Ùĩ
ĠEn glish
_ -
Ã »
ØŃ ÙĪÙĦ
ÙĤ ÙĦÙĤ
ĠÙĬ ÙģÙĪ
ĠØ£ Ø°Ùī
ĠÙģÙĬ Ø¯
Ø£ ÙĥØ«Ø±
Ø§Ø¨ ÙĬÙĦ
Ø« ÙħØ±
ĠØ¨Ø§ÙĦ Ø¥ÙĨ
âĢ ĵ
Ø§ÙĦÙħ Ø³
ÙĨØ³ Ø§ÙĪØ´
ĠØªØ¬ Ø§ÙĪØ¨ÙĨÙĬ
ĠÙĨØŃ Ø¶Ø±
ĠÙĬØ´ Ø±Ùģ
ĠØ§Ø¬ ØªÙĩ
Ġh ow
ĠÙĬØ³Øª ÙĤØ¨ÙĦ
ĠðŁ¤² ðŁ¤į
ĠÙĨØ¯ÙĬØ± ÙĦÙĥ
ĠØ§ÙĦØŃÙĬ Ø·
ĠØ¨ØŃ ÙĦ
ĠØŃÙĤ Ø§Ø¦ÙĤ
ĠØ³Ø± ÙĤ
Ø¬Ø§Ø¨ ÙĬØ§Øª
ĠÙĪØ§Ø¬ Ùĩ
ĠØ£Ùģ Ø±ÙĬÙĦ
ĠØ§ÙĦØªÙģ ØµÙĬÙĦ
ĠØ¨Ø§Øº ÙĬÙĬÙĨ
ÙĪÙħÙĪÙĨ ØªÙĬ
ĠØªØ±ÙĬ Ø¯ÙĬÙĨ
ĠØªØ¹Ø±Ø¶ Øª
ĠÙĨØ´Ø§Ø· Ùĩ
Ø¹ÙĦØ§Ø¨ Ø§ÙĦÙĬ
ÙģÙĦÙĬ ÙĤØ©
Û ĸ
ĠÙĦ Ø¬ÙĨ
Ø¬ ÙĬÙĥ
ĠØª Ø¨Ø¯ÙĪ
ĠÙĨ Ø¹ÙĪØ¶
ĠØ§ÙĦÙħ ØªÙĥÙĦÙħ
ĠØ´ Ø§Ø¯
Ø« ÙĪØ±
Ø« ÙĨÙĬ
Ø§Ùģ Ùī
ĠØ§ÙĦØª Ø§Ùħ
ĠØ§ÙĦØŃ ÙĦÙĬØ¨
Ġm rc
ðŁ¤ ¯
Ø§ÙĦÙĬ ÙĦ
ma z
ĠÙĬØµ ÙĪÙħ
ĠØ§ÙĦÙħØª ÙĤÙĬÙĨ
ĠØ¨Øµ ÙĬØ±
ĠÙĪØ¯ Ø®ÙĦØª
ĠÙħØ¤ Ø³Ø³
Ġqu oi
ĠÙĤØ· Ø§Ø¹
ĠØ¹ÙĬ Ø·Øª
ĠØŃÙĪ ÙĦÙĩØ§
ĠØ§ÙĦØŃÙħ Ø§Ø±
Ø§ÙĦØ¹ ÙģÙĪ
ĠØ°ÙĨÙĪØ¨ Ùĩ
ĠÙĦØ§Ùģ Ø§ÙħÙĬ
ÙĬØ§Ø± ÙĬØª
ĠÙĬØªØ± ØªØ¨
Ġfil m
Ġnr ml
Ùħ ÙĦØ§ÙĬÙĨ
Øª ÙĤØ¨ÙĦ
ĠÙĦ Ø§ÙĦ
ĠØ± ÙĥÙĦ
Ø£ ØµØ¨ØŃ
Ø¨ÙĬ Ø«Ø©
ĠØ¯ ÙĦÙĥ
ĠØ£ÙĨ Ø«Ùī
ĠØ¨Ø§ÙĦ Ø¨Ø±
ĠÙħØ¹ Ø·
ĠØ§ÙĦØ¬ ÙĦØ³Ø©
ĠØ° Ø§ØªÙĩØ§
ĠÙĪØ£ Ø¬Ø±
Ø§Øµ ÙģØ§Øª
Ø¤ ÙĪØ§
ĠØ§ÙĦØ® Ø§Ø±Ø¬ÙĬ
ĠÙħØ´ Ø§Ùĥ
ĠÙĪÙĦ Ø§Ø©
ĠØ®ÙĬØ± Ø©
la a
ÙĩØ± ÙĬØ©
ĠÙĤØ¨ÙĦ ÙĥÙħ
ta tion
Ġ5 6
ØºØ± ÙĬÙĨ
ĠÙĨØªØ§Ø¹ ÙĨØ§
ĠÙĦØŃ Ø§Ø¬Ø©
ĠØ§ÙĦÙģÙĬ Ø²Ø§
ĠØ£Ùģ ÙĦØ§
Ø´ÙĪ ÙĤØ©
ĠÙĬÙĤØ¯Ø± ÙĨØ§
ĠÙĤÙĪ ÙĦÙĩØ§
ĠØµØ¨Ø± ÙĬÙĨØ©
ĠÙħØ¯Ø± ØªØ´
ĠØ³Ø· ØŃ
ĠØ§ÙĦØŃÙĪ Ø§ÙĬØ¬
ĠØ§Ø®ØªØ± Øª
ĠÙħÙĨØ· ÙĤÙĬ
ĠÙĪØ§ÙĦØ§Ø± Ø§Ø¯Ø©
ĠØŃØ¯ÙĪ Ø«
ĠØ§ÙĦØ£Ø¨ÙĪ Ø§Ø¨
ÙĬØ§Ø¹ ÙħØ±ÙĬ
Ùħ ÙĪÙħ
Ùĥ ÙĪØ±Ø©
Ø¨ ÙĪØ¨
ĠÙħ ÙĤØ§ÙĪÙħØ©
Ø³ ÙĪÙħ
ĠÙģ ÙĥÙħ
ĠÙĦ Ø´ÙĬØ¡
Ø´ ÙĬØ´
Ø´ Ø§Ø¨Ø©
ðŁĺ ¬
ðŁĺ ĸ
ĠØ´ Ø¤ÙĪÙĨ
Ø« Ø§ÙĨÙĬ
ĠØ¬ Ø¯Ø©
ÙĥØ± ÙĪÙĨ
ĠØ§ÙĦÙĨ ÙħØ±
ĠØ§ÙĦØŃ ÙĪØª
ĠØ§Ø³ ÙħØ§
ĠÙĥÙĬ ÙĦÙĪ
ĠÙĦÙĦ ØŃÙĤ
ĠØªØŃ Ø±Ø´
Ø¯Ø§ ÙĤÙĬØ©
ĠØ§Ø® ÙĪØ§ÙĨ
ĠÙĪÙĨ Ø±ÙĪØŃ
ĠØ§Ø¨ Ø§Ø±Ùĥ
ÙĬØª ÙĥÙħ
ĠÙģØ§ÙĦ Ø®
Ġf ou
ĠÙĦÙĪ ØŃØ©
ĠØ§Ùĥ Øª
ĠÙĪØ³ ÙĦ
Ġ4 1
ĠÙĬÙĤ ÙĪÙħÙĪÙĨ
ĠØ£Øµ ØºØ±
ĠØ±ÙĬ ÙģÙĥ
ĠÙģÙĦ ÙģÙĬØ¯ÙĬÙĪ
Ø°Ø± Ø§
ĠØ±ØŃ Ø§Ø¨
ĠØ¨Ø§ ÙĤØ©
Ø±ÙĬØ³ ØªÙĬ
ĠÙĪØ§ÙĦÙħØ± Ø§Ø¯
Ġmon de
Ġwah ed
ĠØ§ÙĦØ¹Ø¬ ÙĬÙĨØ©
ĠØ§ÙĦØªÙĩ Ø°ÙĬØ¨
ĠÙĩÙĨÙĬ Ø¦Ø§
H ad
ĠÙĪ Ø²ÙĬØ§Ø¯Ø©
ĠÙĨ Ø¨ÙĤÙī
ĠÙĤ Ø±Ø©
ĠØ´ ÙĪØ§ÙĦ
Ø§Ø¨ ÙĩÙħ
ĠØ® ÙĪÙĬ
ĠØ¹ÙĦÙĬ Ø©
ĠÙĦÙĬ Ø¨Ø±
ÙĥØ± ÙħØ©
ĠØ§ÙĦØ³ ÙĥÙĪÙĨ
ĠÙĦÙħ Ø¹Ø¯ÙĦ
ĠÙĬÙĨ Ø§ÙĦ
ĠÙĪØ§ØŃ ÙģØ¸
ÙĪØ³ Ùī
ĠØªÙĤ ÙĨÙĬØ©
ĠØ¹Ùħ ÙĬØ±
ĠÙĪÙĥ ÙĨØ§
ĠÙĦØ£ Ø¬
ĠØªØµ Ø¯Ø±
ĠØ¯Ø¹ÙĪ ØªÙĩ
ĠØŃÙĤ ÙĤØª
ÙħØ´ ÙĥÙĦ
ĠØ¯ÙĪ Ø§Ùħ
ĠØ³ÙĦ Ø¨ÙĬ
ÙĦÙĬÙĩ Ø´
ĠØ§ÙĦØªØµ ÙħÙĬÙħ
ĠÙĪØ§ÙĦÙĦ ÙģØ¸
r d
ĠÙĪ ØªÙĪÙģÙĬÙĤ
ĠÙĦ Ø³ÙĬ
ĠØ³ Ø¯Ø¯
ĠØ¹ÙĨ Ø§ØµØ±
Ø¹Ø¯ ÙĪØ§
ĠØ§ÙĦØ´ Ø¯Ø©
ĠÙĦÙĦ Ø¯Ø±Ø§Ø³Ø©
ĠØ§Ùħ Ø§ÙĨÙĬ
ĠØ¶ Ùħ
ÙĩØ± Øª
ÙĤØ· Ø¹Øª
ĠÙĦÙĪ Ø®Ø±ÙĬÙĨ
ĠØ§Ø¹ Ø¸Ùħ
is on
ĠØ§ÙĦÙĦ Ø§Ø²ÙħØ©
Ø§ÙĦØŃ Ø§Ø¬Ø©
Ġ4 00
ÙĩÙĪ Ùī
Ġg et
ĠØµØ§ØŃ Ø¨Ùĥ
ĠØ£Øª Ø°ÙĥØ±
ĠØ§ÙĦÙĪØ± ÙĤ
ĠØ§ÙĦØªØ¹ÙĦÙĬÙħ ÙĬØ©
ĠØ§ÙĦÙĩÙħ Ø©
ĠÙĪÙĨØŃÙĪ ÙĩØ§
ĠØ¨ØŃØ« Øª
ĠÙĪØ§ÙĦØ¹ÙĦÙħ Ø§Ø¡
ĠÙĪØ±ØŃÙħ ØªÙĩ
ĠØ§ÙĦØ¥ÙĨØª Ø±ÙĨØª
ĠØ§ÙĦØ°Ø§Øª ÙĬØ©
ĠÙĨØ¨Ø¹Ø« ÙĦÙĥ
A h
B a
Ø§ Ùī
Ùĩ ÙĬØ±
Øª ÙĤÙĪÙĦ
ĠÙħ Ø¨Ø¯Ø£
ĠØ¨ ØµØ±Ùĩ
ĠØ± Ø§ÙĨ
ĠØ§ÙĦÙħ ØŃÙĬ
ÙĦÙħ ÙĪ
ĠØ¯ ÙħØ§Ø¡
Øº Ø±Ø©
ĠØªØŃ Ø¶
ĠØ§ÙĦØµ Ø§Ø¦Ùħ
Ġl ol
ĠØ§Ø® ØªØ¨Ø§Ø±Ø§Øª
Ø¯ÙĬØ± ÙĬÙĨØ§
ĠÙĪØ± Ø§ÙĩÙĬ
ĠÙģØ§ÙĦ ÙħÙĨ
ĠÙħØ± ØªÙĥ
ĠØ¯ÙĬØ± ÙĩÙħ
ĠØ§ÙĦØº Ø§Ø¨Ø©
ĠØªÙĨ Ø¨ÙĬÙĩ
li l
ĠØ¹Ùħ Ø±Ø©
ĠÙģØ± Ø¹
Ġ4 2
ĠØ§ÙĦÙħØ´ ØªØ±Ùĥ
ĠØ±Ø¬ Ø¹ÙĪ
ĠØ¬ÙĨ ÙĬØ©
ĠØ§ÙĦØ§Ø³Øª Ø¯Ø¹Ø§Ø¡
Ø³ÙĦ ØŃØ©
ĠØ§ÙĦØ¹ÙĤ Ø§Ø¦Ø¯
Ø§ÙĦØ³ ÙĬØ¯
ĠÙĪØ§ÙĦØ± Ø³ÙĪÙĦ
ĠØ±Ø²ÙĤ Ùĩ
ĠØ§ÙĦØ°ÙĥØ± Ùī
ĠØ§ÙĦÙĪÙĤ ÙĪØ¹
Ø¬Ø±Ø¨ ØªÙĩØ§
ĠÙħØ®ÙĬ ÙģØ©
ĠÙħØŃØ° ÙĪÙģ
- ØĮ
A T
R EDX
ĠØ¨ ÙĦÙĥ
ĠÙĬ ÙħÙĬØ²
ĠÙĬ ÙĩÙĪØ¯ÙĬ
Ø§ÙĨ ÙģÙĥ
ĠØ£ Ø¹ÙĪØ¯
ĠÙĥ ÙĪØ¨
Ø§Ø± ÙĪØ§ØŃÙĬ
ĠÙĪØ§ÙĦ ÙĤØ±
Ø§Ùĥ ÙĪ
ĠØ¨Ø§ÙĦ ÙĪÙĨ
ĠÙħØ¹ ÙħØ±Ø©
ĠØ§ÙĦØ£ Ø·Ø¨Ø§Ø¡
ĠØªØ¹ ÙĬØ¯
ĠØ§ÙĦØ¨ Ø«
ĠÙĦÙĦ Ø¯ÙĬÙĨ
ĠØ¨ÙĨ Ùī
ĠÙĦÙħ Ø«ÙĦ
ra y
ĠØªØ¬ ÙĬÙĨÙĬ
ĠØ§Ø± ØªÙģØ§Ø¹
Ġc es
ĠØ§Ø¹ Ø¯
ĠØªØ´ Ø§ÙĩØ¯
li ya
ĠØ§ÙĦÙħØ± ØªØ¨Ø©
ĠØ§Ø´ ÙģÙĬ
ÙĤØµ Ùĩ
Ġra p
ĠØªØµ Ø±ÙĬØŃ
ĠØ§ÙĦØ§Ø¹ ØªÙħØ§Ø¯
ĠØ§ÙĦØ§Ø¨ ÙĨ
ĠÙħØº Ø±Ø¨
ĠÙĪØ§ÙĦØ¥ ØŃØ³Ø§ÙĨ
ĠØ§ÙĦØªØŃ ÙĤÙĬÙĤ
Ø§Ø¤ ÙĨØ§
33 33
ĠÙħØ´Ø§Ø¡ Ø§ÙĦÙĦÙĩ
Ø¯Ø® ÙĪÙĦ
ÙĬÙĪ Ø¯ÙĬ
ĠØªÙĬÙĥ ØªÙĪÙĥ
Ġdire ct
ĠÃª tes
i f
Ø§ ÙĪØ±Ø©
ĠÙħ Ø±Ø¬
ĠÙģ Ø³Øª
ĠÙģ ÙĪØ¬Ø¯
ĠÙģ ØµØ§Ø±
ĠØ¹ Ø§ÙģÙĬØ©
Ø® ØªØ§Ø±
ĠØ§ÙĦÙħ ÙĥÙĨ
ĠÙĪØ§ÙĦ Ø®ÙĪÙģ
Øº ÙĦÙĤ
ĠØ§ÙĨ ØªØ¨
ĠØ§ÙĦØŃ ØªÙħÙĬØ©
ĠÙħØ§ ÙĤØ§ÙĦ
ĠØ§ÙĦØ¨ ÙĪØ§ÙĤÙĬ
ÙĨØª Ø¸Ø±
ĠÙĩØ° ÙĬÙĨ
ĠÙĪØ± Ø¶
Ġs pe
la n
ĠÙģØ§ÙĦ Ø§ÙĨ
ĠðŁ¤ ®
ĠØ§ÙĦÙħÙĪ Ø¹Ø¯
ĠØªØ´ ØºÙĬÙĦ
ĠØ¨Ùħ ØŃ
ĠØªÙģ Ø§Ø¹ÙĦ
il s
ĠØ§ÙĦØ³ÙĬ Ø§ØŃØ©
ĠÙĬØ£ Ø°ÙĨ
ĠÙĨØ¹Ø±Ùģ ÙĩÙħ
ĠÙĪØ§ÙĦØŃ Ø§ÙĥÙħ
ĠÙĬØªÙħ ÙĥÙĨ
ĠØªÙĬ ÙĪØ¨
ĠÙģØ· ÙĨØª
ĠÙĬØŃÙħ ÙĬÙĥ
ĠÙĪØ¬ÙĪÙĩ ÙĩÙħ
Ø«Ø§ÙĨ ÙĪÙĬØ©
Ø£Ø³Øª ØºÙģØ±
ĠØ§ÙĦØ§ØŃØªÙĬ Ø§Ø¬Ø§Øª
ĠØ§ÙĦÙģØ§ÙĬ Ø³Ø¨ÙĪÙĥ
Y ak
Ùħ Ø§ÙĨÙĬ
ĠØ§ÙĦ Ø¯ÙĬÙĥ
Ø¯ ÙĤØ©
ĠÙħ Ø§Øº
ĠØ¨ Ø§ÙĤ
ĠÙĬ Ø§ÙħØ§Øª
Ø´ Ùĩ
ĠÙĨ Ø¯ÙĪÙĩ
ĠØ¬ Ø¦
ĠØ§ÙĦØ£ ÙĩÙĦ
ĠØ§ÙĦØ³ ÙĬØ§ÙĤ
ĠØ§ÙĦÙĤ Ø·Ø¨
Ø±ÙĪ ØŃØ©
Ø±ÙĪ Ø³Ø©
ĠØ£ÙĪ Øµ
ha a
ĠÙĪØ¬ Ø§ÙħÙĬ
ĠÙĬÙĨ Øµ
ĠØ£Ùħ Ø§ÙħØ©
ĠØ§Ø¹ ØªÙħØ¯
ĠØ³ÙĬ ÙĬ
ĠØ³ÙĬ Ø§Ø±
ĠØ§ÙĦØ¹ÙĦÙħ Ø©
al est
ÙĪØµ Ùģ
ĠØ§ÙĦØ´ÙĬ ÙĪØ®
ĠÙĨÙĪØ± ØªÙĬ
ĠÙĤÙĪÙĦ Øª
ĠØªÙĩ ØªÙħ
Ø¶ÙĪ Ø¹Ø©
ĠØ§ÙĦÙħØµ ÙĬØ±
ĠðŁĻĤ ðŁĺĤ
ĠÙħÙĨØª Ø¬
ĠØ´Ø§Ùģ ÙĪ
ĠÙĪØ§ÙĦØ¬ Ø²Ø§Ø¦Ø±
ĠÙĪØ« ÙĤ
ĠØ¨Ø§Øº ÙĬØ§
ĠØ§ÙĦÙĦØŃ ÙĬØ©
ĠØ¹Ø¬Ø¨ ÙĪÙĨÙĬ
ĠØ³ÙĬØ¦ Ø§ØªÙĩ
ĠØ§ÙĦÙħØ¤Ø±Ø® ÙĬÙĨ
ĠYou Tube
ĠØ§ÙĦØ´Ùģ Ø§Ø¹Ø©
Ġ**************** ****************
ÙĬÙĥÙĪ ÙĪØ±
ĠÙħÙģÙĩ ÙĪÙħØ©
t out
Ø§ÙĦ ØªÙĪ
ĠÙģ ÙĪØ§ÙĦÙĦÙĩ
ĠÙĬ Ø®ÙĦØ§Øµ
ĠØ£ ÙĦØ³
ĠØ± Ø§ÙĤ
ĠØ´ ÙĬØ¨
ĠÙĪØ§ÙĦ ÙģØª
Ø¯ÙĬ Ø³
ĠØ§ÙĦØ¬ ÙĪØ¹
ÙĬØ¯ ÙĨØ§
ĠØº ÙģÙĦØ©
ÙģØ± Øª
ĠØ§ÙĦØµ Ø¹Ø¨
Ø¨ÙĦ ÙĪÙħ
Ø¹Ùħ ÙĤ
Ø³ÙĨ ÙĨ
ðŁ¤ ¬
ĠØ§ÙĦÙĤØ± ÙĪÙĨ
ĠÙģØ£ ÙĬÙĨ
ĠØ§ÙĦÙħØ¹ Ø§ØµØ±
ÙĤØµ ÙĬØ±
ĠØ¬ÙĨ ÙĪØ¯
ĠØ§Øµ Ø¯ÙĤØ§Ø¡
Ġwa la
ĠØªÙĤØ¯Ùħ ÙĩØ§
ĠÙĪØ§ÙĦØ« Ø§ÙĦØ«
ĠÙħØªØ§Ø¨Ø¹ Ùĥ
ĠØªØºÙĬØ± Øª
ĠÙģØ§Ø¹ ÙĦÙħ
ĠØ§ÙĦÙĥØ§ÙģØ± ÙĪÙĨ
Ø§Ø¬Ùħ Ø§Ø¹Ø©
Ġbd it
ĠØ§ÙĦØ¹Ø§Ø±Ùģ ÙĬÙĨ
ĠÙĦØ¦ ÙĦØ§
c u
ĠØ§ÙĦ Ø¶ÙĦØ§ÙĦ
Ø¨ Ø§Ø°ÙĨ
Ø³ Ø¨ÙĬ
ĠÙĬ ÙģØ³Ø¯
Ø§ÙĨ Ø§Ø©
ĠØª Ø¸
ĠØª Ø±ÙĪ
ĠØª Ø·ÙĬØŃ
ĠØ£ ØªÙĬØª
ĠÙĥ ØŃÙĦØ©
ĠØ± Ø²
ĠÙĩ ØªÙĩ
Ø§Ø¨ ÙĬØ¹
ĠØ® Ø²ÙĬÙħØ©
ĠØ§ÙĦØ³ ÙĦÙħ
ĠØ§ÙĦØ¬ ÙĪØ§Ø±
ĠðŁĺ °
ĠÙĪØª Ø²ÙĬØ¯
ĠÙĦÙĩ ÙĪ
ĠØ§ÙĦØ· Ø§Ø¨Ø¹
ĠØ§ÙĦØ« ÙĨØ§Ø¡
ĠÙħØ³ Ø§Ø±
ĠÙĬØ³ ÙĥÙĨÙĩØ§
ĠÙĪØµ Ø§ØŃØ¨
Ú¨ Ø§Ø¹
ĠØ§Ùĩ ÙĦÙĥ
ĠØµØ± Ø§ÙĪ
ĠÙħØ¨ ÙĨÙĬØ©
ĠØ§ÙĦØ¸ Ø±Ùģ
ĠØ§ÙĦØ¸ Ø§ÙĦÙħ
Ġ0 9
ÙĬØ±ÙĬ Ø¬
ĠØ§ÙĦØ§ÙĪ Ø§Ø¦ÙĦ
ĠÙģÙĪ Ø·ÙĪ
ĠÙĪØ§ÙĦÙģ ÙĥØ±
ĠÙĪØ§ÙĦØ¢ Ø®Ø±
ĠØŃØ¶ ÙĪØ±Ùĥ
ĠØ§ÙĦØŃØ³ ÙĨÙĬ
ĠØµØŃØ± Ø§Ø¡
ÙĦ Ø£
ĠÙĪ Ø¶Ø±Ø¨
ĠÙħ Ø§Ø±Ùĥ
ĠÙħ ÙĥÙĬ
ĠÙħ Ø·Ø±
ĠÙĦ Ø§Øº
Ø° ÙĪÙĤ
ĠØ® Øª
ĠØº Ø§Ø¦Ø¨
Ø¤ Ùĩ
Ø¥ÙĨ ÙħØ§
ÙĤÙĪ Ø§ÙĨÙĬÙĨ
ĠØ£Ùħ Ø«ÙĦØ©
ĠÙħÙĥ Ø§Ø±Ùħ
ĠØ£Ø± Ø§Ùĩ
ĠØŃÙħ Ø¯Ø§
ĠØªØ£ ÙĥØ¯
âľ Ķï¸ı
ĠÙĪØ§ÙĦØŃ Ø²ÙĨ
ØªØ¯ Ø§ÙĦ
ĠÙĨØ¬ØŃ ØªÙĬ
ĠØ¯Ø¹ Ø§Ø¦ÙĥÙħ
ĠØ¨Ø£Ø³ ÙĦÙĪØ¨
ĠØ¨Ø§ÙĨØª ÙĦÙĬ
Ġkay n
ĠØ¬ÙĬÙĩ Ø©
Ġome gle
ĠØªÙĬØ¨ Ø§Ø²Ø©
s m
Ø§ÙĦ ØµØŃ
Ø§ÙĦ ÙģØ§Øª
Ø± ÙĪØ§
Øª ÙĤÙĬ
Øª Ø±ÙĥØ©
ĠÙĪ ÙĦØ§Ùħ
Øµ ÙĪÙĨ
Ø® Ø±Ùģ
ĠÙħÙĨ Ø§Ø´
ĠÙħÙĨ Ø´ÙĪÙģ
Ø§Ø± ÙĤØ©
ĠØ§ÙĦÙħ ÙĦØª
ðŁĺ Ł
ĠØ¥ ØŃØ³
ĠØ¨ÙĦ Ø§Ø¡
ĠÙĪØ¨ ÙĤÙĬ
ĠÙħØ³ ØŃÙĪØ±
ĠØ²ÙĪØ¬ Ùĩ
ĠÙĩÙħ ÙĪÙħ
ÙĢ ÙĬ
ĠÙħØ¯ ØŃ
ĠÙĨÙĪØ¹ ÙĬØ©
ĠØ£ÙĦÙģ Ø§Ø¸
ĠØ¬Ø§ÙĬ ØŃ
Ġcont en
ĠÙĨØŃÙģØ¸ ÙĪ
ĠÙħØ¯ÙĬØ± ÙĬØ©
ĠØ¨Ø¯Ø± Ø§ÙĩÙħ
k m
y o
ĠÙĪ Ø¹ÙĦ
ĠØ¹ Ø¬ÙĬØ¨
ĠÙĬ Ø§Ø¬
ĠÙĬ Ø±ÙĪÙĬ
ĠØª Ø¸ÙĨ
ĠÙĨ Ø¯Ø±Ø³
ĠØ¬ Ø³Ø¯
ĠØ§ÙĦØª Ø§Ø¨Ø¹Ø©
ĠØ§ÙĦØª Ø®ÙĦØµ
ĠØ§ÙĦØª ÙĪÙĤÙģ
ĠØ§ÙĦÙĤ ÙĦ
Ø¨Ø± Øª
ĠØº Ø§ÙĨ
ĠØ§ÙĦÙĥ Øª
ĠØªØŃ ÙģÙĬØ²
Ø§Ø· ÙģØ§ÙĦ
ĠÙĪØŃ Ø§ÙĪÙĦ
ĠÙħØª ÙħÙĬØ²
ĠØ§ÙĦØ· ÙĪÙĬÙĦØ©
ra tion
Ø¨Øª ÙĩÙħ
Ø¨Ø¹ Ùĩ
ĠÙĬØŃÙģØ¸ ÙĩÙħ
ĠØ¨Ùĥ Ø§Ø¡
ĠÙĬØ® ÙĦÙĪ
Ã© o
ĠØªØ³ Ø§ÙĪÙĬ
ÙħÙĬÙĨ Ø©
Ø¬Ø¨ Ø§ÙĦ
le d
ĠÙĬÙĩ ÙĪØ¯
ĠØ§ÙĦÙħØŃ Ø§ÙģØ¸Ø©
ĠÙĬÙĥ ÙģÙĬÙĨÙĬ
ĠÙĨÙĤØ¯Ø± Ø´
ĠÙħÙĪØ± Ø§Ùĩ
ĠØ§ÙĦØªØ´ ØºÙĬÙĦ
ja z
Ġhad o
ĠØ³ÙĦÙĬ ÙħØ©
Ġhe re
Dir lna
Ġgra nd
ĠÙĥÙĪÙħ Ø¨ÙĦÙĬ
K ho
R E
h d
v re
Ù ª
Û £
ĠÙĪ Ø°ÙĩØ¨
Ø¨ ÙĦØ©
Ø¹ ÙĦØ¨
ĠÙħ ØºÙģØ±Ø©
ĠØ± Ø§Ùħ
Ø® Ø¯
ĠØ³ ÙħØ§ÙĨ
ĠØ¥ Ø±Ø§Ø¯Ø©
ĠØ¨Ø§ÙĦ ÙĦ
ĠØ¨Ø§ÙĦ ØªÙĬ
Ø³Øª ÙĪØ±
Ġ- ----------------
Ø¤ ÙĩØ§
ĠØ§ÙĦØ¥ Ø¨ÙĦ
ĠØ¨ÙĨ ÙģØ³ÙĬ
ĠØ¥ÙĨ ÙĨØ§
Ġb en
ĠÙĬÙĨ Ø·Ø¨ÙĤ
ĠØ§ÙĦØªÙĬ ÙĦÙĬÙģÙĪÙĨ
ĠÙĬØ± ÙħØ²
Ø¨ÙĪ ÙĥÙħ
ĠÙĤØ¯ Ø§ÙħØ©
ĠÙĨØŃØ¨ ÙĩÙħ
ÙĦÙĬÙĨ Ø§Ø´
ĠØªÙģ ÙĪÙĤ
Ø¨Ø§Ø¨ Ø§
ĠØ§ÙĦÙħØŃ Ø³ÙĨÙĬÙĨ
ĠÙĪØ§ÙĦØª Ø§Ø±ÙĬØ®
ĠØ¨Ø¥ ØŃØ³Ø§ÙĨ
ĠØŃÙħ ÙĦØª
ÙģÙĩ Ø§Ø¡
ĠÙĨØ¹Ùħ Ùĩ
ĠÙĨØªÙģØ±Ø¬ Ùĥ
ĠÙĤØª ÙĦÙĩÙħ
ĠØ§ÙĦØªØŃ Ø±ÙĬÙħ
ĠÙħÙģ Ø§Ø¬
ĠÙħØ±Ø¶ ÙĬØ©
ĠÙģÙĩ Ø§Ø°
ĠÙģØ´ ÙĦ
ĠÙĪØ§ÙĦÙħØ± Ø£Ø©
ĠÙĨØ²ÙĬØ¯ ÙĪ
ĠÙĪÙĬÙĨØ¬ØŃ ÙĥÙħ
ĠØ£Ø¹Øª Ø°Ø±
1 99
ÙĦ Ø®Øµ
Ø§ÙĦ Ø§Ø³Øª
Ø§Ø ¢
ÙĪ ÙĪÙĨ
ÙĪ Ø§ÙĦÙħ
Øª Ø²ÙĪØ¬
ĠÙĦ ØµØŃ
ĠØª ÙĤÙĪÙī
ÙĦÙĬ Øº
ĠØ¬ ÙĬÙĨØ§
Ø¸ ÙĪØ±
Ø¯Ø± ØªØ´
Ø¹ÙĪ Ùĥ
ĠÙĪÙĬ ØªØŃ
ĠØ² Ø±ÙĪ
ĠÙĪØª Ø¹Ø±Ùģ
ĠÙĪØª Ø°ÙĥØ±
ÙĬÙĥ Ø³
Ø¹Ùħ ÙĦØ©
ĠÙħØª Ø®ÙĦ
ÙĪÙĬ Ø¶
ra w
ĠØ®ÙĬØ± Øª
ĠØ¨Ø¹Ø¯ Ø¯
ÙģØ¶ ÙĬ
ĠÙħØŃ Ø§Ø±Ø¨
Ġy kha
ØºÙĬØ± Ùĩ
Ø§ÙĦØŃ ÙĤ
ĠØ£Ø³ Ø¦ÙĦØªÙĥ
Ø·ÙĦ Ø§Ø¨
ĠÙĬØ³Øª ÙģØ§Ø¯
Ø¶Ø¹ ÙģØ§Ø¡
ĠÙĬÙĥ Ø´Ùģ
ĠðŁĺŃ ðŁĺĤ
ĠÙĪØ· ÙĨÙĩ
ÙĪØ¶ ØŃ
Ġthe y
ĠÙħØ§Ø¹ ÙĦÙĬØ´
ĠÙĨÙĥ Ø§ØŃ
ĠØ¨Ø§ÙĦØ¹ ÙĤÙĦ
ĠÙħØ¹ÙĦÙĪÙħ Ø§ØªÙĥ
ĠÙĬØªØ¹ Ø±Ø¶
ĠØªØ®ÙĦ Ø·Øª
ĠØªØ¶ ÙħÙĨ
ĠØ¨ÙĦØ§Øµ ØªÙĬ
ĠØ§ÙĦØ«Ø§ÙĨ ÙĪÙĬ
ĠÙħØ±Ùģ ÙĪØ¹Ø§
S alam
a j
Ë Ĩ
Øª Ø¹Ø¨
ÙĤ Ø¹Ø¯
ĠÙĬ Ø§ÙĪØ¯ÙĬ
Ø¬ Ø¬
ĠØª ÙĦÙĩ
ĠÙĨ Ø®ÙĦ
ĠØ§ÙĦÙħ ØªØ±Ø´
Ø§ÙĬ ÙģØ©
Ø§Ø´ ÙĤ
Ø§Ø¬ ØŃ
ĠÙħØ§ ÙĬØ±
ĠØ§ÙĦÙĥ ÙĪØ§ÙĥØ¨
ĠØ² Ø§ÙĪØ¬
ĠÙĨØª Ùħ
ÙĪØ¹ Ø¨
ĠÙħØª Ø¬
ĠØ§ÙĦØ· Ø±ÙģÙĬÙĨ
ĠØ§ÙĦØ· Ø§ÙĤÙħ
ĠØ¨ÙĦ Ø®Ùģ
ĠØ¶ Ø§Ø¹
in d
Ġs in
ĠØ£Ø® Ø§Ùĩ
ĠØ±Ø¨ Ùī
ĠØªØ¬ Ø¨
ĠØ§Ø¹ ÙĪØ¯
ĠÙħØ¬ Ø§ÙĨÙĬØ©
ĠØ¯Ø± Ø§Ø³ØªÙĩ
Ġh bi
Ġh ist
ĠØ£Ø³ Ø¦
Ø¹ÙĪÙĨ Ø©
ĠØŃØ± ÙħØ©
ĠÙĪØ§ÙĦØŃ ÙĤÙĬÙĤØ©
ØªØ¯ ÙĪÙĨ
ĠÙĦØº ÙĪÙĬ
ĠØ§ÙĦØªØŃ Ø°ÙĬØ±
ĠØ²ÙĬ Ø§Ø¯
ĠØ¨ÙĬØª ÙĩØ§
ĠØ£Ø®Ø¨Ø± ÙĨÙĬ
ĠÙĬÙģØ±Ø¬ ÙĩØ§
ĠÙĬØ§ÙĦ Ø·ÙĬÙģ
ĠØ¨ÙĦØ¯ Ø§ÙĨ
Ø«ÙĤ Ø§ÙģØ©
ĠØªØ¬Ø±Ø¨ ØªÙĥ
Ã® ne
ĠÙĪÙĨÙĨØ¬ØŃ ÙĪ
ĠØ§ÙĦØ±Ø´ ÙĬØ¯
ĠRe da
ĠØ¨ÙĦØ§Øº ØªÙĩØ§
o wa
ÙĨ Ø«
ĠÙħ Ø§Ø¯ÙĬ
ĠØ¨ Ø³Øª
ĠÙĨ Ø¨Ø¯ÙĦ
ÙĬØ± ÙĬÙĨ
ĠØ´ Ø¬Ø±
ÙĨØª Ø§Ø±
Ġ... ØŁØŁ
ĠØºÙĬØ± Øª
ĠÙĪØŃ Ø°Ùģ
Ø¹ÙĬ ÙĦ
re nd
ĠØ£Ø® ÙĪ
ĠÙģØ§ÙĦ Ø§Ø¯Ø¨
ĠðŁ¤ Ń
ĠÙĥÙĬÙģ ÙĪ
ĠÙĪØ´ ÙĥÙĪÙĨ
Ġp ri
ĠØªÙĤ Ùģ
ĠØ¨Ø¯ Ø¹ÙĪ
ĠØªØ® Ø¯ÙħÙĬ
ĠØ§ÙĦÙħØ³Øª ÙĤØ¨
ĠØ³ÙĪ Ø§Ùĥ
ĠÙĦÙĤ ÙĨ
ĠØ§ÙĦÙħØ® Ø§ÙĦÙģ
ĠØ¨ÙĤ ÙĦØ¨
ĠÙħØ±Øª ÙģØ¹
ĠØ§ÙĦØªÙĥ Ø¨ÙĬØ±
ĠÙĬØ¶ØŃÙĥ ÙĪ
ĠÙĬØŃÙħ ÙĬ
ĠØ£Ø³Ø± Ø§Ø±
ĠÙĦØ§Ùĥ ÙĪØ³Øª
ĠÙĦÙģØ± ÙĨØ³Ø§
ĠØºØ§Ø¶ ÙĨÙĬ
Re bi
ÙĦ Ø¯
ÙĬ Ø¬
Ø± Ø§ÙĩØ§
ĠÙħ ÙħØ§Ø±Ø³Ø©
ĠØ¨ ØªØ´
ĠØ¨ Ø¸ÙĩØ±
ĠÙĦ Ø¹Ø±
ĠÙĦ Ø®Ø±Ø©
ĠØª Ø¨ÙĤ
ĠØ£ Ø¹Ø±Ø§Ø¶
ÙĪÙĨ ÙĨØ§
Ø±ÙĬ ÙĤÙĬØ§
ĠØ§ÙĦÙĨ Ø·ÙĤ
ĠØ§ÙĦØ´ Ø¹Ø¨Ø©
ĠØ° ÙĩÙĨ
ĠØ§ÙĦÙĥ Ø§Ø³
Ġl l
ĠØ§Ø® Ø·
ĠÙĨØª ÙĦØ§ÙĤØ§
ĠÙĪÙĦ Ø³Øª
Ġb ou
ÙĬØ® ÙĪ
ĠÙĪØ¹ Ø²
ĠÙħÙĪ Ø§ÙģÙĤ
ĠØªØ¬ Ø¯ÙĬÙĨ
ĠÙĪÙģ Ùī
ĠØ¹ÙĦ Ø¦
ĠØ¬ÙĨ Ø¨
ĠØ§ÙĦÙĦÙĬ Ø§ÙĦÙĬ
ĠØºØ§ÙĦ Ø·ÙĬÙĨ
ĠØ§ÙĦØ§Ø´ Ø§Ø±Ø©
Ø±Ùĩ Ø§Ø¨
ĠÙĥØ£ÙĨ Ùĥ
Ġpr Ã©
ĠØ§ÙĦÙĤÙĪÙħ ÙĬØ©
ĠÙĤØ¶ ÙĬØª
ĠÙģØ§ÙĦØ¹ Ø§ÙĦÙħ
ĠÙĪØ§Ø±Ø²ÙĤ ÙĨØ§
ĠØ£ Ø¸
ĠØ£ Ø¹ÙħÙĦ
ĠØ£ Ø¨ÙĦØº
Øµ ÙĦØ§
ĠØ¥ ÙĦÙĥ
ĠØ¥ Ø¬ØªÙħØ§Ø¹
ĠØ® Ø³
ĠØ§ÙĦØ³ Ø¹
ĠÙĦÙĦ ØŃÙĬØ§Ø©
Ø§Øµ Ø±ÙĬÙĨ
ØªÙħ ÙĪÙĩ
Ġa y
ĠÙĬÙĨ Ø§Ø¯ÙĬ
ĠÙĦÙĥ Ø¨ÙĬØ±
ĠÙĪØ¨ ÙĦØ§
Ø·ÙĬ ÙģØ©
Ø§ÙĬÙĨ Ø©
ĠÙĨØ³ ÙĨØ§ÙĪ
ĠÙĬØ¯ Ø§ÙģØ¹
ĠØ¨Ø§ÙĦÙħ Ø¯ÙĬÙĨØ©
ĠØ§ÙĦÙħØ¹ Ø³ÙĥØ±
ØºØ± Ø³
ĠØ§ÙĦÙħØŃ ÙĥÙħØ©
ĠÙĬØ¯ÙĬØ± ÙĩØ§
qu i
ĠðŁĳ ĭ
ĠØ³Ø¨ Ø£
ĠØ§ÙĦØ§ÙĪ ÙĤØ§Øª
Ġ200 9
ĠÙĨØ¨ÙĬ Ùĥ
ĠðŁ¥² ðŁĴĶ
ĠÙĥØ±Ùĩ ÙĨØ§
ĠØ¨ÙĦÙĪ Øº
ĠÙĬØŃÙģ Ø¯Ùĥ
Ġ________________ ________________
ĠØ§ÙĦØ²Ø¹ ÙĬÙħ
ĠÙĪØ£Ø¯Ø® ÙĦÙĩ
ĠØ±ÙĬÙģÙĥ Ø§
t al
Ø¨ ÙĪÙĨÙĬ
ĠÙħ ÙĥÙĪÙĨ
ĠÙħ ÙĤÙĪÙĦØ©
ĠÙĦ Ø´Ø±
ĠÙĬ ÙĤÙĬ
ĠØ³ ÙĨØª
ÙĦÙħ Ø³Ø§ÙĨ
ĠØ¬ ÙĬØ±Ø§ÙĨ
ĠØ¯ ÙĪØ¯
ĠØµ ÙĪØªÙĬ
Ø±Ùģ Ùĩ
ĠØ§Ø³Øª Ø´ÙĩØ¯
ĠØªØŃ Ø¶ÙĬØ±
ĠÙħØª ÙģØ±
ĠÙĪØ¨ Ø§Ø¨
ĠÙĪØ§ØŃ ÙĨØ§
Ġh i
Ġh el
ĠØ§ÙĦØ§Ø³ ÙĦÙĪØ¨
Ġ4 6
ĠÙĪØ§ÙĦØª Ø¹ÙĦÙĬÙħ
ĠØ£ÙĤ Ø§Ùħ
ĠÙģÙĪ Ø¨ÙĬØ§
ÙģÙĬÙĩ Ø´
Ø³Ø§Ø¡ ÙĦ
ĠÙħÙĬÙĦ Ø§Ø¯ÙĬ
ĠÙĨÙĦØ¹Ø¨ ÙĪ
ĠØ§ÙĦØ¨Øº ÙĪÙĬ
Ø§Ø³Ø§ÙĨ Øº
ĠÙħ ÙĪØ¯
ĠÙģ ÙĪØ§Øª
ĠÙĬ Ø±ÙģØ¶
ĠÙĬ Ø·ÙĦØ¹ÙĪ
Ø° Ø¨Ø©
ĠØ³ Ø§ÙĩÙĦÙĬÙĨ
ĠØ§ÙĦØ¹ ÙħÙĪØ¯ÙĬ
Ø§Ø¬ ØªÙĩØ§Ø¯
ĠØ§ÙĦØ³ Ø±ÙĬ
ĠØº ÙĨÙī
ĠðŁĺ «
Ø±ÙĪ Ø¯
ĠØ§ÙĦÙģ ØªÙĪ
ĠÙĨØª Ùģ
ðŁ¤ ·
ĠÙĬÙĨ Ø§Ø³Ø¨
ÙħÙĦ Ø§Ø¡
Ġn n
ĠØ§ÙĦØº ÙħÙĪØ¶
ÙĩÙĪ ÙħØ§
ĠÙģÙĩÙħ ÙĨÙĬ
ĠØ´Ùĩ ÙĬØ¯Ø§
ĠØ¨Ø¥ Ø³ÙĨØ§Ø¯
ĠØ§ÙĤ ÙĪÙħ
ĠØ¨Ø· ÙĦØ¨
ĠØªØ· Ø¨ÙĤ
ĠÙĤØª ÙĦÙĨØ§
us t
ĠÙĬØ§Ø® Ø°
ĠÙĪØ§ Ø§ÙĪ
ĠÙĬØ²ÙĬØ¯ Ùĥ
ØŃØ· Ø§Ø·
ĠØ±Ø´ ØŃ
ĠÙģØ§ÙĦØ¹ Ø±Ø¨ÙĬØ©
ĠÙĥØ° Ø¨Ø©
ĠØ¹Ø§Ùĥ Ùģ
f dak
¿ ½
â Ķ
ĠÙ Ģ
Ùĥ Ø§ÙĦÙĪØ±ÙĬØ§
ØŃ Ø§ÙĨ
Ø¬ ÙĩÙĪØ¯
Ø· Ø§ÙĨÙĬ
ĠØ§ÙĦÙħ Ø¨ÙĬÙĨ
ĠØ§ÙĦÙħ ØµÙĦØŃØ©
ĠØ¥ Ø¯Ø§
ĠØ¯ Ø¬Ø§Ø¬
ĠØ§ÙĦØ£ ÙĨØª
ĠØ§ÙĦØ³ Ø§Ø¦ÙĤ
ĠØ§ÙĦØ¨ Ø´Ø±ÙĬ
ÙĦÙĪ ÙĦÙĬ
ĠÙĦÙĦ ØªØ¹
ĠØ§ÙĦÙĪ ØŃØ´
ÙĪÙĬ ÙĩØ§
Ø¯ÙĬØ± ÙĪØ´
ĠÙĪØ¨ Ø¯ÙĬØª
ÙħÙĦ Ø§ØŃØ¸Ø©
ĠØ¨Ùĩ Ø¯
ĠØªÙĨ Ø¯Ùħ
ĠÙħØ§Øª ÙĪØ§
ĠÙħØ³Øª Ø¹Ø¯
ĠÙĦØ¹ ÙĨØ©
ĠØ±Ø£ ÙĬÙĨØ§
ĠØ¨ÙĪ Ø§ØŃØ¯
ĠØ²ÙĬØ¯ ÙĨØ§
ĠØ³ÙĦÙħ Øª
ĠÙĦÙĦØŃ Ø¯ÙĬØ«
ĠØ§ÙĦØªØ£ Ø´ÙĬØ±Ø©
ĠÙĦÙĦØ¥ ÙħØ§Ùħ
ĠØŃÙĦÙĪ ÙĬØ§Øª
ĠðŁĴª ðŁı»
ÙĪØ±ÙĪ Ø¨ÙĬ
ĠÙĨÙĩØ¯Ø± ÙĪ
Ġil s
ĠØ§Ø¨Ø¯ Ø§ÙĬ
ÙħØ³Øª ØŃÙĬÙĦ
ĠØ§ÙĦØ®Ùħ Ø³Ø©
ĠØ§ÙĦ Ø§ÙĥØª
Ø¨ ÙĤÙĬ
ĠÙħ ÙĩØ¯
ĠÙģ Ø¹ÙĦÙħ
Ø¬ ÙħÙĬ
Ø¬ ÙħÙĬÙĦ
ÙĦÙĬ ØŃ
ĠÙģÙĬ Ùħ
ĠÙĨ Ø·ÙĬØŃ
ĠÙĨ Ø®ÙĦØ·
Ø« ÙĨÙī
ĠØ¯ Ø¨
Ø§Ø¹ Ø¯Ùĩ
ĠØ§ÙĦØ£ ÙĨØ³
ĠØ§ÙĦØŃ ÙĬÙĨ
ĠØº Ø¨ÙĬ
ĠØ§ÙĦØ´ Ø§Ùģ
Ø±Ùģ ÙĤ
ĠÙĪÙĬ Ø°ÙĥØ±
ĠØ² ÙĪØ§ÙĦ
ĠÙĪØŃ Ø¨ÙĬØª
ĠÙĪØ¹ ÙĤ
Ø±Ø¬ Ø©
Ġn at
Ġc o
ĠÙĦÙĥÙĨ Ùĥ
ĠØ§Øª ÙģØ±Ø¬
ĠØ¸ ÙĦÙħØ§
ĠØ±Ø¬ Ø¹ÙĬ
ĠÙĪØ§ÙĦØ£ ØŃØ§Ø¯ÙĬØ«
ĠØ¨Ø¥ Ø³Ùħ
ĠÙħÙĩ Ø¨
ĠÙĨØ± ÙħØ§ÙĦ
ĠØªÙĦ ØŃÙĤÙĬ
ĠÙħÙĪØ± Ø§ÙĦ
ĠÙĪØ¢ ÙĦ
eo ple
si ble
ĠØ¨Ø§ÙĦØŃ Ø¯ÙĬØ«
ĠØ®Ø·Ø± Ø´
ĠØ¨ÙĬØ¯ Ùĥ
ĠØ§ÙĦØ£Øµ ØºØ±
ĠðŁĳı ðŁı»
ĠØ§ÙĦØ®Ø± Ø§Ø·ÙĬØ´
ĠØªÙĥÙĦÙħ Øª
ĠØ§ÙĦØ°ÙĩØ¨ ÙĬØ©
ĠØ§ÙĦØ£Ø¬ ÙĨØ¨ÙĬØ©
ĠØ¯Ø² Ø§ÙĬÙĥÙĪ
ĠØ§Ø³Ø· ÙĨØ¨ÙĪÙĦ
I T
c er
r s
ÙĪ Ø§Ø³
Ø± Ø§ØªÙĬ
Øª Ø³ÙĦ
ĠØ¨ ÙĥØ±Ø©
ĠØ¨ ØŃÙħØ¯Ùĩ
ĠÙĦ ØŃÙĪØ§ÙĬØ¬
ĠÙĬ ÙĤÙĪ
ĠØ£ ÙĦÙĤ
ÙĬÙĨ ÙĩÙħ
Ø£ Ø®Ø±Ø¬Ùĩ
Ø° Ø±ÙĬ
ĠØŃ ÙĪØ´
ĠØ¬ ÙĪÙĨ
ĠØ¬ ÙĦÙĬÙĦ
Ø§ÙĬ Ø¹Ø©
ĠØ£ÙĨ Ø³Ùī
ĠÙħØ¹ Ø´Ø±
ĠØ§ÙĦØ£ ÙĪÙĦÙĬÙĨ
Ø³Øª ÙĨÙĬ
ĠØ§ÙĦÙĤ ÙħØŃ
ĠØ§ÙĦØ± ØºØ¨Ø©
ĠÙĪÙĬ Ø¬ÙĬ
Ø¨Ø¯ ÙĪÙĨ
ĠØ§Ùħ ÙĦÙĥ
Ġb ch
ĠØ§ØŃ Ùħ
ti t
ĠØ¨Ùħ Ø§Ø¡
ĠØ§ÙĦØ§ÙĨ ØªÙĤ
ĠÙĤØ± Ø§ÙĪ
ĠØ§ÙĦÙħØ³ ÙĥÙĪÙĨØ©
ĠØ§ÙĦÙħØ¹ Ø§ÙħÙĦØ©
ĠÙģØª ÙĥÙĪÙĨ
ðŁĳ ĭ
ĠØ´Ø®Øµ ÙĬ
ĠÙĬØº ÙĦØ¨
ĠØ§ÙĦØ§Ø± Ø§Ø¯Ø©
ĠØ¬ÙĦ Ø¯
ĠØ¥Ø® ÙĪØ©
ĠðŁĻ Į
ĠÙĪØ§ÙĦØ« ÙĤ
ĠÙĪØ¬Ø¯ ÙĨØ§
ĠÙĪØ¨Ø¯ ÙĪÙĨ
ĠØ¨ÙĪØª ÙģÙĦÙĬÙĤØ©
i an
Ø§ Ø§ÙĦÙĦÙĩ
Ø§ÙĦ Ø¹Ø§Ùħ
Ùĩ Ø¯ÙĪ
ĠØ¨ ÙĪØªÙĬÙĨ
ĠÙģ ÙĤÙĦ
ĠÙĬ Ø¨Ø¹
ĠØŃ ØµØµ
ĠØ§ÙĦØŃ Ø§Ø±Ø©
ĠØ§Ø³ ÙĥÙĨ
Ġ- --------
ĠÙĪÙĬ Ùħ
ĠÙĪÙĬ ÙģØ±Ø¬
ĠÙĬØŃ Ø§ÙģØ¸
ĠØ§ÙĦØ¥ Ø¬Ø§Ø¨Ø§Øª
ĠØ§Ø® Ø·Ø§Ø¡
Ø¹Ùħ Ùĥ
Ġn challah
ĠðŁ¤ ¡
Ġy cha
ĠØ¯ÙĬØ± ÙĪØ§
ĠØ±Ø¨ Ø¹Ø©
ĠØ¨Ùĥ Ùī
ĠØ«Ùħ Ø§ÙĨÙĬØ©
ĠØªØª ÙħÙĬØ²
ĠØ§ÙĦÙħØ± Ø§Øª
ĠØªØ® ÙħÙħ
ĠÙĦÙĦÙħ Ø¹
Ġ5 4
it s
ĠØ¨Ø£ Ø³Ùħ
Ø³ÙĦ Ø§ØŃ
ĠÙĬØ¯ÙĬØ± ÙĪÙĩØ§
ĠÙĦÙĤ ÙĨØ§Ø©
ĠØ£Øª Ø±Ùĥ
ĠÙħØ±ØŃ Ø¨
ĠØ§ÙĦÙĨØ³ Ø®
ka ch
ĠÙĪÙħØ± Øª
ÙħØ² ÙĬØ§
ĠØ³Ø§Ùħ Ø¹
ĠÙģØ§ÙĨ Ø¸Ø±
ĠÙĪØ§ÙĦØ« Ø§ÙĨÙĬØ©
ĠØ§ÙĦØ£Øµ ÙĦÙĬØ©
Ø²ÙĬØ¯ÙĬ Ø´
ĠØ§ÙĦÙħØ³Ø¤ ÙĪÙĦ
ĠÙĬØ®Ø¨Ø· ÙĩØ§
ĠØ§ÙĦØ¥Ùħ Ø§Ø±Ø§Øª
Ġve dio
Ġly oum
ĠØ§ÙĦØµØºØ± Ùī
ĠRed x
7 4747
ÙĤ ÙĩÙħ
ĠØ¨ ØªÙĥ
ĠØ¥ ÙĦØ®
ĠØ£ÙĨ ØµØŃ
ÙģÙĬ Ø¹
ÙħÙĬ ÙħØ²
ĠØ§ÙĦÙģ ÙĪÙĤ
ĠÙĪÙĩ Ø§Ø°
ĠØ±ÙĪ Ø³ÙĬØ§
ĠØ¢ Ùĩ
ĠÙħØ± Ø§ØªØ¨
ĠÙĥÙĬÙģ Ùĩ
ĠØªØ¬ Ø§Ø±ÙĬ
ĠÙĬØŃÙģØ¸ ÙĪ
Ú¨ ÙĪ
Ú¨ Ø±Ø§Ùħ
ĠÙĪÙĦÙĥÙĨ ÙĩÙħ
ĠØ§ÙĦÙħØŃ Øª
Ø¶ØŃÙĥ Ø©
ĠØªÙĥ Ø§Ø¯
ĠÙĪÙĬØ± ÙģØ¹
ĠØ§ÙĦØ®Ø· ÙĬØ¨
ĠØªÙĩØ¯Ø± ÙĪ
ĠÙĦÙĦØ¬ ÙĨØ©
ĠÙĨØ¬Ø§ØŃ Ø§
ĠØ´Ø§Ø¨ Ø§
Ø§Ø®ÙĬ ÙĬØ±Ø§
ĠØ¨Ø¹Ø« Øª
ĠØ¬Ø¨ ØªÙĩØ§
ĠÛ ĸ
ĠÙħØ¹ÙĨØ¯ ÙĨØ§Ø´
haha haha
ĠÙĬÙĪØµ Ùģ
ĠØ¬ÙĪØ² Øª
l u
ĠÙĪ ÙĥØ±Ùĩ
ĠØ¹ Ø§Ø¨
ĠØ¹ Ø³ÙĥØ±ÙĬØ©
ĠÙĬ ÙĤÙĪÙĦÙĩØ§
ĠØ± Ø§Ø¹
ĠØŃ ÙĪÙĦÙĬ
ĠÙĪØ§ÙĦ Ø¯ÙĪ
ĠØ§ÙĦØ³ Ø§ØŃ
ĠØ§ÙĦØ¬ ÙĩØ§Øª
ĠØ§ÙĦØŃ Ø±ÙĪØ¨
ĠØ§ÙĦÙĤ Ø±Ø¨
ÙĤØ¯ ÙħÙĬÙĨ
ĠÙĪØª Ø§Ø±Ø©
ÙģØ³ ÙĥÙħ
ĠØ¨Ø² Ø²Ø§Ùģ
Ø§ÙĦÙĬ ØªÙĬ
ĠØ§ÙĦØ« Ø§ÙħÙĨØ©
Ġk em
ĠØ§ÙĦØº Ø§Ø´ÙĬ
ĠØ®ÙĪ Ø§Ùģ
ĠØ§ÙĦÙħØ´ Ø§ÙĩØ¯Ø©
ĠÙĦØ£ Ùħ
ĠØªØ¨ Ø®ÙĦ
Ø¨Ø±Ùĥ Ø§Øª
ĠÙĪØ§ÙĦÙĨ Ø¨ÙĬ
ĠØ·ÙĦ Ø¹ÙĪØ§
ĠØŃØ§Ø¨ Ùĩ
ĠØµÙĦ ØŃ
ĠØ´Ùģ ØªÙĩ
ĠÙĪØ¯ ÙģØ¹
ĠØªØ±Ùĥ ÙĬØ²
ĠØ¯Ø±ÙĪ Ø³Ùĥ
ĠØ§ÙĦØ¨ÙĦ Ø§ØºØ©
ĠØ§ÙĦÙĤÙĨ Ø§Øµ
aw d
ĠÙħÙĪÙĦ ÙĪØ¯
ĠØªÙĤÙĪ ÙĦÙĩØ§
ĠÙĦÙĦÙĤ ÙĦØ¨
Ø²Ø§Ø¨ ÙĪÙĨÙĬ
ĠØ¹Ø±ÙĪ Ø©
ĠØ¹Ø±ÙĪ Ø¶
~~~~ ~~~~
ĠØ§ÙĦØ§ÙĦÙĥ ØªØ±ÙĪÙĨÙĬ
ĠØ§ÙĦÙĤØ¶ Ø§ÙĬØ§
ÙĦ ØŃØ©
Ø¨ Ø´Ø±
ĠÙħ Ø³ÙĨØ¯
ĠØ¨ ÙĬØ¨
ĠÙĦ Ø±ÙĪ
ĠÙĦ ØªÙĥ
ĠÙĬ Ø§ØªÙĬ
Ø´ ÙĪÙĨ
ÙĦÙĬ ØªØ´
Øµ Ø±Ø©
ĠØ® Ø§ØªÙħØ©
ĠØ£ÙĨ ØªÙĬ
ĠÙĨØª ÙħØ³Ø®Ø±
ĠØ§Ø¨ ÙĦÙĬØ³
ĠØªØ¬ Ø§Ø±
ĠØ§Ø± ØŃÙĦ
ĠÙħØ¬ Ø§ÙĦØ§Øª
ĠØµØŃ Ø¨Ø©
ĠØªÙĨ Ø¸ÙĬÙģ
ĠÙĪØ§ÙĦÙħ Ùĩ
Ø¬Ø± Ø§Ø¡Ø§Øª
ĠÙĬÙĤ ÙĪØ¯
Ġ* -
ĠØ¨Øª Ø±Ùĥ
ĠÙĪØ§ÙĦØ³ ØŃØ±
Ø´Ùģ ØªÙĪ
ab le
ĠØ§ÙĦØ·Ø¨ ÙĬØ©
ĠÙħØ¶ ÙħÙĪÙĨ
ĠD Z
Ø®ÙĦÙĪ Ø´
ÙĦØŃ Ø§Ø¯
ĠÙħØ¹ÙĨØ¯ ÙĥØ´
ĠÙĪÙĪÙģÙĤ ÙĨØ§
ÙĨØ³ÙĤØ³ÙĬ ÙĥÙħ
ĠØ§ÙĦØªÙĥÙĨ ÙĪÙĦÙĪØ¬ÙĬØ§
t ro
ØŃ Ø³ÙĬØª
ĠÙģ Ø±ÙĬØ¯
ĠØ§Ø ¦
ĠØ§ÙĦÙħ ØŃÙĤÙĤ
ĠØ³ Ø±ÙĬØ¹
ÙĦÙħ Ø§ÙĨ
Ø§Ùĥ Ø¨
ĠØ§ÙĦÙĨ Ø§Ø´
ĠÙĦÙĦ Ø§Ø¹
ĠØ§ÙĦØ± Ø§Ø²ÙĬ
ÙħØ¹ ÙĬØ©
ĠÙĪØ£ Ø±
ĠÙĪØ£ ÙĦÙģ
ĠØªØŃ ÙĦØ¨
ĠØ§ÙĦØ® Ø¨ÙĬØ«
ĠØ§ÙĦØ¥ Ø±Ø§Ø¯Ø©
ĠØ§ÙĦÙģ ÙĦØ§ØŃ
ĠÙĪØŃ Ø§Ø¨Ø©
ĠÙĪØ± ÙħØ¶Ø§ÙĨ
Ġb es
ÙĩØ± Ø§
ĠÙĪÙģ ÙĤÙĩ
ĠØ§ÙĦØ§ÙĨ Ø´
ĠÙĨØ³Øª ÙģÙĬØ¯
ĠØ¹ÙĤ Ø§Ø¨
ĠÙħØ¹Ø¯ÙĦ Ø§Øª
ĠØŃÙĥÙħ Øª
ĠØ§ÙĦØŃÙħ Ø±Ø§Ø¡
ĠØ§ÙĦØ§Ø± ÙĩØ§Ø¨
ĠØ§ÙĦØªØµ ÙĪÙģ
ĠÙĨÙĦ ØŃÙĤÙĪ
Ġâľ¨ âľ¨
oura d
ðŁĴĸ ðŁĴĸ
ĠðŁ¥² ðŁ¥²
ĠØ±Ø§Ø¨ ÙĪØ±
ĠØªØŃÙħ Ø³Øª
ĠØ§ÙĦØ¯ÙĦ Ø§ÙĦÙĬ
ĠÙħØŃØ¯ Ø¯Ø©
ĥ £
ØŃ Ø§ÙĦØ©
ĠÙģ ÙħØ±
ĠÙĬ Ø¸
ĠÙĪØ§ÙĦ ØºÙĬØ±
ĠØ¨Ø§ÙĦ Ø¹ÙĬÙĨ
ĠØ¨Ø§ÙĦ ÙĨØ³Ø§Ø¡
ĠØ§ÙĦÙĤ Ø·Ø·
ĠØªØ¹ Øª
ĠØ§ÙĦØ± ÙħØ¶Ø§ÙĨÙĬØ©
ĠØ§Ø³Øª ÙħØªØ¹Øª
ĠØ£ÙĪ Ø§Ø®Ø±
ĠØ§ÙĦÙĪ Ø§Ø«ÙĤ
ĠØ¥ÙĨ Ø¬Ø§Ø²
ĠÙĬÙĨ ÙĪØ±
ĠØ¨ÙĦ Ø¯ÙĬ
ĠÙĪØ¨ Ø¹Ø«
ĠØ¨Ø¹Ø¯ Ø§
ĠØ£Ø® ØªÙĥ
ĠÙħÙĪ Ø§Ø¬ÙĩØ©
ĠÙħØŃ Ø±Ùĥ
Ġk on
ĠÙĪÙĦÙĬ ØªÙĬ
ĠØ§ÙĦØº Ø§ÙĬØ©
ĠÙģØ± Øº
ĠØ¨Ø¯ ÙĬÙĨØ§
ĠØªØª Ø¬
ĠÙĪØ³ Ø¹Øª
ĠØ¹ÙĦ Ø§Ø®
ĠØ£Ø³ Ø¹Ø§Ø±
Ø¨ÙĤ ÙĬØ©
he k
ĠðŁĺŃ ðŁ¤²
ĠØ¹ÙĤ ÙĦÙĬØ§
Ø§Ø¸ ÙĨ
ĠÙĦÙĦØ£ Ø®Øª
ðŁĴľ ðŁĴľ
pe ct
ĠØ³ÙĤ Ø³
low n
ĠØ¯ÙĦÙĬ ÙĦØ§
ĠÙ ¦
Ùĩ Ø°ÙĬÙĥ
Ùĥ ÙĪØ§
ĠÙĪ ØªÙĬ
ĠÙģ Ø§Øµ
Ø¬ Ø¨Ùĩ
ĠØª Ø´Ø±
ĠÙĪØ§ÙĦ Ø¹Ø¨
Ø§Ø¯ Ø´
ĠØ¥ ÙĦÙĩØ§
ÙĨÙĬ Ø§ÙĨ
ĠØ· Ø§
ĠØ§ÙĦØ± Ùħ
ĠðŁĺ ĭ
Ø§Øµ ÙĦÙĬÙĨ
ĠØ§Ùħ ÙĬØ±
ĠØ§ÙĦÙĬ ÙĥÙħ
Ġf irst
ĠØªØ¨ ÙĨÙĬ
ĠØ°ÙĥØ± Ùĥ
ĠØ£Øµ ÙĬØ¨
ĠØ§Ø®Ø± ÙĬÙĨ
ĠØ®ÙĦÙĤ Ø§
ĠØ´ÙĩØ± Ø§
ĠÙģÙĦÙĬ Ø³Øª
ĠÙĬØ¬ÙĬ ÙĪ
Ø®ØªÙĬ Ø§Ø±
ĠØ¥ÙĬ Ø§Ùĥ
ĠØ·Ø¨ Ø¹Ø©
ðŁ« Ĥ
ĠØ§ÙĦØ¹Ø±ÙĪ Ø¶
ĠØ³ÙĤØ³ÙĬ Øª
ĠØŃÙĪÙħ ØªÙĬ
# #
I K
T M
ÙĬ Ø¯ÙĬ
Ø§ÙĦ Ø§Ø³
ĠÙĪ ÙĪÙĦØ§Ø¯
Ø¨ ÙĥÙĦ
Ø¹ ÙħØ©
ĠÙĬ ÙĬØ³Ø±
ĠØ£ ÙĤØµÙī
ĠÙĪØ§ÙĦ ÙģØ³
ĠØ¯ Ø±ÙĬ
ĠØ§ÙĦØ¹ Ø§Ø·ÙģØ©
ĠØ¨Ø§ÙĦ ÙĤØ±Ø¨
ĠØ§ÙĦØŃ Ø±Ø©
ĠØªØ¹ Ø§Ø±Ø¶
ĠÙĪØ£ ÙĬÙĨ
ÙĤØª Ø§ÙĦ
Ø¦ Ø§Ø³Ø©
ĠÙĬØ¹ Ø§ÙĤØ¨
Ø§Ø² Ø¹Ø©
ĠÙĨØª Ø´
ĠÙĪÙħ ØµØ·ÙĦØŃØ§Øª
Ġb er
ĠØ¶ Ø±Ø¨Øª
Ġd ou
Ġw atch
Ø®Øµ ÙĨØ§
Ġ[ ]
ĠÙĬØª Ø°ÙĥØ±
ĠÙĬØ´ ÙĬØ±
ØŃØ± ÙĬØ©
ĠÙĤØ± Ø¹Ø©
Ø¯ÙĦ ÙĦÙĩ
ya t
ĠØ§ÙĦØ§Ùħ ÙĨ
ĠØ®Ø· Ø§Ø¨
ĠØ§ÙĦÙħÙĨØª Ø¸Ø±
ĠØªÙĤÙĪÙĦ ÙĪØ§
ĠØ§ÙĦØ§Ø¹ ØªØ±Ø§Ùģ
ĠÙĪØ§ÙĦØ¹ ÙĤÙĦ
ĠØ¹Ø² Ø§Ø¡
ĠØ®ÙĦÙĬ ÙĩØ§
ĠØŃÙĪ Ø§Ø¯Ø«
ĠðŁ¥¹ ðŁ¤²
ĠÙģØ§ÙĬ Øª
ĠØ§ÙĦÙĥÙĪÙĨ Øª
ĠØªÙģØ¶ ÙĦÙĬÙĨ
ĠØ§ÙĦØ¶Ø± Ø±
ĠØ§ÙĦØŃÙĦÙĪ Ùī
ĠÙħØªØ¹ ÙĦÙĤ
ĠÙ¢ Ùł
ĠØ£ÙħÙĪØ§ÙĦ ÙĩÙħ
Ġdy al
Ø¨ ÙĨØ§Ø¡
ĠÙħ ÙĤÙĬØ§Ø³
ĠØ£ ÙĥØ±Ùĩ
ĠÙħÙĨ Ø³
ĠØŃ ÙĦÙĨØ§
ĠØ³ Ø§ÙħÙĬ
ĠÙĪØ§ÙĦ Ø¨ÙĬÙĩÙĤÙĬ
ĠØµ ÙĦØ¨
Ø§Ùĩ Ø´
ĠÙħØ¹ Ø§ÙĦÙħ
ĠØ§ÙĦØª Ø¨ÙĨ
ĠØ§ÙĦÙĤ Ø§Ø¦Ùħ
ĠÙĦØ§ ÙĬÙĨ
Ø§Ø· Ø±Ø©
ÙĪØ¹ Ø¸Ø©
ĠØ§ÙĦÙĬ Ø£Ø³
Ġd ok
ĠÙĪØ¨ Ø§ÙĤÙĬ
Ġn h
ĠØ£Ùħ Ø«
ĠØªØ¬ ÙĬÙĥ
ĠÙĬØª ØŃÙħÙĦ
ĠØ¨Ø±Ùĥ Ø§
ØŃÙĤ Ø§
ĠØ§ÙĦØ¯Ø± Ùĥ
Ġ6 00
ĠØŃÙħ Ø§Ø¯
ĠØ³ÙħØ¹ ØªÙĩ
Ø¹ÙĬÙĨ Ø§Øª
ĠÙģØ±ØŃ ÙĨØ§
ĠðŁĳ Ģ
ĠØªØ±Ùĥ ÙĩØ§
nd er
ĠÙĬØº Ø¶Ø¨
ĠØ§ÙĦÙħØ¤ Ø³Ø³Ø§Øª
ĠØµÙĪØª ÙĩØ§
Ġth ink
ĠÙĨØŃÙĬ Øª
ĠÙĬØªÙģØ±Ø¬ ÙĪ
ĠØµØ§Ø¯ ÙĤØ§
ĠÙĪØ±Ø²ÙĤ Ùĥ
" ...
5 00
B onne
j ah
Ùģ ÙĤØ·
ĠÙĦ ØªØ¨
ĠÙĬ ÙĬ
Øµ ÙĨØ§Øª
ĠÙĨ Ø±ÙĬ
ĠÙĥ Ø§ÙĦØªØ§ÙĦÙĬ
ĠØ³ ÙħÙĪÙĩ
ĠØ¬ ÙĬÙĨ
ĠØ¥ Ø¨Øª
ĠØ§ÙĦØ¹ Ø³ÙĥØ±
Ø§ÙĬ ÙħØ§ÙĨ
ÙĤÙĬ ÙĩØ§
ĠÙĥÙĬ Ø§ÙĨ
ÙħØ¹ ÙĨÙī
ĠØ° ÙĥØ±Ø§
ĠÙĬØŃ ØªÙħÙĦ
ÙĦØª Ùħ
Ġm m
Ġm ani
ĠØ§Ùħ ÙĩØ§Øª
ĠØ§Ùħ ÙĪØ±Ùĥ
ĠÙĪØ¬ ÙĨ
ĠØ¨Ø¹ ÙĬÙĨÙĩ
ĠðŁ¤ Ŀ
ĠÙĥÙĬÙģ ÙĩØ§
ÙħØª Øª
ĠÙĪÙĤ ÙĦØ¨
Ø·ÙĦ Ø§Ø¹
ĠÙĤØ¨ ÙĪØ±
ĠÙħØ§Ø¹ ÙĦØ§Ø¨Ø§ÙĦÙĬØ´
ĠØŃØ· ÙĨØ§
ĠØ§ÙĦÙħÙĤ Ø±Ø¨ÙĬÙĨ
Ã¨ res
ĠÙħØ§Ø¯ Ø§
Ġme me
11 11
ĠÙĦØ± ÙħØ¶Ø§ÙĨ
Ø®Øª ØµØ±
ĠÙ± ÙĦÙĦÙĩ
ĠØªÙĪÙģÙĬ Øª
ðŁĶ ª
ĠØ¬Ø¨ØªÙĬ Ùĩ
Ġkay en
ĠØ§ÙĦÙħÙĥØª Ø¨Ø©
ĠØ±ÙģÙĬÙĤ Ø§
ĠØ®Ø§Ø± Ø¬Ø©
ĠÙģ Ø¨ÙĬÙĨ
ĠØ£ ØµØŃ
Ø® Ùĩ
ĠØ® ÙĨ
ĠØ¯ ÙģØ¹Ø©
ĠØªØ¹ ÙĬÙĬÙĨ
Ġ" "
ĠÙĪØ£ Ùĥ
ĠØ£ÙĪ Ø³
ÙĤÙĪÙĦ ÙĪØ§
âĢ İ
re nt
ĠÙħÙĪ ÙĩØ¨Ø©
ĠØ³ÙĬ Ø¦Ø§Øª
ĠØ§ÙĦÙģØ± Ø¶
ĠÙĪÙĤ Ø¨
ĠØ§ÙĦÙħØ³ÙĦÙħ Ø§Øª
Ġj ours
ĠØ³ÙĨ ØªÙĬÙħ
ĠØ§ÙĦØŃÙĬ Ø¶
ĠÙĪØ¯ ÙĨÙĬ
ĠØ¨ÙĪ Ø§Ø³Ø¹
ĠÙĤØ¨ ÙĦÙĬ
Ø¨Ø§ÙĦ Ø§Ùĥ
ĠØ²Ø¹ ÙħØ©
Ø£Øª ÙħÙĨÙī
ĠÙħØ² Ø¯
ĠC h
ĠØ§ÙĦØ¨Ø§Ø± ØŃØ©
Ġâľ¨ ï¸ı
ÙĪÙĬÙĪÙĬ ÙĪÙĬÙĪÙĬ
ĠØ£Ø±Ø¬ ÙĪØ§
ĠØªØµØ± Ø§ÙĦÙĬ
ĠØ§ÙĦÙħØ¯Ø± Ø³ÙĬ
b na
g n
g r
Ø§ÙĦ Ø§Ùĩ
Ø¹ ÙĤØ©
ĠØ¨ ÙĪØ²
ĠÙĦ Ø°ÙĬ
ĠÙĬ Ø§Ø¬Ø¯Ùĥ
Ø² Ø¹Ø©
ĠØŃ Ø¨Øª
ĠØ§ÙĦÙħ Ø¯Ø±Ø³
ĠØ¬ Ø§ÙĬØ§
ĠØ¥ Ø¨
ĠØ§ÙĦØª Ø§ÙģÙĩ
ĠØ§ÙĦØ´ Ø¬Ø§Ø¹Ø©
ØµØŃ ÙĬØªÙĬ
Ġ1 20
ĠÙĬØŃ Ø¨Ùĥ
ĠÙĬØŃ Ø±ÙĤ
ĠÙĬØŃ ØªÙĪÙĬ
ĠØ§ÙĦÙģ Ø·ÙĪØ±
ĠØ§ÙĦÙĪ ÙĦÙĬ
Ġs k
ĠØ§Ø¯ Ø®ÙĦÙĬ
ĠÙĨØ³ Ø§ÙĦÙĥ
ĠÙħÙĦÙĬ ÙĬØŃ
ĠØªØª Ø®
Ġra ki
ĠÙģÙĦ Ø¹
ĠÙħØ³ÙĦÙħ ÙĪÙĨ
ĠÙĪØ§ÙĦÙĨ ÙĪØ±
ĠØŃÙģØ¸ ÙĥÙħ
Ġcha Ã®ne
ĠÙħØ¶ Ùħ
Ġwa lid
âĢĻ âĢĻ
ĠØµÙĪ ØªÙĩ
ĠØ§ÙĦØ£ØŃ Ø³ÙĨ
ĠÙĦØ· Ø¨ÙĬØ¨
ĠÙĤØ¯Ø§Ùħ Ùĥ
ĠØ£Ø±Ø¬ ÙĪÙĥ
Ġjus te
w in
ØŃ ÙĦÙħÙĬ
ĠÙĦ Ø®Ø±Ø§
ĠÙĩ Ø§Ø´Ùħ
ĠØŃ ÙĦÙħØ§
ĠØ§ÙĦÙħ ÙĥÙĬ
ðŁĺ ł
ĠØ´ Ø¨Ø¹Øª
Ø« Ø§ÙĤ
ĠØ³ ØªÙĪ
ĠØ¬ Ø¨ÙĬØ±
Ø§Ø³ ÙĬØ§
ĠØ§ÙĦØ£ ÙĩÙĪØ§Ø¡
ĠØ§ÙĦÙĨ Ø§Øµ
ĠØ§ÙĦÙģ Ø¹
ĠÙĨØª Ø¹Ø¨
ÙĤØ± Ùĩ
ĠÙĪÙħ Ø§ÙĦ
ra i
ĠÙĬØ¬ ÙĬÙĨØ§
ĠÙĪØ¨ ÙĨØ§Ø¡
ĠÙģØ§ÙĦ ÙĨØ§Ø³
ĠÙģØ§ÙĦ ÙĤÙĨØ§Ø©
ĠâĢ İ
ĠØªÙĨ ÙĤÙĦ
ĠÙĪÙĥ Ùģ
ĠØ§Øª ØµÙĦ
ĠØ§ÙĦÙģØ± Ø§ÙĤ
ĠÙĬØ³Øª ØºÙģØ±
ĠØ§ÙĦØ§Ø® Ø¨Ø§Ø±
ĠØ§ÙĦÙĬÙĪÙħ ÙĬ
ĠØ§ÙĦÙĩ Ø§Ø¯ÙĬ
ĠØ£ØŃ ÙģØ¸
ĠØªØ£ Ø®ÙĬØ±
ĠØªØ£ ÙĪÙĬÙĦ
ĠÙĬÙģ ÙĪÙĤ
ĠÙģØ¹ ÙĦÙĩØ§
ĠÙĨØ² Ø§Ø±
ĠØ§ÙĦÙħÙĦ ÙĦ
ĠÙģÙĤ Ø±Ø©
ĠØ´Ø¹Ø¨ ÙĬØ©
ĠÙħÙĬÙħ ØŃÙĪ
ĠÙĪÙĥÙĬ ÙħØ§
ĠÙĪØ§ÙĦÙĥ ÙĦØ§Ùħ
ĠØ±Ø£ÙĬ ØªÙĩ
ĠØŃÙĨ ÙĪÙĨØªÙĬ
ĠØ§ÙĦÙĪØ§Ø± Ø¯
ĠØ¹Ø§Ø¦ÙĦ ØªÙĩ
Ġjd id
ĠÙħØ§Ø¹ÙĨ Ø¯ÙĪØ´
Ġ >
ĠØ¨ ÙĪØ¬Ùĩ
ĠÙĬ ÙĦÙĩ
ĠÙĬ ÙĪÙĦÙĪ
Ø¬ ÙĬØ¯
Ø¬ Ø§Ø©
ĠØª Ú¨
Ø§Ø± ÙħÙĬ
Ø² ÙĨÙĬ
ĠØŃ Ø§ÙĬØ±
ÙĦÙħ ÙĨ
ĠØ¬ Ø±Øª
ĠØ§ÙĨ Ø¯
ĠØ§ÙĨ Ø³Ùī
Ø§ØŃ ÙĪ
Ø§Ø¬ ÙĬÙĨ
ÙħÙĨ Ø¹
ĠÙĪÙħ ÙĤ
ĠÙĪÙħ Ø§Ùħ
ĠÙĦÙĥ ÙĦØ§Ùħ
ĠÙħØ± Ø§Ø¹Ø§Ø©
ĠØ¨Ø²Ø§Ùģ Ùģ
ĠØ§ Ø§ÙħÙĬÙĨ
ĠØ§Ø¹ ØªÙĤ
Ġh ed
ĠÙĤØ± ÙĬÙĨ
ĠØŃÙĬØ§Øª ÙĥÙħ
ĠØ§ÙĦØ¨Ø± ÙħØ¬Ø©
ĠÙħÙĩ Ø¬Ø±
ĠØ¨ÙĤ Ø¶Ø§Ø¡
ĠØ§ÙĦØªØŃ Ø¶ÙĬØ±
ĠØµØº Ø±ÙĬ
ĠØ¯Ø¹ Ø§Ø©
ĠØ¯Ø¹ ÙĬØª
ĠØ¶ØŃÙĥ ÙĨÙĬ
ĠÙĪØ§Øª Ø¨Ø¹
ĠÙĦÙĦÙĪ ØµÙĪÙĦ
Ø§ÙĦØµ ÙĪØª
pr Ã¨s
ĠØ§ÙĦØ±Ø¤ ÙĬØ©
ĠØ§Ø±Ø³ Ø§ÙĦ
ĠØ§ØªÙĥ ÙĦÙħ
S aha
Øª Ø§ÙĤ
ĠÙħ Ø£Ùħ
ÙĤ Ø§Ø°
ĠÙĦ ÙĪÙĥ
ĠÙĬ ØªÙĬÙħ
Ø¬ Ø²Ø©
ĠØª Ø§Ø±Ùĥ
ĠØª ÙĩÙĦØ§
ÙĦØ§ ÙĤÙĬØ©
Ø§Ø¯ Ùĥ
ĠØ¥ Ùģ
ĠØ® ØªÙĪ
ĠØ¯ ÙĪÙħ
ĠØ§ÙĦØ¹ Ø³Ø±
Ø§Ùģ ÙĩÙħ
ĠØ§ÙĦØª ÙĥÙĪÙĬÙĨ
ĠØ§ÙĦØ´ ÙĩÙĪØ§Øª
ĠðŁĺ »
Ø¯Ø§ ÙĩØ§
Ġt v
ĠÙĬÙĨ ØŃÙĬ
Ġn di
ĠÙħØ¬ ÙħÙĦ
Ø¨Ø§ Ø§Ø±Ùĥ
ĠØ¸ ÙĦÙħØ§Øª
ĠØ¹ÙĨØ¯ÙĬ Ø´
ĠÙĪÙħØ§ ÙĩÙĬ
ĠØ¨Ø£ Ø¹ÙĦÙī
ĠØ§ÙĦØ¯Ø± Ø§Ø³Ø§Øª
ĠÙĨØ³Øª Ø¹ÙħÙĦ
ĠÙĥÙĦØ§Ùħ ÙĩÙħ
ĠÙĨØ¯ Ø§Ø¡
ĠÙĤØ¯Ø± ØªÙĩ
ĠØ®Ø§Ø· Ø±Ùĥ
ĠØ§ÙĦØ¨ÙĦ Ø§ØµØ©
ĠÙĪÙĪ Ø§ØŃØ¯
ĠÙĨÙĬ ÙģÙĪ
ĠØ§ÙĦÙħÙĤ Ø§Ø±ÙĨØ©
ĠØ§ÙĦØ£Ø´ Ø¬Ø§Ø±
ðŁĺ¹ ðŁĺ¹
ĠÙĪÙĬÙģØ±ØŃ ÙĨØ§
ĠÙĦØ§ÙģÙĬ Ø¯ÙĬÙĪ
A b
l er
o om
Â £
ĠÙĪ Ø§ÙĨÙĬ
ĠÙĪ Ø³Ø¨ØŃØ§ÙĨ
Ø¯ ÙĪÙĦ
ĠÙģ ÙĩÙħØ§
ĠØª Ø¯Ø¹ÙĪØ§
ĠÙħÙĨ Ø¶
ĠÙĪØ§ÙĦ Ø³Ø¨Ø¨
Ø§Ø¯ ÙĪÙĨ
ĠØ¥ ÙħÙĥØ§ÙĨ
Ø§Ø³ ØªÙĬÙĥ
ĠØ§ÙĨ ÙĤØ·Ø¹
ĠØ§ÙĦØ¹ Ø§ÙħÙĦ
ĠØ§ÙĦØ¹ Ø±ÙĬØ³
... "
ĠØ§ÙĦØ¬ ÙĦÙĪØ³
ĠÙĤØ§ÙĦ ÙħØ©
ĠØ§Ø³Øª Ø«ÙĨØ§Ø¡
Ø¢ ÙĬØ©
ĠØ§ÙĦÙĪ Ø¯
ĠØ§Ùħ ÙĨÙĬ
ĠÙħØŃ Ø·
Ġp eople
ĠÙĬÙĪÙħ Ùĥ
ĠÙĬØ´ ÙģØ¹
ĠØªÙĨ Ø§Ùħ
ĠØ¨Ùħ Ø§Ø°Ø§
ĠØ§ÙĦØªÙĪ Ø§Ø±ÙĬØ®
ĠØ§ÙĦØ³ÙĬ Ùģ
ĠØ§ÙĦÙħØ³Øª Ø´ÙģÙī
ĠÙĦØ§ÙĬ ÙĪØ¬Ø¯
ĠØ¢Ø®Ø± ÙĪÙĨ
Ø·ÙĬÙĨ ÙĬØ©
ent s
Ġvid io
ĠÙĬØ±Ø²ÙĤ ÙĩØ§
ĠØ¨ÙĤ ØµØµ
ĠØ§ÙĦØªØŃ ÙĦÙĬÙĦ
ĠØªÙĦÙĤ Ø§ÙĩÙħ
ĠØ¹Ø´ ÙĬØ©
ØµÙģ ØŃØ©
ÙĪÙĩÙħ Ø´
ÙĦÙĪÙĩ ÙĬØ©
ĠÙĪØ£Ø³ ÙĥÙĨÙĩØ§
ĠØ³Ùĩ ÙĪÙĦØ©
ĠØ§ÙĦÙĦÙĤ Ø·Ø©
ĠØ¨Ø±ÙĬ Ø·Ø§ÙĨÙĬØ§
ĠÙĪÙĨØŃ ÙĪÙĩ
ĠÙĩÙĨØ¯ Ø³Ø©
Ġhkaya t
ĠðŁĺ¥ ðŁĺ¥
ĠÙħÙĦÙĤÙĬ ØªÙĪØ´
A Y
Ùħ Ø¨Ø§Ø±Ùĥ
ĠØ§ÙĦ Ø¶ÙĦ
ÙĪ Ø§ÙĦÙĥ
ØŃ Ø¯ÙĬ
ĠÙĬ Ø§Øµ
ÙĦÙĩ ÙħØ§
ĠØ§ÙĦÙĦÙĩ Ø¬Ø§Øª
ĠØ§ÙĦÙħ Ø®Ø±Ø¬
ĠØ¥ Ø¬
Ø§Ø³ Ø¹Ø©
ØªÙĬ Ø§ÙĨ
ĠÙħØ¹ Ø§ÙħÙĦØ©
ĠØ§ÙĦÙĤ ØµØ¯
ĠØ§ÙĦØ¨ ÙĨÙĥ
ØªÙĩ Ø²Ø§Ø¡
ĠØ§ÙĦÙĥ ÙĪÙħÙĨØª
ĠØ§Ø³Øª ØºÙĦ
ĠØ§ÙĦØ¯ ÙĤ
Ġt Ã©
Ġt as
ĠÙĪÙħ Ø´ÙĬ
ĠØ§ÙĦÙĬ ÙĩÙĪØ¯ÙĬ
ĠÙĪØ± Ø§ÙĩØ§
ĠÙĨØ´ Ø±ØŃ
ĠØ±Ø¨ ÙĩØ§
ĠÙħØ¬ Ø§ÙĦØ³
ĠØ§ÙĦØ² Ø¬Ø§Ø¬
Ø³Ø± Ø§Øª
li cation
ĠÙĪÙĥ Ø¨ÙĬØ±
ĠÙĪÙĥ Ø£ÙĨÙĩ
ĠØ¨Ùħ ÙĤ
Ġma ke
Ġma zal
Ġ5 8
ĠÙĬÙĤ Ø¨
ĠÙĪØ§ÙĦØ£ Ùħ
ĠØ£Ø¬ Ø¹ÙĦ
ĠØ§ÙĦÙħØµ ÙĪØ±
ĠÙĨØ¹Ø±Ùģ Ùĥ
ĠÙħØ¤ ÙĥØ¯
ĠØªÙĦÙĤ Ø§ÙĩØ§
ĠØªÙĬ Ø³Ø±
ØªÙĨ Ø§Ø¨
ĠØµØ¯ÙĤ ÙĬÙĨÙĬ
ĠÙĪØµÙĦ ÙĪØ§
ĠÙĨÙĪØ±Ùħ Ø§ÙĦÙħÙĪÙĨ
ĠØ§ÙĦÙĥÙĩ Ø±Ø¨Ø§Ø¡
ĠÙĪÙĨØ¹ Ø§ÙĪØ¯
ĠØ§ÙĦØµÙĨ Ø¯ÙĪÙĤ
ĠÙĪÙħÙĦ Ø§Ø¦ÙĥØªÙĩ
ĠØªÙĪØ³ ÙĪÙĬØ³
Ġwor k
Ġtou jours
M oi
f y
ĠØ§ÙĦ Ø²Ø§Ø¦Ø±
Ùĩ Ø§ÙĦÙĨØ§
Øª ÙĥÙĪÙĨ
ĠÙħ Ø§Ø¬Ø©
ĠÙĦ ÙĥØ±
ĠØª ÙĦÙĬÙĤ
Ø´ ÙĨØ§
ĠÙĨ ÙĦØªÙĤÙĬ
ĠØ± ØªØ¨
ĠØ± Ø¯Ùĩ
ĠÙĤ Ø·Ø©
ÙĪÙĨ Øµ
ĠØ³ Ø§ÙĦÙĬ
ĠØ³ ÙĦØ§Ø§Ùħ
ĠØ¬ Ø§ØªÙĥ
Øº ÙĦÙĬ
Ø§Ùģ ÙĦØ§Øª
Ø§Ø¦ ØŃÙĥ
ĠØ¨Ø§ÙĦ ÙħØª
ĠØ§ÙĦÙĤ ÙĦÙĤ
ĠØªØ¹ Ø§ÙħÙĦ
ĠØ§Ø³Øª ÙĨ
ĠØ§ÙĦØµ Ø¯ÙħØ©
ĠØ§ÙĦØ¥ Ø«Ùħ
ĠØ£ÙĪ ÙĦÙĩØ§
ĠÙħØª Ø£ÙĥØ¯
ÙĤØ§ÙĦ Øª
Ġf em
is sa
Ġh ou
ĠØ§ÙĦÙħØ´ Ø±ÙģØ©
or te
ĠÙħÙĥ Øª
ÙģÙĪ ÙĪØ±
ÙĥØª ÙĪØ±Ø©
ĠÙħØªÙĪ ÙĤ
ĠÙĪØ§ÙĦØ¯ ØªÙĥ
ĠØ¨Ø® Ø§Ø·
Ġi f
Ø§ÙģØ¹ Ø§ÙĦ
ĠÙĪØ±Ø³ ÙĦÙĩ
ĠÙĪÙĥÙĬÙģ ÙĬØ©
ĠØªØ±Ø¬ Ùħ
âĻ¥ âĻ¥
ĠÙĪØ§ÙĦÙħØ± Ø³ÙĦÙĬÙĨ
Ø·Ø§ÙĦ ÙĬØ§
ĠØªØ¨Ø¯ ÙĦØª
ĠØ¥ÙĬÙħØ§ÙĨ Ùĩ
ĠÙĥÙĦØ§ ÙĩÙħØ§
ĠÙĪÙĤØ¯Ø± Ùĩ
ĠðŁĺĳ ðŁĺĳ
ĠØ§ÙĦØ«Ø§Ø¨Øª Ø©
ÙĬ ÙħØ§
ÙĨ ÙĪØ¹
ĠÙĪ ÙĤØ±Ø£
Ø¬ Ø¨Ø©
ĠØ± ØºÙĬØ³
ĠØ§ÙĦÙħ Ø¹Ùħ
ĠØ´ ÙĬÙĥ
ĠÙĪØ§ÙĦ Ø¯Ø±
Ø¯ÙĬ Ø¯ÙĬÙĨ
Ø§Ùĥ Ø¨Ø±
ĠØ§ÙĦØ¹ Ø§Ø´Ø±
ÙĨÙĬ ÙĦ
ĠØ§ÙĦÙĨ ÙĤØµ
ĠðŁ ĸ
ĠØº Ùģ
ĠðŁĺ Ī
Ø±ÙĪ ÙĤØ©
ĠØ§ÙĦÙģ ÙĬØ±
ĠÙĪØª ÙĦÙĥ
ØªØ¨ Ø·
ĠÙĪØ± Ø¹
ĠÙĪØ¨ Ø²Ø§Ùģ
re b
ðŁĴ Ĳ
ĠØªØ¬ Ø¯ÙĬØ¯
ĠÙĨØ¬ Ø§Ø©
Ø¹Ø± Ø§ÙĤ
ĠØ³ÙĬ Ø¡
ĠØ¹Ùħ Ø§Ø±Ø©
ĠØŃÙĥ Ø§ÙĬÙĩ
ĠØªØ³ ÙĤØ³ÙĬ
ĠÙĦÙĦÙħ Ø¯Ø±Ø³Ø©
ĠØ¬Ø§Ùħ Ø¹ÙĬ
Ø¬Ø² Ø§ÙĬØ±
ĠÙĬØ¤ Ø®Ø°
ĠØ³Ø¹ÙĬØ¯ Ø§
ĠÙĦØ³ ÙĨØ§
ĠÙĦÙĦØ´ Ø¨Ø§Ø¨
ĠØ®Ø§ÙĬ ÙģÙĬÙĨ
ĠÙģÙĥ ÙħØ§
ĠÙĪÙĬØ¯ ÙĬØ±
ĠÙĦØ¹Ø¨ Ø§Ø¯Ùĩ
ĠØ¬ÙĪØ§ÙĨ Ø¨
ĠØ§ÙĦØ§ÙĤØª Ø¨Ø§Ø³
ĠÙĪØ®Ø±Ø¬ Øª
ĠØ§ÙĦØ«ÙĦ Ø¬
ĠØ§ÙĦÙĨÙħÙĪ Ø°
gni fique
ĠØ¨ÙĪØ¹Ø± ÙĬØ±ÙĬØ¬
h t
i li
j j
Ùħ Ø¬Ø±Ø¯
Ùĩ Ø¶
Ùĩ ÙĪÙĨ
ĠÙħ ÙģØª
ĠØ¨ Ø¶ÙĬ
Ø· Ø¨Ø¹Ø§
ĠØ§ÙĦØ³ ÙĨØ¯
Ø¨Ø± Ø§ÙģÙĪ
ĠØº Ø¯Ø±
ĠÙĬØŃ ÙĪØ³ÙĪ
ÙĥÙĬ ÙĪ
ĠÙĬØ¹ ÙĦÙĤ
ĠØ§ÙĦØ® ÙĦÙĪØ¯
ĠØ§ÙĦÙģ Ùħ
ĠØ§ÙĦÙĪ Ø¸ÙĬÙģØ©
ĠØ§Ø® Ø·ÙĬÙĥ
ĠØ§ÙĦØ· Ø§Ø¦Ø±Ø©
en ne
ĠÙĬØ® ÙģÙģ
ĠØ§Ùĥ ØªØ³Ø¨
Ġ4 7
ÙĩÙĪ Ø¶
ĠØ§ÙĦØ§ÙĨ Ø³ØªØ§
ĠØ§ÙĦØ§ÙĨ Ø³ØªØºØ±Ø§Ùħ
Ġâ ģ
ĠØ§Ø´ Ø±Ùģ
ĠØ§Ø´ Ø¹Ø±
ma k
ĠÙħØ«ÙĦ Ø«
ĠØªØ±Ùĥ ÙĬ
ĠÙĥÙĨ ØªÙĪ
ĠÙĪØ§ÙĦØ¥ ÙĥØ±Ø§Ùħ
Ø§ÙĦØ³ ÙĦØ³ÙĦØ©
Ø§ÙĦØ¹ Ø§Ø¨
ĠØ¹Ø· ÙĬØ©
ĠØ§ÙĦØ¥Ø³Øª Ø¶Ø§ÙģØ©
ĠØ¨Ø§Ø³Ùħ Ùĩ
ĠðŁĳĮ ðŁı»
ĠÙĪØŃÙģØ¸ Ùĩ
ĠÙħØŃØ± Ø²
ĠÙĬØ³Ø¨ ÙĤ
Ġwh d
ÙĥÙģ Ø§Ø´
ĠðŁĺĴ ðŁĺĴ
ĠØ§ÙĦØ§ÙĪØ± Ø§ÙĤ
x t
ĠØ§ÙĦ Ø§ÙĩÙĦ
ĠÙĪ ÙĤÙĪÙĦÙĬ
ĠÙģ ØŃÙĬ
ĠÙģ Ø¯Ø®ÙĦ
ĠØ¹ ÙĪØ±
ĠØŃ ÙĦØ§
ĠÙĪØ§ÙĦ ÙĥÙĦ
Ø§Ø¦ ÙĦÙĬÙĨ
Ø¸ Ø±ÙĬ
ĠØ§ÙĦØ´ Ø¦
ĠØ§ÙĦØ´ Ø£ÙĨ
ĠØ±Ø¨ÙĬ Ø¹Ø©
ĠØ§ÙĦØ± Ø¦ÙĬØ³ÙĬ
ĠØ° Ø®Ø±Ø§
ĠØ§ÙĦØ¯ Ø²Ø§ÙĬØ±
ĠðŁĺĤ âĿ¤ï¸ı
Ø®ÙĦ Ø¹Ø©
Ġd ro
re t
ĠÙĬØ± Ø§Ø¯
ĠÙģØ§ÙĦ Ø°ÙĬ
Ġc r
ĠÙĬØ´ Ø¬Ø¹
ĠØ¨Ø± Ø§Ø¡Ø©
ĠØªØ³ ÙĦÙĥ
al em
ðŁĺħ âĿ¤
ĠØªØµ ÙĪÙĬØ±Ø©
ĠØ§ÙĦØ³ÙĬ ÙĪØ·ÙĬ
ĠØ§ÙĦÙħØª ÙģÙĪÙĤ
ØŃØª Ø³Ø¨
ĠÙĬÙģ ÙĤØ¯
ĠÙĥØªØ¨ ÙĩÙħ
am el
ve au
ĠÙĦØ§Ø¨ Ø³Ø©
ĠØ¨Øº Ø§
ĠØ§ÙĦÙħØ¯ ÙĨÙĬ
ĠÙĬØªØŃ ÙĥÙħ
ĠØ¹Ø°Ø§Ø¨ Ø§
Ø§ÙħØ± Ø£Ø©
ĠØ§ÙĦØ¨Ø· Ø§ÙĦØ©
ĠÙĪØ§ÙĦÙĩ ÙĨØ§Ø¡
ĠÙĪØ§ÙĦØ§Ø® Ø±Ø©
ĠØŃØ§ ÙĬØ±Ø©
ĠØ§Ø³ÙĦÙĪØ¨ Ùĥ
d s
Æ Ĵ
Ø¹ Ø¹
Ø³ ÙĦÙĬ
ĠØ£ ÙĦÙĬÙħ
ÙĩØ§ Ùĥ
ĠØ´ Ø§Ø¹
ĠØ¥ Ø±
Ø§Ø³ ÙĪÙĨÙĬØ©
ĠØ¨Ø§ÙĦ Ø¶
ĠØ§Ø³ ÙģØ©
Ø§Ø³Øª ÙħØ±ÙĬ
ĠØ§ÙĦØ¥ ØŃØ³Ø§Ø³
[...]
