<pad>	0
<unk>	0
<s>	0
</s>	0
<0x00>	0
<0x01>	0
<0x02>	0
<0x03>	0
<0x04>	0
<0x05>	0
<0x06>	0
<0x07>	0
<0x08>	0
<0x09>	0
<0x0A>	0
<0x0B>	0
<0x0C>	0
<0x0D>	0
<0x0E>	0
<0x0F>	0
<0x10>	0
<0x11>	0
<0x12>	0
<0x13>	0
<0x14>	0
<0x15>	0
<0x16>	0
<0x17>	0
<0x18>	0
<0x19>	0
<0x1A>	0
<0x1B>	0
<0x1C>	0
<0x1D>	0
<0x1E>	0
<0x1F>	0
<0x20>	0
<0x21>	0
<0x22>	0
<0x23>	0
<0x24>	0
<0x25>	0
<0x26>	0
<0x27>	0
<0x28>	0
<0x29>	0
<0x2A>	0
<0x2B>	0
<0x2C>	0
<0x2D>	0
<0x2E>	0
<0x2F>	0
<0x30>	0
<0x31>	0
<0x32>	0
<0x33>	0
<0x34>	0
<0x35>	0
<0x36>	0
<0x37>	0
<0x38>	0
<0x39>	0
<0x3A>	0
<0x3B>	0
<0x3C>	0
<0x3D>	0
<0x3E>	0
<0x3F>	0
<0x40>	0
<0x41>	0
<0x42>	0
<0x43>	0
<0x44>	0
<0x45>	0
<0x46>	0
<0x47>	0
<0x48>	0
<0x49>	0
<0x4A>	0
<0x4B>	0
<0x4C>	0
<0x4D>	0
<0x4E>	0
<0x4F>	0
<0x50>	0
<0x51>	0
<0x52>	0
<0x53>	0
<0x54>	0
<0x55>	0
<0x56>	0
<0x57>	0
<0x58>	0
<0x59>	0
<0x5A>	0
<0x5B>	0
<0x5C>	0
<0x5D>	0
<0x5E>	0
<0x5F>	0
<0x60>	0
<0x61>	0
<0x62>	0
<0x63>	0
<0x64>	0
<0x65>	0
<0x66>	0
<0x67>	0
<0x68>	0
<0x69>	0
<0x6A>	0
<0x6B>	0
<0x6C>	0
<0x6D>	0
<0x6E>	0
<0x6F>	0
<0x70>	0
<0x71>	0
<0x72>	0
<0x73>	0
<0x74>	0
<0x75>	0
<0x76>	0
<0x77>	0
<0x78>	0
<0x79>	0
<0x7A>	0
<0x7B>	0
<0x7C>	0
<0x7D>	0
<0x7E>	0
<0x7F>	0
<0x80>	0
<0x81>	0
<0x82>	0
<0x83>	0
<0x84>	0
<0x85>	0
<0x86>	0
<0x87>	0
<0x88>	0
<0x89>	0
<0x8A>	0
<0x8B>	0
<0x8C>	0
<0x8D>	0
<0x8E>	0
<0x8F>	0
<0x90>	0
<0x91>	0
<0x92>	0
<0x93>	0
<0x94>	0
<0x95>	0
<0x96>	0
<0x97>	0
<0x98>	0
<0x99>	0
<0x9A>	0
<0x9B>	0
<0x9C>	0
<0x9D>	0
<0x9E>	0
<0x9F>	0
<0xA0>	0
<0xA1>	0
<0xA2>	0
<0xA3>	0
<0xA4>	0
<0xA5>	0
<0xA6>	0
<0xA7>	0
<0xA8>	0
<0xA9>	0
<0xAA>	0
<0xAB>	0
<0xAC>	0
<0xAD>	0
<0xAE>	0
<0xAF>	0
<0xB0>	0
<0xB1>	0
<0xB2>	0
<0xB3>	0
<0xB4>	0
<0xB5>	0
<0xB6>	0
<0xB7>	0
<0xB8>	0
<0xB9>	0
<0xBA>	0
<0xBB>	0
<0xBC>	0
<0xBD>	0
<0xBE>	0
<0xBF>	0
<0xC0>	0
<0xC1>	0
<0xC2>	0
<0xC3>	0
<0xC4>	0
<0xC5>	0
<0xC6>	0
<0xC7>	0
<0xC8>	0
<0xC9>	0
<0xCA>	0
<0xCB>	0
<0xCC>	0
<0xCD>	0
<0xCE>	0
<0xCF>	0
<0xD0>	0
<0xD1>	0
<0xD2>	0
<0xD3>	0
<0xD4>	0
<0xD5>	0
<0xD6>	0
<0xD7>	0
<0xD8>	0
<0xD9>	0
<0xDA>	0
<0xDB>	0
<0xDC>	0
<0xDD>	0
<0xDE>	0
<0xDF>	0
<0xE0>	0
<0xE1>	0
<0xE2>	0
<0xE3>	0
<0xE4>	0
<0xE5>	0
<0xE6>	0
<0xE7>	0
<0xE8>	0
<0xE9>	0
<0xEA>	0
<0xEB>	0
<0xEC>	0
<0xED>	0
<0xEE>	0
<0xEF>	0
<0xF0>	0
<0xF1>	0
<0xF2>	0
<0xF3>	0
<0xF4>	0
<0xF5>	0
<0xF6>	0
<0xF7>	0
<0xF8>	0
<0xF9>	0
<0xFA>	0
<0xFB>	0
<0xFC>	0
<0xFD>	0
<0xFE>	0
<0xFF>	0
▁و	-3.8679
▁في	-4.34155
▁الله	-4.38769
▁من	-4.43624
▁	-4.60656
ة	-4.69387
ي	-4.71808
ا	-4.73771
ه	-4.80563
و	-4.94623
ك	-5.01601
▁على	-5.03678
ها	-5.27464
▁ربي	-5.34822
▁ما	-5.38188
.	-5.39492
▁لي	-5.42794
]	-5.44542
▁[	-5.45153
▁لا	-5.51093
ت	-5.51781
نا	-5.53159
MENTION	-5.55256
،	-5.60301
▁انا	-5.60903
▁ان	-5.70345
ين	-5.75327
▁...	-5.81181
▁يا	-5.82676
هم	-5.85404
ش	-5.87342
▁ال	-5.90541
▁كل	-5.92005
▁،	-5.92477
▁ب	-5.94005
...	-5.97601
ات	-5.98606
▁ل	-6.0119
وا	-6.091
▁-	-6.12123
▁.	-6.13363
م	-6.13634
▁ولا	-6.13732
ية	-6.14201
▁هذا	-6.14246
▁استاذ	-6.16074
▁أن	-6.16874
▁وال	-6.26586
▁شاء	-6.2821
ني	-6.28268
▁ت	-6.28332
▁مع	-6.29956
▁ي	-6.30051
3	-6.32229
▁غير	-6.36115
▁م	-6.37207
▁والله	-6.3725
▁كي	-6.38103
▁❤	-6.38238
▁ا	-6.40083
▁شكرا	-6.40156
▁اللهم	-6.41033
▁هو	-6.42104
▁عن	-6.45493
:	-6.47662
▁ف	-6.48856
▁:	-6.49978
▁تاع	-6.51367
▁ن	-6.51516
▁لل	-6.51726
▁بال	-6.53543
ون	-6.55476
▁الم	-6.55477
▁عليه	-6.55605
▁هه	-6.57425
كم	-6.57597
▁يارب	-6.58855
▁عليكم	-6.59413
▁السلام	-6.60593
▁كان	-6.6196
ال	-6.62781
▁بزاف	-6.63116
▁(	-6.6324
▁فيك	-6.64609
▁😂😂	-6.66253
▁بصح	-6.68461
ن	-6.69746
▁❤❤	-6.70207
؟	-6.70442
▁؟	-6.70839
▁حتى	-6.71661
▁راني	-6.73433
▁لك	-6.742
▁بارك	-6.76503
▁او	-6.76613
▁أ	-6.76707
▁لم	-6.7758
▁قال	-6.78465
▁هي	-6.82823
▁3	-6.83332
❤	-6.8343
لي	-6.84475
▁واحد	-6.85302
▁الا	-6.85347
▁تع	-6.87577
▁لله	-6.87633
)	-6.87894
s	-6.87928
▁كامل	-6.88281
▁كنت	-6.91244
▁فيديو	-6.9173
▁"	-6.93763
▁خير	-6.94742
ى	-6.96368
▁واش	-6.9653
▁هل	-6.97894
▁أو	-6.98982
▁عليك	-6.99385
▁إن	-7.01325
▁باك	-7.0143
▁الباك	-7.0283
▁😂	-7.0422
▁بعد	-7.06489
ان	-7.06881
▁فيها	-7.09019
تي	-7.09983
▁خويا	-7.11235
▁راك	-7.13031
ل	-7.14832
9	-7.15545
▁فال	-7.16207
▁فيه	-7.16288
▁هذه	-7.17345
▁يحفظك	-7.17575
اء	-7.18244
▁لكن	-7.18392
ر	-7.18491
a	-7.18599
▁وي	-7.18721
▁أنا	-7.1894
▁وين	-7.20454
7	-7.2178
❤❤	-7.21941
▁هنا	-7.2257
▁قبل	-7.22855
▁مي	-7.23427
▁صح	-7.23583
▁له	-7.2435
وش	-7.24636
▁إلى	-7.25384
لك	-7.26759
▁يوم	-7.2723
▁التي	-7.27662
▁عندي	-7.2784
▁باش	-7.27982
▁انت	-7.28494
▁كيما	-7.28586
ف	-7.28752
▁برك	-7.29798
▁بلي	-7.31035
▁مت	-7.3119
▁لولا	-7.32473
ب	-7.3343
▁رب	-7.35042
▁كاين	-7.36388
▁وسلم	-7.36636
ته	-7.37243
'	-7.37657
😂	-7.37683
k	-7.3771
▁عند	-7.37813
😂😂	-7.39375
▁الذي	-7.40092
▁يكون	-7.40191
▁بين	-7.40345
▁ام	-7.40939
ما	-7.41141
t	-7.41646
▁شكون	-7.41655
e	-7.42046
▁ادعولي	-7.42629
تك	-7.43247
▁؟؟	-7.44467
▁وت	-7.44967
▁اي	-7.45532
▁الفيديو	-7.45554
,	-7.46031
▁الجزائر	-7.46242
▁كانت	-7.4722
▁كيف	-7.47581
▁l	-7.4776
▁راه	-7.47844
د	-7.48887
▁اخي	-7.49027
▁بن	-7.49157
▁الى	-7.49328
؟؟	-7.50011
▁w	-7.50767
▁الناس	-7.51072
▁خيرا	-7.51097
▁صلى	-7.52081
▁كما	-7.52243
▁ماشي	-7.53854
تها	-7.54728
▁دير	-7.55239
▁محمد	-7.55271
i	-7.55419
▁راح	-7.55974
▁اختي	-7.56389
▁😢	-7.56723
لو	-7.57615
▁قصة	-7.57761
▁تكون	-7.58139
لنا	-7.58832
▁اذا	-7.59871
يا	-7.60041
▁وش	-7.60221
▁أستاذ	-7.60663
▁يعني	-7.60736
▁به	-7.6154
▁فضلك	-7.61672
▁ذلك	-7.6231
▁لازم	-7.62388
▁امين	-7.62732
▁الف	-7.62869
▁)	-7.62982
▁فقط	-7.63207
▁رضا	-7.63372
▁2	-7.63599
▁نتا	-7.64246
▁يعطيك	-7.6519
▁إلا	-7.65494
▁وم	-7.65685
▁ون	-7.65703
▁الي	-7.65755
ع	-7.66245
▁وانا	-7.67387
▁اليوم	-7.67496
"	-7.6751
س	-7.68087
▁عندك	-7.68139
▁عليها	-7.68744
▁مش	-7.68907
o	-7.69042
▁بل	-7.69535
▁افضل	-7.70029
y	-7.7016
▁سلام	-7.70435
▁الحمد	-7.71038
m	-7.71098
▁إ	-7.71151
▁ياربي	-7.71589
▁لو	-7.71626
▁علاه	-7.7165
▁أخي	-7.73087
▁نجيب	-7.73544
من	-7.74121
▁قصص	-7.74716
▁يبارك	-7.74747
▁ختي	-7.74941
▁بك	-7.75721
-	-7.76726
▁حاجة	-7.76842
▁الخير	-7.77113
▁ديرلنا	-7.77131
▁رانا	-7.77345
▁جزاك	-7.78064
d	-7.78923
h	-7.78924
▁خاوتي	-7.79207
▁la	-7.7963
▁مرة	-7.79743
▁حنا	-7.80155
▁ومن	-7.80288
▁هاد	-7.8173
▁نفس	-7.81948
▁قد	-7.82209
▁اللي	-7.82331
▁ورحمة	-7.82969
r	-7.835
▁اول	-7.83951
▁لنا	-7.84382
تش	-7.84877
▁وما	-7.85582
la	-7.85856
▁ثم	-7.86093
▁العالمين	-7.86189
▁وأ	-7.86697
▁ليس	-7.86762
5	-7.86842
في	-7.88126
▁هذي	-7.88247
▁ta	-7.88559
2	-7.88848
لا	-7.88914
▁بعض	-7.89315
▁علي	-7.89578
▁وربي	-7.89781
f	-7.90153
▁الصحة	-7.9058
▁علينا	-7.91317
▁مليح	-7.91451
وه	-7.91484
▁عام	-7.91623
▁a	-7.92069
▁ممكن	-7.92144
يه	-7.92295
▁ك	-7.93159
▁أم	-7.93373
▁قلت	-7.93402
1	-7.93418
l	-7.93516
▁العام	-7.93639
😢	-7.94217
ج	-7.94584
▁نحبك	-7.94647
▁الجنة	-7.94818
▁إذا	-7.94929
▁عبد	-7.95159
▁شيء	-7.95182
n	-7.95773
▁جدا	-7.96461
▁تعالى	-7.96691
▁الأ	-7.97008
▁*	-7.97277
▁,	-7.97475
▁والو	-7.97709
ص	-7.98022
▁وليد	-7.98103
▁m	-7.98105
w	-7.98827
▁بالمثل	-7.98923
▁f	-7.98968
▁بالله	-7.99331
▁لها	-7.99346
▁فل	-7.99646
▁حكاية	-7.99653
▁تاعك	-8.01332
▁يت	-8.01433
▁كون	-8.01512
▁مات	-8.01613
▁هدا	-8.02304
▁ولكن	-8.02376
▁دار	-8.02596
▁t	-8.02639
▁نعم	-8.02659
▁القصة	-8.03042
▁9	-8.03381
▁de	-8.03523
▁1	-8.03933
▁ناس	-8.04126
▁البكالوريا	-8.04486
▁رسول	-8.04487
▁انشاء	-8.04523
يش	-8.04901
▁وهو	-8.05021
▁باه	-8.05335
▁كيفاش	-8.0535
ح	-8.05403
▁n	-8.05774
▁5	-8.05996
▁معاك	-8.06285
b	-8.064
ط	-8.07125
▁قاع	-8.07287
▁لباك	-8.07409
ق	-8.07589
▁ندي	-8.07693
تو	-8.08087
▁يوفقك	-8.08219
تنا	-8.08486
▁راجعون	-8.08538
▁مشي	-8.08675
▁راهي	-8.08758
▁شحال	-8.08889
4	-8.09051
c	-8.09131
▁les	-8.09343
▁وقت	-8.09671
p	-8.09943
g	-8.09993
▁بلا	-8.10184
▁ma	-8.10196
▁الت	-8.10393
▁وبركاته	-8.10866
▁الكريم	-8.10892
▁خو	-8.11739
▁ماشاء	-8.11788
ز	-8.12009
▁كمل	-8.12304
▁اني	-8.12553
▁كيفاه	-8.12553
▁بزااف	-8.13075
▁وكل	-8.13225
▁بها	-8.13587
▁رمضان	-8.14015
▁جا	-8.14067
وني	-8.14331
▁سنة	-8.14381
▁ولكم	-8.14403
▁2025	-8.14499
خ	-8.14745
▁منها	-8.14828
آ	-8.14839
▁ابن	-8.15067
▁شعبة	-8.15076
▁وفي	-8.15196
▁تاني	-8.15276
ور	-8.15356
▁يقول	-8.15524
▁نشوف	-8.15664
▁الموضوع	-8.15815
لها	-8.15869
▁ندير	-8.16285
▁😊	-8.16289
ير	-8.16521
_	-8.16552
▁أي	-8.16606
▁تقول	-8.16968
▁❤️	-8.17912
▁استاذة	-8.18461
▁عليهم	-8.18551
▁يدير	-8.18775
▁آمين	-8.18798
يت	-8.19126
▁يرحم	-8.19318
▁جام	-8.19592
▁سي	-8.19801
▁جديد	-8.20181
ار	-8.20341
▁مثل	-8.20362
▁يحفضك	-8.20431
z	-8.20535
▁وان	-8.2054
▁وحدة	-8.20891
▁+	-8.21094
▁😢😢	-8.21145
j	-8.2124
▁معدل	-8.21387
يات	-8.21389
▁4	-8.21562
u	-8.2223
▁زوج	-8.22254
▁المنتدى	-8.22352
وها	-8.22642
▁جميع	-8.22806
▁y	-8.2289
▁الحق	-8.22939
▁روحي	-8.23006
▁والم	-8.23028
▁ماي	-8.23171
▁نهار	-8.23176
▁ينجحنا	-8.23458
ذ	-8.23482
▁لكم	-8.23704
▁نت	-8.23808
▁7	-8.23837
ربي	-8.24107
ch	-8.2429
▁أنت	-8.24306
▁الوقت	-8.24342
▁عليا	-8.24437
▁راهم	-8.24676
▁راكي	-8.24778
▁هاذي	-8.24956
▁مرحبا	-8.25807
▁مزال	-8.25892
▁كتاب	-8.26083
6	-8.26202
دي	-8.26365
ث	-8.26619
▁لن	-8.26664
▁نتاع	-8.26725
▁ع	-8.26778
▁ميزان	-8.26813
▁الجن	-8.26896
▁شفت	-8.27258
▁10	-8.27555
▁لما	-8.27942
na	-8.28212
▁اليه	-8.28222
▁النبي	-8.28331
▁😅	-8.28387
▁سؤال	-8.28874
▁تت	-8.29059
▁العظيم	-8.29289
▁تحت	-8.29367
▁ya	-8.29572
▁اكثر	-8.29643
▁هناك	-8.29654
▁صباح	-8.29729
▁محتوى	-8.30274
▁وشكرا	-8.30336
أ	-8.30357
▁طريقة	-8.30439
▁شعر	-8.30899
▁2026	-8.31074
يك	-8.31134
▁شهادة	-8.31174
ولي	-8.31259
😊	-8.31316
▁فا	-8.31481
▁هادي	-8.31526
v	-8.31609
اب	-8.32174
▁تحياتي	-8.32174
ha	-8.32189
▁مام	-8.32339
▁العلم	-8.32341
اد	-8.32441
▁المهم	-8.32959
▁كلش	-8.32963
8	-8.33348
▁إليه	-8.33524
▁نتفرج	-8.3353
/	-8.34
▁لكل	-8.34011
▁كثيرا	-8.34117
▁س	-8.34205
▁نقرا	-8.34964
▁رعب	-8.35133
غ	-8.35267
ئ	-8.35367
▁با	-8.35694
▁عندو	-8.35731
▁تم	-8.35745
▁رحمة	-8.36038
تني	-8.36123
▁بالتوفيق	-8.36283
▁نشالله	-8.36337
▁عنه	-8.36516
▁است	-8.3654
▁عادي	-8.3674
▁الان	-8.36839
▁شيخ	-8.36854
▁🤲	-8.37144
لهم	-8.37415
▁الإ	-8.37599
▁قلبي	-8.37673
▁علاش	-8.37935
▁العالم	-8.37997
وم	-8.38522
▁b	-8.39241
▁شرح	-8.39249
▁حبيت	-8.39272
x	-8.39397
▁the	-8.39487
▁حاب	-8.39506
▁الن	-8.39509
▁المسلمين	-8.39853
(	-8.39921
▁أفضل	-8.40028
▁مبروك	-8.40068
▁روح	-8.40143
▁أختي	-8.40376
▁خاصة	-8.40442
ام	-8.40635
▁ديرنا	-8.40705
▁ثاني	-8.40848
▁النجاح	-8.41271
▁le	-8.41275
▁هاذ	-8.41703
يد	-8.41826
▁حل	-8.41852
al	-8.42201
▁اسم	-8.42541
▁نتي	-8.42602
▁الشعر	-8.42728
ض	-8.42762
▁وحد	-8.42887
▁موضوع	-8.43046
▁بمعدل	-8.4305
▁🙂	-8.43363
▁الثاني	-8.43454
▁li	-8.43699
▁درت	-8.4379
▁حول	-8.43803
يل	-8.43829
ra	-8.4392
▁استاد	-8.43965
▁الدنيا	-8.44419
▁القصص	-8.44436
▁16	-8.44759
▁ولي	-8.45128
▁جزيلا	-8.45283
▁حبيبتي	-8.45353
▁الع	-8.45607
▁الصبر	-8.4564
▁ننجح	-8.45807
▁العباسية	-8.45842
▁الشيخ	-8.4595
▁فلا	-8.46465
▁سبحان	-8.46724
يين	-8.46752
▁you	-8.46798
▁الدين	-8.46823
▁العربية	-8.46835
▁حسناتك	-8.46991
❤️	-8.46998
er	-8.47015
▁15	-8.47091
▁حق	-8.47152
*	-8.47158
▁يوفقنا	-8.47297
▁جيت	-8.47749
▁هم	-8.47793
▁نحن	-8.47858
😅	-8.48242
▁نشاله	-8.48706
▁القرآن	-8.49044
وك	-8.49061
URL	-8.49202
▁شخص	-8.49278
▁يجي	-8.49705
▁احسن	-8.49759
▁2024	-8.49897
▁hh	-8.49956
▁c	-8.50164
▁قوة	-8.50223
▁علا	-8.50735
▁مكان	-8.51029
▁سيبيا	-8.51054
▁الصلاة	-8.51072
▁🤣🤣	-8.51178
ظ	-8.51194
▁جماعة	-8.51208
▁هكا	-8.51224
▁نص	-8.51256
▁أنه	-8.51342
▁بديت	-8.51798
▁غي	-8.51904
▁بما	-8.5204
تهم	-8.52098
▁نقدر	-8.52296
▁17	-8.52485
▁روعة	-8.52578
▁أكثر	-8.52603
▁الشعب	-8.52956
▁اخر	-8.52975
li	-8.53117
▁بنت	-8.53175
▁I	-8.53468
▁اما	-8.53599
▁شي	-8.53916
▁لأن	-8.53975
▁الحياة	-8.54125
▁الاول	-8.54373
▁دعولي	-8.54382
▁حكايات	-8.54859
▁لان	-8.54861
ma	-8.54865
▁لالا	-8.54877
▁وعلى	-8.54955
▁لوكان	-8.55008
▁كبير	-8.55068
ول	-8.55221
q	-8.55476
▁et	-8.55488
▁6	-8.55515
▁وب	-8.55604
لة	-8.55778
▁شهر	-8.56323
▁‪	-8.5635
▁يمكن	-8.56431
▁كثر	-8.56689
رة	-8.56732
ou	-8.56741
▁بيه	-8.57212
▁حال	-8.57349
😭	-8.57409
▁مر	-8.57664
▁وهي	-8.57822
▁راكليطة	-8.58109
▁/	-8.58334
▁فيهم	-8.58464
ست	-8.58797
▁السؤال	-8.58944
▁علوم	-8.59076
▁دعوة	-8.59253
▁بإذن	-8.59279
▁راهو	-8.5964
▁بيها	-8.59714
ري	-8.60141
▁تعرف	-8.60154
▁فسيح	-8.60154
▁معليش	-8.60192
▁بيك	-8.60281
ء	-8.60312
را	-8.6033
▁نعرف	-8.60424
له	-8.60487
▁ر	-8.60788
▁للم	-8.60898
▁منهم	-8.61019
▁ست	-8.61064
▁اهلا	-8.61418
▁تن	-8.61487
▁نحب	-8.61702
▁كلمة	-8.61893
▁ول	-8.61908
▁بليز	-8.61948
▁الخ	-8.62157
▁d	-8.62191
▁بي	-8.62202
▁أهل	-8.62413
▁لت	-8.62472
▁زيد	-8.62504
جي	-8.62564
اس	-8.63127
▁دروس	-8.63383
▁اللغة	-8.6343
اك	-8.63519
▁آخر	-8.63712
▁إنا	-8.63997
▁ايه	-8.64122
▁مكانش	-8.64123
▁A	-8.64653
▁دائما	-8.64719
▁حابة	-8.64827
▁ليك	-8.65277
▁!	-8.65387
▁‬	-8.65541
ونا	-8.65589
▁عمري	-8.65589
▁روحك	-8.65737
▁نقول	-8.65824
▁صحيح	-8.66035
▁🤲🏻	-8.6608
▁الكتاب	-8.66143
▁سمعت	-8.6619
▁عمر	-8.66604
▁بكل	-8.66632
▁سيدنا	-8.66791
🙂	-8.67444
▁ولاية	-8.67455
▁18	-8.67593
▁نتمنى	-8.67656
▁فوق	-8.67674
▁فهمت	-8.6768
▁ماما	-8.67714
▁قناة	-8.68171
▁صوت	-8.68254
▁يجازيك	-8.68458
▁ولله	-8.68543
▁حساب	-8.68615
▁ص	-8.68647
▁19	-8.68676
▁بالنسبة	-8.68728
▁M	-8.68732
تم	-8.68762
▁شباب	-8.68857
▁لقيت	-8.68875
▁الب	-8.69004
وس	-8.69693
▁fi	-8.7001
اش	-8.70133
الله	-8.70336
▁انك	-8.70374
▁الذين	-8.70383
▁رائع	-8.70448
▁تحكي	-8.70695
▁هوما	-8.70841
▁نسمع	-8.70959
▁أهلا	-8.71241
▁ماذا	-8.71317
▁ولم	-8.71346
▁وهذا	-8.71539
▁معايا	-8.71574
ـ	-8.71956
▁ana	-8.72099
▁s	-8.72145
وي	-8.72382
مي	-8.72415
ينا	-8.72684
بي	-8.72874
ؤ	-8.73018
▁دون	-8.73302
▁الحكاية	-8.73367
▁يجب	-8.73544
▁انو	-8.73557
▁ياخو	-8.73568
▁رحمه	-8.73613
▁تعيش	-8.73724
✨	-8.73729
!	-8.73766
▁وبارك	-8.74029
يم	-8.74032
▁فات	-8.74097
▁بكالوريا	-8.74143
🤲	-8.74267
▁علم	-8.74319
بل	-8.74354
اه	-8.74379
يب	-8.74424
▁B	-8.74426
▁الرحمن	-8.74477
▁وليت	-8.74582
▁درس	-8.74786
▁لهم	-8.74915
▁صل	-8.7495
▁عندما	-8.74974
▁ساعة	-8.74997
▁ليوم	-8.75125
😢😢	-8.752
▁مليون	-8.75485
in	-8.7557
▁شا	-8.75577
▁طريق	-8.75707
انا	-8.75749
▁رضي	-8.75813
re	-8.75833
▁بم	-8.75849
▁جن	-8.75925
▁طيبة	-8.75989
▁اتمنى	-8.76122
▁تدي	-8.76125
▁اله	-8.7654
▁أما	-8.7655
▁جديدة	-8.76558
▁شوي	-8.76615
+	-8.76634
▁ياارب	-8.77007
وب	-8.77072
▁😭😭	-8.77145
صر	-8.77416
▁يحب	-8.77471
▁ايا	-8.77485
▁عندها	-8.77666
▁ش	-8.77715
رت	-8.77743
▁شوية	-8.7812
ود	-8.78359
▁!!	-8.78371
▁خلاص	-8.78438
▁تقدر	-8.78898
ti	-8.79109
▁الدار	-8.79173
▁كاش	-8.79242
▁12	-8.79276
▁انه	-8.79288
يس	-8.79326
▁الرعب	-8.79329
▁بخير	-8.79434
مة	-8.79463
▁كم	-8.79599
▁مان	-8.79747
▁شابة	-8.80075
▁😭	-8.80308
سي	-8.80401
▁معا	-8.80517
▁يعرف	-8.80632
ناش	-8.80785
كي	-8.80965
▁شكراا	-8.81337
▁تجي	-8.81496
اني	-8.81539
▁شاءلله	-8.81604
▁سا	-8.81662
▁شعب	-8.81705
▁فرحة	-8.81769
▁معانا	-8.81944
▁السنة	-8.81948
▁حيث	-8.82004
▁فلسطين	-8.82013
▁مقترحات	-8.82318
اج	-8.82376
▁ج	-8.82486
▁العمل	-8.82499
▁لايك	-8.82538
▁بدون	-8.82798
بر	-8.82914
▁حسب	-8.8297
▁فيديوهات	-8.83125
▁وإن	-8.83327
▁j	-8.83438
ed	-8.83728
é	-8.83792
▁فيكم	-8.83874
▁نورمال	-8.83994
▁ديري	-8.84006
▁حب	-8.84239
▁ولد	-8.84387
كل	-8.8453
رو	-8.84585
▁وعليكم	-8.84628
▁دي	-8.84652
es	-8.8467
عة	-8.84671
▁بسم	-8.8515
▁خوتي	-8.85187
▁أحد	-8.85427
بة	-8.85528
▁كبيرة	-8.85598
▁=	-8.85663
هاش	-8.85801
▁فإن	-8.85872
▁انسان	-8.85919
▁دخل	-8.85963
▁محل	-8.85964
▁هكذا	-8.85991
▁منك	-8.86234
هل	-8.86335
▁14	-8.86848
▁20	-8.86881
💔	-8.87007
▁سورة	-8.87383
▁راكم	-8.87481
▁بابا	-8.87497
حي	-8.8763
▁‏	-8.87676
▁هيا	-8.87698
▁دخلت	-8.88012
▁قريب	-8.88177
it	-8.88325
▁وقال	-8.88345
▁ou	-8.88352
▁جات	-8.88614
▁شر	-8.88634
▁سلم	-8.88641
▁جد	-8.88774
▁رد	-8.88813
▁8	-8.88833
▁فعل	-8.88902
▁وحدي	-8.88904
ri	-8.89043
▁الجزء	-8.89056
▁أبي	-8.89109
▁قول	-8.89449
▁تحب	-8.8946
▁هاذا	-8.89484
▁جميل	-8.89506
▁زعما	-8.89554
▁T	-8.89572
▁الليل	-8.89588
▁عجبتني	-8.89779
ya	-8.8978
▁مثلا	-8.90149
▁وقد	-8.90238
▁جميعا	-8.9026
▁عودة	-8.90699
▁بش	-8.90706
▁تاعي	-8.90887
🎉	-8.90983
▁ذكر	-8.91195
▁أول	-8.91326
▁وليس	-8.91395
▁🎉	-8.91483
▁الوكيل	-8.91734
▁القلب	-8.9191
▁الكثير	-8.91973
▁تعليق	-8.9217
▁مل	-8.92215
▁القمة	-8.92329
▁مواضيع	-8.92355
▁عندنا	-8.92429
ad	-8.9272
حب	-8.92754
▁وانت	-8.92805
دة	-8.92893
▁S	-8.92909
▁ني	-8.93013
▁عز	-8.93025
▁د	-8.93032
▁فأ	-8.93034
▁هدي	-8.93105
▁بركاته	-8.93151
▁الفاضل	-8.9326
ak	-8.93279
با	-8.93409
▁والا	-8.93435
▁هذاك	-8.9356
▁بالم	-8.93586
▁نا	-8.93666
▁حر	-8.93712
▁عدد	-8.93752
▁رح	-8.93784
▁حي	-8.94148
دو	-8.94283
▁ابوني	-8.94341
تين	-8.94348
▁مسلم	-8.94366
لم	-8.944
️	-8.94434
اتك	-8.94709
دا	-8.94727
▁تاريخ	-8.94768
▁تحية	-8.94787
جر	-8.94967
▁لقد	-8.95
▁تهدر	-8.95558
يلي	-8.95695
▁مكاش	-8.958
=	-8.95954
▁to	-8.96118
▁الجزائري	-8.96324
▁مال	-8.96362
▁سن	-8.96544
▁رائعة	-8.96544
وف	-8.96568
الم	-8.96574
▁الحل	-8.96649
▁نور	-8.96857
▁راجل	-8.96883
at	-8.96944
▁نموت	-8.9703
▁فقد	-8.97052
▁مشكل	-8.97195
▁تعيشي	-8.97196
▁شكر	-8.97272
▁ينجحك	-8.97312
di	-8.97315
وت	-8.97333
▁واصل	-8.97356
▁الجلفة	-8.97387
▁أخرى	-8.9742
▁يرحمها	-8.97601
▁عل	-8.97671
▁تحيا	-8.97701
▁نروح	-8.97863
دين	-8.9795
▁😍	-8.9796
▁قسم	-8.97983
▁كن	-8.98167
▁كتب	-8.9819
▁حرام	-8.98255
▁العربي	-8.98258
▁i	-8.98294
ta	-8.98318
▁نفهم	-8.98477
▁تجيب	-8.98488
ni	-8.98524
▁الصح	-8.9853
▁🇩🇿	-8.98694
يف	-8.98714
فت	-8.98768
	-8.98832
رد	-8.98856
▁مازال	-8.98878
قت	-8.98898
▁الش	-8.98901
▁حتا	-8.98957
▁ايام	-8.98976
ir	-8.99041
▁تخوف	-8.99087
▁بلييز	-8.99107
يها	-8.9913
▁مشاء	-8.99151
▁قل	-8.99504
▁مرا	-8.99548
▁المشكل	-8.99621
▁قلب	-8.99635
▁هادا	-8.99698
▁مليحة	-8.99872
▁مستجابة	-8.99998
لت	-9.00009
▁طول	-9.00019
بت	-9.00058
▁L	-9.00087
اح	-9.00091
▁عين	-9.00101
▁داير	-9.00142
▁وأن	-9.00143
▁أمين	-9.00475
فر	-9.00638
؛	-9.0106
▁نفسي	-9.01087
▁جامي	-9.01136
▁ألف	-9.0115
كون	-9.01165
▁اهل	-9.01186
وهم	-9.01283
▁ڨاع	-9.01329
▁كنا	-9.01427
▁شوف	-9.01459
▁اخرى	-9.01499
▁ونعم	-9.01633
▁تشوف	-9.01708
▁رحت	-9.01882
▁هذو	-9.01937
▁#	-9.0199
▁قريت	-9.02018
▁نسيت	-9.02086
▁غ	-9.02087
فا	-9.02089
▁خوف	-9.02173
▁te	-9.02287
▁آ	-9.02297
▁بو	-9.02392
▁ليلة	-9.02396
▁40	-9.02433
▁وكان	-9.02474
▁❤️❤️	-9.02649
▁صغير	-9.02796
▁ولو	-9.02803
بو	-9.02887
▁اريد	-9.02923
🥺	-9.02935
▁لانو	-9.03064
صح	-9.03108
▁ها	-9.03221
▁ملي	-9.0326
▁عمل	-9.03291
▁لمن	-9.034
▁نبدا	-9.03434
😍	-9.0356
در	-9.03661
▁?	-9.03697
▁باقي	-9.03697
▁التوفيق	-9.03738
▁نوع	-9.03873
le	-9.03894
▁✨	-9.0399
▁حياتك	-9.04171
!!	-9.04244
قة	-9.04266
▁معاه	-9.04373
▁صحا	-9.04422
▁حياتي	-9.04584
▁رغم	-9.04589
▁والسلام	-9.04657
▁تعليقي	-9.04812
da	-9.04855
▁وفلسفة	-9.04888
▁جزء	-9.04899
▁كانو	-9.04913
▁خاص	-9.04921
▁لفيديو	-9.04925
▁اعلم	-9.05014
▁الس	-9.05048
▁الرد	-9.05111
▁je	-9.05343
▁ki	-9.05407
▁الاستاذ	-9.05519
’	-9.05657
▁بلاك	-9.05666
▁جميلة	-9.05678
▁يوجد	-9.05718
▁فكرة	-9.05801
ing	-9.0583
دير	-9.05912
▁خفت	-9.05984
▁الأول	-9.05996
▁الجميع	-9.06274
est	-9.064
▁مين	-9.06426
حل	-9.0659
او	-9.06746
en	-9.06897
▁C	-9.07041
▁شاءالله	-9.07392
▁ايضا	-9.07426
▁مد	-9.07444
▁يرزقك	-9.07587
وال	-9.07611
▁en	-9.07635
▁غريب	-9.07811
▁مس	-9.07819
▁قالت	-9.07876
▁عندهم	-9.07904
ek	-9.07993
▁الدعاء	-9.08133
▁والديك	-9.08179
▁باذن	-9.08186
▁الإسلام	-9.0823
يني	-9.0837
▁رقم	-9.08494
▁لعزيز	-9.08535
قو	-9.08541
▁المت	-9.0869
▁video	-9.08705
▁الح	-9.08779
اق	-9.08811
▁المغرب	-9.08867
▁بكري	-9.08958
▁الدروس	-9.09064
هن	-9.09243
▁نصيحة	-9.09383
▁نديرو	-9.09504
▁يجيب	-9.0954
▁سبب	-9.0954
▁لينا	-9.0956
▁كلام	-9.09661
▁ديت	-9.09669
▁bac	-9.097
▁نفسه	-9.09754
اللهم	-9.0976
فل	-9.09812
ارة	-9.09934
?	-9.10007
▁ريضا	-9.10276
▁🤍	-9.10286
▁وزيد	-9.10384
▁عمي	-9.1053
▁اداب	-9.10549
▁طلب	-9.10629
▁سلسلة	-9.10643
▁تعلم	-9.10801
▁in	-9.11171
مر	-9.11225
▁القناة	-9.11235
لكم	-9.11413
▁«	-9.11528
وع	-9.11534
▁خاطر	-9.11621
▁وجزاك	-9.11653
▁😅😅	-9.1167
▁بأن	-9.11678
▁يخليك	-9.11719
▁دا	-9.11756
▁el	-9.11855
▁اغفر	-9.11917
▁لكي	-9.11935
▁وجه	-9.1204
▁11	-9.12055
قال	-9.1214
▁ادا	-9.12157
▁لأ	-9.12309
▁ربما	-9.12326
▁لحكاية	-9.12398
▁اكبر	-9.12504
▁ليست	-9.12512
ڨ	-9.12575
▁لدي	-9.12592
▁قدر	-9.12666
▁شاف	-9.12709
تر	-9.12779
il	-9.12815
▁رجل	-9.12872
el	-9.12898
ba	-9.12911
▁يدي	-9.1303
▁البيت	-9.13033
▁🤲🤲	-9.13094
▁ولكل	-9.13124
▁النار	-9.13131
▁مفهمتش	-9.13151
▁بسبب	-9.13364
▁مبارك	-9.13411
▁راكليطا	-9.13562
ar	-9.13569
▁تاعو	-9.13584
▁معنا	-9.13607
▁me	-9.13615
▁باينة	-9.1372
▁خلال	-9.13728
▁هادو	-9.13773
▁أتمنى	-9.13798
M	-9.13829
▁تخرج	-9.13865
فة	-9.1389
▁ديما	-9.13961
▁المرأة	-9.13962
▁لول	-9.13971
▁فهو	-9.14034
🤍	-9.14058
▁الق	-9.141
ولا	-9.14175
▁اليوتيوب	-9.14253
▁فديو	-9.14271
▁احد	-9.14408
مو	-9.1448
▁داخل	-9.14509
▁الحقيقة	-9.1458
▁صالح	-9.14654
▁ديرو	-9.14679
te	-9.14718
▁is	-9.14754
▁أيضا	-9.14811
▁هاذو	-9.14889
▁يدخل	-9.15049
عرف	-9.15061
▁اجمعين	-9.15136
زي	-9.15263
▁🥺	-9.15561
▁h	-9.15573
am	-9.15601
▁sa	-9.15737
▁جزائري	-9.15841
▁اا	-9.15926
نة	-9.1598
▁لغات	-9.16031
▁نجيبو	-9.16052
▁ريدكس	-9.16069
▁صغيرة	-9.16162
يح	-9.16198
▁شيكور	-9.16224
▁ننجحو	-9.16245
▁دعواتكم	-9.16401
▁فت	-9.16464
▁صاحب	-9.16472
▁النص	-9.16497
▁نو	-9.16513
▁اصلا	-9.16659
▁دراهم	-9.1671
▁2023	-9.17296
▁_	-9.17333
▁wa	-9.17346
▁ندخل	-9.17437
▁باب	-9.17459
▁بس	-9.17508
▁ات	-9.1766
▁منه	-9.17723
▁عربية	-9.17824
كتب	-9.17884
▁السحر	-9.17971
▁rabi	-9.17989
▁الادب	-9.18017
▁حسن	-9.18145
▁and	-9.18216
or	-9.18238
▁لماذا	-9.18284
▁فهم	-9.18366
▁اس	-9.18443
▁سر	-9.18449
▁تلك	-9.18459
جد	-9.18513
همش	-9.18517
▁🎉🎉	-9.18609
▁N	-9.18652
▁13	-9.1868
▁فقال	-9.18771
▁للجميع	-9.18796
▁فى	-9.18842
▁pour	-9.18845
قد	-9.19057
▁نكون	-9.19064
▁الرجل	-9.19423
▁كثير	-9.19426
▁التعليق	-9.19431
▁💔	-9.19497
▁الج	-9.19577
▁ga	-9.19646
▁ارجو	-9.19648
▁يديرو	-9.19702
▁نفسك	-9.19793
▁فضلكم	-9.19807
▁سأ	-9.20122
▁الحديث	-9.20141
▁منذ	-9.20169
▁دور	-9.20177
▁الخوف	-9.20206
▁ينجح	-9.20262
▁أستاذة	-9.20352
اط	-9.20413
▁يشوف	-9.20423
▁نجاح	-9.20548
▁ين	-9.20559
▁ط	-9.20683
▁أعلم	-9.207
▁انتي	-9.20753
سر	-9.20828
▁ممتاز	-9.20859
▁نتوما	-9.20885
▁W	-9.20924
▁يفرحك	-9.20991
قل	-9.20997
▁للباك	-9.21081
قول	-9.2115
▁عدم	-9.21187
▁مرت	-9.21311
▁H	-9.21434
▁الثانية	-9.21449
جا	-9.21611
▁الجزائرية	-9.21679
▁الرسول	-9.21698
▁قمة	-9.21829
شي	-9.21976
▁توحشناك	-9.22015
▁نسقسيك	-9.22015
▁نفرح	-9.22155
▁جاء	-9.22157
▁مما	-9.22183
▁طفلة	-9.22254
▁خلق	-9.22301
▁غدوة	-9.22445
▁أمر	-9.22547
▁ز	-9.22644
▁الشكر	-9.22757
▁عنها	-9.22791
يتي	-9.22815
▁بيهم	-9.22858
▁وكي	-9.22938
▁تقبل	-9.22962
▁سيد	-9.23045
▁هايل	-9.23136
▁مو	-9.23248
▁الإنسان	-9.23285
▁يهدر	-9.23398
▁جبت	-9.2344
▁خرج	-9.23519
نت	-9.23551
▁حط	-9.23661
▁الرحيم	-9.23698
▁عرفت	-9.23709
▁Hhh	-9.23736
▁الحال	-9.23757
▁جملة	-9.23907
▁كذلك	-9.23909
▁الص	-9.23916
عا	-9.23971
▁الآن	-9.23986
▁بدا	-9.24208
▁قادة	-9.24315
▁الر	-9.24326
▁بأ	-9.24387
▁حفظ	-9.24479
▁حرة	-9.24497
▁رحم	-9.24575
▁شغل	-9.24765
▁بنات	-9.24868
▁الاسلام	-9.24874
▁حسيت	-9.24909
▁المن	-9.24921
▁des	-9.25032
▁هاك	-9.25047
▁wlh	-9.2511
▁الاسئلة	-9.25422
▁سحر	-9.25562
▁تولي	-9.25629
مل	-9.25908
نى	-9.25954
▁والت	-9.26163
😭😭	-9.26297
▁وسهلا	-9.26368
▁عنده	-9.264
▁ناجحين	-9.26423
▁تدخل	-9.26451
▁الأمر	-9.26514
طر	-9.26944
▁😊😊	-9.2696
▁الاولى	-9.27076
▁يرحمو	-9.27094
▁صراحة	-9.27156
▁حد	-9.27221
▁ادعو	-9.2723
▁الأرض	-9.27256
▁الو	-9.27332
💗	-9.27372
▁مست	-9.27408
▁اين	-9.27417
▁لهذا	-9.27627
▁سنين	-9.27658
▁بلادي	-9.27703
▁معاكم	-9.27786
▁حا	-9.27827
فهم	-9.28091
▁الطريقة	-9.28105
ay	-9.28201
▁عالم	-9.2822
▁لعام	-9.28249
▁دقيقة	-9.2837
دخل	-9.28397
شكرا	-9.28403
▁nta	-9.2841
▁منا	-9.28477
T	-9.28655
▁طيب	-9.28736
اف	-9.28972
▁خبر	-9.28996
▁نعاود	-9.29071
▁que	-9.2911
مت	-9.29117
▁المجهر	-9.29221
▁هك	-9.29342
هما	-9.29557
▁الانسان	-9.29587
▁بت	-9.29637
▁صورة	-9.29724
▁الباب	-9.29784
▁نحس	-9.29815
▁😍😍	-9.29947
▁النهار	-9.29993
راك	-9.30095
▁باسكو	-9.30125
▁يجعل	-9.30158
▁تبارك	-9.30167
▁جاي	-9.30195
▁نشاء	-9.3022
جل	-9.3028
بن	-9.30292
▁J	-9.30329
▁فما	-9.30397
▁ولاد	-9.30557
▁الكلام	-9.30608
خير	-9.30625
▁اجعل	-9.30786
▁علاقة	-9.30806
لل	-9.30906
▁تروح	-9.31072
ئة	-9.31073
عت	-9.31215
جة	-9.3127
▁فلسفة	-9.31306
▁mn	-9.31313
▁أحسن	-9.31316
▁pas	-9.31466
تكم	-9.31499
▁حديث	-9.31801
▁أبو	-9.31812
روح	-9.31834
to	-9.31904
▁شويا	-9.31905
▁نرقد	-9.31906
▁Ya	-9.31977
▁يست	-9.32074
▁Bac	-9.32106
▁حين	-9.32172
▁روطار	-9.32179
ذكر	-9.32349
▁P	-9.32358
▁حكم	-9.32493
يق	-9.32517
▁k	-9.32539
ذا	-9.3258
مثل	-9.32687
▁انها	-9.32811
▁أكبر	-9.32866
▁العرب	-9.32871
الي	-9.33026
▁سهلا	-9.33058
▁D	-9.3306
▁واه	-9.33148
▁التاريخ	-9.33154
▁يقدر	-9.33232
▁وهل	-9.33308
لف	-9.33472
▁بهذا	-9.33478
▁خرجت	-9.33631
▁أنك	-9.33745
et	-9.33768
▁يس	-9.33799
ah	-9.33916
▁{	-9.33924
▁تحط	-9.33939
▁redx	-9.34011
▁قلبك	-9.34087
▁الثورة	-9.34128
an	-9.34161
▁كريم	-9.34207
يرة	-9.34304
▁الأخ	-9.34357
▁ركليطة	-9.34376
▁جو	-9.34435
▁الموت	-9.34672
▁نخدم	-9.34692
▁ch	-9.3478
▁100	-9.34788
▁حالة	-9.34835
▁K	-9.34916
▁سوف	-9.34919
▁هوا	-9.34965
▁صلاة	-9.34993
▁كال	-9.35009
).	-9.35019
▁for	-9.35039
▁القسم	-9.35051
▁na	-9.35076
▁اب	-9.35138
▁we	-9.35185
زيد	-9.35239
▁مهم	-9.35251
▁عضو	-9.35254
ro	-9.35264
▁آل	-9.35273
▁kho	-9.35405
🤣🤣	-9.35489
▁سنوات	-9.35526
▁واحدة	-9.35545
▁وراني	-9.35642
▁المحتوى	-9.35673
قر	-9.35711
▁هذيك	-9.35713
تلي	-9.35826
▁بغيت	-9.35849
▁تستاهل	-9.35969
▁واو	-9.35995
▁معنى	-9.36008
▁الكريمة	-9.36082
▁ح	-9.36136
▁احب	-9.36149
▁vidéo	-9.36283
▁F	-9.36324
▁نخاف	-9.3643
▁وإنا	-9.36469
ضر	-9.36477
me	-9.36569
▁الباكالوريا	-9.36619
wa	-9.36622
▁قادر	-9.36641
▁تفهم	-9.36687
▁طب	-9.36703
▁be	-9.36833
▁الاخ	-9.36841
A	-9.36886
شر	-9.3694
دى	-9.36992
▁مشكور	-9.37145
▁طفل	-9.37148
طل	-9.37169
غير	-9.37274
▁اه	-9.37281
▁الدرس	-9.37292
▁الطيب	-9.37293
ــ	-9.37394
▁الل	-9.37416
▁مح	-9.37465
▁حقا	-9.37491
▁الغ	-9.37514
▁un	-9.37633
▁المواضيع	-9.37635
▁ليا	-9.37878
▁يحفظكم	-9.37942
راء	-9.37947
▁أحب	-9.38071
▁مكنية	-9.38076
ادي	-9.38105
▁العشرية	-9.38124
▁🥰	-9.38128
قي	-9.38163
▁ديريلنا	-9.3819
▁ياا	-9.3822
▁تزيد	-9.38283
▁اجل	-9.38296
سنة	-9.38375
▁المجتمع	-9.38466
▁كتر	-9.38502
▁صلي	-9.38562
▁كملت	-9.38648
▁سبحانه	-9.38763
▁قتل	-9.38795
بال	-9.38826
▁راحت	-9.38874
▁شوفي	-9.39033
▁فري	-9.39041
kom	-9.39069
▁صحاب	-9.39087
▁إله	-9.39178
▁فعلا	-9.39341
▁يخرج	-9.39489
▁درك	-9.39607
▁نقولو	-9.39607
▁نجي	-9.39645
طو	-9.3978
▁صحة	-9.39929
▁قدام	-9.39938
▁re	-9.39973
▁استغفر	-9.40007
▁فور	-9.40018
▁مور	-9.40052
يع	-9.40105
▁أجل	-9.40159
▁جي	-9.40184
▁يقولو	-9.40256
▁بداية	-9.40287
▁حلمي	-9.40343
▁ماهو	-9.40377
▁مجرد	-9.40436
▁،،	-9.40459
عي	-9.40524
▁ضحك	-9.4058
aw	-9.40649
▁بالا	-9.40665
▁🙏	-9.40686
▁فرحت	-9.4069
▁2021	-9.40797
▁مريض	-9.40836
D	-9.40929
▁had	-9.4094
▁هايلة	-9.40998
▁so	-9.40999
مع	-9.41004
▁ماهي	-9.41044
▁برنامج	-9.41081
▁مادة	-9.41081
▁أجمعين	-9.41097
🤣	-9.41097
▁لأنه	-9.41162
كر	-9.41171
▁ثلاث	-9.41189
▁يجوز	-9.41209
▁المعلومات	-9.41253
▁o	-9.41266
▁معاهم	-9.41358
▁الشيطان	-9.41367
ورة	-9.41421
▁ضد	-9.41475
▁🤣	-9.4149
▁ارحم	-9.41518
حت	-9.41529
🙏	-9.41624
▁بدل	-9.41719
▁طبعا	-9.41782
فو	-9.41812
▁الشي	-9.41838
▁يوسف	-9.41847
كان	-9.4198
▁Ana	-9.42057
▁وأنا	-9.42172
إن	-9.42249
▁😮	-9.42264
▁تح	-9.42329
▁بقا	-9.42338
عين	-9.42344
انة	-9.42439
▁ساهل	-9.42458
▁الدراسة	-9.42482
▁((	-9.42557
▁تقرا	-9.42604
▁بر	-9.42623
▁نكمل	-9.43015
▁قولي	-9.43015
kh	-9.43023
▁ويجعل	-9.43039
▁سعيد	-9.43039
▁اسطورة	-9.43159
▁قناتك	-9.43188
▁باين	-9.43281
▁G	-9.43285
▁لع	-9.43295
▁والحمد	-9.43334
▁احبك	-9.43421
▁الحمدلله	-9.43427
▁خط	-9.43464
ol	-9.43517
▁ترك	-9.43522
از	-9.43561
يز	-9.43618
▁هذ	-9.4372
▁اجمل	-9.43817
▁كملي	-9.43887
صب	-9.43892
نو	-9.43902
▁ميلود	-9.43903
بارك	-9.44076
👍	-9.44077
▁best	-9.44218
▁سهل	-9.4424
▁الفلسفة	-9.44449
▁لايف	-9.44549
ولو	-9.44614
▁اسكو	-9.44788
على	-9.44814
بد	-9.44906
▁♥	-9.4499
اع	-9.44997
رى	-9.45005
10	-9.45096
بين	-9.45131
▁صار	-9.45214
hom	-9.45217
▁فيما	-9.45271
▁رجال	-9.45298
جاب	-9.45317
علم	-9.45361
سا	-9.45362
▁الدولة	-9.45423
▁حسبي	-9.4546
▁روحو	-9.45527
▁الشرح	-9.45583
جيب	-9.45647
▁dir	-9.45675
▁ق	-9.45714
▁يتم	-9.45768
بعد	-9.45772
ii	-9.45789
▁أولا	-9.45791
مام	-9.45853
اري	-9.45854
جب	-9.45858
▁برا	-9.45865
▁خلي	-9.45885
▁تكمل	-9.45896
▁الحر	-9.45899
bi	-9.45904
فق	-9.45939
▁اخت	-9.45991
▁تش	-9.4601
▁الثالث	-9.46269
on	-9.46286
▁تس	-9.46316
▁دين	-9.46342
▁ليل	-9.46369
اتي	-9.46546
▁الصورة	-9.46595
▁الطريق	-9.46655
▁الحكايات	-9.46668
▁دم	-9.46917
▁موقع	-9.46918
▁الأسئلة	-9.47003
راس	-9.47007
▁رجعت	-9.47037
▁كفاه	-9.47066
▁تعيشو	-9.47117
▁وضع	-9.47129
▁راس	-9.47141
▁وفقنا	-9.47146
🥰	-9.47161
▁بني	-9.47327
▁ري	-9.47418
▁قالك	-9.47423
▁دارو	-9.47533
سب	-9.47607
▁البر	-9.47676
▁فرنسا	-9.47708
بان	-9.47758
▁نشر	-9.47808
▁يعلم	-9.47932
▁بلاد	-9.47944
▁هداك	-9.47978
▁تسما	-9.48101
▁معك	-9.48246
▁والسلوان	-9.4827
حة	-9.48338
▁الك	-9.4836
▁رجع	-9.48402
S	-9.48419
▁قضية	-9.48424
▁نسأل	-9.48468
▁صاحبي	-9.4847
▁يهديك	-9.48646
▁درنا	-9.48661
P	-9.48736
نيش	-9.48816
▁طويل	-9.48853
▁اع	-9.48905
▁مصطلحات	-9.48991
▁غالط	-9.49019
🥹	-9.49025
▁اعرف	-9.49054
▁صرا	-9.49085
▁نقولك	-9.49183
▁مجهوداتك	-9.49189
▁حفظك	-9.4921
▁العزيز	-9.49265
▁الصباح	-9.49334
▁تقدري	-9.49334
▁الكل	-9.49337
L	-9.49352
▁الحالة	-9.49365
▁e	-9.49462
▁وصلت	-9.49469
▁خ	-9.49491
بس	-9.49521
▁💗	-9.49564
▁تمارين	-9.4961
▁دعاء	-9.49633
▁صرات	-9.49637
▁نن	-9.49695
▁منيش	-9.49721
ی	-9.49774
▁الفيديوهات	-9.49776
▁حقيقة	-9.49789
▁قصصك	-9.49995
وية	-9.50148
▁سما	-9.50171
ولنا	-9.50228
▁تدير	-9.50265
▁الط	-9.50411
▁المرة	-9.50445
▁مسكين	-9.505
▁أيام	-9.5053
▁ونفرح	-9.50572
▁تقولي	-9.50595
رق	-9.50634
زع	-9.50695
🔥	-9.5082
▁الفردوس	-9.50838
▁بعيد	-9.5101
▁الاجابة	-9.51022
▁g	-9.51108
▁رياض	-9.51133
ضيف	-9.51151
▁الشر	-9.51181
▁ne	-9.51193
▁عذاب	-9.51306
▁للا	-9.51428
▁بيت	-9.51507
▁الطب	-9.51528
▁تو	-9.51549
صل	-9.51653
▁العلوم	-9.51683
▁حلقة	-9.51717
▁جناته	-9.51739
كش	-9.51751
▁زاد	-9.51823
▁الأولى	-9.51897
▁يد	-9.51929
▁تجد	-9.51971
ذر	-9.51981
حا	-9.52095
بار	-9.52112
▁تجريبية	-9.52134
▁المس	-9.52164
▁مهما	-9.52181
▁الجواب	-9.522
▁شيئا	-9.52206
ine	-9.52247
lo	-9.52344
▁عمرك	-9.52462
▁رواه	-9.52501
▁معاها	-9.52753
جم	-9.52817
▁امر	-9.52833
▁mais	-9.52872
as	-9.52874
اي	-9.5288
▁الواقع	-9.52909
▁اولا	-9.52914
▁الصوت	-9.52915
▁النساء	-9.52956
▁النفس	-9.53049
▁مراجعة	-9.53173
▁وجل	-9.53273
▁عنا	-9.53286
▁يكن	-9.53378
▁قالو	-9.53414
▁السياسي	-9.53426
سو	-9.53426
▁r	-9.53433
▁اسمها	-9.53451
جز	-9.53476
▁السيد	-9.53486
▁لغة	-9.53536
▁عبر	-9.53591
▁ياك	-9.5362
fa	-9.53702
▁وإ	-9.53734
▁نشوفو	-9.53791
0	-9.53808
سم	-9.53885
😮	-9.53981
▁تنجح	-9.5406
▁of	-9.54108
▁الامر	-9.54207
▁😂❤	-9.54299
راه	-9.54311
قا	-9.54322
ائي	-9.54429
طب	-9.5448
▁الرجال	-9.5449
▁صانع	-9.54513
▁دوك	-9.54546
رك	-9.54607
▁it	-9.54677
ki	-9.54692
▁لذلك	-9.5478
▁اسمي	-9.5482
قطع	-9.54885
به	-9.54917
بات	-9.54943
▁خارج	-9.54947
▁ha	-9.54958
▁والديا	-9.55104
وز	-9.55172
▁الساعة	-9.55292
▁عاد	-9.55311
de	-9.55327
▁يحط	-9.55424
راني	-9.55455
😊😊	-9.55603
▁البقرة	-9.55628
ab	-9.55761
▁الماء	-9.55782
▁العلي	-9.55844
▁يروح	-9.55846
ائد	-9.55942
▁شيئ	-9.5595
يوم	-9.55995
▁الحرب	-9.56088
▁نحوس	-9.56093
▁مستحيل	-9.56197
▁جال	-9.56217
ايا	-9.56236
▁عم	-9.56248
عيد	-9.56248
▁عا	-9.56307
▁عيد	-9.56338
رج	-9.56382
▁جزاكم	-9.56502
20	-9.5662
▁فلم	-9.56666
دت	-9.56771
▁الاست	-9.56788
▁فيلم	-9.56811
صار	-9.56835
▁يفتح	-9.56886
جمع	-9.56897
▁يجعلها	-9.56919
▁القران	-9.56941
▁مصر	-9.57037
▁à	-9.57067
ضحك	-9.57084
رب	-9.57128
▁kh	-9.57129
▁معلومات	-9.57218
صف	-9.5722
▁2022	-9.57239
▁دنيا	-9.57242
▁تفرجت	-9.57244
▁❤🎉	-9.57255
▁وبعد	-9.57263
▁مرض	-9.57323
دم	-9.57406
▁الاخت	-9.57425
وق	-9.57463
▁~	-9.57678
▁بسك	-9.57681
▁أرجو	-9.57738
▁مسلسل	-9.57825
▁فهي	-9.57834
طة	-9.57883
▁بالنجاح	-9.57884
▁مدة	-9.57955
▁مثال	-9.57962
▁تان	-9.5798
▁courage	-9.57983
▁يدعيلي	-9.58055
▁الطيبة	-9.58148
▁مرات	-9.58159
عود	-9.5817
▁منكم	-9.58179
ثر	-9.58358
أن	-9.58508
▁أين	-9.58538
ذي	-9.58552
انية	-9.58552
▁ذا	-9.58593
▁👍	-9.58663
عاد	-9.58685
▁وحدك	-9.58742
عد	-9.58754
زم	-9.58775
▁هما	-9.58803
▁merci	-9.58832
▁الجميل	-9.58856
▁بان	-9.58883
▁تست	-9.58974
▁دعم	-9.59019
▁نتبع	-9.59039
▁المسلم	-9.59058
خر	-9.59099
▁تبان	-9.59099
▁يو	-9.59115
om	-9.59159
زا	-9.59186
😅😅	-9.59201
▁معي	-9.59217
▁نحفظ	-9.59324
بدا	-9.59344
▁جل	-9.59503
▁يحكي	-9.59548
▁رابط	-9.59575
▁الزواج	-9.59608
▁توصل	-9.5982
▁باغي	-9.59894
▁يوما	-9.59904
▁الرياضيات	-9.59976
؟!	-9.59994
▁علابالي	-9.60106
▁حيقون	-9.60225
▁2020	-9.60243
▁دارت	-9.6036
▁وفقك	-9.60396
ce	-9.60429
▁رايح	-9.60467
▁جر	-9.60469
▁جعل	-9.60512
▁طلع	-9.60541
▁نتاعك	-9.60551
▁صور	-9.60598
دار	-9.60647
▁را	-9.60711
▁دك	-9.60744
▁مخ	-9.60748
▁الام	-9.60798
بك	-9.60803
▁مبعد	-9.60892
▁الز	-9.60956
▁فلي	-9.60991
▁الد	-9.60999
▁قع	-9.61038
▁ث	-9.61171
▁الصالحة	-9.6123
lah	-9.61291
▁فاهم	-9.61292
نفس	-9.61304
▁حمد	-9.61313
mo	-9.61315
▁تعب	-9.61322
▁يسهل	-9.61345
طا	-9.61351
▁رياضيات	-9.61416
▁المواد	-9.61442
رح	-9.61469
▁قليل	-9.61512
▁وحده	-9.61564
▁بوركت	-9.61576
▁والأ	-9.61648
▁قولو	-9.61658
▁طالب	-9.61675
▁الحب	-9.61745
▁نستنا	-9.61759
▁وهران	-9.61785
▁الحاجة	-9.61848
▁يحفظ	-9.61851
▁يخي	-9.61874
▁♥️	-9.61892
رض	-9.61996
صور	-9.62004
▁u	-9.62004
🎉🎉	-9.62007
▁رايحة	-9.6204
▁man	-9.62059
طي	-9.6206
قص	-9.62061
▁قاعد	-9.62081
▁؛	-9.62159
▁غدوا	-9.6217
طور	-9.62175
▁ملاح	-9.62245
▁العلمية	-9.62248
▁ملك	-9.62249
▁الجديد	-9.62252
تعرف	-9.62261
▁مز	-9.62282
▁لانه	-9.6231
▁خايفة	-9.62375
▁تب	-9.62438
طول	-9.62572
حمد	-9.62617
▁ير	-9.62666
ک	-9.62695
▁جيب	-9.62728
رش	-9.62745
U	-9.62764
▁يوتيوبر	-9.62814
▁بالك	-9.62854
▁تر	-9.62992
جو	-9.6304
▁تخصص	-9.63105
I	-9.63147
▁فتح	-9.63148
▁الطفل	-9.63156
فتح	-9.63183
▁نقراو	-9.63208
▁بفضل	-9.63223
قبل	-9.63237
»	-9.63268
▁عجبني	-9.63305
mi	-9.63307
🏻	-9.63329
▁توحشنا	-9.6333
▁est	-9.63468
▁مشروع	-9.63541
▁دايما	-9.63556
▁تفسير	-9.63812
▁ابدا	-9.63861
قام	-9.6387
▁وفقني	-9.63881
▁نكتب	-9.63909
▁توك	-9.64037
▁نهاية	-9.64083
▁وصل	-9.64087
▁منتدى	-9.64103
▁جمال	-9.6415
▁وله	-9.64163
▁**	-9.64175
صا	-9.64189
▁قيمة	-9.64193
▁شكل	-9.64212
▁راقي	-9.64398
ضم	-9.64493
▁إنشاء	-9.64536
▁كو	-9.64692
▁يقرا	-9.64701
▁vous	-9.64752
▁طرف	-9.64797
▁ريداكس	-9.64819
▁فليل	-9.64877
▁كيفك	-9.64884
▁فن	-9.64905
▁يبقى	-9.65035
ka	-9.65069
▁0	-9.65093
ve	-9.65228
▁ra	-9.65241
▁وجد	-9.65276
▁cha	-9.6529
▁مجال	-9.65291
▁ساعات	-9.65311
▁حبس	-9.65349
▁كانوا	-9.65409
▁الوحيد	-9.6541
▁عظم	-9.65456
مان	-9.65477
▁خالتي	-9.65572
▁1-	-9.65621
▁التعليم	-9.65649
▁العلميين	-9.6587
▁حدث	-9.65947
▁شك	-9.65948
▁مانيش	-9.66086
▁ذات	-9.66103
▁كتبت	-9.66166
gh	-9.66185
رات	-9.66189
▁ظل	-9.66213
id	-9.6629
}	-9.66321
15	-9.66355
▁🥹	-9.6638
▁يغفر	-9.66404
ai	-9.66429
▁جنانه	-9.66467
▁المال	-9.66493
▁اخ	-9.66499
▁الاخير	-9.66534
▁باي	-9.66545
▁بالضحك	-9.6657
▁إنسان	-9.66636
▁يشفيك	-9.66665
▁رو	-9.66714
مس	-9.66731
والله	-9.66777
▁بشكل	-9.66891
▁فمن	-9.66895
ثم	-9.66935
▁نقطة	-9.6698
▁وصحبه	-9.66996
▁المع	-9.67048
▁يزيد	-9.6705
شار	-9.67132
▁ومع	-9.6715
▁الكلمات	-9.6723
▁البناء	-9.67234
▁كثيرة	-9.67296
▁كاس	-9.67367
▁اصبح	-9.67373
▁الارض	-9.67377
▁بطريقة	-9.67418
▁مشترك	-9.67441
▁une	-9.67456
طار	-9.67478
▁طولت	-9.67531
▁تقدم	-9.67551
C	-9.67563
حفظ	-9.67599
سير	-9.67693
▁الجمعة	-9.6775
▁حقيقية	-9.67767
▁وحنا	-9.67809
قدر	-9.67869
▁si	-9.67922
ne	-9.67943
💪	-9.68009
▁نحي	-9.68023
▁نحل	-9.68037
▁وأنت	-9.68058
▁🌹	-9.68075
▁sepia	-9.681
▁لعل	-9.68111
▁مم	-9.68155
▁حبيبي	-9.68158
ده	-9.68167
tch	-9.6818
▁ليفيديو	-9.68209
غرب	-9.6821
هدر	-9.6821
▁أسأل	-9.68267
جه	-9.68353
▁يرحمهم	-9.6838
▁إني	-9.68401
▁أنها	-9.68514
▁rak	-9.68569
تا	-9.68582
▁30	-9.68587
▁رايك	-9.68601
▁La	-9.68637
▁خطرة	-9.68656
▁Ma	-9.68738
▁وجدت	-9.68744
▁,,	-9.68769
الف	-9.68783
▁دزاير	-9.68867
شهر	-9.68945
▁إليك	-9.69049
R	-9.69094
▁خا	-9.69143
▁R	-9.6925
▁نزيد	-9.69326
كس	-9.69332
خت	-9.69379
▁العلماء	-9.69414
قتل	-9.69416
▁واجعل	-9.6946
▁يرحمه	-9.6948
▁تاوعك	-9.69501
ia	-9.69503
E	-9.69598
▁يفرج	-9.69712
▁السبب	-9.69726
▁bon	-9.69757
▁مك	-9.69774
ائل	-9.69831
اوي	-9.69881
▁ابو	-9.69984
▁U	-9.70006
عم	-9.70031
▁العيد	-9.70054
▁لدار	-9.70113
▁القيامة	-9.70122
▁تخدم	-9.70157
▁أحمد	-9.7021
▁تجعل	-9.70271
▁سو	-9.70287
▁بعدها	-9.7037
ولك	-9.705
em	-9.70526
st	-9.70537
دية	-9.70541
▁2-	-9.70559
▁هد	-9.70629
شرف	-9.70686
قلب	-9.70692
▁اكيد	-9.70737
▁se	-9.70774
))	-9.70783
▁الفصل	-9.70859
خرج	-9.70873
▁نقدرو	-9.70901
سن	-9.70957
▁تقني	-9.71003
▁مدرسة	-9.71081
سة	-9.71117
يتك	-9.71141
▁متى	-9.71189
▁والع	-9.71227
▁اميين	-9.71242
▁الشخص	-9.71243
▁خدمت	-9.71294
▁🥲	-9.71309
▁زمان	-9.71348
▁طويلة	-9.71494
▁نجح	-9.715
is	-9.71512
▁لغ	-9.71521
▁رأيك	-9.71537
▁در	-9.71545
▁العادة	-9.71683
فعل	-9.71716
حط	-9.71779
▁فان	-9.71786
▁صحيحة	-9.71909
▁سمانة	-9.71914
▁كلها	-9.71961
▁علمية	-9.72006
▁كلمات	-9.72007
▁يشوفو	-9.72034
▁الرحمان	-9.72035
K	-9.72174
▁عدل	-9.72239
▁أجمل	-9.72276
▁إسم	-9.72312
▁سواء	-9.72319
▁الفكرة	-9.72381
▁بإ	-9.72412
▁تصريحية	-9.72479
▁حياة	-9.72498
▁مالا	-9.72615
▁v	-9.72623
▁يسر	-9.72623
رجع	-9.72635
▁الدي	-9.72657
▁يوفق	-9.72658
▁نسكن	-9.7274
▁قط	-9.72794
▁الوالدين	-9.72813
▁اك	-9.72847
🤲🏻	-9.72941
▁😁	-9.73124
▁قدم	-9.73128
▁كلشي	-9.73129
♥️	-9.7314
ند	-9.7315
▁الفرنسية	-9.7318
▁نفسها	-9.7327
▁شخصية	-9.73273
fi	-9.73344
▁الأستاذ	-9.73433
▁ترى	-9.73499
▁فيديوهاتك	-9.73559
▁🔥	-9.73613
▁??	-9.73638
▁غادي	-9.73644
▁المشبه	-9.7365
▁القادر	-9.7365
▁ونتا	-9.73691
▁سبيل	-9.73743
▁ادب	-9.73752
▁قوله	-9.73771
▁وبين	-9.73775
▁رجعوني	-9.73787
▁نبينا	-9.73811
▁عشر	-9.73838
▁تسمع	-9.73851
oo	-9.73854
نس	-9.7388
▁نشري	-9.74002
▁تكوني	-9.74031
زة	-9.74064
▁نقل	-9.74082
▁يريد	-9.74086
▁شفتو	-9.74098
▁نربح	-9.74141
روب	-9.74175
▁mo	-9.74221
▁شرحك	-9.74292
▁طيح	-9.74295
طيب	-9.74319
▁ار	-9.74325
▁نضحك	-9.74362
▁آله	-9.7438
▁فرح	-9.74381
16	-9.74443
nd	-9.74512
▁سامية	-9.74518
فى	-9.74612
خف	-9.74655
جعل	-9.74661
▁دليل	-9.74701
▁تكتب	-9.7472
▁❤😊	-9.74729
▁كيفي	-9.74732
▁🎉❤	-9.74741
▁الاسم	-9.74835
▁وجود	-9.74884
▁تق	-9.74959
▁صدق	-9.75009
▁p	-9.75099
▁اقسم	-9.75193
▁kima	-9.75205
▁✅	-9.75228
▁فرق	-9.75259
▁شو	-9.75386
▁جيد	-9.75386
اص	-9.75406
▁أريد	-9.75417
▁تعمل	-9.75464
▁المعدل	-9.75475
▁الواحد	-9.75491
▁تبقى	-9.75535
▁راها	-9.75557
حق	-9.75662
▁كاينة	-9.75727
▁استعارة	-9.7573
▁الرعد	-9.75773
وان	-9.75804
اض	-9.75965
O	-9.75984
▁البرنامج	-9.75986
خبر	-9.75999
▁كلامك	-9.76033
حر	-9.76068
▁تا	-9.76075
راح	-9.76122
▁سمع	-9.7613
جن	-9.76137
▁النوع	-9.76154
شرح	-9.76171
خل	-9.76205
▁يما	-9.76214
▁الخاص	-9.76263
▁صراتلي	-9.76289
فه	-9.76295
▁الكلمة	-9.7631
إ	-9.76389
غر	-9.76389
▁درتي	-9.76415
▁Rabi	-9.76486
مات	-9.76496
▁هاديك	-9.76588
▁تخ	-9.76614
▁رزق	-9.76616
▁الفرق	-9.76683
▁مستوى	-9.76768
▁يب	-9.76782
▁ghir	-9.76807
▁غالب	-9.76861
sh	-9.76978
▁ورد	-9.77019
يدي	-9.77021
دور	-9.77081
▁تهبل	-9.77144
▁دو	-9.7724
وى	-9.77264
▁المزيد	-9.77281
سخ	-9.77365
▁طاح	-9.77391
▁متابعة	-9.775
▁ثانية	-9.77522
▁يفهم	-9.77529
▁خص	-9.77668
▁راسي	-9.7773
▁يكتب	-9.77806
فضل	-9.77836
hi	-9.77853
▁يخدم	-9.77882
زن	-9.77994
▁اروع	-9.78006
يهم	-9.78016
▁مادام	-9.78022
▁أصبح	-9.78035
▁صوتك	-9.78053
▁لاي	-9.78101
▁العفو	-9.78204
▁طالبة	-9.78322
▁جواب	-9.78427
زين	-9.78512
▁Y	-9.78549
لام	-9.78554
tha	-9.7865
وط	-9.78815
▁يح	-9.78878
▁أخ	-9.78888
▁يومين	-9.78901
▁الوحدة	-9.78935
تبع	-9.79015
▁العين	-9.79032
▁عربي	-9.79044
▁تقريبا	-9.79075
▁صوالح	-9.7909
▁موت	-9.79115
▁	-9.79223
▁صف	-9.793
▁حكاياتك	-9.793
▁E	-9.79316
▁موجود	-9.79352
▁نراجع	-9.79358
داء	-9.79367
▁ومبعد	-9.7937
che	-9.79375
▁للأسف	-9.79406
▁rah	-9.79422
▁dar	-9.79427
غل	-9.79431
▁الشهر	-9.79468
▁خخ	-9.79469
▁al	-9.7954
▁بالمعدل	-9.79656
▁القيم	-9.79707
▁نقص	-9.7972
▁Merci	-9.79722
▁جدي	-9.79778
▁افهم	-9.79785
▁باباك	-9.79794
H	-9.79825
ادة	-9.79841
▁يوتيوب	-9.79873
▁شرف	-9.79886
ولة	-9.79887
سل	-9.79896
▁الملك	-9.79906
▁هدر	-9.79919
▁واذا	-9.79925
▁البو	-9.79939
حو	-9.79963
▁بنتي	-9.79983
▁بالاك	-9.80003
رف	-9.80075
▁نتع	-9.80082
▁علمي	-9.80133
▁اش	-9.8017
▁الجملة	-9.80261
▁نورمالمو	-9.8029
▁حسبنا	-9.80317
▁وخلاص	-9.8033
▁حابين	-9.8033
▁do	-9.80373
▁تضحك	-9.80374
▁العائلة	-9.80389
▁تربح	-9.80393
▁ولات	-9.80397
▁الخاصة	-9.80471
▁بات	-9.80526
F	-9.80536
▁سياسي	-9.8062
▁تخاف	-9.80645
▁لف	-9.80647
▁فالم	-9.80714
▁وميلود	-9.80729
▁اسئلة	-9.8081
17	-9.80818
كمل	-9.80851
▁يطيح	-9.80896
هذا	-9.80909
▁ye	-9.80931
▁يوصل	-9.80982
▁القول	-9.81019
lk	-9.81036
▁nchlh	-9.81077
رس	-9.81129
B	-9.81133
▁da	-9.81146
▁عباد	-9.81188
▁مب	-9.8129
▁لح	-9.81317
▁للاسف	-9.81329
خو	-9.81387
▁ضرك	-9.81398
باك	-9.8143
▁الشيء	-9.81473
▁المقال	-9.81513
▁مقدرتش	-9.81514
▁الطفلة	-9.81645
▁استمر	-9.81664
▁اجد	-9.81685
▁اسمع	-9.8175
اته	-9.8178
▁حس	-9.81801
دك	-9.81866
▁الإجابة	-9.81943
▁نلقا	-9.81988
▁جيدا	-9.82157
▁love	-9.82157
▁ميت	-9.82157
▁عاود	-9.82184
▁نوض	-9.82209
▁كاملة	-9.82219
▁العاصمة	-9.82225
▁يخ	-9.82375
▁نرجع	-9.8246
▁du	-9.82486
▁برحمتك	-9.82504
▁نعمة	-9.82523
▁طلعو	-9.82532
▁وحتى	-9.82562
▁حوايج	-9.82579
رفع	-9.82614
▁دولة	-9.82651
▁خالي	-9.82677
▁ثبت	-9.8269
000	-9.8271
▁مافهمتش	-9.82913
▁اصل	-9.8298
▁نولي	-9.83004
اتو	-9.83033
▁يهدي	-9.83036
▁خطأ	-9.83043
▁الحزن	-9.83049
sa	-9.83091
▁كتابك	-9.83096
▁😢❤	-9.83148
▁–	-9.83156
▁كا	-9.83187
هش	-9.83195
▁بيسك	-9.83229
▁tu	-9.83229
▁يخص	-9.83274
▁نس	-9.83291
▁تاعنا	-9.83302
▁فهل	-9.83327
▁مالك	-9.83413
احة	-9.83461
▁لب	-9.83464
▁وجعل	-9.83511
▁المرور	-9.8354
▁الشباب	-9.83651
▁الأخت	-9.83717
▁واجب	-9.8374
حد	-9.83746
لح	-9.83801
im	-9.83802
G	-9.8381
▁ساهلة	-9.8381
▁لق	-9.83826
▁البلاد	-9.83865
▁دورة	-9.83893
كرم	-9.83896
▁ماتت	-9.83942
▁حرف	-9.83945
2025	-9.83995
▁حلم	-9.84021
▁are	-9.84078
نك	-9.84078
نج	-9.8409
▁لست	-9.841
🥲	-9.84105
▁البحر	-9.84109
▁ابي	-9.84148
زال	-9.84291
▁السلسلة	-9.84302
🌹	-9.84372
رين	-9.84403
▁الفجر	-9.84581
▁هدو	-9.84634
▁ولك	-9.84648
صرا	-9.84657
▁ذاك	-9.84724
12	-9.84744
▁ملخص	-9.84745
خوف	-9.84758
▁بد	-9.8477
▁شت	-9.84801
▁تخلي	-9.84816
ابة	-9.84817
▁كذب	-9.84865
وفي	-9.84865
▁والعافية	-9.84935
▁الفديو	-9.84945
▁الأن	-9.84957
▁وإذا	-9.84967
فاء	-9.84968
▁وفق	-9.85041
▁يطلع	-9.85108
▁ادخل	-9.85147
▁بكم	-9.85158
▁hada	-9.85169
▁الحي	-9.85243
▁نجحنا	-9.85267
▁سوجي	-9.85312
▁الوصفة	-9.85406
وغ	-9.85418
▁يعيشك	-9.85429
▁يبان	-9.85435
راد	-9.85449
الة	-9.85484
▁المراجعة	-9.85561
▁لحق	-9.85596
▁فصل	-9.85599
سك	-9.85642
▁رسالة	-9.85697
▁خدمة	-9.85728
عيش	-9.85784
▁مباشرة	-9.85795
الا	-9.85861
▁بلد	-9.85928
بصح	-9.85953
ضا	-9.85953
▁الناجحين	-9.85969
▁العمر	-9.85978
▁الغالية	-9.85982
▁عيدك	-9.85983
حم	-9.86022
لى	-9.86041
▁وحدها	-9.86088
▁فالباك	-9.86163
▁المقترحات	-9.86171
🖤	-9.86292
▁مقال	-9.86352
رحم	-9.86373
▁راي	-9.86404
▁جزائرية	-9.86421
▁عدة	-9.86425
▁تريد	-9.86455
▁أبدا	-9.86478
▁الكبير	-9.86497
▁قوم	-9.86587
▁يكفي	-9.86631
▁أت	-9.8667
▁ويعطيك	-9.86702
▁انتم	-9.86789
قرا	-9.86848
ur	-9.86856
▁باسم	-9.86883
tik	-9.86887
▁rani	-9.86939
▁نصيب	-9.86995
▁شئ	-9.87068
▁بينا	-9.87108
lh	-9.87129
▁اكتب	-9.87141
▁هاته	-9.87156
▁علامة	-9.87211
▁تطبيق	-9.87219
جار	-9.87271
▁انتهى	-9.87401
▁ينجحكم	-9.87402
▁مول	-9.875
▁علما	-9.87513
▁الراجل	-9.87537
▁ومت	-9.87576
▁مريم	-9.87577
😁	-9.87587
▁البيام	-9.87647
▁لحد	-9.87704
علي	-9.87708
▁عرف	-9.87711
لق	-9.87737
▁الصور	-9.8775
▁بلادنا	-9.87898
▁تاعها	-9.87905
▁نصائح	-9.87953
▁تشبه	-9.87979
▁اسمو	-9.87981
▁يسترك	-9.88078
▁لكان	-9.88127
ach	-9.8813
دل	-9.88174
حس	-9.8826
▁قنشوبة	-9.88262
▁تل	-9.88265
▁المو	-9.88275
▁mat	-9.88316
يلة	-9.88328
N	-9.88332
▁Redx	-9.88406
▁السر	-9.88409
▁الباردة	-9.8843
▁هدرت	-9.88471
▁واخيرا	-9.88527
▁نجحني	-9.88549
▁أمام	-9.88602
▁صبر	-9.88642
▁السوداء	-9.88657
وض	-9.88666
▁هكدا	-9.88679
▁القضية	-9.88733
ho	-9.88759
كن	-9.88761
▁يوفقكم	-9.88835
▁السماء	-9.88838
لحق	-9.88856
▁😮😮	-9.88871
▁قراءة	-9.88922
ائه	-9.88935
▁ضرب	-9.88986
سف	-9.88992
▁عدت	-9.89013
▁يع	-9.89069
ly	-9.8908
زل	-9.89108
ائر	-9.89117
▁القبر	-9.89175
بني	-9.89301
قسم	-9.89324
▁الأدب	-9.89407
▁win	-9.89452
▁ارحمه	-9.89463
يدة	-9.89534
دن	-9.89564
▁شرط	-9.89579
19	-9.89583
▁النثر	-9.89592
▁الحقيقي	-9.89662
be	-9.89671
~	-9.89711
▁نع	-9.89761
▁تحل	-9.89856
▁الرابط	-9.89897
▁انني	-9.89902
▁الكتب	-9.89928
شوف	-9.89964
خذ	-9.89978
30	-9.90017
▁علابالك	-9.90063
▁يولي	-9.90092
▁اصحاب	-9.90118
👌	-9.90171
▁المستقبل	-9.90217
▁يطول	-9.90221
▁بشر	-9.90266
▁lah	-9.90289
غو	-9.90393
▁كلما	-9.90417
▁المدرسة	-9.90458
▁يقال	-9.90472
▁حن	-9.90486
فرح	-9.90514
تاع	-9.90563
💕	-9.90575
▁نصب	-9.90631
18	-9.9072
▁الهم	-9.90774
▁تحس	-9.90778
▁معنديش	-9.90789
لان	-9.90868
▁سكر	-9.90914
lik	-9.90933
▁التلاميذ	-9.90959
▁مميز	-9.90998
▁ba	-9.9101
▁الزوج	-9.91015
▁مدينة	-9.91121
▁دول	-9.91147
▁الأعضاء	-9.91173
▁روضة	-9.91175
▁ياخي	-9.91186
جاز	-9.91207
▁يش	-9.91226
▁ce	-9.91241
يمة	-9.91259
▁فر	-9.91303
عر	-9.91309
▁يخلي	-9.91331
▁مساء	-9.91397
▁غدا	-9.91406
▁الغالي	-9.91467
▁البشر	-9.91525
▁نصف	-9.91532
▁الحلقة	-9.91544
ik	-9.91559
نه	-9.91589
▁خي	-9.91624
▁ويرحم	-9.91628
فيد	-9.91658
▁خمس	-9.91734
▁قبره	-9.91757
??	-9.91822
▁يشافيك	-9.91877
عقل	-9.91879
▁my	-9.91904
▁فهذا	-9.91915
ent	-9.91954
▁ض	-9.92006
لون	-9.92009
يبة	-9.92017
تلك	-9.92022
▁معرفتش	-9.92044
▁الواسعة	-9.92053
خدم	-9.92112
طلب	-9.92115
سق	-9.92171
▁الايام	-9.92261
▁جمع	-9.92334
▁نق	-9.92381
امي	-9.92388
لغ	-9.92404
▁بناء	-9.92425
▁ترد	-9.92439
▁مبرووك	-9.92451
▁انشالله	-9.92513
حكي	-9.9253
▁معناها	-9.92674
لوا	-9.9275
do	-9.92774
صدق	-9.92775
▁ارجوك	-9.92783
▁يرجع	-9.92851
se	-9.92861
▁يموت	-9.92904
▁ذو	-9.92923
▁hna	-9.92925
سمع	-9.92932
▁تز	-9.92948
ترك	-9.93006
تع	-9.93039
▁نجحت	-9.9304
▁اقل	-9.93042
▁تعرفي	-9.93064
تل	-9.93071
▁الفكري	-9.93085
بشر	-9.931
ينة	-9.93113
▁قر	-9.93118
▁سب	-9.93161
▁المستعان	-9.93204
▁يهدينا	-9.93234
▁on	-9.93285
▁الجاي	-9.9334
▁يعمل	-9.93383
▁احكي	-9.93383
▁حتي	-9.93404
▁صعيب	-9.93412
▁يعيش	-9.93417
▁والح	-9.93417
مد	-9.9343
▁اليك	-9.93442
ضي	-9.93443
▁ولدي	-9.93448
▁فيديوات	-9.93537
دب	-9.9356
▁تعود	-9.93578
ic	-9.93592
ياء	-9.93605
🇩	-9.93612
▁ويوفقك	-9.93625
ره	-9.93638
😔	-9.9365
ci	-9.93675
مكان	-9.9376
▁نحو	-9.93778
▁باطل	-9.93781
ana	-9.93788
ter	-9.93799
▁وقيل	-9.93834
بع	-9.93839
▁السن	-9.93843
اخر	-9.93848
▁الغرب	-9.93854
▁يتفرج	-9.93899
▁تعجبني	-9.93906
▁اقامة	-9.93907
▁تبع	-9.93948
عن	-9.93951
فصل	-9.93956
▁💪	-9.9397
▁الاجتماعي	-9.93983
▁أصحاب	-9.93993
▁😔	-9.94023
علوم	-9.94056
▁مه	-9.94122
ja	-9.94134
😘	-9.94208
si	-9.94224
▁حطيت	-9.94232
بح	-9.94304
▁اد	-9.94317
▁الدول	-9.94319
▁عندكم	-9.94378
▁الثالثة	-9.94387
▁امي	-9.94536
▁عباسية	-9.94636
▁تذكر	-9.94637
دون	-9.94673
▁مشكلة	-9.94698
▁ذهب	-9.94715
▁استااذ	-9.94718
▁ثلاثة	-9.94746
14	-9.94868
وو	-9.94902
▁قص	-9.94953
▁قرا	-9.94979
▁نحكي	-9.94981
▁اولاد	-9.9499
▁ملف	-9.94991
▁الجامعة	-9.9503
دع	-9.95036
▁العضو	-9.95055
▁ألا	-9.95109
▁الأمور	-9.95187
لات	-9.95187
▁تتمنى	-9.95264
▁hadi	-9.95268
▁القيمة	-9.95301
▁البارح	-9.95318
▁انتظار	-9.95325
▁عيني	-9.95362
▁سيدي	-9.95372
▁جاب	-9.95377
اغ	-9.95392
▁مرورك	-9.95394
▁الوطن	-9.95471
▁بهذه	-9.95533
▁Ha	-9.95554
▁بع	-9.95561
▁منعرف	-9.95599
2026	-9.95659
▁رأي	-9.95705
▁The	-9.9571
رمي	-9.95749
يلنا	-9.95803
▁جاو	-9.95823
▁امتحان	-9.95838
▁الدر	-9.95865
▁تقراي	-9.95867
▁عقل	-9.95881
▁سؤالي	-9.95893
💜	-9.95897
▁Sepia	-9.95906
and	-9.96058
▁نطالب	-9.96061
▁مواد	-9.96069
▁مشاكل	-9.96185
▁احنا	-9.96232
▁زمن	-9.96242
▁سبق	-9.96251
▁نب	-9.96372
ظل	-9.96503
▁صعب	-9.96608
سكن	-9.96638
▁نعرفو	-9.96666
وبة	-9.96669
▁ظهر	-9.96757
▁3-	-9.96821
▁اكل	-9.96833
▁كملنا	-9.96901
▁لبنات	-9.96915
▁men	-9.96918
▁جويلية	-9.96934
▁زي	-9.96945
▁الكر	-9.96946
▁pdf	-9.97038
لين	-9.97045
آل	-9.97085
▁fa	-9.97141
😂❤	-9.97227
▁الطابعة	-9.97288
▁التربية	-9.97343
جات	-9.97396
▁البعض	-9.97421
▁ذي	-9.97433
ina	-9.97439
▁وقتاش	-9.97448
💖	-9.97472
قض	-9.9748
▁صاحبة	-9.97515
▁ممن	-9.97595
▁النور	-9.97663
زو	-9.97663
▁حرب	-9.97688
▁ممتعة	-9.97743
▁شفتها	-9.97743
▁التواصل	-9.97821
ss	-9.97828
▁ذ	-9.97831
▁بالت	-9.97834
▁وعلاه	-9.97853
غا	-9.9786
▁يضحك	-9.97924
▁ونتي	-9.98093
af	-9.98121
iya	-9.98124
▁يجو	-9.98139
▁مريضة	-9.9814
▁فينا	-9.98236
رية	-9.98263
▁المدينة	-9.98297
صاب	-9.98309
▁جاوبوني	-9.98342
▁أب	-9.98343
▁يستر	-9.98359
▁؟!	-9.98376
▁الرائع	-9.98385
▁احفظ	-9.98409
▁والإ	-9.98465
اذ	-9.9856
▁شفاء	-9.98569
▁عيدكم	-9.98581
وري	-9.98595
▁وعن	-9.98596
▁تسيير	-9.98629
▁الإمام	-9.98654
▁عظيم	-9.98654
▁continuation	-9.98758
▁قعد	-9.98777
كيف	-9.98813
▁للت	-9.98838
▁بنجاح	-9.98883
▁سطيف	-9.98906
صال	-9.98947
▁قلوبنا	-9.98967
▁مدير	-9.98976
un	-9.98992
▁فم	-9.99003
▁نثر	-9.99086
▁الفاضلة	-9.99122
▁أهله	-9.99163
▁عايش	-9.99229
▁نبي	-9.9923
فات	-9.99236
▁ردي	-9.99284
أس	-9.99316
▁نوصل	-9.99336
▁احكيلنا	-9.99394
▁فوور	-9.99409
▁عصر	-9.99415
ولها	-9.99419
▁العقل	-9.99527
▁تبدا	-9.99574
der	-9.99577
▁رأس	-9.99584
▁نقلك	-9.99613
وح	-9.99668
▁متابع	-9.99677
▁ندو	-9.9972
▁الجزائريين	-9.998
▁لإ	-9.99804
▁ظلم	-9.9985
▁فإذا	-9.99854
▁السعادة	-9.99868
▁ايمان	-9.99877
ضة	-9.999
▁ترجع	-9.99908
▁وحدو	-9.99912
▁قاعدة	-9.99992
▁ويغفر	-9.99992
دعم	-10.0005
حسب	-10.0005
▁لحكايات	-10.0007
▁اقرب	-10.0009
▁ارزقني	-10.0012
▁رفع	-10.0015
▁يكمل	-10.0015
▁ونفرحو	-10.0017
خص	-10.0025
▁أع	-10.0026
▁دمت	-10.0026
▁لاني	-10.0027
▁المر	-10.0027
اث	-10.0039
▁تلعب	-10.0046
▁البخاري	-10.005
▁نلحق	-10.0054
حمل	-10.0061
▁•	-10.0062
▁تغير	-10.0062
▁ربك	-10.0066
▁جاوبني	-10.0068
▁يشفي	-10.0071
▁لديك	-10.0073
سؤال	-10.0075
▁رك	-10.0079
بط	-10.0082
▁نهدر	-10.0087
عرض	-10.009
▁يلي	-10.0096
▁وصف	-10.0098
▁صانعة	-10.0099
▁ثانيا	-10.0099
▁قاتل	-10.0103
▁mon	-10.0104
▁الشاعر	-10.0105
▁هؤلاء	-10.011
▁أل	-10.0115
▁machi	-10.0118
عبد	-10.0118
مه	-10.0123
▁عيب	-10.0127
▁he	-10.0127
▁حاليا	-10.0128
حسن	-10.014
▁نبكي	-10.0141
▁برو	-10.0141
▁يرد	-10.0147
▁بذلك	-10.0149
▁ادعيولي	-10.0152
عمر	-10.0155
▁ضحكت	-10.0159
▁ثان	-10.0161
😮😮	-10.0162
▁your	-10.0163
▁الراحمين	-10.0169
▁وعند	-10.0171
▁الاعضاء	-10.0172
th	-10.0174
▁اسمه	-10.0178
▁min	-10.018
كثر	-10.0181
▁وكاين	-10.0182
▁الماضي	-10.0186
▁ذكرت	-10.0187
رار	-10.0188
▁ديالك	-10.0189
حكم	-10.0189
وار	-10.0197
▁البي	-10.0199
▁الأم	-10.02
بدل	-10.0201
▁عنوان	-10.0201
▁حبست	-10.0202
❤️❤️	-10.0208
▁مسكينة	-10.021
▁شريت	-10.0213
▁الهاتف	-10.0214
▁عزيز	-10.0218
▁أمي	-10.0223
▁الخط	-10.0226
نق	-10.023
▁ملاك	-10.023
▁يفوت	-10.0244
▁عجب	-10.0247
▁وصفة	-10.025
▁يحل	-10.025
▁مض	-10.0253
▁عارف	-10.0253
▁استاذنا	-10.0254
▁top	-10.0259
▁مج	-10.0262
▁خوك	-10.0264
ائع	-10.0265
▁بيا	-10.0265
▁قصتي	-10.0265
سلم	-10.0267
▁يعود	-10.027
▁👌	-10.0271
▁الآ	-10.0275
▁عبارة	-10.028
▁saha	-10.0281
▁نظام	-10.0286
▁الاقل	-10.029
aa	-10.0292
مين	-10.0295
▁يصبر	-10.0298
ائك	-10.0302
▁bro	-10.0309
▁هديك	-10.0314
غي	-10.0318
وما	-10.032
▁قولولي	-10.0321
😍😍	-10.0323
▁النظر	-10.0323
▁توب	-10.0327
هالك	-10.0327
▁par	-10.0328
ليل	-10.0328
▁أني	-10.0328
▁راسك	-10.0329
▁سمعتها	-10.0331
▁مثلك	-10.0338
eur	-10.0338
نسا	-10.0339
آآ	-10.0339
▁Allah	-10.0344
❤🎉	-10.035
▁المؤمنين	-10.0359
صي	-10.0361
▁الزمن	-10.0366
طف	-10.0369
▁25	-10.0374
▁أسئلة	-10.0379
حذف	-10.0381
▁bien	-10.0382
يته	-10.0388
▁افكار	-10.0389
▁دايمن	-10.0389
▁سكن	-10.0399
▁أعرف	-10.0404
فال	-10.0406
▁تعبت	-10.0413
▁ڨ	-10.042
قري	-10.0422
▁عقلي	-10.0425
▁الض	-10.0426
▁الهدرة	-10.043
▁fl	-10.043
▁بنادم	-10.0436
▁الإيمان	-10.0436
حفض	-10.0438
▁as	-10.0444
▁أنني	-10.0448
▁الحد	-10.0451
حاول	-10.0454
▁😊❤	-10.0454
▁كفاش	-10.0462
▁الانجليزية	-10.0467
▁sah	-10.0467
▁ونحن	-10.0468
▁عامي	-10.0469
لب	-10.047
▁المشكلة	-10.047
▁نحكيلك	-10.0472
هد	-10.0473
▁شب	-10.0476
استاذ	-10.0479
▁الأمة	-10.048
▁قسنطينة	-10.0482
▁الاب	-10.0486
▁this	-10.0488
▁أصل	-10.0491
▁الحبيب	-10.0492
▁مراد	-10.0497
▁يتبع	-10.0497
▁فرصة	-10.0499
▁امام	-10.051
ذو	-10.0514
▁وشنو	-10.052
▁الكو	-10.0521
ظلم	-10.0523
▁نريد	-10.0526
▁راجع	-10.0529
▁اقول	-10.0533
خط	-10.0535
▁شابين	-10.0537
▁بلاصة	-10.0538
ثق	-10.0539
▁يسمع	-10.0541
▁القلوب	-10.0542
▁حم	-10.055
▁ناجح	-10.0552
تعلم	-10.056
▁خطر	-10.0564
▁كونت	-10.0566
chi	-10.0568
▁الموسيقى	-10.057
امة	-10.0573
▁تقتل	-10.0573
▁القر	-10.0574
▁السيبيا	-10.0577
▁جغرافيا	-10.0581
▁أقول	-10.0593
▁الفا	-10.0597
▁like	-10.0598
▁***	-10.06
▁أخذ	-10.0603
▁ارمي	-10.0603
▁تبكي	-10.0606
▁حكايتي	-10.0606
وث	-10.061
▁الروح	-10.0614
▁عرض	-10.0616
وجه	-10.0622
ment	-10.0623
▁لعب	-10.0625
▁th	-10.0628
▁واست	-10.0628
▁نف	-10.0629
▁الحكم	-10.063
▁الأيام	-10.063
عاود	-10.0632
▁بهم	-10.0637
رعب	-10.0639
dr	-10.064
حتى	-10.0642
▁منقدرش	-10.0643
▁قا	-10.0643
▁تكن	-10.0643
▁ديدين	-10.0655
▁امل	-10.0655
▁كت	-10.0658
ائية	-10.0662
▁تف	-10.0664
▁ميمز	-10.0665
كتاب	-10.0665
▁معرفة	-10.0668
قى	-10.0675
▁لخر	-10.0676
aime	-10.0677
▁🖤🖤	-10.0681
قاء	-10.0681
عب	-10.0685
▁حاط	-10.069
▁وجميع	-10.0691
vi	-10.0692
▁ياو	-10.0692
▁المنزل	-10.0695
▁قديم	-10.07
▁سم	-10.07
▁دراسة	-10.07
▁ذنوب	-10.0701
▁تحتاج	-10.0701
▁فخر	-10.0708
▁أيها	-10.0708
▁أصلا	-10.0708
▁يوميا	-10.0713
▁تغيير	-10.0716
▁ادعولنا	-10.0717
▁الجميلة	-10.0725
▁ملاحظة	-10.0732
امين	-10.0735
ستر	-10.0736
▁المعنى	-10.0737
▁تفرج	-10.074
ريد	-10.0743
▁الآخر	-10.0764
ائم	-10.0764
▁احمد	-10.0772
▁ديجا	-10.0772
▁V	-10.0775
▁اغلب	-10.0775
▁شبه	-10.0777
عظم	-10.0777
▁sur	-10.0781
▁قوليلي	-10.0781
ذهب	-10.0784
11	-10.0802
كسر	-10.0804
▁خلو	-10.0805
▁شاب	-10.0809
مار	-10.0811
▁يصلح	-10.0811
▁جعلها	-10.0828
▁صغار	-10.083
يارب	-10.0832
▁ثانوي	-10.0832
▁عمرو	-10.0841
▁قرب	-10.0846
لبس	-10.0849
🤲🤲	-10.0859
▁بمعنى	-10.0862
▁الصالح	-10.0865
▁معلومة	-10.0865
▁ماكانش	-10.087
ul	-10.0873
▁غر	-10.0873
▁قليلا	-10.0874
▁بضحك	-10.0875
✅	-10.0877
▁دارنا	-10.0877
▁قام	-10.0882
▁أس	-10.0885
▁24	-10.0892
▁محتواك	-10.0896
▁الأمير	-10.0898
▁عمرها	-10.0902
▁💜	-10.0902
تقدم	-10.0903
▁فكل	-10.0904
شعر	-10.0906
▁O	-10.0908
▁يأتي	-10.0911
موت	-10.0914
دد	-10.0915
▁كثرلنا	-10.0919
▁اف	-10.092
انت	-10.0922
▁عاودت	-10.0922
جين	-10.0926
خلي	-10.0931
▁اخوتي	-10.0938
▁الموقع	-10.094
ضع	-10.095
شهد	-10.0955
▁تجربة	-10.0959
end	-10.0959
▁اختيار	-10.0962
ge	-10.0969
▁نتمنا	-10.097
▁يدل	-10.097
▁تك	-10.0971
▁وكنت	-10.0971
▁ردكس	-10.0973
ۡ	-10.0976
فع	-10.0976
▁🤔	-10.0976
▁أجد	-10.0978
جع	-10.0979
▁قالي	-10.098
▁1.	-10.0981
▁المكان	-10.0984
▁يمشي	-10.0988
▁كرهت	-10.0988
▁عما	-10.099
▁تقوم	-10.099
▁الحفظ	-10.0992
▁طا	-10.0992
لعب	-10.0996
▁🙂💔	-10.0997
▁السلوان	-10.1
▁إي	-10.1002
Y	-10.1002
▁وجهك	-10.1003
▁بصحتك	-10.1005
تان	-10.1009
▁تاعهم	-10.1013
▁أمور	-10.1016
▁يقتل	-10.1017
▁تفضل	-10.1018
▁ممتازة	-10.1019
▁الاخر	-10.102
زوج	-10.1023
🇩🇿	-10.1024
ot	-10.1027
▁التر	-10.103
جام	-10.1035
▁مدام	-10.1036
▁allah	-10.1038
بق	-10.1044
▁غاية	-10.1045
▁ذر	-10.1052
تفرج	-10.1053
🫶	-10.1056
▁لحظة	-10.1057
▁طاحت	-10.1061
▁والدينا	-10.1066
▁وراء	-10.1069
▁المعلومة	-10.1071
▁عالي	-10.108
▁التعليمي	-10.1081
اسم	-10.1088
▁مق	-10.109
▁يصرا	-10.1094
▁وراح	-10.1098
▁لكتاب	-10.1103
▁نفرحو	-10.1105
▁يفرح	-10.1105
▁تونس	-10.1106
▁الراقي	-10.1107
▁يشبه	-10.1107
▁الامتحان	-10.1108
دني	-10.1109
صلح	-10.1109
▁السي	-10.1111
قابل	-10.1112
▁حمزة	-10.1115
▁جاني	-10.1117
▁موفق	-10.1118
▁جزائر	-10.1121
افي	-10.1121
▁ريديكس	-10.1122
▁السيارة	-10.1124
▁z	-10.1127
▁حلوة	-10.113
▁قالوا	-10.113
▁مقالة	-10.1132
▁that	-10.1133
ناس	-10.1135
▁المح	-10.1136
▁🥺🥺	-10.1139
▁تتفرج	-10.1142
▁الجديدة	-10.1148
ظهر	-10.1151
ضح	-10.1152
▁توجد	-10.1156
▁صديق	-10.1158
▁🔥🔥	-10.116
▁كنتي	-10.1161
▁فضل	-10.1163
▁إلي	-10.1166
▁نسألك	-10.1172
▁خر	-10.1175
▁بدات	-10.1179
نظر	-10.118
▁صعيبة	-10.1182
▁ورقة	-10.1187
▁لعقوبة	-10.1191
▁والن	-10.1199
▁شمس	-10.1209
▁تبون	-10.121
▁معه	-10.1212
▁إبراهيم	-10.1218
دروس	-10.1219
عرب	-10.1228
▁بالخير	-10.1229
ائب	-10.1235
▁}	-10.1235
▁سعيدة	-10.1238
▁والنجاح	-10.124
▁خلف	-10.1243
عش	-10.1244
▁العلامة	-10.1247
▁هدف	-10.1252
درس	-10.1252
▁ديرينا	-10.1257
▁الث	-10.1257
▁حصة	-10.1258
▁أجر	-10.1259
يام	-10.1261
▁احلى	-10.1264
▁قانون	-10.1266
رضا	-10.1268
▁تحليل	-10.1268
تن	-10.1269
▁سرد	-10.1276
▁il	-10.1278
▁فإنه	-10.1279
ation	-10.1282
▁العصر	-10.1283
▁الدم	-10.1285
▁الكرام	-10.1288
▁يعطيكم	-10.1296
وحد	-10.1297
▁بيام	-10.1297
▁تعطي	-10.1306
ليش	-10.1308
▁بيننا	-10.1311
▁تمرين	-10.1321
▁الآية	-10.1321
▁وقتها	-10.1324
▁يدو	-10.1326
▁بنفس	-10.1327
▁هريرة	-10.1329
▁حكا	-10.1332
اهر	-10.1335
▁الاستاذة	-10.1337
▁غلطت	-10.1337
ضرب	-10.134
▁ضعيف	-10.1342
▁ينجحني	-10.1343
▁حسبت	-10.1344
ابي	-10.1349
▁co	-10.1356
▁حطلنا	-10.1358
دعي	-10.136
▁تبناج	-10.1363
▁حرم	-10.1366
واش	-10.1367
▁khoya	-10.1369
عل	-10.137
▁وكيف	-10.1376
▁ياسر	-10.1379
▁تحقيق	-10.1379
▁المش	-10.1385
▁تسكن	-10.1387
باب	-10.1389
▁لانها	-10.139
▁يقولك	-10.139
▁غزة	-10.139
▁جيجل	-10.1391
▁وكانت	-10.1392
▁تص	-10.1393
اقة	-10.1395
بول	-10.1395
مون	-10.1397
▁خليت	-10.1398
قه	-10.1399
our	-10.14
▁ماش	-10.1404
▁سوء	-10.1406
سمح	-10.1408
لكن	-10.1409
▁فرج	-10.1413
▁الوطني	-10.1414
▁🙏🙏	-10.1418
شد	-10.1419
▁طبق	-10.1419
▁نش	-10.1419
▁أظن	-10.1422
▁بفضلك	-10.1433
▁هاداك	-10.1433
▁والد	-10.1435
▁سمحلي	-10.1435
عمل	-10.1441
▁اذ	-10.1442
▁ضك	-10.1445
▁qui	-10.145
ie	-10.1453
تابع	-10.1453
▁الإن	-10.1455
ement	-10.146
زر	-10.1462
فاق	-10.1466
▁ويسر	-10.1466
▁نتيجة	-10.1469
▁لذا	-10.147
ty	-10.1473
▁no	-10.1477
▁بربي	-10.148
ant	-10.1481
▁عييت	-10.1484
فض	-10.1487
▁شخصيا	-10.1489
▁الجو	-10.1491
▁هده	-10.1492
▁عنهم	-10.1498
▁لأنها	-10.1499
▁الاساتذة	-10.1502
▁الخلق	-10.1503
▁يحدث	-10.1505
▁دخول	-10.1506
مال	-10.1507
▁البداية	-10.1507
▁تستحق	-10.1508
▁أثر	-10.151
▁قدرت	-10.1512
▁حت	-10.1512
▁واقع	-10.1513
عند	-10.1514
يتها	-10.1516
▁العافية	-10.1516
▁يقوم	-10.1519
▁reda	-10.152
koum	-10.1525
▁القدم	-10.1529
▁وراك	-10.153
pi	-10.1531
▁الجزاء	-10.1532
ich	-10.1535
▁ويقول	-10.1536
▁ومرحبا	-10.1538
صباح	-10.1538
▁beaucoup	-10.154
حسان	-10.1546
وج	-10.1547
▁ونت	-10.1548
داع	-10.1548
▁ذنب	-10.155
▁القدر	-10.1557
راف	-10.1558
▁منزل	-10.1559
▁خفيفة	-10.1561
▁تهبلي	-10.1565
▁بكيت	-10.157
wi	-10.1573
▁دوما	-10.1579
▁وتعالى	-10.1583
▁وبال	-10.1584
▁bonne	-10.1584
▁اظن	-10.1585
lou	-10.1587
▁خصوصا	-10.1588
OU	-10.1592
▁ka	-10.1593
▁ركليطا	-10.1593
▁انصر	-10.1593
▁وخاصة	-10.1598
age	-10.1598
▁تحمل	-10.1599
ولد	-10.1603
▁dz	-10.1608
▁كف	-10.1609
▁القط	-10.1613
▁نست	-10.1615
▁واضح	-10.1616
▁🥰🥰	-10.1626
▁طلعت	-10.1628
▁ونص	-10.1637
▁يدعو	-10.1639
▁fiha	-10.164
▁فترة	-10.1641
▁اعراب	-10.1642
▁اهم	-10.1647
ونة	-10.1647
▁Je	-10.1647
▁وصح	-10.1648
▁يمكنك	-10.165
▁نلقى	-10.1652
▁ملاين	-10.1655
▁جيدة	-10.1656
▁طرح	-10.1657
▁يخوف	-10.1659
▁نسا	-10.1659
عون	-10.166
▁تيك	-10.1664
▁تعلمت	-10.1675
▁اللغوي	-10.1678
▁رم	-10.1684
▁نكره	-10.1686
فك	-10.1689
▁يشفيها	-10.1691
▁لون	-10.1691
عط	-10.1692
▁غالطة	-10.1692
▁يخبط	-10.1693
عه	-10.1694
▁درلنا	-10.1703
▁قتلو	-10.1706
▁الباقي	-10.1707
ضل	-10.1709
▁حفظه	-10.1709
▁بقوة	-10.1723
ada	-10.1726
▁ادعيلي	-10.1726
▁عيشك	-10.1728
▁نعيش	-10.1728
▁زعيم	-10.1731
حال	-10.1733
▁الفعل	-10.1734
▁تشوفي	-10.1736
وين	-10.1736
▁سيارة	-10.1739
▁الدعم	-10.1745
▁غلط	-10.1746
▁مزية	-10.1751
▁زيت	-10.1757
▁مقالات	-10.1757
▁أيا	-10.1759
▁جربت	-10.1763
▁wla	-10.1765
▁الخدمة	-10.1766
كذب	-10.1769
▁فرونسي	-10.1774
▁الغيب	-10.1778
ali	-10.178
▁للناس	-10.1781
▁الشمس	-10.1782
رون	-10.1783
▁كبار	-10.1785
▁فطورك	-10.1793
بيا	-10.1793
▁We	-10.1794
▁أدعولي	-10.1798
صير	-10.1798
▁معلم	-10.1807
▁كفر	-10.1811
▁وسط	-10.1814
è	-10.1816
▁ولالا	-10.1819
▁🖤	-10.182
▁قلتي	-10.1821
▁كر	-10.1823
▁كارثة	-10.1827
▁سيكون	-10.1827
▁أد	-10.1831
▁الاخيرة	-10.1832
▁المليون	-10.1834
▁ينفع	-10.1834
▁اخوات	-10.1841
واجه	-10.1841
طلاق	-10.1843
▁ياخويا	-10.1844
▁قديمة	-10.1846
قرب	-10.1846
لاف	-10.1847
▁منين	-10.1848
▁عبدو	-10.1856
بقى	-10.1856
▁واعر	-10.1857
أخذ	-10.1858
▁ظ	-10.1861
▁مركز	-10.1866
بلي	-10.1868
▁المستوى	-10.1872
▁اكون	-10.1872
طبع	-10.1872
▁لحقت	-10.1873
▁بالأ	-10.1877
▁الصفحة	-10.1878
ut	-10.1878
▁تلحق	-10.1881
لن	-10.1886
▁جهة	-10.1889
▁قوي	-10.1894
قارب	-10.1905
مش	-10.1905
▁بأس	-10.1906
▁وهذه	-10.1908
▁حاول	-10.1908
▁^^	-10.191
▁الأب	-10.1912
▁Ch	-10.1913
▁50	-10.1916
قف	-10.1917
▁الغير	-10.1918
▁خايف	-10.1919
▁تماما	-10.1921
🌸	-10.1923
قوم	-10.1925
▁ولن	-10.1926
▁يستحق	-10.1926
▁an	-10.1931
ضيع	-10.1933
♥	-10.1938
▁زيدي	-10.1939
طلق	-10.1949
ver	-10.1949
▁دفع	-10.1965
▁ذويه	-10.1968
نزل	-10.1969
▁جارية	-10.1974
)،	-10.198
▁ماء	-10.1981
فن	-10.1984
▁ديال	-10.1984
▁البا	-10.1985
حكايات	-10.1991
▁مغ	-10.1991
▁قليلة	-10.1992
▁تلاميذ	-10.1996
▁حذف	-10.2002
يط	-10.2006
▁يقل	-10.2006
تعب	-10.2006
nt	-10.2008
▁النوم	-10.2011
▁اسمك	-10.2011
▁منتديات	-10.2013
us	-10.2013
▁بتوفيق	-10.2013
Q	-10.2018
▁اجر	-10.2018
▁المرض	-10.2019
▁المتوسط	-10.2021
▁جنة	-10.2024
▁المست	-10.2026
▁يحفضكم	-10.2027
▁الصحيح	-10.203
تيني	-10.203
▁au	-10.2031
▁درتها	-10.2032
▁حقيقي	-10.2036
▁يتكلم	-10.2039
▁ثورة	-10.2042
▁كيفية	-10.2043
▁نبغي	-10.2043
شارك	-10.2044
❤😊	-10.2044
گ	-10.2049
▁رووعة	-10.2049
▁لعبة	-10.2049
▁مقر	-10.2058
▁هاذيك	-10.206
▁ظاهرة	-10.2064
▁لاحول	-10.2067
▁كاامل	-10.2067
▁ناقص	-10.2071
▁الملف	-10.2079
قيم	-10.2081
▁ختك	-10.2085
▁ربنا	-10.2089
▁الشخصية	-10.2094
▁المعلم	-10.2098
▁كأن	-10.2098
▁الأعلى	-10.2101
▁نستناو	-10.2106
▁تلقاي	-10.2113
▁سوى	-10.2114
▁البنت	-10.2114
▁200	-10.2115
ائق	-10.2118
▁اح	-10.212
▁4-	-10.2121
▁😘	-10.2122
▁دعا	-10.2126
▁نتعلم	-10.2126
يفة	-10.2129
▁محب	-10.213
▁فكر	-10.2133
▁ليفات	-10.2134
▁تفيد	-10.2136
▁جار	-10.2137
رم	-10.2138
▁not	-10.2141
▁اعط	-10.2144
▁ارواح	-10.2145
عو	-10.2146
▁عباس	-10.2146
خلاص	-10.2147
سأل	-10.2148
قم	-10.2155
▁صفحة	-10.2165
▁رياضي	-10.2167
▁بلمثل	-10.2168
ڪ	-10.2175
▁المثل	-10.218
افق	-10.218
▁لباس	-10.2182
▁Le	-10.2186
خاف	-10.2187
▁مختلف	-10.2188
اعة	-10.2189
▁يلعب	-10.219
رأ	-10.2198
قب	-10.2202
▁إذ	-10.2204
فيق	-10.2206
▁العباد	-10.2207
▁عايشين	-10.2208
يحة	-10.2209
▁زيدلنا	-10.221
▁أسألك	-10.221
▁قعدت	-10.2213
mou	-10.2218
▁تاكل	-10.2221
▁الخبر	-10.2222
50	-10.2223
▁الصغير	-10.2223
▁تموت	-10.2226
خلق	-10.2227
▁قتلتني	-10.2227
حش	-10.2227
▁معروف	-10.2229
lna	-10.2234
▁الضحك	-10.2237
▁الزهد	-10.2237
حين	-10.2238
▁يصل	-10.224
▁تطلع	-10.2244
▁يبدا	-10.2252
عز	-10.2253
▁زهري	-10.2253
ليس	-10.2255
▁نار	-10.2258
▁لولة	-10.226
▁توحشتك	-10.2268
حك	-10.2272
▁بكر	-10.2273
توش	-10.2274
▁زهرة	-10.2282
بدأ	-10.2282
▁ربح	-10.2283
▁القانون	-10.2284
▁106	-10.2284
▁avec	-10.2285
💞	-10.2289
▁يعتبر	-10.2291
▁داك	-10.2292
▁ربع	-10.2293
▁يضرب	-10.2293
▁نضت	-10.2294
راج	-10.2295
▁نقرى	-10.2295
▁المميز	-10.2298
▁ننصحك	-10.2299
▁دج	-10.2301
▁ضعف	-10.2301
▁الاعراب	-10.2303
▁تابع	-10.2308
▁والف	-10.2308
▁موتى	-10.231
▁مكتوب	-10.2312
فشل	-10.2313
▁مسبقا	-10.2314
ck	-10.2316
برا	-10.2318
▁حميد	-10.2323
▁نساء	-10.2323
شاف	-10.2326
🌷	-10.2326
bo	-10.2331
▁ضيف	-10.2335
بري	-10.2336
▁يز	-10.2336
خطر	-10.235
▁نحتاج	-10.235
لازم	-10.2352
▁العالمية	-10.2353
**	-10.2355
ولكم	-10.2355
بيع	-10.2358
▁برحمته	-10.2359
▁يااربي	-10.2361
▁❌	-10.2363
▁خلا	-10.2365
ريس	-10.2366
▁عطا	-10.2368
▁وع	-10.2369
▁شعرك	-10.2369
سجد	-10.2372
▁💕	-10.2374
▁أكيد	-10.2375
▁can	-10.2375
▁تعريف	-10.2378
رع	-10.2385
▁ويكون	-10.2386
▁ويسعدك	-10.2387
▁بقي	-10.2388
▁نزل	-10.2388
▁bi	-10.2397
كنت	-10.2398
▁وذلك	-10.2399
▁ولل	-10.24
زير	-10.2402
▁عدنا	-10.2403
▁قطع	-10.2409
▁متت	-10.2411
نحبك	-10.2414
▁ورا	-10.2419
ham	-10.242
▁صاي	-10.2423
▁وراه	-10.2424
▁أقل	-10.2425
hh	-10.2427
▁التح	-10.2428
▁المجهودات	-10.2429
صة	-10.2438
▁البحث	-10.244
كار	-10.2441
▁باكالوريا	-10.2448
no	-10.2448
▁part	-10.2448
صبر	-10.2449
▁تعاود	-10.2455
▁صحيت	-10.2457
>	-10.2462
▁المجال	-10.2462
▁أروع	-10.2464
▁النت	-10.2476
🎉❤	-10.2477
▁خال	-10.2479
▁ja	-10.2479
خا	-10.248
خد	-10.2481
▁لجميع	-10.2484
ائ	-10.2485
▁يحتاج	-10.2494
سع	-10.2495
▁am	-10.2496
يار	-10.2497
00	-10.2498
،،	-10.2499
▁اشهر	-10.2501
▁Les	-10.2501
▁قرأت	-10.2505
▁ياودي	-10.2507
لناش	-10.2507
▁شيطان	-10.251
▁مواقع	-10.2513
▁تغ	-10.2513
نعم	-10.2516
▁حكيت	-10.2519
▁kan	-10.252
▁هاكا	-10.2521
صول	-10.2522
▁حليت	-10.2524
▁pro	-10.2524
▁بالرحمة	-10.2528
▁دارها	-10.2533
رجل	-10.2535
▁التو	-10.2536
توكل	-10.2541
▁عش	-10.2546
▁كلنا	-10.255
ll	-10.255
▁هب	-10.255
تق	-10.2552
▁ربحت	-10.2553
شكر	-10.2553
▁اخيرا	-10.2554
▁نتائج	-10.2559
▁يوفقني	-10.2559
▁نتفرجو	-10.2561
▁نخرج	-10.2566
▁vrai	-10.2574
عجب	-10.2576
▁زواج	-10.2576
▁للع	-10.2577
▁وحسن	-10.2579
▁للأ	-10.258
سلام	-10.2583
▁يلحق	-10.2583
▁يفعل	-10.2588
▁جزيل	-10.2588
▁ديناتور	-10.2592
▁دل	-10.2595
▁أر	-10.2599
▁اليهود	-10.2599
▁رأيت	-10.2605
▁ديراكت	-10.2606
▁رواية	-10.2611
▁العلمي	-10.2612
▁احت	-10.2614
▁الافضل	-10.2616
ستغفر	-10.2617
▁صدقة	-10.2621
▁العبد	-10.2632
▁سوا	-10.2636
فار	-10.2637
▁إقامة	-10.2641
▁يهبل	-10.2641
▁هكاك	-10.2642
▁إنه	-10.265
▁عمار	-10.2651
▁زال	-10.2651
▁ro	-10.2653
▁تشبيه	-10.2656
زد	-10.2656
▁حافظ	-10.2657
ايل	-10.2658
بيل	-10.2659
▁طوال	-10.2666
▁مقبل	-10.2666
يست	-10.2667
▁الوا	-10.2676
▁أح	-10.2678
▁يذكر	-10.2678
▁اهدر	-10.268
رسول	-10.2681
▁يعاونك	-10.2683
▁مجموعة	-10.2691
▁سعد	-10.2692
▁Dir	-10.2694
▁الآخرة	-10.2694
▁لخ	-10.2695
آن	-10.2696
tou	-10.2699
▁عنك	-10.2701
ظر	-10.2702
▁تستطيع	-10.2705
▁تبعت	-10.2706
▁وليدي	-10.271
جت	-10.2712
▁رمز	-10.2713
ڤ	-10.2718
▁تخيل	-10.2718
▁غريبة	-10.272
▁فدار	-10.2721
حن	-10.2722
▁أرحم	-10.2733
▁ويرزقك	-10.2735
▁قيم	-10.2737
ke	-10.2739
ez	-10.274
▁22	-10.2743
▁حدود	-10.2748
▁بغير	-10.275
▁يجد	-10.2752
▁ارزقنا	-10.2752
▁جب	-10.2754
▁بعين	-10.2754
▁حمبوك	-10.2754
ft	-10.2755
▁نديرها	-10.2763
فير	-10.2765
▁زدت	-10.2769
▁دعو	-10.2772
▁غا	-10.2773
▁زين	-10.2776
▁بالف	-10.2778
▁بالي	-10.278
▁قاتلي	-10.2781
▁جيش	-10.2781
▁تشرح	-10.2781
بناء	-10.2784
▁فرض	-10.2787
▁الحساب	-10.2789
▁تفتح	-10.2793
▁حفظت	-10.2796
▁الفيلم	-10.2799
عام	-10.2803
▁che	-10.2805
▁جيل	-10.2808
▁أولاد	-10.2809
▁الاستضافة	-10.2809
min	-10.2809
است	-10.2816
▁نقاط	-10.282
👏	-10.2822
▁احرار	-10.2824
لع	-10.2827
▁الفرحة	-10.2827
▁عود	-10.2828
▁العليا	-10.283
▁تجسيد	-10.283
▁👏👏	-10.2832
قيد	-10.284
مليون	-10.2843
صيب	-10.2847
▁كله	-10.2848
▁تقل	-10.2849
▁تحكم	-10.285
مرة	-10.2851
▁قصدي	-10.2855
ودة	-10.2858
▁كحل	-10.286
اتهم	-10.2862
تى	-10.2863
▁حاس	-10.2863
نجح	-10.2864
▁وكذلك	-10.2868
▁ثالث	-10.2869
▁ستر	-10.2874
بث	-10.2876
▁قلنا	-10.2876
ih	-10.2877
▁الأخير	-10.2877
▁ماشاءالله	-10.2877
▁الفقيد	-10.2878
▁موقف	-10.2878
▁kada	-10.2882
▁ابراهيم	-10.2882
▁الرقم	-10.2884
قصة	-10.2885
واحد	-10.2891
▁ويصبر	-10.2892
▁يبعد	-10.2897
▁سعر	-10.2897
▁💖	-10.2899
لقا	-10.2902
he	-10.2904
▁تلمسان	-10.291
▁اسبوع	-10.2912
▁غياب	-10.2917
▁عامة	-10.2919
▁الأقل	-10.2919
▁واي	-10.2919
كامل	-10.292
ry	-10.2921
▁السكن	-10.2924
▁باتنة	-10.2924
▁ريح	-10.2929
▁اذن	-10.2932
▁بالماء	-10.2932
dj	-10.2934
▁ودي	-10.2937
▁يق	-10.2945
وقت	-10.2948
▁ته	-10.2949
▁ماني	-10.2951
💚	-10.2952
▁نستنى	-10.2952
ايام	-10.2958
▁ماكان	-10.2961
▁good	-10.2961
▁رني	-10.2963
▁أكون	-10.2965
▁لدرجة	-10.2973
za	-10.2974
صلى	-10.2975
طال	-10.2977
▁عرب	-10.2978
▁ارض	-10.2979
▁جاية	-10.2984
▁منهجية	-10.2985
▁البنات	-10.2989
▁المتابعين	-10.2997
cha	-10.2999
▁لمدة	-10.2999
ok	-10.3002
▁يتقبل	-10.3003
▁البريد	-10.3005
زلت	-10.3005
▁واصلي	-10.3014
▁جيبو	-10.3014
▁بقات	-10.3017
▁وارحمه	-10.3027
ff	-10.3028
▁المهجر	-10.3029
▁الحرام	-10.3031
▁قمت	-10.3033
▁الجد	-10.3036
▁نحط	-10.3037
▁الزمان	-10.3039
▁عائشة	-10.3039
▁جاتني	-10.304
▁المؤمن	-10.3041
اما	-10.3043
باح	-10.3044
▁أحبك	-10.3044
عان	-10.3046
▁حلال	-10.3046
▁عرس	-10.3046
▁الذنوب	-10.3047
▁تتكلم	-10.3048
▁كذا	-10.3049
▁استفدت	-10.305
▁نسبة	-10.3051
▁يطلب	-10.3051
▁الحاج	-10.3055
▁المسجد	-10.3057
▁صبح	-10.3058
▁معكم	-10.3059
▁za	-10.3059
غفر	-10.3071
▁الشفاء	-10.3073
▁كأس	-10.3074
▁بيان	-10.3076
▁بسيط	-10.3078
▁البكلوريا	-10.308
▁قنوات	-10.3081
عطي	-10.3082
عفو	-10.3082
▁النقدي	-10.3084
▁وقتك	-10.3084
▁جهد	-10.3085
tt	-10.3086
▁يقولي	-10.3089
▁بطاقة	-10.3095
▁عائلة	-10.3095
▁والدي	-10.3096
▁صحتك	-10.3111
صغر	-10.3111
دفع	-10.3112
▁بالع	-10.3114
▁عو	-10.3117
وهش	-10.3122
صالح	-10.3126
▁الورقة	-10.3128
وجد	-10.3135
حاب	-10.3137
▁فطوركم	-10.3138
راكم	-10.314
تكلم	-10.314
ساعد	-10.314
▁معرف	-10.3141
▁Bon	-10.3147
▁بص	-10.3149
▁البن	-10.3155
▁بيض	-10.316
طيح	-10.3162
eh	-10.3166
صنع	-10.3167
▁❤🤲	-10.317
حص	-10.317
▁المجاز	-10.3171
▁جداتي	-10.3173
▁بلو	-10.3173
▁كول	-10.3174
وضع	-10.3175
▁خالد	-10.3175
😢❤	-10.318
▁سوايع	-10.318
▁بار	-10.3185
فيه	-10.3188
▁تحسب	-10.3188
قط	-10.319
▁يغ	-10.3191
▁زد	-10.3203
شير	-10.3205
▁tout	-10.3206
رقي	-10.3206
▁الامور	-10.3207
شغل	-10.3213
قعد	-10.3216
اكم	-10.3218
فور	-10.3221
غريب	-10.3223
▁الوالد	-10.3223
▁تفكر	-10.3226
▁مقابل	-10.3231
houm	-10.3232
ضاء	-10.3234
💀	-10.3234
صحيح	-10.3235
▁خاطي	-10.324
2024	-10.3241
وصل	-10.3241
غني	-10.3242
▁أصبحت	-10.3242
يتش	-10.3243
تيش	-10.325
درك	-10.3254
نهار	-10.3255
eb	-10.3258
▁plus	-10.3271
".	-10.3271
▁كاتب	-10.3273
▁بعث	-10.3276
▁انتظر	-10.3279
برة	-10.3281
▁يقراو	-10.3282
سبب	-10.3284
حزن	-10.3285
▁نورت	-10.3286
حدث	-10.3288
رقة	-10.3289
▁صالحة	-10.3292
▁عال	-10.3292
▁الرا	-10.3293
شوق	-10.3302
▁تثبيت	-10.3302
▁القا	-10.3304
بحث	-10.3307
▁فتحت	-10.3307
▁مرسي	-10.331
%	-10.3314
▁خيال	-10.3315
▁مبقاش	-10.3325
▁متوسط	-10.3329
سور	-10.3329
▁الوطنية	-10.3332
▁فلان	-10.3332
▁شعور	-10.3334
▁وعلاش	-10.3334
▁لابس	-10.3334
▁تفكرت	-10.3335
مح	-10.3341
سكو	-10.3343
▁شد	-10.3348
▁شركة	-10.3352
▁حركات	-10.3352
▁الاخوة	-10.3353
▁يؤ	-10.3353
▁منطقة	-10.3354
صبح	-10.3356
▁يحبو	-10.3358
▁زر	-10.3359
▁x	-10.3365
▁أف	-10.3366
▁امور	-10.337
▁وصفات	-10.337
▁رآه	-10.3372
▁حاسب	-10.3373
أستاذ	-10.3376
▁فضلا	-10.3376
▁جوان	-10.3377
▁مسلمين	-10.3379
▁))	-10.338
سورة	-10.3388
▁نلقاو	-10.3388
كبر	-10.3393
▁ad	-10.3394
▁بسيطة	-10.3396
▁تفعل	-10.3396
▁😅😂	-10.3396
▁العرش	-10.3398
▁مفهمت	-10.3402
▁مقود	-10.3402
▁الدعوة	-10.341
▁bzf	-10.3411
▁بسرعة	-10.3412
▁يرزق	-10.3417
▁للعلم	-10.3419
▁لهذه	-10.342
▁دايرين	-10.3421
ارات	-10.3425
بيك	-10.3425
▁لأنو	-10.3426
▁قالولي	-10.3426
▁يثبت	-10.3428
▁نخ	-10.3429
▁اقراي	-10.3432
مية	-10.3436
▁mi	-10.3438
▁دام	-10.344
▁الرائعة	-10.3441
▁نشوفك	-10.3442
▁👍👍	-10.3442
▁بقاو	-10.3446
ومة	-10.3447
▁اليد	-10.3447
غلق	-10.3451
▁صفة	-10.3453
▁طلاب	-10.346
▁تفرح	-10.346
▁شف	-10.3463
▁الأنبياء	-10.3464
▁إنك	-10.3465
tni	-10.3467
▁آية	-10.3468
▁kol	-10.3469
بون	-10.3471
•	-10.3472
▁تزوج	-10.3475
▁kif	-10.3476
جح	-10.3478
▁طبيب	-10.3478
ميز	-10.3478
▁واغفر	-10.3478
▁يستطيع	-10.3483
▁درتو	-10.3485
▁بخصوص	-10.3487
امل	-10.3489
▁وابن	-10.349
tre	-10.349
🙃	-10.3492
دعوة	-10.3494
▁كثرة	-10.3496
▁يبدو	-10.3498
▁عامين	-10.35
▁الرحمة	-10.3502
▁ونحب	-10.3502
▁❤😢	-10.3506
▁سبحانو	-10.3509
قن	-10.351
▁درجة	-10.3515
فاد	-10.3516
▁التسجيل	-10.3516
▁التلميذ	-10.3517
فكر	-10.3517
▁بحر	-10.352
▁دع	-10.3528
دنا	-10.3528
▁مره	-10.3528
▁فالقمة	-10.3532
▁ضر	-10.3533
▁مف	-10.3534
▁دايرة	-10.3539
كثير	-10.3539
▁بوك	-10.3541
pe	-10.3542
▁نجد	-10.3549
▁طريقتك	-10.3549
أمر	-10.3555
أم	-10.3556
▁ضحكتني	-10.3561
آم	-10.3563
▁طرق	-10.3564
▁حاسة	-10.3565
▁💀	-10.3566
نها	-10.3571
oli	-10.3572
كره	-10.3573
▁تأ	-10.3575
▁نحبوك	-10.3575
▁قناتي	-10.3576
حافظ	-10.3576
خي	-10.358
▁مجددا	-10.358
▁rebi	-10.3583
قترح	-10.3584
▁الكون	-10.3585
▁ادعوا	-10.3591
▁عيسى	-10.3591
▁اللغات	-10.3592
▁العنوان	-10.3598
▁عكس	-10.3598
oul	-10.36
قصص	-10.3601
تاريخ	-10.3603
▁وأما	-10.3608
▁جمعة	-10.3609
تب	-10.3614
▁نفع	-10.3615
▁ياريت	-10.3617
▁الخل	-10.3619
▁ناجحة	-10.363
▁أدب	-10.3637
▁هاتف	-10.365
▁كبر	-10.3651
▁الغريب	-10.3655
▁انستا	-10.3659
▁العكس	-10.3661
فقد	-10.3663
سان	-10.3667
صد	-10.3669
▁تلقى	-10.3673
▁موسى	-10.368
ريح	-10.3683
▁تبدل	-10.3686
▁الما	-10.3687
▁تربية	-10.3688
😊❤	-10.369
▁جز	-10.369
غب	-10.3693
فيديو	-10.3694
▁المنفى	-10.3701
▁شعال	-10.3703
▁المبارك	-10.3704
نقل	-10.3705
----------------	-10.3707
▁الكتابة	-10.3709
▁انس	-10.3714
💙	-10.3714
▁حركة	-10.3716
▁بسكو	-10.3718
▁مهبول	-10.3718
دوا	-10.3719
▁يكونو	-10.372
طفل	-10.3721
▁up	-10.3726
ag	-10.3727
▁لديه	-10.3728
▁قيل	-10.3731
▁الاعلى	-10.3734
بقا	-10.3737
▁المشاركة	-10.3738
سيد	-10.3739
دام	-10.374
▁You	-10.3741
▁الكرسي	-10.3741
▁حاضر	-10.3745
▁رئيس	-10.3746
▁إيمان	-10.3748
▁رحمها	-10.3749
▁امرأة	-10.3749
تقل	-10.3751
▁القديمة	-10.3751
▁النهاية	-10.3753
▁وام	-10.3755
▁نحبو	-10.3756
▁آداب	-10.3757
▁يجمع	-10.3762
▁الأخلاق	-10.3763
▁يقبل	-10.3764
▁نجري	-10.3769
جزء	-10.3771
حبس	-10.3771
حاسب	-10.3772
▁فب	-10.3773
rou	-10.3776
▁لحم	-10.3777
▁مافهمت	-10.3779
▁يماك	-10.3785
▁تمشي	-10.3787
▁والصلاة	-10.3788
اتمنى	-10.3792
توب	-10.3792
دعاء	-10.3795
دق	-10.3796
شعب	-10.3797
▁اعطيني	-10.3798
اله	-10.38
▁سمحت	-10.3802
▁قن	-10.3802
▁الاسلامية	-10.3805
▁قي	-10.3807
ذل	-10.3809
▁ni	-10.381
▁miloud	-10.381
▁مرعبة	-10.3811
▁فاعل	-10.3811
شف	-10.382
🤔	-10.3822
اسي	-10.3823
شكل	-10.3823
▁حو	-10.3825
▁كوراج	-10.3826
الت	-10.3826
▁الثوب	-10.3826
▁ca	-10.3831
ظم	-10.3838
واصل	-10.384
خاطر	-10.3841
بعث	-10.3842
▁الصيف	-10.3843
تد	-10.3843
▁والب	-10.3844
بيت	-10.3847
قلة	-10.3847
co	-10.3849
▁الشهداء	-10.3857
▁23	-10.3857
درج	-10.3858
بير	-10.3859
▁يظهر	-10.3859
عباد	-10.3868
▁برافو	-10.3873
اخ	-10.3876
▁السرد	-10.3877
▁مشرف	-10.3878
▁ارواحي	-10.3881
▁نطلب	-10.3887
يج	-10.3887
▁المرا	-10.3889
▁تحرمنا	-10.389
يسر	-10.389
▁تفهمي	-10.3894
▁الدقيقة	-10.3896
▁غاليتي	-10.3897
▁أمل	-10.3898
▁الأعمال	-10.3898
▁خدم	-10.3901
▁سير	-10.3902
▁إست	-10.3903
▁المادة	-10.3906
▁وغير	-10.3906
▁وإنما	-10.3908
▁الامل	-10.3915
▁تحصلت	-10.3915
▁oui	-10.3916
▁أخر	-10.3917
▁حلو	-10.3921
▁suis	-10.3922
▁شهرين	-10.3924
▁جنون	-10.3926
▁تحوس	-10.3929
دعو	-10.3929
▁قطر	-10.393
حرف	-10.3932
يسي	-10.3936
▁مارس	-10.3936
▁تمنيت	-10.3939
▁يستاهل	-10.3944
▁قوية	-10.3944
▁الجنون	-10.3946
▁عيش	-10.3946
▁لابن	-10.3946
افة	-10.3947
▁وشمن	-10.3948
فين	-10.395
باقي	-10.3953
▁تتم	-10.3956
▁ابني	-10.3962
▁vidéos	-10.3962
▁فالفيديو	-10.3963
▁أوقات	-10.3964
▁الشاب	-10.3982
um	-10.3983
سط	-10.3983
▁♥️♥️	-10.3983
▁مط	-10.3986
مك	-10.3993
يتو	-10.3994
▁عملية	-10.3998
▁الصحابة	-10.4
صوت	-10.4004
نش	-10.4006
خلص	-10.4007
▁ينق	-10.4007
▁Me	-10.4009
رزق	-10.4009
▁واد	-10.4009
▁موراك	-10.4009
▁طابعة	-10.4011
lt	-10.4011
▁استادة	-10.4011
▁الوالدة	-10.4011
▁يخوفو	-10.4012
▁ارزق	-10.4012
▁مفعول	-10.4016
▁قم	-10.4019
▁خفيف	-10.4019
▁آميين	-10.402
▁الأصل	-10.402
▁يعطي	-10.402
▁day	-10.4022
تحصل	-10.4023
شاهد	-10.4024
▁خونا	-10.4024
كور	-10.4026
▁🙂🙂	-10.4027
▁تقديم	-10.403
▁Ra	-10.4031
▁وف	-10.4031
▁🙄	-10.4036
فون	-10.404
ستي	-10.4043
ite	-10.4044
حديث	-10.4048
▁تي	-10.4052
▁المشاكل	-10.4052
▁dans	-10.4054
▁أسعد	-10.4055
▁حزن	-10.4055
▁لخير	-10.4064
▁يلا	-10.4066
قار	-10.4069
▁وقف	-10.407
▁قدوة	-10.4072
▁خطا	-10.4073
▁حلي	-10.4074
▁نبغيك	-10.4078
▁اهله	-10.4085
ca	-10.4087
▁Ta	-10.4087
▁جدد	-10.4087
رؤ	-10.4092
▁هاني	-10.4094
✌	-10.4096
▁الجر	-10.4099
▁اشرح	-10.41
عات	-10.4105
▁ينصر	-10.4105
▁معند	-10.4108
▁مخرج	-10.4111
▁النتيجة	-10.4115
دوش	-10.4115
▁عادية	-10.4119
ائها	-10.4123
▁وفاة	-10.4124
أنا	-10.4128
▁خسرت	-10.4128
▁اخوة	-10.4129
سوق	-10.4131
▁أخت	-10.4133
▁لخرين	-10.4134
▁khir	-10.4134
nn	-10.4137
غيب	-10.4141
▁هادوك	-10.4141
▁Wa	-10.4143
كرر	-10.4143
▁استمري	-10.4146
▁دقايق	-10.4149
▁الإسلامية	-10.4159
▁أرى	-10.4159
▁fait	-10.416
▁مستقبل	-10.4161
▁فرنسية	-10.4163
▁صحح	-10.4164
▁Lola	-10.4166
13	-10.417
بغ	-10.4172
ts	-10.4176
▁dé	-10.4177
▁نجيبوه	-10.4179
▁هاي	-10.4184
▁قائمة	-10.4185
▁هذوك	-10.4188
▁قالها	-10.4189
▁خسارة	-10.4197
▁أدعو	-10.4198
▁لاكن	-10.42
ستفيد	-10.4202
rt	-10.4206
▁nt	-10.4206
تنمر	-10.4206
سكت	-10.4207
▁fel	-10.4208
▁صحبتي	-10.4208
▁لسان	-10.4211
tk	-10.4211
رغم	-10.4212
▁لانك	-10.4215
▁الأبيض	-10.4221
▁يعد	-10.4224
▁الشا	-10.4225
طاع	-10.4226
▁تشخيص	-10.4231
▁ووسع	-10.4231
wal	-10.4232
ساء	-10.4233
▁الانترنت	-10.4233
هرب	-10.4236
▁Oui	-10.4239
برك	-10.4241
▁تبانلي	-10.4244
▁شريك	-10.4244
▁يط	-10.4246
يري	-10.4247
▁الحس	-10.4248
▁اللول	-10.4249
▁ابحث	-10.4249
▁الفرنسي	-10.4251
▁الحرية	-10.4252
▁للعلميين	-10.4258
▁توفيقك	-10.4263
▁احترام	-10.4264
رغب	-10.4266
▁مرور	-10.4269
▁أسطورة	-10.4273
مرض	-10.4278
▁اسال	-10.4283
▁ننتظر	-10.4285
▁المورال	-10.4286
▁اصبحت	-10.4286
اتها	-10.4288
▁والس	-10.4289
▁حظ	-10.4292
▁الوحيدة	-10.4292
▁دعوت	-10.4293
▁متابعتك	-10.4295
فري	-10.4296
▁كرم	-10.4298
نص	-10.43
تأكد	-10.4303
مول	-10.4308
▁برد	-10.4308
▁عد	-10.431
▁أستغفر	-10.431
▁يرى	-10.4312
▁fik	-10.4313
rk	-10.4314
سافر	-10.4316
▁مافي	-10.4318
حفز	-10.4321
يرا	-10.4324
▁أستاذنا	-10.4325
وقف	-10.4327
▁خرا	-10.4327
▁🌸	-10.4331
▁tw	-10.4337
▁اساس	-10.4338
ji	-10.4339
▁المشرف	-10.434
٢	-10.4343
▁لبارح	-10.4345
▁توفيق	-10.4346
وهاش	-10.4353
جبت	-10.4355
ech	-10.4355
▁ننجحوا	-10.4355
▁تلميذ	-10.4357
▁خلاف	-10.4361
▁المصطلحات	-10.4364
▁جبتو	-10.4372
ولهم	-10.4375
▁موجودة	-10.4379
▁مصدر	-10.4379
ran	-10.4379
▁يطيحو	-10.438
غت	-10.4381
حضر	-10.4383
▁التحرر	-10.4383
▁رزقك	-10.4384
▁أخبر	-10.4387
غم	-10.4387
رن	-10.4388
▁أعظم	-10.4393
▁ظن	-10.44
▁الصحيحة	-10.4402
فوت	-10.4403
ثير	-10.4405
تس	-10.4408
▁👏	-10.441
مور	-10.4413
▁والتي	-10.4413
op	-10.4413
تحدث	-10.4415
خلف	-10.4416
▁وانتم	-10.442
V	-10.4422
▁mar	-10.4427
▁ويفرحك	-10.4429
سوف	-10.4429
▁قدير	-10.443
▁جابو	-10.4432
▁chi	-10.4435
سنين	-10.4435
▁😐	-10.4435
▁شوفو	-10.4437
HA	-10.4438
▁رائد	-10.4449
رحل	-10.445
▁عاش	-10.445
▁نزلت	-10.4452
▁حبة	-10.4452
عندك	-10.4454
ورا	-10.4458
▁مثواه	-10.446
mar	-10.4461
▁روحها	-10.4463
▁القص	-10.4464
▁تشري	-10.4466
▁Li	-10.4466
▁تظهر	-10.447
▁استاذي	-10.4475
ونس	-10.4475
▁المد	-10.4478
▁دوكا	-10.4478
▁الذرية	-10.4479
▁لشعب	-10.4483
▁تعتبر	-10.4485
▁وحل	-10.4488
ريف	-10.4489
▁ليزوم	-10.4491
▁بز	-10.4495
▁يكثر	-10.4496
▁بب	-10.4498
▁kml	-10.4498
▁اثر	-10.4502
▁💙	-10.4504
▁المثال	-10.4506
▁عون	-10.4507
ستعمل	-10.451
▁تصحيح	-10.4511
▁بالعربية	-10.4514
أدب	-10.4515
▁عزيزتي	-10.4516
oh	-10.4517
▁أقرب	-10.452
راض	-10.4523
▁القتل	-10.4527
▁معهم	-10.4529
تور	-10.4532
▁يساعد	-10.4535
باش	-10.4536
▁راقد	-10.4538
▁الطا	-10.4539
▁تمد	-10.4543
▁توحشت	-10.4546
الخ	-10.4546
شعبة	-10.4552
▁بنا	-10.4552
بسط	-10.4552
▁فاهمة	-10.4553
▁ڨع	-10.4557
غرام	-10.4558
▁الرو	-10.456
مثال	-10.456
راب	-10.4562
▁المخ	-10.4563
▁تافه	-10.4566
شخص	-10.4567
▁بخ	-10.4569
▁بدأت	-10.457
▁عوض	-10.4572
▁شم	-10.4572
بالغ	-10.4577
iha	-10.4582
▁Rak	-10.4585
يقة	-10.4587
▁والان	-10.4588
▁تشوفو	-10.4588
▁qu	-10.459
اذا	-10.4593
▁mou	-10.4593
▁ستكون	-10.4593
▁الحن	-10.4595
▁رحيم	-10.4597
▁طل	-10.4604
جمال	-10.4608
▁يفيد	-10.4609
▁الضيافة	-10.4617
▁~~	-10.4618
صلاة	-10.4619
▁السو	-10.462
تمكن	-10.4624
▁go	-10.4625
طن	-10.4626
▁لوقت	-10.4632
▁سبتمبر	-10.4636
▁يقرأ	-10.4636
وله	-10.4638
روق	-10.4642
▁عط	-10.4648
▁قدمت	-10.4659
▁تقصد	-10.4661
قين	-10.4663
مارس	-10.4663
▁جدك	-10.4664
▁موفقة	-10.4665
hm	-10.4668
قدم	-10.4671
▁وندير	-10.4671
تح	-10.4672
▁التعليقات	-10.4677
▁فعلية	-10.4678
▁fe	-10.4683
▁غالي	-10.4684
▁5-	-10.4687
▁افريقيا	-10.4687
▁نفسو	-10.4688
ربح	-10.4688
▁اعمل	-10.4693
▁عني	-10.4693
▁الحلم	-10.4695
▁التجارة	-10.4696
لاء	-10.4699
▁يخاف	-10.47
bl	-10.4701
٠	-10.4702
تزوج	-10.4703
▁الخارج	-10.4704
صوص	-10.4708
▁يحمل	-10.4709
40	-10.471
عذر	-10.4711
▁تنشر	-10.4714
▁نسقسيكم	-10.4714
غلط	-10.4716
سوس	-10.4716
▁مقترح	-10.4718
▁الرابعة	-10.4719
▁أهم	-10.472
▁2019	-10.4725
▁كناية	-10.4725
▁المسلسل	-10.4726
▁تخلع	-10.4727
▁ثقة	-10.4731
▁البيانية	-10.4732
زول	-10.4732
▁الدنس	-10.4735
▁❤😂	-10.4737
▁21	-10.4738
▁الجاية	-10.4738
▁يصلي	-10.4739
▁علميين	-10.4739
بية	-10.4743
ارت	-10.4744
خة	-10.4744
ضغط	-10.4744
▁يحكم	-10.4745
▁غباء	-10.4747
طلع	-10.4749
▁بطل	-10.4753
▁دخلو	-10.4754
▁النصيحة	-10.4755
▁الاخلاق	-10.476
مير	-10.4762
جور	-10.4765
\	-10.4766
▁﴿	-10.4768
▁بمثل	-10.477
▁خاوة	-10.4771
▁بركة	-10.4773
▁الاس	-10.4774
▁ويرزق	-10.4776
▁قبرها	-10.4779
gi	-10.4782
▁zid	-10.4782
▁حكايتك	-10.4784
▁والدك	-10.4788
▁الشرط	-10.4789
com	-10.4793
▁يمد	-10.4793
فرق	-10.4797
▁الفلسطينية	-10.4798
▁ملقيتش	-10.4798
▁الجمال	-10.4798
▁الفيديوات	-10.4799
que	-10.48
▁انهم	-10.4801
▁اجتماعيات	-10.4803
بلغ	-10.4806
▁فتاة	-10.4807
تهاش	-10.4811
▁قنات	-10.4811
▁الضو	-10.4812
▁تكلم	-10.4813
▁فالا	-10.4815
▁دولار	-10.4815
سام	-10.4815
▁اليوتوب	-10.4817
▁بالصحة	-10.4817
▁يجيبو	-10.4818
▁نتواصل	-10.4819
▁يربح	-10.4822
▁💔💔	-10.4823
▁علب	-10.4828
▁فلباك	-10.4829
▁اولى	-10.483
▁واسع	-10.4832
▁مؤمن	-10.4834
▁خاف	-10.4835
▁الجغرافيا	-10.4836
▁رايحين	-10.4836
▁تحطي	-10.4837
😐	-10.4838
حول	-10.4838
▁صب	-10.484
▁وسلام	-10.4843
▁ياسين	-10.4843
طالب	-10.4846
[	-10.4849
🩷	-10.4849
عتبر	-10.485
▁وقع	-10.485
▁كيوت	-10.4852
▁نافع	-10.4856
▁بط	-10.4857
▁رقاد	-10.4858
▁جناتك	-10.4859
▁تحفظ	-10.4861
▁ارت	-10.4862
▁ديرلي	-10.4864
رنا	-10.4864
▁all	-10.4867
غدو	-10.4874
▁svp	-10.4876
ديرو	-10.4878
▁سبع	-10.4878
▁وتقول	-10.4882
تساب	-10.4882
▁المقصود	-10.4882
لوش	-10.4883
▁لس	-10.4886
▁الترحيب	-10.4887
so	-10.4888
عكس	-10.489
▁التعريف	-10.4895
▁ورحم	-10.4896
🎀	-10.4898
▁توضيح	-10.4898
lek	-10.49
▁مص	-10.4906
بزاف	-10.4906
زواج	-10.4906
▁di	-10.4907
ناقش	-10.4907
▁يدعي	-10.4908
أت	-10.491
▁Reda	-10.4912
▁مجاز	-10.4912
▁الأع	-10.4917
▁اودي	-10.4918
ga	-10.4921
▁اشعار	-10.4921
▁الدخول	-10.4923
▁ومات	-10.4925
افية	-10.4925
بور	-10.493
▁ارحمها	-10.4934
▁زم	-10.4934
▁أرض	-10.4934
▁ديك	-10.4936
فرج	-10.4941
▁rbi	-10.4943
▁مفيد	-10.495
طرح	-10.4953
بخل	-10.4955
▁أخو	-10.4958
▁شرك	-10.4961
▁الجهل	-10.4964
▁جانب	-10.4969
rf	-10.4969
▁ديتي	-10.4971
▁العم	-10.4973
man	-10.4973
▁نر	-10.4974
اول	-10.4974
lha	-10.4975
▁النتائج	-10.498
▁تحقق	-10.4984
▁معنتها	-10.4985
ziz	-10.4985
ران	-10.4986
▁دروك	-10.4988
▁نتاعي	-10.4988
▁الكاملة	-10.4989
ديد	-10.499
ادعولي	-10.4991
ثة	-10.4991
▁الظلم	-10.4993
جملة	-10.4994
▁زهر	-10.4994
▁الأفضل	-10.5004
مى	-10.5004
▁الافكار	-10.5006
▁تصل	-10.5007
▁الصالحين	-10.5008
▁خلقه	-10.5011
▁dr	-10.5011
▁تضع	-10.5012
les	-10.5014
▁نتبعك	-10.5019
ميل	-10.5019
رط	-10.5023
▁التالي	-10.5023
zi	-10.5024
غن	-10.5028
▁منبعد	-10.5029
▁صحبي	-10.5029
▁يج	-10.503
▁الجليل	-10.5036
▁فاير	-10.5037
▁أردت	-10.5044
▁بعيدا	-10.5044
▁bravo	-10.5045
▁بقيت	-10.5047
▁لبس	-10.5049
▁الرقية	-10.5053
▁فليس	-10.5054
▁أحيانا	-10.5055
▁was	-10.5056
▁مدار	-10.5056
▁may	-10.5056
▁الولايات	-10.5057
▁التاني	-10.5059
▁السابقة	-10.5059
▁الولاية	-10.506
os	-10.5063
جمل	-10.5065
▁تقري	-10.5066
▁مسؤول	-10.5066
▁الدراهم	-10.507
أي	-10.5072
▁اتق	-10.5073
▁مضاف	-10.5074
▁شديد	-10.5077
▁نحاول	-10.5077
▁ويبارك	-10.5084
▁سيريو	-10.5084
▁hi	-10.5085
▁اجركم	-10.5086
حرم	-10.5086
▁رنا	-10.5089
▁تصلح	-10.5101
ينها	-10.5104
▁بصراحة	-10.5105
ارك	-10.5108
ess	-10.511
دري	-10.511
▁مورايا	-10.511
▁ملخر	-10.5113
▁é	-10.5114
▁أنهم	-10.5115
ونيش	-10.5116
صلي	-10.5116
اتكم	-10.5117
😩	-10.5117
▁تقعد	-10.5117
▁تفكير	-10.5118
▁يخرجو	-10.5118
▁بجاية	-10.512
حصن	-10.5122
▁واسكنه	-10.5125
▁Bravo	-10.513
▁الكاتب	-10.5134
▁بقدر	-10.5135
té	-10.5138
▁وزوج	-10.5139
▁إليها	-10.514
▁اغ	-10.5141
▁لأني	-10.5145
تألق	-10.5148
▁عدو	-10.5151
▁نقلكم	-10.5151
قود	-10.5151
استعارة	-10.5154
▁ça	-10.5155
▁يقدم	-10.5157
▁الاصل	-10.5158
▁الضيف	-10.5162
▁أعلى	-10.5163
▁المراة	-10.5166
باه	-10.5166
▁صديقي	-10.5167
▁khouya	-10.5168
▁محا	-10.5169
جوب	-10.5171
▁مفهوم	-10.5174
▁وعد	-10.5175
ous	-10.5176
حياة	-10.5177
▁ادي	-10.5177
▁انجح	-10.5178
▁with	-10.5179
▁زا	-10.5184
▁المحل	-10.5189
▁المساعدة	-10.5191
يان	-10.5199
خلو	-10.52
▁سهلة	-10.52
▁اقرا	-10.5202
▁bl	-10.5204
act	-10.5206
▁يجري	-10.5208
سى	-10.521
▁تالي	-10.521
▁bla	-10.5212
▁وجزاكم	-10.5214
▁نسمعو	-10.5215
▁الصغيرة	-10.5215
▁الألباني	-10.5216
▁علاجال	-10.5217
▁وينتا	-10.5217
جود	-10.5217
تدخل	-10.5218
▁تعليم	-10.5219
▁آدم	-10.5219
▁التن	-10.5223
▁شرا	-10.5227
▁ولاقوة	-10.5229
▁كتابة	-10.5229
▁wach	-10.5232
▁صنع	-10.5234
مواد	-10.5234
جماع	-10.5236
▁ينت	-10.5237
▁ترا	-10.5238
▁موالف	-10.5239
▁اوو	-10.524
▁الكذب	-10.5242
صاحب	-10.5245
▁نخمم	-10.5247
▁المسابقة	-10.5248
▁السا	-10.525
▁تصبح	-10.5251
▁بلغ	-10.5251
كاين	-10.5252
▁بيزار	-10.5255
ركز	-10.5255
▁جبتي	-10.5257
▁غيبة	-10.5258
▁con	-10.5259
روا	-10.5269
▁وكأن	-10.5269
▁بحاجة	-10.5272
سكر	-10.5272
ng	-10.5274
▁ودير	-10.5278
لله	-10.5279
حقيقة	-10.5281
▁عشت	-10.5282
▁معناه	-10.5288
▁منعرفش	-10.5292
▁Wlh	-10.5292
▁تلقا	-10.5294
تيك	-10.5296
اصي	-10.5297
▁الطرق	-10.5302
▁واقف	-10.5303
▁🥺🤲	-10.5305
▁تجيبي	-10.5308
▁وفيك	-10.5308
ais	-10.5309
▁بول	-10.5309
خبط	-10.5313
الات	-10.5314
▁والوا	-10.5316
▁لقب	-10.532
▁مسجل	-10.5322
▁مليار	-10.5327
▁الرسالة	-10.5328
▁مزيد	-10.5332
bou	-10.5335
سحر	-10.5336
اكس	-10.5339
aha	-10.5339
▁عاجلا	-10.5341
▁أستاد	-10.5341
▁امن	-10.5341
▁نقعد	-10.5347
▁عهد	-10.535
▁كاملين	-10.5352
▁تصلي	-10.5355
▁ادعي	-10.5355
خرط	-10.5355
▁تحبس	-10.5357
▁عشرة	-10.5358
▁فيديوا	-10.5365
▁بالن	-10.5368
ابل	-10.5371
كريم	-10.5373
▁نلعب	-10.5374
▁قلبه	-10.5375
دس	-10.5375
▁ظروف	-10.5375
▁لبعض	-10.5379
🥀	-10.538
فرد	-10.5385
تذكر	-10.5385
▁اساتذة	-10.5386
▁الثقة	-10.5387
▁هدرة	-10.5387
شاء	-10.5387
▁المولى	-10.539
ذن	-10.5394
لولا	-10.5396
▁بيع	-10.5398
اوية	-10.5398
تعليق	-10.5401
▁جهل	-10.5401
ذب	-10.5407
ئي	-10.541
▁السابق	-10.5411
ونه	-10.5415
▁ديرولنا	-10.5415
hou	-10.5416
خرا	-10.5416
▁الاخرى	-10.5417
▁الحم	-10.5418
▁حوالي	-10.5425
▁الشرف	-10.5425
▁Sa	-10.5425
▁السلف	-10.5427
▁رسم	-10.5428
▁🙃	-10.5433
▁تصرا	-10.5436
▁لوحد	-10.5439
▁يهدرو	-10.544
▁تراب	-10.5442
▁عنابة	-10.5443
sse	-10.5447
ثا	-10.5447
▁لواحد	-10.5448
▁فكيف	-10.5449
▁استعمال	-10.545
ريا	-10.545
سئل	-10.5451
▁حرفيا	-10.5452
طبق	-10.5457
هوم	-10.5458
▁واعرة	-10.5459
▁تكفي	-10.5462
▁سجلت	-10.5468
▁مرحلة	-10.5468
▁الفقر	-10.5471
▁افتح	-10.5471
▁يدور	-10.5474
قوا	-10.5474
▁ألم	-10.5478
▁أفكار	-10.5478
▁موصول	-10.548
▁ونقول	-10.5481
باط	-10.5485
▁ex	-10.549
▁أش	-10.5493
▁عارفة	-10.5493
▁بالخوف	-10.5494
▁قرآن	-10.5498
لاحظ	-10.5498
تصريحية	-10.55
▁التمارين	-10.5503
ضياف	-10.5506
▁القديم	-10.5507
▁يروحو	-10.5507
▁غفر	-10.5509
▁فتنة	-10.5513
▁العب	-10.5517
▁امك	-10.5519
▁الكبرى	-10.552
▁مشاهدة	-10.5523
▁تما	-10.5525
▁فأنا	-10.5528
▁حبيبنا	-10.553
وكل	-10.5531
💓	-10.5532
▁تخلص	-10.5534
▁١	-10.5537
خلع	-10.5538
▁الحصول	-10.5541
شق	-10.5541
▁المفضل	-10.5544
▁بالعكس	-10.5545
▁نوم	-10.5546
▁شئت	-10.5553
🙂💔	-10.5555
▁اللهجة	-10.5557
زيل	-10.5559
▁تسع	-10.556
▁الأخيرة	-10.5562
▁جرب	-10.5563
▁ومش	-10.5563
▁@	-10.5568
▁واقتصاد	-10.5568
▁وسع	-10.5568
▁سل	-10.557
▁موسيقى	-10.5573
▁ضو	-10.5574
ارد	-10.5576
▁نفتح	-10.5578
▁تسليما	-10.558
دافع	-10.5582
▁نسب	-10.5582
▁دقائق	-10.5582
▁صلاح	-10.5582
▁حجر	-10.5584
▁ينبغي	-10.5592
▁شرب	-10.5593
▁الحسن	-10.5594
فتاوى	-10.5594
rr	-10.5595
▁خاطرش	-10.5596
▁سيرتو	-10.5598
▁شاهد	-10.5602
دج	-10.5604
▁علابيها	-10.5606
ité	-10.5611
ھ	-10.5611
صديق	-10.5612
▁حاج	-10.5612
▁هايلين	-10.5612
لول	-10.5612
▁اختك	-10.5612
▁اخو	-10.5612
▁الاحرار	-10.5613
▁😉	-10.5614
ssa	-10.5615
▁خاتم	-10.5618
▁أساس	-10.5618
ef	-10.5619
99	-10.5622
▁المباركة	-10.5626
▁ننسا	-10.5629
▁--	-10.5629
▁ذرك	-10.5634
▁السل	-10.5635
▁قرينا	-10.5635
▁جهنم	-10.5636
▁حطو	-10.5639
▁للإ	-10.5649
حصل	-10.5652
نب	-10.5652
▁تطور	-10.5654
طير	-10.5657
▁فوت	-10.5659
▁نظر	-10.5659
▁أختنا	-10.5659
▁يعجبني	-10.5662
سعد	-10.5668
▁والتوفيق	-10.567
▁وينجح	-10.567
قدام	-10.567
▁معها	-10.5672
▁لمرا	-10.5675
▁ok	-10.5677
تخرج	-10.568
▁الغا	-10.5684
▁🇲🇦	-10.5684
▁وتكون	-10.5686
rah	-10.5687
ملأ	-10.5688
▁تردي	-10.569
وصف	-10.5691
▁راحة	-10.5693
▁لقا	-10.5693
رقد	-10.5694
▁زيادة	-10.5697
▁lbac	-10.5701
▁عمك	-10.5701
▁😁😁	-10.5704
▁صعبة	-10.5707
▁مسا	-10.5709
▁غاب	-10.5711
آت	-10.5712
▁حياته	-10.5714
AR	-10.5714
▁وااو	-10.5715
▁ناكل	-10.5715
عوض	-10.5716
▁اختبار	-10.5716
▁استطيع	-10.5718
▁مدخل	-10.5718
سجل	-10.5722
عدل	-10.5724
رام	-10.5726
▁درا	-10.5727
▁الاجتماعيات	-10.573
▁يص	-10.5735
▁fih	-10.5736
ركب	-10.5737
▁بينهم	-10.5741
▁مهمة	-10.5742
▁حش	-10.5742
▁شخصيات	-10.5743
hk	-10.5743
▁وهنا	-10.5743
▁السفر	-10.5745
kaya	-10.5746
رضى	-10.5746
ائنا	-10.5747
قات	-10.5749
▁حبيب	-10.5751
25	-10.5752
قراء	-10.5753
▁ydir	-10.5754
▁تمر	-10.5756
▁مجتمع	-10.5757
▁لوجه	-10.5761
▁راحو	-10.5762
▁الشهادة	-10.5764
شرك	-10.577
▁تعني	-10.577
tu	-10.5776
▁الطلبة	-10.5776
رجال	-10.5779
▁الشياطين	-10.5784
▁عس	-10.5786
▁مشاركة	-10.579
قلوب	-10.5793
▁🙏🏻	-10.5794
🏼	-10.5795
▁كسر	-10.5795
vo	-10.5796
▁قيام	-10.5798
▁جاهل	-10.5802
هالي	-10.5803
مم	-10.5806
💯	-10.5807
ثبت	-10.5812
▁لصاحب	-10.5813
▁السرعة	-10.5814
ساعة	-10.5814
ko	-10.5814
▁كشف	-10.582
▁فهاد	-10.582
▁أحلام	-10.5822
▁تقرأ	-10.5823
▁ثق	-10.5824
جيش	-10.5825
▁علماء	-10.5825
▁خطاك	-10.5833
▁ياختي	-10.5834
ass	-10.5838
▁أعمال	-10.5839
▁التطبيق	-10.5841
▁فلاون	-10.5842
,,	-10.5844
فس	-10.5844
▁chaba	-10.5845
رز	-10.5845
▁مقدمة	-10.585
▁البال	-10.5853
▁يحفظها	-10.5854
▁عقد	-10.5856
▁تنزيل	-10.5868
▁انواع	-10.5872
▁المقدمة	-10.5879
▁العاجل	-10.588
▁أراد	-10.5881
▁البيان	-10.5882
▁عفوا	-10.5883
▁أسماء	-10.5883
▁يرضى	-10.5884
▁تسير	-10.5884
▁comme	-10.5885
▁غلطة	-10.5886
▁صلو	-10.5891
mp	-10.5891
▁سالم	-10.5892
▁يليق	-10.5896
▁عمتي	-10.5896
▁لبلاد	-10.5897
lm	-10.5898
▁بيد	-10.59
▁والش	-10.59
▁يعرفو	-10.5903
▁معجب	-10.5905
▁زوجها	-10.5905
we	-10.5907
▁فلن	-10.5908
حذر	-10.5911
▁وبابا	-10.5912
▁يبكي	-10.5914
عج	-10.5917
▁الحا	-10.5918
أفضل	-10.592
سقط	-10.5922
▁تحرر	-10.5922
طين	-10.5922
▁تواصل	-10.5923
جال	-10.5926
▁يقولون	-10.5929
▁والواجب	-10.593
تقبل	-10.5931
▁وترك	-10.5932
▁fin	-10.5932
حبش	-10.5934
▁الامام	-10.5939
▁خيتي	-10.5939
J	-10.594
❌	-10.594
▁الجمل	-10.594
▁قصدك	-10.5942
سهل	-10.5942
كشف	-10.5943
dou	-10.5945
▁النظام	-10.5945
ثور	-10.5945
▁يادرا	-10.5947
لأن	-10.5947
▁عبرة	-10.5948
ومن	-10.5948
ادر	-10.595
▁💪💪	-10.595
مكنية	-10.5953
▁أسم	-10.5954
ريت	-10.5954
رحب	-10.5955
ندم	-10.5956
rs	-10.5956
▁💚	-10.5958
▁vraiment	-10.5959
▁يصبركم	-10.5959
▁يهنيك	-10.596
NA	-10.596
▁المتابعة	-10.596
▁والق	-10.5962
▁اسود	-10.5967
▁السم	-10.597
تواجد	-10.5972
▁وينجحنا	-10.5972
▁تكره	-10.5973
ودي	-10.5973
▁مكنتش	-10.5974
▁ماكاش	-10.5974
طح	-10.5974
▁ره	-10.5975
▁اجنبية	-10.5977
كول	-10.5985
▁الدورة	-10.5986
جوز	-10.5988
حات	-10.5989
▁بعت	-10.5989
▁محرم	-10.5993
ضو	-10.5994
ثلاث	-10.5994
▁وألهم	-10.5995
▁يبعث	-10.5995
حشم	-10.5995
▁الواجب	-10.5996
▁يفرحنا	-10.5996
▁أمن	-10.5997
▁تكذب	-10.6
▁تجري	-10.6007
ère	-10.6009
▁يااستاذ	-10.601
if	-10.6012
▁ومنكم	-10.6017
▁مكتب	-10.6019
نشط	-10.6019
☺️	-10.6021
▁الفهم	-10.6022
تباع	-10.6025
▁البار	-10.6026
▁اخلاق	-10.603
▁دينا	-10.603
▁بح	-10.6033
▁gha	-10.6034
▁🇵🇸	-10.6035
▁اعطي	-10.6035
▁صا	-10.6038
▁ويوسع	-10.6039
▁الآخرين	-10.6039
▁أنتم	-10.6043
▁الشرعية	-10.6049
▁نخلي	-10.6051
▁قرار	-10.6052
ique	-10.6053
❤😂	-10.6054
▁ينقص	-10.6056
▁عب	-10.606
▁ونشوف	-10.6061
▁No	-10.6062
▁ملا	-10.6062
▁واخ	-10.6062
▁لأنك	-10.6067
▁يسكن	-10.6068
▁يسمى	-10.607
قصد	-10.607
ريك	-10.607
▁بأنه	-10.6072
▁حبا	-10.6073
ائهم	-10.6074
▁وصفاتك	-10.6074
عاف	-10.6075
▁الدور	-10.6077
تفكر	-10.6081
▁خالص	-10.6082
▁القادم	-10.6084
▁سليم	-10.6085
▁مميزة	-10.6086
▁المؤ	-10.6087
▁يقصد	-10.6087
يعة	-10.6087
▁hbb	-10.6094
▁يتبعو	-10.61
▁أخلاق	-10.6101
فيك	-10.6101
▁ودار	-10.6102
يعني	-10.6103
▁مرح	-10.6112
شغال	-10.6113
▁المجهود	-10.6113
▁حسنة	-10.6114
▁مقطع	-10.6114
حتاج	-10.6115
▁su	-10.6115
تار	-10.6118
▁قو	-10.6121
امر	-10.6123
دعولي	-10.6124
▁toop	-10.6126
قاد	-10.6126
▁اج	-10.6126
صورة	-10.6127
▁الأمل	-10.6127
▁بروف	-10.6129
▁سردك	-10.6129
ive	-10.613
▁واقيل	-10.6131
▁العودة	-10.6132
▁السعودية	-10.6134
▁فس	-10.6135
جرب	-10.6136
▁نشريه	-10.6136
تكون	-10.6136
▁وحفظ	-10.614
ضت	-10.6143
▁جيتي	-10.6146
▁الفرضية	-10.6148
يتهم	-10.6153
▁بالإ	-10.6154
▁نكونو	-10.6154
جلس	-10.6158
▁اللون	-10.6159
▁اخواني	-10.6161
▁يلزم	-10.6164
▁نتفكر	-10.6164
▁قلي	-10.6165
▁واتوب	-10.6166
▁تعد	-10.6167
▁يرزقني	-10.6171
خرة	-10.6171
▁الاسبوع	-10.6173
▁عفسة	-10.6174
عربية	-10.6174
▁كالعادة	-10.6175
allah	-10.6177
مواضيع	-10.6178
▁أكل	-10.618
▁صيام	-10.618
▁الوجه	-10.6181
▁قبر	-10.6183
▁التعبير	-10.6183
عالم	-10.6189
▁يقعد	-10.619
▁جنات	-10.619
▁قريتي	-10.6191
قليل	-10.6192
lu	-10.6193
ڨر	-10.6194
▁المنكر	-10.6194
▁يكره	-10.62
🤌	-10.62
▁كره	-10.6201
▁bzaf	-10.6201
▁مافيهاش	-10.6203
▁يفرحكم	-10.6203
▁ضمن	-10.6205
وأ	-10.6208
▁الولد	-10.6213
▁أبواب	-10.6214
▁ho	-10.6217
▁باردة	-10.6218
ربع	-10.622
‏	-10.6224
▁كاع	-10.6224
▁28	-10.6225
قاتل	-10.6226
▁بلعباس	-10.6231
▁الصحراء	-10.6232
aire	-10.6234
▁لوالد	-10.6235
حالة	-10.6235
▁فراق	-10.6239
حارب	-10.6241
°	-10.6241
صو	-10.6241
▁والآخرة	-10.6241
سعى	-10.6243
▁متبع	-10.6244
▁والذي	-10.6244
W	-10.6247
▁القنوات	-10.625
▁اعتقد	-10.6251
▁ri	-10.6251
▁سابقا	-10.6251
▁اللخر	-10.6252
پ	-10.6253
▁بري	-10.6253
▁الاطفال	-10.6253
▁الضوء	-10.6254
▁bli	-10.6255
▁ضيفة	-10.6257
▁وحب	-10.6257
▁مبدع	-10.6257
▁ميم	-10.6264
▁لطيف	-10.6266
▁الانبياء	-10.6269
غسل	-10.6269
▁تحدث	-10.6269
▁يقلك	-10.6271
نور	-10.6273
ذة	-10.6273
▁حياتنا	-10.6274
▁فمك	-10.6279
😱	-10.628
🌚	-10.6281
▁بالضبط	-10.6281
▁الشريعة	-10.6281
▁حقوق	-10.6281
ili	-10.6282
▁حتان	-10.6283
▁نصح	-10.6286
▁دموع	-10.6286
▁2016	-10.6286
▁العدد	-10.6286
▁الفل	-10.6288
▁1000	-10.629
▁ورق	-10.6292
▁mor	-10.6295
▁اجتماعي	-10.6295
▁خت	-10.6298
▁نعلم	-10.6299
▁وجوه	-10.6299
▁فكري	-10.6299
▁بق	-10.63
▁2.	-10.6304
▁التالية	-10.6306
نتي	-10.6307
▁ماهوش	-10.6309
▁ويفرح	-10.631
▁جربتها	-10.6311
▁حاجا	-10.6311
تشوف	-10.6313
▁ويا	-10.6313
خرى	-10.6313
ont	-10.6316
▁واع	-10.6316
▁شفنا	-10.6318
▁نرجو	-10.6319
▁بقية	-10.632
▁ألهم	-10.632
▁أنزل	-10.6321
▁سقما	-10.6324
▁مشكورة	-10.6326
سبحان	-10.6328
▁قصد	-10.633
▁الدراسي	-10.633
tra	-10.6331
▁الضر	-10.6331
طان	-10.6332
▁كشما	-10.6335
▁اوكي	-10.6336
وات	-10.6337
▁pa	-10.6339
▁نقولكم	-10.6341
▁جابت	-10.6343
يض	-10.6345
▁أدخل	-10.6346
▁راو	-10.6348
▁توفي	-10.635
▁وأخيرا	-10.6351
راي	-10.6352
▁تزوجت	-10.6352
▁يدخلو	-10.6352
▁مزيا	-10.6352
▁الجي	-10.6359
▁قاد	-10.636
▁تجاوب	-10.6363
ضاف	-10.6363
قرأ	-10.6366
▁bo	-10.6366
▁الفرصة	-10.6367
▁histoire	-10.6371
▁نشا	-10.6372
▁أمان	-10.6374
اسة	-10.6376
▁معظم	-10.6376
درة	-10.6377
▁ومزال	-10.6377
▁قلوب	-10.6378
▁بسح	-10.6379
الك	-10.638
▁النهائية	-10.6381
ثناء	-10.6382
كتر	-10.6385
▁الاحساس	-10.6385
▁يعمر	-10.6386
▁بسكرة	-10.6386
▁مفيدة	-10.6388
▁الأخرى	-10.639
▁الشرك	-10.6392
able	-10.6393
نع	-10.6393
ولاد	-10.6395
شبع	-10.6397
dk	-10.6399
▁تنزل	-10.64
نشر	-10.6406
سس	-10.6409
▁الباكلوريا	-10.6411
▁الالتزام	-10.6412
فوا	-10.6412
ثورة	-10.6414
▁جاك	-10.6416
▁حاباتو	-10.6417
▁المشروع	-10.6419
▁😘😘	-10.6422
شتري	-10.6425
▁لام	-10.6427
▁امبعد	-10.6427
▁الخطأ	-10.6428
▁الهدف	-10.6429
▁رجاءا	-10.643
فارق	-10.6431
▁أعضاء	-10.6432
▁أنس	-10.6432
▁القوة	-10.6439
▁هارب	-10.644
▁صليت	-10.6442
وفر	-10.6445
▁27	-10.6445
ورد	-10.6448
▁لحل	-10.645
▁القصيدة	-10.6455
▁لج	-10.6456
خفت	-10.6458
ib	-10.646
▁اكس	-10.6461
باء	-10.6461
▁خدام	-10.6462
▁للدار	-10.6462
عاب	-10.6463
▁الأس	-10.6466
▁السب	-10.6467
▁قرأ	-10.6468
بها	-10.647
ضاع	-10.6474
«	-10.6476
▁للجزائر	-10.6481
▁زل	-10.6482
▁مسكونة	-10.6482
صيل	-10.6483
▁حكمة	-10.6484
ara	-10.6485
▁نفوت	-10.6489
▁يونس	-10.6489
▁نروحو	-10.6493
▁ميسي	-10.6494
▁موعد	-10.6494
▁تقر	-10.6494
▁قضاء	-10.6497
ارب	-10.65
▁500	-10.65
▁والتقدير	-10.6504
mn	-10.6507
جزاك	-10.6509
▁رمضانك	-10.6512
ماس	-10.6515
دخول	-10.6518
▁صفر	-10.6519
▁التقدير	-10.652
▁us	-10.6522
▁مباركة	-10.6523
▁رقدت	-10.6526
AL	-10.6529
▁السياسة	-10.6532
تقد	-10.6532
▁عاف	-10.6533
▁يحقق	-10.6533
▁يشافيها	-10.6534
▁تيارت	-10.6536
▁فأنت	-10.6544
▁محترم	-10.6545
▁حقق	-10.6549
▁وذكر	-10.6552
▁كين	-10.6553
▁wela	-10.6554
▁داو	-10.6555
▁الاستاد	-10.6557
▁قداه	-10.6561
سند	-10.6561
▁ليكم	-10.6561
#	-10.6561
▁خطرا	-10.6562
▁باز	-10.6564
▁مشاركات	-10.6565
▁للمنتدى	-10.6566
▁خلينا	-10.6566
▁يخلص	-10.6566
▁المق	-10.6567
▁ملخصات	-10.6567
▁تيليفون	-10.6568
▁بغا	-10.6568
راكي	-10.6569
▁التخصص	-10.657
ارا	-10.6571
▁نظن	-10.6575
مرا	-10.6582
▁للح	-10.6584
▁يل	-10.6584
▁تستعمل	-10.6584
▁ارجع	-10.6584
ذبح	-10.6585
▁وعلم	-10.6585
▁عادة	-10.6591
طع	-10.6592
▁ترقد	-10.6592
▁يشرح	-10.6594
▁يم	-10.6595
▁والخ	-10.6595
صرف	-10.6595
aya	-10.6599
▁ولما	-10.6601
▁القلم	-10.6601
▁kaml	-10.6604
▁يرفع	-10.6604
جان	-10.6605
elle	-10.6606
▁سوق	-10.6607
▁صافي	-10.661
بنت	-10.6611
▁حاكم	-10.6611
▁واعف	-10.6611
▁فرد	-10.6612
▁ndir	-10.6613
▁بلع	-10.6615
▁وعدم	-10.6616
▁خوفتني	-10.6616
dir	-10.6616
▁اللقاء	-10.6618
▁العديد	-10.6618
▁tani	-10.6619
▁العرض	-10.6621
حرق	-10.6623
سيون	-10.6623
tl	-10.6625
▁الملائكة	-10.6632
▁العز	-10.6632
▁وعندي	-10.6633
▁st	-10.6634
▁القوم	-10.6636
▁تقولو	-10.6637
رسال	-10.6643
😇	-10.6647
▁يحي	-10.6648
▁يهديهم	-10.6648
فاك	-10.665
▁نديه	-10.6652
فسد	-10.6654
▁متوفر	-10.6654
بتسم	-10.6659
وليد	-10.6661
▁مؤ	-10.6661
▁جاز	-10.6662
نفع	-10.6664
▁الجمع	-10.6667
طاح	-10.6667
▁يضر	-10.6668
▁ديرها	-10.6669
▁lo	-10.6669
نسي	-10.667
▁لابد	-10.6672
tar	-10.6678
-1	-10.6679
▁الحديثة	-10.6682
▁معلاباليش	-10.6689
راجع	-10.6689
▁وغفر	-10.6691
زوم	-10.6695
▁جسد	-10.6696
▁اكمل	-10.6702
▁haka	-10.6704
22	-10.6709
▁اللا	-10.6711
▁المنهجية	-10.6711
rb	-10.6712
▁الذ	-10.6713
▁المل	-10.6713
▁لزوج	-10.6716
▁ملح	-10.6716
AN	-10.6717
😉	-10.6717
▁لفديو	-10.6718
▁السبورة	-10.6718
اتنا	-10.6719
▁frr	-10.6719
مشي	-10.6719
▁يكذب	-10.6719
كوم	-10.672
لطف	-10.672
ée	-10.672
▁كمال	-10.6721
▁ونتمنى	-10.6722
▁برج	-10.6722
▁تساعد	-10.6724
▁أجركم	-10.6727
عشق	-10.6728
▁صدري	-10.6728
▁قالتلي	-10.6728
sk	-10.6729
▁💗💗	-10.673
▁اسماء	-10.6732
راق	-10.6732
▁كافر	-10.6733
▁سامح	-10.6733
▁تخلط	-10.6733
سار	-10.6735
سية	-10.6737
كلام	-10.6739
▁don	-10.674
▁رأيي	-10.6741
▁اشكرك	-10.6741
▁المقطع	-10.6746
▁وجا	-10.6746
▁التع	-10.6746
▁لاحظت	-10.6746
▁وأم	-10.6749
صحاب	-10.675
▁لاباس	-10.6751
▁تصور	-10.6751
▁كرة	-10.6754
24	-10.6755
حنا	-10.6757
لكش	-10.676
▁مولا	-10.6762
▁سارة	-10.6765
▁الشريف	-10.6767
▁الرزق	-10.6768
▁أسكنه	-10.6768
▁المواقع	-10.6768
▁يمنع	-10.677
▁raklita	-10.6775
غز	-10.6775
▁تفرجتو	-10.6775
bt	-10.6777
▁شافت	-10.6779
ارع	-10.678
▁وسي	-10.6781
ثار	-10.6783
معنى	-10.6784
od	-10.6784
ala	-10.6784
▁الامير	-10.6788
▁ساعتين	-10.679
▁اسامة	-10.6792
▁بسيف	-10.6792
ريق	-10.6794
▁الطبخ	-10.6798
▁وهناك	-10.6798
▁البيض	-10.6802
▁مختلفة	-10.6804
▁وبحمده	-10.6804
▁اجابة	-10.6805
▁جعله	-10.6812
▁ns	-10.6813
▁سجل	-10.6815
عف	-10.6815
يخ	-10.6816
نطق	-10.6816
▁قادا	-10.6817
▁tr	-10.6817
▁مقام	-10.6817
▁كوني	-10.6819
ااه	-10.682
▁خرطي	-10.682
▁بيكم	-10.6821
▁عامل	-10.6821
▁ويحفظك	-10.6827
▁يمر	-10.6827
▁صلاتك	-10.683
▁وعي	-10.683
▁même	-10.6833
زور	-10.6833
▁😩	-10.6833
نثر	-10.6835
▁moi	-10.6839
اعي	-10.6846
زان	-10.6847
▁😑	-10.6851
الق	-10.6856
وحدة	-10.6856
▁وكذا	-10.6857
▁نلقاه	-10.6858
X	-10.686
▁إما	-10.6862
▁وعا	-10.6865
▁سبحانك	-10.6865
▁عدا	-10.6866
فف	-10.6867
تلو	-10.6869
عجبني	-10.6871
▁تحلي	-10.6873
▁الجيل	-10.6876
▁الصراحة	-10.6877
رخ	-10.6877
▁سمعنا	-10.6878
▁عادل	-10.6879
hal	-10.6879
▁مبني	-10.688
▁الخيمة	-10.688
▁صدر	-10.6881
ort	-10.6886
▁بالغ	-10.6886
▁مجا	-10.6886
▁بث	-10.689
▁تتعلم	-10.689
ربط	-10.689
▁بالح	-10.6891
▁والبرد	-10.6891
▁فائدة	-10.6892
عضو	-10.6893
▁الشرق	-10.6893
▁التقويم	-10.6894
▁عفو	-10.6895
▁المنطقة	-10.69
▁تطلب	-10.6903
عوام	-10.6904
▁طالع	-10.6904
ani	-10.6905
▁اخواننا	-10.6906
▁نفهمو	-10.6906
▁أشهر	-10.6907
▁Z	-10.6909
▁وكثر	-10.691
الحمد	-10.691
▁تعليقات	-10.6913
▁فالدار	-10.6914
ضار	-10.6917
▁دكتور	-10.6919
▁طبيعي	-10.6919
▁طو	-10.692
▁سوداء	-10.6922
â	-10.6925
▁قادرة	-10.6928
▁داود	-10.6928
▁بعضهم	-10.6933
har	-10.6935
▁الزهر	-10.6935
▁Al	-10.6936
adi	-10.6936
شحال	-10.6936
سين	-10.6936
لاك	-10.6937
▁rana	-10.6938
غفل	-10.6941
▁بالشفاء	-10.6942
▁تدعو	-10.6943
رياضيات	-10.6944
إذا	-10.6945
▁one	-10.6945
نون	-10.6945
طاق	-10.6946
▁ضربة	-10.6949
▁عيط	-10.695
لالا	-10.6952
محمد	-10.6953
▁مشهور	-10.6953
ré	-10.6954
جاوب	-10.6954
دمت	-10.6955
▁ويطول	-10.6962
▁أهلها	-10.6963
▁الشاملة	-10.6965
▁تاوع	-10.6967
ex	-10.6972
قلي	-10.6973
▁حالك	-10.6975
▁تستاهلي	-10.6975
▁تعلق	-10.6975
ima	-10.6975
صدم	-10.6979
▁الجزاءر	-10.6979
▁الكبيرة	-10.6982
▁بعيدة	-10.6984
▁الدرجة	-10.6984
▁الأشياء	-10.6985
فطن	-10.6985
رسل	-10.6986
عبر	-10.699
▁خان	-10.699
▁انتاع	-10.6991
لتي	-10.6992
سمى	-10.6994
▁going	-10.6995
قع	-10.6997
100	-10.6999
▁المفروض	-10.7001
▁كثرنا	-10.7001
جهل	-10.7005
▁الدكتور	-10.7005
▁يصبح	-10.7006
▁بعدما	-10.7007
وجي	-10.7007
تاج	-10.7007
▁اردت	-10.7009
توقع	-10.7012
طعم	-10.7013
▁وكمل	-10.7013
صط	-10.7013
▁مساعدة	-10.7019
▁العنف	-10.7019
▁مداير	-10.702
sah	-10.7023
ريض	-10.7025
▁اعلى	-10.7026
▁اشترك	-10.7026
▁ادم	-10.7026
▁وبالتوفيق	-10.7027
▁البل	-10.7029
فلسفة	-10.7031
داخل	-10.7033
▁از	-10.7034
▁Raklita	-10.7038
▁الطلب	-10.704
طريق	-10.7044
▁نك	-10.7044
▁اهلها	-10.7046
▁اص	-10.7047
▁😒	-10.7048
أخي	-10.7049
▁فد	-10.7051
▁شفتي	-10.7051
ثن	-10.7054
▁très	-10.7054
غادر	-10.7057
▁التق	-10.7057
▁مظاهر	-10.7058
▁صلوا	-10.7059
▁أغلب	-10.706
▁اسأل	-10.7061
tek	-10.7061
men	-10.7069
▁Kh	-10.7071
ابوني	-10.7074
"،	-10.7077
▁طاحو	-10.7078
لايك	-10.7079
▁جبل	-10.7087
▁قتلك	-10.709
▁سور	-10.7093
▁ردك	-10.7094
▁المصدر	-10.7097
▁rab	-10.7099
Z	-10.7101
▁آمن	-10.7103
47	-10.7103
ديا	-10.7104
▁يعجبوني	-10.7105
كاش	-10.7108
▁فظلك	-10.711
نجاح	-10.7111
▁أيمن	-10.7111
▁مطلق	-10.7112
▁الطبيب	-10.7112
رتب	-10.7114
▁الشعور	-10.7115
▁(1)	-10.7116
حتسب	-10.7117
▁كتابه	-10.7117
▁ديرولي	-10.7121
غول	-10.7123
▁وشبيك	-10.7124
tel	-10.7124
▁الجزاير	-10.7127
ارجو	-10.7128
▁الورد	-10.7129
ولات	-10.713
▁بحث	-10.713
▁قصه	-10.713
▁مقاطع	-10.7132
🤦	-10.7133
▁مازلت	-10.7136
▁لاعب	-10.7137
▁كلاش	-10.7141
⁠	-10.7142
▁مشكوور	-10.7142
▁اقتباس	-10.7142
▁ثابت	-10.7143
▁gh	-10.7145
▁ننسى	-10.7149
▁خصني	-10.715
▁نشاط	-10.7155
ألف	-10.7156
▁فعلت	-10.7157
▁ناحية	-10.7157
▁نربحو	-10.7159
ازل	-10.716
بيض	-10.7162
▁videos	-10.7165
▁ونفع	-10.7165
▁الصف	-10.7166
▁وحيد	-10.7166
▁نائل	-10.7167
▁ياكل	-10.7167
▁رحنا	-10.7172
▁يمثل	-10.7172
راجل	-10.7174
▁صاري	-10.7184
▁لكنه	-10.7185
جون	-10.7186
🦋	-10.7187
▁صفحات	-10.7188
▁اسطوري	-10.7191
حكاية	-10.7193
▁احيانا	-10.7194
▁الإنجليزية	-10.7195
ضن	-10.7196
▁q	-10.7198
واقع	-10.7198
▁وغيرها	-10.7199
عق	-10.7199
55	-10.72
لزم	-10.72
ER	-10.7203
▁افلام	-10.7203
▁lola	-10.7206
▁مزلت	-10.7208
▁هاذاك	-10.7209
▁مأ	-10.7211
▁يمكنني	-10.7213
ey	-10.7215
▁اقتصاد	-10.7216
▁كملو	-10.7217
▁have	-10.7219
▁الشو	-10.7219
ظن	-10.722
▁زيدلو	-10.7222
▁موتانا	-10.7222
▁وجعلها	-10.7223
▁لغير	-10.7223
صوم	-10.7224
▁فكرت	-10.7226
▁نيشان	-10.7233
▁تسجيل	-10.7234
▁☺️	-10.7238
▁لربي	-10.7238
▁1/	-10.7239
▁زوجي	-10.7239
▁بلون	-10.7243
وطن	-10.7244
وصي	-10.7247
▁الصديق	-10.7247
fe	-10.7248
فيها	-10.7248
by	-10.7252
▁وضعت	-10.7252
▁حكي	-10.7256
▁والديه	-10.7256
▁للب	-10.7256
▁جزاء	-10.7258
▁26	-10.7261
▁اخط	-10.7263
▁وكتاه	-10.7265
▁brk	-10.7269
▁الثانوية	-10.727
▁عالية	-10.7271
▁نقي	-10.7273
▁مدر	-10.7274
▁التعب	-10.7276
شهاد	-10.7277
▁🌚	-10.728
▁بون	-10.7284
▁ونجح	-10.7288
▁حمل	-10.729
▁النصائح	-10.7291
فاي	-10.7293
بش	-10.7294
60	-10.7295
حلي	-10.73
عالج	-10.7304
كبير	-10.7305
▁mal	-10.7306
ضمن	-10.7306
lina	-10.7307
▁تعليمي	-10.7307
▁الظروف	-10.7309
فلا	-10.7312
▁وأسكنه	-10.7314
بقي	-10.7314
▁عايشة	-10.7316
▁يطالب	-10.7317
▁🌷	-10.7317
▁ويجعلها	-10.7318
▁تفوت	-10.7321
▁سليمان	-10.7324
الى	-10.7325
▁الكا	-10.7332
▁بالرغم	-10.7334
▁رابح	-10.7338
▁خطوة	-10.7341
ber	-10.7342
غنى	-10.7344
▁المناسب	-10.7346
▁خلات	-10.7346
▁حمار	-10.7348
▁نحبس	-10.7349
▁اقت	-10.7353
▁pr	-10.7353
▁هيه	-10.7356
▁النية	-10.7359
▁اللسان	-10.7359
▁|	-10.7363
▁خرجو	-10.7368
▁keep	-10.7369
▁غرب	-10.7373
زار	-10.7375
▁وحدوخر	-10.7379
▁ذكره	-10.7382
كتشف	-10.7384
مراجعة	-10.7386
▁انصح	-10.7388
▁الذكر	-10.739
🤗	-10.7393
▁يستعمل	-10.7395
39	-10.7396
▁باللغة	-10.74
▁فاتت	-10.7403
▁ولاكن	-10.7405
وضح	-10.7405
▁وقلت	-10.7408
▁اسلام	-10.7408
▁فلما	-10.7409
».	-10.7414
بتي	-10.7416
▁دينك	-10.7418
حساب	-10.7418
باس	-10.7421
▁prof	-10.7421
▁kha	-10.7422
▁وارحم	-10.7424
▁ذيك	-10.7425
▁القادمة	-10.7426
▁اكتر	-10.7427
▁أعط	-10.7427
▁ونموت	-10.7433
▁جاوب	-10.7433
▁بلادك	-10.7435
آخر	-10.7435
▁توقف	-10.7436
تواصل	-10.7436
▁كشغل	-10.7437
▁تبعث	-10.7439
زه	-10.7439
▁القليل	-10.7439
رضي	-10.7442
عترف	-10.7443
▁التك	-10.7444
▁سمي	-10.7444
خاطب	-10.7446
علام	-10.7447
▁الخطايا	-10.7447
▁رج	-10.7449
▁تنحي	-10.745
▁يلبس	-10.7452
▁مرشح	-10.7452
▁but	-10.7453
▁واضحة	-10.7454
معدل	-10.7455
▁نزعة	-10.7455
ربما	-10.7457
▁فيسبوك	-10.7457
▁يعاون	-10.7458
▁ويسكنه	-10.7458
🙏🙏	-10.7459
ser	-10.7459
▁وبعدها	-10.7463
▁ء	-10.7465
▁ميش	-10.7469
▁الزوجة	-10.747
▁وجغرافيا	-10.747
fr	-10.7471
دوك	-10.7473
▁اليومية	-10.7475
▁المرء	-10.7483
▁ابتدائي	-10.7485
▁عمره	-10.7487
ندا	-10.7488
▁داره	-10.7488
بطل	-10.7489
▁تأتي	-10.7492
▁تسمى	-10.7497
▁تدرس	-10.7497
▁وردة	-10.7498
▁نتحصل	-10.75
رسم	-10.7501
😥	-10.7502
▁التجربة	-10.7503
▁التس	-10.7503
▁foor	-10.7503
حلم	-10.7505
▁جاوبيني	-10.7509
▁ماهيش	-10.7512
▁حوس	-10.7513
جاج	-10.7513
▁تكملي	-10.7515
▁دارا	-10.7517
▁حروف	-10.752
▁رقي	-10.7526
▁ايمن	-10.7526
▁حاجه	-10.7526
▁تلفون	-10.7527
ستمتع	-10.7529
RE	-10.7529
▁انظر	-10.7532
»،	-10.7532
▁ماشفت	-10.7534
▁الظن	-10.7536
pp	-10.7537
▁نعرفها	-10.7541
جلب	-10.7542
▁ممنوع	-10.7544
▁حدا	-10.7545
liha	-10.7545
▁شق	-10.7546
▁بنسبة	-10.755
▁خصنا	-10.755
▁الإخوة	-10.755
▁والثلج	-10.7551
qu	-10.7551
▁قار	-10.7553
▁دخلك	-10.7553
▁مستغانم	-10.7555
▁شوك	-10.7556
▁وثاني	-10.7557
▁رجاء	-10.7558
▁نخدمو	-10.756
▁فكان	-10.7561
▁نسقسي	-10.7561
ندي	-10.7566
▁نسي	-10.7566
▁ارى	-10.7567
نآ	-10.7571
▁عثمان	-10.7571
▁ظرف	-10.7571
▁الإست	-10.7573
▁واليوم	-10.7573
▁ضيفتنا	-10.7575
باعد	-10.7576
▁es	-10.7577
▁الحدود	-10.758
23	-10.758
▁نكتبو	-10.7581
▁REDX	-10.7582
▁🤲🏼	-10.7582
▁الفرح	-10.7588
كسب	-10.7591
▁بقى	-10.7593
ille	-10.7596
▁ومسلم	-10.7596
▁للشعب	-10.7597
▁علامات	-10.7598
▁نيتك	-10.7598
▁أست	-10.7598
▁ضيق	-10.76
▁وقبل	-10.7601
▁وبنت	-10.7601
▁Rani	-10.7604
▁نشكر	-10.7605
فطر	-10.7606
بز	-10.7608
▁الهند	-10.7608
استغفر	-10.7611
▁يهديه	-10.7611
▁المميزة	-10.7615
▁الاحترام	-10.7617
قهر	-10.7621
▁قبيل	-10.7622
▁طلبي	-10.7622
▁تمت	-10.7623
▁باغية	-10.7625
ولى	-10.7629
▁والعلم	-10.7629
▁الصيام	-10.7631
▁meilleur	-10.7634
▁va	-10.7637
▁واسم	-10.7641
قبض	-10.7642
😎	-10.7644
▁يحفض	-10.7645
▁الصرح	-10.7648
▁وحبيبنا	-10.7649
▁بلال	-10.7649
▁ré	-10.765
▁معسكر	-10.7651
▁الميت	-10.7651
hab	-10.7652
▁غيره	-10.7652
▁وصاي	-10.7653
قضي	-10.7654
▁باينا	-10.7658
▁رابع	-10.7659
بنا	-10.7661
▁يطلق	-10.7661
▁يقدرو	-10.7661
▁الصفر	-10.7663
▁النزعة	-10.7664
▁كتير	-10.7665
▁مهوش	-10.767
▁or	-10.7672
▁فهمتش	-10.7673
جميل	-10.7674
▁خليل	-10.7674
▁أثناء	-10.7677
▁قريبا	-10.7677
."	-10.7678
▁لزم	-10.7679
go	-10.7681
▁رايكم	-10.7684
رفق	-10.7685
ورو	-10.7686
▁خمسة	-10.7687
▁يعطو	-10.7688
▁زايد	-10.7689
فان	-10.7691
▁الظالمين	-10.7692
▁تلقي	-10.7693
▁رمضانكم	-10.7695
ps	-10.7708
▁أبا	-10.7708
خطط	-10.7709
▁يخدمو	-10.771
ديش	-10.771
▁حاولي	-10.771
▁سياسة	-10.7712
▁الأساتذة	-10.7715
وء	-10.7716
▁ts	-10.7719
٥	-10.772
▁لدى	-10.772
▁اختار	-10.7724
▁العملية	-10.7724
طرق	-10.7727
▁الشهيد	-10.7727
▁مغربي	-10.7728
قولو	-10.773
▁ونجيب	-10.7731
قس	-10.7731
200	-10.7733
▁اللو	-10.7737
حكمة	-10.7738
▁العشر	-10.774
▁الدوال	-10.7742
▁hab	-10.7742
دوم	-10.7743
ظيف	-10.7743
▁قصير	-10.7744
llah	-10.7746
▁🩷	-10.7747
▁امان	-10.7749
عشر	-10.7752
▁نز	-10.7756
▁نح	-10.7757
▁العامة	-10.7757
صفر	-10.7761
▁يراجع	-10.7764
▁compte	-10.7771
هذه	-10.7773
يث	-10.7774
▁ففي	-10.7777
▁تحبي	-10.7778
▁نوعا	-10.7782
▁خلص	-10.7782
▁وقل	-10.7782
▁تعرض	-10.7785
الب	-10.7785
▁الادبيين	-10.7787
▁كافي	-10.7788
▁قصيرة	-10.7789
‍	-10.7789
▁رخيس	-10.7791
▁وتن	-10.7792
iv	-10.7794
ؤثر	-10.7797
ؤمن	-10.7797
قدار	-10.7798
▁معين	-10.7799
يبي	-10.78
فرغ	-10.78
▁مرعب	-10.7802
أل	-10.7802
▁كومنتار	-10.7804
باني	-10.7804
▁بهاذ	-10.7805
😞	-10.7805
▁واس	-10.7806
▁الفترة	-10.7807
▁البليدة	-10.7807
تلها	-10.7809
شجع	-10.7813
▁//	-10.7814
نتظر	-10.7818
▁ااه	-10.782
▁حاولت	-10.782
;	-10.7821
شيء	-10.7824
▁يرحمك	-10.7826
▁نبداو	-10.7827
▁ولينا	-10.7829
fo	-10.7829
رمضان	-10.783
▁تترك	-10.7835
*****	-10.7835
▁الحقيقية	-10.7835
▁much	-10.7839
▁اهتمام	-10.7839
▁احلام	-10.7839
▁كلهم	-10.7842
حرص	-10.7843
١	-10.7844
▁فارغ	-10.7845
▁po	-10.7845
▁فيزا	-10.7848
▁العزيزة	-10.7848
▁حصل	-10.785
▁(1	-10.7851
▁نسخة	-10.7855
▁يجزيك	-10.7855
▁ظهور	-10.7856
▁يولد	-10.7859
▁hkaya	-10.7862
▁نحيت	-10.7862
▁back	-10.7863
▁ساحر	-10.7863
حوس	-10.7864
▁حرق	-10.7865
▁يقتلو	-10.7865
▁الضعف	-10.7866
داد	-10.7867
▁فقدت	-10.7869
🌺	-10.7869
▁يشافي	-10.787
▁حنان	-10.787
هود	-10.7872
درت	-10.7873
▁نتم	-10.7876
66	-10.7876
▁وهوما	-10.7877
▁صحيتي	-10.7879
▁أسر	-10.788
▁يقدرك	-10.788
▁تج	-10.7882
▁تراجع	-10.7883
▁الأو	-10.7885
زرع	-10.7886
طمئن	-10.7887
▁🤔🤔	-10.7888
▁ويحفظ	-10.7888
▁اسلوب	-10.7889
راقب	-10.7889
▁تاي	-10.7892
▁ركز	-10.7892
▁الصمت	-10.7892
▁اسعد	-10.7894
▁تحبين	-10.7898
رها	-10.7898
بلع	-10.7899
قيت	-10.7899
صدر	-10.79
”	-10.7902
ٱ	-10.7902
▁رقد	-10.7902
▁اسالك	-10.7903
▁الفيد	-10.7903
وسط	-10.7905
▁سني	-10.7907
▁نقدي	-10.7908
▁90	-10.7912
نصيحة	-10.7913
▁تعيط	-10.7913
▁حطي	-10.7916
▁كلب	-10.7917
جبر	-10.7918
wel	-10.7918
▁dirlna	-10.7921
out	-10.7922
▁مقارنة	-10.7923
▁تنجحي	-10.7923
▁يغادر	-10.7923
ssi	-10.7925
▁الاستعمار	-10.7925
▁نصر	-10.7926
▁تؤ	-10.7926
▁اربع	-10.7927
▁انستغرام	-10.7928
حبة	-10.7929
▁عاودي	-10.793
تحمل	-10.7934
▁القصه	-10.7934
lih	-10.7937
▁راائع	-10.7937
▁اعطينا	-10.794
▁نجوز	-10.7943
▁لحمي	-10.7947
je	-10.7947
▁الرابع	-10.7952
▁زينب	-10.7953
▁ادع	-10.7954
▁ماتتمنى	-10.7954
▁عملك	-10.7954
▁بعده	-10.7956
▁مقت	-10.796
▁بحق	-10.7963
▁فرحا	-10.7966
زهر	-10.7967
▁متح	-10.7969
▁قاس	-10.797
▁قلم	-10.7971
▁يخليكم	-10.7972
▁زوجة	-10.7973
▁ندمت	-10.7974
▁بجام	-10.7976
▁ندعو	-10.7977
▁كينغ	-10.7978
كلمة	-10.7979
ذاك	-10.7981
▁مدخله	-10.7983
كاس	-10.7984
▁كيفكيف	-10.7985
عودة	-10.7993
▁يسب	-10.7994
▁القيام	-10.7995
▁أسباب	-10.7996
▁درب	-10.7996
▁بصوت	-10.8
▁2013	-10.8
▁bel	-10.8001
ence	-10.8002
hach	-10.8002
▁الاستعارة	-10.8004
صنف	-10.8007
▁الجنوب	-10.801
bb	-10.8011
فاس	-10.8012
▁البلد	-10.8015
عار	-10.8015
قذف	-10.8015
▁ورايا	-10.8017
▁لأم	-10.8019
▁الرأي	-10.8019
▁يسلمك	-10.802
▁بأي	-10.802
▁تبين	-10.8024
▁وأكرم	-10.8027
▁بعدي	-10.8027
▁معمر	-10.8027
▁وخلي	-10.8028
جامع	-10.8029
شحن	-10.8029
▁nas	-10.8031
▁فرنسي	-10.8031
▁تعرفو	-10.8032
▁بالذرية	-10.8033
▁شان	-10.8033
▁أفهم	-10.8034
▁باع	-10.8036
▁wahd	-10.8036
gl	-10.8038
▁حيا	-10.8041
▁مرتو	-10.8045
سال	-10.8046
▁الاولاد	-10.8046
▁تقويم	-10.805
﴾	-10.805
▁نقارع	-10.805
▁والجن	-10.8051
▁اطفال	-10.8053
▁للمليون	-10.8058
▁الفتاة	-10.8058
جديد	-10.8059
▁اشتراك	-10.8059
▁بهاد	-10.8063
▁التف	-10.8064
▁نشكرك	-10.8065
▁تبدأ	-10.8065
▁قب	-10.8069
▁ترحيب	-10.8071
▁الابتدائي	-10.8071
▁الساحر	-10.8072
▁متمني	-10.8073
▁متر	-10.8074
ye	-10.8078
▁أعوذ	-10.809
نظم	-10.8091
▁واا	-10.8092
ليك	-10.8096
▁حكايا	-10.8096
▁يتزوج	-10.8099
طمع	-10.8099
▁حلول	-10.8102
حقق	-10.8103
▁الرب	-10.8104
▁بداو	-10.8105
▁الحج	-10.8105
▁النجوم	-10.8106
▁مضحك	-10.8109
ثي	-10.811
▁ah	-10.811
▁الاسود	-10.8111
▁السعر	-10.8111
رفض	-10.8113
▁ms	-10.8115
▁العشاء	-10.8118
▁طال	-10.8118
▁يسعدك	-10.8122
ائح	-10.8124
cette	-10.8124
▁مهيش	-10.8126
أول	-10.8128
▁وهاد	-10.8129
▁هبلت	-10.8135
▁العطر	-10.8135
زب	-10.8139
▁sou	-10.8139
▁أعطي	-10.814
▁موا	-10.814
▁يحمي	-10.8145
▁الشك	-10.8146
▁يف	-10.8148
▁توع	-10.8149
▁حقك	-10.8152
▁وهكذا	-10.8153
▁ضمير	-10.8154
▁نعتمد	-10.8159
▁العطلة	-10.816
ue	-10.8161
ڨل	-10.8163
دح	-10.8163
▁الوصف	-10.8166
▁El	-10.8167
ضبط	-10.8167
▁مشا	-10.8169
▁ورزق	-10.8171
▁السورة	-10.8176
▁ماعنديش	-10.8179
غد	-10.8179
تبقى	-10.8179
▁تحديد	-10.818
▁تحدي	-10.8181
توقف	-10.8181
▁خرجلي	-10.8183
أو	-10.8184
▁نجاوب	-10.8185
▁يشفيه	-10.8185
▁فاليوتيوب	-10.8186
بلاد	-10.8195
ريج	-10.8199
حشر	-10.8201
ورك	-10.8202
▁جه	-10.8203
▁صر	-10.8203
▁لاشان	-10.8203
andi	-10.8205
▁howa	-10.8206
راع	-10.8207
▁بحكم	-10.8208
▁الأطفال	-10.8209
تحت	-10.8209
▁أسبوع	-10.821
▁ديني	-10.821
▁mt	-10.8211
▁كور	-10.8211
▁تنسا	-10.8212
▁حك	-10.8213
▁اذكر	-10.8218
▁البقاء	-10.8218
عع	-10.8219
ميم	-10.8219
tal	-10.822
ans	-10.822
ld	-10.8223
▁قصت	-10.8224
ap	-10.8226
▁القواعد	-10.8226
▁الطعام	-10.8226
▁يباركلك	-10.8227
▁لقينا	-10.8227
▁هبط	-10.8227
▁خب	-10.823
زق	-10.8231
▁رحمك	-10.8233
▁الري	-10.8234
▁😎	-10.8235
فاف	-10.8235
▁ناقصة	-10.8236
▁عنهما	-10.8236
▁جهاز	-10.8236
▁لقصص	-10.8237
اكت	-10.8238
▁جانفي	-10.8239
▁قبول	-10.8242
▁محتوا	-10.8242
▁نزله	-10.8243
▁تعامل	-10.8243
▁اسمحلي	-10.8243
قون	-10.8243
سطو	-10.8245
▁نعيط	-10.8245
▁مشاعر	-10.8245
▁صدقت	-10.8245
▁يحبس	-10.8247
يطة	-10.8247
↗️	-10.8248
▁سلطان	-10.8249
▁العلاقة	-10.825
😓	-10.825
صلة	-10.8251
▁العاب	-10.8252
ختار	-10.8252
تقدر	-10.8254
ملك	-10.8257
▁معندوش	-10.8259
▁نطلع	-10.826
▁سكان	-10.8262
اولاد	-10.8264
ضعف	-10.8264
▁أنواع	-10.8267
مرات	-10.8267
▁بدأ	-10.8269
▁كش	-10.8271
▁تنسى	-10.8273
▁لقصة	-10.8275
▁الملخص	-10.8277
▁لقاو	-10.8278
▁تختار	-10.8278
▁أدري	-10.8281
▁اط	-10.8281
▁فاطمة	-10.8282
▁ردود	-10.8282
وريا	-10.8285
up	-10.8287
yy	-10.829
دقيقة	-10.8291
طهر	-10.8293
▁إذن	-10.8293
▁درتلك	-10.8294
▁متخافيش	-10.8295
ىء	-10.8296
▁يمدو	-10.8296
▁تجارة	-10.8297
▁inchallah	-10.8298
▁Nchlh	-10.8299
شرب	-10.8299
▁خل	-10.8301
▁bsh	-10.8303
▁دعالي	-10.8304
ذى	-10.8305
du	-10.8305
▁خبرة	-10.8306
cu	-10.8306
▁تام	-10.831
خاص	-10.831
▁😇	-10.8313
▁لآ	-10.8314
▁Thank	-10.8314
▁تعاون	-10.8317
▁اسر	-10.8317
▁تدل	-10.8318
😰	-10.8318
▁نحلو	-10.8322
▁تدعي	-10.8323
شري	-10.8326
▁نزع	-10.8326
خن	-10.8327
باي	-10.8329
▁أسئلتي	-10.8332
▁مراكش	-10.8332
حاد	-10.8335
▁آيات	-10.8336
▁ولازم	-10.8338
▁الكفار	-10.8341
▁الاسطورة	-10.8342
▁ادبية	-10.8343
tr	-10.8347
غلب	-10.8348
طرة	-10.8352
▁Un	-10.8355
ماي	-10.8355
▁قواعد	-10.8356
▁خسر	-10.8357
▁نعطيك	-10.8358
▁رواحكم	-10.8359
نتا	-10.8364
تينا	-10.8365
▁كومونتار	-10.8365
▁والمسلمات	-10.8366
ممكن	-10.8368
▁نسجل	-10.837
زز	-10.8371
لط	-10.8372
▁دق	-10.8373
▁وطريقة	-10.8374
▁امم	-10.8377
هضر	-10.8378
▁yh	-10.8378
▁أمير	-10.8379
بقية	-10.8381
▁سعادة	-10.8382
▁مسكون	-10.8382
80	-10.8382
▁السيارات	-10.8383
▁امريكا	-10.8383
▁شأن	-10.8384
شومبر	-10.8391
▁ودرت	-10.8394
▁امسى	-10.8394
قمار	-10.8394
▁bach	-10.8397
▁عقلية	-10.8399
▁فديوهات	-10.84
▁2/	-10.84
▁تبيع	-10.8405
▁ألي	-10.841
حث	-10.8413
▁tes	-10.8414
▁أشد	-10.8415
▁الصين	-10.8415
▁son	-10.8415
▁غالية	-10.8415
ساهل	-10.8416
▁مدرت	-10.8416
▁بصمة	-10.842
▁🤗	-10.8423
▁دبر	-10.8426
▁بمن	-10.8426
▁مقل	-10.8427
▁نتاعو	-10.8429
حج	-10.8429
ستان	-10.843
بلا	-10.8433
▁وسدد	-10.8434
ستحق	-10.8435
▁يضيع	-10.8436
تداول	-10.8438
▁محط	-10.8438
▁رفيق	-10.8439
قاع	-10.844
▁ويشفي	-10.8441
▁In	-10.8441
▁رقا	-10.8442
▁بدلت	-10.8442
▁سرق	-10.8444
▁ممتع	-10.8444
لش	-10.8445
▁ماتش	-10.8446
▁أبوني	-10.8446
يجي	-10.8448
▁احساس	-10.8451
▁عبادة	-10.8451
▁جداا	-10.8454
بدي	-10.8456
▁الفتنة	-10.8456
تخلي	-10.8457
🥰🥰	-10.8458
▁دال	-10.8458
▁اختنا	-10.8465
▁بدي	-10.8468
▁هدية	-10.847
تعاون	-10.8474
▁تحبو	-10.8479
راقي	-10.848
▁مالقيت	-10.8481
▁يدرس	-10.8481
جميع	-10.8483
يران	-10.8484
▁يوتوب	-10.8488
▁اسلامية	-10.8489
▁الدال	-10.8489
▁تاعكم	-10.8489
▁شهيد	-10.849
احي	-10.8491
شترك	-10.8491
▁حص	-10.8492
▁قلبها	-10.8492
▁اعضاء	-10.8494
▁عضوة	-10.8495
▁السياسية	-10.8498
wl	-10.8498
▁dit	-10.8499
زاد	-10.85
▁احترامي	-10.85
▁لشخص	-10.8501
▁عثيمين	-10.8502
▁المطلوب	-10.8502
▁بلدية	-10.8503
▁قلوبهم	-10.8504
بحر	-10.8509
▁تفاصيل	-10.8512
▁التم	-10.8514
▁الرمز	-10.8517
▁ريت	-10.8519
هدف	-10.852
▁وقتاه	-10.8521
▁يهم	-10.8522
غطي	-10.8523
▁نستعمل	-10.8524
▁الحبر	-10.8524
▁فراش	-10.8525
▁المصري	-10.8525
▁أعتقد	-10.8527
▁بينما	-10.8528
تالي	-10.853
🥺🥺	-10.8532
▁شراء	-10.8532
▁طلة	-10.8533
▁غم	-10.8533
▁محتاج	-10.8536
▁اسوء	-10.8537
علن	-10.8538
▁تسمي	-10.8539
▁يخو	-10.8539
▁بقرة	-10.854
▁الدليل	-10.854
▁بالدعاء	-10.8542
▁أج	-10.8544
mb	-10.8544
مقترحات	-10.8545
▁قدامي	-10.8546
▁طي	-10.8548
▁صاح	-10.8548
▁اضحى	-10.8549
▁نحقق	-10.8551
▁يدر	-10.8552
▁النقطة	-10.8552
▁رس	-10.8553
▁نسمعها	-10.8558
▁😥	-10.8559
▁وحش	-10.856
▁(2	-10.856
▁وندي	-10.856
▁🤍🤍	-10.8561
ثل	-10.8562
▁وتفرح	-10.8562
LI	-10.8564
▁ليكور	-10.8567
▁حالتي	-10.8568
▁مسعود	-10.857
عمار	-10.8571
عنا	-10.8572
▁ويت	-10.8572
▁امثالك	-10.8572
▁100%	-10.8574
عرفت	-10.8576
▁يجازيكم	-10.8578
mm	-10.8578
عقوب	-10.8579
▁فريق	-10.8581
zz	-10.8582
حمر	-10.8582
▁هاذوك	-10.8586
▁cl	-10.8587
ru	-10.8587
▁معامل	-10.8587
▁قررت	-10.8587
▁ترقي	-10.8587
▁صفات	-10.8587
rit	-10.8587
▁الحصة	-10.8587
▁جامعة	-10.8588
▁ak	-10.8589
▁التعامل	-10.859
▁خروج	-10.859
دود	-10.8592
طون	-10.8595
▁أستطيع	-10.8595
▁الاستغفار	-10.8596
▁يدوم	-10.8596
▁ورحمه	-10.8597
▁دارهم	-10.8598
▁توكل	-10.8598
▁الخيال	-10.86
▁نكملو	-10.86
▁مقدر	-10.8601
▁أسلوب	-10.8602
تبادل	-10.8602
▁يبدل	-10.8603
💋	-10.8605
▁خطة	-10.8609
حجب	-10.8609
مسح	-10.861
▁nous	-10.8611
سوء	-10.8614
nk	-10.8615
▁ماتو	-10.8616
▁ميمتي	-10.8617
ستمر	-10.8617
داك	-10.8617
▁لقاء	-10.8618
▁ضع	-10.8618
▁تبحث	-10.8619
قنا	-10.862
▁مهتم	-10.862
▁الكافر	-10.862
نزع	-10.8621
▁شوق	-10.8621
▁تأكد	-10.8622
▁تقضي	-10.8623
▁وجهة	-10.8623
▁يأخذ	-10.8625
بنتي	-10.8626
▁وست	-10.8628
▁الول	-10.863
▁ضل	-10.8632
one	-10.8632
سيبيا	-10.8632
▁صرالي	-10.8634
▁هبل	-10.8635
▁أخرجه	-10.8637
▁أحدهم	-10.8639
حاجة	-10.8645
▁ghi	-10.8647
▁com	-10.8648
mal	-10.8648
▁لماما	-10.8648
ate	-10.8649
▁راب	-10.865
▁💓	-10.8652
خزر	-10.8652
▁متع	-10.8654
▁يسمح	-10.8655
▁الجز	-10.8657
▁بفارغ	-10.8657
▁سلك	-10.8658
▁حف	-10.8659
▁يسأل	-10.866
▁يهديكم	-10.8661
▁واقيلا	-10.8662
▁ماقدرتش	-10.8664
▁تنصح	-10.8668
▁ومي	-10.8668
▁ويخليك	-10.8668
▁تتبع	-10.8669
▁حوا	-10.867
▁طلبت	-10.867
▁mes	-10.8673
طاج	-10.8675
▁متزيدش	-10.8675
▁العقيدة	-10.8675
×	-10.8675
▁عقدة	-10.8675
▁يملك	-10.8675
عني	-10.8676
▁sh	-10.8676
▁علمك	-10.8679
▁بورك	-10.8679
سود	-10.868
▁مدى	-10.8682
▁تكثر	-10.8684
▁أرواح	-10.8685
▁♥♥	-10.8686
▁ودع	-10.8688
تاكد	-10.8688
▁car	-10.869
فهمش	-10.8691
▁رحمتك	-10.8692
▁الفساد	-10.8693
▁جم	-10.8693
▁سع	-10.8693
نغ	-10.8694
❤😢	-10.8694
▁اشياء	-10.8694
▁تأخذ	-10.8694
▁طبع	-10.8697
rg	-10.8698
دش	-10.8699
▁ندعي	-10.8701
▁قرات	-10.8701
▁طري	-10.871
▁السياقة	-10.8711
▁عاقل	-10.8711
▁بصفة	-10.8713
▁الطاهر	-10.8713
صعب	-10.8715
روحي	-10.8716
▁موافق	-10.8716
▁القهوة	-10.8718
▁عي	-10.8719
▁للف	-10.8719
حلال	-10.8722
▁Ka	-10.8722
▁تسلم	-10.8724
▁الامة	-10.8724
▁fr	-10.8724
▁ونس	-10.8727
▁قشيحة	-10.8728
▁وتاني	-10.8729
bar	-10.873
▁comment	-10.8731
▁حياتها	-10.8732
▁يعيط	-10.8735
▁كمية	-10.8738
▁يترك	-10.8739
▁ذالك	-10.874
▁يتحدث	-10.8743
▁مانعرف	-10.8744
▁المقالات	-10.8745
▁وكما	-10.8747
▁المحا	-10.8748
نوع	-10.875
▁ويهدي	-10.875
▁pi	-10.8754
▁تدعم	-10.8754
▁تهدري	-10.8755
وربي	-10.8758
▁just	-10.8758
ائن	-10.8758
وجب	-10.8759
▁داعي	-10.8762
▁مصطفى	-10.8762
▁قلة	-10.8766
ضحي	-10.8767
باع	-10.8769
🙄	-10.8769
▁ساكن	-10.8771
تخصص	-10.8771
بلوك	-10.8774
▁هرب	-10.8777
▁mas	-10.8778
▁دات	-10.8783
سات	-10.8783
أب	-10.8784
▁مجموع	-10.8785
▁ارجوكم	-10.8787
▁حملة	-10.8788
▁غضب	-10.8788
▁ويزيد	-10.8789
▁القراءة	-10.879
▁انشاءالله	-10.8791
سمو	-10.8792
ill	-10.8795
▁وشكراا	-10.8796
▁سامع	-10.8796
▁هند	-10.8797
تحر	-10.8798
▁ديالي	-10.8799
تأمل	-10.8799
ee	-10.8803
▁ارجوا	-10.8805
▁toi	-10.8806
▁قصر	-10.8806
▁“	-10.8807
▁جايح	-10.8807
▁ثانوية	-10.8807
▁حافظة	-10.8809
▁اخذ	-10.8812
▁سلامتك	-10.8815
بالي	-10.8816
tli	-10.8818
▁أحدا	-10.882
▁وبرك	-10.8823
▁ورب	-10.8824
▁اييه	-10.8824
▁ونشالله	-10.8824
rin	-10.8828
كوزينة	-10.8829
ياربي	-10.8831
▁وفرح	-10.8832
▁ملايين	-10.8833
سون	-10.8834
▁نسنا	-10.8834
ضف	-10.8835
▁اسمية	-10.8836
▁والهم	-10.8837
▁نحفض	-10.8837
▁Re	-10.8837
▁معرفت	-10.8837
▁عميق	-10.8838
▁29	-10.8838
▁عملت	-10.8839
▁احم	-10.8839
▁الجيش	-10.8839
اكل	-10.884
عارض	-10.8841
٣	-10.8841
▁يحس	-10.8842
صحح	-10.8844
▁whd	-10.8845
ouch	-10.8846
▁اسهل	-10.8848
▁ادرس	-10.8854
▁ک	-10.8856
ane	-10.8857
▁تد	-10.8859
▁خطرات	-10.8859
▁أشياء	-10.886
▁قاسم	-10.8861
▁وطن	-10.8861
▁بشيء	-10.8862
👍👍	-10.8863
راهم	-10.8863
عاقب	-10.8865
جري	-10.8867
oni	-10.8867
45	-10.8867
ph	-10.8869
▁شريعة	-10.8871
▁لحال	-10.8871
▁المراتب	-10.8872
▁آمنوا	-10.8872
▁زيارة	-10.8872
▁بالق	-10.8876
▁أكتب	-10.8877
▁يؤمن	-10.8879
▁تعبك	-10.8882
▁مقترحة	-10.8882
aux	-10.8883
توتر	-10.8883
خيل	-10.8884
▁خلط	-10.8884
nc	-10.8886
▁60	-10.8888
▁6-	-10.8889
دها	-10.8889
▁ورسوله	-10.8889
جيل	-10.889
▁yes	-10.8891
مني	-10.8892
▁لأي	-10.8897
▁طولتي	-10.8898
▁توصلي	-10.8898
▁ربا	-10.8903
▁تحميل	-10.8904
▁تبالي	-10.8904
اصبح	-10.8904
رئ	-10.8905
▁والشكر	-10.8906
▁يغير	-10.8906
رانا	-10.8907
▁وتع	-10.8907
▁اون	-10.8909
فرض	-10.8909
آء	-10.891
▁غني	-10.891
ena	-10.891
sta	-10.8911
▁خصائص	-10.8911
▁أعد	-10.8912
▁واح	-10.8914
مرأة	-10.8915
▁Na	-10.8917
بغا	-10.8917
▁ظالم	-10.8921
▁الترمذي	-10.8922
▁frère	-10.8922
▁امري	-10.8922
محتوى	-10.8923
▁جسم	-10.8924
خسر	-10.8925
قية	-10.8927
uu	-10.8927
▁وفيها	-10.8928
▁اليل	-10.8928
▁ضيفنا	-10.8928
▁العراق	-10.8929
تز	-10.8929
▁الاعمال	-10.893
raf	-10.8931
▁comp	-10.8934
▁الأفكار	-10.8936
▁راقدة	-10.8938
▁بودكاست	-10.8939
▁اسرائيل	-10.894
▁رجلي	-10.894
▁from	-10.894
▁بيناتهم	-10.8942
▁المفضلة	-10.8942
▁تصدق	-10.8943
▁قتلها	-10.8945
حمي	-10.8945
▁عشرين	-10.8946
فاه	-10.8946
▁رضى	-10.8946
▁فايدة	-10.8947
▁ثمن	-10.8947
توحش	-10.8954
▁الليلة	-10.8954
▁رعد	-10.8955
▁ضعيفة	-10.8955
▁تقلق	-10.8957
▁السير	-10.8957
ࢪ	-10.8958
▁اومبعد	-10.8958
▁مجيد	-10.8958
سنوات	-10.8961
▁يحبه	-10.8962
😅😂	-10.8965
▁********	-10.8967
▁نفسية	-10.8971
▁صدقني	-10.8971
▁ساعد	-10.8971
فرحة	-10.8973
▁حسنا	-10.8973
▁التأ	-10.8975
▁اليقين	-10.8975
▁يلعبو	-10.8977
جوان	-10.898
▁يبيع	-10.8981
▁بطريق	-10.8981
ndi	-10.8982
▁معينة	-10.8982
▁اسألك	-10.8983
شكون	-10.8986
▁للي	-10.8986
🔥🔥	-10.8986
▁khti	-10.8987
بوب	-10.8987
شأ	-10.8988
▁نصلي	-10.8989
ثب	-10.8989
▁at	-10.8989
ادا	-10.899
▁سلف	-10.899
▁الصادق	-10.899
كفر	-10.8991
▁حرية	-10.8991
▁يدعم	-10.8992
▁ans	-10.8993
▁التش	-10.8995
▁مسجد	-10.8995
▁الحكمة	-10.9
▁خطي	-10.9001
▁قتلت	-10.9004
▁سكيكدة	-10.9004
▁تقدير	-10.9005
ابه	-10.9006
▁يشري	-10.901
ze	-10.9011
▁السوجي	-10.9012
▁مخطط	-10.9012
▁😱	-10.9014
▁تبسة	-10.9015
▁يعوض	-10.9015
tna	-10.9016
▁الخطرة	-10.9016
▁للقصص	-10.9019
خم	-10.902
▁حطيلنا	-10.902
▁مبسط	-10.9021
الأ	-10.9021
قيل	-10.9023
▁للمرة	-10.9023
▁✌	-10.9026
▁اللعبة	-10.9027
▁Ba	-10.9027
▁تكل	-10.9028
▁يصبرك	-10.903
▁المصطفى	-10.903
▁إل	-10.903
▁Top	-10.9031
هدا	-10.9032
▁لناس	-10.9038
▁Hadi	-10.9038
▁استر	-10.9038
نصر	-10.9041
ami	-10.9041
▁وحدا	-10.9041
sm	-10.9042
▁اخرج	-10.9042
▁وشحال	-10.9043
زون	-10.9046
▁السبت	-10.9046
gg	-10.9048
٦	-10.9048
26	-10.9049
▁لتم	-10.905
▁اسئلتي	-10.9052
▁منقول	-10.9052
▁الشخصي	-10.9054
▁قراي	-10.9055
▁جدتي	-10.9057
أمن	-10.9057
▁قريتها	-10.9058
لقيت	-10.906
معلومات	-10.906
mat	-10.9061
▁الأمن	-10.9062
▁الحلال	-10.9064
ندو	-10.9065
سد	-10.9066
عليه	-10.9066
▁عقلك	-10.9066
▁متابعين	-10.9068
اشي	-10.9069
دان	-10.9071
خخ	-10.9075
▁دمتم	-10.9075
▁💯	-10.9075
ساهم	-10.9077
▁مروان	-10.9078
▁يضع	-10.9078
تأثر	-10.9079
▁الكلب	-10.9079
عقد	-10.9081
عداد	-10.9082
مدينة	-10.9083
▁شارك	-10.9083
▁ساع	-10.9087
▁التوبة	-10.9087
▁متزوج	-10.9088
▁ببعض	-10.9089
▁منازع	-10.9093
ابتسامة	-10.9094
▁معرض	-10.9094
▁لساني	-10.9098
▁Si	-10.9099
▁راجلها	-10.91
▁نحفظو	-10.9101
▁yt	-10.9101
▁وجب	-10.9102
دراك	-10.9102
جماعة	-10.9102
ڨو	-10.9105
▁وزير	-10.9108
روج	-10.9109
سمي	-10.9109
!؟	-10.9111
▁عالمية	-10.9115
ايه	-10.9115
rd	-10.9119
▁تنصحني	-10.9122
▁يماه	-10.9125
▁طلعولي	-10.9126
غار	-10.9127
يدو	-10.9127
kou	-10.9128
▁برح	-10.913
▁أبناء	-10.9132
▁غبي	-10.9135
▁مرضى	-10.9137
تقوى	-10.9137
▁تقطع	-10.9137
▁الحجر	-10.914
28	-10.914
اار	-10.9141
▁بالصح	-10.9142
ide	-10.9145
▁بدر	-10.9145
44	-10.9147
▁يجيك	-10.9148
▁🤲❤️	-10.9148
▁قاعدين	-10.915
▁مشاءالله	-10.915
+1	-10.9151
حى	-10.9152
▁ونقه	-10.9155
دات	-10.9156
▁عسى	-10.9156
نقص	-10.9156
▁الخاتمة	-10.9158
▁فضله	-10.9159
▁الاجتماعية	-10.916
▁اق	-10.9163
km	-10.9165
▁اكت	-10.9165
وور	-10.9166
▁bn	-10.917
▁belle	-10.917
افضل	-10.9173
▁الراب	-10.9174
▁بيضاء	-10.9175
▁والسنة	-10.9175
رتاح	-10.9179
فيديوهات	-10.9181
▁لقيتها	-10.9184
▁الاختبار	-10.9184
▁احتمال	-10.9185
▁مؤسس	-10.9185
▁ينصح	-10.9186
21	-10.9187
▁حياتو	-10.9188
▁الردود	-10.9191
▁فركوس	-10.9194
▁الشديد	-10.9196
▁haja	-10.9196
▁ڤ	-10.9197
▁وعلا	-10.9198
▁ابناء	-10.9201
▁فهمنا	-10.9201
▁»	-10.9204
▁نسال	-10.9207
داب	-10.9208
▁أمة	-10.9208
▁wch	-10.921
▁الألم	-10.9211
▁وانتي	-10.9213
ance	-10.9214
nch	-10.9217
▁المرسلين	-10.9219
ولوج	-10.922
▁احتاج	-10.922
▁توا	-10.9222
▁رايي	-10.9224
▁شرعية	-10.9224
▁الضمير	-10.9224
▁عجوز	-10.9225
▁وسهل	-10.9228
▁يعاود	-10.9228
▁تتزوج	-10.9228
▁فالليل	-10.9231
عمري	-10.9232
▁نركز	-10.9232
▁نوفمبر	-10.9232
▁فالجزائر	-10.9232
▁يسما	-10.9237
▁شهداء	-10.9238
▁صمت	-10.9238
عذب	-10.9238
▁ووفقك	-10.924
▁اراد	-10.9241
▁أعطى	-10.9242
▁الظاهرة	-10.9243
▁صي	-10.9244
كرو	-10.9244
▁زيدنا	-10.9245
▁الباطل	-10.9247
روس	-10.9247
▁ناض	-10.9248
سباب	-10.9248
sl	-10.9248
حف	-10.925
▁مسابقة	-10.9251
▁قوانين	-10.9252
TA	-10.9256
زيت	-10.9257
▁sont	-10.926
دراسة	-10.926
رحمه	-10.926
وليش	-10.9261
▁الطالب	-10.9261
▁إليكم	-10.9262
▁نوصلو	-10.9262
▁الفيزياء	-10.9262
▁رفض	-10.9265
▁تعرفت	-10.9266
✨️	-10.9273
تخيل	-10.9275
ساعات	-10.9278
كوك	-10.9279
اؤه	-10.9279
شبه	-10.9281
▁عطر	-10.9283
▁الفضيل	-10.9283
شتا	-10.9286
▁زينة	-10.9287
▁اسباب	-10.9288
موضوع	-10.9293
▁ومرت	-10.9295
قديم	-10.9296
▁Be	-10.9299
▁الجنان	-10.9299
ترا	-10.9299
lak	-10.9302
▁الخطاب	-10.9302
تصفح	-10.9303
▁اللحظة	-10.9305
دول	-10.9305
▁الخروج	-10.9305
▁ميمونة	-10.9305
▁tl	-10.9306
▁سيف	-10.9307
2023	-10.9308
تيها	-10.9308
▁كنز	-10.9309
▁هز	-10.9309
دفن	-10.931
▁لأهل	-10.9311
بكي	-10.9312
▁رواد	-10.9313
36	-10.9314
▁تعليقك	-10.9314
▁لعباسية	-10.9316
😑	-10.9317
pa	-10.9318
▁اشف	-10.9322
▁👍🏻	-10.9327
برنامج	-10.9329
▁العا	-10.9329
▁الخر	-10.9329
▁غيرها	-10.9333
▁هن	-10.9334
حظ	-10.9335
▁وقيلا	-10.9337
▁جميلا	-10.9339
▁واخر	-10.9341
▁طفي	-10.9347
▁وزاد	-10.9347
▁عاون	-10.9348
انات	-10.9349
▁النعم	-10.9349
حضور	-10.9352
▁التمرين	-10.9354
▁مربي	-10.9355
🤩	-10.9355
▁جايب	-10.9356
▁شفا	-10.9356
▁😌	-10.9356
▁حليب	-10.9359
▁السجن	-10.936
▁فلو	-10.9362
▁حللت	-10.9363
▁غنية	-10.9366
▁كذاب	-10.9367
▁ذويها	-10.9368
▁مروة	-10.9368
▁يديه	-10.9369
▁المعروف	-10.937
▁يسترنا	-10.9371
▁تعديل	-10.9374
▁💜💜	-10.9374
😕	-10.9374
▁منطقي	-10.9377
▁وهدا	-10.9377
▁شاملة	-10.9379
▁أذ	-10.9379
▁تمثل	-10.938
عندي	-10.938
▁يتعلم	-10.9382
▁ys	-10.9385
ناء	-10.9385
▁السوق	-10.9386
▁۞	-10.9387
▁بنية	-10.9388
فعال	-10.9389
▁ضيوف	-10.9391
▁مؤتمر	-10.9393
▁دينار	-10.9397
▁ونفس	-10.9398
▁votre	-10.9398
▁لحي	-10.9399
▁نبدل	-10.94
ستا	-10.9401
▁تحفة	-10.9404
▁ديننا	-10.9405
▁صديقتي	-10.9405
▁يصح	-10.9406
▁تنفع	-10.9406
▁تلخيص	-10.9409
▁طلق	-10.9409
▁dj	-10.9414
▁سحور	-10.9416
سامح	-10.9417
▁حنين	-10.9417
فد	-10.9418
▁وارزق	-10.9418
جاد	-10.942
▁مشتركة	-10.942
ist	-10.9421
▁وعمل	-10.9421
▁سورتو	-10.9423
▁الخميس	-10.9423
27	-10.9423
▁الجانب	-10.9424
▁يحوس	-10.9427
▁ندور	-10.943
تخب	-10.9433
▁tah	-10.9435
▁صدفة	-10.9435
▁وحدهم	-10.9437
▁صادق	-10.9437
▁سامي	-10.9437
▁الأسبوع	-10.9439
زح	-10.944
▁متفق	-10.944
▁مرتين	-10.9443
din	-10.9448
▁تشعر	-10.9449
▁والر	-10.9451
▁يتحرك	-10.9452
▁السمانة	-10.9455
▁اجعلني	-10.9456
▁who	-10.9458
دولة	-10.946
صداق	-10.946
خال	-10.9466
▁وآخر	-10.9466
▁التب	-10.9468
قلت	-10.9468
عجز	-10.947
pl	-10.9471
▁رجعو	-10.9471
▁more	-10.9473
▁القناص	-10.9474
▁تركت	-10.9474
▁يقع	-10.9475
▁psq	-10.9475
▁تضيع	-10.9475
▁الصالحات	-10.9477
bal	-10.9478
▁قلق	-10.9479
حرام	-10.948
▁قلتلها	-10.9482
▁نظري	-10.9483
حترم	-10.9483
▁الدالة	-10.9483
تميز	-10.9484
▁وسم	-10.9484
▁تتحرك	-10.9489
❣️	-10.9489
LA	-10.949
تحول	-10.949
▁رونالدو	-10.9492
🐧	-10.9492
▁فهموني	-10.9493
▁ارفع	-10.9493
▁السكر	-10.9494
▁المسلسلات	-10.9495
▁يلهم	-10.9495
بدع	-10.9495
▁التألق	-10.9496
☺	-10.9497
ouli	-10.9499
▁ab	-10.95
▁البطريق	-10.9503
▁جزا	-10.9503
▁المريض	-10.9504
▁يعي	-10.9507
▁الورق	-10.9509
▁الطبيعة	-10.951
▁قابل	-10.9511
▁يقري	-10.9513
▁سقسيت	-10.9513
إلى	-10.9515
▁2015	-10.9516
▁اشت	-10.9516
رود	-10.9517
▁'	-10.9517
▁وليست	-10.9517
▁وحي	-10.952
▁2014	-10.9521
▁rahi	-10.9522
▁مشارك	-10.9523
▁stp	-10.9523
▁البصر	-10.9523
▁دعي	-10.9528
تام	-10.9528
▁Toop	-10.953
▁اللطيف	-10.953
▁ونتوما	-10.9531
ختم	-10.9534
▁جمل	-10.9537
▁نبدأ	-10.954
▁ثقافة	-10.9541
▁تصرف	-10.9542
جذب	-10.9543
▁اشفي	-10.9543
▁اعمال	-10.9544
▁مررت	-10.9548
▁سماح	-10.9551
▁خبز	-10.9552
▁اليتيم	-10.9552
▁سهر	-10.9553
عك	-10.9553
▁مابرح	-10.9555
▁نستعرف	-10.9558
ect	-10.9559
▁روحه	-10.9559
▁💞	-10.9559
ختي	-10.9561
▁فرينة	-10.9561
▁طاقة	-10.9563
▁أكرم	-10.9563
▁الوسط	-10.9564
▁عاشق	-10.9566
▁القن	-10.9567
▁اربعين	-10.9568
▁التفكير	-10.9568
▁hommes	-10.9568
تغير	-10.9568
▁حامل	-10.9569
▁🌺	-10.957
▁😞	-10.957
▁جريمة	-10.9571
▁المز	-10.9572
▁دوا	-10.9572
▁توفر	-10.9574
عية	-10.9575
▁مديت	-10.9575
ظاهر	-10.9577
▁والعمل	-10.9577
▁تبعي	-10.9578
▁النعيم	-10.9579
▁شمال	-10.9581
kk	-10.9581
وعد	-10.9582
▁ورعاك	-10.9582
▁للفيديو	-10.9583
▁نجحتي	-10.9586
▁واغسله	-10.9588
▁بينكم	-10.9589
▁حوست	-10.9591
▁الهدى	-10.9596
طم	-10.9597
▁vu	-10.9598
hch	-10.9599
88	-10.9601
▁حجا	-10.9603
sp	-10.9603
▁😭💔	-10.9604
▁انجليزية	-10.9604
▁لى	-10.9605
▁وجهه	-10.9605
▁خلاه	-10.9606
▁دقيق	-10.9607
▁الأستاذة	-10.961
▁ضغط	-10.9612
▁وكامل	-10.9613
bel	-10.9618
▁اعد	-10.9619
▁dahk	-10.962
▁حكايت	-10.9623
كسل	-10.9623
▁فقر	-10.9624
▁الحجاب	-10.9626
طفي	-10.9626
▁حالات	-10.9627
▁يوسع	-10.9629
▁وأهل	-10.9632
ائف	-10.9635
▁المدارس	-10.9635
▁ند	-10.9635
▁ضيفا	-10.9636
ارث	-10.9637
▁وماما	-10.9638
▁De	-10.9639
eau	-10.964
LE	-10.964
▁تروحي	-10.964
▁بكثير	-10.9642
طباع	-10.9642
ديك	-10.9643
▁الرجاء	-10.9643
يمين	-10.9644
فوق	-10.9644
▁غاضتني	-10.9644
▁غلق	-10.9645
▁توال	-10.9645
▁الجنه	-10.9645
زينة	-10.9646
شرع	-10.9647
▁sp	-10.9648
▁غرض	-10.9648
▁rida	-10.9649
art	-10.9649
▁شكيت	-10.9651
▁حجة	-10.9653
▁ml	-10.9656
▁...!	-10.9656
▁جيبي	-10.9657
▁البطاقة	-10.9658
▁نشارك	-10.9658
▁يدك	-10.966
▁نفرق	-10.966
▁الحسنات	-10.9663
▁kont	-10.9663
▁مانقدرش	-10.9665
▁الذات	-10.9667
▁كاد	-10.9668
▁نرى	-10.9668
▁ينشر	-10.9668
▁القريب	-10.9671
▁للق	-10.9674
جانب	-10.9676
ضطر	-10.9677
بوني	-10.9677
▁مراحش	-10.9678
▁ورحت	-10.9679
هجر	-10.968
▁تحي	-10.968
▁live	-10.9681
كدب	-10.9682
▁ماكش	-10.9683
💫	-10.9683
تحرش	-10.9683
▁كرب	-10.9683
▁وتت	-10.9684
▁رحلة	-10.9684
▁باس	-10.9684
▁الانسانية	-10.9686
▁الصدق	-10.9687
▁3.	-10.9689
▁تنمر	-10.9691
▁سماع	-10.9691
▁وليك	-10.9692
غالي	-10.9694
▁مكش	-10.9695
▁مولات	-10.9695
▁صايي	-10.9695
فوز	-10.9697
بغيت	-10.9699
▁bou	-10.97
▁وصلنا	-10.9701
👑	-10.9701
▁الشرع	-10.9701
▁بلماضي	-10.9702
▁النفسية	-10.9702
▁معاني	-10.9702
▁what	-10.9703
صم	-10.9706
▁القراية	-10.9708
▁القدير	-10.971
▁شرع	-10.971
AM	-10.9713
عجبتني	-10.9715
▁عيان	-10.9715
▁الدفع	-10.9717
▁nch	-10.9718
▁يرزقنا	-10.9718
▁صغر	-10.9719
▁وقدر	-10.972
🗿	-10.972
▁وربما	-10.9721
نعكاس	-10.9722
سطر	-10.9722
ومات	-10.9725
▁سوجيات	-10.9726
لقي	-10.9726
▁أخيرا	-10.9727
▁مساكن	-10.9727
lach	-10.9729
▁4.	-10.9729
▁وآله	-10.9729
▁والج	-10.973
ڨول	-10.973
▁سجين	-10.973
▁شهد	-10.9734
برز	-10.9736
oc	-10.9736
▁Fi	-10.9739
▁نمشي	-10.9741
▁اصبر	-10.9741
▁ركلط	-10.9741
▁ياسمين	-10.9742
نجلي	-10.9742
▁الفضل	-10.9743
you	-10.9747
▁إبن	-10.9749
▁كاب	-10.9749
▁للس	-10.975
▁احس	-10.975
شباب	-10.9752
▁المحترم	-10.9755
▁جبتيه	-10.9755
▁الشافي	-10.9756
▁صناع	-10.9757
▁لكبير	-10.9758
سهر	-10.976
▁الرك	-10.9761
▁جداتك	-10.9763
▁تبا	-10.9765
فتخر	-10.9766
▁ٱ	-10.9767
▁متوقع	-10.9769
يكس	-10.977
▁بالفعل	-10.9773
▁وأهلا	-10.9774
▁محدد	-10.9774
▁الشكل	-10.9775
▁dis	-10.9777
عاصمة	-10.9779
▁ويعافيك	-10.978
▁أولى	-10.978
▁ti	-10.978
▁Di	-10.978
▁المحبة	-10.9783
▁حضر	-10.9783
▁والفلسفة	-10.9785
تمسك	-10.9785
▁سند	-10.9787
▁وجهي	-10.9787
ls	-10.9787
▁نمت	-10.9788
▁استفسار	-10.9788
▁دخلنا	-10.9789
▁يحصل	-10.9791
خرين	-10.9791
▁اجعلنا	-10.9793
▁البلاء	-10.9793
nou	-10.9795
كمش	-10.9799
رخس	-10.98
خب	-10.98
▁بالب	-10.98
▁ليسي	-10.9801
▁درست	-10.9802
▁nchof	-10.9802
غيث	-10.9805
▁تتعب	-10.9805
لعن	-10.9806
▁موش	-10.9806
▁علمت	-10.9808
ari	-10.981
▁ادري	-10.981
▁اعلان	-10.981
EN	-10.9812
▁مترشحة	-10.9812
قوى	-10.9814
ختلف	-10.9815
شوي	-10.9816
▁سأل	-10.9819
✌️	-10.9821
▁تمثيل	-10.9822
▁الرياضة	-10.9822
▁وخير	-10.9822
son	-10.9825
طه	-10.9826
▁فضول	-10.9826
▁منطق	-10.9826
▁مباشر	-10.9826
▁مدا	-10.9826
▁لكنها	-10.9829
▁عقول	-10.9832
▁بالمنتدى	-10.9833
▁اطلب	-10.9834
▁ويوفقنا	-10.9836
▁نتيا	-10.9836
ثمر	-10.9836
▁والمغفرة	-10.9838
▁السماوات	-10.9839
حاج	-10.9841
ref	-10.9843
▁المض	-10.9844
▁الوصفات	-10.9844
بغي	-10.9845
▁تحاول	-10.9849
▁عجبت	-10.985
▁المسؤول	-10.985
الية	-10.9851
٨	-10.9858
▁ostad	-10.9858
💛	-10.9858
روك	-10.9861
▁ولايتي	-10.9862
ستسلم	-10.9865
▁الماسونية	-10.987
▁تصيب	-10.987
▁Win	-10.9873
سحب	-10.9875
▁والثاني	-10.9875
▁رقية	-10.9877
👎	-10.9878
نشالله	-10.988
▁حسين	-10.988
تعليم	-10.988
▁فقير	-10.988
▁نعود	-10.9882
▁تط	-10.9883
غط	-10.9884
▁الجار	-10.9885
ati	-10.9886
▁شريكي	-10.9887
بيان	-10.9887
▁مكة	-10.9888
▁وقتي	-10.989
▁المب	-10.9893
.00	-10.9896
▁تحصل	-10.9897
🙋	-10.9897
▁الطلاب	-10.9897
▁وسائل	-10.9898
٤	-10.9898
▁مكر	-10.99
زرق	-10.9903
▁العقلية	-10.9905
▁مضمون	-10.9906
▁نتبعو	-10.9907
/2	-10.9907
▁شن	-10.9909
0%	-10.9909
lé	-10.991
▁وعليه	-10.9911
▁أمري	-10.9912
▁بذكر	-10.9915
▁تلق	-10.9917
▁روحت	-10.9918
▁جامع	-10.9918
▁عودتك	-10.9919
▁thank	-10.9919
▁fois	-10.9919
▁😂💔	-10.9923
▁الرقاد	-10.9923
▁pla	-10.9924
▁الشرعي	-10.9924
▁فاشل	-10.9924
منح	-10.9926
▁نجرب	-10.9926
▁انصحك	-10.9929
▁بليغ	-10.993
rm	-10.9932
▁غرف	-10.9934
إل	-10.9934
▁بيسة	-10.9935
▁حبي	-10.9936
▁pri	-10.9937
زف	-10.9939
▁تبر	-10.9941
▁ايجابي	-10.9941
▁عرفة	-10.9945
IN	-10.9948
▁استضافة	-10.995
▁دائم	-10.9951
▁الربا	-10.9951
▁ذرية	-10.9952
جتمع	-10.9953
والد	-10.9953
سلسل	-10.9956
▁ادمان	-10.9957
حضار	-10.9957
▁الكفر	-10.9957
▁جنانك	-10.9959
بذل	-10.9959
آمين	-10.9961
▁واللي	-10.9961
▁خواف	-10.9962
▁مسلمة	-10.9967
▁الوضع	-10.9969
قاعد	-10.9972
▁mchi	-10.9974
نصح	-10.9975
▁حياتهم	-10.9977
▁بور	-10.9978
▁ولادي	-10.9981
انك	-10.9982
▁Ki	-10.9987
رواح	-10.9989
▁كبيرا	-10.9991
غلى	-10.9991
▁اكرام	-10.9992
▁تبقا	-10.9995
▁نتمنالك	-10.9995
▁تواريخ	-10.9996
تشابه	-10.9997
▁Bonne	-10.9998
زيار	-10.9998
''	-10.9999
▁الاف	-11.0001
نف	-11.0002
▁خوها	-11.0002
فسر	-11.0002
أرجو	-11.0009
▁التفاصيل	-11.001
ouh	-11.0011
قمة	-11.0013
تأخر	-11.0013
ons	-11.0015
▁الحروف	-11.0016
ouf	-11.002
▁نخلص	-11.0022
▁قوت	-11.0024
▁ينج	-11.0024
▁الصغار	-11.0027
▁الاختبارات	-11.0029
▁شعري	-11.0031
▁معقد	-11.0031
▁تتحدث	-11.0032
▁تحرم	-11.0034
▁المنام	-11.0034
▁النوا	-11.0034
▁دزيري	-11.0037
تفاهم	-11.0038
▁قش	-11.004
▁واكثر	-11.0042
▁يحكو	-11.0043
▁برب	-11.0044
▁ولهذا	-11.0047
▁300	-11.0048
▁العموم	-11.0048
مدرسة	-11.0049
اكيد	-11.0052
تردد	-11.0053
▁بنفسك	-11.0054
▁وتقدير	-11.0057
رث	-11.0057
▁حسنات	-11.0058
▁ترتيب	-11.0059
سبو	-11.0059
▁ضروري	-11.0059
🖤🖤	-11.006
▁ملقيت	-11.006
▁قران	-11.0061
▁الراس	-11.0063
▁دورات	-11.0063
ens	-11.0063
وناش	-11.0063
▁ترين	-11.0063
▁لانهم	-11.0064
31	-11.0064
ram	-11.0065
▁hadak	-11.0066
كومونتار	-11.0072
à	-11.0073
زية	-11.0075
▁النجاحات	-11.0075
▁تفصلنا	-11.0076
▁المباشر	-11.0077
▁كورونا	-11.0079
لاق	-11.0079
عدم	-11.0083
▁الكم	-11.0084
▁التلخيص	-11.0085
▁ينجحو	-11.0085
▁ins	-11.0087
▁لكنني	-11.0088
▁وانشاء	-11.0089
▁يجيني	-11.0089
▁سقسي	-11.0089
فيت	-11.009
▁حسناتكم	-11.0094
▁حضرت	-11.0094
اام	-11.0095
ربا	-11.0095
مجتمع	-11.0096
yo	-11.0098
▁بحال	-11.0099
▁شفتك	-11.0099
▁بتس	-11.01
▁خذ	-11.0103
▁شرق	-11.0106
▁لفظ	-11.0108
▁ادير	-11.0108
▁roh	-11.0109
▁كرو	-11.011
تمتع	-11.011
awd	-11.0114
▁نجم	-11.0114
▁ابواب	-11.0114
▁كبرت	-11.0115
▁بينهما	-11.0116
بابا	-11.0116
▁sujet	-11.0117
قريب	-11.0117
اخذ	-11.0117
▁hadik	-11.0118
▁لهاد	-11.0118
kch	-11.0119
💥	-11.0119
▁لقيتو	-11.0122
خميس	-11.0125
ذيب	-11.0127
ظاف	-11.0128
▁نطيب	-11.0129
ستمع	-11.0129
mt	-11.013
▁باسك	-11.013
▁قتلني	-11.013
رائع	-11.0131
شيخ	-11.0133
▁يبانو	-11.0133
روع	-11.0134
▁💖💖	-11.0134
▁رؤية	-11.0137
▁سين	-11.0137
▁وشكر	-11.0137
مبر	-11.0137
▁مسحور	-11.0138
▁نفسيا	-11.0139
ءة	-11.014
▁تنتهي	-11.0142
▁الضغط	-11.0142
▁3/	-11.0143
▁فض	-11.0143
▁ارسل	-11.0147
▁أشكر	-11.015
▁تديري	-11.0152
né	-11.0153
▁الزوا	-11.0153
كسيو	-11.0154
ابع	-11.0154
▁الريح	-11.0156
▁لأنهم	-11.0156
▁عينيك	-11.0159
ers	-11.0159
فجر	-11.0159
▁أذكر	-11.016
▁نقرأ	-11.0161
▁vie	-11.0162
▁الداخل	-11.0162
▁ينزل	-11.0163
▁وكن	-11.0164
▁ريان	-11.0165
▁حصلت	-11.0168
▁aya	-11.0168
▁المروك	-11.0169
▁وبنات	-11.017
▁حجرك	-11.0171
md	-11.0171
وبي	-11.0172
▁انسانة	-11.0172
عيط	-11.0173
▁دوال	-11.0173
ذنب	-11.0175
▁يوتوبر	-11.0175
▁بلاي	-11.0176
▁ولماذا	-11.0176
▁يبدأ	-11.0177
▁إخ	-11.0178
صلاح	-11.0179
▁والأرض	-11.018
▁الجامع	-11.0181
▁قطعة	-11.0182
▁وهذي	-11.0185
▁سميت	-11.0186
حبيب	-11.019
ربو	-11.0191
▁يسير	-11.0192
▁وعافه	-11.0192
dam	-11.0193
▁جوز	-11.0194
غة	-11.0196
▁مكمل	-11.0196
خجل	-11.0197
تفوق	-11.0199
▁by	-11.02
▁ندخلو	-11.0202
▁وعندما	-11.021
▁نحسب	-11.021
▁اعوذ	-11.0212
طئ	-11.0213
سحق	-11.0213
▁الخامسة	-11.0214
▁لد	-11.0214
eme	-11.0214
▁بيس	-11.0215
▁وكيل	-11.0218
▁شاعر	-11.0218
تحقق	-11.0218
▁تدو	-11.0223
▁لجن	-11.0224
▁البشرية	-11.0224
ميت	-11.0226
▁القب	-11.0227
▁شاكر	-11.0227
▁الكوزينة	-11.0229
سليم	-11.023
تحية	-11.0233
جاهد	-11.0234
▁ذكرى	-11.0237
▁وفيه	-11.0237
rat	-11.0238
▁أسامة	-11.0239
▁2027	-11.024
▁وخا	-11.024
lich	-11.0242
34	-11.0242
▁Kada	-11.0243
ديان	-11.0245
رواه	-11.0245
▁تملك	-11.0246
▁كفا	-11.0246
▁المنتديات	-11.0247
برو	-11.0247
▁يحاول	-11.0248
جتاز	-11.0249
زداد	-11.0251
▁يعينك	-11.0251
▁المخدرات	-11.0253
▁شدة	-11.0256
▁اوقات	-11.026
65	-11.0261
▁كري	-11.0263
▁محبش	-11.0265
olo	-11.0266
▁كنتم	-11.0267
▁مصاب	-11.0267
▁تندم	-11.0267
كيش	-11.0268
dar	-11.0268
▁للأخ	-11.0268
ér	-11.027
▁حار	-11.027
▁وزو	-11.0271
لس	-11.0272
▁histoires	-11.0274
▁وثبت	-11.0274
▁خرجتلي	-11.0276
▁سعاد	-11.0278
▁لولاد	-11.0279
خسار	-11.028
▁لقطة	-11.0282
▁تلقاه	-11.0282
▁سياسية	-11.0283
▁cont	-11.0286
▁كرسي	-11.0287
لصق	-11.0287
▁يعجب	-11.0287
▁واختي	-11.0287
▁بحيث	-11.0291
▁شبعت	-11.0291
▁كلامي	-11.0292
عادة	-11.0292
▁ومد	-11.0293
خيب	-11.0293
▁تاب	-11.0296
اجي	-11.0296
▁يصيب	-11.0301
▁والص	-11.0302
▁اخواتي	-11.0305
EL	-11.0306
▁مونتاج	-11.0308
دلك	-11.0311
تفهم	-11.0313
▁يحطو	-11.0316
ريب	-11.0317
خاوتي	-11.0318
▁فهمتي	-11.032
▁tra	-11.0321
▁الشخصيات	-11.0321
▁الابداع	-11.0321
ws	-11.0321
▁أغفر	-11.0324
▁عالمي	-11.0326
حباب	-11.0327
▁المدير	-11.0329
▁أغ	-11.033
▁ابعث	-11.0331
▁مفتوح	-11.0332
▁دعولنا	-11.0332
▁٢	-11.0333
▁تشوك	-11.0334
▁ارجعي	-11.0338
▁الغد	-11.0338
جرح	-11.0339
▁وتقبل	-11.0341
▁الاتصال	-11.0341
جاهل	-11.0341
▁chbab	-11.0341
▁امكن	-11.0342
▁يحفظلك	-11.0343
حكام	-11.0343
سبق	-11.0345
▁سألت	-11.0346
▁خد	-11.0347
▁الضعيف	-11.0348
▁أشكرك	-11.0348
دوز	-11.0348
▁صباحكم	-11.0351
▁فهنا	-11.0355
▁مرق	-11.0355
▁قصيدة	-11.0356
▁راضية	-11.0356
iss	-11.036
▁جوار	-11.0361
▁بترقيم	-11.0361
35	-11.0363
▁مديرش	-11.0364
خارج	-11.0365
أتمنى	-11.0368
▁ونزيد	-11.0368
▁تووب	-11.0372
▁الاخرة	-11.0374
▁تبغي	-11.0375
▁المونتاج	-11.0375
▁يبلغ	-11.0375
عجل	-11.0377
اسية	-11.0377
▁خطب	-11.0377
▁نية	-11.0378
▁مخالف	-11.0378
▁🤦	-11.0378
▁هشام	-11.0382
bac	-11.0384
▁سمح	-11.0385
▁مآ	-11.0386
▁كتل	-11.0388
▁غنا	-11.0388
▁lb	-11.0391
▁مثواها	-11.0394
▁منتخب	-11.0394
▁أود	-11.0394
kn	-11.0395
ction	-11.0399
▁واسعة	-11.0399
▁توسوست	-11.0404
▁الصمد	-11.0406
▁نشوفها	-11.0408
▁المص	-11.0409
▁حكمت	-11.041
▁انفك	-11.0411
▁وتفرحي	-11.0413
▁say	-11.0414
▁جاءت	-11.0414
▁تيمية	-11.0415
▁احي	-11.0418
▁قولوا	-11.042
▁راوية	-11.042
▁صبت	-11.0421
fd	-11.0427
▁الأر	-11.0428
حفيظ	-11.043
ht	-11.043
▁الكف	-11.0432
▁تعجب	-11.0433
كاتب	-11.0433
▁تحول	-11.0433
مساعد	-11.0434
▁taw	-11.0435
▁تاريخي	-11.0439
▁باباها	-11.044
▁سؤالك	-11.044
بعض	-11.044
▁طبيبة	-11.0442
▁مارك	-11.0444
▁كاينين	-11.0445
▁شايف	-11.0447
▁تالمو	-11.0447
▁لخاطر	-11.0449
▁غامل	-11.0449
▁شروط	-11.045
خطف	-11.0451
طرطق	-11.0452
▁وتم	-11.0452
فز	-11.0454
dh	-11.0454
56	-11.0455
▁منيتك	-11.0455
نبغي	-11.0459
▁طاق	-11.0459
▁اقترح	-11.0462
▁أرسل	-11.0463
▁En	-11.0464
▁rendu	-11.0465
ومي	-11.0465
كري	-11.0466
▁عقوبة	-11.0466
▁تدري	-11.0467
▁غيب	-11.0468
تصرف	-11.047
انسان	-11.0472
rak	-11.0474
ms	-11.0474
▁وزن	-11.0474
برد	-11.0475
▁منام	-11.0475
▁خلعتني	-11.0479
eux	-11.0481
كما	-11.0482
RA	-11.0482
دال	-11.0483
تذكير	-11.0486
▁الاشياء	-11.0486
▁brother	-11.0486
▁ليكيب	-11.0487
نن	-11.0487
كرة	-11.0487
▁المهنة	-11.0487
▁فانا	-11.0488
▁تجاوز	-11.0489
😒	-11.0492
▁تفو	-11.0495
▁تحرك	-11.0497
dak	-11.0498
دمر	-11.0499
▁والديكم	-11.0502
رسي	-11.0502
▁إجعل	-11.0502
▁المسؤولية	-11.0509
▁الجنس	-11.051
▁يبقا	-11.0511
ard	-11.0511
▁وعليك	-11.0512
▁لقر	-11.0513
▁الأشخاص	-11.0514
▁النقاط	-11.0515
▁ابداع	-11.0515
▁عينيه	-11.0517
▁تفرجتها	-11.0519
▁شااء	-11.052
▁متمكن	-11.0522
▁الحالي	-11.0523
▁تشو	-11.0525
ثقف	-11.0527
▁Lah	-11.0528
▁زاوج	-11.053
لهاش	-11.053
بى	-11.0531
▁لعند	-11.0532
▁ميساج	-11.0533
غري	-11.0534
🤨	-11.0535
▁طار	-11.0535
رير	-11.0535
▁يعوضك	-11.0536
him	-11.0539
▁Nta	-11.054
برج	-11.0541
▁التركيز	-11.0543
أذكار	-11.0545
▁جامعي	-11.0545
▁الشغل	-11.0546
ste	-11.0546
▁روع	-11.0547
▁الأحياء	-11.0549
▁هاا	-11.0549
▁يقطع	-11.055
▁عسل	-11.0553
▁😹😹	-11.0557
▁تنقص	-11.0558
▁ida	-11.056
▁الفتن	-11.0563
▁فرحان	-11.0564
▁<3	-11.0564
▁تحكيلنا	-11.057
▁توصيل	-11.0571
▁باكلوريا	-11.0572
▁كثرت	-11.0572
▁تفاعل	-11.0574
وندي	-11.0575
▁آلله	-11.0576
▁حير	-11.0576
نز	-11.0576
▁ثالثة	-11.0577
▁مزالو	-11.0578
▁وماذا	-11.0578
▁mrc	-11.0578
طيع	-11.0579
▁هاو	-11.058
▁العقلي	-11.058
eu	-11.058
▁عموما	-11.0583
▁يوتيوبرز	-11.0583
▁تديه	-11.0585
▁وإياكم	-11.0585
ايب	-11.0586
▁ريد	-11.0586
▁تقبلي	-11.0587
▁نقد	-11.0589
▁ريال	-11.059
▁راسو	-11.059
🤢	-11.0591
▁والدين	-11.0592
▁الغرض	-11.0594
▁دينه	-11.0595
▁😕	-11.0596
▁يبغي	-11.0596
توافق	-11.06
▁مجهر	-11.0601
32	-11.0601
▁تخص	-11.0601
▁اقرأ	-11.0603
ضارب	-11.0609
▁ju	-11.0613
آب	-11.0613
▁BAC	-11.0616
▁الشاوية	-11.0616
▁المج	-11.0617
▁سابق	-11.0618
▁).	-11.0619
ريط	-11.0619
▁cou	-11.0624
سبت	-11.0624
46	-11.0624
▁قض	-11.0625
▁ar	-11.0626
▁اهد	-11.0626
▁قهوة	-11.0626
▁يزيدو	-11.0627
▁صناعة	-11.0627
▁الفائدة	-11.063
▁هام	-11.063
💐	-11.0633
▁كوميدي	-11.0634
▁تعاودي	-11.0635
▁الوصول	-11.0636
أخلاق	-11.0636
▁نجيبوا	-11.0637
اختي	-11.0637
ستوعب	-11.0637
▁تخسر	-11.0638
▁أشرف	-11.0641
▁الجماعة	-11.0643
▁يصراو	-11.0644
كوب	-11.0644
▁بانو	-11.0645
▁مادا	-11.0645
▁مفتاح	-11.0647
52	-11.0648
▁مؤثر	-11.0648
▁كار	-11.0649
lb	-11.065
ale	-11.0651
ثقل	-11.0652
▁فيقول	-11.0653
▁bcp	-11.0655
عادل	-11.0657
فرش	-11.0657
لسان	-11.0658
▁واخت	-11.0658
نجم	-11.0662
▁راا	-11.0662
▁وايضا	-11.0662
▁ينح	-11.0662
▁عدي	-11.0663
fhm	-11.0665
▁المطر	-11.0665
▁😏	-11.0667
▁😂😅	-11.0667
▁يحرم	-11.067
ترجم	-11.0671
▁جزايري	-11.0674
▁تركيب	-11.0675
▁الاتحاد	-11.0676
bon	-11.0677
▁faire	-11.0681
khl	-11.0684
▁ختم	-11.0687
خفيف	-11.0688
تصور	-11.0688
جرة	-11.0691
▁koul	-11.0692
▁وناس	-11.0692
pos	-11.0693
▁حاصلة	-11.0695
▁قلبو	-11.0695
$	-11.0697
▁podcast	-11.0697
نجليزي	-11.0697
▁🫶	-11.0697
▁محروم	-11.0698
ماذا	-11.0698
▁يهبلو	-11.0699
تقرب	-11.0699
sel	-11.07
▁ادبيين	-11.0704
▁الفيس	-11.0705
▁يقت	-11.0705
▁انتبه	-11.0706
▁ومان	-11.071
▁عمله	-11.0711
▁صرت	-11.0713
▁فنحن	-11.0713
▁ويسهل	-11.0713
▁الفكر	-11.0714
▁يبحث	-11.0715
▁مكتبة	-11.0715
▁هدوك	-11.0717
▁حنونة	-11.0717
▁زيرو	-11.0718
٧	-11.0718
ion	-11.0719
▁ورانا	-11.072
▁خاوتنا	-11.072
▁;	-11.0721
▁الغربية	-11.0722
▁يودي	-11.0723
▁الموقف	-11.0724
بطال	-11.0724
غال	-11.0725
ختصر	-11.0725
▁نظرة	-11.0726
▁الشطر	-11.0726
▁المساء	-11.0729
▁ضاع	-11.073
▁تكبر	-11.0731
▁tae	-11.0734
▁جنوب	-11.0734
▁😓	-11.0737
▁please	-11.074
🫂	-11.074
▁حلقات	-11.074
تحمس	-11.074
▁كريمة	-11.0742
▁صبرينة	-11.0742
▁مبد	-11.0743
▁وينجحك	-11.0744
▁رشح	-11.0746
▁لهاذ	-11.0747
▁اسماعيل	-11.0747
▁لفات	-11.0748
▁ورضا	-11.0748
▁سيت	-11.075
▁مجهودك	-11.0751
ئات	-11.0752
▁ويوم	-11.0753
▁chikh	-11.0753
▁تميز	-11.0754
▁عادات	-11.0755
فيس	-11.0756
▁jour	-11.0757
▁🥀	-11.0757
▁تطول	-11.0757
▁طهور	-11.0758
▁content	-11.0762
ديرلنا	-11.0762
▁الإجتماعي	-11.0762
عدد	-11.0764
▁مجهود	-11.0765
ولاية	-11.0765
▁الهي	-11.0766
▁فاني	-11.0767
▁sra	-11.0768
90	-11.0769
▁twa	-11.0769
▁صيف	-11.077
خفف	-11.077
▁الايمان	-11.0772
▁نستطيع	-11.0772
▁أمرا	-11.0773
▁هربت	-11.0774
▁❤️🔥	-11.0776
▁وتعب	-11.0776
▁ميمتك	-11.0779
▁ke	-11.078
▁عبدك	-11.0781
▁بورنان	-11.0783
▁النمط	-11.0783
▁مراجع	-11.0785
▁إضافة	-11.0786
▁الحوار	-11.0787
▁cho	-11.0788
▁الأسود	-11.0789
ادعو	-11.079
شاعر	-11.079
▁تلبس	-11.0792
😫	-11.0792
▁تعطيني	-11.0793
▁has	-11.0794
▁سكت	-11.0795
▁الطويل	-11.0795
درجة	-11.0795
تقلق	-11.0795
▁حاشا	-11.0796
▁فانت	-11.0797
علابالي	-11.0797
oun	-11.0798
تقي	-11.0799
▁يأ	-11.08
قرآن	-11.0801
▁لكني	-11.0801
▁chikour	-11.0804
▁يالطيف	-11.0804
▁التفسير	-11.0805
▁تاج	-11.0807
تحكي	-11.0809
تطور	-11.0812
قران	-11.0812
▁yb	-11.0813
▁جلد	-11.0815
😁😁	-11.0816
▁مهجر	-11.0816
▁اسكنه	-11.0817
▁متأخر	-11.0821
ائكم	-11.0821
▁ندعيلك	-11.0822
▁خيار	-11.0823
روم	-11.0823
إيمان	-11.0824
▁نعاون	-11.0826
▁داي	-11.083
▁التقليدي	-11.0831
تجنب	-11.0832
جوع	-11.0833
▁الكومونتار	-11.0833
🙂🙂	-11.0833
▁نقولها	-11.0834
▁80	-11.0834
▁اعتبر	-11.0835
ونتي	-11.0837
▁أستاذي	-11.0839
▁الدو	-11.084
▁استغفرالله	-11.084
وهمش	-11.0842
▁الصحه	-11.0843
ازي	-11.0844
▁تجمع	-11.0844
▁بالس	-11.0849
▁ڤاع	-11.0849
▁فطر	-11.0851
AH	-11.0851
▁ولى	-11.0854
▁المسيح	-11.0854
IS	-11.0855
مز	-11.0855
▁يامن	-11.0855
ذوب	-11.0856
▁المدة	-11.0856
▁الصوالح	-11.0856
▁طلبة	-11.0857
عتمد	-11.0858
كانت	-11.0864
▁وديت	-11.0866
▁البدع	-11.0867
▁كرام	-11.0867
▁صعوبة	-11.0869
▁ضحكني	-11.087
▁حكيات	-11.0871
▁ولجميع	-11.0872
▁مود	-11.0873
تربية	-11.0873
▁اواه	-11.0874
▁ze	-11.0876
▁حبيبة	-11.0876
jo	-11.0879
▁تغيب	-11.0879
06	-11.0879
▁دراري	-11.0881
وقع	-11.0883
عائلة	-11.0883
▁فقت	-11.0885
▁فنان	-11.0885
▁النقاش	-11.0886
▁aussi	-11.0891
▁متزوجة	-11.0892
▁شاه	-11.0893
▁ورقلة	-11.0895
▁اية	-11.0897
▁نكت	-11.0898
▁2010	-11.0898
dia	-11.0898
▁العيش	-11.0899
▁الصا	-11.0899
▁أص	-11.0908
49	-11.091
رقص	-11.0913
▁المبادرة	-11.0913
▁وزارة	-11.0914
▁مسلسلات	-11.0915
rj	-11.0916
▁ردة	-11.0917
▁عجبوني	-11.092
▁جنب	-11.0921
▁كب	-11.0925
▁عبيد	-11.0926
▁مالقيتش	-11.0927
▁أصاب	-11.0927
▁سعي	-11.0929
تري	-11.093
تصل	-11.0932
bk	-11.0932
▁معروفة	-11.0933
▁طيبا	-11.0935
▁بكثرة	-11.0935
▁2017	-11.094
▁ميلاد	-11.094
▁مقرر	-11.094
▁اقصد	-11.0941
مجموع	-11.0942
▁الاساس	-11.0942
▁وندخل	-11.0944
▁قاري	-11.0944
▁☺	-11.0949
قصر	-11.0952
نهاية	-11.0953
▁التوحيد	-11.0955
▁كاتبة	-11.0956
🤮	-11.0956
▁الميلاد	-11.0957
▁عيا	-11.0957
▁شجرة	-11.0958
▁وفقكم	-11.0961
حيط	-11.0963
▁طايح	-11.0963
▁بدور	-11.0966
ئت	-11.0968
كوبي	-11.0969
▁مقدم	-11.0969
▁تضرب	-11.0969
▁واعي	-11.097
▁ويدخل	-11.0971
▁السبع	-11.0973
تشبه	-11.0973
▁انما	-11.0977
ہ	-11.0978
▁كلمت	-11.0979
ساس	-11.098
▁بيوت	-11.0982
▁lm	-11.0982
▁العدو	-11.0984
▁تثبت	-11.0986
▁لأجل	-11.0988
▁vid	-11.0989
▁دارك	-11.0989
▁بارد	-11.0991
ترو	-11.0991
▁تفضلي	-11.0991
▁افريل	-11.0992
▁الخبز	-11.0993
▁يتيم	-11.0993
▁يرضي	-11.0993
▁nh	-11.0995
▁الوعي	-11.0996
▁استعمل	-11.0996
▁وضح	-11.0998
متى	-11.0999
ç	-11.1
▁💛	-11.1
▁yah	-11.1005
▁ننصح	-11.1005
▁القوي	-11.1007
راعي	-11.1007
ردود	-11.1008
قش	-11.1011
▁راجلي	-11.1011
▁طموح	-11.1012
لحد	-11.1014
طباق	-11.1014
▁وطني	-11.1017
▁كرا	-11.1017
▁الربح	-11.1018
▁الذهب	-11.1021
▁رؤ	-11.1022
77	-11.1023
▁وبعض	-11.1024
▁🗿	-11.1024
▁😱😱	-11.1024
قيس	-11.1024
وشكرا	-11.1025
▁الضرب	-11.1026
سلط	-11.1029
ast	-11.1031
▁دالة	-11.1031
درو	-11.1033
ديت	-11.1034
▁التمثيل	-11.1035
***	-11.1036
▁لبر	-11.1037
▁مصير	-11.1037
افت	-11.1038
▁يشاء	-11.104
▁حج	-11.1041
▁دوري	-11.1044
▁مؤخرا	-11.1045
▁غاع	-11.1046
▁يديك	-11.1047
▁العاقبة	-11.1047
▁أولئك	-11.1047
▁شكوبي	-11.1048
▁ننصحكم	-11.1048
تنازل	-11.1049
ute	-11.1049
▁نبعث	-11.1051
▁تنوض	-11.1052
▁وغيرهم	-11.1053
▁طبيعة	-11.1053
▁الطرح	-11.1055
سمعت	-11.1057
▁بومرداس	-11.1059
▁يرقد	-11.106
▁تقرى	-11.1061
▁رف	-11.1061
عتق	-11.1062
صيف	-11.1066
▁وروح	-11.1067
▁سد	-11.1067
▁اساسية	-11.1067
▁زوجته	-11.1068
▁تنسي	-11.1069
فلسطين	-11.107
▁موراها	-11.1071
سرع	-11.1073
▁اقتراح	-11.1078
▁الحكومة	-11.1079
▁تدخلي	-11.1079
▁hak	-11.108
▁مروري	-11.1081
▁يحسن	-11.1082
نطلق	-11.1087
▁استطعت	-11.109
▁صراع	-11.1093
لتزم	-11.1094
قلم	-11.1096
▁لقط	-11.1097
▁اوت	-11.1099
▁خلع	-11.1102
رهاب	-11.1103
بب	-11.1103
شعور	-11.1104
▁نتعرف	-11.1105
▁نعاني	-11.1108
▁المتحدة	-11.1111
▁Cha	-11.1115
▁الزيت	-11.1116
▁ياجدك	-11.1117
▁يتفرجو	-11.112
▁والغ	-11.1121
▁حضور	-11.1124
وسة	-11.1124
▁ياعمري	-11.1125
▁كس	-11.1125
▁وقالت	-11.1128
ماريكان	-11.1128
قبال	-11.1129
▁الدجال	-11.1134
صاص	-11.1134
شفت	-11.1135
▁طاب	-11.1138
▁وأنتم	-11.114
▁حمدالله	-11.1141
▁ادعيو	-11.1143
▁بيده	-11.1144
▁المتتاليات	-11.1144
ona	-11.1147
▁يسهلك	-11.1147
▁شكلي	-11.1148
فديو	-11.1149
بيس	-11.1152
▁طفو	-11.1153
▁داروها	-11.1154
/10	-11.1155
▁khawti	-11.1156
▁تراه	-11.1157
▁يقين	-11.1159
ماط	-11.1159
▁يفكر	-11.1159
▁الطاقة	-11.116
تناول	-11.1164
▁التنمر	-11.1167
▁سبا	-11.1168
hak	-11.117
▁نورا	-11.117
▁فهذ	-11.117
▁هدرتك	-11.1171
▁ده	-11.1171
قرار	-11.1173
▁علاج	-11.1173
▁اخبار	-11.1173
▁بعثت	-11.1174
ولكن	-11.1176
▁45	-11.1178
أجر	-11.1179
▁السيدة	-11.118
▁منظمة	-11.1181
شهادة	-11.1182
▁مواضيعك	-11.1184
▁يشعر	-11.1185
ity	-11.1186
▁غالبا	-11.1187
▁دب	-11.1187
▁واجد	-11.1188
▁عطلة	-11.1189
▁🤲❤	-11.1189
▁طير	-11.1191
▁رجلا	-11.1192
▁الإسلامي	-11.1192
ااع	-11.1193
▁وكلش	-11.1194
BA	-11.1194
▁تسمح	-11.1195
▁بكلوريا	-11.1204
▁نقراه	-11.1204
لخص	-11.1206
▁كراس	-11.1207
جيت	-11.1208
عطيك	-11.1208
▁طاعة	-11.1209
▁كلماتك	-11.1209
▁قلتها	-11.121
▁هاايل	-11.121
▁وشفت	-11.1211
▁الالكترونية	-11.1214
▁بكتاب	-11.1215
▁تعبنا	-11.1215
▁مبدعة	-11.1217
▁طم	-11.1218
▁تحفيز	-11.122
▁🫶🏻	-11.122
▁عذرا	-11.1221
دليل	-11.1222
▁بالتفصيل	-11.1223
▁كبيير	-11.1223
▁الدجاج	-11.1224
▁اتفق	-11.1225
▁إخوتي	-11.1227
▁ويجازيك	-11.1228
▁لعن	-11.1229
▁will	-11.123
▁معلق	-11.1231
فأ	-11.1231
قضية	-11.1232
▁باغيا	-11.1232
▁المستحيل	-11.1232
/20	-11.1233
سعادة	-11.1233
▁مرأة	-11.1233
▁لاخر	-11.1234
ڨا	-11.1234
▁الخمس	-11.1234
▁بروح	-11.1236
▁الرياضي	-11.1236
▁زادت	-11.1237
نشاء	-11.1238
62	-11.1239
▁وشر	-11.1239
▁tf	-11.124
فرط	-11.1241
▁lh	-11.1241
▁سنه	-11.1242
▁الأجر	-11.1242
▁elle	-11.1243
اخلاق	-11.1243
▁رباك	-11.1244
▁بألف	-11.1245
ويل	-11.1246
▁باباه	-11.1247
▁باللي	-11.1247
▁التفاعل	-11.1247
▁😂🤣	-11.1248
▁أحي	-11.1248
▁sahbi	-11.1249
جسد	-11.1249
▁نام	-11.125
قادر	-11.1251
▁متقدرش	-11.1252
‍♀️	-11.1253
▁طحت	-11.1254
és	-11.1254
▁شخصيتك	-11.1256
▁Da	-11.1258
▁شافو	-11.1259
▁فارس	-11.1266
▁عملاق	-11.1266
▁يخبر	-11.1266
😣	-11.1268
▁رادكس	-11.1268
شاب	-11.1269
▁فوطو	-11.1269
adore	-11.127
عتماد	-11.1271
▁يتحقق	-11.1271
▁مصادر	-11.1271
▁الأسباب	-11.1273
29	-11.1275
بالتوفيق	-11.1277
far	-11.1277
زت	-11.1277
▁مازالت	-11.1278
▁زو	-11.128
och	-11.128
▁بالصبر	-11.128
▁متفرج	-11.1282
رمل	-11.1286
ster	-11.1287
▁Il	-11.1287
▁الماتش	-11.1288
▁اخطيك	-11.129
ô	-11.1291
▁know	-11.1291
▁شالله	-11.1291
▁زن	-11.1293
▁tb	-11.1296
▁الاحسن	-11.1296
▁تفا	-11.1296
▁عملي	-11.1297
▁النقل	-11.1298
▁ذهبت	-11.13
▁حيوان	-11.1303
▁dert	-11.1305
▁نوجد	-11.1309
أذن	-11.1311
الذي	-11.1312
ثاني	-11.1312
تخوف	-11.1313
▁ورح	-11.1314
▁سفيان	-11.1314
▁عفايس	-11.1314
▁آن	-11.1315
▁اماني	-11.1316
mes	-11.1317
▁fo	-11.1317
▁يذهب	-11.1321
sion	-11.1323
oum	-11.1324
▁نطق	-11.1324
aba	-11.1325
▁سامط	-11.1326
▁hka	-11.1326
▁المرضى	-11.1326
عمق	-11.133
▁وماي	-11.1331
▁تري	-11.1331
▁تفت	-11.1332
AD	-11.1333
▁تغني	-11.1335
▁khou	-11.1336
▁تحري	-11.134
▁نطبق	-11.134
▁بديتي	-11.134
▁يرقي	-11.134
جتهد	-11.134
▁يبين	-11.1345
عليك	-11.1346
▁مبلغ	-11.1347
▁يده	-11.1348
شوك	-11.1348
▁تشرف	-11.1349
▁تقراو	-11.1353
زام	-11.1353
▁المرسل	-11.1355
▁إحد	-11.1358
▁المنطق	-11.1359
▁عبادك	-11.1359
▁تأثير	-11.1359
▁اختلاف	-11.1361
▁sam	-11.1361
▁تجيبو	-11.1363
▁احوال	-11.1367
▁القمر	-11.1369
▁تقليد	-11.1369
ستغفار	-11.137
▁عطيت	-11.1371
):	-11.1371
▁مالقري	-11.1371
▁ani	-11.1374
▁واياكم	-11.1374
▁00	-11.1374
جية	-11.1375
▁تتمنا	-11.1377
▁موضوعك	-11.1377
▁tal	-11.1378
طلاع	-11.1378
▁🌹🌹	-11.1378
▁وسيلة	-11.1379
▁الجلال	-11.138
▁تأثر	-11.138
▁luck	-11.1382
▁عشرية	-11.1382
▁about	-11.1382
▁يلد	-11.1383
▁الاجر	-11.1384
😌	-11.1386
▁محتاجة	-11.1388
▁ينظر	-11.1391
حرب	-11.1393
الح	-11.1395
طاي	-11.1395
جرام	-11.1396
▁حبب	-11.1397
▁شامل	-11.1397
جوهر	-11.1401
▁مفصل	-11.1403
رابط	-11.1403
▁حمدلله	-11.1406
▁أسمع	-11.1407
▁اخترت	-11.1408
▁الفطر	-11.1408
▁تحتسب	-11.1408
ساب	-11.141
▁الجود	-11.1413
▁ثالثا	-11.1413
▁اتعلم	-11.1415
▁بسمة	-11.1415
زيم	-11.1418
▁نعقب	-11.1419
▁التميز	-11.1423
سنا	-11.1423
جزاء	-11.1424
▁ندر	-11.1427
▁normal	-11.1427
▁دوزيام	-11.1427
▁نموذج	-11.1428
▁النجمة	-11.1429
▁لهجة	-11.143
▁قولك	-11.143
▁البركة	-11.1431
▁بزوج	-11.1433
▁هجر	-11.1434
▁سفر	-11.1434
▁جوزت	-11.1434
▁التصحيح	-11.1434
▁ثقيل	-11.1435
فكرة	-11.1436
▁شلف	-11.1438
▁لدر	-11.1439
جلد	-11.1439
▁trop	-11.1439
▁ويوفق	-11.1439
▁بلغنا	-11.144
▁ايها	-11.144
▁Ou	-11.1441
▁بوس	-11.1444
▁منتدانا	-11.1445
ouk	-11.1446
طاف	-11.1448
▁قصتك	-11.1448
▁He	-11.1449
▁chwiya	-11.145
▁وبالتالي	-11.1451
▁مخلوع	-11.1452
▁رحمته	-11.1454
▁فئة	-11.1455
jb	-11.1455
▁سوريا	-11.1457
▁lma	-11.1459
رني	-11.1459
▁مليئ	-11.146
▁الأحاديث	-11.146
▁الرئيس	-11.146
▁العقد	-11.1461
▁sm	-11.1462
▁الديني	-11.1462
▁الشرطة	-11.1465
▁التحرير	-11.1465
▁جبر	-11.1467
▁قريتو	-11.1468
▁يتعلق	-11.1469
▁سلاام	-11.1477
▁متعرف	-11.1478
▁قرينة	-11.1481
▁اليمن	-11.1481
تقول	-11.1481
▁طعام	-11.1481
▁ديرونا	-11.1483
▁وجعله	-11.1485
70	-11.1485
▁اشكر	-11.1486
▁متحمس	-11.1494
▁sma	-11.1495
حساس	-11.1495
تحل	-11.1499
▁تنتظر	-11.15
▁محمود	-11.15
▁متخافش	-11.1503
▁الحظ	-11.1504
▁تحطلنا	-11.1505
▁ديار	-11.1505
▁يشهد	-11.1507
تجاوز	-11.1509
▁وصلو	-11.151
▁red	-11.1512
▁مغربية	-11.1513
▁سوي	-11.1513
▁وسمو	-11.1514
😻	-11.1514
تحرك	-11.1514
cr	-11.1517
عظ	-11.1518
▁جرح	-11.1519
▁تخل	-11.1519
ارق	-11.152
▁مفيهاش	-11.152
▁مسك	-11.152
▁إستمر	-11.152
▁وعافية	-11.1521
أهل	-11.1524
▁متأخرة	-11.1525
▁الغنية	-11.1526
▁مادير	-11.1527
▁الشيعة	-11.1531
▁ممثل	-11.1531
▁خم	-11.1531
une	-11.1531
▁بنور	-11.1531
▁اقراو	-11.1531
▁شهور	-11.1532
▁br	-11.1535
▁نشوفهم	-11.1536
▁تعطينا	-11.1537
▁سئل	-11.1538
ربة	-11.1538
▁أليس	-11.1538
نصب	-11.154
▁اقوى	-11.1542
ظا	-11.1546
▁youtube	-11.1547
tak	-11.1549
▁الجسد	-11.1549
غان	-11.155
▁الغرفة	-11.1551
مازيغ	-11.1553
▁مغرب	-11.1553
koun	-11.1555
▁اخوان	-11.1555
▁اختاه	-11.1555
▁🤣😂	-11.1556
▁ثا	-11.1556
▁تعرب	-11.1557
طيش	-11.1558
وود	-11.1558
تلاقا	-11.1559
▁الابيض	-11.1561
▁ماضي	-11.1561
histoire	-11.1561
▁YouTube	-11.1566
▁yhfdk	-11.1566
▁الاعلان	-11.1567
02	-11.1568
▁وصحا	-11.1571
▁للعالم	-11.1572
ستعمال	-11.1573
تشويق	-11.1575
cc	-11.1575
▁توقيع	-11.1576
▁mk	-11.1576
▁الملح	-11.1577
▁امرا	-11.1579
▁Mar	-11.158
iste	-11.1581
▁الجهاد	-11.1581
▁جدل	-11.1582
^	-11.1583
بقاو	-11.1583
▁نخرجو	-11.1583
▁اتجاه	-11.1584
▁الدولي	-11.1584
▁تصنع	-11.1586
▁أخوات	-11.1587
▁متعلق	-11.1589
▁موح	-11.1589
▁غلب	-11.159
▁اخبر	-11.1592
▁film	-11.1593
▁وصلى	-11.1594
▁🤩	-11.1595
po	-11.1596
هبط	-11.1597
2021	-11.1597
عقب	-11.1597
▁سرا	-11.1598
▁منهج	-11.16
▁يالله	-11.1601
▁راوي	-11.1601
▁المقبل	-11.1601
▁الاخرين	-11.1604
بوس	-11.1605
▁انتا	-11.1605
▁ووفق	-11.1606
▁تعييش	-11.1606
lat	-11.1608
▁يرحموا	-11.1609
▁الميمز	-11.1609
▁سجن	-11.1611
▁متحمسة	-11.1611
▁>	-11.1612
▁متاكد	-11.1613
▁نسخ	-11.1613
▁ykh	-11.1615
ain	-11.1615
▁العروس	-11.1616
▁الوفاء	-11.1617
لفرونسي	-11.1618
▁njib	-11.1619
▁البط	-11.162
hr	-11.162
▁سابقة	-11.1621
▁♡	-11.1621
بنات	-11.1622
▁aw	-11.1623
ac	-11.1623
▁دمر	-11.1626
▁الراي	-11.1626
▁اتصل	-11.1628
رعاية	-11.1628
خفض	-11.163
▁يحضر	-11.1631
إسلام	-11.1632
▁تحضير	-11.1634
ستقبل	-11.1636
▁مخدوم	-11.1637
▁قوقل	-11.1638
▁باري	-11.1638
▁hado	-11.1641
▁حبيتي	-11.1643
▁35	-11.1644
CH	-11.1645
▁عونك	-11.1651
▁أق	-11.1651
▁مشكلتي	-11.1654
▁عادت	-11.1655
▁داخلة	-11.1655
▁زرت	-11.1657
▁معيا	-11.1657
▁5.	-11.1657
▁وشكون	-11.1659
لذين	-11.1659
▁شعار	-11.1662
▁نتلاقا	-11.1662
▁ردا	-11.1663
▁غائب	-11.1663
▁توف	-11.1663
▁المفيد	-11.1664
pt	-11.1666
▁قراية	-11.1667
▁اتباع	-11.1668
▁خليك	-11.1669
▁يخلو	-11.1675
▁صارت	-11.1677
▁وغيره	-11.1677
io	-11.1678
ire	-11.168
هتم	-11.1681
▁غاضني	-11.1683
▁قوا	-11.1684
▁الدينية	-11.1684
▁رخصة	-11.1684
▁ترفع	-11.1684
لقاو	-11.1685
ama	-11.1685
had	-11.1687
▁نحكيهالك	-11.1688
▁ويبعد	-11.1688
عض	-11.1691
:"	-11.1693
▁رامي	-11.1694
2020	-11.1696
‍♂️	-11.1697
▁ونشاله	-11.1699
سيو	-11.1701
▁المدية	-11.1703
امك	-11.1703
هتمام	-11.1705
سيل	-11.1705
▁pub	-11.1706
▁عرش	-11.1706
🤧	-11.1707
▁رؤوس	-11.1709
▁اللايف	-11.171
▁نرحب	-11.1711
38	-11.1712
▁إمام	-11.1712
يمكن	-11.1714
▁العلاقات	-11.1714
▁فراغ	-11.1716
▁بصمت	-11.1716
▁حافض	-11.1717
▁نكر	-11.1718
▁فايسبوك	-11.1719
▁بكلمة	-11.172
▁صاب	-11.172
▁الدراسية	-11.1721
kar	-11.1723
▁المشرفين	-11.1726
▁تجوز	-11.1727
▁ديسمبر	-11.173
▁فجأة	-11.173
▁أنفسهم	-11.1731
مضي	-11.1731
▁خميرة	-11.1731
▁nchalah	-11.1732
صوف	-11.1732
▁القرأن	-11.1733
وكي	-11.1734
bah	-11.1734
▁وياك	-11.1735
▁كترلنا	-11.1738
▁مسي	-11.1743
▁النشر	-11.1743
▁زميل	-11.1744
▁خطير	-11.1744
stor	-11.1745
طاب	-11.1745
▁🥺❤️	-11.1747
▁لطالما	-11.175
▁للاخ	-11.175
▁قريبة	-11.1751
▁نعطي	-11.1751
▁عقب	-11.1751
▁عائلتي	-11.1752
تفك	-11.1758
▁بطن	-11.1759
▁ينتظر	-11.1759
▁hk	-11.1761
💔💔	-11.1765
▁قروب	-11.1766
▁عرا	-11.1767
ونسي	-11.1767
تخلص	-11.1768
▁والناس	-11.1769
عوذ	-11.1771
▁التل	-11.1772
▁اتبع	-11.1772
▁التام	-11.1772
▁:)	-11.1772
▁التوضيح	-11.1773
▁سيئة	-11.1773
wd	-11.1773
آر	-11.1774
▁سطح	-11.1775
▁ضوء	-11.1775
▁التشبيه	-11.1777
▁وجبت	-11.1779
▁عرفنا	-11.1779
▁تلم	-11.1779
▁العدل	-11.178
ستخدم	-11.1781
▁ميمحو	-11.1781
▁قااع	-11.1781
▁وكالة	-11.1785
▁احشم	-11.1785
iw	-11.1785
٩	-11.1785
▁البدي	-11.1789
▁الامن	-11.179
▁افعل	-11.179
▁جيران	-11.1791
▁السف	-11.1792
▁ونحو	-11.1792
▁70	-11.1793
علامة	-11.1793
▁الحرف	-11.1794
▁العن	-11.1795
سيت	-11.1795
▁app	-11.1795
▁أضحى	-11.1795
▁بارت	-11.1796
▁فايت	-11.1796
▁وجيت	-11.1796
▁تحرق	-11.1797
المهم	-11.1798
ip	-11.18
▁يجعلك	-11.1803
▁القصاص	-11.1804
▁مغرف	-11.1805
▁مخي	-11.1805
▁الخلعة	-11.1806
▁الاحد	-11.1806
▁tri	-11.181
▁والجغرافيا	-11.1812
▁المسيلة	-11.1812
▁الفيسبوك	-11.1813
lit	-11.1814
ستفد	-11.1814
▁وأكثر	-11.1814
▁03	-11.1815
▁bs	-11.1816
▁نتابعك	-11.1817
▁والأم	-11.1818
▁faut	-11.182
▁cr	-11.182
▁بمجرد	-11.1822
▁نقراها	-11.1824
▁للمسلمين	-11.1826
▁مذكور	-11.1826
▁عاكف	-11.1826
▁القبائل	-11.1826
▁مارانيش	-11.1826
▁ضربت	-11.1826
▁صدمة	-11.1827
▁والادراك	-11.1828
▁✌️	-11.1828
▁فالله	-11.183
▁رواحهم	-11.183
▁جاري	-11.1834
▁nn	-11.1837
▁قولنا	-11.1837
▁فكرتني	-11.1838
▁ذك	-11.1838
▁تض	-11.1838
▁يخلع	-11.1839
▁نلقاك	-11.184
▁ثوب	-11.1841
oud	-11.1843
▁العار	-11.1843
ight	-11.1845
▁مصطلح	-11.1845
▁نتخيل	-11.1847
▁يغني	-11.1847
▁جابلي	-11.1848
▁غرفة	-11.1849
😈	-11.1849
▁الوثائق	-11.1849
▁اصعب	-11.185
▁الخامس	-11.1854
▁كوب	-11.1854
ui	-11.1856
قلبي	-11.1856
معرفة	-11.1859
▁بواش	-11.186
▁ياشيخ	-11.1861
نحن	-11.1862
ترشح	-11.1862
▁أز	-11.1862
قناة	-11.1863
ren	-11.1864
▁عمها	-11.1864
AT	-11.1865
غمض	-11.1866
▁تتمسخر	-11.1866
▁اقر	-11.187
▁ذكي	-11.187
▁يمت	-11.1871
ger	-11.1871
▁commentaire	-11.1874
متابعة	-11.1875
مرانيش	-11.1875
بلاص	-11.1877
form	-11.1877
▁الكار	-11.1878
؟!!	-11.1879
▁وقفت	-11.1879
▁بنتك	-11.188
زاز	-11.1882
▁تجريبي	-11.1883
▁المغ	-11.1886
انس	-11.1888
/1	-11.1889
▁والاخ	-11.189
▁شاك	-11.1892
▁نحبها	-11.1892
داوم	-11.1894
▁دينية	-11.1894
يعطيك	-11.1895
▁يفت	-11.1895
يمي	-11.1895
🤭	-11.1896
▁story	-11.1898
▁الاساسية	-11.1898
▁اشخاص	-11.1898
▁مستجاب	-11.1899
▁فندق	-11.1899
بهدل	-11.19
قدرش	-11.1901
▁يحق	-11.1902
▁❣️	-11.1902
حركات	-11.1906
▁ينورك	-11.1906
333	-11.1909
▁وأحسن	-11.191
▁العبارة	-11.191
▁يعبد	-11.1914
▁توجه	-11.1914
▁02	-11.1914
فقه	-11.1914
dz	-11.1916
صام	-11.1918
▁بسبت	-11.1918
▁المهجري	-11.1919
▁يختلف	-11.1921
▁الشم	-11.1921
بدء	-11.1921
▁nchouf	-11.1922
▁رأى	-11.1922
▁Good	-11.1922
▁روابط	-11.1922
▁الشمال	-11.1925
▁مسمى	-11.1927
▁الفن	-11.1928
▁Tu	-11.1929
▁hed	-11.193
ادم	-11.193
▁شاد	-11.193
كرام	-11.1933
▁انتقل	-11.1933
▁7-	-11.1937
▁05	-11.1939
اجتماع	-11.1939
▁عيون	-11.1942
▁سوال	-11.1942
▁جينا	-11.1943
▁خلل	-11.1944
شتاق	-11.1945
▁français	-11.1946
😘😘	-11.1946
دلال	-11.1948
▁امس	-11.1948
▁دعيولي	-11.1949
▁يكبر	-11.1949
▁تبعو	-11.195
▁تصوير	-11.195
▁hiya	-11.1953
▁متعة	-11.1955
▁يعطيه	-11.1956
lam	-11.1958
▁محاولة	-11.1959
▁بنينة	-11.196
😀	-11.196
ten	-11.1961
▁حلق	-11.1961
الذين	-11.1961
▁بقر	-11.1962
▁🥹🥹	-11.1963
ايف	-11.1964
بداية	-11.1964
▁جعلت	-11.1965
يمان	-11.1966
▁وراهم	-11.1966
فنا	-11.1967
▁ذاكر	-11.1968
▁العص	-11.1969
▁رغيس	-11.197
▁تحرمني	-11.1972
لحصول	-11.1973
قرة	-11.1974
▁🎀	-11.1975
▁وعمر	-11.1975
رافق	-11.1975
حفاظ	-11.1977
داي	-11.1977
▁أحلى	-11.1978
ضيق	-11.1979
▁ومازال	-11.1979
أصل	-11.1982
▁يضحكو	-11.1983
ستغل	-11.1984
▁تدع	-11.1985
ستاذ	-11.1985
▁قولت	-11.1985
▁!؟	-11.1986
▁يسلم	-11.1989
▁المطبخ	-11.1991
jou	-11.1991
▁نحكم	-11.1992
▁الجسم	-11.1993
🤝	-11.1993
▁تختلف	-11.1994
🧐	-11.1994
▁مرحب	-11.1994
▁الحبس	-11.1994
▁والمسلمين	-11.1994
▁بالجزائر	-11.1996
خطئ	-11.1997
▁bas	-11.1997
عاقبة	-11.1998
▁texte	-11.1999
▁بحب	-11.2
reb	-11.2003
▁ترحم	-11.2007
😏	-11.2007
▁مدريد	-11.2009
ris	-11.2009
ارض	-11.2012
سيار	-11.2014
▁Mo	-11.2015
خام	-11.2016
▁متوسطة	-11.2017
ES	-11.2017
▁اجب	-11.2017
🤔🤔	-11.2019
▁فرش	-11.2024
▁الزهريين	-11.2024
▁تقييم	-11.2025
58	-11.2025
▁اضافة	-11.2025
▁need	-11.2027
علاقة	-11.2027
▁شح	-11.2027
▁خضر	-11.2027
▁يتق	-11.2028
▁نديو	-11.203
▁الأمان	-11.2031
مشكل	-11.2032
▁يعجبك	-11.2033
▁القوانين	-11.2033
▁وخلا	-11.2034
مبروك	-11.2035
▁بسباب	-11.2035
▁الرأس	-11.2038
▁علمنا	-11.2039
▁وقتو	-11.2043
▁عزوجل	-11.2043
ure	-11.2044
▁احتراماتي	-11.2045
▁الحميد	-11.2046
▁تقرب	-11.205
▁ذكريات	-11.2051
▁الخلل	-11.2051
حاس	-11.2053
▁رواح	-11.2053
توصل	-11.2054
▁بالدفع	-11.2054
▁So	-11.2055
▁متميز	-11.2056
▁زب	-11.2057
dd	-11.2057
▁بغي	-11.2058
تمنى	-11.2058
▁اجتماعية	-11.2058
▁OK	-11.206
طيل	-11.2061
▁الشام	-11.2061
▁مثقف	-11.2062
اخي	-11.2063
▁اكرم	-11.2063
▁04	-11.2065
▁الاكل	-11.2065
شكيل	-11.2067
▁First	-11.2067
▁مزيدا	-11.2068
▁بعودتك	-11.2068
▁اتابع	-11.2068
ترحم	-11.2069
▁تطبع	-11.2069
خطأ	-11.2069
▁👑	-11.2069
▁القاضي	-11.2069
▁قضيت	-11.207
▁حققت	-11.2071
▁امراة	-11.2071
▁2018	-11.2073
bda	-11.2073
▁MA	-11.2075
▁الموتى	-11.2077
▁31	-11.2077
▁اللولة	-11.2078
oi	-11.2079
▁التص	-11.2079
قق	-11.2082
▁أكن	-11.2083
▁تيزي	-11.2083
▁ران	-11.2084
▁🤨	-11.2084
▁التاريخي	-11.2085
▁😀	-11.2085
لفظ	-11.2085
▁im	-11.2087
▁بيتك	-11.2087
▁المحقق	-11.2089
قلق	-11.2089
▁زح	-11.209
▁المغربي	-11.2092
🙁	-11.2092
▁jamais	-11.2092
▁عسكري	-11.2093
▁بيدي	-11.2096
زائر	-11.2099
قذ	-11.2099
▁جمعية	-11.21
▁Hi	-11.2101
▁الاقتصاد	-11.2101
bab	-11.2101
▁أحببت	-11.2103
▁baba	-11.2107
لبي	-11.2107
▁زهرية	-11.2108
kan	-11.2108
▁بعمل	-11.2109
▁✨️	-11.2111
▁حما	-11.2111
▁ممل	-11.2111
▁حفضك	-11.2112
ple	-11.2114
▁يشرب	-11.2114
▁ميز	-11.2114
▁❤️🩹	-11.2116
☹️	-11.2117
▁تزيدي	-11.2118
▁لعبت	-11.2119
yi	-11.2121
▁فهاذ	-11.2121
زايد	-11.2123
▁تشكل	-11.2125
▁البسيط	-11.2126
▁تنظيم	-11.2129
▁علبالي	-11.2129
ice	-11.2129
IL	-11.213
▁الزين	-11.2131
▁حية	-11.2131
طابق	-11.2132
▁الاقامة	-11.2132
▁القرار	-11.2133
▁مضى	-11.2135
▁ابيض	-11.2137
▁الانس	-11.2139
▁المشاهدات	-11.2139
لغات	-11.214
▁الضحكة	-11.214
▁فشل	-11.2141
✋	-11.2141
🔪	-11.2141
▁الميسوم	-11.2141
▁باختصار	-11.2143
حلقة	-11.2144
98	-11.2144
▁الاختيار	-11.2144
▁غفور	-11.2144
jour	-11.2144
حز	-11.2147
▁النبوية	-11.2148
مفهوم	-11.215
▁rap	-11.2152
▁أطفال	-11.2153
ila	-11.2154
▁Bro	-11.2158
▁والمس	-11.2159
▁مشاهد	-11.216
▁ge	-11.2161
▁الفقه	-11.2162
▁حمر	-11.2162
·	-11.2166
▁مليكانا	-11.2166
▁جازاك	-11.2166
▁سف	-11.2167
▁مصيبة	-11.2167
▁كومنت	-11.2167
▁تحمست	-11.2168
▁ay	-11.2168
▁Zid	-11.2168
ثلج	-11.2169
شفى	-11.2172
▁لمس	-11.2174
▁يهد	-11.2175
لفون	-11.2176
▁للحبس	-11.2176
-2	-11.2177
bat	-11.2178
▁لنفسه	-11.2178
▁بانتلي	-11.2181
▁يض	-11.2182
DA	-11.2183
▁الاحمر	-11.2183
▁نبات	-11.2187
▁الادبية	-11.2188
▁حابس	-11.2188
🎓	-11.219
💎	-11.2191
▁النشاط	-11.2191
🫀	-11.2192
▁حقه	-11.2193
متحان	-11.2194
▁لمرورك	-11.2194
▁البشير	-11.2194
▁مترشح	-11.2195
خويا	-11.2196
▁الحاكم	-11.2196
▁يقلي	-11.2196
وفقك	-11.2197
kha	-11.2198
بلد	-11.2199
ilna	-11.2201
▁عيباد	-11.2202
غضب	-11.2203
san	-11.2203
▁الوزارة	-11.2204
MA	-11.2204
▁صحبت	-11.2206
▁تقع	-11.2209
شعار	-11.2209
▁بلم	-11.2211
▁دعيلي	-11.2211
▁Saha	-11.2214
▁الرسم	-11.2215
قراش	-11.2216
▁بجد	-11.2216
▁لدينا	-11.2216
▁المقام	-11.2216
▁لأول	-11.2218
▁ممبعد	-11.2219
▁👇	-11.2219
▁عمران	-11.2223
سما	-11.2225
▁دواء	-11.2227
نوض	-11.2227
كتفي	-11.2227
خمس	-11.2231
▁bar	-11.2232
▁dire	-11.2232
علاه	-11.2232
▁لقيتك	-11.2232
▁تسب	-11.2235
▁تجارب	-11.2235
تعرض	-11.2238
▁الحبيبة	-11.2238
▁العرس	-11.224
▁وكيفاه	-11.224
▁وبلا	-11.2241
▁الدلالي	-11.2242
▁اذهب	-11.2245
▁والديها	-11.2245
▁قيس	-11.2245
▁كائن	-11.2246
▁وأدخله	-11.2247
▁موس	-11.2249
▁إدا	-11.2249
shi	-11.225
▁وقاع	-11.225
بالك	-11.2251
▁واين	-11.2251
▁المواطن	-11.2251
▁روا	-11.2253
▁الحالات	-11.2255
▁مساعد	-11.2255
قارن	-11.2257
▁روعه	-11.2262
▁👌👌	-11.2262
▁khe	-11.2264
👻	-11.2265
▁تليفون	-11.2265
طريقة	-11.2266
▁منافق	-11.2268
▁درينا	-11.2268
▁السور	-11.2269
▁يتفق	-11.2271
▁صباحا	-11.2272
▁خطوات	-11.2272
▁صيد	-11.2274
▁العبرة	-11.2275
▁خش	-11.2276
▁مقول	-11.2277
حظر	-11.2277
89	-11.2279
▁الستر	-11.2279
of	-11.228
▁Hada	-11.228
▁أمسى	-11.2285
▁ونسمع	-11.2286
حكا	-11.2286
▁الكي	-11.2287
أسأل	-11.2289
▁ثلث	-11.229
▁المدائح	-11.2291
سيزيام	-11.2291
▁دراستي	-11.2291
▁الموال	-11.2292
ساد	-11.2293
ID	-11.2293
▁لهما	-11.2294
▁وارحمها	-11.2294
▁رأسه	-11.2296
▁يديها	-11.2299
جابت	-11.23
▁وطنية	-11.2302
kr	-11.2302
▁اخدم	-11.2303
▁دوام	-11.2305
▁فارغة	-11.2307
خيط	-11.2308
▁ذوق	-11.2308
سكي	-11.2313
▁dyal	-11.2314
▁التلفاز	-11.2315
👊	-11.2315
▁مجاهد	-11.2315
▁اللجنة	-11.2315
▁يسمعو	-11.2316
▁وجهو	-11.2318
👽	-11.2318
▁القضاء	-11.2318
▁😅❤	-11.2319
▁الأسرة	-11.2319
▁زعم	-11.232
▁أحدكم	-11.232
سيق	-11.2321
▁اكتبي	-11.2321
▁فاتو	-11.2322
▁بالمعروف	-11.2322
fik	-11.2323
فضح	-11.2324
عير	-11.2324
▁تركيا	-11.2325
▁لأحد	-11.2327
▁سررت	-11.2328
ouna	-11.2328
0)	-11.2331
▁العاص	-11.2332
▁يتعب	-11.2333
use	-11.2335
اسات	-11.2338
ثني	-11.2339
😜	-11.234
خماج	-11.234
▁مستقبلا	-11.2341
▁المنتخب	-11.2342
▁يعجز	-11.2343
▁درو	-11.2346
▁وقتنا	-11.2346
▁بشوي	-11.2348
▁مورا	-11.235
▁اود	-11.235
▁تحكيها	-11.2351
جس	-11.2352
▁وننجحو	-11.2354
ينغ	-11.2355
▁الياس	-11.2355
قناع	-11.2356
ise	-11.236
▁شوا	-11.236
❤🤲	-11.236
▁شفتهم	-11.236
tour	-11.2361
▁وصاحب	-11.2361
دينا	-11.2362
▁نقر	-11.2362
▁تود	-11.2364
hum	-11.2365
▁الثلاث	-11.2368
▁mak	-11.2368
▁عيطت	-11.237
هيم	-11.237
▁صاحبه	-11.2374
▁gu	-11.2374
▁ونصف	-11.2374
01	-11.2375
▁150	-11.2379
▁التاريخية	-11.2381
صبع	-11.2382
▁البك	-11.2382
▁تقوليلي	-11.2384
▁سار	-11.2389
خافش	-11.239
😵	-11.2391
▁الحاسوب	-11.2391
▁very	-11.2391
ضراب	-11.2391
▁تلميذة	-11.2392
ang	-11.2392
علق	-11.2393
▁الغضب	-11.2393
▁ديتو	-11.2393
▁الطيبين	-11.2394
▁ؤ	-11.2394
▁رداكس	-11.2394
▁عساس	-11.2398
▁الراحة	-11.2398
▁ظاهر	-11.2398
▁الجامعية	-11.2399
▁تفرحي	-11.2401
ew	-11.2401
ig	-11.2402
iti	-11.2402
▁نهائيا	-11.2404
أخوات	-11.2406
▁يحاسب	-11.241
▁شياطين	-11.2411
▁قطعت	-11.2412
طق	-11.2415
▁حسناته	-11.2416
عفس	-11.2417
▁منحسش	-11.2417
تطبيق	-11.2418
▁واسكنها	-11.2419
▁وطلب	-11.2419
▁خياتي	-11.242
▁تطلق	-11.2421
▁الحيط	-11.2422
خطوط	-11.2423
ata	-11.2423
▁المرحوم	-11.2423
خدمة	-11.2423
قرى	-11.2423
▁بعضاهم	-11.2423
▁الفرج	-11.2424
▁وعم	-11.2424
▁اسكت	-11.2425
ظروف	-11.2428
▁صفحت	-11.2429
▁ينس	-11.243
▁ونهار	-11.243
▁عرشه	-11.243
سبح	-11.2432
▁فيزياء	-11.2432
▁متل	-11.2433
▁فشلت	-11.2433
▁اتحصل	-11.2433
جمد	-11.2433
دكر	-11.2435
▁فيديواتك	-11.2437
▁ستة	-11.2438
ign	-11.244
▁الحاضر	-11.2441
▁bzzf	-11.2442
▁تشغيل	-11.2442
▁مواقف	-11.2442
▁العلاج	-11.2444
▁العادات	-11.2444
🫡	-11.2445
▁المحرم	-11.2449
▁مافتئ	-11.2452
تقني	-11.2452
▁اامين	-11.2452
▁فريد	-11.2453
ؤكد	-11.2453
▁٣	-11.2455
▁فالعالم	-11.2456
فخر	-11.2458
▁مدين	-11.2459
▁أقسم	-11.246
دعوا	-11.2461
▁ych	-11.2463
▁الكيبوب	-11.2467
▁فوبيا	-11.2468
▁أخرج	-11.2469
▁برعاية	-11.247
▁المنتج	-11.2471
▁نغ	-11.2472
قلك	-11.2472
▁الكبار	-11.2472
سيطر	-11.2472
▁العد	-11.2474
▁لعلم	-11.2476
▁السريع	-11.2476
▁ابنتي	-11.2476
▁يزال	-11.2478
▁اجيب	-11.248
▁نوعها	-11.2481
olna	-11.2481
بادر	-11.2482
▁جني	-11.2482
ouni	-11.2485
res	-11.2485
عتذر	-11.2487
▁فقلت	-11.2489
ON	-11.2491
▁العالي	-11.2491
ally	-11.2492
▁الوحدات	-11.2493
▁يطلعو	-11.2493
▁العيب	-11.2493
مكن	-11.2495
يتنا	-11.2496
👏👏	-11.2498
▁البس	-11.2498
ماهو	-11.2501
▁ونروح	-11.2501
▁بلغت	-11.2502
▁نفسهم	-11.2502
▁🥺💔	-11.2503
▁الدواء	-11.2504
▁التى	-11.2505
ow	-11.2506
▁واحسن	-11.2507
▁دعيت	-11.2507
▁دعوات	-11.2509
▁خز	-11.2509
▁نرد	-11.2511
▁لاول	-11.2511
▁حرج	-11.2512
▁net	-11.2512
راط	-11.2515
أكثر	-11.2516
راهي	-11.2516
عصر	-11.2517
▁سعودي	-11.2517
▁الانحياز	-11.2518
▁بشار	-11.252
▁يفهمو	-11.252
▁تعيي	-11.2521
رڨ	-11.2521
احلى	-11.2522
▁صدور	-11.2526
▁سمير	-11.2527
▁متأكدة	-11.2528
▁(1/	-11.2529
▁مقبول	-11.2531
▁direct	-11.2533
▁مبديتش	-11.2534
ؤل	-11.2534
▁ويدير	-11.2534
▁أتى	-11.2538
▁فتئ	-11.2539
▁وكتا	-11.2539
▁يحت	-11.2541
▁01	-11.2541
دقيق	-11.2541
🏽	-11.2541
▁ركليط	-11.2542
▁نشرب	-11.2542
▁دزايكو	-11.2544
▁وسا	-11.2544
▁أرزق	-11.2545
▁تكتبي	-11.2546
▁الطرف	-11.2546
▁عموم	-11.2546
▁تلاقيت	-11.2546
▁اكتشفت	-11.2546
خض	-11.2547
سعة	-11.2548
▁الربيع	-11.2548
▁non	-11.2548
أولاد	-11.2548
▁أرجوك	-11.2549
▁الظهر	-11.255
صادف	-11.255
▁دجاج	-11.2551
▁القبور	-11.2552
فرة	-11.2553
/0	-11.2554
▁يغفرلك	-11.2555
▁البيع	-11.2557
▁did	-11.2558
▁حفر	-11.2558
▁جودة	-11.2559
▁مزالت	-11.256
تسامح	-11.2561
▁يوقف	-11.2562
▁وأنه	-11.2562
▁حقل	-11.2565
▁ذم	-11.2565
▁ختيتو	-11.2566
▁ارحل	-11.2566
▁بحول	-11.2567
▁ميتة	-11.2568
▁نيمو	-11.2569
▁راكليتا	-11.2569
▁يصف	-11.257
▁والسداد	-11.257
▁يقرب	-11.257
▁partie	-11.2571
▁عباده	-11.2572
فاضل	-11.2572
▁الحركة	-11.2573
▁تشوكيت	-11.2573
▁حلمك	-11.2574
▁تبخل	-11.2574
con	-11.2575
▁بحد	-11.2577
▁تلا	-11.2578
▁الانتظار	-11.2578
▁فرعون	-11.2582
▁مادار	-11.2582
▁نطيح	-11.2582
▁قنا	-11.2583
بالنسبة	-11.2583
▁تمييز	-11.2585
افات	-11.2585
▁شعل	-11.2586
▁أقوى	-11.2586
▁يكونوا	-11.2586
اخت	-11.2587
▁موال	-11.2587
▁والتسامح	-11.2589
خدع	-11.2591
▁الدع	-11.2594
▁مكا	-11.2594
▁الجريمة	-11.2596
▁إجابة	-11.2597
▁الشرقي	-11.2599
اسئلة	-11.2602
▁كوكب	-11.2602
مستوى	-11.2602
▁فعله	-11.2603
bu	-11.2606
▁مصدق	-11.2606
سيدي	-11.2608
▁كبش	-11.2611
▁نجمة	-11.2613
▁المجموع	-11.2613
▁انقطاع	-11.2618
طيبة	-11.2618
⭐	-11.262
ture	-11.2621
💝	-11.2621
▁epson	-11.2621
▁القي	-11.2621
▁قلوبكم	-11.2622
▁700	-11.2623
▁أحوال	-11.2626
▁راءع	-11.2627
▁المستقيم	-11.2627
▁2008	-11.2629
bit	-11.2631
aja	-11.2634
▁يطبق	-11.2637
▁time	-11.2638
▁يصدق	-11.2639
▁نعرب	-11.2639
▁القرين	-11.2639
▁والباقي	-11.264
▁king	-11.2641
أمل	-11.2642
▁القرن	-11.2642
▁نجاوبو	-11.2642
▁حجم	-11.2644
▁نبيع	-11.2644
▁فخ	-11.2645
▁ونور	-11.2645
▁المرعبة	-11.2647
▁بسب	-11.2649
tro	-11.265
▁محبي	-11.265
▁كام	-11.265
▁وادعي	-11.2652
▁عرفتها	-11.2652
▁\	-11.2654
لخر	-11.2655
RI	-11.2656
▁Love	-11.2657
▁---	-11.266
فلس	-11.2662
تقن	-11.2662
▁نديرلك	-11.2664
حسيت	-11.2666
▁ماكنتش	-11.2666
رور	-11.2668
يميل	-11.2668
عطاء	-11.2668
▁id	-11.2669
ثمار	-11.267
مستقبل	-11.2672
kayat	-11.2672
▁سيري	-11.2676
fer	-11.2678
🙌	-11.2679
rabi	-11.268
▁الظل	-11.2682
▁سنا	-11.2683
▁دري	-11.2684
▁أعز	-11.2687
▁النج	-11.2687
فراح	-11.2688
▁خوكم	-11.2688
▁نجربها	-11.2689
غرق	-11.269
▁تخمم	-11.269
▁بالدين	-11.2693
خالف	-11.2696
▁يعتمد	-11.2696
حوا	-11.2696
▁زوهري	-11.2699
____	-11.2702
▁تأخر	-11.2704
▁سحار	-11.2705
▁ton	-11.2705
رقم	-11.2706
▁نورتي	-11.2706
▁Rana	-11.2712
▁طراب	-11.2714
▁صرالها	-11.2717
صراحة	-11.2717
ناظر	-11.2721
RO	-11.2724
▁خنشلة	-11.2725
راكش	-11.2725
▁يعاني	-11.2725
▁النافع	-11.2726
▁الشارع	-11.2728
▁نحتاجو	-11.2728
▁نمط	-11.2729
ida	-11.2729
▁بالمناسبة	-11.2729
▁سأعود	-11.273
▁Se	-11.2734
▁الآيات	-11.2736
▁الغيبة	-11.2739
قبيل	-11.2739
تمسخر	-11.274
▁تفرق	-11.2741
ack	-11.2743
▁الثقافة	-11.2744
▁To	-11.2744
ere	-11.2745
▁عينيا	-11.2747
▁وبما	-11.2747
▁أقصد	-11.2747
▁العضيم	-11.2751
▁تصاور	-11.2751
▁التافه	-11.2752
▁حادث	-11.2752
▁حينما	-11.2753
▁إب	-11.2753
▁تخت	-11.2754
▁مشهورة	-11.2757
▁توري	-11.2758
🌼	-11.2758
▁يفهمني	-11.276
▁يسلك	-11.2763
per	-11.2769
▁نتاعها	-11.277
▁وقصص	-11.277
▁mli	-11.277
كحل	-11.277
▁الشبه	-11.2772
bli	-11.2775
▁وقعت	-11.2775
/30	-11.2777
🤎	-11.2777
▁مشاريع	-11.2777
خاب	-11.2778
▁مجتمعنا	-11.2779
▁tt	-11.2779
▁متتالية	-11.2779
▁32	-11.278
▁ولمن	-11.2781
▁يقر	-11.2781
▁يشارك	-11.2782
likom	-11.2782
▁عت	-11.2783
▁إخوان	-11.2785
▁سرعة	-11.2788
""	-11.2788
▁طح	-11.2792
▁روي	-11.2793
▁روى	-11.2793
▁تحسن	-11.2794
النساء	-11.2794
▁أربع	-11.2798
▁مسح	-11.2799
▁لقدم	-11.2803
85	-11.2803
▁وختي	-11.2804
اثة	-11.2805
▁البرد	-11.2807
▁بأم	-11.2809
خبي	-11.2809
▁الاحداث	-11.281
▁متابعك	-11.281
▁وحط	-11.281
▁إيه	-11.2812
▁ومنها	-11.2813
▁مخل	-11.2814
▁وكيفاش	-11.2814
مراقبة	-11.2815
▁لبنى	-11.2817
▁تغلط	-11.2819
▁يخف	-11.2819
▁ولقد	-11.2821
شور	-11.2823
▁اعلي	-11.2825
▁أساتذة	-11.2826
▁صرح	-11.2827
نضم	-11.2827
▁tan	-11.2827
▁تتمني	-11.2827
يكفي	-11.2828
صمت	-11.2828
▁جواز	-11.2829
▁الذاكرة	-11.283
▁تقلي	-11.2831
bil	-11.2831
▁يحفدك	-11.2831
▁الامتحانات	-11.2833
▁ڨال	-11.2836
صدار	-11.2839
▁الجيد	-11.2839
▁فخور	-11.284
▁❤️🤲	-11.284
▁وهاذ	-11.2841
let	-11.2842
▁4/	-11.2846
▁يسرا	-11.2846
▁يقولوا	-11.2853
▁🫡	-11.2853
▁نزيدو	-11.2854
▁الرحم	-11.2855
▁نقرو	-11.2855
▁تعبير	-11.2855
🌝	-11.2857
▁first	-11.2857
▁مرفوع	-11.2857
▁ملابس	-11.2859
▁ويبقى	-11.2859
▁يعافينا	-11.2861
▁الأساس	-11.2861
▁وصححه	-11.2862
▁بيته	-11.2863
ï	-11.2865
cour	-11.2868
▁لعباد	-11.2868
▁الغيرة	-11.2871
▁واقعية	-11.2873
▁ضحكة	-11.2873
appel	-11.2874
تعدد	-11.2875
▁وصدق	-11.2877
▁زيدو	-11.288
▁ستجد	-11.2882
فاهم	-11.2882
♡	-11.2883
أختي	-11.2884
▁سمحيلي	-11.2885
▁وخرج	-11.2885
▁وجع	-11.2886
▁قائل	-11.2887
عاني	-11.2888
▁بيناتنا	-11.2889
▁mara	-11.289
▁nd	-11.2891
▁ترت	-11.2896
مست	-11.2896
ضهر	-11.2897
الشيخ	-11.29
▁آه	-11.2902
▁توفيت	-11.2904
فذ	-11.2906
▁الفلسطيني	-11.2908
▁الموجودة	-11.2909
▁كرهنا	-11.2909
▁محذوف	-11.291
▁غرداية	-11.291
ختصار	-11.291
▁لغوي	-11.291
▁الصداقة	-11.291
ملاين	-11.2912
▁ray	-11.2913
لاج	-11.2913
▁tkh	-11.2914
▁رديكس	-11.2914
gu	-11.2914
▁العضوية	-11.2915
▁الاشتراك	-11.2918
▁للن	-11.2921
▁سيدتي	-11.2923
▁دن	-11.2924
حام	-11.2926
علا	-11.2927
▁شرعي	-11.2929
▁بلعقل	-11.2929
▁تخف	-11.293
▁🤲🥺	-11.2932
▁ريبوندي	-11.2936
▁Keep	-11.2936
▁الصواب	-11.2937
▁مجرب	-11.2937
▁الحضارة	-11.2937
▁ختها	-11.2939
05	-11.2941
▁التعلم	-11.2941
▁حزينة	-11.2943
▁Had	-11.2943
▁ٱل	-11.2944
▁وطلع	-11.2945
▁قبايلي	-11.2945
▁يوو	-11.2946
▁العذاب	-11.2947
▁اجمع	-11.2948
▁الأسماء	-11.2949
▁يمس	-11.2949
▁نقدم	-11.295
isa	-11.295
فيزي	-11.2952
💗💗	-11.2952
▁Do	-11.2954
▁يقرو	-11.2956
▁voi	-11.2956
حزان	-11.2957
سلك	-11.296
▁تعتمد	-11.296
▁نشتي	-11.2962
✔	-11.2962
▁والفت	-11.2962
▁kamel	-11.2964
▁الكبش	-11.2965
طراف	-11.2966
▁تخمام	-11.2967
tah	-11.2968
▁سلاح	-11.2968
▁St	-11.2968
▁طاهر	-11.2968
▁المتتالية	-11.2971
▁نحضر	-11.2971
▁قس	-11.2971
{	-11.2972
chof	-11.2972
barak	-11.2973
▁==	-11.2976
زووم	-11.2976
▁ترجم	-11.2976
معذرة	-11.2978
▁البيضاء	-11.2978
بغض	-11.298
حجج	-11.2982
▁الخالق	-11.2984
▁مذا	-11.2986
🥺🤲	-11.2988
دراهم	-11.2989
▁question	-11.299
▁ببساطة	-11.299
▁مسألة	-11.299
▁اوروبا	-11.299
▁نضرب	-11.2991
▁السموات	-11.2991
▁الجيران	-11.2992
▁النووي	-11.2993
▁لباب	-11.2997
▁عق	-11.2997
تحياتي	-11.2998
▁ی	-11.3
▁المعارف	-11.3001
▁حطنا	-11.3003
▁اكي	-11.3004
▁الأحد	-11.3004
▁كذالك	-11.3006
▁المرحلة	-11.3007
▁قلتلنا	-11.3007
▁أكمل	-11.3009
▁تجرب	-11.3009
▁hkayat	-11.3013
▁عودت	-11.3014
داوي	-11.3014
عتقد	-11.3014
▁مظلوم	-11.3017
▁الويجا	-11.3017
▁المغفرة	-11.3017
صالة	-11.3021
▁طبيعية	-11.3023
▁الرومانسي	-11.3023
▁يصور	-11.3025
▁تتوقف	-11.3026
▁وجواب	-11.3026
🤡	-11.3027
▁بغض	-11.3029
▁Fa	-11.3031
▁الحمام	-11.3031
▁تديرلنا	-11.3032
▁يسعى	-11.3036
▁للمرأة	-11.3039
hb	-11.304
▁الزي	-11.3041
▁القل	-11.3041
▁تيكتوك	-11.3041
▁وإلا	-11.3042
وطة	-11.3043
▁يشافيه	-11.3043
▁ai	-11.3043
▁bah	-11.3044
▁صحابي	-11.3045
▁الخرطي	-11.3045
gha	-11.3048
▁كارت	-11.3048
شفا	-11.3049
75	-11.3051
▁تذهب	-11.3051
حبيت	-11.3052
▁250	-11.3052
▁حكيلنا	-11.3054
جيبو	-11.3054
▁كلماته	-11.3055
أكيد	-11.3056
راطي	-11.3057
▁make	-11.3057
▁اولادي	-11.3058
لقاش	-11.3059
▁حمام	-11.3059
▁التحية	-11.306
▁ديالو	-11.306
IR	-11.306
▁insta	-11.3061
▁يرسل	-11.3062
▁مقريتش	-11.3063
▁التراب	-11.3064
🐸	-11.3071
▁بومدين	-11.3071
▁شيماء	-11.3071
▁really	-11.3072
▁والحمدلله	-11.3072
خصص	-11.3073
عياد	-11.3075
▁مشفت	-11.3075
احتياط	-11.3076
▁نورمالمون	-11.3077
▁متأكد	-11.3078
تفق	-11.3079
غرس	-11.3082
ستجاب	-11.3082
تفسير	-11.3083
▁يدافع	-11.3083
▁نرجوا	-11.3084
▁الكامل	-11.3084
▁التفوق	-11.3085
▁وراهي	-11.3086
▁رسمي	-11.3087
▁دود	-11.3092
▁هدى	-11.3097
****************	-11.3098
▁ضح	-11.3098
▁ونحبك	-11.3099
▁زبدة	-11.31
▁بلاصت	-11.31
▁اشتقت	-11.31
😶	-11.3101
▁اتفرج	-11.3104
▁ردودك	-11.3106
▁؟!!	-11.3106
▁ونحقق	-11.3106
▁بود	-11.3107
▁المبذولة	-11.3107
▁الابالله	-11.311
▁اللحم	-11.3111
طفا	-11.3112
▁متواضع	-11.3112
oha	-11.3113
▁مربع	-11.3113
▁المغاربة	-11.3114
▁شع	-11.3114
▁الثلاثة	-11.3115
▁بلادكم	-11.3115
kon	-11.3118
بض	-11.3118
▁ويخلي	-11.3119
▁إليهم	-11.3123
▁ماعليش	-11.3126
▁مشوقة	-11.3126
han	-11.3126
▁جاوبت	-11.3127
▁المحيط	-11.3128
▁تمنيات	-11.313
▁علبالك	-11.3131
▁صلاته	-11.3131
▁بالصلاة	-11.3131
▁المدرسي	-11.3134
شعل	-11.3135
▁وأتوب	-11.3135
▁ترجمة	-11.3137
khaf	-11.3138
▁سريع	-11.3138
▁وقوله	-11.3138
كومنتار	-11.3139
▁المعدلات	-11.3139
▁النسا	-11.3142
▁الحقل	-11.3142
طرف	-11.3143
▁وتحيا	-11.3143
▁ويرضى	-11.3144
▁الاعلام	-11.3145
▁علام	-11.3145
▁قتلي	-11.3145
▁بليزز	-11.3146
▁الكوم	-11.3147
▁قادم	-11.315
mis	-11.3151
▁حقها	-11.3151
▁كلامه	-11.3154
▁متنساش	-11.3154
خوت	-11.3154
▁طولي	-11.3154
▁يسكنه	-11.3154
▁يتوب	-11.3157
▁bts	-11.3158
واسع	-11.3159
▁بكلام	-11.3161
▁يسموه	-11.3161
▁الوكالة	-11.3161
▁متاخر	-11.3162
bd	-11.3164
▁لوط	-11.3165
ركليط	-11.3168
▁الصغر	-11.3168
▁عظيمة	-11.3168
▁مانشوف	-11.317
▁ريحة	-11.3173
▁مث	-11.3173
تعامل	-11.3176
▁ويلهم	-11.3178
صيح	-11.3178
🕋	-11.318
علب	-11.318
▁هات	-11.3181
▁كفوا	-11.3181
خوتي	-11.3183
▁الفرد	-11.3183
رحيل	-11.3184
▁روايات	-11.3184
▁النصوص	-11.3185
▁😢💔	-11.3185
انستا	-11.3187
▁اسك	-11.3187
▁فيفري	-11.3189
▁أشخاص	-11.3189
مليح	-11.3189
▁تقدمه	-11.3189
▁الفئة	-11.319
▁قست	-11.3191
:00	-11.3192
جزاير	-11.3194
▁🤍🤲	-11.3194
▁مزالني	-11.3195
▁Ad	-11.3196
▁حان	-11.3199
▁بنعم	-11.3202
▁yak	-11.3204
قبر	-11.3204
تكبر	-11.3205
▁الشركة	-11.3206
▁قسح	-11.3206
▁too	-11.3208
▁ur	-11.3209
نحب	-11.321
▁الجهد	-11.3211
▁درجات	-11.3211
▁رتب	-11.3213
▁الاح	-11.3214
▁نض	-11.3214
ماشاء	-11.3215
▁نظم	-11.3218
أمين	-11.3221
♥️♥️	-11.3222
▁حذر	-11.3222
▁بانت	-11.3224
▁نعاودو	-11.3224
سرد	-11.3224
سياق	-11.3224
▁مؤكد	-11.3226
حركة	-11.3228
ct	-11.3228
79	-11.3229
نظام	-11.3231
▁نمر	-11.3232
▁وافضل	-11.3232
▁وحقق	-11.3233
لج	-11.3233
▁وسمها	-11.3234
💟	-11.3234
▁ماعرفتش	-11.3235
▁لتحقيق	-11.3236
▁Su	-11.3239
▁الأحداث	-11.3246
▁نط	-11.3246
▁غايا	-11.3247
rab	-11.3247
▁يجاوبني	-11.3247
تشبيه	-11.3248
▁ركزي	-11.3248
سومة	-11.3248
▁المخلوق	-11.325
▁new	-11.325
▁مأمن	-11.3252
▁اعتذر	-11.3253
all	-11.3253
قاوم	-11.3254
▁وشعر	-11.3254
▁اللقب	-11.3259
▁افعال	-11.326
فتاح	-11.3261
▁صحبه	-11.3261
▁العبادة	-11.3261
▁bezaf	-11.3262
▁المشاهد	-11.3263
▁تقوية	-11.3267
▁الدائمة	-11.3267
▁اخوك	-11.3268
▁فهمني	-11.3271
▁يرجعو	-11.3271
▁لمرة	-11.3274
▁طه	-11.3274
▁استخدام	-11.3277
▁قدرتش	-11.3279
▁قود	-11.328
▁كافية	-11.3281
OR	-11.3281
داير	-11.3282
حدد	-11.3282
يطا	-11.3286
انشاء	-11.3287
▁أنتظر	-11.3289
▁باديس	-11.329
🧡	-11.329
▁الفضول	-11.329
هولنا	-11.3292
▁منصة	-11.3293
▁نعيم	-11.3293
▁خواتي	-11.3293
▁bdit	-11.3293
قبة	-11.3294
▁اكتفي	-11.3296
ème	-11.3297
▁يستاهلو	-11.3298
yat	-11.33
▁😹	-11.3301
▁خلقت	-11.3301
😨	-11.3302
▁tous	-11.3304
▁التقدم	-11.3306
ألم	-11.3306
باكالوريا	-11.3306
▁يحيى	-11.3309
▁محال	-11.3309
▁صندوق	-11.3312
▁لعزيزة	-11.3312
▁exp	-11.3312
قرر	-11.3313
▁والاست	-11.3314
عى	-11.3316
▁ريفكا	-11.3317
ub	-11.3318
بتدأ	-11.3318
▁Rebi	-11.3319
▁صواب	-11.332
خس	-11.332
▁الدوا	-11.332
▁مشبه	-11.332
▁تصريح	-11.3321
are	-11.3321
▁تشارك	-11.3322
▁عائلتك	-11.3322
▁صريح	-11.3322
▁ملحق	-11.3322
▁رحاب	-11.3323
▁انزل	-11.3323
▁خاسر	-11.3323
▁وادخله	-11.3323
▁ولقيت	-11.3325
▁الثانوي	-11.3326
▁الاثنين	-11.3326
▁البرامج	-11.3326
▁قادرين	-11.3331
☠️	-11.3331
حيا	-11.3331
▁الطبق	-11.3333
▁التغيير	-11.3336
▁سلا	-11.3336
▁سببا	-11.3337
▁أصدق	-11.3339
▁تنس	-11.334
▁توكلت	-11.3343
▁ليكون	-11.3343
❣	-11.3344
§	-11.3345
▁لاكوست	-11.3345
▁لبنتي	-11.3346
فاش	-11.3347
😮😢	-11.3347
تحذير	-11.3348
bra	-11.3349
▁المراد	-11.3349
▁اضن	-11.335
▁الحمدالله	-11.3352
▁افرح	-11.3353
▁ذاته	-11.3353
▁فعال	-11.3354
▁النسب	-11.3354
جهد	-11.3354
▁حجاب	-11.3354
▁sc	-11.3357
▁مخلوق	-11.3359
▁المصاب	-11.3359
تنظيم	-11.3359
تعلق	-11.336
▁رايحا	-11.3361
▁زوم	-11.3364
hder	-11.3367
▁الذهاب	-11.337
▁تطيح	-11.337
dy	-11.3371
▁نظرت	-11.3372
‌	-11.3373
▁الاشخاص	-11.3373
▁الكومنتار	-11.3375
liya	-11.3375
48	-11.3376
▁''	-11.3376
صغير	-11.3377
ouha	-11.3379
طوف	-11.338
قمر	-11.338
▁الكرم	-11.3382
▁احذر	-11.3383
▁قف	-11.3386
▁الطيبات	-11.3387
▁ولادها	-11.3388
▁احسنت	-11.3389
▁ويسكنها	-11.339
▁الاسباب	-11.339
42	-11.3392
▁Te	-11.3393
hd	-11.3393
▁راكليط	-11.3393
▁إرحم	-11.3395
▁بالأخت	-11.3396
▁حاجات	-11.3397
▁يفقه	-11.3397
فيل	-11.3398
جيد	-11.34
wah	-11.34
▁ومنبعد	-11.34
▁اصوات	-11.3402
▁نلعبو	-11.3402
▁اخويا	-11.3405
▁خلصت	-11.3406
▁نتاوعك	-11.3406
▁ضيعت	-11.3406
▁مايكون	-11.3407
😄	-11.3408
فيض	-11.3409
▁كثريلنا	-11.3409
▁ela	-11.3409
▁نحلم	-11.341
▁Algérie	-11.3411
🤦‍♂️	-11.3412
عامل	-11.3412
ترى	-11.3413
سلب	-11.3414
▁للبكالوريا	-11.3414
▁nhar	-11.3416
▁يطرح	-11.3418
▁الغالب	-11.3418
سلسلة	-11.3418
▁شاهدت	-11.342
---------	-11.3421
▁أسعدني	-11.3421
بيب	-11.3421
▁لولاية	-11.3421
▁التفاهة	-11.3421
ديل	-11.3424
▁للعمل	-11.3425
▁ظهرت	-11.3426
▁تقي	-11.3426
▁😔😔	-11.3428
▁الروعة	-11.3429
▁vedio	-11.3429
▁لحظات	-11.3429
تاب	-11.3431
▁ben	-11.3431
▁ربى	-11.3432
bghi	-11.3433
▁بالأخ	-11.3435
▁mlih	-11.3435
▁حرت	-11.3436
تكوين	-11.3438
▁تصميم	-11.344
▁المفتاح	-11.3443
▁نخلط	-11.3444
هنئ	-11.3445
▁حكايه	-11.3445
▁قرن	-11.3446
▁نهائية	-11.3446
▁برأي	-11.3446
▁انتباه	-11.3447
▁بالقرآن	-11.3448
▁ورزقك	-11.3449
▁يريدون	-11.345
▁البعد	-11.3451
jr	-11.3452
لاعب	-11.3453
جنب	-11.3454
▁لبيت	-11.3457
▁دراستك	-11.3457
مشاركة	-11.3458
▁عبارات	-11.3458
توسع	-11.3459
▁جدول	-11.346
▁مناطق	-11.346
مشاكل	-11.346
▁ywaf	-11.346
▁سلعة	-11.346
▁cas	-11.3462
▁وأبو	-11.3463
41	-11.3464
▁نمد	-11.3465
dik	-11.3465
gue	-11.3466
▁مكروه	-11.3467
OM	-11.3469
▁ديركت	-11.3469
▁لتعلم	-11.3471
54	-11.3472
▁المنت	-11.3472
▁مناسب	-11.3473
▁lol	-11.3473
▁وتزيد	-11.3477
▁حطيتي	-11.3479
▁نادي	-11.3481
▁نتابع	-11.3482
⚡	-11.3485
👈	-11.3485
▁نمووت	-11.3485
▁الزاوج	-11.3485
▁ywf	-11.3485
خواتات	-11.3486
ake	-11.3488
رغ	-11.3491
▁المبلغ	-11.3491
▁تخبر	-11.3493
▁الالم	-11.3494
اعتد	-11.3496
▁الاسلامي	-11.3499
تفاعل	-11.3499
تسهيل	-11.3501
▁كيد	-11.3501
▁jo	-11.3502
أكل	-11.3503
▁يامات	-11.3504
▁وصبر	-11.3504
▁سمو	-11.3507
▁ويقدر	-11.3508
▁والغير	-11.3508
▁تتمناي	-11.351
vé	-11.351
▁تماك	-11.351
▁بااك	-11.3511
٫	-11.3513
▁والمدلول	-11.3513
🌟	-11.3514
▁الاوائل	-11.3514
إستعارة	-11.3514
▁💕💕	-11.3515
تجاه	-11.3515
▁دائرة	-11.3515
▁حزب	-11.3515
BI	-11.3518
فروض	-11.3518
ااف	-11.352
▁سام	-11.3521
▁خادم	-11.3526
▁حسد	-11.3529
&	-11.3529
▁شل	-11.3529
^^	-11.353
▁انشاله	-11.3531
كتسب	-11.3532
▁يعين	-11.3533
▁wala	-11.3533
▁يتباع	-11.3533
سبي	-11.3536
▁قراو	-11.3537
▁يقولولي	-11.3538
▁ضحية	-11.3539
▁الأكل	-11.3541
🙆	-11.3542
▁العروض	-11.3542
▁lyoum	-11.3543
▁التجاري	-11.3544
▁رايت	-11.3545
أثر	-11.3546
▁محارب	-11.3546
سح	-11.3546
▁أشر	-11.3548
ins	-11.3548
▁yr	-11.3549
▁أيتها	-11.3551
▁طابع	-11.3553
▁per	-11.3557
▁تحيتي	-11.3562
04	-11.3563
▁عبدالله	-11.3563
▁Ah	-11.3565
▁أقرأ	-11.3566
يقول	-11.3568
▁اترك	-11.3568
ini	-11.357
▁متخوفش	-11.357
▁oustad	-11.357
▁ماعلاباليش	-11.357
▁علمه	-11.3571
▁الغلطة	-11.3572
▁يمين	-11.3573
▁أمره	-11.3574
▁وعدت	-11.3575
حتا	-11.3575
ys	-11.3579
▁مدرس	-11.3579
▁kayn	-11.358
😃	-11.358
▁ربط	-11.3581
▁لقوله	-11.3583
▁يحرق	-11.3584
منع	-11.3584
▁rou	-11.3588
▁رحل	-11.359
خدمت	-11.3592
▁ويجب	-11.3592
▁والدعاء	-11.3592
▁ملكة	-11.3592
أعضاء	-11.3592
▁لجاي	-11.3594
قرض	-11.3594
▁رع	-11.3595
▁تعالي	-11.3595
▁يصنع	-11.3595
دوار	-11.3595
▁لاحقا	-11.3595
▁نهدرو	-11.3595
▁مجاني	-11.3596
▁هال	-11.3597
وطي	-11.3597
▁تقولنا	-11.3598
توسوس	-11.3601
▁تسأل	-11.3601
▁مورال	-11.3603
▁محبين	-11.3604
حور	-11.3606
▁فهمتها	-11.3607
▁نسمة	-11.3608
ira	-11.3609
▁yd	-11.3609
▁باغيين	-11.361
جواب	-11.3613
خمر	-11.3614
▁مدي	-11.3614
▁صبرا	-11.3615
//	-11.3615
▁تخلطت	-11.3616
▁نلحقو	-11.3619
▁اجزاء	-11.3621
▁نضن	-11.3624
▁بنفسه	-11.3625
▁أقدم	-11.3629
▁نحبكم	-11.3629
▁أبحث	-11.3631
▁Salam	-11.3631
AB	-11.3632
▁يقرى	-11.3634
أر	-11.3634
▁المعرفة	-11.3635
▁دريلنا	-11.3636
▁منافس	-11.3637
▁عينك	-11.3637
▁اليس	-11.3642
قنات	-11.3646
▁الصبح	-11.3649
لوكان	-11.3649
جوج	-11.365
معايير	-11.3651
wli	-11.3651
▁أمريكا	-11.3652
mel	-11.3652
تمارين	-11.3653
▁الدائم	-11.3654
🤓	-11.3656
▁صامط	-11.3657
▁فاق	-11.3657
▁عقبال	-11.3658
تفائل	-11.366
▁تريكو	-11.3661
▁نسناو	-11.3662
▁يستركم	-11.3663
قاف	-11.3663
▁الحقوق	-11.3664
▁محرز	-11.3666
▁فسد	-11.3669
aj	-11.367
va	-11.3672
▁حملت	-11.3673
...!	-11.3673
▁مجيب	-11.3673
▁اخير	-11.3675
▁هاجر	-11.3677
▁الجاهلية	-11.3677
▁قت	-11.3678
▁ركي	-11.368
▁يحميك	-11.368
▁طعم	-11.3682
▁مدرتش	-11.3683
▁نبعثلك	-11.3685
▁ابداي	-11.3686
▁خاطري	-11.3686
ذاكر	-11.3687
▁غض	-11.3687
▁معندكش	-11.3687
▁هيئة	-11.3688
▁عقاب	-11.3689
أنت	-11.3689
▁عاجل	-11.3689
▁رحمهم	-11.369
▁الاحت	-11.3691
▁البطل	-11.3691
▁شكرآ	-11.3692
عداء	-11.3693
رجاء	-11.3694
▁الغاز	-11.3694
▁بإسم	-11.3694
▁😶	-11.3694
▁مختصر	-11.3695
laa	-11.3697
▁الثقافي	-11.3698
▁دبي	-11.3698
tin	-11.3701
▁الملخصات	-11.3701
😹	-11.3702
▁يتح	-11.3702
▁نكذب	-11.3704
▁â	-11.3704
تلميذ	-11.3705
▁قرين	-11.3705
▁ويفتح	-11.3708
فرنسية	-11.371
زمن	-11.371
▁لبن	-11.3712
▁خاطئة	-11.3712
▁مادرت	-11.3712
▁تطبيقات	-11.3712
▁ضلم	-11.3713
عزيز	-11.3713
▁غليزان	-11.3714
إخوان	-11.3714
زنة	-11.3714
▁الركلط	-11.3714
تعصب	-11.3714
▁رآ	-11.3715
▁ينتهي	-11.3716
▁السابع	-11.3717
▁An	-11.3717
فوض	-11.3719
رزاق	-11.3723
▁نجبد	-11.3723
▁السلمي	-11.3724
▁مفت	-11.3724
mil	-11.3725
اهلا	-11.3727
ثقة	-11.3727
▁اقدم	-11.373
وحة	-11.373
▁متس	-11.3731
▁تعاني	-11.3732
khra	-11.3734
صبغ	-11.3734
▁زهد	-11.3734
▁صايم	-11.3735
▁فجر	-11.3735
▁مكن	-11.3735
▁حبو	-11.3737
▁الور	-11.3737
▁ونشر	-11.374
تقاعد	-11.374
▁gal	-11.3742
▁English	-11.3742
▁للادبيين	-11.3742
▁nrml	-11.3742
▁ونبينا	-11.3744
▁يعقوب	-11.3745
▁الوباء	-11.3745
ضخم	-11.3745
▁جبتها	-11.3747
أيام	-11.3747
▁يشت	-11.3748
▁رجعي	-11.3749
▁العجب	-11.3751
▁ابتل	-11.3752
▁متنس	-11.3753
صفح	-11.3754
▁النسخ	-11.3754
▁ونقرا	-11.3756
ثمان	-11.3756
▁تنسو	-11.3757
2022	-11.3757
▁تكوين	-11.3758
▁النفسي	-11.3758
▁بكالوريات	-11.3759
▁pc	-11.3759
▁سحب	-11.3759
فاجئ	-11.376
عتاد	-11.3761
نبه	-11.3762
▁ولادك	-11.3763
▁أسئلتك	-11.3764
ثالث	-11.3764
▁التجريبي	-11.3768
▁اعز	-11.3769
▁وماشي	-11.3771
▁خديجة	-11.3771
لعقوبة	-11.3771
▁المواقف	-11.3771
▁لقديم	-11.3772
▁RA	-11.3772
▁متمنيا	-11.3772
▁الإعراب	-11.3773
باد	-11.3774
▁التجريبية	-11.3775
ائمة	-11.3777
▁مرضت	-11.3777
▁😄	-11.3779
▁اليمين	-11.3779
▁ذائق	-11.3781
▁سيب	-11.3781
ner	-11.3781
▁شبع	-11.3783
▁فلفيديو	-11.3784
tion	-11.3787
▁Ne	-11.3789
▁تالية	-11.3789
▁المجالات	-11.3793
ستماع	-11.3793
▁القدرة	-11.3793
▁موراه	-11.3793
▁طعن	-11.3799
▁تركز	-11.3799
king	-11.38
✊	-11.38
▁العجينة	-11.3801
▁بابابوي	-11.3801
▁والعياذ	-11.3801
▁لاحق	-11.3801
▁Dirlna	-11.3802
لز	-11.3802
95	-11.3802
▁الكرة	-11.3802
▁كونان	-11.3804
▁الحصص	-11.3804
حتفظ	-11.3805
▁نقاش	-11.3805
أما	-11.3806
▁يولو	-11.3806
-----	-11.3807
▁jib	-11.3807
▁عائلته	-11.3808
▁الإلكترونية	-11.3809
مبي	-11.3809
هاتف	-11.3809
توحيد	-11.3813
▁لقراية	-11.3813
▁احداث	-11.3815
غرض	-11.3817
▁العقوبة	-11.3818
▁أفعال	-11.3819
oom	-11.3819
▁غو	-11.3819
▁مصالح	-11.382
قان	-11.3824
فاني	-11.3829
ضعاف	-11.383
كمونتار	-11.3831
▁الخطوات	-11.3832
▁انتوما	-11.3832
▁صديقة	-11.3832
بليغ	-11.3833
▁mm	-11.3834
▁دعوا	-11.3834
دزاير	-11.3836
▁وصول	-11.3838
▁اتصال	-11.3838
▁الرم	-11.384
▁وسأ	-11.384
▁ala	-11.384
▁وسام	-11.3841
استاد	-11.3842
▁استطاع	-11.3842
▁&	-11.3843
▁personne	-11.3845
▁بالجن	-11.3846
▁lha	-11.3848
ؤون	-11.3849
ادات	-11.3849
▁sal	-11.385
▁القاعدة	-11.385
▁ايما	-11.3853
▁وولاد	-11.3854
▁باست	-11.3856
▁ترجعي	-11.3857
▁الخالصة	-11.3859
▁الكهف	-11.3859
▁العطاء	-11.386
▁متعب	-11.3862
▁الزر	-11.3863
▁مهر	-11.3866
dro	-11.3866
▁دوخ	-11.3868
▁الإبداع	-11.3869
▁سائر	-11.3869
▁طريقك	-11.3871
▁موجه	-11.3872
▁يطيب	-11.3872
▁الاهتمام	-11.3872
▁والحق	-11.3873
جلسة	-11.3873
▁جايين	-11.3874
▁تكت	-11.3875
▁الشيئ	-11.3875
▁المهدي	-11.3875
▁بيتي	-11.3876
▁سبة	-11.3876
▁شريف	-11.3877
راضي	-11.3878
▁السماح	-11.3879
عمي	-11.3881
▁يأكل	-11.3882
نقطة	-11.3882
▁نوح	-11.3885
▁الرضا	-11.3885
😬	-11.3888
▁جري	-11.3888
خروج	-11.3889
zid	-11.3891
▁أقوال	-11.3892
▁محور	-11.3892
▁برامج	-11.3892
صات	-11.3895
▁الأجوبة	-11.3895
▁بحبك	-11.3895
▁ham	-11.3896
منهجية	-11.3897
▁سباب	-11.3897
kri	-11.3899
▁محبة	-11.39
▁بقوله	-11.39
▁ويجي	-11.39
▁الطر	-11.3901
▁فالأ	-11.3902
▁ومداد	-11.3902
▁48	-11.3903
▁يعلمون	-11.3903
iz	-11.3904
ستطيع	-11.3907
▁want	-11.3907
▁واحنا	-11.3908
▁فالب	-11.3908
▁لآخر	-11.3909
▁بيوم	-11.391
دلس	-11.391
▁نقولوا	-11.3913
▁ونرجع	-11.3914
ree	-11.3915
▁وفقط	-11.3917
▁fort	-11.3917
😮‍💨	-11.3918
▁ملييح	-11.3918
▁وانما	-11.3918
▁walid	-11.3919
▁الفخر	-11.3924
▁مرجع	-11.3924
نساء	-11.3925
▁طبخ	-11.3926
▁وبكل	-11.3928
ob	-11.3928
▁ونجيبو	-11.393
سخر	-11.3932
▁الكونت	-11.3932
▁تمني	-11.3932
▁تهلا	-11.3933
يوتيوب	-11.3933
ذكار	-11.3936
▁الفريق	-11.3936
▁الحتمية	-11.3937
▁بفيديو	-11.3939
▁X	-11.3939
▁سطايفية	-11.394
▁تحير	-11.3941
▁يبعت	-11.3943
▁اجرك	-11.3943
▁ونكون	-11.3947
▁والمؤمنات	-11.3948
باذن	-11.3949
▁اسعدني	-11.3952
▁خرجنا	-11.3954
▁القبول	-11.3954
▁pre	-11.3954
▁ras	-11.3954
▁الحلوة	-11.3955
▁عاجب	-11.3957
▁عرفتك	-11.3959
▁بيضة	-11.3959
وكس	-11.396
▁big	-11.3961
▁تكسر	-11.3962
▁حكيم	-11.3964
▁يؤدي	-11.3964
dm	-11.3964
▁احببت	-11.3964
▁الذكاء	-11.3964
لقد	-11.3964
NE	-11.3965
▁هرم	-11.3965
▁لطلب	-11.3966
▁ماقال	-11.3967
▁رسل	-11.3969
ET	-11.3971
▁موافقين	-11.3972
▁يحوسو	-11.3974
▁يدفع	-11.3976
▁omegle	-11.3977
🫠	-11.3977
▁القرءان	-11.3977
▁اللقطة	-11.3977
▁لطرح	-11.3977
حاضر	-11.3978
▁wahed	-11.3978
▁اللفظ	-11.398
برودوي	-11.398
عول	-11.3981
▁بالجنة	-11.3981
▁Mi	-11.3983
▁2012	-11.3983
▁كاره	-11.3984
▁جاتك	-11.3984
▁غاي	-11.3985
🤦‍♀️	-11.3987
▁ينتقم	-11.399
▁sy	-11.399
ستفاد	-11.399
▁بالفرنسية	-11.3992
▁الرواية	-11.3993
قتارح	-11.3993
لجأ	-11.3994
دبر	-11.3995
▁زعمة	-11.3997
😆	-11.3997
💪💪	-11.4001
جدد	-11.4001
▁Gh	-11.4004
▁للجن	-11.4004
homme	-11.4004
ضياع	-11.4005
▁﴾	-11.4006
▁لقات	-11.4007
▁lmo	-11.4007
▁نتعلمو	-11.4008
▁تجاري	-11.401
▁تفقد	-11.4011
▁here	-11.4011
رمو	-11.4013
صون	-11.4015
ash	-11.4015
والا	-11.4018
▁تؤمن	-11.402
▁تخرط	-11.4021
▁حبييت	-11.4022
ثيق	-11.4022
▁game	-11.4023
▁نسيي	-11.4023
طرد	-11.4023
جتهاد	-11.4024
▁lik	-11.4025
حتي	-11.4026
▁أصعب	-11.4026
▁ونتفرج	-11.4026
طيف	-11.4026
▁تلحقي	-11.4027
▁ريحت	-11.4029
▁يرزقكم	-11.4029
▁تمنع	-11.4034
▁الليسي	-11.4034
▁توحش	-11.4035
▁المجاهدين	-11.4036
▁لبلا	-11.4036
▁يماها	-11.4038
▁الدا	-11.4038
▁اشهار	-11.4039
▁نرمال	-11.4039
▁بقلب	-11.4042
▁أحس	-11.4042
▁فيكون	-11.4042
▁تأمن	-11.4043
حتمل	-11.4046
▁الزينة	-11.4047
▁الابيات	-11.4049
خلط	-11.405
▁يحفظو	-11.405
▁الفضاء	-11.405
عرا	-11.4052
▁الإقامة	-11.4052
▁فزد	-11.4052
▁مقبولة	-11.4052
▁زرع	-11.4053
ترحيب	-11.4054
▁الجاهل	-11.4054
▁حبت	-11.4054
جاع	-11.4057
▁الزنا	-11.4058
طبيعة	-11.4059
اؤك	-11.406
dl	-11.4064
▁للنجاح	-11.4065
▁الارمي	-11.4066
▁الشاشة	-11.4067
▁مفقود	-11.4067
▁اسف	-11.4068
dre	-11.407
ted	-11.407
▁اضرب	-11.4072
مساكين	-11.4073
مصطلحات	-11.4076
▁الخليج	-11.4076
حقيق	-11.4079
طالما	-11.4079
راز	-11.4079
▁تسر	-11.408
▁كوكو	-11.408
▁أحسنت	-11.408
▁cv	-11.4081
ذور	-11.4081
▁مقلق	-11.4082
بإذن	-11.4088
▁الحيوانات	-11.4089
شيئ	-11.4092
▁lkh	-11.4093
▁ندوه	-11.4093
غامر	-11.4095
▁wah	-11.4095
▁الكمبيوتر	-11.4096
🌙	-11.4096
▁الفاتحة	-11.4096
▁hd	-11.4096
▁مرسل	-11.4097
بتدئ	-11.4098
مقاومة	-11.4099
▁مساحة	-11.4103
مزح	-11.4104
▁ces	-11.4109
▁how	-11.4109
▁وخويا	-11.4109
نقول	-11.411
▁الارهاب	-11.4111
▁التصوير	-11.4111
▁وتعلم	-11.4111
▁الحسنة	-11.4112
▁خلقك	-11.4113
قيمة	-11.4115
▁شكو	-11.4116
تلقى	-11.4117
br	-11.4117
وهران	-11.4119
▁بشرى	-11.412
▁تدور	-11.412
لباك	-11.4122
▁الاسف	-11.4123
▁nti	-11.4123
خامس	-11.4126
▁سمان	-11.4127
▁Ro	-11.4129
▁مواليد	-11.4129
96	-11.4131
▁الغاشي	-11.4132
▁حكات	-11.4133
▁تشرب	-11.4133
بعيد	-11.4135
▁يتابع	-11.4136
رخص	-11.4137
▁والشعر	-11.4137
▁Moi	-11.4138
▁تجاوبني	-11.4138
▁😳	-11.414
sab	-11.4141
▁الإنسانية	-11.4143
▁الجبل	-11.4144
▁لخرا	-11.4144
ذم	-11.4144
▁جلال	-11.4145
▁شط	-11.4145
▁وحبيت	-11.4149
▁السحور	-11.4149
▁فج	-11.415
▁داركم	-11.415
▁ينوض	-11.415
وليس	-11.4152
بروف	-11.4154
▁تجبد	-11.4155
▁gr	-11.4155
▁ثقيلة	-11.4156
▁التبناج	-11.4156
▁لافامي	-11.4156
▁الشتاء	-11.4156
▁quoi	-11.4156
▁أنفسنا	-11.4156
▁الكاس	-11.4158
▁ونسيت	-11.4159
▁خطيرة	-11.4161
▁khal	-11.4164
▁بشرط	-11.4166
▁الحلويات	-11.4166
لقاء	-11.4167
▁الأدبية	-11.4167
😭💔	-11.4172
▁نتمسخر	-11.4173
▁الحوايج	-11.4174
▁مبرر	-11.4176
ستضاف	-11.4177
شفاء	-11.4178
▁🤲🤍	-11.4179
🤯	-11.4179
▁نذكر	-11.4179
▁الطبيعية	-11.418
▁راقدين	-11.4181
▁وأصبح	-11.4183
▁ليلا	-11.4183
▁الإنس	-11.4184
▁لخو	-11.4184
▁مرتب	-11.4184
▁زكريا	-11.4185
▁المناسبة	-11.4185
▁وشبيه	-11.4185
▁بمناسبة	-11.4186
توجه	-11.4187
▁زرقاء	-11.4188
عازي	-11.4188
▁سرور	-11.4189
نورمال	-11.419
▁يحيا	-11.4192
▁ارسال	-11.4193
▁تشجع	-11.4193
▁اثبت	-11.4195
▁هابط	-11.4195
▁الثلاثاء	-11.4195
▁لمعدل	-11.4199
▁أربعة	-11.4201
rbi	-11.4201
▁هرد	-11.4201
wn	-11.4202
قفل	-11.4204
متعة	-11.4205
▁لولد	-11.4206
76	-11.4206
زوز	-11.4208
جميلة	-11.4208
قاب	-11.4209
ifi	-11.421
▁يبيعو	-11.4214
▁إسرائيل	-11.4214
▁المذكور	-11.4217
▁الرجيم	-11.4217
▁والارادة	-11.4217
▁المقترحة	-11.4217
▁ويرضاه	-11.4217
▁nchallah	-11.4217
▁الزهري	-11.4218
▁الأقسام	-11.4219
▁جنتك	-11.4219
▁الطباعة	-11.422
نتبه	-11.4222
▁8-	-11.4222
غرف	-11.4223
▁meme	-11.4223
▁المساجد	-11.4224
تبدل	-11.4224
▁حينها	-11.4225
▁اكتوبر	-11.4225
▁تيوب	-11.4228
▁أشعر	-11.4229
▁المتواضع	-11.423
▁المتعة	-11.4231
دعواتكم	-11.4234
issa	-11.4235
rib	-11.4236
▁حلف	-11.424
▁كتبته	-11.4241
▁والده	-11.4241
ذهاب	-11.4241
▁😰	-11.4242
عالي	-11.4242
▁أنصحك	-11.4243
▁والبن	-11.4244
▁ولعل	-11.4244
😝	-11.4247
▁مانع	-11.4247
▁سخر	-11.4247
▁الأحيان	-11.4247
▁اعادة	-11.4247
[...]
