#version: 0.2
Ø §
Ù Ħ
Ġ Ù
Ġ Ø
Ù Ĭ
Ø§ ÙĦ
Ù Ĩ
Ù ħ
Ø§ Ø
Ġ Ø§ÙĦ
Ù Ī
Ø ±
Ù ĩ
Ø ª
Ù ĥ
ĠÙ Ī
Ø ¨
Ø ¯
Ø ©
Ø ¹
ĠÙ ħ
Ø Ń
Ù Ĥ
Ù ģ
Ø ³
č Ċ
ĠØ ¨
ĠÙ ģ
Ġ ÙĦ
ĠØ ¹
ĠÙ Ĭ
Ø§ ÙĨ
Ø ¬
ĠØ ª
Ø ´
ÙĦ Ùĩ
ĠØ £
Ù ī
ÙĦ ÙĬ
ð Ł
Ø µ
ĠÙģ ÙĬ
ĠÙ Ĩ
ĠÙ ĥ
ĠØ ±
Ø ®
ÙĬ ÙĨ
ĠÙħ ÙĨ
Ø £
Ø ·
Ø§Ø ±
Ø§Ø ª
Ø§ Ùħ
Ø ²
ĠØ§ÙĦ ÙĦÙĩ
ĠÙ ĩ
Ø °
ÙĬ Ø±
Ø ¶
Ġ Ø§Ø
ÙĨ Ø§
Ùĩ Ø§
ĠÙ Ĥ
ĠØ Ń
ĠØ§ÙĦ Ùħ
ÙĦ Ùī
ÙĬ Ø©
ðŁ ĺ
. .
Ø¨ ÙĬ
ĠØ ´
ÙĦ Ø§
Ùĩ Ùħ
ÙĪ ÙĨ
Ø§Ø ¨
Ø «
ĠØ ³
ĠÙĪ Ø§ÙĦ
Ø§Ø ¡
ÙĦ Ùħ
Ø¯ ÙĬ
Ø§Ø ¯
Ø Į
Ø± ÙĬ
Ø§ Ùĥ
ÙĪ ÙĦ
ĠØ ¬
ĠØ ¥
Ø§Ø ³
ĠØ ®
ĠØ ¯
Ø º
ĠØ¹ ÙĦÙī
Ġ Ø§ÙĨ
Øª ÙĬ
Ø§Ø ¹
â Ŀ
Ùħ Ø§
ĠØ µ
âĿ ¤
ĠØ¹ ÙĦÙĬ
Ùĥ Ùħ
ĠØ§ÙĦ Ø¹
ĠØ Į
ĠØ¹ ÙĨ
Ø§Ø Ń
ÙĪ Ø±
Ø§ Ùģ
Ø§ ÙĬ
.. .
Ø§ Ùĩ
ÙĨ ÙĬ
ĠØ£ ÙĨ
ØŃ Ùħ
Ø§Ø ¦
Ø ¥
Ø ¸
ÙĦ Ùĥ
ĠØ¨ Ø§ÙĦ
ĠÙĦ ÙĬ
ĠÙħ Ø¹
Ùĥ Ø±
Ø§Ø ´
ĠØ§ÙĦ Ø£
ÙĪ Ø§
Ø° Ø§
ðŁĺ Ĥ
Ø§Ø °
ÙĪ Ùħ
Ùģ ÙĬ
Ø³ Øª
Ø§Ø ¬
Ø§ ÙĪ
ĠØ§ÙĦ Ø³
ĠØ§ÙĦ Ø¬
ĠØ§ÙĦ Øª
ĠØ§ÙĦ ÙĨ
ĠØ§ÙĦ ØŃ
ĠÙħ Ø§
ĠØ§ÙĦ ÙĤ
Ø¨ Ø±
ÙĬ Ø¯
Ġ ðŁ
ÙĦ Ø§Ùħ
Ùħ ÙĨ
ĠÙĦ Ø§
ĠØ§Ø ³
ĠØ º
ĠØª Ø¹
Ġ .
Ùģ Ø±
ÙĦ Ø©
Ġ :
Ġ (
ĠØ§ÙĦ Ø¨
ĠØ ·
Ø¯ Ø±
Ø¹ Ø¯
ĠØ§ÙĦ Ø´
ÙĦ ÙĪ
Ø± Ø¨
Ø§ÙĨ ÙĬ
Øª ÙĪ
O N
E N
T I
M EN
TI ON
MEN TION
Øµ ØŃ
ÙĪ Ùģ
ÙĨ Øª
Ùħ ÙĬ
Ġ ...
ĠØ± Ø¨ÙĬ
ÙĤ ÙĬ
ĠÙĥ ÙĬ
Ø Ł
ĠÙĦ ÙĦ
Ø± Ùĥ
Ġ âĿ¤
Ġ -
ĠÙĥ ÙĦ
ÙĬ Ø§
ÙĬ Ø¨
ĠØ¹ÙĦÙĬ Ùĩ
ĠØ§ÙĦ Ø±
Ø± Ùģ
Ø³ ÙĦÙħ
ĠÙĥ Ø§ÙĨ
Ġ 1
Ø± Ø©
Ùĥ ÙĪÙĨ
Ùħ Ø¹
ĠÙĤ Ø§ÙĦ
Ġ ðŁĺ
ĠÙĪ ÙĦØ§
Ùĥ ÙĨ
ĠØ °
Ùħ Ø±
Ø¹ ÙĪ
Øª Ùĩ
ÙĤ Ø¯
ÙĤ Ø©
Ø³ ÙĬ
Ġ "
ĠÙĩ Ø°Ø§
Ø¯ Ø©
ĠØ§ÙĦ Ùĥ
Ø§ÙĦ ÙĦÙĩ
Ø§ÙĨ Ø§
ĠØ§Ø³ Øª
ĠÙĪ ÙĬ
Ø§Ø± Ùĥ
ĠÙĬ ØŃ
ĠÙĪ Ø£
Ø¹ Ø©
Ø¨ Ø©
Ø§Ø µ
Ø± ÙĪ
Ġ 2
Ø ¢
ĠØª ØŃ
Ùħ Ø©
ÙĤ Øª
Ø ¤
Ùĥ ÙĬ
Ø ¦
ĠÙĬ Ø¹
ĠØ§ÙĦ Ø¯
o u
ĠØ ²
ĠØ§ÙĦ Ø®
ĠØ§ÙĦ Øµ
Ø§Ø³ Øª
ĠØ§ÙĨ Ø§
ĠÙĬ Ø§
Ø§Ø ²
Ø¯ÙĬ ÙĪ
ĠØ «
ÙĦ Øª
Ø¯ Ø§
ĠÙĩ ÙĪ
ĠØ§ÙĦ Ø¥
ĠØ§ÙĦ Ùģ
ĠØ£ ÙĪ
ĠØ¹ÙĨ Ø¯
Ø® Ø±
ĠØ¨ ÙĨ
ĠÙĪ Øª
ÙĨ Ø©
ĠØ Ł
Ġ l
ÙĬ Ùĥ
ĠØ§ÙĦ ÙĪ
ĠØ§Ø ®
Ø§Ø ®
h a
ÙĤ ÙĪÙĦ
Ø± ØŃ
Ġ m
Ø± Ø¨ÙĬ
ĠÙĪ Ùĩ
ÙĬ Ùħ
ÙĥØ± Ø§
Ġ t
ĠØ§ÙĦ Ø°
ĠØ´ Ø§Ø¡
ĠØª Ø§Ø¹
ĠÙĦ Ùħ
ĠØº ÙĬØ±
ØŃÙħ Ø¯
ÙĪ Ø¬
ĠØ¥ ÙĦÙī
Ø¨ ÙĦ
Ø§Ø ·
Øª Ùī
ÙĦ Ø¨
Ø§Ø ©
Ùģ Ø³
ĠÙĪ ÙĨ
ĠÙĨ Øª
Ø¨ Ø¯
Ġ Ø§Ùħ
Ġ ðŁĺĤ
ĠÙĩ Ø°
ÙĪ Ø¯
Ùĥ ÙĦ
ÙĦ ÙĤ
Øª Ùĥ
ØŃ ÙĬ
Ø¹ Ùħ
Øª Ùħ
Ø³ ÙĦØ§Ùħ
Ø§Ø ¶
ĠÙĪ ØŃ
ÙĪ Ø¹
â Ģ
Ùģ Ø¸
ÙĤ Ø±
ĠÙħ Øª
ĠÙĪ Ø³ÙĦÙħ
Ø§ÙĦ Ùħ
Ø§Ø± Ø¨
Ø¹ Ø¨
Ø¹ ÙĦ
ĠØ§Ø ¨
ĠÙħ Ø´
ĠÙĪ Ùħ
ÙĤ Ø§ÙĦ
ÙĪ ÙĬ
ĠØ¥ ÙĨ
Øª Ø¨
ĠÙĦ Ùĩ
ĠÙĪ Ø¬
Ø¯ ÙĬØ±
Ø ¡
ØŃ Ø¨
Ø³ Ùħ
ĠÙĪ ÙĦ
ĠØ§ÙĦ Ø·
ĠØ§ÙĦ ÙĬ
ĠØ± ÙĪ
Ø³ Ø¨
r a
Ùģ Ø©
Ø§ ÙĤ
ĠÙĬ Ø¬
ĠÙĪ Ø±
ÙĦ ÙĨØ§
ĠØ¨ Ø²
ØŃ Ùĥ
ÙĪ Ùĥ
Ġ b
ĠØ® ÙĬØ±
ï ¸
ï¸ ı
ÙĬ Øª
Ø£ ÙĨ
Ġ a
ÙĬ Ø®
Ø³ ÙĨ
ĠØŃ ØªÙī
- -
ĠØ ¢
ĠØµ ÙĦÙī
e s
ÙĪ Øª
ðŁ ¤
Ø§Ø¯ Ø©
ØŃ Ø©
ÙĬ Ø§Øª
ĠÙĪ Ø¹
ĠÙĬ ÙĨ
ĠÙĦ Ùĥ
Ø± Ø¬
ĠØ¨ ÙĦ
Ø¥ ÙĨ
Ø® ÙĦ
ĠØ ¶
Ġ d
Ø² Ø§Ø¦
ÙĤ ÙĪ
Ø« Ø±
Ø± Ø¶
c h
Øª ØŃ
Ø¹ ÙĬ
o n
i n
ĠÙĪ Ø¨
Ùħ ÙĦ
Ġ2 0
Ġ 3
ĠØ¨ Ùĩ
Øµ ÙĦ
ĠÙĪØ§ÙĦ ÙĦÙĩ
ÙĦÙĩ Ø§
Ġ )
ĠØ¹ÙĦÙĬ ÙĥÙħ
ÙĪØ± Ø©
ĠØ§Ø³Øª Ø§Ø°
ÙĨ Ø³
ĠØ¨ Ø¹Ø¯
ĠÙĪ Ø§ØŃ
ÙĪ Ø³
Ùĥ Ø§ÙĨ
Ø§ÙĦ ÙĬ
Ùģ Ø¶
Ġ s
Ø§Ùħ ÙĦ
ĠØ§ÙĦ ØªÙĬ
Ġ Ø§ÙĪ
ĠØ¨ Ø¹
ĠØ° ÙĦÙĥ
ĠÙģÙĬ Ùĥ
Ġ w
ĠØ¨ ÙĬÙĨ
Øª Ø§Ø¨
l a
Ùĩ Ø±
r e
Øª Ø±
ĠØ£ Ø®
Ø² ÙĬ
* *
Ø¬ ØŃ
ĠÙĬ Ø±
Ùĩ ÙĦ
ĠÙģ Ø§ÙĦ
Ø¯ Ùħ
Ġ n
ĠÙĩØ° Ùĩ
ĠÙĨ Ø´
ĠØ§Ø Ń
Øµ Ø©
ĠÙĩ ÙĬ
ĠÙĦ ÙĦÙĩ
ÙĬØ± Ø©
ĠÙģÙĬ Ùĩ
ĠÙħ Ø±
ðŁ Ĵ
ÙĬÙĨ Ø§
ĠðŁ ¤
ĠØ¨Ø² Ø§Ùģ
Øª Ø´
Ġ Ø§
ÙĦ Ø³
Ø¯ ÙĪ
ĠÙħ ÙĪ
Ġ f
Ø® Øµ
Ø¨ ØŃ
ĠØ§ÙĦØ° ÙĬ
Ø¨ Ø§Ø±Ùĥ
Øª ÙĩØ§
ĠØ§ÙĦ Ø«
ĠØ¨ ÙĬ
ĠÙĥÙĬ Ùģ
Ø· ÙĬ
Ø¶ ÙĬ
ĠÙħ ØŃ
Ġ y
Ø§Ø¯ ÙĬ
ÙĪ Ø¨
ĠØ¯ ÙĬØ±
ĠØ£ Ùħ
Ø§Ø³Øª Ø§Ø°
ĠÙģÙĬ ÙĩØ§
Ġ Ø§ÙĬ
Ġ [
ĠØ± Ø¨
ĠÙĪ Ø´
ÙĦ Ùģ
ĠØ± Ø§Ùĥ
ÙĬ Ø´
Ġ k
Ø§ÙĦ Ùī
ÙĤ Ø·
ĠÙĦ ÙĪ
ĠØ£ ÙĬ
ĠØª Ø¬
Ġ Ø§Ø±
Ġ c
Ø§Ø± Ø©
ĠØ§Ø ¯
ÙĪ ÙĦÙĬ
e r
ĠÙģÙĬ Ø¯ÙĬÙĪ
ÙĬ ÙĦ
ĠÙĩ ÙĨØ§
ĠÙĪ ÙĦÙĬ
Øµ Ø±
Ø³ ÙĪÙĦ
ĠÙĨ ØŃ
ĠâĿ¤ âĿ¤
e n
ĠØ¨ ØµØŃ
Ġ âĢ
Ġ p
Ø« ÙĦ
Ø´ Ø±
ĠØ§ÙĦÙĦÙĩ Ùħ
Ø¨ Øª
ĠØ§ÙĦØ¬ Ø²Ø§Ø¦
ĠÙĨ Ø¬
ĠðŁĺĤ ðŁĺĤ
ĠÙĪØ§ØŃ Ø¯
ĠØ´ ÙĬ
Ø§Ø¨ Ø©
ĠØ¥ ÙĦØ§
Ø§Øª Ùĩ
ĠÙĬ Ø§Ø±Ø¨
ĠØ§ÙĦ Øº
ĠÙĩ Ùĩ
ĠÙĬ Øª
Ø§ ÙĬÙĨ
ðŁĺ ¢
ÙģÙĬ Ø¯ÙĬÙĪ
ĠÙħ ÙĬ
ĠÙĬ ÙĪÙħ
ĠØ´ ÙĥØ±Ø§
ĠØ® ÙĪ
Ø§ ÙĬØ©
Ø¹ Ø±
Ġ20 2
ĠÙħ Ø³
ĠÙĥ ÙĨØª
ØŃ Ø¯
0 0
Ø¶ Ø§
ÙĤ ÙĦ
ÙĪÙĨ ÙĬ
Ø§Øª Ùĥ
ĠØ§Ø ¹
ĠØªØ¹ Ø§ÙĦÙī
ĠÙĬ Ø´
ÙĤ Ø¯Ø±
ÙħÙĬ Ø¹
Ø¨ Ø¹
ĠÙĪ ÙħÙĨ
a n
ĠÙĥ ÙħØ§
ĠÙĨ Ø³
ĠØ¨ ÙĦÙĬ
ĠÙĬØŃ ÙģØ¸
Ùħ Øª
ĠØª ÙĪ
ĠÙĨ ÙģØ³
ĠØ± Ø§ÙĨÙĬ
ĠÙĥ Ø§ÙħÙĦ
ĠØ§ÙĦØ¨ Ø§Ùĥ
ÙĪ Ø´
ĠØ¹ÙĦÙĬ Ùĥ
ĠÙħ Ø¬
ĠÙĦ ÙĥÙĨ
Ø¨ Ùĩ
Ùģ Øª
ĠØ± Ø§Ùĩ
ĠØ¨ Ùĥ
ĠØ¯ Ø±
ĠÙĬ ÙĥÙĪÙĨ
Ø§Ø¹ Ø©
ĠØ§Ø¨ ÙĨ
ĠØ« Ùħ
ÙĪ Ø±ÙĬ
ĠØ³ ÙĬ
Ùĩ Ø¯
ĠØ§ÙĦÙħ ÙĪ
ĠØ§Ø ¬
ĠØ§ÙĦ Ø²
ĠØ¹ Ø¨Ø¯
ĠÙĩ ÙĦ
ĠØ§ÙĦÙĤ Ø±
ĠØ± ØŃÙħ
i s
ĠØ§ÙĦÙĨ Ø§Ø³
Ø¨ ÙĪ
Ø³ Ø±
ĠÙĤ Ø¯
ØŃ Ø±
Ø¹ÙĪ ÙĦÙĬ
Ùħ ÙĪ
ĠÙĬ Ø®
ĠØ§ÙĦ ØµØŃ
ÙĪÙģ ÙĤ
Ø§ ÙĩÙħ
Ø« ÙĬØ±
ĠØª Ø´
Ġ Ø§Ùĥ
Ùħ ÙĥÙĨ
Øº ÙĬØ±
Ã ©
Ø¹ ÙĦÙħ
Ø¯ ÙĬÙĨ
Ø§ÙĦ Ùĥ
Ø· Ø©
ĠÙħ ØŃÙħØ¯
ĠØµ ØŃ
ĠÙĬ Ø¯
Øµ Øµ
Ø¨ Ø§
ĠØª ÙĨ
ĠÙģ Ø¶
ĠÙĤ Ø¨ÙĦ
Ø¬ ÙĦ
l i
ĠØ¨ Ø±Ùĥ
ĠØ§ÙĦØ¹ ÙĦÙħ
Ùģ Ø¹
ĠÙĪ ÙĬÙĨ
ĠØ¨ Ø§Ùĥ
Ø§ÙĦÙĦÙĩ Ùħ
= =
ĠØ§ÙĦØ³ ÙĦØ§Ùħ
ĠØ§ÙĦØ¬Ø²Ø§Ø¦ Ø±
ĠØ± Ø³ÙĪÙĦ
ĠØª ÙĤ
Ùģ ÙĩÙħ
ÙĪ Ùĩ
ĠÙħ ÙĦÙĬ
ĠØ¥ ÙĦÙĬ
n a
t i
Ø´ ÙĥØ±Ø§
ĠðŁĺ ¢
âĿ¤ âĿ¤
Ø³Øª Ø§Ø°
Ø§ÙĦ Ø©
Ø¢ ÙĨ
ĠÙĥØ§ÙĨ Øª
İ ī
ĠØ§ÙĦ ÙĦ
ÙĦÙĬ ÙĦ
Ø§Ø «
Ø§Ùħ Ø©
ĠÙĪ Ø§Ø´
ĠØ§ÙĨ Øª
Ø² ÙĬØ¯
Ġ h
Ø¯ÙĬ Ø«
ĠØ¹ Ùħ
ÙĪ Ø©
ĠÙħ Ø§Ø´
ĠÙĪ Ùĥ
Ø¹ Øª
ĠÙĪÙĩ ÙĪ
Ø§Ø± ÙĬ
ÙĪ ÙĤ
ĠÙģ Ø±
ĠØ¨Ø¹ Ø¶
a r
ĠØ¨ Ø¯
ðŁĺĤ ðŁĺĤ
Ø° ÙĦÙĥ
ĠØ§ÙĦØ¹ Ø§ÙĦÙħ
Ø®Ø± Ø¬
_ _
ĠðŁ Ĵ
Ø¹ Ø±Ùģ
ĠÙĪ Ùģ
ĠÙĬØŃÙģØ¸ Ùĥ
Ġ Ø§Øª
ÙģØ± Ø¬
ĠÙĬ ÙĤÙĪÙĦ
ÙĬÙĨ ÙĬ
ĠØ¥ Ø°Ø§
ĠØª Øª
ĠØ¨ Ø§Ø±Ùĥ
ĠÙĪ Ø³
ĠÙĪ ÙĦÙĥ
Ø³ Ø§ÙĨ
ÙĦÙĩ Ùħ
ĠÙĬ Ø³
ĠØ§ÙĦÙħ ÙĨ
Ġ Ø§Ùģ
ĠÙĦ Ø£ÙĨ
ĠØ¨Ø§ÙĦ Ùħ
Ø§Ø° Ø§
Ġ ,
ĠÙĪØ§ÙĦ Ùħ
ĠØ§ÙĦÙĨ Ø¨ÙĬ
Ø¬ Ø±
ĠØ¹ ÙĦ
ĠØŃ Ùĥ
Ø§ ÙĪÙĦ
Ø§ÙĦ Ø³ÙĦØ§Ùħ
-- --
ÙĩÙħ Ø§
Ø´ ÙĬ
Ġ v
ĠØ¹ÙĨ Ùĩ
ĠØ¨ Ùħ
ĠØ§ÙĦÙħ Ø±
ĠØ¨ Ø±
ĠØª Ùħ
o m
ÙĨ Ø¯
ĠØ§ÙĦ Ø§Ø³
ĠØª Ø³
ĠÙĪ Ø¥
Ø±ÙĬ Ùħ
ĠÙĪ Øµ
ĠÙĦ Ø¨
Ø§ÙĦ ØŃ
ĠØ¹ ÙĦÙħ
Ġ 4
Ùħ ÙĬÙĨ
ĠØ¨ Ø§Ø´
Ùħ Ø§ÙĨ
Ø¸ Ø±
Ùĩ ÙĪ
Ø· Ø±
Ø±Ø¨ ÙĬØ©
ĠÙĩ Ø§Ø¯
ĠØ§ÙĦÙħ Ø´
ĠØª Ø®
ĠØª ÙĥÙĪÙĨ
a l
e l
ĠØ£ Ø³
ĠØ§ÙĦ ÙģØ±
i d
Ø² ÙĤ
Ø¨ ÙĤ
ĠØ§ÙĦ Ø§ÙĨ
ĠØŃ ÙĬ
ĠÙĤ Ø±
Ø¯ÙĬ Ø¯
ĠÙĨ Øµ
ĠØ§ÙĦ Ùī
ĠÙħ Ø§Øª
ÙĪØ±ÙĬ Ø§
ĠÙĪ ÙĤ
Ø§Ø¬ Ø©
ðŁ ¥
Ø² Ø§Ùĥ
Ø¶ ÙĪØ¹
Ø· ÙĦ
ĠÙĬ Ø³Øª
ĠØŁ ØŁ
ĠÙĦ ÙĦÙħ
ĠØ ¸
Ø¶ ÙĦ
ĠÙħ Ø³Øª
ĠØª Ø±
Ø¬ Ø¨
ĠÙĪ ÙģÙĬ
ÙĪ Ø§Øª
ĠØ¯ Ø§Ø±
Ø¯ Ùī
ĠÙĬ ÙĪÙģÙĤ
ĠÙģ Ø¥ÙĨ
ĠÙĥÙĬ ÙħØ§
ĠÙĦ Ø¹
Ġ â
ĠØ£ ÙĨØ§
ÙĦÙĬ Ø©
Ġm a
ÙħÙĨ Ùī
