{
  "version": "1.0",
  "truncation": null,
  "padding": null,
  "added_tokens": [
    {
      "id": 0,
      "content": "<pad>",
      "single_word": false,
      "lstrip": false,
      "rstrip": false,
      "normalized": false,
      "special": true
    },
    {
      "id": 1,
      "content": "<unk>",
      "single_word": false,
      "lstrip": false,
      "rstrip": false,
      "normalized": false,
      "special": true
    },
    {
      "id": 2,
      "content": "<s>",
      "single_word": false,
      "lstrip": false,
      "rstrip": false,
      "normalized": false,
      "special": true
    },
    {
      "id": 3,
      "content": "</s>",
      "single_word": false,
      "lstrip": false,
      "rstrip": false,
      "normalized": false,
      "special": true
    }
  ],
  "normalizer": null,
  "pre_tokenizer": {
    "type": "ByteLevel",
    "add_prefix_space": false,
    "trim_offsets": true,
    "use_regex": true
  },
  "post_processor": null,
  "decoder": {
    "type": "ByteLevel",
    "add_prefix_space": true,
    "trim_offsets": true,
    "use_regex": true
  },
  "model": {
    "type": "BPE",
    "dropout": null,
    "unk_token": "<unk>",
    "continuing_subword_prefix": null,
    "end_of_word_suffix": null,
    "fuse_unk": false,
    "byte_fallback": false,
    "ignore_merges": false,
    "vocab": {
      "<pad>": 0,
      "<unk>": 1,
      "<s>": 2,
      "</s>": 3,
      "!": 4,
      "\"": 5,
      "#": 6,
      "$": 7,
      "%": 8,
      "&": 9,
      "'": 10,
      "(": 11,
      ")": 12,
      "*": 13,
      "+": 14,
      ",": 15,
      "-": 16,
      ".": 17,
      "/": 18,
      "0": 19,
      "1": 20,
      "2": 21,
      "3": 22,
      "4": 23,
      "5": 24,
      "6": 25,
      "7": 26,
      "8": 27,
      "9": 28,
      ":": 29,
      ";": 30,
      "<": 31,
      "=": 32,
      ">": 33,
      "?": 34,
      "@": 35,
      "A": 36,
      "B": 37,
      "C": 38,
      "D": 39,
      "E": 40,
      "F": 41,
      "G": 42,
      "H": 43,
      "I": 44,
      "J": 45,
      "K": 46,
      "L": 47,
      "M": 48,
      "N": 49,
      "O": 50,
      "P": 51,
      "Q": 52,
      "R": 53,
      "S": 54,
      "T": 55,
      "U": 56,
      "V": 57,
      "W": 58,
      "X": 59,
      "Y": 60,
      "Z": 61,
      "[": 62,
      "\\": 63,
      "]": 64,
      "^": 65,
      "_": 66,
      "`": 67,
      "a": 68,
      "b": 69,
      "c": 70,
      "d": 71,
      "e": 72,
      "f": 73,
      "g": 74,
      "h": 75,
      "i": 76,
      "j": 77,
      "k": 78,
      "l": 79,
      "m": 80,
      "n": 81,
      "o": 82,
      "p": 83,
      "q": 84,
      "r": 85,
      "s": 86,
      "t": 87,
      "u": 88,
      "v": 89,
      "w": 90,
      "x": 91,
      "y": 92,
      "z": 93,
      "{": 94,
      "|": 95,
      "}": 96,
      "~": 97,
      "¡": 98,
      "¢": 99,
      "£": 100,
      "¤": 101,
      "¥": 102,
      "¦": 103,
      "§": 104,
      "¨": 105,
      "©": 106,
      "ª": 107,
      "«": 108,
      "¬": 109,
      "®": 110,
      "¯": 111,
      "°": 112,
      "±": 113,
      "²": 114,
      "³": 115,
      "´": 116,
      "µ": 117,
      "¶": 118,
      "·": 119,
      "¸": 120,
      "¹": 121,
      "º": 122,
      "»": 123,
      "¼": 124,
      "½": 125,
      "¾": 126,
      "¿": 127,
      "À": 128,
      "Á": 129,
      "Â": 130,
      "Ã": 131,
      "Ä": 132,
      "Å": 133,
      "Æ": 134,
      "Ç": 135,
      "È": 136,
      "É": 137,
      "Ê": 138,
      "Ë": 139,
      "Ì": 140,
      "Í": 141,
      "Î": 142,
      "Ï": 143,
      "Ð": 144,
      "Ñ": 145,
      "Ò": 146,
      "Ó": 147,
      "Ô": 148,
      "Õ": 149,
      "Ö": 150,
      "×": 151,
      "Ø": 152,
      "Ù": 153,
      "Ú": 154,
      "Û": 155,
      "Ü": 156,
      "Ý": 157,
      "Þ": 158,
      "ß": 159,
      "à": 160,
      "á": 161,
      "â": 162,
      "ã": 163,
      "ä": 164,
      "å": 165,
      "æ": 166,
      "ç": 167,
      "è": 168,
      "é": 169,
      "ê": 170,
      "ë": 171,
      "ì": 172,
      "í": 173,
      "î": 174,
      "ï": 175,
      "ð": 176,
      "ñ": 177,
      "ò": 178,
      "ó": 179,
      "ô": 180,
      "õ": 181,
      "ö": 182,
      "÷": 183,
      "ø": 184,
      "ù": 185,
      "ú": 186,
      "û": 187,
      "ü": 188,
      "ý": 189,
      "þ": 190,
      "ÿ": 191,
      "Ā": 192,
      "ā": 193,
      "Ă": 194,
      "ă": 195,
      "Ą": 196,
      "ą": 197,
      "Ć": 198,
      "ć": 199,
      "Ĉ": 200,
      "ĉ": 201,
      "Ċ": 202,
      "ċ": 203,
      "Č": 204,
      "č": 205,
      "Ď": 206,
      "ď": 207,
      "Đ": 208,
      "đ": 209,
      "Ē": 210,
      "ē": 211,
      "Ĕ": 212,
      "ĕ": 213,
      "Ė": 214,
      "ė": 215,
      "Ę": 216,
      "ę": 217,
      "Ě": 218,
      "ě": 219,
      "Ĝ": 220,
      "ĝ": 221,
      "Ğ": 222,
      "ğ": 223,
      "Ġ": 224,
      "ġ": 225,
      "Ģ": 226,
      "ģ": 227,
      "Ĥ": 228,
      "ĥ": 229,
      "Ħ": 230,
      "ħ": 231,
      "Ĩ": 232,
      "ĩ": 233,
      "Ī": 234,
      "ī": 235,
      "Ĭ": 236,
      "ĭ": 237,
      "Į": 238,
      "į": 239,
      "İ": 240,
      "ı": 241,
      "Ĳ": 242,
      "ĳ": 243,
      "Ĵ": 244,
      "ĵ": 245,
      "Ķ": 246,
      "ķ": 247,
      "ĸ": 248,
      "Ĺ": 249,
      "ĺ": 250,
      "Ļ": 251,
      "ļ": 252,
      "Ľ": 253,
      "ľ": 254,
      "Ŀ": 255,
      "ŀ": 256,
      "Ł": 257,
      "ł": 258,
      "Ń": 259,
      "Ø§": 260,
      "ÙĦ": 261,
      "ĠÙ": 262,
      "ĠØ": 263,
      "ÙĬ": 264,
      "Ø§ÙĦ": 265,
      "ÙĨ": 266,
      "Ùħ": 267,
      "Ø§Ø": 268,
      "ĠØ§ÙĦ": 269,
      "ÙĪ": 270,
      "Ø±": 271,
      "Ùĩ": 272,
      "Øª": 273,
      "Ùĥ": 274,
      "ĠÙĪ": 275,
      "Ø¨": 276,
      "Ø¯": 277,
      "Ø©": 278,
      "Ø¹": 279,
      "ĠÙħ": 280,
      "ØŃ": 281,
      "ÙĤ": 282,
      "Ùģ": 283,
      "Ø³": 284,
      "čĊ": 285,
      "ĠØ¨": 286,
      "ĠÙģ": 287,
      "ĠÙĦ": 288,
      "ĠØ¹": 289,
      "ĠÙĬ": 290,
      "Ø§ÙĨ": 291,
      "Ø¬": 292,
      "ĠØª": 293,
      "Ø´": 294,
      "ÙĦÙĩ": 295,
      "ĠØ£": 296,
      "Ùī": 297,
      "ÙĦÙĬ": 298,
      "ðŁ": 299,
      "Øµ": 300,
      "ĠÙģÙĬ": 301,
      "ĠÙĨ": 302,
      "ĠÙĥ": 303,
      "ĠØ±": 304,
      "Ø®": 305,
      "ÙĬÙĨ": 306,
      "ĠÙħÙĨ": 307,
      "Ø£": 308,
      "Ø·": 309,
      "Ø§Ø±": 310,
      "Ø§Øª": 311,
      "Ø§Ùħ": 312,
      "Ø²": 313,
      "ĠØ§ÙĦÙĦÙĩ": 314,
      "ĠÙĩ": 315,
      "Ø°": 316,
      "ÙĬØ±": 317,
      "Ø¶": 318,
      "ĠØ§Ø": 319,
      "ÙĨØ§": 320,
      "ÙĩØ§": 321,
      "ĠÙĤ": 322,
      "ĠØŃ": 323,
      "ĠØ§ÙĦÙħ": 324,
      "ÙĦÙī": 325,
      "ÙĬØ©": 326,
      "ðŁĺ": 327,
      "..": 328,
      "Ø¨ÙĬ": 329,
      "ĠØ´": 330,
      "ÙĦØ§": 331,
      "ÙĩÙħ": 332,
      "ÙĪÙĨ": 333,
      "Ø§Ø¨": 334,
      "Ø«": 335,
      "ĠØ³": 336,
      "ĠÙĪØ§ÙĦ": 337,
      "Ø§Ø¡": 338,
      "ÙĦÙħ": 339,
      "Ø¯ÙĬ": 340,
      "Ø§Ø¯": 341,
      "ØĮ": 342,
      "Ø±ÙĬ": 343,
      "Ø§Ùĥ": 344,
      "ÙĪÙĦ": 345,
      "ĠØ¬": 346,
      "ĠØ¥": 347,
      "Ø§Ø³": 348,
      "ĠØ®": 349,
      "ĠØ¯": 350,
      "Øº": 351,
      "ĠØ¹ÙĦÙī": 352,
      "ĠØ§ÙĨ": 353,
      "ØªÙĬ": 354,
      "Ø§Ø¹": 355,
      "âĿ": 356,
      "ÙħØ§": 357,
      "ĠØµ": 358,
      "âĿ¤": 359,
      "ĠØ¹ÙĦÙĬ": 360,
      "ÙĥÙħ": 361,
      "ĠØ§ÙĦØ¹": 362,
      "ĠØĮ": 363,
      "ĠØ¹ÙĨ": 364,
      "Ø§ØŃ": 365,
      "ÙĪØ±": 366,
      "Ø§Ùģ": 367,
      "Ø§ÙĬ": 368,
      "...": 369,
      "Ø§Ùĩ": 370,
      "ÙĨÙĬ": 371,
      "ĠØ£ÙĨ": 372,
      "ØŃÙħ": 373,
      "Ø§Ø¦": 374,
      "Ø¥": 375,
      "Ø¸": 376,
      "ÙĦÙĥ": 377,
      "ĠØ¨Ø§ÙĦ": 378,
      "ĠÙĦÙĬ": 379,
      "ĠÙħØ¹": 380,
      "ÙĥØ±": 381,
      "Ø§Ø´": 382,
      "ĠØ§ÙĦØ£": 383,
      "ÙĪØ§": 384,
      "Ø°Ø§": 385,
      "ðŁĺĤ": 386,
      "Ø§Ø°": 387,
      "ÙĪÙħ": 388,
      "ÙģÙĬ": 389,
      "Ø³Øª": 390,
      "Ø§Ø¬": 391,
      "Ø§ÙĪ": 392,
      "ĠØ§ÙĦØ³": 393,
      "ĠØ§ÙĦØ¬": 394,
      "ĠØ§ÙĦØª": 395,
      "ĠØ§ÙĦÙĨ": 396,
      "ĠØ§ÙĦØŃ": 397,
      "ĠÙħØ§": 398,
      "ĠØ§ÙĦÙĤ": 399,
      "Ø¨Ø±": 400,
      "ÙĬØ¯": 401,
      "ĠðŁ": 402,
      "ÙĦØ§Ùħ": 403,
      "ÙħÙĨ": 404,
      "ĠÙĦØ§": 405,
      "ĠØ§Ø³": 406,
      "ĠØº": 407,
      "ĠØªØ¹": 408,
      "Ġ.": 409,
      "ÙģØ±": 410,
      "ÙĦØ©": 411,
      "Ġ:": 412,
      "Ġ(": 413,
      "ĠØ§ÙĦØ¨": 414,
      "ĠØ·": 415,
      "Ø¯Ø±": 416,
      "Ø¹Ø¯": 417,
      "ĠØ§ÙĦØ´": 418,
      "ÙĦÙĪ": 419,
      "Ø±Ø¨": 420,
      "Ø§ÙĨÙĬ": 421,
      "ØªÙĪ": 422,
      "ON": 423,
      "EN": 424,
      "TI": 425,
      "MEN": 426,
      "TION": 427,
      "MENTION": 428,
      "ØµØŃ": 429,
      "ÙĪÙģ": 430,
      "ÙĨØª": 431,
      "ÙħÙĬ": 432,
      "Ġ...": 433,
      "ĠØ±Ø¨ÙĬ": 434,
      "ÙĤÙĬ": 435,
      "ĠÙĥÙĬ": 436,
      "ØŁ": 437,
      "ĠÙĦÙĦ": 438,
      "Ø±Ùĥ": 439,
      "ĠâĿ¤": 440,
      "Ġ-": 441,
      "ĠÙĥÙĦ": 442,
      "ÙĬØ§": 443,
      "ÙĬØ¨": 444,
      "ĠØ¹ÙĦÙĬÙĩ": 445,
      "ĠØ§ÙĦØ±": 446,
      "Ø±Ùģ": 447,
      "Ø³ÙĦÙħ": 448,
      "ĠÙĥØ§ÙĨ": 449,
      "Ġ1": 450,
      "Ø±Ø©": 451,
      "ÙĥÙĪÙĨ": 452,
      "ÙħØ¹": 453,
      "ĠÙĤØ§ÙĦ": 454,
      "ĠðŁĺ": 455,
      "ĠÙĪÙĦØ§": 456,
      "ÙĥÙĨ": 457,
      "ĠØ°": 458,
      "ÙħØ±": 459,
      "Ø¹ÙĪ": 460,
      "ØªÙĩ": 461,
      "ÙĤØ¯": 462,
      "ÙĤØ©": 463,
      "Ø³ÙĬ": 464,
      "Ġ\"": 465,
      "ĠÙĩØ°Ø§": 466,
      "Ø¯Ø©": 467,
      "ĠØ§ÙĦÙĥ": 468,
      "Ø§ÙĦÙĦÙĩ": 469,
      "Ø§ÙĨØ§": 470,
      "ĠØ§Ø³Øª": 471,
      "ĠÙĪÙĬ": 472,
      "Ø§Ø±Ùĥ": 473,
      "ĠÙĬØŃ": 474,
      "ĠÙĪØ£": 475,
      "Ø¹Ø©": 476,
      "Ø¨Ø©": 477,
      "Ø§Øµ": 478,
      "Ø±ÙĪ": 479,
      "Ġ2": 480,
      "Ø¢": 481,
      "ĠØªØŃ": 482,
      "ÙħØ©": 483,
      "ÙĤØª": 484,
      "Ø¤": 485,
      "ÙĥÙĬ": 486,
      "Ø¦": 487,
      "ĠÙĬØ¹": 488,
      "ĠØ§ÙĦØ¯": 489,
      "ou": 490,
      "ĠØ²": 491,
      "ĠØ§ÙĦØ®": 492,
      "ĠØ§ÙĦØµ": 493,
      "Ø§Ø³Øª": 494,
      "ĠØ§ÙĨØ§": 495,
      "ĠÙĬØ§": 496,
      "Ø§Ø²": 497,
      "Ø¯ÙĬÙĪ": 498,
      "ĠØ«": 499,
      "ÙĦØª": 500,
      "Ø¯Ø§": 501,
      "ĠÙĩÙĪ": 502,
      "ĠØ§ÙĦØ¥": 503,
      "ĠØ§ÙĦÙģ": 504,
      "ĠØ£ÙĪ": 505,
      "ĠØ¹ÙĨØ¯": 506,
      "Ø®Ø±": 507,
      "ĠØ¨ÙĨ": 508,
      "ĠÙĪØª": 509,
      "ÙĨØ©": 510,
      "ĠØŁ": 511,
      "Ġl": 512,
      "ÙĬÙĥ": 513,
      "ĠØ§ÙĦÙĪ": 514,
      "ĠØ§Ø®": 515,
      "Ø§Ø®": 516,
      "ha": 517,
      "ÙĤÙĪÙĦ": 518,
      "Ø±ØŃ": 519,
      "Ġm": 520,
      "Ø±Ø¨ÙĬ": 521,
      "ĠÙĪÙĩ": 522,
      "ÙĬÙħ": 523,
      "ÙĥØ±Ø§": 524,
      "Ġt": 525,
      "ĠØ§ÙĦØ°": 526,
      "ĠØ´Ø§Ø¡": 527,
      "ĠØªØ§Ø¹": 528,
      "ĠÙĦÙħ": 529,
      "ĠØºÙĬØ±": 530,
      "ØŃÙħØ¯": 531,
      "ÙĪØ¬": 532,
      "ĠØ¥ÙĦÙī": 533,
      "Ø¨ÙĦ": 534,
      "Ø§Ø·": 535,
      "ØªÙī": 536,
      "ÙĦØ¨": 537,
      "Ø§Ø©": 538,
      "ÙģØ³": 539,
      "ĠÙĪÙĨ": 540,
      "ĠÙĨØª": 541,
      "Ø¨Ø¯": 542,
      "ĠØ§Ùħ": 543,
      "ĠðŁĺĤ": 544,
      "ĠÙĩØ°": 545,
      "ÙĪØ¯": 546,
      "ÙĥÙĦ": 547,
      "ÙĦÙĤ": 548,
      "ØªÙĥ": 549,
      "ØŃÙĬ": 550,
      "Ø¹Ùħ": 551,
      "ØªÙħ": 552,
      "Ø³ÙĦØ§Ùħ": 553,
      "Ø§Ø¶": 554,
      "ĠÙĪØŃ": 555,
      "ÙĪØ¹": 556,
      "âĢ": 557,
      "ÙģØ¸": 558,
      "ÙĤØ±": 559,
      "ĠÙħØª": 560,
      "ĠÙĪØ³ÙĦÙħ": 561,
      "Ø§ÙĦÙħ": 562,
      "Ø§Ø±Ø¨": 563,
      "Ø¹Ø¨": 564,
      "Ø¹ÙĦ": 565,
      "ĠØ§Ø¨": 566,
      "ĠÙħØ´": 567,
      "ĠÙĪÙħ": 568,
      "ÙĤØ§ÙĦ": 569,
      "ÙĪÙĬ": 570,
      "ĠØ¥ÙĨ": 571,
      "ØªØ¨": 572,
      "ĠÙĦÙĩ": 573,
      "ĠÙĪØ¬": 574,
      "Ø¯ÙĬØ±": 575,
      "Ø¡": 576,
      "ØŃØ¨": 577,
      "Ø³Ùħ": 578,
      "ĠÙĪÙĦ": 579,
      "ĠØ§ÙĦØ·": 580,
      "ĠØ§ÙĦÙĬ": 581,
      "ĠØ±ÙĪ": 582,
      "Ø³Ø¨": 583,
      "ra": 584,
      "ÙģØ©": 585,
      "Ø§ÙĤ": 586,
      "ĠÙĬØ¬": 587,
      "ĠÙĪØ±": 588,
      "ÙĦÙĨØ§": 589,
      "ĠØ¨Ø²": 590,
      "ØŃÙĥ": 591,
      "ÙĪÙĥ": 592,
      "Ġb": 593,
      "ĠØ®ÙĬØ±": 594,
      "ï¸": 595,
      "ï¸ı": 596,
      "ÙĬØª": 597,
      "Ø£ÙĨ": 598,
      "Ġa": 599,
      "ÙĬØ®": 600,
      "Ø³ÙĨ": 601,
      "ĠØŃØªÙī": 602,
      "--": 603,
      "ĠØ¢": 604,
      "ĠØµÙĦÙī": 605,
      "es": 606,
      "ÙĪØª": 607,
      "ðŁ¤": 608,
      "Ø§Ø¯Ø©": 609,
      "ØŃØ©": 610,
      "ÙĬØ§Øª": 611,
      "ĠÙĪØ¹": 612,
      "ĠÙĬÙĨ": 613,
      "ĠÙĦÙĥ": 614,
      "Ø±Ø¬": 615,
      "ĠØ¨ÙĦ": 616,
      "Ø¥ÙĨ": 617,
      "Ø®ÙĦ": 618,
      "ĠØ¶": 619,
      "Ġd": 620,
      "Ø²Ø§Ø¦": 621,
      "ÙĤÙĪ": 622,
      "Ø«Ø±": 623,
      "Ø±Ø¶": 624,
      "ch": 625,
      "ØªØŃ": 626,
      "Ø¹ÙĬ": 627,
      "on": 628,
      "in": 629,
      "ĠÙĪØ¨": 630,
      "ÙħÙĦ": 631,
      "Ġ20": 632,
      "Ġ3": 633,
      "ĠØ¨Ùĩ": 634,
      "ØµÙĦ": 635,
      "ĠÙĪØ§ÙĦÙĦÙĩ": 636,
      "ÙĦÙĩØ§": 637,
      "Ġ)": 638,
      "ĠØ¹ÙĦÙĬÙĥÙħ": 639,
      "ÙĪØ±Ø©": 640,
      "ĠØ§Ø³ØªØ§Ø°": 641,
      "ÙĨØ³": 642,
      "ĠØ¨Ø¹Ø¯": 643,
      "ĠÙĪØ§ØŃ": 644,
      "ÙĪØ³": 645,
      "ÙĥØ§ÙĨ": 646,
      "Ø§ÙĦÙĬ": 647,
      "ÙģØ¶": 648,
      "Ġs": 649,
      "Ø§ÙħÙĦ": 650,
      "ĠØ§ÙĦØªÙĬ": 651,
      "ĠØ§ÙĪ": 652,
      "ĠØ¨Ø¹": 653,
      "ĠØ°ÙĦÙĥ": 654,
      "ĠÙģÙĬÙĥ": 655,
      "Ġw": 656,
      "ĠØ¨ÙĬÙĨ": 657,
      "ØªØ§Ø¨": 658,
      "la": 659,
      "ÙĩØ±": 660,
      "re": 661,
      "ØªØ±": 662,
      "ĠØ£Ø®": 663,
      "Ø²ÙĬ": 664,
      "**": 665,
      "Ø¬ØŃ": 666,
      "ĠÙĬØ±": 667,
      "ÙĩÙĦ": 668,
      "ĠÙģØ§ÙĦ": 669,
      "Ø¯Ùħ": 670,
      "Ġn": 671,
      "ĠÙĩØ°Ùĩ": 672,
      "ĠÙĨØ´": 673,
      "ĠØ§ØŃ": 674,
      "ØµØ©": 675,
      "ĠÙĩÙĬ": 676,
      "ĠÙĦÙĦÙĩ": 677,
      "ÙĬØ±Ø©": 678,
      "ĠÙģÙĬÙĩ": 679,
      "ĠÙħØ±": 680,
      "ðŁĴ": 681,
      "ÙĬÙĨØ§": 682,
      "ĠðŁ¤": 683,
      "ĠØ¨Ø²Ø§Ùģ": 684,
      "ØªØ´": 685,
      "ĠØ§": 686,
      "ÙĦØ³": 687,
      "Ø¯ÙĪ": 688,
      "ĠÙħÙĪ": 689,
      "Ġf": 690,
      "Ø®Øµ": 691,
      "Ø¨ØŃ": 692,
      "ĠØ§ÙĦØ°ÙĬ": 693,
      "Ø¨Ø§Ø±Ùĥ": 694,
      "ØªÙĩØ§": 695,
      "ĠØ§ÙĦØ«": 696,
      "ĠØ¨ÙĬ": 697,
      "ĠÙĥÙĬÙģ": 698,
      "Ø·ÙĬ": 699,
      "Ø¶ÙĬ": 700,
      "ĠÙħØŃ": 701,
      "Ġy": 702,
      "Ø§Ø¯ÙĬ": 703,
      "ÙĪØ¨": 704,
      "ĠØ¯ÙĬØ±": 705,
      "ĠØ£Ùħ": 706,
      "Ø§Ø³ØªØ§Ø°": 707,
      "ĠÙģÙĬÙĩØ§": 708,
      "ĠØ§ÙĬ": 709,
      "Ġ[": 710,
      "ĠØ±Ø¨": 711,
      "ĠÙĪØ´": 712,
      "ÙĦÙģ": 713,
      "ĠØ±Ø§Ùĥ": 714,
      "ÙĬØ´": 715,
      "Ġk": 716,
      "Ø§ÙĦÙī": 717,
      "ÙĤØ·": 718,
      "ĠÙĦÙĪ": 719,
      "ĠØ£ÙĬ": 720,
      "ĠØªØ¬": 721,
      "ĠØ§Ø±": 722,
      "Ġc": 723,
      "Ø§Ø±Ø©": 724,
      "ĠØ§Ø¯": 725,
      "ÙĪÙĦÙĬ": 726,
      "er": 727,
      "ĠÙģÙĬØ¯ÙĬÙĪ": 728,
      "ÙĬÙĦ": 729,
      "ĠÙĩÙĨØ§": 730,
      "ĠÙĪÙĦÙĬ": 731,
      "ØµØ±": 732,
      "Ø³ÙĪÙĦ": 733,
      "ĠÙĨØŃ": 734,
      "ĠâĿ¤âĿ¤": 735,
      "en": 736,
      "ĠØ¨ØµØŃ": 737,
      "ĠâĢ": 738,
      "Ġp": 739,
      "Ø«ÙĦ": 740,
      "Ø´Ø±": 741,
      "ĠØ§ÙĦÙĦÙĩÙħ": 742,
      "Ø¨Øª": 743,
      "ĠØ§ÙĦØ¬Ø²Ø§Ø¦": 744,
      "ĠÙĨØ¬": 745,
      "ĠðŁĺĤðŁĺĤ": 746,
      "ĠÙĪØ§ØŃØ¯": 747,
      "ĠØ´ÙĬ": 748,
      "Ø§Ø¨Ø©": 749,
      "ĠØ¥ÙĦØ§": 750,
      "Ø§ØªÙĩ": 751,
      "ĠÙĬØ§Ø±Ø¨": 752,
      "ĠØ§ÙĦØº": 753,
      "ĠÙĩÙĩ": 754,
      "ĠÙĬØª": 755,
      "Ø§ÙĬÙĨ": 756,
      "ðŁĺ¢": 757,
      "ÙģÙĬØ¯ÙĬÙĪ": 758,
      "ĠÙħÙĬ": 759,
      "ĠÙĬÙĪÙħ": 760,
      "ĠØ´ÙĥØ±Ø§": 761,
      "ĠØ®ÙĪ": 762,
      "Ø§ÙĬØ©": 763,
      "Ø¹Ø±": 764,
      "Ġ202": 765,
      "ĠÙħØ³": 766,
      "ĠÙĥÙĨØª": 767,
      "ØŃØ¯": 768,
      "00": 769,
      "Ø¶Ø§": 770,
      "ÙĤÙĦ": 771,
      "ÙĪÙĨÙĬ": 772,
      "Ø§ØªÙĥ": 773,
      "ĠØ§Ø¹": 774,
      "ĠØªØ¹Ø§ÙĦÙī": 775,
      "ĠÙĬØ´": 776,
      "ÙĤØ¯Ø±": 777,
      "ÙħÙĬØ¹": 778,
      "Ø¨Ø¹": 779,
      "ĠÙĪÙħÙĨ": 780,
      "an": 781,
      "ĠÙĥÙħØ§": 782,
      "ĠÙĨØ³": 783,
      "ĠØ¨ÙĦÙĬ": 784,
      "ĠÙĬØŃÙģØ¸": 785,
      "ÙħØª": 786,
      "ĠØªÙĪ": 787,
      "ĠÙĨÙģØ³": 788,
      "ĠØ±Ø§ÙĨÙĬ": 789,
      "ĠÙĥØ§ÙħÙĦ": 790,
      "ĠØ§ÙĦØ¨Ø§Ùĥ": 791,
      "ÙĪØ´": 792,
      "ĠØ¹ÙĦÙĬÙĥ": 793,
      "ĠÙħØ¬": 794,
      "ĠÙĦÙĥÙĨ": 795,
      "Ø¨Ùĩ": 796,
      "ÙģØª": 797,
      "ĠØ±Ø§Ùĩ": 798,
      "ĠØ¨Ùĥ": 799,
      "ĠØ¯Ø±": 800,
      "ĠÙĬÙĥÙĪÙĨ": 801,
      "Ø§Ø¹Ø©": 802,
      "ĠØ§Ø¨ÙĨ": 803,
      "ĠØ«Ùħ": 804,
      "ÙĪØ±ÙĬ": 805,
      "ĠØ³ÙĬ": 806,
      "ÙĩØ¯": 807,
      "ĠØ§ÙĦÙħÙĪ": 808,
      "ĠØ§Ø¬": 809,
      "ĠØ§ÙĦØ²": 810,
      "ĠØ¹Ø¨Ø¯": 811,
      "ĠÙĩÙĦ": 812,
      "ĠØ§ÙĦÙĤØ±": 813,
      "ĠØ±ØŃÙħ": 814,
      "is": 815,
      "ĠØ§ÙĦÙĨØ§Ø³": 816,
      "Ø¨ÙĪ": 817,
      "Ø³Ø±": 818,
      "ĠÙĤØ¯": 819,
      "ØŃØ±": 820,
      "Ø¹ÙĪÙĦÙĬ": 821,
      "ÙħÙĪ": 822,
      "ĠÙĬØ®": 823,
      "ĠØ§ÙĦØµØŃ": 824,
      "ÙĪÙģÙĤ": 825,
      "Ø§ÙĩÙħ": 826,
      "Ø«ÙĬØ±": 827,
      "ĠØªØ´": 828,
      "ĠØ§Ùĥ": 829,
      "ÙħÙĥÙĨ": 830,
      "ØºÙĬØ±": 831,
      "Ã©": 832,
      "Ø¹ÙĦÙħ": 833,
      "Ø¯ÙĬÙĨ": 834,
      "Ø§ÙĦÙĥ": 835,
      "Ø·Ø©": 836,
      "ĠÙħØŃÙħØ¯": 837,
      "ĠØµØŃ": 838,
      "ĠÙĬØ¯": 839,
      "ØµØµ": 840,
      "Ø¨Ø§": 841,
      "ĠØªÙĨ": 842,
      "ĠÙģØ¶": 843,
      "ĠÙĤØ¨ÙĦ": 844,
      "Ø¬ÙĦ": 845,
      "li": 846,
      "ĠØ¨Ø±Ùĥ": 847,
      "ĠØ§ÙĦØ¹ÙĦÙħ": 848,
      "ÙģØ¹": 849,
      "ĠÙĪÙĬÙĨ": 850,
      "ĠØ¨Ø§Ùĥ": 851,
      "Ø§ÙĦÙĦÙĩÙħ": 852,
      "==": 853,
      "ĠØ§ÙĦØ³ÙĦØ§Ùħ": 854,
      "ĠØ§ÙĦØ¬Ø²Ø§Ø¦Ø±": 855,
      "ĠØ±Ø³ÙĪÙĦ": 856,
      "ĠØªÙĤ": 857,
      "ÙģÙĩÙħ": 858,
      "ÙĪÙĩ": 859,
      "ĠÙħÙĦÙĬ": 860,
      "ĠØ¥ÙĦÙĬ": 861,
      "na": 862,
      "ti": 863,
      "Ø´ÙĥØ±Ø§": 864,
      "ĠðŁĺ¢": 865,
      "âĿ¤âĿ¤": 866,
      "Ø³ØªØ§Ø°": 867,
      "Ø§ÙĦØ©": 868,
      "Ø¢ÙĨ": 869,
      "ĠÙĥØ§ÙĨØª": 870,
      "İī": 871,
      "ĠØ§ÙĦÙĦ": 872,
      "ÙĦÙĬÙĦ": 873,
      "Ø§Ø«": 874,
      "Ø§ÙħØ©": 875,
      "ĠÙĪØ§Ø´": 876,
      "ĠØ§ÙĨØª": 877,
      "Ø²ÙĬØ¯": 878,
      "Ġh": 879,
      "Ø¯ÙĬØ«": 880,
      "ĠØ¹Ùħ": 881,
      "ÙĪØ©": 882,
      "ĠÙħØ§Ø´": 883,
      "ĠÙĪÙĥ": 884,
      "Ø¹Øª": 885,
      "ĠÙĪÙĩÙĪ": 886,
      "Ø§Ø±ÙĬ": 887,
      "ÙĪÙĤ": 888,
      "ĠÙģØ±": 889,
      "ĠØ¨Ø¹Ø¶": 890,
      "ar": 891,
      "ĠØ¨Ø¯": 892,
      "ðŁĺĤðŁĺĤ": 893,
      "Ø°ÙĦÙĥ": 894,
      "ĠØ§ÙĦØ¹Ø§ÙĦÙħ": 895,
      "Ø®Ø±Ø¬": 896,
      "__": 897,
      "ĠðŁĴ": 898,
      "Ø¹Ø±Ùģ": 899,
      "ĠÙĪÙģ": 900,
      "ĠÙĬØŃÙģØ¸Ùĥ": 901,
      "ĠØ§Øª": 902,
      "ÙģØ±Ø¬": 903,
      "ĠÙĬÙĤÙĪÙĦ": 904,
      "ÙĬÙĨÙĬ": 905,
      "ĠØ¥Ø°Ø§": 906,
      "ĠØªØª": 907,
      "ĠØ¨Ø§Ø±Ùĥ": 908,
      "ĠÙĪØ³": 909,
      "ĠÙĪÙĦÙĥ": 910,
      "Ø³Ø§ÙĨ": 911,
      "ÙĦÙĩÙħ": 912,
      "ĠÙĬØ³": 913,
      "ĠØ§ÙĦÙħÙĨ": 914,
      "ĠØ§Ùģ": 915,
      "ĠÙĦØ£ÙĨ": 916,
      "ĠØ¨Ø§ÙĦÙħ": 917,
      "Ø§Ø°Ø§": 918,
      "Ġ,": 919,
      "ĠÙĪØ§ÙĦÙħ": 920,
      "ĠØ§ÙĦÙĨØ¨ÙĬ": 921,
      "Ø¬Ø±": 922,
      "ĠØ¹ÙĦ": 923,
      "ĠØŃÙĥ": 924,
      "Ø§ÙĪÙĦ": 925,
      "Ø§ÙĦØ³ÙĦØ§Ùħ": 926,
      "----": 927,
      "ÙĩÙħØ§": 928,
      "Ø´ÙĬ": 929,
      "Ġv": 930,
      "ĠØ¹ÙĨÙĩ": 931,
      "ĠØ¨Ùħ": 932,
      "ĠØ§ÙĦÙħØ±": 933,
      "ĠØ¨Ø±": 934,
      "ĠØªÙħ": 935,
      "om": 936,
      "ÙĨØ¯": 937,
      "ĠØ§ÙĦØ§Ø³": 938,
      "ĠØªØ³": 939,
      "ĠÙĪØ¥": 940,
      "Ø±ÙĬÙħ": 941,
      "ĠÙĪØµ": 942,
      "ĠÙĦØ¨": 943,
      "Ø§ÙĦØŃ": 944,
      "ĠØ¹ÙĦÙħ": 945,
      "Ġ4": 946,
      "ÙħÙĬÙĨ": 947,
      "ĠØ¨Ø§Ø´": 948,
      "ÙħØ§ÙĨ": 949,
      "Ø¸Ø±": 950,
      "ÙĩÙĪ": 951,
      "Ø·Ø±": 952,
      "Ø±Ø¨ÙĬØ©": 953,
      "ĠÙĩØ§Ø¯": 954,
      "ĠØ§ÙĦÙħØ´": 955,
      "ĠØªØ®": 956,
      "ĠØªÙĥÙĪÙĨ": 957,
      "al": 958,
      "el": 959,
      "ĠØ£Ø³": 960,
      "ĠØ§ÙĦÙģØ±": 961,
      "id": 962,
      "Ø²ÙĤ": 963,
      "Ø¨ÙĤ": 964,
      "ĠØ§ÙĦØ§ÙĨ": 965,
      "ĠØŃÙĬ": 966,
      "ĠÙĤØ±": 967,
      "Ø¯ÙĬØ¯": 968,
      "ĠÙĨØµ": 969,
      "ĠØ§ÙĦÙī": 970,
      "ĠÙħØ§Øª": 971,
      "ÙĪØ±ÙĬØ§": 972,
      "ĠÙĪÙĤ": 973,
      "Ø§Ø¬Ø©": 974,
      "ðŁ¥": 975,
      "Ø²Ø§Ùĥ": 976,
      "Ø¶ÙĪØ¹": 977,
      "Ø·ÙĦ": 978,
      "ĠÙĬØ³Øª": 979,
      "ĠØŁØŁ": 980,
      "ĠÙĦÙĦÙħ": 981,
      "ĠØ¸": 982,
      "Ø¶ÙĦ": 983,
      "ĠÙħØ³Øª": 984,
      "ĠØªØ±": 985,
      "Ø¬Ø¨": 986,
      "ĠÙĪÙģÙĬ": 987,
      "ÙĪØ§Øª": 988,
      "ĠØ¯Ø§Ø±": 989,
      "Ø¯Ùī": 990,
      "ĠÙĬÙĪÙģÙĤ": 991,
      "ĠÙģØ¥ÙĨ": 992,
      "ĠÙĥÙĬÙħØ§": 993,
      "ĠÙĦØ¹": 994,
      "Ġâ": 995,
      "ĠØ£ÙĨØ§": 996,
      "ÙĦÙĬØ©": 997,
      "Ġma": 998,
      "ÙħÙĨÙī": 999
    },
    "merges": [
      [
        "Ø",
        "§"
      ],
      [
        "Ù",
        "Ħ"
      ],
      [
        "Ġ",
        "Ù"
      ],
      [
        "Ġ",
        "Ø"
      ],
      [
        "Ù",
        "Ĭ"
      ],
      [
        "Ø§",
        "ÙĦ"
      ],
      [
        "Ù",
        "Ĩ"
      ],
      [
        "Ù",
        "ħ"
      ],
      [
        "Ø§",
        "Ø"
      ],
      [
        "Ġ",
        "Ø§ÙĦ"
      ],
      [
        "Ù",
        "Ī"
      ],
      [
        "Ø",
        "±"
      ],
      [
        "Ù",
        "ĩ"
      ],
      [
        "Ø",
        "ª"
      ],
      [
        "Ù",
        "ĥ"
      ],
      [
        "ĠÙ",
        "Ī"
      ],
      [
        "Ø",
        "¨"
      ],
      [
        "Ø",
        "¯"
      ],
      [
        "Ø",
        "©"
      ],
      [
        "Ø",
        "¹"
      ],
      [
        "ĠÙ",
        "ħ"
      ],
      [
        "Ø",
        "Ń"
      ],
      [
        "Ù",
        "Ĥ"
      ],
      [
        "Ù",
        "ģ"
      ],
      [
        "Ø",
        "³"
      ],
      [
        "č",
        "Ċ"
      ],
      [
        "ĠØ",
        "¨"
      ],
      [
        "ĠÙ",
        "ģ"
      ],
      [
        "Ġ",
        "ÙĦ"
      ],
      [
        "ĠØ",
        "¹"
      ],
      [
        "ĠÙ",
        "Ĭ"
      ],
      [
        "Ø§",
        "ÙĨ"
      ],
      [
        "Ø",
        "¬"
      ],
      [
        "ĠØ",
        "ª"
      ],
      [
        "Ø",
        "´"
      ],
      [
        "ÙĦ",
        "Ùĩ"
      ],
      [
        "ĠØ",
        "£"
      ],
      [
        "Ù",
        "ī"
      ],
      [
        "ÙĦ",
        "ÙĬ"
      ],
      [
        "ð",
        "Ł"
      ],
      [
        "Ø",
        "µ"
      ],
      [
        "ĠÙģ",
        "ÙĬ"
      ],
      [
        "ĠÙ",
        "Ĩ"
      ],
      [
        "ĠÙ",
        "ĥ"
      ],
      [
        "ĠØ",
        "±"
      ],
      [
        "Ø",
        "®"
      ],
      [
        "ÙĬ",
        "ÙĨ"
      ],
      [
        "ĠÙħ",
        "ÙĨ"
      ],
      [
        "Ø",
        "£"
      ],
      [
        "Ø",
        "·"
      ],
      [
        "Ø§Ø",
        "±"
      ],
      [
        "Ø§Ø",
        "ª"
      ],
      [
        "Ø§",
        "Ùħ"
      ],
      [
        "Ø",
        "²"
      ],
      [
        "ĠØ§ÙĦ",
        "ÙĦÙĩ"
      ],
      [
        "ĠÙ",
        "ĩ"
      ],
      [
        "Ø",
        "°"
      ],
      [
        "ÙĬ",
        "Ø±"
      ],
      [
        "Ø",
        "¶"
      ],
      [
        "Ġ",
        "Ø§Ø"
      ],
      [
        "ÙĨ",
        "Ø§"
      ],
      [
        "Ùĩ",
        "Ø§"
      ],
      [
        "ĠÙ",
        "Ĥ"
      ],
      [
        "ĠØ",
        "Ń"
      ],
      [
        "ĠØ§ÙĦ",
        "Ùħ"
      ],
      [
        "ÙĦ",
        "Ùī"
      ],
      [
        "ÙĬ",
        "Ø©"
      ],
      [
        "ðŁ",
        "ĺ"
      ],
      [
        ".",
        "."
      ],
      [
        "Ø¨",
        "ÙĬ"
      ],
      [
        "ĠØ",
        "´"
      ],
      [
        "ÙĦ",
        "Ø§"
      ],
      [
        "Ùĩ",
        "Ùħ"
      ],
      [
        "ÙĪ",
        "ÙĨ"
      ],
      [
        "Ø§Ø",
        "¨"
      ],
      [
        "Ø",
        "«"
      ],
      [
        "ĠØ",
        "³"
      ],
      [
        "ĠÙĪ",
        "Ø§ÙĦ"
      ],
      [
        "Ø§Ø",
        "¡"
      ],
      [
        "ÙĦ",
        "Ùħ"
      ],
      [
        "Ø¯",
        "ÙĬ"
      ],
      [
        "Ø§Ø",
        "¯"
      ],
      [
        "Ø",
        "Į"
      ],
      [
        "Ø±",
        "ÙĬ"
      ],
      [
        "Ø§",
        "Ùĥ"
      ],
      [
        "ÙĪ",
        "ÙĦ"
      ],
      [
        "ĠØ",
        "¬"
      ],
      [
        "ĠØ",
        "¥"
      ],
      [
        "Ø§Ø",
        "³"
      ],
      [
        "ĠØ",
        "®"
      ],
      [
        "ĠØ",
        "¯"
      ],
      [
        "Ø",
        "º"
      ],
      [
        "ĠØ¹",
        "ÙĦÙī"
      ],
      [
        "Ġ",
        "Ø§ÙĨ"
      ],
      [
        "Øª",
        "ÙĬ"
      ],
      [
        "Ø§Ø",
        "¹"
      ],
      [
        "â",
        "Ŀ"
      ],
      [
        "Ùħ",
        "Ø§"
      ],
      [
        "ĠØ",
        "µ"
      ],
      [
        "âĿ",
        "¤"
      ],
      [
        "ĠØ¹",
        "ÙĦÙĬ"
      ],
      [
        "Ùĥ",
        "Ùħ"
      ],
      [
        "ĠØ§ÙĦ",
        "Ø¹"
      ],
      [
        "ĠØ",
        "Į"
      ],
      [
        "ĠØ¹",
        "ÙĨ"
      ],
      [
        "Ø§Ø",
        "Ń"
      ],
      [
        "ÙĪ",
        "Ø±"
      ],
      [
        "Ø§",
        "Ùģ"
      ],
      [
        "Ø§",
        "ÙĬ"
      ],
      [
        "..",
        "."
      ],
      [
        "Ø§",
        "Ùĩ"
      ],
      [
        "ÙĨ",
        "ÙĬ"
      ],
      [
        "ĠØ£",
        "ÙĨ"
      ],
      [
        "ØŃ",
        "Ùħ"
      ],
      [
        "Ø§Ø",
        "¦"
      ],
      [
        "Ø",
        "¥"
      ],
      [
        "Ø",
        "¸"
      ],
      [
        "ÙĦ",
        "Ùĥ"
      ],
      [
        "ĠØ¨",
        "Ø§ÙĦ"
      ],
      [
        "ĠÙĦ",
        "ÙĬ"
      ],
      [
        "ĠÙħ",
        "Ø¹"
      ],
      [
        "Ùĥ",
        "Ø±"
      ],
      [
        "Ø§Ø",
        "´"
      ],
      [
        "ĠØ§ÙĦ",
        "Ø£"
      ],
      [
        "ÙĪ",
        "Ø§"
      ],
      [
        "Ø°",
        "Ø§"
      ],
      [
        "ðŁĺ",
        "Ĥ"
      ],
      [
        "Ø§Ø",
        "°"
      ],
      [
        "ÙĪ",
        "Ùħ"
      ],
      [
        "Ùģ",
        "ÙĬ"
      ],
      [
        "Ø³",
        "Øª"
      ],
      [
        "Ø§Ø",
        "¬"
      ],
      [
        "Ø§",
        "ÙĪ"
      ],
      [
        "ĠØ§ÙĦ",
        "Ø³"
      ],
      [
        "ĠØ§ÙĦ",
        "Ø¬"
      ],
      [
        "ĠØ§ÙĦ",
        "Øª"
      ],
      [
        "ĠØ§ÙĦ",
        "ÙĨ"
      ],
      [
        "ĠØ§ÙĦ",
        "ØŃ"
      ],
      [
        "ĠÙħ",
        "Ø§"
      ],
      [
        "ĠØ§ÙĦ",
        "ÙĤ"
      ],
      [
        "Ø¨",
        "Ø±"
      ],
      [
        "ÙĬ",
        "Ø¯"
      ],
      [
        "Ġ",
        "ðŁ"
      ],
      [
        "ÙĦ",
        "Ø§Ùħ"
      ],
      [
        "Ùħ",
        "ÙĨ"
      ],
      [
        "ĠÙĦ",
        "Ø§"
      ],
      [
        "ĠØ§Ø",
        "³"
      ],
      [
        "ĠØ",
        "º"
      ],
      [
        "ĠØª",
        "Ø¹"
      ],
      [
        "Ġ",
        "."
      ],
      [
        "Ùģ",
        "Ø±"
      ],
      [
        "ÙĦ",
        "Ø©"
      ],
      [
        "Ġ",
        ":"
      ],
      [
        "Ġ",
        "("
      ],
      [
        "ĠØ§ÙĦ",
        "Ø¨"
      ],
      [
        "ĠØ",
        "·"
      ],
      [
        "Ø¯",
        "Ø±"
      ],
      [
        "Ø¹",
        "Ø¯"
      ],
      [
        "ĠØ§ÙĦ",
        "Ø´"
      ],
      [
        "ÙĦ",
        "ÙĪ"
      ],
      [
        "Ø±",
        "Ø¨"
      ],
      [
        "Ø§ÙĨ",
        "ÙĬ"
      ],
      [
        "Øª",
        "ÙĪ"
      ],
      [
        "O",
        "N"
      ],
      [
        "E",
        "N"
      ],
      [
        "T",
        "I"
      ],
      [
        "M",
        "EN"
      ],
      [
        "TI",
        "ON"
      ],
      [
        "MEN",
        "TION"
      ],
      [
        "Øµ",
        "ØŃ"
      ],
      [
        "ÙĪ",
        "Ùģ"
      ],
      [
        "ÙĨ",
        "Øª"
      ],
      [
        "Ùħ",
        "ÙĬ"
      ],
      [
        "Ġ",
        "..."
      ],
      [
        "ĠØ±",
        "Ø¨ÙĬ"
      ],
      [
        "ÙĤ",
        "ÙĬ"
      ],
      [
        "ĠÙĥ",
        "ÙĬ"
      ],
      [
        "Ø",
        "Ł"
      ],
      [
        "ĠÙĦ",
        "ÙĦ"
      ],
      [
        "Ø±",
        "Ùĥ"
      ],
      [
        "Ġ",
        "âĿ¤"
      ],
      [
        "Ġ",
        "-"
      ],
      [
        "ĠÙĥ",
        "ÙĦ"
      ],
      [
        "ÙĬ",
        "Ø§"
      ],
      [
        "ÙĬ",
        "Ø¨"
      ],
      [
        "ĠØ¹ÙĦÙĬ",
        "Ùĩ"
      ],
      [
        "ĠØ§ÙĦ",
        "Ø±"
      ],
      [
        "Ø±",
        "Ùģ"
      ],
      [
        "Ø³",
        "ÙĦÙħ"
      ],
      [
        "ĠÙĥ",
        "Ø§ÙĨ"
      ],
      [
        "Ġ",
        "1"
      ],
      [
        "Ø±",
        "Ø©"
      ],
      [
        "Ùĥ",
        "ÙĪÙĨ"
      ],
      [
        "Ùħ",
        "Ø¹"
      ],
      [
        "ĠÙĤ",
        "Ø§ÙĦ"
      ],
      [
        "Ġ",
        "ðŁĺ"
      ],
      [
        "ĠÙĪ",
        "ÙĦØ§"
      ],
      [
        "Ùĥ",
        "ÙĨ"
      ],
      [
        "ĠØ",
        "°"
      ],
      [
        "Ùħ",
        "Ø±"
      ],
      [
        "Ø¹",
        "ÙĪ"
      ],
      [
        "Øª",
        "Ùĩ"
      ],
      [
        "ÙĤ",
        "Ø¯"
      ],
      [
        "ÙĤ",
        "Ø©"
      ],
      [
        "Ø³",
        "ÙĬ"
      ],
      [
        "Ġ",
        "\""
      ],
      [
        "ĠÙĩ",
        "Ø°Ø§"
      ],
      [
        "Ø¯",
        "Ø©"
      ],
      [
        "ĠØ§ÙĦ",
        "Ùĥ"
      ],
      [
        "Ø§ÙĦ",
        "ÙĦÙĩ"
      ],
      [
        "Ø§ÙĨ",
        "Ø§"
      ],
      [
        "ĠØ§Ø³",
        "Øª"
      ],
      [
        "ĠÙĪ",
        "ÙĬ"
      ],
      [
        "Ø§Ø±",
        "Ùĥ"
      ],
      [
        "ĠÙĬ",
        "ØŃ"
      ],
      [
        "ĠÙĪ",
        "Ø£"
      ],
      [
        "Ø¹",
        "Ø©"
      ],
      [
        "Ø¨",
        "Ø©"
      ],
      [
        "Ø§Ø",
        "µ"
      ],
      [
        "Ø±",
        "ÙĪ"
      ],
      [
        "Ġ",
        "2"
      ],
      [
        "Ø",
        "¢"
      ],
      [
        "ĠØª",
        "ØŃ"
      ],
      [
        "Ùħ",
        "Ø©"
      ],
      [
        "ÙĤ",
        "Øª"
      ],
      [
        "Ø",
        "¤"
      ],
      [
        "Ùĥ",
        "ÙĬ"
      ],
      [
        "Ø",
        "¦"
      ],
      [
        "ĠÙĬ",
        "Ø¹"
      ],
      [
        "ĠØ§ÙĦ",
        "Ø¯"
      ],
      [
        "o",
        "u"
      ],
      [
        "ĠØ",
        "²"
      ],
      [
        "ĠØ§ÙĦ",
        "Ø®"
      ],
      [
        "ĠØ§ÙĦ",
        "Øµ"
      ],
      [
        "Ø§Ø³",
        "Øª"
      ],
      [
        "ĠØ§ÙĨ",
        "Ø§"
      ],
      [
        "ĠÙĬ",
        "Ø§"
      ],
      [
        "Ø§Ø",
        "²"
      ],
      [
        "Ø¯ÙĬ",
        "ÙĪ"
      ],
      [
        "ĠØ",
        "«"
      ],
      [
        "ÙĦ",
        "Øª"
      ],
      [
        "Ø¯",
        "Ø§"
      ],
      [
        "ĠÙĩ",
        "ÙĪ"
      ],
      [
        "ĠØ§ÙĦ",
        "Ø¥"
      ],
      [
        "ĠØ§ÙĦ",
        "Ùģ"
      ],
      [
        "ĠØ£",
        "ÙĪ"
      ],
      [
        "ĠØ¹ÙĨ",
        "Ø¯"
      ],
      [
        "Ø®",
        "Ø±"
      ],
      [
        "ĠØ¨",
        "ÙĨ"
      ],
      [
        "ĠÙĪ",
        "Øª"
      ],
      [
        "ÙĨ",
        "Ø©"
      ],
      [
        "ĠØ",
        "Ł"
      ],
      [
        "Ġ",
        "l"
      ],
      [
        "ÙĬ",
        "Ùĥ"
      ],
      [
        "ĠØ§ÙĦ",
        "ÙĪ"
      ],
      [
        "ĠØ§Ø",
        "®"
      ],
      [
        "Ø§Ø",
        "®"
      ],
      [
        "h",
        "a"
      ],
      [
        "ÙĤ",
        "ÙĪÙĦ"
      ],
      [
        "Ø±",
        "ØŃ"
      ],
      [
        "Ġ",
        "m"
      ],
      [
        "Ø±",
        "Ø¨ÙĬ"
      ],
      [
        "ĠÙĪ",
        "Ùĩ"
      ],
      [
        "ÙĬ",
        "Ùħ"
      ],
      [
        "ÙĥØ±",
        "Ø§"
      ],
      [
        "Ġ",
        "t"
      ],
      [
        "ĠØ§ÙĦ",
        "Ø°"
      ],
      [
        "ĠØ´",
        "Ø§Ø¡"
      ],
      [
        "ĠØª",
        "Ø§Ø¹"
      ],
      [
        "ĠÙĦ",
        "Ùħ"
      ],
      [
        "ĠØº",
        "ÙĬØ±"
      ],
      [
        "ØŃÙħ",
        "Ø¯"
      ],
      [
        "ÙĪ",
        "Ø¬"
      ],
      [
        "ĠØ¥",
        "ÙĦÙī"
      ],
      [
        "Ø¨",
        "ÙĦ"
      ],
      [
        "Ø§Ø",
        "·"
      ],
      [
        "Øª",
        "Ùī"
      ],
      [
        "ÙĦ",
        "Ø¨"
      ],
      [
        "Ø§Ø",
        "©"
      ],
      [
        "Ùģ",
        "Ø³"
      ],
      [
        "ĠÙĪ",
        "ÙĨ"
      ],
      [
        "ĠÙĨ",
        "Øª"
      ],
      [
        "Ø¨",
        "Ø¯"
      ],
      [
        "Ġ",
        "Ø§Ùħ"
      ],
      [
        "Ġ",
        "ðŁĺĤ"
      ],
      [
        "ĠÙĩ",
        "Ø°"
      ],
      [
        "ÙĪ",
        "Ø¯"
      ],
      [
        "Ùĥ",
        "ÙĦ"
      ],
      [
        "ÙĦ",
        "ÙĤ"
      ],
      [
        "Øª",
        "Ùĥ"
      ],
      [
        "ØŃ",
        "ÙĬ"
      ],
      [
        "Ø¹",
        "Ùħ"
      ],
      [
        "Øª",
        "Ùħ"
      ],
      [
        "Ø³",
        "ÙĦØ§Ùħ"
      ],
      [
        "Ø§Ø",
        "¶"
      ],
      [
        "ĠÙĪ",
        "ØŃ"
      ],
      [
        "ÙĪ",
        "Ø¹"
      ],
      [
        "â",
        "Ģ"
      ],
      [
        "Ùģ",
        "Ø¸"
      ],
      [
        "ÙĤ",
        "Ø±"
      ],
      [
        "ĠÙħ",
        "Øª"
      ],
      [
        "ĠÙĪ",
        "Ø³ÙĦÙħ"
      ],
      [
        "Ø§ÙĦ",
        "Ùħ"
      ],
      [
        "Ø§Ø±",
        "Ø¨"
      ],
      [
        "Ø¹",
        "Ø¨"
      ],
      [
        "Ø¹",
        "ÙĦ"
      ],
      [
        "ĠØ§Ø",
        "¨"
      ],
      [
        "ĠÙħ",
        "Ø´"
      ],
      [
        "ĠÙĪ",
        "Ùħ"
      ],
      [
        "ÙĤ",
        "Ø§ÙĦ"
      ],
      [
        "ÙĪ",
        "ÙĬ"
      ],
      [
        "ĠØ¥",
        "ÙĨ"
      ],
      [
        "Øª",
        "Ø¨"
      ],
      [
        "ĠÙĦ",
        "Ùĩ"
      ],
      [
        "ĠÙĪ",
        "Ø¬"
      ],
      [
        "Ø¯",
        "ÙĬØ±"
      ],
      [
        "Ø",
        "¡"
      ],
      [
        "ØŃ",
        "Ø¨"
      ],
      [
        "Ø³",
        "Ùħ"
      ],
      [
        "ĠÙĪ",
        "ÙĦ"
      ],
      [
        "ĠØ§ÙĦ",
        "Ø·"
      ],
      [
        "ĠØ§ÙĦ",
        "ÙĬ"
      ],
      [
        "ĠØ±",
        "ÙĪ"
      ],
      [
        "Ø³",
        "Ø¨"
      ],
      [
        "r",
        "a"
      ],
      [
        "Ùģ",
        "Ø©"
      ],
      [
        "Ø§",
        "ÙĤ"
      ],
      [
        "ĠÙĬ",
        "Ø¬"
      ],
      [
        "ĠÙĪ",
        "Ø±"
      ],
      [
        "ÙĦ",
        "ÙĨØ§"
      ],
      [
        "ĠØ¨",
        "Ø²"
      ],
      [
        "ØŃ",
        "Ùĥ"
      ],
      [
        "ÙĪ",
        "Ùĥ"
      ],
      [
        "Ġ",
        "b"
      ],
      [
        "ĠØ®",
        "ÙĬØ±"
      ],
      [
        "ï",
        "¸"
      ],
      [
        "ï¸",
        "ı"
      ],
      [
        "ÙĬ",
        "Øª"
      ],
      [
        "Ø£",
        "ÙĨ"
      ],
      [
        "Ġ",
        "a"
      ],
      [
        "ÙĬ",
        "Ø®"
      ],
      [
        "Ø³",
        "ÙĨ"
      ],
      [
        "ĠØŃ",
        "ØªÙī"
      ],
      [
        "-",
        "-"
      ],
      [
        "ĠØ",
        "¢"
      ],
      [
        "ĠØµ",
        "ÙĦÙī"
      ],
      [
        "e",
        "s"
      ],
      [
        "ÙĪ",
        "Øª"
      ],
      [
        "ðŁ",
        "¤"
      ],
      [
        "Ø§Ø¯",
        "Ø©"
      ],
      [
        "ØŃ",
        "Ø©"
      ],
      [
        "ÙĬ",
        "Ø§Øª"
      ],
      [
        "ĠÙĪ",
        "Ø¹"
      ],
      [
        "ĠÙĬ",
        "ÙĨ"
      ],
      [
        "ĠÙĦ",
        "Ùĥ"
      ],
      [
        "Ø±",
        "Ø¬"
      ],
      [
        "ĠØ¨",
        "ÙĦ"
      ],
      [
        "Ø¥",
        "ÙĨ"
      ],
      [
        "Ø®",
        "ÙĦ"
      ],
      [
        "ĠØ",
        "¶"
      ],
      [
        "Ġ",
        "d"
      ],
      [
        "Ø²",
        "Ø§Ø¦"
      ],
      [
        "ÙĤ",
        "ÙĪ"
      ],
      [
        "Ø«",
        "Ø±"
      ],
      [
        "Ø±",
        "Ø¶"
      ],
      [
        "c",
        "h"
      ],
      [
        "Øª",
        "ØŃ"
      ],
      [
        "Ø¹",
        "ÙĬ"
      ],
      [
        "o",
        "n"
      ],
      [
        "i",
        "n"
      ],
      [
        "ĠÙĪ",
        "Ø¨"
      ],
      [
        "Ùħ",
        "ÙĦ"
      ],
      [
        "Ġ2",
        "0"
      ],
      [
        "Ġ",
        "3"
      ],
      [
        "ĠØ¨",
        "Ùĩ"
      ],
      [
        "Øµ",
        "ÙĦ"
      ],
      [
        "ĠÙĪØ§ÙĦ",
        "ÙĦÙĩ"
      ],
      [
        "ÙĦÙĩ",
        "Ø§"
      ],
      [
        "Ġ",
        ")"
      ],
      [
        "ĠØ¹ÙĦÙĬ",
        "ÙĥÙħ"
      ],
      [
        "ÙĪØ±",
        "Ø©"
      ],
      [
        "ĠØ§Ø³Øª",
        "Ø§Ø°"
      ],
      [
        "ÙĨ",
        "Ø³"
      ],
      [
        "ĠØ¨",
        "Ø¹Ø¯"
      ],
      [
        "ĠÙĪ",
        "Ø§ØŃ"
      ],
      [
        "ÙĪ",
        "Ø³"
      ],
      [
        "Ùĥ",
        "Ø§ÙĨ"
      ],
      [
        "Ø§ÙĦ",
        "ÙĬ"
      ],
      [
        "Ùģ",
        "Ø¶"
      ],
      [
        "Ġ",
        "s"
      ],
      [
        "Ø§Ùħ",
        "ÙĦ"
      ],
      [
        "ĠØ§ÙĦ",
        "ØªÙĬ"
      ],
      [
        "Ġ",
        "Ø§ÙĪ"
      ],
      [
        "ĠØ¨",
        "Ø¹"
      ],
      [
        "ĠØ°",
        "ÙĦÙĥ"
      ],
      [
        "ĠÙģÙĬ",
        "Ùĥ"
      ],
      [
        "Ġ",
        "w"
      ],
      [
        "ĠØ¨",
        "ÙĬÙĨ"
      ],
      [
        "Øª",
        "Ø§Ø¨"
      ],
      [
        "l",
        "a"
      ],
      [
        "Ùĩ",
        "Ø±"
      ],
      [
        "r",
        "e"
      ],
      [
        "Øª",
        "Ø±"
      ],
      [
        "ĠØ£",
        "Ø®"
      ],
      [
        "Ø²",
        "ÙĬ"
      ],
      [
        "*",
        "*"
      ],
      [
        "Ø¬",
        "ØŃ"
      ],
      [
        "ĠÙĬ",
        "Ø±"
      ],
      [
        "Ùĩ",
        "ÙĦ"
      ],
      [
        "ĠÙģ",
        "Ø§ÙĦ"
      ],
      [
        "Ø¯",
        "Ùħ"
      ],
      [
        "Ġ",
        "n"
      ],
      [
        "ĠÙĩØ°",
        "Ùĩ"
      ],
      [
        "ĠÙĨ",
        "Ø´"
      ],
      [
        "ĠØ§Ø",
        "Ń"
      ],
      [
        "Øµ",
        "Ø©"
      ],
      [
        "ĠÙĩ",
        "ÙĬ"
      ],
      [
        "ĠÙĦ",
        "ÙĦÙĩ"
      ],
      [
        "ÙĬØ±",
        "Ø©"
      ],
      [
        "ĠÙģÙĬ",
        "Ùĩ"
      ],
      [
        "ĠÙħ",
        "Ø±"
      ],
      [
        "ðŁ",
        "Ĵ"
      ],
      [
        "ÙĬÙĨ",
        "Ø§"
      ],
      [
        "ĠðŁ",
        "¤"
      ],
      [
        "ĠØ¨Ø²",
        "Ø§Ùģ"
      ],
      [
        "Øª",
        "Ø´"
      ],
      [
        "Ġ",
        "Ø§"
      ],
      [
        "ÙĦ",
        "Ø³"
      ],
      [
        "Ø¯",
        "ÙĪ"
      ],
      [
        "ĠÙħ",
        "ÙĪ"
      ],
      [
        "Ġ",
        "f"
      ],
      [
        "Ø®",
        "Øµ"
      ],
      [
        "Ø¨",
        "ØŃ"
      ],
      [
        "ĠØ§ÙĦØ°",
        "ÙĬ"
      ],
      [
        "Ø¨",
        "Ø§Ø±Ùĥ"
      ],
      [
        "Øª",
        "ÙĩØ§"
      ],
      [
        "ĠØ§ÙĦ",
        "Ø«"
      ],
      [
        "ĠØ¨",
        "ÙĬ"
      ],
      [
        "ĠÙĥÙĬ",
        "Ùģ"
      ],
      [
        "Ø·",
        "ÙĬ"
      ],
      [
        "Ø¶",
        "ÙĬ"
      ],
      [
        "ĠÙħ",
        "ØŃ"
      ],
      [
        "Ġ",
        "y"
      ],
      [
        "Ø§Ø¯",
        "ÙĬ"
      ],
      [
        "ÙĪ",
        "Ø¨"
      ],
      [
        "ĠØ¯",
        "ÙĬØ±"
      ],
      [
        "ĠØ£",
        "Ùħ"
      ],
      [
        "Ø§Ø³Øª",
        "Ø§Ø°"
      ],
      [
        "ĠÙģÙĬ",
        "ÙĩØ§"
      ],
      [
        "Ġ",
        "Ø§ÙĬ"
      ],
      [
        "Ġ",
        "["
      ],
      [
        "ĠØ±",
        "Ø¨"
      ],
      [
        "ĠÙĪ",
        "Ø´"
      ],
      [
        "ÙĦ",
        "Ùģ"
      ],
      [
        "ĠØ±",
        "Ø§Ùĥ"
      ],
      [
        "ÙĬ",
        "Ø´"
      ],
      [
        "Ġ",
        "k"
      ],
      [
        "Ø§ÙĦ",
        "Ùī"
      ],
      [
        "ÙĤ",
        "Ø·"
      ],
      [
        "ĠÙĦ",
        "ÙĪ"
      ],
      [
        "ĠØ£",
        "ÙĬ"
      ],
      [
        "ĠØª",
        "Ø¬"
      ],
      [
        "Ġ",
        "Ø§Ø±"
      ],
      [
        "Ġ",
        "c"
      ],
      [
        "Ø§Ø±",
        "Ø©"
      ],
      [
        "ĠØ§Ø",
        "¯"
      ],
      [
        "ÙĪ",
        "ÙĦÙĬ"
      ],
      [
        "e",
        "r"
      ],
      [
        "ĠÙģÙĬ",
        "Ø¯ÙĬÙĪ"
      ],
      [
        "ÙĬ",
        "ÙĦ"
      ],
      [
        "ĠÙĩ",
        "ÙĨØ§"
      ],
      [
        "ĠÙĪ",
        "ÙĦÙĬ"
      ],
      [
        "Øµ",
        "Ø±"
      ],
      [
        "Ø³",
        "ÙĪÙĦ"
      ],
      [
        "ĠÙĨ",
        "ØŃ"
      ],
      [
        "ĠâĿ¤",
        "âĿ¤"
      ],
      [
        "e",
        "n"
      ],
      [
        "ĠØ¨",
        "ØµØŃ"
      ],
      [
        "Ġ",
        "âĢ"
      ],
      [
        "Ġ",
        "p"
      ],
      [
        "Ø«",
        "ÙĦ"
      ],
      [
        "Ø´",
        "Ø±"
      ],
      [
        "ĠØ§ÙĦÙĦÙĩ",
        "Ùħ"
      ],
      [
        "Ø¨",
        "Øª"
      ],
      [
        "ĠØ§ÙĦØ¬",
        "Ø²Ø§Ø¦"
      ],
      [
        "ĠÙĨ",
        "Ø¬"
      ],
      [
        "ĠðŁĺĤ",
        "ðŁĺĤ"
      ],
      [
        "ĠÙĪØ§ØŃ",
        "Ø¯"
      ],
      [
        "ĠØ´",
        "ÙĬ"
      ],
      [
        "Ø§Ø¨",
        "Ø©"
      ],
      [
        "ĠØ¥",
        "ÙĦØ§"
      ],
      [
        "Ø§Øª",
        "Ùĩ"
      ],
      [
        "ĠÙĬ",
        "Ø§Ø±Ø¨"
      ],
      [
        "ĠØ§ÙĦ",
        "Øº"
      ],
      [
        "ĠÙĩ",
        "Ùĩ"
      ],
      [
        "ĠÙĬ",
        "Øª"
      ],
      [
        "Ø§",
        "ÙĬÙĨ"
      ],
      [
        "ðŁĺ",
        "¢"
      ],
      [
        "ÙģÙĬ",
        "Ø¯ÙĬÙĪ"
      ],
      [
        "ĠÙħ",
        "ÙĬ"
      ],
      [
        "ĠÙĬ",
        "ÙĪÙħ"
      ],
      [
        "ĠØ´",
        "ÙĥØ±Ø§"
      ],
      [
        "ĠØ®",
        "ÙĪ"
      ],
      [
        "Ø§",
        "ÙĬØ©"
      ],
      [
        "Ø¹",
        "Ø±"
      ],
      [
        "Ġ20",
        "2"
      ],
      [
        "ĠÙħ",
        "Ø³"
      ],
      [
        "ĠÙĥ",
        "ÙĨØª"
      ],
      [
        "ØŃ",
        "Ø¯"
      ],
      [
        "0",
        "0"
      ],
      [
        "Ø¶",
        "Ø§"
      ],
      [
        "ÙĤ",
        "ÙĦ"
      ],
      [
        "ÙĪÙĨ",
        "ÙĬ"
      ],
      [
        "Ø§Øª",
        "Ùĥ"
      ],
      [
        "ĠØ§Ø",
        "¹"
      ],
      [
        "ĠØªØ¹",
        "Ø§ÙĦÙī"
      ],
      [
        "ĠÙĬ",
        "Ø´"
      ],
      [
        "ÙĤ",
        "Ø¯Ø±"
      ],
      [
        "ÙħÙĬ",
        "Ø¹"
      ],
      [
        "Ø¨",
        "Ø¹"
      ],
      [
        "ĠÙĪ",
        "ÙħÙĨ"
      ],
      [
        "a",
        "n"
      ],
      [
        "ĠÙĥ",
        "ÙħØ§"
      ],
      [
        "ĠÙĨ",
        "Ø³"
      ],
      [
        "ĠØ¨",
        "ÙĦÙĬ"
      ],
      [
        "ĠÙĬØŃ",
        "ÙģØ¸"
      ],
      [
        "Ùħ",
        "Øª"
      ],
      [
        "ĠØª",
        "ÙĪ"
      ],
      [
        "ĠÙĨ",
        "ÙģØ³"
      ],
      [
        "ĠØ±",
        "Ø§ÙĨÙĬ"
      ],
      [
        "ĠÙĥ",
        "Ø§ÙħÙĦ"
      ],
      [
        "ĠØ§ÙĦØ¨",
        "Ø§Ùĥ"
      ],
      [
        "ÙĪ",
        "Ø´"
      ],
      [
        "ĠØ¹ÙĦÙĬ",
        "Ùĥ"
      ],
      [
        "ĠÙħ",
        "Ø¬"
      ],
      [
        "ĠÙĦ",
        "ÙĥÙĨ"
      ],
      [
        "Ø¨",
        "Ùĩ"
      ],
      [
        "Ùģ",
        "Øª"
      ],
      [
        "ĠØ±",
        "Ø§Ùĩ"
      ],
      [
        "ĠØ¨",
        "Ùĥ"
      ],
      [
        "ĠØ¯",
        "Ø±"
      ],
      [
        "ĠÙĬ",
        "ÙĥÙĪÙĨ"
      ],
      [
        "Ø§Ø¹",
        "Ø©"
      ],
      [
        "ĠØ§Ø¨",
        "ÙĨ"
      ],
      [
        "ĠØ«",
        "Ùħ"
      ],
      [
        "ÙĪ",
        "Ø±ÙĬ"
      ],
      [
        "ĠØ³",
        "ÙĬ"
      ],
      [
        "Ùĩ",
        "Ø¯"
      ],
      [
        "ĠØ§ÙĦÙħ",
        "ÙĪ"
      ],
      [
        "ĠØ§Ø",
        "¬"
      ],
      [
        "ĠØ§ÙĦ",
        "Ø²"
      ],
      [
        "ĠØ¹",
        "Ø¨Ø¯"
      ],
      [
        "ĠÙĩ",
        "ÙĦ"
      ],
      [
        "ĠØ§ÙĦÙĤ",
        "Ø±"
      ],
      [
        "ĠØ±",
        "ØŃÙħ"
      ],
      [
        "i",
        "s"
      ],
      [
        "ĠØ§ÙĦÙĨ",
        "Ø§Ø³"
      ],
      [
        "Ø¨",
        "ÙĪ"
      ],
      [
        "Ø³",
        "Ø±"
      ],
      [
        "ĠÙĤ",
        "Ø¯"
      ],
      [
        "ØŃ",
        "Ø±"
      ],
      [
        "Ø¹ÙĪ",
        "ÙĦÙĬ"
      ],
      [
        "Ùħ",
        "ÙĪ"
      ],
      [
        "ĠÙĬ",
        "Ø®"
      ],
      [
        "ĠØ§ÙĦ",
        "ØµØŃ"
      ],
      [
        "ÙĪÙģ",
        "ÙĤ"
      ],
      [
        "Ø§",
        "ÙĩÙħ"
      ],
      [
        "Ø«",
        "ÙĬØ±"
      ],
      [
        "ĠØª",
        "Ø´"
      ],
      [
        "Ġ",
        "Ø§Ùĥ"
      ],
      [
        "Ùħ",
        "ÙĥÙĨ"
      ],
      [
        "Øº",
        "ÙĬØ±"
      ],
      [
        "Ã",
        "©"
      ],
      [
        "Ø¹",
        "ÙĦÙħ"
      ],
      [
        "Ø¯",
        "ÙĬÙĨ"
      ],
      [
        "Ø§ÙĦ",
        "Ùĥ"
      ],
      [
        "Ø·",
        "Ø©"
      ],
      [
        "ĠÙħ",
        "ØŃÙħØ¯"
      ],
      [
        "ĠØµ",
        "ØŃ"
      ],
      [
        "ĠÙĬ",
        "Ø¯"
      ],
      [
        "Øµ",
        "Øµ"
      ],
      [
        "Ø¨",
        "Ø§"
      ],
      [
        "ĠØª",
        "ÙĨ"
      ],
      [
        "ĠÙģ",
        "Ø¶"
      ],
      [
        "ĠÙĤ",
        "Ø¨ÙĦ"
      ],
      [
        "Ø¬",
        "ÙĦ"
      ],
      [
        "l",
        "i"
      ],
      [
        "ĠØ¨",
        "Ø±Ùĥ"
      ],
      [
        "ĠØ§ÙĦØ¹",
        "ÙĦÙħ"
      ],
      [
        "Ùģ",
        "Ø¹"
      ],
      [
        "ĠÙĪ",
        "ÙĬÙĨ"
      ],
      [
        "ĠØ¨",
        "Ø§Ùĥ"
      ],
      [
        "Ø§ÙĦÙĦÙĩ",
        "Ùħ"
      ],
      [
        "=",
        "="
      ],
      [
        "ĠØ§ÙĦØ³",
        "ÙĦØ§Ùħ"
      ],
      [
        "ĠØ§ÙĦØ¬Ø²Ø§Ø¦",
        "Ø±"
      ],
      [
        "ĠØ±",
        "Ø³ÙĪÙĦ"
      ],
      [
        "ĠØª",
        "ÙĤ"
      ],
      [
        "Ùģ",
        "ÙĩÙħ"
      ],
      [
        "ÙĪ",
        "Ùĩ"
      ],
      [
        "ĠÙħ",
        "ÙĦÙĬ"
      ],
      [
        "ĠØ¥",
        "ÙĦÙĬ"
      ],
      [
        "n",
        "a"
      ],
      [
        "t",
        "i"
      ],
      [
        "Ø´",
        "ÙĥØ±Ø§"
      ],
      [
        "ĠðŁĺ",
        "¢"
      ],
      [
        "âĿ¤",
        "âĿ¤"
      ],
      [
        "Ø³Øª",
        "Ø§Ø°"
      ],
      [
        "Ø§ÙĦ",
        "Ø©"
      ],
      [
        "Ø¢",
        "ÙĨ"
      ],
      [
        "ĠÙĥØ§ÙĨ",
        "Øª"
      ],
      [
        "İ",
        "ī"
      ],
      [
        "ĠØ§ÙĦ",
        "ÙĦ"
      ],
      [
        "ÙĦÙĬ",
        "ÙĦ"
      ],
      [
        "Ø§Ø",
        "«"
      ],
      [
        "Ø§Ùħ",
        "Ø©"
      ],
      [
        "ĠÙĪ",
        "Ø§Ø´"
      ],
      [
        "ĠØ§ÙĨ",
        "Øª"
      ],
      [
        "Ø²",
        "ÙĬØ¯"
      ],
      [
        "Ġ",
        "h"
      ],
      [
        "Ø¯ÙĬ",
        "Ø«"
      ],
      [
        "ĠØ¹",
        "Ùħ"
      ],
      [
        "ÙĪ",
        "Ø©"
      ],
      [
        "ĠÙħ",
        "Ø§Ø´"
      ],
      [
        "ĠÙĪ",
        "Ùĥ"
      ],
      [
        "Ø¹",
        "Øª"
      ],
      [
        "ĠÙĪÙĩ",
        "ÙĪ"
      ],
      [
        "Ø§Ø±",
        "ÙĬ"
      ],
      [
        "ÙĪ",
        "ÙĤ"
      ],
      [
        "ĠÙģ",
        "Ø±"
      ],
      [
        "ĠØ¨Ø¹",
        "Ø¶"
      ],
      [
        "a",
        "r"
      ],
      [
        "ĠØ¨",
        "Ø¯"
      ],
      [
        "ðŁĺĤ",
        "ðŁĺĤ"
      ],
      [
        "Ø°",
        "ÙĦÙĥ"
      ],
      [
        "ĠØ§ÙĦØ¹",
        "Ø§ÙĦÙħ"
      ],
      [
        "Ø®Ø±",
        "Ø¬"
      ],
      [
        "_",
        "_"
      ],
      [
        "ĠðŁ",
        "Ĵ"
      ],
      [
        "Ø¹",
        "Ø±Ùģ"
      ],
      [
        "ĠÙĪ",
        "Ùģ"
      ],
      [
        "ĠÙĬØŃÙģØ¸",
        "Ùĥ"
      ],
      [
        "Ġ",
        "Ø§Øª"
      ],
      [
        "ÙģØ±",
        "Ø¬"
      ],
      [
        "ĠÙĬ",
        "ÙĤÙĪÙĦ"
      ],
      [
        "ÙĬÙĨ",
        "ÙĬ"
      ],
      [
        "ĠØ¥",
        "Ø°Ø§"
      ],
      [
        "ĠØª",
        "Øª"
      ],
      [
        "ĠØ¨",
        "Ø§Ø±Ùĥ"
      ],
      [
        "ĠÙĪ",
        "Ø³"
      ],
      [
        "ĠÙĪ",
        "ÙĦÙĥ"
      ],
      [
        "Ø³",
        "Ø§ÙĨ"
      ],
      [
        "ÙĦÙĩ",
        "Ùħ"
      ],
      [
        "ĠÙĬ",
        "Ø³"
      ],
      [
        "ĠØ§ÙĦÙħ",
        "ÙĨ"
      ],
      [
        "Ġ",
        "Ø§Ùģ"
      ],
      [
        "ĠÙĦ",
        "Ø£ÙĨ"
      ],
      [
        "ĠØ¨Ø§ÙĦ",
        "Ùħ"
      ],
      [
        "Ø§Ø°",
        "Ø§"
      ],
      [
        "Ġ",
        ","
      ],
      [
        "ĠÙĪØ§ÙĦ",
        "Ùħ"
      ],
      [
        "ĠØ§ÙĦÙĨ",
        "Ø¨ÙĬ"
      ],
      [
        "Ø¬",
        "Ø±"
      ],
      [
        "ĠØ¹",
        "ÙĦ"
      ],
      [
        "ĠØŃ",
        "Ùĥ"
      ],
      [
        "Ø§",
        "ÙĪÙĦ"
      ],
      [
        "Ø§ÙĦ",
        "Ø³ÙĦØ§Ùħ"
      ],
      [
        "--",
        "--"
      ],
      [
        "ÙĩÙħ",
        "Ø§"
      ],
      [
        "Ø´",
        "ÙĬ"
      ],
      [
        "Ġ",
        "v"
      ],
      [
        "ĠØ¹ÙĨ",
        "Ùĩ"
      ],
      [
        "ĠØ¨",
        "Ùħ"
      ],
      [
        "ĠØ§ÙĦÙħ",
        "Ø±"
      ],
      [
        "ĠØ¨",
        "Ø±"
      ],
      [
        "ĠØª",
        "Ùħ"
      ],
      [
        "o",
        "m"
      ],
      [
        "ÙĨ",
        "Ø¯"
      ],
      [
        "ĠØ§ÙĦ",
        "Ø§Ø³"
      ],
      [
        "ĠØª",
        "Ø³"
      ],
      [
        "ĠÙĪ",
        "Ø¥"
      ],
      [
        "Ø±ÙĬ",
        "Ùħ"
      ],
      [
        "ĠÙĪ",
        "Øµ"
      ],
      [
        "ĠÙĦ",
        "Ø¨"
      ],
      [
        "Ø§ÙĦ",
        "ØŃ"
      ],
      [
        "ĠØ¹",
        "ÙĦÙħ"
      ],
      [
        "Ġ",
        "4"
      ],
      [
        "Ùħ",
        "ÙĬÙĨ"
      ],
      [
        "ĠØ¨",
        "Ø§Ø´"
      ],
      [
        "Ùħ",
        "Ø§ÙĨ"
      ],
      [
        "Ø¸",
        "Ø±"
      ],
      [
        "Ùĩ",
        "ÙĪ"
      ],
      [
        "Ø·",
        "Ø±"
      ],
      [
        "Ø±Ø¨",
        "ÙĬØ©"
      ],
      [
        "ĠÙĩ",
        "Ø§Ø¯"
      ],
      [
        "ĠØ§ÙĦÙħ",
        "Ø´"
      ],
      [
        "ĠØª",
        "Ø®"
      ],
      [
        "ĠØª",
        "ÙĥÙĪÙĨ"
      ],
      [
        "a",
        "l"
      ],
      [
        "e",
        "l"
      ],
      [
        "ĠØ£",
        "Ø³"
      ],
      [
        "ĠØ§ÙĦ",
        "ÙģØ±"
      ],
      [
        "i",
        "d"
      ],
      [
        "Ø²",
        "ÙĤ"
      ],
      [
        "Ø¨",
        "ÙĤ"
      ],
      [
        "ĠØ§ÙĦ",
        "Ø§ÙĨ"
      ],
      [
        "ĠØŃ",
        "ÙĬ"
      ],
      [
        "ĠÙĤ",
        "Ø±"
      ],
      [
        "Ø¯ÙĬ",
        "Ø¯"
      ],
      [
        "ĠÙĨ",
        "Øµ"
      ],
      [
        "ĠØ§ÙĦ",
        "Ùī"
      ],
      [
        "ĠÙħ",
        "Ø§Øª"
      ],
      [
        "ÙĪØ±ÙĬ",
        "Ø§"
      ],
      [
        "ĠÙĪ",
        "ÙĤ"
      ],
      [
        "Ø§Ø¬",
        "Ø©"
      ],
      [
        "ðŁ",
        "¥"
      ],
      [
        "Ø²",
        "Ø§Ùĥ"
      ],
      [
        "Ø¶",
        "ÙĪØ¹"
      ],
      [
        "Ø·",
        "ÙĦ"
      ],
      [
        "ĠÙĬ",
        "Ø³Øª"
      ],
      [
        "ĠØŁ",
        "ØŁ"
      ],
      [
        "ĠÙĦ",
        "ÙĦÙħ"
      ],
      [
        "ĠØ",
        "¸"
      ],
      [
        "Ø¶",
        "ÙĦ"
      ],
      [
        "ĠÙħ",
        "Ø³Øª"
      ],
      [
        "ĠØª",
        "Ø±"
      ],
      [
        "Ø¬",
        "Ø¨"
      ],
      [
        "ĠÙĪ",
        "ÙģÙĬ"
      ],
      [
        "ÙĪ",
        "Ø§Øª"
      ],
      [
        "ĠØ¯",
        "Ø§Ø±"
      ],
      [
        "Ø¯",
        "Ùī"
      ],
      [
        "ĠÙĬ",
        "ÙĪÙģÙĤ"
      ],
      [
        "ĠÙģ",
        "Ø¥ÙĨ"
      ],
      [
        "ĠÙĥÙĬ",
        "ÙħØ§"
      ],
      [
        "ĠÙĦ",
        "Ø¹"
      ],
      [
        "Ġ",
        "â"
      ],
      [
        "ĠØ£",
        "ÙĨØ§"
      ],
      [
        "ÙĦÙĬ",
        "Ø©"
      ],
      [
        "Ġm",
        "a"
      ],
      [
        "ÙħÙĨ",
        "Ùī"
      ]
    ]
  }
}