{"<pad>":0,"<unk>":1,"<s>":2,"</s>":3,"!":4,"\"":5,"#":6,"$":7,"%":8,"&":9,"'":10,"(":11,")":12,"*":13,"+":14,",":15,"-":16,".":17,"/":18,"0":19,"1":20,"2":21,"3":22,"4":23,"5":24,"6":25,"7":26,"8":27,"9":28,":":29,";":30,"<":31,"=":32,">":33,"?":34,"@":35,"A":36,"B":37,"C":38,"D":39,"E":40,"F":41,"G":42,"H":43,"I":44,"J":45,"K":46,"L":47,"M":48,"N":49,"O":50,"P":51,"Q":52,"R":53,"S":54,"T":55,"U":56,"V":57,"W":58,"X":59,"Y":60,"Z":61,"[":62,"\\":63,"]":64,"^":65,"_":66,"`":67,"a":68,"b":69,"c":70,"d":71,"e":72,"f":73,"g":74,"h":75,"i":76,"j":77,"k":78,"l":79,"m":80,"n":81,"o":82,"p":83,"q":84,"r":85,"s":86,"t":87,"u":88,"v":89,"w":90,"x":91,"y":92,"z":93,"{":94,"|":95,"}":96,"~":97,"¡":98,"¢":99,"£":100,"¤":101,"¥":102,"¦":103,"§":104,"¨":105,"©":106,"ª":107,"«":108,"¬":109,"®":110,"¯":111,"°":112,"±":113,"²":114,"³":115,"´":116,"µ":117,"¶":118,"·":119,"¸":120,"¹":121,"º":122,"»":123,"¼":124,"½":125,"¾":126,"¿":127,"À":128,"Á":129,"Â":130,"Ã":131,"Ä":132,"Å":133,"Æ":134,"Ç":135,"È":136,"É":137,"Ê":138,"Ë":139,"Ì":140,"Í":141,"Î":142,"Ï":143,"Ð":144,"Ñ":145,"Ò":146,"Ó":147,"Ô":148,"Õ":149,"Ö":150,"×":151,"Ø":152,"Ù":153,"Ú":154,"Û":155,"Ü":156,"Ý":157,"Þ":158,"ß":159,"à":160,"á":161,"â":162,"ã":163,"ä":164,"å":165,"æ":166,"ç":167,"è":168,"é":169,"ê":170,"ë":171,"ì":172,"í":173,"î":174,"ï":175,"ð":176,"ñ":177,"ò":178,"ó":179,"ô":180,"õ":181,"ö":182,"÷":183,"ø":184,"ù":185,"ú":186,"û":187,"ü":188,"ý":189,"þ":190,"ÿ":191,"Ā":192,"ā":193,"Ă":194,"ă":195,"Ą":196,"ą":197,"Ć":198,"ć":199,"Ĉ":200,"ĉ":201,"Ċ":202,"ċ":203,"Č":204,"č":205,"Ď":206,"ď":207,"Đ":208,"đ":209,"Ē":210,"ē":211,"Ĕ":212,"ĕ":213,"Ė":214,"ė":215,"Ę":216,"ę":217,"Ě":218,"ě":219,"Ĝ":220,"ĝ":221,"Ğ":222,"ğ":223,"Ġ":224,"ġ":225,"Ģ":226,"ģ":227,"Ĥ":228,"ĥ":229,"Ħ":230,"ħ":231,"Ĩ":232,"ĩ":233,"Ī":234,"ī":235,"Ĭ":236,"ĭ":237,"Į":238,"į":239,"İ":240,"ı":241,"Ĳ":242,"ĳ":243,"Ĵ":244,"ĵ":245,"Ķ":246,"ķ":247,"ĸ":248,"Ĺ":249,"ĺ":250,"Ļ":251,"ļ":252,"Ľ":253,"ľ":254,"Ŀ":255,"ŀ":256,"Ł":257,"ł":258,"Ń":259,"Ø§":260,"ÙĦ":261,"ĠÙ":262,"ĠØ":263,"ÙĬ":264,"Ø§ÙĦ":265,"ÙĨ":266,"Ùħ":267,"Ø§Ø":268,"ĠØ§ÙĦ":269,"ÙĪ":270,"Ø±":271,"Ùĩ":272,"Øª":273,"Ùĥ":274,"ĠÙĪ":275,"Ø¨":276,"Ø¯":277,"Ø©":278,"Ø¹":279,"ĠÙħ":280,"ØŃ":281,"ÙĤ":282,"Ùģ":283,"Ø³":284,"čĊ":285,"ĠØ¨":286,"ĠÙģ":287,"ĠÙĦ":288,"ĠØ¹":289,"ĠÙĬ":290,"Ø§ÙĨ":291,"Ø¬":292,"ĠØª":293,"Ø´":294,"ÙĦÙĩ":295,"ĠØ£":296,"Ùī":297,"ÙĦÙĬ":298,"ðŁ":299,"Øµ":300,"ĠÙģÙĬ":301,"ĠÙĨ":302,"ĠÙĥ":303,"ĠØ±":304,"Ø®":305,"ÙĬÙĨ":306,"ĠÙħÙĨ":307,"Ø£":308,"Ø·":309,"Ø§Ø±":310,"Ø§Øª":311,"Ø§Ùħ":312,"Ø²":313,"ĠØ§ÙĦÙĦÙĩ":314,"ĠÙĩ":315,"Ø°":316,"ÙĬØ±":317,"Ø¶":318,"ĠØ§Ø":319,"ÙĨØ§":320,"ÙĩØ§":321,"ĠÙĤ":322,"ĠØŃ":323,"ĠØ§ÙĦÙħ":324,"ÙĦÙī":325,"ÙĬØ©":326,"ðŁĺ":327,"..":328,"Ø¨ÙĬ":329,"ĠØ´":330,"ÙĦØ§":331,"ÙĩÙħ":332,"ÙĪÙĨ":333,"Ø§Ø¨":334,"Ø«":335,"ĠØ³":336,"ĠÙĪØ§ÙĦ":337,"Ø§Ø¡":338,"ÙĦÙħ":339,"Ø¯ÙĬ":340,"Ø§Ø¯":341,"ØĮ":342,"Ø±ÙĬ":343,"Ø§Ùĥ":344,"ÙĪÙĦ":345,"ĠØ¬":346,"ĠØ¥":347,"Ø§Ø³":348,"ĠØ®":349,"ĠØ¯":350,"Øº":351,"ĠØ¹ÙĦÙī":352,"ĠØ§ÙĨ":353,"ØªÙĬ":354,"Ø§Ø¹":355,"âĿ":356,"ÙħØ§":357,"ĠØµ":358,"âĿ¤":359,"ĠØ¹ÙĦÙĬ":360,"ÙĥÙħ":361,"ĠØ§ÙĦØ¹":362,"ĠØĮ":363,"ĠØ¹ÙĨ":364,"Ø§ØŃ":365,"ÙĪØ±":366,"Ø§Ùģ":367,"Ø§ÙĬ":368,"...":369,"Ø§Ùĩ":370,"ÙĨÙĬ":371,"ĠØ£ÙĨ":372,"ØŃÙħ":373,"Ø§Ø¦":374,"Ø¥":375,"Ø¸":376,"ÙĦÙĥ":377,"ĠØ¨Ø§ÙĦ":378,"ĠÙĦÙĬ":379,"ĠÙħØ¹":380,"ÙĥØ±":381,"Ø§Ø´":382,"ĠØ§ÙĦØ£":383,"ÙĪØ§":384,"Ø°Ø§":385,"ðŁĺĤ":386,"Ø§Ø°":387,"ÙĪÙħ":388,"ÙģÙĬ":389,"Ø³Øª":390,"Ø§Ø¬":391,"Ø§ÙĪ":392,"ĠØ§ÙĦØ³":393,"ĠØ§ÙĦØ¬":394,"ĠØ§ÙĦØª":395,"ĠØ§ÙĦÙĨ":396,"ĠØ§ÙĦØŃ":397,"ĠÙħØ§":398,"ĠØ§ÙĦÙĤ":399,"Ø¨Ø±":400,"ÙĬØ¯":401,"ĠðŁ":402,"ÙĦØ§Ùħ":403,"ÙħÙĨ":404,"ĠÙĦØ§":405,"ĠØ§Ø³":406,"ĠØº":407,"ĠØªØ¹":408,"Ġ.":409,"ÙģØ±":410,"ÙĦØ©":411,"Ġ:":412,"Ġ(":413,"ĠØ§ÙĦØ¨":414,"ĠØ·":415,"Ø¯Ø±":416,"Ø¹Ø¯":417,"ĠØ§ÙĦØ´":418,"ÙĦÙĪ":419,"Ø±Ø¨":420,"Ø§ÙĨÙĬ":421,"ØªÙĪ":422,"ON":423,"EN":424,"TI":425,"MEN":426,"TION":427,"MENTION":428,"ØµØŃ":429,"ÙĪÙģ":430,"ÙĨØª":431,"ÙħÙĬ":432,"Ġ...":433,"ĠØ±Ø¨ÙĬ":434,"ÙĤÙĬ":435,"ĠÙĥÙĬ":436,"ØŁ":437,"ĠÙĦÙĦ":438,"Ø±Ùĥ":439,"ĠâĿ¤":440,"Ġ-":441,"ĠÙĥÙĦ":442,"ÙĬØ§":443,"ÙĬØ¨":444,"ĠØ¹ÙĦÙĬÙĩ":445,"ĠØ§ÙĦØ±":446,"Ø±Ùģ":447,"Ø³ÙĦÙħ":448,"ĠÙĥØ§ÙĨ":449,"Ġ1":450,"Ø±Ø©":451,"ÙĥÙĪÙĨ":452,"ÙħØ¹":453,"ĠÙĤØ§ÙĦ":454,"ĠðŁĺ":455,"ĠÙĪÙĦØ§":456,"ÙĥÙĨ":457,"ĠØ°":458,"ÙħØ±":459,"Ø¹ÙĪ":460,"ØªÙĩ":461,"ÙĤØ¯":462,"ÙĤØ©":463,"Ø³ÙĬ":464,"Ġ\"":465,"ĠÙĩØ°Ø§":466,"Ø¯Ø©":467,"ĠØ§ÙĦÙĥ":468,"Ø§ÙĦÙĦÙĩ":469,"Ø§ÙĨØ§":470,"ĠØ§Ø³Øª":471,"ĠÙĪÙĬ":472,"Ø§Ø±Ùĥ":473,"ĠÙĬØŃ":474,"ĠÙĪØ£":475,"Ø¹Ø©":476,"Ø¨Ø©":477,"Ø§Øµ":478,"Ø±ÙĪ":479,"Ġ2":480,"Ø¢":481,"ĠØªØŃ":482,"ÙħØ©":483,"ÙĤØª":484,"Ø¤":485,"ÙĥÙĬ":486,"Ø¦":487,"ĠÙĬØ¹":488,"ĠØ§ÙĦØ¯":489,"ou":490,"ĠØ²":491,"ĠØ§ÙĦØ®":492,"ĠØ§ÙĦØµ":493,"Ø§Ø³Øª":494,"ĠØ§ÙĨØ§":495,"ĠÙĬØ§":496,"Ø§Ø²":497,"Ø¯ÙĬÙĪ":498,"ĠØ«":499,"ÙĦØª":500,"Ø¯Ø§":501,"ĠÙĩÙĪ":502,"ĠØ§ÙĦØ¥":503,"ĠØ§ÙĦÙģ":504,"ĠØ£ÙĪ":505,"ĠØ¹ÙĨØ¯":506,"Ø®Ø±":507,"ĠØ¨ÙĨ":508,"ĠÙĪØª":509,"ÙĨØ©":510,"ĠØŁ":511,"Ġl":512,"ÙĬÙĥ":513,"ĠØ§ÙĦÙĪ":514,"ĠØ§Ø®":515,"Ø§Ø®":516,"ha":517,"ÙĤÙĪÙĦ":518,"Ø±ØŃ":519,"Ġm":520,"Ø±Ø¨ÙĬ":521,"ĠÙĪÙĩ":522,"ÙĬÙħ":523,"ÙĥØ±Ø§":524,"Ġt":525,"ĠØ§ÙĦØ°":526,"ĠØ´Ø§Ø¡":527,"ĠØªØ§Ø¹":528,"ĠÙĦÙħ":529,"ĠØºÙĬØ±":530,"ØŃÙħØ¯":531,"ÙĪØ¬":532,"ĠØ¥ÙĦÙī":533,"Ø¨ÙĦ":534,"Ø§Ø·":535,"ØªÙī":536,"ÙĦØ¨":537,"Ø§Ø©":538,"ÙģØ³":539,"ĠÙĪÙĨ":540,"ĠÙĨØª":541,"Ø¨Ø¯":542,"ĠØ§Ùħ":543,"ĠðŁĺĤ":544,"ĠÙĩØ°":545,"ÙĪØ¯":546,"ÙĥÙĦ":547,"ÙĦÙĤ":548,"ØªÙĥ":549,"ØŃÙĬ":550,"Ø¹Ùħ":551,"ØªÙħ":552,"Ø³ÙĦØ§Ùħ":553,"Ø§Ø¶":554,"ĠÙĪØŃ":555,"ÙĪØ¹":556,"âĢ":557,"ÙģØ¸":558,"ÙĤØ±":559,"ĠÙħØª":560,"ĠÙĪØ³ÙĦÙħ":561,"Ø§ÙĦÙħ":562,"Ø§Ø±Ø¨":563,"Ø¹Ø¨":564,"Ø¹ÙĦ":565,"ĠØ§Ø¨":566,"ĠÙħØ´":567,"ĠÙĪÙħ":568,"ÙĤØ§ÙĦ":569,"ÙĪÙĬ":570,"ĠØ¥ÙĨ":571,"ØªØ¨":572,"ĠÙĦÙĩ":573,"ĠÙĪØ¬":574,"Ø¯ÙĬØ±":575,"Ø¡":576,"ØŃØ¨":577,"Ø³Ùħ":578,"ĠÙĪÙĦ":579,"ĠØ§ÙĦØ·":580,"ĠØ§ÙĦÙĬ":581,"ĠØ±ÙĪ":582,"Ø³Ø¨":583,"ra":584,"ÙģØ©":585,"Ø§ÙĤ":586,"ĠÙĬØ¬":587,"ĠÙĪØ±":588,"ÙĦÙĨØ§":589,"ĠØ¨Ø²":590,"ØŃÙĥ":591,"ÙĪÙĥ":592,"Ġb":593,"ĠØ®ÙĬØ±":594,"ï¸":595,"ï¸ı":596,"ÙĬØª":597,"Ø£ÙĨ":598,"Ġa":599,"ÙĬØ®":600,"Ø³ÙĨ":601,"ĠØŃØªÙī":602,"--":603,"ĠØ¢":604,"ĠØµÙĦÙī":605,"es":606,"ÙĪØª":607,"ðŁ¤":608,"Ø§Ø¯Ø©":609,"ØŃØ©":610,"ÙĬØ§Øª":611,"ĠÙĪØ¹":612,"ĠÙĬÙĨ":613,"ĠÙĦÙĥ":614,"Ø±Ø¬":615,"ĠØ¨ÙĦ":616,"Ø¥ÙĨ":617,"Ø®ÙĦ":618,"ĠØ¶":619,"Ġd":620,"Ø²Ø§Ø¦":621,"ÙĤÙĪ":622,"Ø«Ø±":623,"Ø±Ø¶":624,"ch":625,"ØªØŃ":626,"Ø¹ÙĬ":627,"on":628,"in":629,"ĠÙĪØ¨":630,"ÙħÙĦ":631,"Ġ20":632,"Ġ3":633,"ĠØ¨Ùĩ":634,"ØµÙĦ":635,"ĠÙĪØ§ÙĦÙĦÙĩ":636,"ÙĦÙĩØ§":637,"Ġ)":638,"ĠØ¹ÙĦÙĬÙĥÙħ":639,"ÙĪØ±Ø©":640,"ĠØ§Ø³ØªØ§Ø°":641,"ÙĨØ³":642,"ĠØ¨Ø¹Ø¯":643,"ĠÙĪØ§ØŃ":644,"ÙĪØ³":645,"ÙĥØ§ÙĨ":646,"Ø§ÙĦÙĬ":647,"ÙģØ¶":648,"Ġs":649,"Ø§ÙħÙĦ":650,"ĠØ§ÙĦØªÙĬ":651,"ĠØ§ÙĪ":652,"ĠØ¨Ø¹":653,"ĠØ°ÙĦÙĥ":654,"ĠÙģÙĬÙĥ":655,"Ġw":656,"ĠØ¨ÙĬÙĨ":657,"ØªØ§Ø¨":658,"la":659,"ÙĩØ±":660,"re":661,"ØªØ±":662,"ĠØ£Ø®":663,"Ø²ÙĬ":664,"**":665,"Ø¬ØŃ":666,"ĠÙĬØ±":667,"ÙĩÙĦ":668,"ĠÙģØ§ÙĦ":669,"Ø¯Ùħ":670,"Ġn":671,"ĠÙĩØ°Ùĩ":672,"ĠÙĨØ´":673,"ĠØ§ØŃ":674,"ØµØ©":675,"ĠÙĩÙĬ":676,"ĠÙĦÙĦÙĩ":677,"ÙĬØ±Ø©":678,"ĠÙģÙĬÙĩ":679,"ĠÙħØ±":680,"ðŁĴ":681,"ÙĬÙĨØ§":682,"ĠðŁ¤":683,"ĠØ¨Ø²Ø§Ùģ":684,"ØªØ´":685,"ĠØ§":686,"ÙĦØ³":687,"Ø¯ÙĪ":688,"ĠÙħÙĪ":689,"Ġf":690,"Ø®Øµ":691,"Ø¨ØŃ":692,"ĠØ§ÙĦØ°ÙĬ":693,"Ø¨Ø§Ø±Ùĥ":694,"ØªÙĩØ§":695,"ĠØ§ÙĦØ«":696,"ĠØ¨ÙĬ":697,"ĠÙĥÙĬÙģ":698,"Ø·ÙĬ":699,"Ø¶ÙĬ":700,"ĠÙħØŃ":701,"Ġy":702,"Ø§Ø¯ÙĬ":703,"ÙĪØ¨":704,"ĠØ¯ÙĬØ±":705,"ĠØ£Ùħ":706,"Ø§Ø³ØªØ§Ø°":707,"ĠÙģÙĬÙĩØ§":708,"ĠØ§ÙĬ":709,"Ġ[":710,"ĠØ±Ø¨":711,"ĠÙĪØ´":712,"ÙĦÙģ":713,"ĠØ±Ø§Ùĥ":714,"ÙĬØ´":715,"Ġk":716,"Ø§ÙĦÙī":717,"ÙĤØ·":718,"ĠÙĦÙĪ":719,"ĠØ£ÙĬ":720,"ĠØªØ¬":721,"ĠØ§Ø±":722,"Ġc":723,"Ø§Ø±Ø©":724,"ĠØ§Ø¯":725,"ÙĪÙĦÙĬ":726,"er":727,"ĠÙģÙĬØ¯ÙĬÙĪ":728,"ÙĬÙĦ":729,"ĠÙĩÙĨØ§":730,"ĠÙĪÙĦÙĬ":731,"ØµØ±":732,"Ø³ÙĪÙĦ":733,"ĠÙĨØŃ":734,"ĠâĿ¤âĿ¤":735,"en":736,"ĠØ¨ØµØŃ":737,"ĠâĢ":738,"Ġp":739,"Ø«ÙĦ":740,"Ø´Ø±":741,"ĠØ§ÙĦÙĦÙĩÙħ":742,"Ø¨Øª":743,"ĠØ§ÙĦØ¬Ø²Ø§Ø¦":744,"ĠÙĨØ¬":745,"ĠðŁĺĤðŁĺĤ":746,"ĠÙĪØ§ØŃØ¯":747,"ĠØ´ÙĬ":748,"Ø§Ø¨Ø©":749,"ĠØ¥ÙĦØ§":750,"Ø§ØªÙĩ":751,"ĠÙĬØ§Ø±Ø¨":752,"ĠØ§ÙĦØº":753,"ĠÙĩÙĩ":754,"ĠÙĬØª":755,"Ø§ÙĬÙĨ":756,"ðŁĺ¢":757,"ÙģÙĬØ¯ÙĬÙĪ":758,"ĠÙħÙĬ":759,"ĠÙĬÙĪÙħ":760,"ĠØ´ÙĥØ±Ø§":761,"ĠØ®ÙĪ":762,"Ø§ÙĬØ©":763,"Ø¹Ø±":764,"Ġ202":765,"ĠÙħØ³":766,"ĠÙĥÙĨØª":767,"ØŃØ¯":768,"00":769,"Ø¶Ø§":770,"ÙĤÙĦ":771,"ÙĪÙĨÙĬ":772,"Ø§ØªÙĥ":773,"ĠØ§Ø¹":774,"ĠØªØ¹Ø§ÙĦÙī":775,"ĠÙĬØ´":776,"ÙĤØ¯Ø±":777,"ÙħÙĬØ¹":778,"Ø¨Ø¹":779,"ĠÙĪÙħÙĨ":780,"an":781,"ĠÙĥÙħØ§":782,"ĠÙĨØ³":783,"ĠØ¨ÙĦÙĬ":784,"ĠÙĬØŃÙģØ¸":785,"ÙħØª":786,"ĠØªÙĪ":787,"ĠÙĨÙģØ³":788,"ĠØ±Ø§ÙĨÙĬ":789,"ĠÙĥØ§ÙħÙĦ":790,"ĠØ§ÙĦØ¨Ø§Ùĥ":791,"ÙĪØ´":792,"ĠØ¹ÙĦÙĬÙĥ":793,"ĠÙħØ¬":794,"ĠÙĦÙĥÙĨ":795,"Ø¨Ùĩ":796,"ÙģØª":797,"ĠØ±Ø§Ùĩ":798,"ĠØ¨Ùĥ":799,"ĠØ¯Ø±":800,"ĠÙĬÙĥÙĪÙĨ":801,"Ø§Ø¹Ø©":802,"ĠØ§Ø¨ÙĨ":803,"ĠØ«Ùħ":804,"ÙĪØ±ÙĬ":805,"ĠØ³ÙĬ":806,"ÙĩØ¯":807,"ĠØ§ÙĦÙħÙĪ":808,"ĠØ§Ø¬":809,"ĠØ§ÙĦØ²":810,"ĠØ¹Ø¨Ø¯":811,"ĠÙĩÙĦ":812,"ĠØ§ÙĦÙĤØ±":813,"ĠØ±ØŃÙħ":814,"is":815,"ĠØ§ÙĦÙĨØ§Ø³":816,"Ø¨ÙĪ":817,"Ø³Ø±":818,"ĠÙĤØ¯":819,"ØŃØ±":820,"Ø¹ÙĪÙĦÙĬ":821,"ÙħÙĪ":822,"ĠÙĬØ®":823,"ĠØ§ÙĦØµØŃ":824,"ÙĪÙģÙĤ":825,"Ø§ÙĩÙħ":826,"Ø«ÙĬØ±":827,"ĠØªØ´":828,"ĠØ§Ùĥ":829,"ÙħÙĥÙĨ":830,"ØºÙĬØ±":831,"Ã©":832,"Ø¹ÙĦÙħ":833,"Ø¯ÙĬÙĨ":834,"Ø§ÙĦÙĥ":835,"Ø·Ø©":836,"ĠÙħØŃÙħØ¯":837,"ĠØµØŃ":838,"ĠÙĬØ¯":839,"ØµØµ":840,"Ø¨Ø§":841,"ĠØªÙĨ":842,"ĠÙģØ¶":843,"ĠÙĤØ¨ÙĦ":844,"Ø¬ÙĦ":845,"li":846,"ĠØ¨Ø±Ùĥ":847,"ĠØ§ÙĦØ¹ÙĦÙħ":848,"ÙģØ¹":849,"ĠÙĪÙĬÙĨ":850,"ĠØ¨Ø§Ùĥ":851,"Ø§ÙĦÙĦÙĩÙħ":852,"==":853,"ĠØ§ÙĦØ³ÙĦØ§Ùħ":854,"ĠØ§ÙĦØ¬Ø²Ø§Ø¦Ø±":855,"ĠØ±Ø³ÙĪÙĦ":856,"ĠØªÙĤ":857,"ÙģÙĩÙħ":858,"ÙĪÙĩ":859,"ĠÙħÙĦÙĬ":860,"ĠØ¥ÙĦÙĬ":861,"na":862,"ti":863,"Ø´ÙĥØ±Ø§":864,"ĠðŁĺ¢":865,"âĿ¤âĿ¤":866,"Ø³ØªØ§Ø°":867,"Ø§ÙĦØ©":868,"Ø¢ÙĨ":869,"ĠÙĥØ§ÙĨØª":870,"İī":871,"ĠØ§ÙĦÙĦ":872,"ÙĦÙĬÙĦ":873,"Ø§Ø«":874,"Ø§ÙħØ©":875,"ĠÙĪØ§Ø´":876,"ĠØ§ÙĨØª":877,"Ø²ÙĬØ¯":878,"Ġh":879,"Ø¯ÙĬØ«":880,"ĠØ¹Ùħ":881,"ÙĪØ©":882,"ĠÙħØ§Ø´":883,"ĠÙĪÙĥ":884,"Ø¹Øª":885,"ĠÙĪÙĩÙĪ":886,"Ø§Ø±ÙĬ":887,"ÙĪÙĤ":888,"ĠÙģØ±":889,"ĠØ¨Ø¹Ø¶":890,"ar":891,"ĠØ¨Ø¯":892,"ðŁĺĤðŁĺĤ":893,"Ø°ÙĦÙĥ":894,"ĠØ§ÙĦØ¹Ø§ÙĦÙħ":895,"Ø®Ø±Ø¬":896,"__":897,"ĠðŁĴ":898,"Ø¹Ø±Ùģ":899,"ĠÙĪÙģ":900,"ĠÙĬØŃÙģØ¸Ùĥ":901,"ĠØ§Øª":902,"ÙģØ±Ø¬":903,"ĠÙĬÙĤÙĪÙĦ":904,"ÙĬÙĨÙĬ":905,"ĠØ¥Ø°Ø§":906,"ĠØªØª":907,"ĠØ¨Ø§Ø±Ùĥ":908,"ĠÙĪØ³":909,"ĠÙĪÙĦÙĥ":910,"Ø³Ø§ÙĨ":911,"ÙĦÙĩÙħ":912,"ĠÙĬØ³":913,"ĠØ§ÙĦÙħÙĨ":914,"ĠØ§Ùģ":915,"ĠÙĦØ£ÙĨ":916,"ĠØ¨Ø§ÙĦÙħ":917,"Ø§Ø°Ø§":918,"Ġ,":919,"ĠÙĪØ§ÙĦÙħ":920,"ĠØ§ÙĦÙĨØ¨ÙĬ":921,"Ø¬Ø±":922,"ĠØ¹ÙĦ":923,"ĠØŃÙĥ":924,"Ø§ÙĪÙĦ":925,"Ø§ÙĦØ³ÙĦØ§Ùħ":926,"----":927,"ÙĩÙħØ§":928,"Ø´ÙĬ":929,"Ġv":930,"ĠØ¹ÙĨÙĩ":931,"ĠØ¨Ùħ":932,"ĠØ§ÙĦÙħØ±":933,"ĠØ¨Ø±":934,"ĠØªÙħ":935,"om":936,"ÙĨØ¯":937,"ĠØ§ÙĦØ§Ø³":938,"ĠØªØ³":939,"ĠÙĪØ¥":940,"Ø±ÙĬÙħ":941,"ĠÙĪØµ":942,"ĠÙĦØ¨":943,"Ø§ÙĦØŃ":944,"ĠØ¹ÙĦÙħ":945,"Ġ4":946,"ÙħÙĬÙĨ":947,"ĠØ¨Ø§Ø´":948,"ÙħØ§ÙĨ":949,"Ø¸Ø±":950,"ÙĩÙĪ":951,"Ø·Ø±":952,"Ø±Ø¨ÙĬØ©":953,"ĠÙĩØ§Ø¯":954,"ĠØ§ÙĦÙħØ´":955,"ĠØªØ®":956,"ĠØªÙĥÙĪÙĨ":957,"al":958,"el":959,"ĠØ£Ø³":960,"ĠØ§ÙĦÙģØ±":961,"id":962,"Ø²ÙĤ":963,"Ø¨ÙĤ":964,"ĠØ§ÙĦØ§ÙĨ":965,"ĠØŃÙĬ":966,"ĠÙĤØ±":967,"Ø¯ÙĬØ¯":968,"ĠÙĨØµ":969,"ĠØ§ÙĦÙī":970,"ĠÙħØ§Øª":971,"ÙĪØ±ÙĬØ§":972,"ĠÙĪÙĤ":973,"Ø§Ø¬Ø©":974,"ðŁ¥":975,"Ø²Ø§Ùĥ":976,"Ø¶ÙĪØ¹":977,"Ø·ÙĦ":978,"ĠÙĬØ³Øª":979,"ĠØŁØŁ":980,"ĠÙĦÙĦÙħ":981,"ĠØ¸":982,"Ø¶ÙĦ":983,"ĠÙħØ³Øª":984,"ĠØªØ±":985,"Ø¬Ø¨":986,"ĠÙĪÙģÙĬ":987,"ÙĪØ§Øª":988,"ĠØ¯Ø§Ø±":989,"Ø¯Ùī":990,"ĠÙĬÙĪÙģÙĤ":991,"ĠÙģØ¥ÙĨ":992,"ĠÙĥÙĬÙħØ§":993,"ĠÙĦØ¹":994,"Ġâ":995,"ĠØ£ÙĨØ§":996,"ÙĦÙĬØ©":997,"Ġma":998,"ÙħÙĨÙī":999,"ta":1000,"ÙĬØ¹":1001,"ĠØ£ÙĨÙĩ":1002,"Ø°Ùĩ":1003,"ĠØ±Ø§ØŃ":1004,"ĠØ¹ÙĦÙĬÙĩØ§":1005,"Ø¤Ø§ÙĦ":1006,"ĠÙĬØ±ØŃÙħ":1007,"Ø§Øº":1008,"ĠØ¹ÙĦØ§":1009,"ĠØ£Ùĥ":1010,"Ø§ÙĦÙĪØ±ÙĬØ§":1011,"ĠØ®ÙĪÙĬØ§":1012,"ĠÙĪØ§ÙĨ":1013,"Ø´Ø§Ø¡":1014,"ØŃÙĪ":1015,"ÙĨÙī":1016,"Ø¯Øª":1017,"Ø³Ø©":1018,"ĠØ§Ø°":1019,"ĠÙĥØªØ§Ø¨":1020,"ĠØ§ÙĦÙģÙĬØ¯ÙĬÙĪ":1021,"ĠØ§ÙĦÙħØ¬":1022,"Ø¯Ùĩ":1023,"ðŁĺĬ":1024,"ĠØ¨ÙĩØ§":1025,"ØŃÙĤ":1026,"ÙĩÙĬ":1027,"ĠØ¹ÙĨØ¯ÙĬ":1028,"Ø·ÙĬÙĥ":1029,"ÙģÙĬÙĤ":1030,"Ġ5":1031,"ir":1032,"ĠÙĦØ£":1033,"ÙĪØ²":1034,"ĠÙĦÙĬØ³":1035,"ĠØ§ÙĦÙħØ³ÙĦÙħ":1036,"or":1037,"it":1038,"Ø¯ÙĦ":1039,"Ø§Ø±ÙĬØ®":1040,"ĠØ®ÙĬØ±Ø§":1041,"ĠÙĪÙħØ§":1042,"ĠÙģØ£":1043,"ØŁØŁ":1044,"Ġg":1045,"ĠØ§ÙĦÙħØ³":1046,"ĻĤ":1047,"ĠÙĬÙĤ":1048,"Ø§Ø²Ùħ":1049,"ÙĬÙĨØ©":1050,"ĠðŁ¤²":1051,"ĠØ§ÙĦØ¢":1052,"ĠÙĥØ§ÙĬÙĨ":1053,"ØŃÙħØ©":1054,"ĠØªØ¨":1055,"ĠØ´ÙĬØ¡":1056,"Ø±ÙĬÙĤ":1057,"ĠÙĩØ§Ø°":1058,"ĠÙĨØ¬ÙĬØ¨":1059,"ĠØ¨Ø£":1060,"ÙĩØ§Ø±":1061,"ðŁĺŃ":1062,"Ú¨":1063,"ya":1064,"ĠØ¹Ø§Ùħ":1065,"Ø§ÙĨÙĬØ©":1066,"ĠØ®ÙĦ":1067,"Ø§ØµØ©":1068,"ĠÙħÙĦ":1069,"ÙģØ¶ÙĦ":1070,"ÙĪØ§ÙĨ":1071,"Ø§ÙĦÙĩ":1072,"ĠÙģÙĤØ·":1073,"ĠØ§ÙĦØ§Ø®":1074,"ĠØ§ÙĦÙĬÙĪÙħ":1075,"ah":1076,"ĠØ§ÙĦØ¥Ø³ÙĦØ§Ùħ":1077,"ĠÙħØ®":1078,"ĠÙĬØ¹ÙĨÙĬ":1079,"Ø¹ÙĪÙĨ":1080,"ĠÙĪÙĤØ§ÙĦ":1081,"ĠØ§Ø´":1082,"Ø±ÙĬØ¨":1083,"ĠØŃØ¨ÙĬ":1084,"Ø§ÙĬØ§":1085,"ĠÙĥØ¨":1086,"ÙĦØ§Ø©":1087,"ØºÙģØ±":1088,"ĠÙĥØ«ÙĬØ±":1089,"ðŁ¤²":1090,"ĠØ¬ÙħÙĬØ¹":1091,"ĠÙħÙĨÙĩØ§":1092,"ÙĪÙĦØ©":1093,"ĠØ¹Ø¨":1094,"ðŁı":1095,"ĠØ§ÙĦØŃÙħØ¯":1096,"ĠØ±Ø¬":1097,"Ø¹ÙĦÙĬ":1098,"ðŁİī":1099,"ĠÙĪÙĤØ¯":1100,"ĠðŁ¥":1101,"ĠØ£Ø¨ÙĬ":1102,"Ø§Ø¯Ø±":1103,"ĠØ±Ø¶ÙĬ":1104,"Ø§ØªÙĬ":1105,"ĠÙĨØŃØ¨":1106,"Ø¬Ø©":1107,"ÙħØ§ÙĦ":1108,"ĠÙĦÙĩØ§":1109,"Ø§Ø±Ø¨ÙĬ":1110,"ĠØ±Ø§Ø¬":1111,"ĠÙħÙĨÙĩ":1112,"le":1113,"Ø¯Ùĥ":1114,"da":1115,"ĠÙĩÙĥ":1116,"Ø¶Ø¹":1117,"ĠÙĦÙĨØ§":1118,"ĠØ¹ÙħØ±":1119,"ĠÙĬÙĩ":1120,"ØºØ©":1121,"ĠØ§ÙĦØ¯Ø±":1122,"ĠØ§ÙĦÙħØ¹":1123,"Ġha":1124,"ÙĤØµ":1125,"ĠØ§ÙĦØ£Ùħ":1126,"ÙĬÙĩ":1127,"ĠÙħÙĥ":1128,"ðŁĺħ":1129,"ĠØ§Ùĩ":1130,"Ø¨Ø±Ùĥ":1131,"ĠØ§Ø®ØªÙĬ":1132,"ĠÙĪÙĦÙĥÙĨ":1133,"ĠÙħØ«":1134,"ĠØ§ÙĦÙĩ":1135,"Ø¹Ø¨Ø©":1136,"ÙĪØªÙĬ":1137,"Ø±ÙĬÙĤØ©":1138,"ÙĤØ§":1139,"Ġra":1140,"ĠÙĦØ§ÙĨ":1141,"ĠØªØµ":1142,"ÙĨÙĬØ§":1143,"ĠØ§Ø®ÙĬ":1144,"ĠØ³ÙĨØ©":1145,"Ø°ÙĥØ±":1146,"et":1147,"ĠØ§ÙĦØ¬ÙĨØ©":1148,"ĠÙĪÙĤØª":1149,"ĠØ§ÙĦØ§":1150,"ÙĪØ§Ø¨":1151,"ĠØ§ÙĦÙĤØ±Ø¢ÙĨ":1152,"âĿ¤ï¸ı":1153,"Ġj":1154,"ma":1155,"ÙĦÙĬÙĨ":1156,"Ġ*":1157,"ĠØ¬ÙĨ":1158,"ĠØ¯ÙĬ":1159,"Ø§ÙĦØ¨":1160,"ÙħØ³":1161,"ÙħØ¶":1162,"ĠØ§Ø³Ùħ":1163,"ĠÙĨÙĨ":1164,"Ø¶Ø±":1165,"ĠÙĪÙĦÙħ":1166,"ĠØ£Ø¹":1167,"Ø¯Ø¯":1168,"ÙĩÙĩ":1169,"ðŁ¤£":1170,"ÙĪÙĬØ©":1171,"Ø®ÙĬØ±":1172,"ĠÙĪØ¥ÙĨ":1173,"ÙĪØ§ÙĦ":1174,"ÙĬØŃ":1175,"ĠÙģØª":1176,"ÙĪØµ":1177,"ĠÙģØ¶ÙĦÙĥ":1178,"ÙĤØ¹":1179,"ĠÙħØ§Ø´ÙĬ":1180,"ĠØªÙģ":1181,"ÙĪØ§ÙĦÙĦÙĩ":1182,"ðŁĳ":1183,"Ġ19":1184,"ÙĬØ¨Ø©":1185,"Ø§Ø³ÙĬØ©":1186,"Ø¨Ø§ØŃ":1187,"ØªÙĦ":1188,"il":1189,"ĠØŃØ±":1190,"ÙĦÙħØ©":1191,"ØºÙĬ":1192,"ĠØ§Øµ":1193,"ĠØ§ÙĦØ®ÙĬØ±":1194,"ĠØ£ØŃØ¯":1195,"ĠØ£ÙĩÙĦ":1196,"ØĽ":1197,"Ø±ÙĬØ¯":1198,"ĠÙħØ±Ø©":1199,"ĠØ§Ø°Ø§":1200,"ĠØ§ÙĦØ¨ÙĬ":1201,"ÙĥÙĪ":1202,"ĠÙĪØ§ÙĦØ£":1203,"ÙĤÙĬÙĤØ©":1204,"ĠÙħØµ":1205,"ĠÙģÙĤØ§ÙĦ":1206,"Ø±ÙĪØŃ":1207,"Ø¸ÙĬÙħ":1208,"ĠÙĬÙĨØ¬ØŃ":1209,"ĠÙĦÙĨ":1210,"ĠØ³ÙĨ":1211,"ĠÙĤÙĦØª":1212,"ĠÙĤÙĦ":1213,"Ø¤ÙħÙĨ":1214,"ÙħØ§Ùħ":1215,"ĠØ§ÙĦØ§Ùħ":1216,"Ø²Ø©":1217,"ĠØ§ÙĦØ´ÙĬØ®":1218,"ĠØ¨Ø§ÙĦÙĦÙĩ":1219,"ĠØ§ÙĦÙĦÙĬ":1220,"ĠØ±Ø£":1221,"ĠØ£ØŃ":1222,"****":1223,"Ø§Ø¦ÙĦ":1224,"ĠÙĬØµ":1225,"ĠÙħÙĤ":1226,"ĠØ°ÙĥØ±":1227,"ĠØ£Ø¬":1228,"Ø¬Ø§ØŃ":1229,"ĠÙĤØµØµ":1230,"ĠØ¬Ø§Ùħ":1231,"ĠÙĪØ£ÙĨ":1232,"ÙĪÙĦÙĩ":1233,"ØºØ±":1234,"bi":1235,"Ø¨Ø§Ø¨":1236,"ĠØ§ÙĦØ¯ÙĬÙĨ":1237,"ĠÙĨØ¹":1238,"Ø¹Ø¯ÙĦ":1239,"Ø¨ØŃØ§ÙĨ":1240,"ĠØ¥ÙĦÙĬÙĩ":1241,"ĠØ´Ø±":1242,"Ġ!":1243,"ĠØµØŃÙĬ":1244,"ĠØ£Øµ":1245,"ĠØ§ÙĦØ°ÙĬÙĨ":1246,"ĠØ§ÙĦÙħØŃ":1247,"ÙģØ±ØŃ":1248,"Ø¯ÙĬÙĥ":1249,"ĠÙĬØ¨Ø§Ø±Ùĥ":1250,"Ø¶ØŃÙĥ":1251,"ĠØ£Ø³ØªØ§Ø°":1252,"ĠØ³Ø¨ØŃØ§ÙĨ":1253,"Ø§ÙĦØ§":1254,"ĠØ®Ø·":1255,"ÙĬØ¯Ø©":1256,"ĠØŃØ³":1257,"ĠÙĪØ§ÙĨØ§":1258,"ĠÙĨØ¯ÙĬØ±":1259,"Ø¬Ùħ":1260,"ĠÙĪØ§ÙĦØª":1261,"as":1262,"Ø§Ø³ÙĬ":1263,"ĠØ£Ø±":1264,"Ø°ÙĬ":1265,"ĠØ¨Ø´":1266,"Ø¯Ø¹":1267,"ĠØ¨Ø§Ø¨":1268,"ĠÙĤÙĨ":1269,"he":1270,"ÙĤØ±Ø§":1271,"ĠÙĪØ±ØŃÙħØ©":1272,"Ø§ÙĪØªÙĬ":1273,"ØŃØ§ÙĦ":1274,"ĠØŃØ§Ø¬Ø©":1275,"ðŁı»":1276,"ĠØ±ØŃÙħÙĩ":1277,"ĠØ±ÙĬ":1278,"ÙħØ¶Ø§ÙĨ":1279,"ÙĩÙĦØ§":1280,"ĠØ£Ø®ÙĬ":1281,"ĠØ§ÙĦØ´ÙĬ":1282,"20":1283,"Ø§ÙĥÙħ":1284,"ĠØ§ÙĦØ§Ø³Øª":1285,"ĠÙĤØ§Ø¹":1286,"ĠØ¹ÙĦÙĬÙĩÙħ":1287,"ĠÙĦØ§Ø²Ùħ":1288,"ĠØŃØ³ÙĨ":1289,"ĠÙĪÙĥØ§ÙĨ":1290,"ĠÙĪØ®":1291,"ĠØ§ÙĦØ¹Ø§ÙĦÙħÙĬÙĨ":1292,"Ġla":1293,"Ø²Ø§ÙĦ":1294,"ĠÙĨØ¨":1295,"ĠØ§ÙĦØ¬ÙĨ":1296,"ĠÂ":1297,"ØªÙĩÙħ":1298,"ĠØªÙĥ":1299,"Ø§ÙĬØ§Øª":1300,"ĠÙģÙĦØ§":1301,"ro":1302,").":1303,"ĠâĿ¤ï¸ı":1304,"ĠÙĦØª":1305,"te":1306,"ĠØ¨ÙĦØ§":1307,"Ø¯ÙĤ":1308,"ĠØµØ±":1309,"ØªÙĨØ§":1310,"ĠØ²ÙĪØ¬":1311,"Ø°ÙĨ":1312,"ĠØ´Ø®Øµ":1313,"ĠÙģÙĦ":1314,"ĠØ§ÙĦØªÙĪ":1315,"Ø²ÙĦ":1316,"99":1317,"Ø§ÙģØ©":1318,"ĠØªØ³Øª":1319,"ĠÙĦÙħØ§":1320,"ÙĦÙĪØ¨":1321,"ĠÙĨØ´ÙĪÙģ":1322,"ĠÙģÙĩÙħ":1323,"ĠÙĥÙħ":1324,"ĠØ§ÙĦÙĥØ±ÙĬÙħ":1325,"Ø³ÙĦ":1326,"ĠÙĤØµØ©":1327,"ÙĪÙĬØ§":1328,"ĠØ¹ÙĦÙĬÙĨØ§":1329,"ĠØ¹ÙĨØ¯Ùĥ":1330,"ĠØŃÙĬØ§Øª":1331,"ĠØ§ÙĦØ³ÙĬ":1332,"ĠðŁĺĬ":1333,"ÙĤØ§Øª":1334,"ðŁĩ":1335,"ÙģÙĦ":1336,"ĠÙħØ¨":1337,"ĠÙħØ«ÙĦ":1338,"ĠØ§ÙĦÙħØ³ÙĦÙħÙĬÙĨ":1339,"ÙĨØ§Ø¡":1340,"ÙĥÙĬÙģ":1341,"ĠØ¬Ø¯Ø§":1342,"ØºÙĦ":1343,"ĠÙħÙĥØ§ÙĨ":1344,"ĠØ´Ùĩ":1345,"Ġ/":1346,"ĠØ§ÙĦÙħØª":1347,"ĠÙĬÙĥ":1348,"Ø§ÙħØ§":1349,"Ø£Ø©":1350,"ĠØ§ÙĦÙħÙĨØª":1351,"ĠÙĨÙĪØ±":1352,"ĠØ§ÙĦØŃÙĬ":1353,"ÙģÙĪ":1354,"Ġ9":1355,"ĠØ¨Ø¥":1356,"di":1357,"ĠÙĦÙĩÙħ":1358,"ĠÙĪØ§ÙĦÙĪ":1359,"ĠØ§ÙĦØ¹Ø§Ùħ":1360,"ØŃØ´":1361,"ĠØ¨Ø³":1362,"Ø§ØŃØ©":1363,"ÙĤÙħ":1364,"ØªÙĪÙī":1365,"ĠÙĦÙĪÙĦØ§":1366,"Ġ7":1367,"ĠðŁĺħ":1368,"Ø¯Ø§Ø±":1369,"Ø²ÙĪØ¬":1370,"Ġ6":1371,"ĠØ§ÙĦÙħØ³Øª":1372,"Ø¯Ø«":1373,"ĠÙĬØ¨":1374,"ĠØŃÙħ":1375,"====":1376,"ÙĩØ§Øª":1377,"ĠØ³ÙħØ¹":1378,"ĠØ§ÙĦØŃØ¯ÙĬØ«":1379,"Ø§Ø³Ø©":1380,"ÙĤÙĩ":1381,"ĠÙĨÙĤÙĪÙĦ":1382,"Ø§ÙĬØ±":1383,"ĠØ§ÙĦØ¹Ø¨":1384,"ĠØ§ÙĦØ¨Ùĥ":1385,"ĠØ§ÙĦØµÙĦØ§Ø©":1386,"Ø¶Ø§Ø¡":1387,"ĠÙĬØ¯ÙĬØ±":1388,"ÙĤØ¨":1389,"Ļ¥":1390,"ĠØ§ÙħÙĬÙĨ":1391,"Ġta":1392,"ĠÙĪÙĩØ°Ø§":1393,"qu":1394,"ba":1395,"ĠØªØ£":1396,"Ø¹ÙĨ":1397,"ĠÙĨØªØ§Ø¹":1398,"ĠÙģÙĤØ¯":1399,"ÙĥØª":1400,"ĠØ¨ØŃ":1401,"Ø¹ÙĬÙĨ":1402,"ĠØ¨ÙħØ§":1403,"ĠÙĬÙħÙĥÙĨ":1404,"ĠÙĨØªØ§":1405,"Ø±Ø§Ùĥ":1406,"ĠÙģØ±ØŃ":1407,"Ø²Ø§ÙĨ":1408,"Ø¸Ùħ":1409,"ĠØ§ÙĦØŃÙĤ":1410,"ĠÙĥÙĪÙĨ":1411,"ĠØ§ÙĦØµØŃØ©":1412,"ĠÙĤÙĪÙĦ":1413,"ĠÙĪØ±Ø¨ÙĬ":1414,"Ø·Ø§":1415,"Ø£ÙĦ":1416,"ĠØªØ¯":1417,"ĠØ±ÙħØ¶Ø§ÙĨ":1418,"ĠÙħØ³ÙĦÙħ":1419,"ĠÙĩÙħ":1420,"ðŁĴĶ":1421,"ĠØªØŃØª":1422,"ÙĬÙĬÙĨ":1423,"ÙĬØ³":1424,"ÙĩØ°Ø§":1425,"ÙĨÙĬØ©":1426,"ĠØ³ÙĪ":1427,"ĠØ¯Ø¹ÙĪ":1428,"ĠÙĬÙħ":1429,"Ø´ÙĥÙĪÙĨ":1430,"Ø¨ÙĬØ§":1431,"ĠØªØ¹ÙĦÙĬ":1432,"ØŃØª":1433,"ĠÙħØ§ÙĬ":1434,"ÙĤØ¯Ùħ":1435,"ĠðŁĳ":1436,"Ø§ÙĩØ§":1437,"ĠÙĪØ¨Ø±Ùĥ":1438,"ĠÙĦØŃ":1439,"ÙĬÙģ":1440,"ÙĤÙĬØ©":1441,"ĠÙħÙĨÙĩÙħ":1442,"ĠØ£ÙħØ±":1443,"ØªÙĪÙģÙĬÙĤ":1444,"ĠØŃØ¨":1445,"ĠØ£Ø´":1446,"Ø¨Ø§Ùĥ":1447,"Ø¦Ø©":1448,"Ø§ÙĦÙĬØ©":1449,"Ø§ÙĪØ¯":1450,"ĠØ£Ø¨ÙĪ":1451,"ĠØ§ÙĦØ´Ø±":1452,"ĠÙĨÙģ":1453,"ĠØ§ÙĦØ¯ÙĨÙĬØ§":1454,"ĠØµØ§ØŃ":1455,"ĠÙĦØ§ÙĬ":1456,"ÙĢ":1457,"ĠÙĨÙĤ":1458,"ĠØŃÙĤ":1459,"ĠÙĤØµ":1460,"ĠØ®ØªÙĬ":1461,"me":1462,"ÙĦÙĪÙħ":1463,"ĠÙĦÙĥÙħ":1464,"ĠØ¯ÙĬÙĨ":1465,"ĠØ£Ø¨":1466,"ĠØ³Ø¨":1467,"âľ":1468,"ĠÙĪÙĥÙĦ":1469,"ĠØ±Ø§Ø¦":1470,"Ø¦ÙĦØ©":1471,"ĠÙĩÙĨØ§Ùĥ":1472,"ĠÙħÙĦÙĬØŃ":1473,"ĠØ§ÙĦØ£Ø®":1474,"ri":1475,"lah":1476,"ĠÙĪÙĩÙĬ":1477,"ÙĦØ§ÙĤ":1478,"ĠØ¨Ø£ÙĨ":1479,"Ø¬Ø¯":1480,"Ø±Ùħ":1481,"Ġde":1482,"ĠÙĤÙĦØ¨":1483,"ĠðŁĺŃ":1484,"ĠØªÙĩ":1485,"ĠØ¬Ø²Ø§Ùĥ":1486,"ĠÙĨØ®":1487,"ĠÙĬØŃÙģØ¶":1488,"Ø·Ø§ÙĨ":1489,"ĠØ§ÙĦØ±ØŃÙħ":1490,"Ø§ØµÙĦ":1491,"ÙĩÙĪØ¯":1492,"ĠØŃØ§ÙĦ":1493,"ĠØ£ÙĨØª":1494,"Ø°Ø±":1495,"ĠØŃÙĨØ§":1496,"Ġre":1497,"ĠØ§ÙĦÙĥØªØ§Ø¨":1498,"ĠÙĨÙĨØ¬ØŃ":1499,"ĠØ±Ø§ÙĬ":1500,"ĠÙĬÙĪ":1501,"ĠÙĪØ§ÙĦÙĨ":1502,"ÙĦÙĦÙĩ":1503,"Ġ10":1504,"Ø·ÙĪ":1505,"ĠØªØ§Ø¹Ùĥ":1506,"ÙģØ§Øª":1507,"ĠØ¨Ø§ÙĦÙħØ«ÙĦ":1508,"Ø§ÙĦØ«":1509,"ĠØ¨Øª":1510,"Ø²Ø¡":1511,"ÙĦØ³ÙģØ©":1512,"ÙģÙĩ":1513,"our":1514,"ĠÙĪØ¨Ø±ÙĥØ§ØªÙĩ":1515,"ĠØ³Ø±":1516,"Ø§Ø¨Ø¹":1517,"Ø¶ÙĪ":1518,"____":1519,"ĠÙĬØ¹Ø·ÙĬÙĥ":1520,"ĠØ±Ø§ÙĨØ§":1521,"ĠâĢĵ":1522,"ĠÙħØ¯":1523,"ĠØ§ÙĤ":1524,"Ø¹ÙĪØ¯":1525,"ĠØŃÙĦ":1526,"Ø²ÙĬØ²":1527,"Ø¨ØªÙĬ":1528,"ĠÙĪÙĦÙĬØ¯":1529,"ÙĤØªØ±ØŃ":1530,"Ø§Ø¯Ø¹ÙĪÙĦÙĬ":1531,"ÙĦÙĪÙĦØ§":1532,"Ø°Ø¨":1533,"ÙĬØ±Ø§":1534,"ĠØ±Ø¶Ø§":1535,"ĠØ·ÙĦ":1536,"Ø§Ø±Ø§Øª":1537,"ÙĥØ±Ø©":1538,"ĠØªØ¹ÙĬØ´":1539,"ÙĦØ§Ø«":1540,"ĠÙħØ§ÙĨ":1541,"ĠØªÙĤÙĪÙĦ":1542,"Ø§ÙģÙĬ":1543,"Ø§ÙĤÙĬ":1544,"ĠÙĬÙģ":1545,"ÙĥØ³":1546,"ho":1547,"ĠÙĨØ¯ÙĬ":1548,"ĠØ¬Ùħ":1549,"Ļı":1550,"ÙĥÙħÙĦ":1551,"ĠØ§ÙĪÙĦ":1552,"ĠØ³ÙĬØ¯":1553,"ĠØ£ÙĥØ«Ø±":1554,"Ø£Ø³":1555,"ĠØ£ÙĪÙĦ":1556,"ĠØ§ÙĦØ³ÙĨØ©":1557,"ĠÙĨØ³Øª":1558,"ÙĦÙĬØ´":1559,"ĠØŃÙĬØ«":1560,"Ø§Ø§Ùģ":1561,"ĠÙĪØ¹ÙĦÙī":1562,"ĠØ§ÙĦØ¨Ø±":1563,"ĠĠ":1564,"Ø¶Ø©":1565,"ĠØµØŃÙĬØŃ":1566,"ac":1567,"Ø¨Ùĥ":1568,"ĠØ£ÙħØ§":1569,"ĠØ§ÙĦÙħÙĪØ¶ÙĪØ¹":1570,"ĠØ¨Ø§Ùĩ":1571,"ĠØ§ÙĦØ§Ø¹":1572,"ØªÙĨÙĬ":1573,"ĠÂ«":1574,"ĠÙģØ¹":1575,"ĠØ§ÙĦÙħØµ":1576,"--------":1577,"Ø·Ùģ":1578,"ĠØ§ÙĦÙĪÙĤØª":1579,"ĠÙĥØ«ÙĬØ±Ø§":1580,"ĠÙĪØ§ÙĦØ¹":1581,"ĠØ«Ø§ÙĨÙĬ":1582,"ĠØ³Øª":1583,"Ø¨Ø·":1584,"ĠÙĪØ§ÙĦØ³":1585,"Ġch":1586,"ĠØ§ÙĦØ£Ø³":1587,"ĠØ¹ÙĦØ§Ùĩ":1588,"ĠØ§ÙĦØ¨ÙĥØ§ÙĦÙĪØ±ÙĬØ§":1589,"ik":1590,"ÙĪÙĩØ§":1591,"ĠØ§ÙĦØ§Ø¬":1592,"ĠÙĥØªØ¨":1593,"Ġ+":1594,"ĠØ§Ø®Ø±":1595,"ĠØ±Ø§Ø¬Ø¹ÙĪÙĨ":1596,"ĠÙħØ¹Ø§Ùĥ":1597,"ĠÙĦØ¨Ø§Ùĥ":1598,"ĠØ¯Ø®":1599,"ĠØ¢Ø®Ø±":1600,"ĠÙĨØ¹Ùħ":1601,"Ø¬ÙĬ":1602,"ĠØ§ÙģØ¶ÙĦ":1603,"ĠØ¯ÙĪÙĨ":1604,"Ġu":1605,"Ø®Ø±Ùī":1606,"Â»":1607,"ĠÙĬÙĪÙģÙĤÙĥ":1608,"ÙħÙĬÙĦ":1609,"ĠØ§ÙĨØªÙĩ":1610,"ĠØ§ÙĦÙĤØµØ©":1611,"ĠØ§ÙĦØ¹Ø¸ÙĬÙħ":1612,"ĠØ§ÙĨÙĬ":1613,"am":1614,"ĠÙĩØ°ÙĬ":1615,"ÙĬØ§Ùħ":1616,"ĠÙĬØ·":1617,"Ġles":1618,"ĠØ¬Ø§Ø¡":1619,"ĠÙĨØ§Ø³":1620,"Ø§ÙĨØ©":1621,"ed":1622,"ĠÙĬØ£":1623,"ÙĬØ§Ø±Ø¨":1624,"ðŁĺį":1625,"ĠØ®Ø±Ø¬":1626,"ÙĦØ§Ùĩ":1627,"ni":1628,"ÙĤÙģ":1629,"ĠØŃØ§Ø¨":1630,"ĠÙĥÙĦØ§Ùħ":1631,"Ø¹Ø§Ø¡":1632,"lh":1633,"ØºÙħ":1634,"Ø¬ÙĪ":1635,"ðŁĮ":1636,"Ø§ÙĦØª":1637,"ĠØµÙĦ":1638,"ĠÙĪÙĦÙĥÙħ":1639,"ĠÙĪØ·":1640,"est":1641,"ĠÙĦÙĤ":1642,"ĠØŃÙģØ¸":1643,"ÙĩØ§Ø¯":1644,"Ø§Ø¹Ø¯":1645,"Ø¹Ø§":1646,"ÙĨØ¨":1647,"ĠØ®ÙĦÙĤ":1648,"ÙĥØ§Ø±":1649,"Ø§ÙĩÙĦ":1650,"ĠØ§ÙĦØ¸":1651,"Ø§Ø³Ùħ":1652,"Ø§ÙĦÙģ":1653,"ve":1654,"ĠØ§ÙĦÙħÙĨØªØ¯Ùī":1655,"ĠØ¨Øµ":1656,"ØªÙħØ§Ø¹":1657,"ĠÙĪØŃØ¯":1658,"ĠØ§ÙĦØ«Ø§ÙĨÙĬ":1659,"ay":1660,"Ø§ÙĩØ±":1661,"ĠÙħÙĩ":1662,"ĠØ§ÙĦØ¹Ø±Ø¨ÙĬØ©":1663,"ÙĦÙĬØ·Ø©":1664,"Ø¬Ø§Ø¨":1665,"ĠØ±ÙĪØ§Ùĩ":1666,"ĠØĽ":1667,"ĠØ´Ø±ØŃ":1668,"ÙĦÙħØ§":1669,"Ø·ÙĬÙĨ":1670,"ent":1671,"ĠA":1672,"ĠØ§ÙĦØ§ØŃ":1673,"Ġ2025":1674,"Ø±Ø¯":1675,"ØŃÙĦ":1676,"ÙĤØ¨ÙĦ":1677,"ĠØ¨Ø·":1678,"ÙĤÙĬØª":1679,"ĠØ¨Ø²Ø§Ø§Ùģ":1680,"ĠðŁĻĤ":1681,"ĠØ§Ø¯Ø¹ÙĪÙĦÙĬ":1682,"ĠØ®Ø§ØµØ©":1683,"Ø®Ø°":1684,"ĠØ¬Ø¯ÙĬØ¯":1685,"ØŃÙĬÙĨ":1686,"ÙĪØ§Ø¬":1687,"ØªØ§":1688,"ĠØ£Øª":1689,"ĠØªØ§Ø±ÙĬØ®":1690,"ĠØ¹Ø²":1691,"ĠØ§ÙĦØ³Ø¤Ø§ÙĦ":1692,"ĠØªØ·":1693,"ÙĪØ¯Ø©":1694,"ĠÙħÙħÙĥÙĨ":1695,"ĠØ¹ÙĦÙĬØ§":1696,"ĠÙħØ´ÙĬ":1697,"ĠÙĦÙĥÙĦ":1698,"ĠÙĨØ¯":1699,"ĠØ§ÙĦØŃÙĥ":1700,"ĠÙĪØŃØ¯Ø©":1701,"Ø±Ø´":1702,"ĠØŃØ¯ÙĬØ«":1703,"ĠÙħØ±ØŃ":1704,"ĠØŃÙĥØ§ÙĬØ©":1705,"ÙĬØŃØ©":1706,"ak":1707,"ĠØªØ§ÙĨÙĬ":1708,"Ø§Ø¶ÙĬØ¹":1709,"ĠØ´Ùģ":1710,"Ķ¥":1711,"ÙĦÙĬÙĥ":1712,"ĠÙĪØ¯":1713,"ÙĤÙī":1714,"ÙĪØ¬Ø¯":1715,"Ø¯ÙĬØ¯Ø©":1716,"Ø´Ø©":1717,"ĠØ§Øº":1718,"Ø§ÙĩØ¯":1719,"Ø¹ÙĬØ¯":1720,"ĠðŁ¤£":1721,"ÙĨØ´":1722,"ÙģÙĤ":1723,"ĠØ±ØŃÙħØ©":1724,"ĠØ§ÙĦÙħØº":1725,"ĠØ±Ø§ÙĩÙĬ":1726,"ĠØ£Ø¯":1727,"ðŁĻĤ":1728,"Ø®ÙĬ":1729,"ĠðŁİī":1730,"ĠØ´ÙĩØ§Ø¯Ø©":1731,"Ø¯ÙĬØª":1732,"Ġvid":1733,"ĠØ±ÙĪØŃ":1734,"ĠÙĪÙĬØ±":1735,"ĠÙĬØŃÙģØ¶Ùĥ":1736,"Ø§Ø¦ÙĬ":1737,"ia":1738,"ĠÙĪÙģÙĤ":1739,"Ġ15":1740,"ĠØ§ÙĦÙĨØµ":1741,"ĠÙĬØ§Ø±Ø¨ÙĬ":1742,"ĠØ§ÙĦØ¬Ø²Ø§Ø¦Ø±ÙĬ":1743,"ĠÙĩØ¯Ø§":1744,"ĠØ´ÙĩØ±":1745,"UR":1746,"ÙĪÙħØ©":1747,"ĠÙģÙĩÙĪ":1748,"Ø£ÙĨØ§":1749,"oo":1750,"ĠÙĪØ´ÙĥØ±Ø§":1751,"ØµÙĦÙī":1752,"ĠØ§ÙĨØªÙĩÙī":1753,"ĠØ¯ÙĬØ±ÙĦÙĨØ§":1754,"Ø±Ø¬Ø¹":1755,"ĠÙĤØ±ÙĬ":1756,"Ø¹ÙħÙĦ":1757,"ØªÙħØ¹":1758,"ÙĪÙģÙĬ":1759,"ĠÙĨØŃØ¨Ùĥ":1760,"ĠÙģÙĬÙĩÙħ":1761,"ĠÙĨØ±":1762,"ĠÙĦØ§Ø¨":1763,"ĠØ£ÙĬØ¶Ø§":1764,"ÙĪØ¶":1765,"ĠÙĬÙĨØ¬ØŃÙĨØ§":1766,"ĠØ¹ÙĤ":1767,"Ø¯ÙĬÙĨØ©":1768,"ÙĬØ²":1769,"ĠÙĨØªÙģØ±Ø¬":1770,"ĠØ§ÙĦØŃÙĬØ§Ø©":1771,"ĠØ§ÙĦØªØ¹ÙĦÙĬ":1772,"ÙĪÙĬÙĨ":1773,"ĠØ¹Ø±Ùģ":1774,"ĠØ·Ø±ÙĬÙĤ":1775,"ĠÙĨØªÙĬ":1776,"Ø¨Ø¹Ø¯":1777,"ĠÙħØ¹Ø¯ÙĦ":1778,"ĠÙĨØ¹Ø±Ùģ":1779,"Ø¬Ø§Ø¨Ø©":1780,"ĠÙĤØ¯Ø±":1781,"ĠÙĥÙĬÙģØ§Ø´":1782,"Ġ8":1783,"ur":1784,"Ø±ÙĥØ©":1785,"ĠØ¯Ø§Ø¦":1786,"ĠØŃØ³Ø¨":1787,"tion":1788,"ĠâĢı":1789,"Ø¨Ø§Øª":1790,"ĠÙħÙĬØ²Ø§ÙĨ":1791,"ĠØ§ÙĨØ´Ø§Ø¡":1792,"ne":1793,"ĠØ¬Ø²ÙĬ":1794,"Ø§ÙħÙĬ":1795,"ÙĦÙħÙĬ":1796,"ÙĪØ§Ø±":1797,"ĠØ§ÙĦÙĬÙĩ":1798,"ĠØ³Ùħ":1799,"ĠØ³Ø¤Ø§ÙĦ":1800,"ĠØ´Ø¹Ø¨Ø©":1801,"ĠØ¨ÙĪ":1802,"Ġr":1803,"Ø§ÙĨØª":1804,"Ø§Ø¡Ø©":1805,"ĠØ±ÙĪØŃÙĬ":1806,"ĠØ¨ÙĨØª":1807,"ĠØ§ÙĦÙħÙĩÙħ":1808,"ĠÙĬØ¹Ø±Ùģ":1809,"ĠØ§ÙĦØ¥ÙĨØ³":1810,"ÙĪØ±Ùĥ":1811,"Ø³ÙĬØŃ":1812,"Ġle":1813,"Ġ16":1814,"ĠÙĪØ²":1815,"ĠÙĨÙģØ³Ùĩ":1816,"ĠØ«ÙĦØ§Ø«":1817,"ÙĬØ§ØªÙĬ":1818,"Ġ18":1819,"ĠØ²ÙĬØ¯":1820,"ĠÙĥØ±":1821,"URL":1822,"ĠØ´ÙĬØ¦":1823,"Ø§ÙģÙĬØ©":1824,"ĠÙħÙĪØ¶ÙĪØ¹":1825,"ðŁĺ®":1826,"ĠÙĪÙĦÙĪ":1827,"ĠÙĨÙĩØ§Ø±":1828,"ĠØ§ÙĦØ¶":1829,"ĠØ®Ø§ÙĦ":1830,"ĠØ§ÙĦØ±ØŃÙħÙĨ":1831,"ĠÙĪØ§Ø¬":1832,"Ġ0":1833,"Ø¨ÙĬØ±":1834,"ĠÙĪØ§ÙĦØŃ":1835,"ĠÙħÙĨÙĥ":1836,"Ø±ÙĤ":1837,"ĠØªØ±Ùĥ":1838,"ÙĬÙħØ§ÙĨ":1839,"ĠÙĥÙĬÙģØ§Ùĩ":1840,"Ġin":1841,"ĠØ§ÙĦÙĤÙĬ":1842,"em":1843,"Ġ((":1844,"ĠÙĪÙħØ¹":1845,"ĠØŃÙĪÙĦ":1846,"ĠØ´ÙĬØ®":1847,"ÙĩØ©":1848,"ĠØ±Ùĥ":1849,"ðŁ¥º":1850,"ĠðŁĺ¢ðŁĺ¢":1851,"Ø§Ø¶ÙĬ":1852,"ĠØ§ÙĦØ£ÙħØ±":1853,"Ø²Ùħ":1854,"ĠØ§ÙĦÙħØ®":1855,"10":1856,"ĠØ±Ø§ÙĩÙħ":1857,"Ġâľ":1858,"ĠÙħÙħØ§":1859,"Ø°Ø§Ø¨":1860,"ĠÙħØ¤":1861,"ĠÙĪØµØŃ":1862,"ĠØªÙĦ":1863,"Ø°Ø©":1864,"Ø³Ø¨Ø¨":1865,"Ġli":1866,"ØŃØ§Øª":1867,"Ġo":1868,"ĠÙĤØª":1869,"ĠØ§ÙĦÙĨØ¬Ø§ØŃ":1870,"Ø³Ùĥ":1871,"ĠÙĬØ¬Ø¨":1872,"ĠØ§ÙĥØ«Ø±":1873,"Ġ{":1874,"ĠÙħØ§ÙĦ":1875,"ĠÙħØ·":1876,"ĠØ´ÙĥÙĪÙĨ":1877,"ØªØ§Ø¬":1878,"ĠÙĩØ¯":1879,"ĠÙĪØºÙĬØ±":1880,"Ø¨Ø±ÙĪÙĥ":1881,"ing":1882,"ĠØªØ¹Ø±Ùģ":1883,"nd":1884,"ĠÙĤØ¨":1885,"ØªØµ":1886,"ÙĦØ§Ø¡":1887,"ĠÙĬÙĦ":1888,"Ø±Ø§ÙĨÙĬ":1889,"ĠÙĬØŃØ¨":1890,"ĠÙĥÙĦØ´":1891,"Ø²Ø§Ø¦Ø±":1892,"ĠØ§ÙĦØ£Ø±Ø¶":1893,"ĠÚ¨":1894,"ÙĩÙĨ":1895,"ĠØªÙĦÙĥ":1896,"ĠØ´Ø¹Ø±":1897,"ÙĪÙĦØ§":1898,"Ġ17":1899,"Ġyou":1900,"Ø¬ÙĨ":1901,"Ø¥Ø°Ø§":1902,"ÙĨØ§Ùĥ":1903,"Ø±ÙĬØŃ":1904,"Ø§ÙħØ¬":1905,"ĠØ¯Ø±ÙĪ":1906,"ĠØ¢ÙħÙĬÙĨ":1907,"ÙĨØ³Ø¨Ø©":1908,"ĠØ®Ø§Ø·":1909,"Ø§Ø¨Ø¹Ø©":1910,"Ø¸Ø©":1911,"at":1912,"Ġ2026":1913,"ĠØ§ÙĦØ®Ø·":1914,"ĠØ§ÙĦØŃØ±":1915,"Ġe":1916,"ĠØ³ÙĪØ±Ø©":1917,"ØªØ¯":1918,"Ø¬Ø¹":1919,"ÙĪØ§Ø´":1920,"ĠØ±ØŃ":1921,"ĠB":1922,"ĠØ§ÙĦØ£ÙĨ":1923,"ĠÙĥÙĨ":1924,"ĠÙĥÙĦÙħØ©":1925,"ĠØŃÙĥÙħ":1926,"ĠÙĦÙĬÙĥ":1927,"ĠØ§ÙĦÙĪØ·":1928,"Ø£Ø³ØªØ§Ø°":1929,"ÙħÙĬØ²":1930,"ĠÙĥØ¨ÙĬØ±":1931,"ĠÙħÙħØª":1932,"ĠØ§ÙĦØ´Ø¹Ø±":1933,"ĠÙĨÙĤØ±Ø§":1934,"ĠM":1935,"ĠØ±Ø³":1936,"Ġthe":1937,"ĠØ³Ø¨ØŃØ§ÙĨÙĩ":1938,"Ø¨Ø§ÙĦ":1939,"ĠÙĪØ§ÙĦØ´":1940,"ØªØ§Ø±":1941,"ÙħØ¹ÙĬÙĨ":1942,"ĠØ¬Ø¯":1943,"ci":1944,"ĠÙĪÙĦÙĬØ³":1945,"ÙĪÙĨØ§":1946,"ĠÙĦÙħÙĨ":1947,"ĠÙĥØ«":1948,"ĠØ·Ø±ÙĬÙĤØ©":1949,"ÙĦØ§Ùģ":1950,"ĠØºÙĬ":1951,"Ø±ÙģØ©":1952,"ĠØ±Ø¹Ø¨":1953,"ĠØ±Ø§ÙĥÙĬ":1954,"ĠÙħØ²Ø§ÙĦ":1955,"ĠØ§ÙĦÙĨØ³":1956,"ĠÙĤÙĪØ©":1957,"ĠÙħØŃØªÙĪÙī":1958,"ĠÙĨÙĤØ¯Ø±":1959,"Ø¯ÙĬÙħ":1960,"ĠðŁĺį":1961,"ĠÙħØ¹ÙĨØ§":1962,"ĠÙģØ§Øª":1963,"ÙĪØŃ":1964,"ĠØªØŃÙĬØ§ØªÙĬ":1965,"ĠØ§ÙĦØµØ¨Ø±":1966,"ØµØŃØ§Ø¨":1967,"Ø¨ÙĬÙĦ":1968,"ĠØ§ÙĦØ¹ÙħÙĦ":1969,"ĠØ£Ø¹ÙĦÙħ":1970,"Ø¨Ø§Ø±":1971,"ĠÙĦØº":1972,"ĠÙĤÙĦØ¨ÙĬ":1973,"ĠØ¹ÙĨÙĩØ§":1974,"ka":1975,"ĠØ§ÙĦÙĦØºØ©":1976,"Ø¬ÙħÙĬØ¹":1977,"ĠØ¨ÙħØ¹Ø¯ÙĦ":1978,"ĠØ®Ø§ÙĪØªÙĬ":1979,"ĠØŃÙĬÙĨ":1980,"Ø¹ÙĬØ©":1981,"ĠØ´ÙģØª":1982,"ĠðŁĮ":1983,"ÙģØ§Ø±":1984,"Ø¬Ø²":1985,"ĠØ£Ø®ØªÙĬ":1986,"ÙĪÙī":1987,"Ø¯Ø§ÙĬØ©":1988,"ØŃÙĥØ§ÙĬØ©":1989,"ĠÙħØ§Ùĩ":1990,"Ø¬Ø¨Øª":1991,"ĠØ§ÙĦØ£ÙĪÙĦ":1992,"ĠØ³ÙĦØ§Ùħ":1993,"ĠØ¹ÙĬÙĨ":1994,"ĠÙĥÙħÙĦ":1995,"ÙĪÙĦÙĨØ§":1996,"Ø³Ø·":1997,"Ø¯ÙĬÙĩ":1998,"ÙģÙĬØ¯":1999,"ĠÙĨØ²":2000,"ĠÙĨØŃÙĨ":2001,"ĠØ¹ÙĨØ¯ÙĪ":2002,"ĠØ£ØŃÙħØ¯":2003,"ÙĤØ³ÙĬ":2004,"Ġfi":2005,"us":2006,"Ġya":2007,"Ø¨ØµØŃ":2008,"Ø±Ø§":2009,"ĠÙĤÙĪÙĦÙĩ":2010,"Ø¨ÙĬÙĩ":2011,"202":2012,"ØªÙĬÙĨ":2013,"ĠÙĥØ«Ø±":2014,"Ġ12":2015,"ĠØ§ÙĦÙħØ¤ÙħÙĨ":2016,"ĠÙĪØ§Ø¹":2017,"ĠØªØ¹ÙĦÙħ":2018,"ĠÙĨØ¬ØŃ":2019,"ÙģØ³ÙĬØ±":2020,"ÙĨØ§Øª":2021,"ĠØ¹Ø§Ø¯ÙĬ":2022,"ĠØ¨ÙĥÙĦ":2023,"Ø·ÙĬØ¹":2024,"ÙħØ´":2025,"Ø·Ø§Ø±":2026,"ÙĩÙĪØ±":2027,"Ø²ÙĨ":2028,"Ø¹ÙħØ§ÙĦ":2029,"Ø§Ø¯Ùĩ":2030,"ÙĤØµØ©":2031,"Ø±ÙĬÙģ":2032,"ĠÙĪØ¬Ùĩ":2033,"ĠØ£ÙģØ¶ÙĦ":2034,"ĠÙģÙĪÙĤ":2035,"Ø´Ùģ":2036,"Ø®Ø±Ø©":2037,"Ø¶ÙĬØ©":2038,"ÙĤØªØ±ØŃØ§Øª":2039,"Ø¬Ø§ÙĦ":2040,"ĠØ§ÙĦÙħÙĩ":2041,"ĠØ¹ÙĨØ¯ÙħØ§":2042,"ĠØ§ÙĦÙĤØµØµ":2043,"ĠÙĨÙĩ":2044,"ĠØ§ÙĦÙĨØ§Ø±":2045,"Ø®Ø§Ø±ÙĬ":2046,"âľ¨":2047,"ĠÙĬØ±Ø²ÙĤ":2048,"Ø§ÙģØ¶ÙĦ":2049,"Ø§ÙĪØ¨":2050,"ĠÙĩØ§Ø°ÙĬ":2051,"ØªÙĤ":2052,"ĠØ£Ø®Ø±Ùī":2053,"ĠØ¬Ø§":2054,"ĠÙĨØ³ÙħØ¹":2055,"ÙĪØªÙĬÙĪØ¨":2056,"ĠÃ":2057,"ĠÙĪØ¬ÙĦ":2058,"ĠØ¬Ø²ÙĬÙĦØ§":2059,"Ø±ÙĬÙĨ":2060,"ĠØ´ØŃØ§ÙĦ":2061,"Ļ¥ï¸ı":2062,"Ø²ÙĬØ©":2063,"os":2064,"ÙĦÙħØ§Øª":2065,"ÙĨØ¹":2066,"ĠÙģÙĦÙĬ":2067,"ĠÙĬØ¬Ø§Ø²":2068,"Ø¹Ø§Ø¯Ø©":2069,"ĠÙģÙĨ":2070,"ĠÙĬÙĪÙģÙĤÙĨØ§":2071,"ÙĦÙĥÙħ":2072,"ĠðŁĩ":2073,"ÙĨÙĪ":2074,"ĠÙĪØ§Ø±":2075,"Ġki":2076,"wa":2077,"Ø±Ø¨Ø©":2078,"ĠØ§ÙĦØ±Ø³ÙĪÙĦ":2079,"ĠØ§ÙĦØ§Ø¨":2080,"ĠØ£Ùĩ":2081,"ĠØŃØ³ÙĨØ§ØªÙĥ":2082,"!!":2083,"ĠÙħØ§Ø±":2084,"ĠØ¨ÙĤ":2085,"Ø§ÙħÙĦØ©":2086,"ĠØ§ÙĨÙĪ":2087,"Ø§ÙĪÙĬ":2088,"ĸ¤":2089,"ĠÙħØº":2090,"Ø¨ÙĬÙĨ":2091,"ØªÙģ":2092,"ÙĤÙĪÙĦÙĩ":2093,"ĠØ§ÙĦØ¨ÙĦ":2094,"ĠØ§ÙĦØ¥ÙĨØ³Ø§ÙĨ":2095,"ĠØµØ¨Ø§ØŃ":2096,"ĠØ¯Ø§Ø¦ÙħØ§":2097,"ĠÙħØ§Ø´Ø§Ø¡":2098,"ol":2099,"ĠÙĪØ§ÙĦØ¥":2100,"ce":2101,"ĠØ®Øµ":2102,"ÙĪØ§ÙĤØ¹":2103,"ĠðŁ¥º":2104,"ĠÙĩØ§Ø¯ÙĬ":2105,"ĠÙħØ§Ùĥ":2106,"ĠâĢ¬":2107,"ĠÙĩØ§ÙĬ":2108,"ĠØ¨Ø§ÙĦÙĨ":2109,"Ø§ØªÙĥÙħ":2110,"ĠØ¨Ø§ÙĦØªÙĪÙģÙĬÙĤ":2111,"ĠÙĥÙģ":2112,"ĠØ§ÙĨÙĩ":2113,"ĠØ§ÙĦØ¹ÙĦÙħØ§Ø¡":2114,"ÙĨÙĬÙĨ":2115,"Ø±Ø§Ø¨":2116,"ÙĦØ³ÙĦØ©":2117,"ĠØ£ØŃØ¨":2118,"Ġqu":2119,"ĠØ§ÙĦØ´Ø¹Ø¨":2120,"ÙĤÙĬÙĨ":2121,"ĠÙĪØªØ¹":2122,"ĠØ§ÙĦÙħÙĦ":2123,"ĠØ´Ø¹":2124,"Ø±Ø¶Ø§":2125,"ĠØ³ÙĬØ¯ÙĨØ§":2126,"ÙĥØ±ÙĬ":2127,"ÙĦØ³Ø·ÙĬÙĨ":2128,"ÙħÙĬÙĦØ©":2129,"ĠÙĨÙħ":2130,"ÙĤØ±Ø£":2131,"ĠØ§ÙĦØ¨Ø®Ø§Ø±ÙĬ":2132,"ÙĦØ§Øª":2133,"ĠØ§ÙĦØ§Ø³ÙĦØ§Ùħ":2134,"Ø³ÙĬØª":2135,"ĠÙĪØ§ÙĦØ³ÙĦØ§Ùħ":2136,"ĠØ¨Ø¥Ø°ÙĨ":2137,"ĠÙĤØ§ÙĦØª":2138,"ÙħØ§Ø´":2139,"ĠÙħØ±ØŃØ¨Ø§":2140,"ĠÙĨØ¸":2141,"ĠÙħÙĨØ§":2142,"âĢı":2143,"ĠØ§ÙħØ§":2144,"ÙĥÙĪØ±":2145,"ĠÙĪØ§Ø³":2146,")ØĮ":2147,"ÙĬØ§Ø±Ø¨ÙĬ":2148,"ĠØ¯Ø±Øª":2149,"Ø¨Ø±Ø©":2150,"Ø¬Ùĩ":2151,"ĠØ§ÙĦØ§Ø¯":2152,"ĠØŃØ¨ÙĬØ¨ØªÙĬ":2153,"19":2154,"ÙĨØ³ÙĬØ©":2155,"Ø¹Ùĩ":2156,"ĠØ§ÙĦÙģØ§Ø¶":2157,"Ø¨ÙĤÙī":2158,"Ġ14":2159,"ĠØ§ÙĦÙģØª":2160,"ÙħØ¹Ø©":2161,"Ġ2024":2162,"Ø±Øª":2163,"Ġet":2164,"Ø¸ÙĩØ±":2165,"ĠØ§ÙĦØ±ÙĬ":2166,"ĠÙĩÙĥØ§":2167,"ĠØ¨Ø§ÙĦÙĨØ³Ø¨Ø©":2168,"ĠÙĨÙĪØ¹":2169,"ĠØ·ÙĦØ¨":2170,"Ġou":2171,"ØŃÙĨ":2172,"ĠØ§ÙĦÙĥØ±":2173,"ĠØ¯ÙĬØ±ÙĬ":2174,"ĠØ¹ÙĦÙĪÙħ":2175,"ĠÙĤØ·":2176,"ĠØ§ÙĨÙĥ":2177,"ĠØ§ÙĦØ§ÙĪÙĦ":2178,"ĠØ±Ø¯":2179,"ge":2180,"ad":2181,"ĠÙĦØ®":2182,"ĠØ§ÙĦØ£ÙħÙĬØ±":2183,"ĠØ¯Ø¹ÙĪØ©":2184,"ØµÙĪÙĦ":2185,"ĠØ§ÙĦØ±Ø¬ÙĦ":2186,"ÙĬØ±ÙĬ":2187,"ĠØ¨ÙĦØ§Ø¯":2188,"ĠÙħØ§Ø¹":2189,"ĠÙħÙĨØª":2190,"ØªÙĦÙģ":2191,"Ø§Ø¸":2192,"ÙģÙĦØ©":2193,"ĠL":2194,"ĠØµÙģ":2195,"Ø§ÙĦØ¬":2196,"Ø¨ÙĬØ¨":2197,"ĠØ§ÙĦØªØŃ":2198,"ĠÙģÙĬÙħØ§":2199,"Ø§Ø±Ø¬":2200,"Ø§Ø¤":2201,"ÙĦÙĬÙĥÙħ":2202,"cha":2203,"Ġ!!":2204,"ĠØ¹Ø§Ø¯":2205,"ĠÙĦÙĦØ£":2206,"ĠØ¹ÙĬ":2207,"ĠØ§ÙĦØŃÙĦ":2208,"ĠØ¨ÙĬÙĩ":2209,"ĠØŃØ³Ø§Ø¨":2210,"ĠØ³Ø£":2211,"ek":2212,"Ø±ÙĬÙĥ":2213,"ĠÙĬØ¹ÙĦÙħ":2214,"ÙĬÙħØ©":2215,"ĠØ¹Ø§Ø¦":2216,"Ø§ÙĩÙĬÙħ":2217,"to":2218,"ĠØ§ÙĦÙĦÙĬÙĦ":2219,"Ø§ØŃØ¯":2220,"Ø¬Ø¨ÙĨÙĬ":2221,"ÙĩØ¨":2222,"Ø§Ø¦Ø±":2223,"ĠØ§ÙĦØ¯Ø§Ø±":2224,"ĠØ®ÙĦØ§ÙĦ":2225,"ĠÙĪÙĨØª":2226,"ĠØªØŃÙĥÙĬ":2227,"ĠÙħÙĪØ±":2228,"ĠØ¨ÙĬÙĩØ§":2229,"ĠØ²ÙĬ":2230,"Ø²Ø¹":2231,"Ø®Ø§ÙĪØªÙĬ":2232,"ĠÙħØ§Ùħ":2233,"ĠÙħØ§Ø²":2234,"ĠØ¬ÙĬ":2235,"Ø±ÙĪØ¹":2236,"ĠØ§ÙĦÙĤÙĦØ¨":2237,"Ø§ØªØ¨":2238,"im":2239,"Ġ=":2240,"ĠØŃØ·":2241,"ont":2242,"Ø§Ø³ØªØ§Ø°Ø©":2243,"15":2244,"ĠÙĪØ§Ø¨":2245,"ÙĨØ³Ø§":2246,"ĠØ¨ÙĬÙĥ":2247,"ÙĥÙĬÙĦ":2248,"ĠÙģØ³ÙĬØŃ":2249,"ĠØ¹Ø¯Ø¯":2250,"ĠÙĬØ¬ÙĬ":2251,"Ø§ÙĥÙĦ":2252,"ĠØ§Ø±ØŃÙħ":2253,"ĠØ¬ÙħÙĬØ¹Ø§":2254,"ĠØ³ÙĦÙħ":2255,"ĠØ§ÙĦØ£ÙĪ":2256,"ĠØ§ÙĦØ¥ÙħØ§Ùħ":2257,"ĠØªÙĦÙĤ":2258,"ÙĨÙĩ":2259,"ĠÙħØ§Ø°Ø§":2260,"Ø§Ø¦ÙĤ":2261,"Ġ?":2262,"ĠÙĬØº":2263,"ĠØµØº":2264,"ØŃÙħÙĦ":2265,"ĠÙĪØ¢":2266,"ĠÙĬØ®Ø±Ø¬":2267,"ØªØ¹":2268,"ĠØµØ¯":2269,"ĠØ®ÙĦÙĬ":2270,"ĠØ³ÙħØ¹Øª":2271,"ĠØ¨Ø§ÙĦØ£":2272,"ĠÙĪÙĦØ§ÙĬØ©":2273,"ĠØ§ÙĦÙħØ±Ø£Ø©":2274,"ĠØ·ÙĪÙĦ":2275,"ĠØ§ÙĦØ«Ø§ÙĦØ«":2276,"ÙĦÙĪØ¯":2277,"ĠÙĦÙĤØ¯":2278,"Ø°ÙĩØ¨":2279,"Ø®ÙĪÙĬØ§":2280,"ĠÙĬÙĥÙĨ":2281,"ĠØ±ÙĤÙħ":2282,"Ġto":2283,"ĠØ§ÙĦØ¬ÙĦ":2284,"ĠØ§ÙĦÙĥØ«ÙĬØ±":2285,"ĠØ§ÙĦÙĤÙĨ":2286,"ÙģÙĥ":2287,"ĠØµØ§ÙĦØŃ":2288,"ĠÙĨÙĦÙĤ":2289,"ðŁĶ¥":2290,"ĠØ§ÙĦØªØ¹":2291,"ÙĨØ§ÙħØ¬":2292,"ep":2293,"Ø¹ÙĦÙī":2294,"ĠR":2295,"ĠØ§ÙĦØªØ§Ø±ÙĬØ®":2296,"ĠðŁ¤£ðŁ¤£":2297,"ĠØ§ÙħØ±":2298,"Ø§Ø¦Ø¯":2299,"Ø³ÙĪ":2300,"Ø¹Ø§Ùħ":2301,"ØªÙĪØ¨":2302,"ĠØŃÙĥØ§ÙĬØ§Øª":2303,"Ġkh":2304,"ÙĪÙĥØ§ÙĨ":2305,"ĠÙĪØ¨Ø§Ø±Ùĥ":2306,"ĠØ¹ÙħÙĦ":2307,"Ø±ÙĪÙģ":2308,"ðŁĺ¢ðŁĺ¢":2309,"Ø³Ø§Ùħ":2310,"ĠØŃÙĪ":2311,"Ø§ÙĬÙĩ":2312,"ï´":2313,"ÙħØ§Ø¡":2314,"Ø²Ø§Ø¡":2315,"Ø¨ÙĦÙĬ":2316,"ÙĨØ§Ùĩ":2317,"ĠÙģÙħÙĨ":2318,"Ø·Ø¨":2319,"Ø¬ÙĦÙĬ":2320,"ĠØ²Ø¹":2321,"ðŁĻı":2322,"ĠÙĥØ§ÙĦ":2323,"ĠØ¨Ø¯ÙĬØª":2324,"ĠØ§ÙĦØ¹Ø¨Ø§Ø³ÙĬØ©":2325,"ĠÙħØªÙĪ":2326,"Ø±Ø¨ØŃ":2327,"12":2328,"Ø¯Ø±Ø³Ø©":2329,"ĠÙĥØ¨ÙĬØ±Ø©":2330,"ÙĥØ±Ùĩ":2331,"ĠÙĦØ£ÙĨÙĩ":2332,"Ø¹Ùĥ":2333,"ÙĤÙĪÙĦÙĬ":2334,"ĠS":2335,"Ø§Ø¦Ùĥ":2336,"ĠÙĨØ´Ø§ÙĦÙĦÙĩ":2337,"ĠØ´Ø¨Ø§Ø¨":2338,"Ø§ÙĪÙĬØ©":2339,"ĠÙĨÙĥ":2340,"ÙħØ§Ø±":2341,"ĠÙĪÙĪ":2342,"ĠÙģÙĬÙĥÙħ":2343,"ĠØ¬Ø¯ÙĬØ¯Ø©":2344,"ĠØ§ÙĦØ¹Ø±Ø¨ÙĬ":2345,"Ø¨ÙĬØª":2346,"ĠØ·ÙĪÙĬ":2347,"ĠØ´ÙĬØ¦Ø§":2348,"ĠØ§ÙĦØªØ¬":2349,"ĠØ§ÙĦØ´Ø®Øµ":2350,"Ø¯ÙĬØ©":2351,"Ġcha":2352,"ĠT":2353,"ĠÙĨØ§Ø¬":2354,"ĠÙĥÙĨØ§":2355,"ĠØ±ÙĪØ¹Ø©":2356,"Ø¯ÙĬØ±ÙĦÙĨØ§":2357,"ĠØ¯Ø®ÙĦ":2358,"Ø¹ÙĦÙĩØ§":2359,"ĠØ¹Ø´Ø±":2360,"ØŃÙĬØ¯":2361,"ĠÙĪØ§Ø³Øª":2362,"Ġal":2363,"Ø±ÙĬÙħØ©":2364,"ĠØ¨Ø¯ÙĪÙĨ":2365,"Ø§ÙĨÙĩ":2366,"ĠØ¨Øº":2367,"kh":2368,"ĠØ±Ø¬ÙĦ":2369,"ĠØ§ÙĦØ¹ÙĤ":2370,"ĠØ¹Ø´":2371,"Ø£Øª":2372,"ĠØ±ÙĪØŃÙĥ":2373,"ĠÙģØ¹ÙĦ":2374,"ĠØ¯Ø±ÙĪØ³":2375,"ĠðŁ¤²ðŁı»":2376,"9999":2377,"ĠÙħÙĨÙĬ":2378,"ØµÙģ":2379,"ĠØ·ÙĬØ¨Ø©":2380,"Ø±Ø³":2381,"ĠØŃØ¯":2382,"========":2383,"ĠÙĬØ´ÙĪÙģ":2384,"ĠÙħØ«ÙĦØ§":2385,"********":2386,"hh":2387,"ĠÙĬØ§Ø®":2388,"ĠI":2389,"ĠØ£ÙĦÙģ":2390,"Ø§Ø¹Ø§Øª":2391,"ĠÙģØ¥Ø°Ø§":2392,"Ø¤ÙĦØ§Ø¡":2393,"ab":2394,"ire":2395,"Ø¹ÙĦÙĪÙħ":2396,"ĠØ§ÙĦØ·Ø¨":2397,"ØªÙĥÙħ":2398,"ĠÙĦÙĦÙĨ":2399,"ÙĤØ±Ø§ÙĪ":2400,"ÙĦØ·":2401,"Ø·ÙĦØ¹":2402,"ĠÙģÙħØ§":2403,"ĠÙĦØ´":2404,"Ø§Ø¨Ø·":2405,"ĠØ³Ø§Ø¹Ø©":2406,"Ø³Ø§Ø¨":2407,"ĠÙģÙĦÙħ":2408,"ĠÙĪÙĦØ¯":2409,"ÙĨØ³ÙĬ":2410,"ÙħØ¯":2411,"ĠÙĪØ§ÙĦØ¯":2412,"ĠØ®ÙĬ":2413,"ĠØ¹ÙħØ±ÙĬ":2414,"ĠØ¹Ø¯Ùħ":2415,"ĠØ¨ÙĨÙĬ":2416,"ĠÙĪÙĬØ¹":2417,"Ø¬ÙĬØ¨":2418,"ĠÙĨÙĬ":2419,"ĠØ¯Ø¹":2420,"ĠÙģÙī":2421,"ĠÙĬØ¬Ø§Ø²ÙĬÙĥ":2422,"ĠØ§Ø³ØªØ§Ø°Ø©":2423,"ĠØ¨ÙĦÙĬØ²":2424,"ĠÙħØ±ÙĬ":2425,"©ðŁĩ":2426,"ĠØ±Ø§ÙĩÙĪ":2427,"Ø®ÙĦØµ":2428,"ĠÙĨÙģØ³ÙĬ":2429,"Ø¬Ø¨ØªÙĨÙĬ":2430,"ØªØ±Ùĥ":2431,"ĠØŃØ§Ø¨Ø©":2432,"ĠÙĪØ§Ø®":2433,"ĠÙĥØ°ÙĦÙĥ":2434,"ĠØ¥ÙĦÙĩ":2435,"16":2436,"0000":2437,"Ø¯Ø¨":2438,"©ðŁĩ¿":2439,"ĠØ§Ø·":2440,"ĠÙħÙĦÙĬÙĪÙĨ":2441,"ĠØ§ÙĦØ§ÙĪ":2442,"Ø§Ø¦ÙĬØ©":2443,"ĠØ§ÙĦØ¯Ø¹Ø§Ø¡":2444,"Ġhh":2445,"ĠØ§ÙĦÙģÙĬ":2446,"ÙĤØªÙĦ":2447,"ĠÙĬØªÙħ":2448,"ĠÙħØ¹Ø§ÙĬØ§":2449,"ÙĤÙĤ":2450,"Ġbe":2451,"ĠØ¨Ø¬":2452,"ĠØ®ÙĪÙģ":2453,"ĠØ§ÙĦÙħØ¤":2454,"ĠØ¨Ø®ÙĬØ±":2455,"ĠÙĨÙĪ":2456,"ÙĬØ¯Ø§":2457,"Ø·ÙĪØ±":2458,"ĠØ§ÙĦÙĥÙĦØ§Ùħ":2459,"ĠØ£Ùģ":2460,"Ø§ÙĦØ´":2461,"ÙĪÙĨØ©":2462,"Ø§Ø¶ÙĬØ§Øª":2463,"ĠÙĬØ¬ÙĪØ²":2464,"14":2465,"ĠØ§ÙĦÙħÙĤ":2466,"ÙĤÙĬÙĤ":2467,"ÙĨØ§Ø´":2468,"Ã¨":2469,"Ø¬Ø²Ø§Ùĥ":2470,"ĠÙĬØ´ÙģÙĬ":2471,"ØŃØ¨Ùĥ":2472,"ĠÙĤÙĨØ§Ø©":2473,"ĠØ¬Ø§Øª":2474,"Ø§ÙħÙĬÙĨ":2475,"ĠØ§ØŃØ³ÙĨ":2476,"Ø§Ø¬Ø¹Ø©":2477,"ÙĦÙĬÙħ":2478,"Ø§Ø²ÙĬ":2479,"ĠØ§ÙĨØ³Ø§ÙĨ":2480,"ĠØ§ÙĦØ¬Ùħ":2481,"ØµØ§Ø±":2482,"Ø·ÙĪØ±Ø©":2483,"ĠÙĬØ¤":2484,"Ø§Ø·ÙĦ":2485,"ĠØµØ§ØŃØ¨":2486,"ĠØŃØ¯Ø«":2487,"ĠÙħØ§ÙħØ§":2488,"Ø§ÙĦÙĪ":2489,"ÙĤØ·Ø¹":2490,"ĠØ§ÙĦØ¬ÙĪØ§Ø¨":2491,"ĠØ£ÙĨÙĩØ§":2492,"ĠÙĥØ§ÙĨÙĪØ§":2493,"ĠÙĪØ¹ÙĨ":2494,"ðŁ¥°":2495,"ÙĦØ§ÙħØ©":2496,"ĠØªØŃØ¨":2497,"Ø§ÙģØ±":2498,"ĠØ§ÙĦØ±Ø¯":2499,"ĠØ¨Ø§ÙĦØ¹":2500,"ĠØ¹ÙĨØ¯ÙĩØ§":2501,"ĠÙģÙĤ":2502,"ĠÙĩÙĪÙħØ§":2503,"ĠÙĪÙĦÙĩ":2504,"Ø§Ø±ÙĬØ©":2505,"ĠØ¶ØŃÙĥ":2506,"ĠØ§ÙĦØ¹Ø±Ø¨":2507,"ĠÙĦÙĬØ³Øª":2508,"ĠØŃØ¨ÙĬØª":2509,"ĠØ§ÙĦØµØ§ÙĦØŃ":2510,"Ø«Ø©":2511,"ĠØªÙĪØŃØ´":2512,"Ø¯ÙĪØ©":2513,"ous":2514,"ĠØ§ÙĦØ¢ÙĬØ©":2515,"))":2516,"Ø§ØªÙĩØ§":2517,"ĠØ¯Ø§Ø®":2518,"ĠØ¯Ø±Ø³":2519,"Ø¯ÙħØ©":2520,"ĠØ¶ÙĬ":2521,"Ø§Ø¨ÙĬ":2522,"ĠØ¹ÙĦØ§Ø´":2523,"Ø§ÙģØ¸":2524,"ĠÙħØ§Ø¯":2525,"ĠØ§ÙĦØ´ÙĬØ·Ø§ÙĨ":2526,"ÙĨØ§ÙĨ":2527,"Ġ13":2528,"ĠØ§ÙĦØŃÙħ":2529,"ĠØªÙĬ":2530,"ĠØºØ§ÙĦ":2531,"ĠØ§Ø¶":2532,"ĠØ§ÙĦØ¨ÙĬØª":2533,"ĠÙĨØªÙĪ":2534,"ĠØ¨Ø§Ø³":2535,"Ø«Ø¨Øª":2536,"ĠÙĪØ§ØŃØ¯Ø©":2537,"Ø´ÙĪ":2538,"ðŁĳį":2539,"ĠÙħØ¶":2540,"ĠØ¨ÙĩØ°Ø§":2541,"13":2542,"ĠÙģØ³":2543,"Ø§Ø¦Ùħ":2544,"Ø¯ÙĪØ§":2545,"ØµÙĦØŃ":2546,"ĠÙĬÙĤØ¯Ø±":2547,"ĠÙģØªØŃ":2548,"Ġ**":2549,"Ø¯ÙĬØ§":2550,"ĠÙĪØªÙĪ":2551,"ĠÙĩÙĥØ°Ø§":2552,"ĠØµÙĪØª":2553,"ĠÙĪØ³ÙĦÙħØµÙĦÙī":2554,"ĠÙĪØ§ÙĦØµ":2555,"ĠØ§ÙĦØ¬Ø²Ø§Ø¦Ø±ÙĬØ©":2556,"Ø§Ø³Ø¨":2557,"ĠØ´ÙĪÙĬØ©":2558,"ĠÙħÙĩÙħ":2559,"ĠÙĪØ¨Ø¹Ø¯":2560,"ĠÙħÙĪØ¬":2561,"ØŃÙĬÙħ":2562,"ÙĦÙĬØ·Ø§":2563,"ĠØ¨Ø³Ø¨Ø¨":2564,"Ø§ÙĦØ³":2565,"Ø§ÙĦÙĤ":2566,"ĠØµÙĦØ§Ø©":2567,"ĠÙħÙģ":2568,"ĠØ§ÙĦÙħØ¯":2569,"ØªØ¨Ø±":2570,"ðŁĴĹ":2571,"ĠÙĦÙĪÙĥØ§ÙĨ":2572,"ĠØ§ÙĦÙħØ·":2573,"ĠØ´ÙĪÙĬ":2574,"Ø§Ø¬Ø¹":2575,"18":2576,"ĠØ§ÙĦØ§Ø±":2577,"ĠØ¨Ø§ÙĬÙĨ":2578,"Ø¶ØŃ":2579,"ĠØ£ÙĤ":2580,"ĠÙĬØ¬ÙĬØ¨":2581,"ĠØ´Ø¹Ø¨":2582,"ĠÙĨØªÙħÙĨÙī":2583,"ÙĪÙĨØ³":2584,"ĠÙħÙĨØ°":2585,"ĠÙģÙĪ":2586,"Ø§ØªÙĩÙħ":2587,"ĠØ§ÙĦØªØ³":2588,"ĠØ±Ø§Ø¦Ø¹":2589,"ÙĥØ«Ø±":2590,"ðŁ¤į":2591,"ĠÙĪÙĬØ³":2592,"Ø§Ø¹ÙĬ":2593,"Ġsa":2594,"âĢį":2595,"ĠØªØ¹ÙĦÙĬÙĤ":2596,"ĠØ¨Ø®":2597,"ĠÙĪØ¨ÙĬÙĨ":2598,"Ø§ÙĦØ¹":2599,"ĠØ§ÙĦØ±Ø¹Ø¨":2600,"eo":2601,"ÙĦÙĪØ§ÙĨ":2602,"ĠØ¥ÙĨØ§":2603,"ÙĤÙĬÙħ":2604,"ĠØ¬ÙĬØª":2605,"ĠÙĨØ·":2606,"Ø§ÙĦØŃÙħØ¯":2607,"ĠðŁĻı":2608,"ĠÙĬÙĨØª":2609,"ĠØ¯Ø§ÙĬØ±":2610,"ĠÙĪØ¥Ø°Ø§":2611,"ĠÙģØ¥ÙĨÙĩ":2612,"ÙĩØ§ÙĬØ©":2613,"ĠØ¹ÙĬØ¯":2614,"erci":2615,"ĠÙĨÙģÙĩÙħ":2616,"Ø²Ø§Ø¦Ø±ÙĬ":2617,"ĠØªØ§Ø¹ÙĬ":2618,"ĠØ§ÙĦÙĤØ§Ø¯Ø±":2619,"ÙĬØ¹Ø·ÙĬÙĥ":2620,"ÙĪÙĩÙħ":2621,"ĠØ§ÙĦØ«Ø§ÙĨÙĬØ©":2622,"ĠØªØ¬ÙĬ":2623,"ĠØªØ´ÙĪÙģ":2624,"ĠØ¹ÙĨØ¯Ùĩ":2625,"ĠÙĦÙĬÙĦØ©":2626,"ĠØ¬ÙĦ":2627,"Ø®ØµØµ":2628,"Ġz":2629,"ĠÙĨØ´Ø§ÙĦÙĩ":2630,"Ø¯Ø§Ø¯":2631,"Ø±ØŃÙħ":2632,"Ø¬Ø§":2633,"ĠÙĤÙĦÙĪØ¨":2634,"ÙĦØ§ÙħÙĬ":2635,"Ġi":2636,"ĠØ¯ÙĪ":2637,"ĠØ¨Ø§ÙĦÙĥ":2638,"17":2639,"Ø®ÙĦÙĬ":2640,"ĠÙħØ§Ùģ":2641,"Ø§ÙĦØ§Øª":2642,"ĠÙĬØªØŃ":2643,"ĠÙĪØ¹Ø¯":2644,"Ø¬ÙħØ§Ø¹Ø©":2645,"ÙģØ§":2646,"ĠØ§ÙĦÙĨØ³Ø§Ø¡":2647,"Ġcom":2648,"ĠØ§ØªÙħÙĨÙī":2649,"ĠØ¨ÙĥØ§ÙĦÙĪØ±ÙĬØ§":2650,"ÙħÙĩ":2651,"ĠÙģØ±ØŃØ©":2652,"ĠÙħÙĪØ§Ø¶ÙĬØ¹":2653,"ĠðŁĴĶ":2654,"ĠØ¨Ø±ÙĥØ§ØªÙĩ":2655,"ĠÙĪØ¬Ø²Ø§Ùĥ":2656,"Ø§ÙĩØ±Ø©":2657,"ĠØ´Ø§Ø¡ÙĦÙĦÙĩ":2658,"Ø¹ÙĬÙĦÙĬ":2659,"ÙĬØ§Ø®":2660,"Ø§Ø¦Ø¹":2661,"ĠðŁĺŃðŁĺŃ":2662,"ĠÙĩØ±":2663,"ĠÙħÙĥØ§ÙĨØ´":2664,"ĠÙĬØªØ¨":2665,"ĠÙĦØ§Øª":2666,"ĠÙħÙĤØ§ÙĦ":2667,"ĠØ§ÙĦØ¬Ø§Ùħ":2668,"ĠØªØº":2669,"ĠÙĪÙħØ±":2670,"ĠØ§ÙĦÙĨÙģØ³":2671,"ĠØ§ÙĦØ¢ÙĨ":2672,"ĠØ´Ø§Ùģ":2673,"ĠØ§ÙĦØ¨ÙĤ":2674,"ot":2675,"~~":2676,"ĠØ¬ÙħØ¹":2677,"ØµØ¯":2678,"Ø¬ØŃÙĥ":2679,"ĠØ£ÙĩÙĦØ§":2680,"ĠØªØ¯ÙĬ":2681,"Ø±ÙĬØ§":2682,"Ø¨ÙĬØ§Ø¡":2683,"ine":2684,"ĠØ§ÙĦÙĪØ§ÙĦ":2685,"ØŃØ³":2686,"ĠÙĪØ£ÙħØ§":2687,"ĠØ³ÙĦ":2688,"ĠÙħØ¹ÙĨÙī":2689,"ĠØ£ØµØŃØ§Ø¨":2690,"Ø´ÙĪÙģ":2691,"Ġwa":2692,"Ø®ÙĦØ§Øµ":2693,"ĠÙĬÙĪØ¬Ø¯":2694,"ĠÙĬÙģØ±":2695,"ĠØŃÙĥØ§ÙĬ":2696,"ĠÙħØ±Ø¶":2697,"ÙĤÙĪÙĨ":2698,"ĠÙĪØ§Øª":2699,"Ø§ÙĩÙĬ":2700,"ØªÙĨ":2701,"ĠØ£Ø³Øª":2702,"Ø·ÙĤØ©":2703,"ĠØ³Ø¹ÙĬØ¯":2704,"ĠÙĤØ±ÙĬØ¨":2705,"ÙĦØ§Ùĥ":2706,"ĠØ§ÙĤØª":2707,"Ø±Ø¬ÙĪ":2708,"ĠÙħØ²":2709,"ĠÙģÙĦØ³Ø·ÙĬÙĨ":2710,"ĠØ¹ÙĨØ¯ÙĨØ§":2711,"ØªØŃØ§ÙĨ":2712,"ðŁĸ¤":2713,"ĠÙħØ¹ÙĦÙĪÙħ":2714,"ĠØ³Ø¨Ø¨":2715,"ĠØ§ÙĦØ£ÙĪÙĦÙī":2716,"ĠÙĪØ§ÙĦØ¬":2717,"].":2718,"hi":2719,"ĠÙĥØ§Ø´":2720,"ĠØ¹Ø§ÙĦÙħ":2721,"ĠØ´Ø§Ø¨Ø©":2722,"ĠØ¬Ø§Ø¨":2723,"Ø¶Ø§ÙģØ©":2724,"ĠØ§ÙĦØªÙģ":2725,"Ø§Ø¦Ùĩ":2726,"Ø§Ø¹Ø±":2727,"ĠØ§ÙĦØ¬ÙħÙĬØ¹":2728,"ĠÙĪÙĩÙħ":2729,"ÙĪÙĦÙĪ":2730,"Ġme":2731,"ĠÙĦØ§ÙĬÙĥ":2732,"Ġana":2733,"ĠC":2734,"de":2735,"ĠÙĪØ§ÙĦÙģ":2736,"Ġen":2737,"Ø¹ÙĨØ¯":2738,"ĠØ®Ø§Øµ":2739,"ĠØ§ÙĦØŃÙĥÙħ":2740,"ĠðŁ¤į":2741,"ĠØ£ÙĥØ¨Ø±":2742,"ØªÙĤØ¯":2743,"Ø¯ÙĬÙĤ":2744,"ĠÙĤØ³Ùħ":2745,"ĠØ§ÙĦÙĤÙĬØ§ÙħØ©":2746,"si":2747,"ÙģÙī":2748,"ĠÙĤÙĦÙĬ":2749,"Ø¹ÙĦØ§Ùĩ":2750,"ĠØ¹ÙĨØ¯ÙĩÙħ":2751,"ĠÙģÙħ":2752,"ĠÙĩØ§Ùĥ":2753,"ĠÙħÙĦÙĥ":2754,"Ø§ÙĪÙĨ":2755,"ĠÙħÙħØªØ§Ø²":2756,"ĠØ§ÙĦØ·ÙĬØ¨":2757,"ĠØªÙĤØ¯Ø±":2758,"ĠÙĤÙĪ":2759,"Ø®ØªÙĬ":2760,"Ġ100":2761,"Ø§Ø±Ùģ":2762,"ĠØ§ÙĦÙģØ§Ø¶ÙĦ":2763,"Ø®ÙĪÙģ":2764,"ĠØ¨ÙĥØ±":2765,"ĠÙĬØ¯Ø®ÙĦ":2766,"ĠØ¹Ø·":2767,"ĠØªØ¬ÙĬØ¨":2768,"ĠÙĪØ¶Ø¹":2769,"ĠØ§ÙĦÙħØºØ±Ø¨":2770,"ĠÙģÙĬØ¯ÙĬÙĪÙĩØ§Øª":2771,"ĠØ§Ø«":2772,"ĠÙĪØŃØ¯ÙĬ":2773,"ÙĤÙĬÙĦ":2774,"ĠØ§ÙĦØ¢Ø®Ø±":2775,"Ø§Ø¯ÙĬØ«":2776,"ĠÙĦØ³":2777,"ĠØ¯ÙĪØ±":2778,"ĠØµØºÙĬØ±":2779,"Ø¯Ø±Ø³":2780,"ÙħØ²":2781,"ĠÙĪØ«":2782,"ĠØ§ÙĦØªÙĨ":2783,"ÙĪÙĦØ¯":2784,"ĠØ§ÙĦÙĪÙĥÙĬÙĦ":2785,"ĠD":2786,"Ø¨ÙĦØº":2787,"Ø§Ø¨ÙĦ":2788,"________":2789,"Ø¯Ø¹ÙĪ":2790,"ÙģØ§Ø¡":2791,"Ø¶Ø±Ø¨":2792,"Ø³ÙħÙī":2793,"ĠØ§ÙĦØŃÙĤÙĬÙĤØ©":2794,"ÙĪÙħÙĬ":2795,"Ø´Ø±ÙĬØ©":2796,"ĠØ±ØºÙħ":2797,"Ø³Ø¨ØŃ":2798,"ĠÙħÙħÙĨ":2799,"ĠØ¨Ø°ÙĦÙĥ":2800,"Ø§Ø¯Ùħ":2801,"Ø¨Ø¯Ø£":2802,"Ø¯Ø±Ø©":2803,"ĠØ§ÙĦÙħÙĪØª":2804,"ĠØ§ÙĦØ¬ÙĦÙģØ©":2805,"Ø§ÙĬØ´":2806,"ĠØ§ÙĦØ¬Ø²Ø¡":2807,"ĠÙģØ±ÙĨØ³Ø§":2808,"Ø±ÙĬØ¹Ø©":2809,"ĠØ§ÙĦØŃÙĥØ§ÙĬØ©":2810,"ĠÙĪÙĬØ¨":2811,"ĠØ§ÙĦØ´Ùĩ":2812,"ĠØ±Ø§Ø³":2813,"Ø³Ø¨Ø§Ø¨":2814,"ĠÙħØ¹ÙĦÙĬØ´":2815,"11":2816,"ĠØªØ®Ø±Ø¬":2817,"ĠÙħØ¨Ø§Ø±Ùĥ":2818,"ÙĪÙĦÙĥ":2819,"Ø²Ø§ÙĬØ±":2820,"ĠÙĦÙĥÙĬ":2821,"ØµÙĦØ§Ø©":2822,"ĠØ¨ÙĬØª":2823,"ĠØ®ÙĦØ§Øµ":2824,"ØªÙĥÙĦÙħ":2825,"Ø±Ø§Ø¡":2826,"ĠÙĦÙĬÙĪÙħ":2827,"se":2828,"ĠØ¥ÙĨÙĬ":2829,"ØŃÙĩ":2830,"ĠØªÙģØ³ÙĬØ±":2831,"ĠÙħØ¨Ø±ÙĪÙĥ":2832,"ĠÙħØ¹Ø§ÙĨØ§":2833,"ĠÙĦÙģ":2834,"ÙħØ§Ø´Ø§Ø¡":2835,"ĠÙħÙĬÙħ":2836,"Ø³Ùī":2837,"ÙĦÙĬÙĩ":2838,"ĠÙĦÙĦØ´":2839,"Ø§ØªÙĪ":2840,"ÙĥÙĨØª":2841,"Ø§Ø°ÙĨ":2842,"ĠØ§ÙĦØ¨Ø§Ø±":2843,"ĠÙĨÙĪØ±ÙħØ§ÙĦ":2844,"ĠÙĪÙĦÙĬØª":2845,"ØŃÙģØ¸":2846,"ØŃØ¨Ø§":2847,"ĠÙĤØ¨Ø±":2848,"sa":2849,"Ø§ÙĨÙĪÙĨ":2850,"ĠØ¯Ø®ÙĦØª":2851,"Ø¬Ø¹ÙĦ":2852,"ĠØ¯ÙĬØ±ÙĨØ§":2853,"ĠØ¥Ø°":2854,"Ø¬ÙĬÙĦ":2855,"ĠÙģÙĩ":2856,"ĠØ§ÙĦØ±ØŃÙĬÙħ":2857,"ĠØ§ÙĦÙĤÙħØ©":2858,"ĠØŃÙĤÙĬ":2859,"ĠØ§ÙĦÙĤØ¨":2860,"ĠÙĪÙĦÙĦÙĩ":2861,"ĠØ¨Ø§Ø±":2862,"ĠÙĨÙĥÙĪÙĨ":2863,"ĠØ¬Ø¹ÙĦ":2864,"ĠØ¬ÙħÙĬÙĦ":2865,"ĠÙĦÙĤÙĬØª":2866,"ĠØ¹ÙħÙĬ":2867,"ĠØªØ¨Ø¹":2868,"Ġ40":2869,"ĠÙģÙĩÙħØª":2870,"âĢĻ":2871,"ĠØ¥ÙĨÙħØ§":2872,"ĠÙħÙĪØ³":2873,"ÙħÙĨØ§":2874,"ØªÙĦÙĬ":2875,"Ø§ØªØ°Ø©":2876,"ÙĦÙĪÙĥ":2877,"ĠØ£ÙĪÙĦØ§":2878,"ĠØ§ÙĦØ¥ÙĬÙħØ§ÙĨ":2879,"Ø§ØªÙģ":2880,"ĠÙĦØ¯ÙĬ":2881,"ĠÙħØ¹Ùĩ":2882,"ĠÙĩØ¤ÙĦØ§Ø¡":2883,"Ø§ÙģÙĬØ§":2884,"ÙĪØ³Ùģ":2885,"ĠØ£ØµØ¨ØŃ":2886,"Ø·ÙĦØŃØ§Øª":2887,"ĠÙĩÙĬØ§":2888,"ÙĩØ§Ø´":2889,"ĠØ¹ÙĪØ¯Ø©":2890,"ĠØ±Ø§Ø¦Ø¹Ø©":2891,"ÙĪØ§ÙĬØ©":2892,"ĠÙĦÙĩØ°Ø§":2893,"ĠØ¹ÙĦØ§Ø¨":2894,"ĠØ§ÙĦØ¨Ø§Ø¨":2895,"ĠØŃØ±Ø§Ùħ":2896,"ĠÙĤØ¯Ùħ":2897,"ĠØ§ÙĦØ³Ø¨":2898,"ÙģÙĩÙħØªØ´":2899,"ÙĪØ¬ÙĬ":2900,"ĠØ§ÙĦØ¹Ùħ":2901,"ĠÙħØŃÙĦ":2902,"ÙĦÙĬØ§":2903,"Ø¹ÙĪØ§":2904,"Ø±ÙĥØ²":2905,"ĠØ¥Ø®":2906,"ÙĨÙģ":2907,"ĠØ¬Ø²Ø¡":2908,"ÙĥÙĦØ©":2909,"ĠØ§ÙĦÙħØ¤ÙħÙĨÙĬÙĨ":2910,"ÙĨØ¯ÙĬ":2911,"ÙĬÙĪÙħ":2912,"ĠÙĪØ§":2913,"ĠØ§Ø¹ÙĦÙħ":2914,"Ø³ÙħØ§Ø¡":2915,"ĠØ±Ø¨ÙħØ§":2916,"ĠØ§ÙĦØªÙĪÙģÙĬÙĤ":2917,"ĠØ§ÙĦØ§Ø´":2918,"ÙĤØ·Ø©":2919,"Ø£ÙĬ":2920,"ĠÙĥÙĦÙĩØ§":2921,"Ø£Ùĥ":2922,"ĠÙĦØ°ÙĦÙĥ":2923,"ĠÙĪÙĥÙĬ":2924,"ĠÙĩØ±ÙĬØ±Ø©":2925,"ĠØ§Ø®Ø±Ùī":2926,"Ġ195":2927,"ĠØ§ÙĦØ§Ø¬ØªÙħØ§Ø¹":2928,"fi":2929,"au":2930,"ĠÙĨÙģØ³Ùĥ":2931,"ĠÙĪØ°ÙĦÙĥ":2932,"ĠØ£ÙĬØ§Ùħ":2933,"ĠØ¹Ø¯":2934,"Ø¨Ø±Ø§ÙĩÙĬÙħ":2935,"ĠØ§ÙĦØ«ÙĪØ±Ø©":2936,"Ø§ØŃÙĬ":2937,"ĠØµÙĪ":2938,"ĠØ£ÙĨÙĥ":2939,"ĠØ§ÙĬØ¶Ø§":2940,"ĠØ§ÙĦÙĤÙĪÙĦ":2941,"Ø§ÙģÙĤ":2942,"ĠÙĬØ²ÙĬØ¯":2943,"ĠÙĦÙĦØª":2944,"ĠÙĩØ°Ø§Ùĥ":2945,"ĠÙĪØ§ÙĨØª":2946,"Ġkho":2947,"ĠØ¬ÙħØ§Ø¹Ø©":2948,"ĠØ´Ùĥ":2949,"Ġ]":2950,"ĠÙħØ§ÙĦÙĥ":2951,"Ø¨ÙĨ":2952,"Ø®Ø§Ùģ":2953,"ĠØªÙĤØ¯":2954,"ĠÙĬØ±ØŃÙħÙĩØ§":2955,"ĠÙĬØ§Ø§Ø±Ø¨":2956,"ĠÙĥØ«ÙĬØ±Ø©":2957,"Ġï´":2958,"ĠØ§ÙĩÙĦØ§":2959,"Ø±Ø§Ø±":2960,"ĠØ¹Ø«":2961,"ðŁĻ":2962,"ĠØ¬ÙħÙĬÙĦØ©":2963,"ÙĥØ§ÙĬÙĨ":2964,"ĠÙĪØ§ÙĦØ®":2965,"ĠØ§ÙĬØ§Ùħ":2966,"ĠØ§ÙĦØªØ´":2967,"ĠØ¬Ø§ÙĬ":2968,"Ġ11":2969,"Ø§ÙĥØ³":2970,"ÙĦÙĦ":2971,"Ġmo":2972,"ĠÙĬÙĨØ¬ØŃÙĥ":2973,"ÙĤÙĪØ©":2974,"ĠØ§ÙĦØ³ÙħØ§Ø¡":2975,"ĠØ§ÙĦØ§ÙĬ":2976,"ĠØŃÙĬØ§ØªÙĥ":2977,"ĠÙģØ¯ÙĬÙĪ":2978,"ĠÙĦÙĬÙĨØ§":2979,"Ø¯Ø±Ùĥ":2980,"ĠðŁĺ®":2981,"ĠØ§ÙĦØ¯ÙĪÙĦØ©":2982,"lo":2983,"ĠØ§ÙĦÙĪØ±":2984,"ĠÙģØ§ÙĦÙħ":2985,"ØµØŃÙĬØŃ":2986,"ĠÙĪØ¬ÙĪØ¯":2987,"za":2988,"ĠØ§ÙĦØ³ØŃØ±":2989,"ĠØ§ØºÙģØ±":2990,"ĠÙĤØªÙĦ":2991,"Ø¨ÙĬØ©":2992,"ĠÙĬØ±ÙĬØ¯":2993,"ĠÙĨØ³ÙĤØ³ÙĬ":2994,"ĠÙħÙĤØªØ±ØŃØ§Øª":2995,"Ø§Ø¬ÙĦ":2996,"ĠÙĪÙĩÙĦ":2997,"ĠÙħØ´ÙĥÙĦ":2998,"Ø¯Ø¹ÙĪÙĦÙĬ":2999,"ĠÙĨØ±ÙĪØŃ":3000,"ĠØ§ØŃØ¯":3001,"ĠØ±Ø§ÙĥÙħ":3002,"ĠØ§ÙĦØ³Ø±":3003,"ĠÙħØ¹Ø§Ùĩ":3004,"ĠØ¨Ø§Ø¨Ø§":3005,"30":3006,"ĠØ¥Ø³Ùħ":3007,"ĠØ¥ÙĨÙĩ":3008,"ĠØ³Ø¨ÙĬÙĦ":3009,"ĠÙĪÙĦØ§Ø¯":3010,"Ø§ÙĦØŃØ©":3011,"ĠØªÙĤØ±":3012,"Ø¹ÙĬØ´":3013,"ĠÙĦØ¬":3014,"ĠØµÙĦÙĬ":3015,"ĠØ§ÙĦØ£ÙħØ©":3016,"ĠÙĥØ§ÙĨÙĪ":3017,"llah":3018,"Ø±ÙĪØ¬":3019,"ĠØ¨Ø§ÙĦØª":3020,"ĠØªÙĩØ¯Ø±":3021,"----------------":3022,"ĠØ¹Ø°Ø§Ø¨":3023,"ĠÙħØ¹Ø§":3024,"ĠÙĪØ£ÙĨØ§":3025,"ĠØ´ÙĥØ±":3026,"Ø§Ø¨ÙĤØ©":3027,"Ø²Ø§":3028,"ĠÙĦÙĦØ¹":3029,"ĠÙħØ³ØªØ¬Ø§Ø¨Ø©":3030,"Ø§ÙĦØ£":3031,"Ø£ÙĦÙĥ":3032,"ĠÙĪØ§ÙĤ":3033,"Ø¹Ø§Ø±Ø©":3034,"ĠÙĦØ§ÙĦØ§":3035,"ÙĬÙĥÙĪØ±":3036,"ÙĨÙĪØ¨":3037,"ĠØ±Ø¬Ø¹":3038,"ĠØ·ÙĬØ¨":3039,"Ø·ÙĬÙģ":3040,"Ø§Ø¯Ø§":3041,"ĠÙħØ¬ÙĩÙĪØ¯":3042,"ĠØŃÙĬØ§ØªÙĬ":3043,"ĠØ±ÙĬØ¯":3044,"Ø§Ø¦Ø¯Ø©":3045,"\".":3046,"ÙĦØ§Ø¨":3047,"Ġbac":3048,"ĠH":3049,"ØªØ¨Ø§Ø±":3050,"Ø§Ø¹Ø¯Ø©":3051,"ĠØªØªÙħ":3052,"ÙĦÙĬÙĪÙĨ":3053,"Ø±Ùī":3054,"ĠÙģÙĩØ°Ø§":3055,"ĠØªÙģÙĩÙħ":3056,"ĠÙĪØ§ÙĦÙĥ":3057,"ĠØ§ÙĦØªØµ":3058,"Ø§ÙĥÙĨ":3059,"ĠØªØªØŃ":3060,"ĠÙĥÙĦÙĩ":3061,"ĠÙĤØ§ÙĦÙĪØ§":3062,"ĠðŁĩ©ðŁĩ¿":3063,"Ø§ØªÙĦÙĬ":3064,"ĠÙĬÙĩØ¯Ø±":3065,"ĠØ§ÙĦØ£ØŃ":3066,"ĠØªÙģØ±Ø¬":3067,"ĠÙħÙħ":3068,"ĠÙĪØªØŃ":3069,"Ø¨Ø¹Ø§":3070,"ĠÙħÙĨÙĥÙħ":3071,"ÙģÙĪÙĨ":3072,"Ø§Ø¦ØŃ":3073,"ÙĦØ¨Ø§ÙĨÙĬ":3074,"Ø¨Ø±ÙĬ":3075,"ĠØ¨Ø³ÙĬ":3076,"Ø§ÙĦÙĩØ§":3077,"ĠÙģÙĥØ±Ø©":3078,"ĠØ§ÙĦÙħÙĦÙĥ":3079,"ĠÙĬØ¯ÙĬ":3080,"ĠÙĤÙĪÙĦÙĬ":3081,"Ø§Ø¨Øª":3082,"ĠØµØ§Ø±":3083,"ÙĥÙĬÙĨ":3084,"ĠÙĦØ§ØŃ":3085,"ĠØ§ÙĦØŃØ³ÙĨ":3086,"ĠÙĥÙģØ±":3087,"ĠØ§ÙĦØ³ÙĦ":3088,"ĠØ³Ø§Ùħ":3089,"Ø¹Ø§Ø±":3090,"ĠðŁ¥°":3091,"ĠØ±Ø§":3092,"ĠØ§ÙĦØµØŃØ§Ø¨Ø©":3093,"ĠØ§ÙĦÙħØ¬ØªÙħØ¹":3094,"ĠØ¥ÙĬ":3095,"Ø¹ÙĦÙĩ":3096,"ØµØ§Ø¯":3097,"ĠØ¯Ùħ":3098,"ĠÙħÙĦÙĬØŃØ©":3099,"ĠØ§ÙĦØ²ÙĪØ¬":3100,"Ø§ÙĦÙĩÙħ":3101,"ĠÙĪØ¥ÙĨÙħØ§":3102,"ĠØ¬Ø§ÙĪØ¨":3103,"ĠØ¹ÙĨÙĩÙħ":3104,"Ø¶Ùī":3105,"ĠØŃØ§ÙĦØ©":3106,"ØªØ±Ø§Ùħ":3107,"ĠØ§Ø±Ø¬ÙĪ":3108,"ĠØ£ØŃØ³ÙĨ":3109,"Ø¯Ø¹Ø§Ø¡":3110,"ĠÙĨØŃÙĥÙĬ":3111,"ÙĦØ³ÙĦ":3112,"ĠØ§Ø³ØªØ§Ø¯":3113,"ĠØµØºÙĬØ±Ø©":3114,"ĠØ£ÙĦØ§":3115,"ĠÙģÙĩÙĬ":3116,"ĠÙĩØ¯ÙĬ":3117,"Ġ_":3118,"ĠØ³ÙĬØ¨ÙĬØ§":3119,"ĠÙĤØ§Ùħ":3120,"ĠØ¯Ø§ÙĬ":3121,"Ø¹Ø¶":3122,"ÙĨØ¹Ùħ":3123,"aw":3124,"Ø¬ÙĦÙĬØ²ÙĬØ©":3125,"ĠØµØ§ÙĨ":3126,"ĠØ§ÙĦØ¹Ø²ÙĬØ²":3127,"ĠÙħÙĬÙĨ":3128,"ĠØªØ¹ÙĦÙĬÙĤÙĬ":3129,"Ø¸ÙĨ":3130,"Ø³Ùĩ":3131,"ĠÙĪØº":3132,"ĠØ¨Ø§Øº":3133,"Ø¬Ø§Ø²":3134,"ĠÙĨÙĦ":3135,"ĠØµÙĪØ±Ø©":3136,"ÙĥÙĬØª":3137,"ĠÙĪØ£ÙĨØª":3138,"Ø§Ø¨Ùĩ":3139,"Ø¬Ø±Ø©":3140,"ĠÙĦØ§ÙĨÙĪ":3141,"ĠØ³ÙĨÙĪØ§Øª":3142,"ĠØ£Ø¬ÙĦ":3143,"ĠØ§ÙĦØŃØ§ÙĦ":3144,"ĠÙĪÙģÙĦØ³ÙģØ©":3145,"ĠØ§ÙĬØ§":3146,"ĠØ§ÙĦØªØŃØ±":3147,"ĠØ¨Ø§ÙĦØ¥":3148,"ĠØ§ÙĦØ¯Ø±ÙĪØ³":3149,"ĠÙħÙĦØ§ØŃ":3150,"ÙĤÙĨ":3151,"ĠÙĦÙħØ§Ø°Ø§":3152,"ØºØ±Ø§ÙģÙĬØ§":3153,"ĠØ¨ÙħØ¹":3154,"ĠÙĪØŃØ¯Ùĩ":3155,"ØŃØ«":3156,"ÙĪÙĨÙĩ":3157,"Ø¨ÙĬØ¹":3158,"ÙħØ§Øª":3159,"ĠØºØ±ÙĬØ¨":3160,"Û¡":3161,"ĠÙĦÙĬØ§":3162,"ĠØªØ®ÙĪÙģ":3163,"Ø·Ø§Ø¡":3164,"ĠÙħØ±Øª":3165,"ĠØªØ§Ø¹ÙĪ":3166,"ĠÙĦØ¥":3167,"ĠÙĦÙģÙĬØ¯ÙĬÙĪ":3168,"ĠÙĪÙĨØ¹Ùħ":3169,"ĠÙĬØ¬Ø¹ÙĦ":3170,"ĠØ§ÙĦØªÙĤ":3171,"ĠÙĨØ¨Ø¯Ø§":3172,"Ġte":3173,"ĠØ¨Ø§":3174,"ØªÙĪØ´":3175,"ĠØ§Ø¬Ø¹ÙĦ":3176,"ĠØ¥Ø¨Ø±Ø§ÙĩÙĬÙħ":3177,"âĺ":3178,"ĠØ¬Ø²Ø§Ø¦Ø±ÙĬ":3179,"Ø¨Ø¹Ø¶":3180,"ĠâĿ¤ï¸ıâĿ¤ï¸ı":3181,"âĻ¥ï¸ı":3182,"ĠðŁĳį":3183,"ĠØ¢ÙĦ":3184,"ĠvidÃ©":3185,"ÙĪÙĨÙĬØ©":3186,"Ġel":3187,"ĠØ®Ø§ÙĬ":3188,"ĠÙĪØ§ÙĦØ¯ÙĬÙĥ":3189,"Ġje":3190,"ina":3191,"âĢª":3192,"Ġâľ¨":3193,"pp":3194,"ĠØ§ÙĦÙħØ§Ø¡":3195,"Ø±ÙĬØª":3196,"ĠÚ¨Ø§Ø¹":3197,"ĠØ¨ÙĩÙħ":3198,"ĠØ´Ø§Ø¡Ø§ÙĦÙĦÙĩ":3199,"ĠØ§ÙĦÙħØ¯ÙĬÙĨØ©":3200,"ĠØ§ÙĦØ·Ø±ÙĬÙĤ":3201,"chi":3202,"ÙĪØ¨Ø±":3203,"ĠØ¨Ø§Øª":3204,"ĠÙģÙĥ":3205,"ĠÙĬØ±Ø²ÙĤÙĥ":3206,"ÙĥÙĨÙĩ":3207,"Ø¬ÙĬØ©":3208,"ĠØ§ÙĦÙħØªÙĪ":3209,"ÙĪÙħÙĪÙĨ":3210,"ĠÙĩØ§Ø°Ø§":3211,"ĠØ§ÙĦØ§ÙĨØ³Ø§ÙĨ":3212,"ÙĨØŃØ¨Ùĥ":3213,"Ø±Ùĩ":3214,"Ġis":3215,"ĠÙĪØ§ÙĦØŃÙħØ¯":3216,"epia":3217,"ĠØ´ÙĪÙģ":3218,"Ġsu":3219,"ĠØ®Ø¯Ùħ":3220,"Ø«Ùħ":3221,"ĠÙĬÙĪÙħØ§":3222,"ĠØ§ÙĦØ±Ø¬Ø§ÙĦ":3223,"ĠØ·Ø§ØŃ":3224,"Ø§Ø±ÙĬÙĨ":3225,"ĠÙĪÙĦÙĥÙĦ":3226,"ĠØªÙĤØ¯Ùħ":3227,"ĠÙĬØ¹ÙĬØ´":3228,"ÙħÙĬØ±":3229,"Ø§ØŃÙĬØ©":3230,"ĠØ³ÙĪØ§Ø¡":3231,"ĠØ£ØªÙħÙĨÙī":3232,"ĠØ·Ø¨":3233,"ĠØ§ÙĦÙħØ¨":3234,"Ø³ÙĨØ©":3235,"ĠÙĬØ³Ø±":3236,"ĠN":3237,"Ġfor":3238,"ĠØ¨ÙĦÙĬÙĬØ²":3239,"Ø®ÙĦÙĪ":3240,"Ø°ÙĬÙĨ":3241,"ĠØ§ÙĦØ®ÙĪÙģ":3242,"ĠØ¬ÙħÙĦØ©":3243,"st":3244,"ĠØ§ÙĦØ±Ø¨":3245,"ĠØ²Ø§Ø¯":3246,"Ø§ÙĨØ¨":3247,"ÙĤØ¯Ø±Ø´":3248,"ĠØŃØ§Ø¬":3249,"ĠÙĪØªØ¹Ø§ÙĦÙī":3250,"ĠØ±Ø§ÙĥÙĦÙĬØ·Ø©":3251,"Ø³ÙĬÙĨ":3252,"Ø§ÙĨÙĬØ´":3253,"ðŁ«":3254,"ĠØ§ÙĦØ£ÙĦØ¨Ø§ÙĨÙĬ":3255,"ĠØ²Ø¹ÙħØ§":3256,"Ø§ÙĦÙĨ":3257,"ĠØ¶Ø¯":3258,"ĠÙĪØ§ÙĦØ±":3259,"ĠØ¨ÙĥØ±ÙĬ":3260,"ĠÙģØ§Ø±":3261,"be":3262,"Ø¨ØŃØ«":3263,"ÙĪØ¬Ùĩ":3264,"Ø³ÙĥØ±":3265,"ĠØ¨Ø§ÙĨ":3266,"ĠÙĩØ¯Ø±":3267,"ĠðŁĻ":3268,"Ø±ÙĬØ©":3269,"Ø¨Ø§Ø¡":3270,"Ø¹ÙĨØ¯ÙĬ":3271,"ĠØ±ØŃØª":3272,"ĠØ§ÙĦØ·Ø±ÙĬÙĤØ©":3273,"ĠØ¨Ø§ÙĦØ±":3274,"ĠØ§Ø¨ÙĪÙĨÙĬ":3275,"ĠØ¨Ø§ÙĦØŃ":3276,"ĠØ¹Ø±Ø¨ÙĬØ©":3277,"ĠÙģØ§ÙĨ":3278,"Ġand":3279,"ĠÙĦÙĪÙĦ":3280,"Ġpar":3281,"ĠØ§ÙĦÙĥØ±ÙĬÙħØ©":3282,"ðŁĴª":3283,"ĠÙĪØ¹ÙĦÙĬÙĥÙħ":3284,"Ø§ÙĪÙī":3285,"Ø«Ø§Ø±":3286,"oum":3287,"ie":3288,"ĠØ§ÙĨÙĩØ§":3289,"ØŃÙĨØ§":3290,"Ø§Ø¦ÙĦØ©":3291,"ĠØ¬Ø§ÙħÙĬ":3292,"ÙĪØ§Ùĩ":3293,"Ø±ÙģØ¹":3294,"Ø®Ø©":3295,"Ø®Ø¯Ùħ":3296,"ĠØ§ÙĦØ³Ø§Ø¹Ø©":3297,"out":3298,"ĠÙĦØ·":3299,"ĠØ¹ÙĨØ§":3300,"ĠØŃÙĤÙĬÙĤØ©":3301,"ĠØ§ÙĦÙĨÙĩØ§Ø±":3302,"ĠØ±Ø§Ø¬ÙĦ":3303,"ÙĦØ§ÙħÙĬØ°":3304,"ĠÙĬØ®ÙĦÙĬÙĥ":3305,"ĠÙĦÙĦØ¬ÙħÙĬØ¹":3306,"ĠØ§ÙĦÙĤÙĨØ§Ø©":3307,"ĠØ¨Ø§Ø°ÙĨ":3308,"ÙħÙħ":3309,"ĠØ³ÙĨÙĬÙĨ":3310,"ĠØ¨Ø§ÙĦØ¬":3311,"ĠØ³ÙĦØ³ÙĦØ©":3312,"ĠØ§Ø¬ÙħØ¹ÙĬÙĨ":3313,"ØµØ¨Ø§ØŃ":3314,"ĠØ§ÙĦØ£Ø¹":3315,"Ø³Ø¨ØŃØ§ÙĨ":3316,"ØŃØ§Ø¨":3317,"ĠÙĬØªÙĪ":3318,"ĠØ¢ÙħÙĨ":3319,"ana":3320,"Ø§ÙĪØ²":3321,"Ġvideo":3322,"ĠÙĨØ¸Ø±":3323,"ĠØµØ¯ÙĤ":3324,"ĠØªØ¹ÙĬØ´ÙĬ":3325,"ðŁĺģ":3326,"ĠØ¬ÙĪ":3327,"ĠØ£Ø®Ø°":3328,"ĠÙĬØ²":3329,"ĠÙĬÙĤØ§ÙĦ":3330,"Ø§ÙģØ¹":3331,"ĠÙĦØ±":3332,"ĠØŃÙĤØ§":3333,"ĠØ¹Ø¨Ø±":3334,"ĠØ±Ø£ÙĬ":3335,"Ø±ÙĬØ³":3336,"ĠÙĪØµÙĦ":3337,"ja":3338,"Ġwe":3339,"ĠØ§ÙĦÙħØ¹ÙĦÙĪÙħ":3340,"ĠðŁ¤²ðŁ¤²":3341,"gh":3342,"ĠØ§Ø±ÙĬØ¯":3343,"ĠÙĦÙĦØ¬":3344,"ÙĬÙħÙĬÙĨ":3345,"ĠØŃØªØ§":3346,"ĠØ´Ø¦":3347,"Ġpour":3348,"ĠØ£ÙĬÙĩØ§":3349,"Ø¯ÙĪÙĨ":3350,"kom":3351,"ĠØ§ÙĥØ¨Ø±":3352,"ĠÙģÙĬØ§":3353,"ĠØ·Ø§ÙĦ":3354,"Ø§ØµØ±":3355,"ĠÙĨØ®Ø¯Ùħ":3356,"ĠØ¹ÙĦØ§ÙĤØ©":3357,"Ø§Ø¨ÙĤ":3358,"ÙĨÙĥ":3359,"ØŃÙĬÙĦ":3360,"Ø§Ø±ÙĥØ©":3361,"ĠØ§Ø®Øª":3362,"ĠØ¶Ø¹ÙĬ":3363,"ĠØ§ÙĦØ£ÙħÙĪØ±":3364,"ĠÙĬÙĩØ¯ÙĬ":3365,"ØºØ·":3366,"Ø§ØªÙĨØ§":3367,"ĠØ§ÙĦÙĬÙĪØªÙĬÙĪØ¨":3368,"Ø§Ø¦Ø¨":3369,"ĠÙħÙĪÙĤØ¹":3370,"22":3371,"ĠØ®Ø·Ø±":3372,"ĠØ¹Ø¨Ø§Ø¯":3373,"ĠÙħØŃØ¨":3374,"Ø±Ø¨Øª":3375,"ĠØ¹Ø¨Ø§Ø³":3376,"ĠØ£Ø¬ÙħØ¹ÙĬÙĨ":3377,"ĠÙĦÙĦØŃ":3378,"Ø§Ø¦ÙħØ©":3379,"ÙĦÙĪÙĩ":3380,"Ø¯Ø§Ùħ":3381,"ĠÙĤÙĪÙħ":3382,"ĠÙĪØ§ÙĦØ«":3383,"Ġpas":3384,"Ġpro":3385,"ĠØ¨ÙĦØº":3386,"ĠÙĬØ§Ø³":3387,"Ø¹Ùī":3388,"ĠØµÙĪØ±":3389,"ðŁ¤£ðŁ¤£":3390,"ĠØ§ÙĦØ§Ø³ØªØ§Ø°":3391,"ĠØ£ÙĨÙĩÙħ":3392,"ĠØ§Ø±Ø²ÙĤ":3393,"ÙĤØ§ÙħØ©":3394,"ÙĪÙĪ":3395,"ĠØ§ÙĦÙħØ´ÙĥÙĦ":3396,"ĠÙĪØ§Ø¶":3397,"ĠØ£ÙĬÙĨ":3398,"ĠØ£Ø®Ø±Ø¬":3399,"ĠF":3400,"Ø³ÙĬØ¨ÙĬØ§":3401,"ĠØ§Ø¯Ø§Ø¨":3402,"ĠØ³ÙĪÙģ":3403,"ĠÙĬØªØ¹":3404,"ĠØµØŃØ©":3405,"ĠK":3406,"Ø°Ø§Ùĥ":3407,"ĠÙĦÙĦØ¨Ø§Ùĥ":3408,"ĠÙħÙĥØ§Ø´":3409,"ada":3410,"ĠÙĦØ¯":3411,"ĠØ·Ø§ÙĦØ¨":3412,"ĠØ§ÙĦÙĤÙĬÙħ":3413,"Ġdes":3414,"ĠØ¨Ø±ØŃÙħ":3415,"ÙĪØ§Ø¹":3416,"Ø¶Ø¨":3417,"ĠØ§ÙĦØ´ÙĥØ±":3418,"ĠØ§Ø³ØªØºÙģØ±":3419,"ĠÙĤØ§Ø¯Ø±":3420,"Ø§ØµÙħØ©":3421,"Ø§Ø®Ø±":3422,"ĠÙĪØ²ÙĬØ¯":3423,"ÙħØ§ÙĨØ©":3424,"ĠØŃÙĦÙĬ":3425,"ĠØºÙĬØ±Ùĩ":3426,"ĠØ§ÙĦÙģØ±ÙĨØ³ÙĬØ©":3427,"ĠØ§ÙĦØªØ±":3428,"Ø´ØŃØ§ÙĦ":3429,"Ø¯Ø®ÙĦ":3430,"ÙĩÙħØ´":3431,"Ø®ÙĬØµ":3432,"ØŃØªÙī":3433,"Ø®Ø§Øµ":3434,"ĠØ¯Ø±Ø§ÙĩÙħ":3435,"ĠÙĦÙĤÙĬ":3436,"Ġba":3437,"Ġth":3438,"ÛĮ":3439,"ĠÙĪÙĬØ¯":3440,"ĠØªØ¨Ø§Ø±Ùĥ":3441,"ĠØ£Ø¬Ø±":3442,"ĠÙĪØ§ÙĦÙĤ":3443,"ĠØ§ÙĦØ§Ø³Ø¦ÙĦØ©":3444,"Ø·ÙĬØŃ":3445,"ĠP":3446,"ĠÙĩØ§Ø¯Ø§":3447,"Ø¨Ø¯ÙĦ":3448,"ĠÙģØ¶ÙĦÙĥÙħ":3449,"ut":3450,"ĠØ¯Ø¹ÙĪÙĦÙĬ":3451,"ĠØ§ÙĦÙĤØµ":3452,"ĠÙħØ§Ø²Ø§ÙĦ":3453,"ĠØ®Ø¨Ø±":3454,"ĠØ§ÙĦØŃØ§ÙĦØ©":3455,"Ø³Ø§":3456,"ĠÙĬÙģÙĩÙħ":3457,"Ġhad":3458,"Ø¦ÙĦ":3459,"Ġlo":3460,"ĠÙĬØºÙģØ±":3461,"que":3462,"ĠØªØ²":3463,"ĠØ«Ø§ÙĨ":3464,"ĠÙħØµØ±":3465,"ÙģØ§ÙĦ":3466,"ĠØ§ÙĦØ¹ÙĦÙĪÙħ":3467,"Ø¯Ø§Ø¡":3468,"ØŃØ¯Ø«":3469,"ĠØ«ÙĦØ§Ø«Ø©":3470,"ĠØ£Ø±Ø¨":3471,"ØµÙĬ":3472,"ØªÙĬÙĩ":3473,"Ġ2023":3474,"ĠÙĨØ¬ÙĬØ¨ÙĪ":3475,"ĠÙĨÙģØ±ØŃ":3476,"ĠØ§ÙĦØªØ¹ÙĦÙĬÙĤ":3477,"ĠÌ":3478,"ĠØªÙĪÙĦÙĬ":3479,"Ø·Ø¨ÙĬ":3480,"ĠÙĪØ¹ÙĨØ¯":3481,"ĠðŁĺħðŁĺħ":3482,"ĠÙħØ¹Ø±Ùģ":3483,"ĠÙĨÙĨØ¬ØŃÙĪ":3484,"ĠÙħØ¹ÙĬ":3485,"Ġdir":3486,"Ġbi":3487,"ðŁĺŃðŁĺŃ":3488,"ĠÙģÙĦÙħØ§":3489,"ĠÙħØ¬Ø±Ø¯":3490,"dx":3491,"Ø§Ø®ØªÙĬ":3492,"Ø°Ùģ":3493,"ĠØ£ÙĨÙĬ":3494,"ØªÙĪØŃØ´":3495,"ĠØ¯ÙĬØª":3496,"ĠØ¢ÙĦÙĩ":3497,"Ø¯ÙĩØ§":3498,"ĠØ§ÙĦØ¥Ø³ÙĦØ§ÙħÙĬØ©":3499,"ĠØ£ÙħÙĬÙĨ":3500,"Ø¨Ø¹Ø«":3501,"ðŁ¥¹":3502,"ĠÙĬØ§Ùĥ":3503,"Ø¦ÙĬØ³":3504,"ĠØ§ÙĦÙģØ±Ø¯":3505,"Ø«Ø§ÙĦ":3506,"ĠØ§ÙĦØ§ÙĤ":3507,"ØºÙĬÙĬØ±":3508,"ĠÙģÙĬÙĨØ§":3509,"ĠØ§ÙĦØ·ÙģÙĦ":3510,"ĠØ§ÙĦØ¨ÙĤØ±Ø©":3511,"ĠÙħÙĥÙĨ":3512,"ĠØ¨Ø¯Ø§ÙĬØ©":3513,"ĠØ£Øº":3514,"ĠÙĦØºØ§Øª":3515,"ĠÙĪØ±Ø³":3516,"55":3517,"ĠØ¨Ø´Ø±":3518,"ĠÙĥØª":3519,"ĠØªØŃÙĬØ©":3520,"ĠÙĦØ¹Ø²ÙĬØ²":3521,"ÙĪØ±Ø§":3522,"Ø§ÙĦÙħÙĪ":3523,"ĠØ±Ø²ÙĤ":3524,"ĠÙĬÙģØ±ØŃÙĥ":3525,"ðŁĺĺ":3526,"Ø§Ø³ØªØ§Ø¯":3527,"ÙħÙħÙĥÙĨ":3528,"hat":3529,"ĠâĢ¢":3530,"ĠÙĪØµÙģ":3531,"ĠØ¨ÙĬØ¯":3532,"Ø§Ø¯Ø§Øª":3533,"ĠØªØ®ÙĦ":3534,"ĠØ§ÙĦÙĪØ·ÙĨÙĬ":3535,"ĠÙĪÙħÙĬ":3536,"ÙĤÙĪØ¨Ø©":3537,"ĠÙĨÙħÙĪØª":3538,"ĠÙĦØ¹Ø¨":3539,"Ø§Ø³Ø¨Ø©":3540,"Ø¸Ø§Ø±":3541,"ĠÙĨØ¬Ø§ØŃ":3542,"ĠÙħÙĪØ³Ùī":3543,"ØŁ!":3544,"ÙĦØŃ":3545,"Ø±Ø§ØŃ":3546,"ĠØ¨ÙĬÙĩÙħ":3547,"ÙĪØ¡":3548,"ĠØ§ÙĦØ¶ÙĬ":3549,"ĠØ§ÙĦØªØ£":3550,"ĠØŃØ±Ø©":3551,"ĠØ¹Ø§Ø¦Ø´Ø©":3552,"lna":3553,"ĠØ¹Ø¯Ø©":3554,"ĠÙĬÙĦÙĬ":3555,"oura":3556,"ĠØ³ØŃØ±":3557,"Ø¯ÙĬØ±ÙĨØ§":3558,"ĠÙħØ±Ø§Øª":3559,"ĠÙĪØ§Øµ":3560,"ĠØ§ÙĦÙĪØŃ":3561,"ĠÙĨØ¯Ø®ÙĦ":3562,"ĠØ§ÙĦØ¹Ø¨Ø¯":3563,"ĠÙĪØ§Ø¨ÙĨ":3564,"ØµÙĬÙĦ":3565,"ĠW":3566,"ÙĦØªÙĥ":3567,"ĠØ§ÙĦØµØŃÙĬØŃ":3568,"ĠÙģÙĩÙĦ":3569,"ĠÙģØ·":3570,"ĠÙħØ¹Ùĥ":3571,"Ø§Ø¬Ø¯":3572,"Ø§ÙħØ§Øª":3573,"Ġnch":3574,"ĠØ£Ø·":3575,"ĠØ³ÙĬØ±":3576,"ĠÙĪÙĥÙĬÙģ":3577,"ØªØ±Ùħ":3578,"ĠØ¬Ø²Ø§Ø¦Ø±":3579,"ĠâĻ¥ï¸ı":3580,"Ø£Ùħ":3581,"Ø¯ÙĬÙħØ©":3582,"ĠØ§ÙĦÙĤØ³Ùħ":3583,"ĠØ¥ÙĦÙĬÙĥ":3584,"ĠØ¯Ø§Ø®ÙĦ":3585,"ØµØ¨":3586,"ĠØ·ÙģÙĦØ©":3587,"ĠØ¨Ø±ÙĪ":3588,"ĠØ´Ø§Ø¨":3589,"ÙĥØ±Ùħ":3590,"ĠØ§ÙĦØ£Ø³ØªØ§Ø°":3591,"ĠðŁĴĹ":3592,"ki":3593,"Ø¹ÙĪØ°":3594,"ðŁĳı":3595,"ĠÙĦØŃÙĥØ§ÙĬØ©":3596,"Ġcont":3597,"ĠØ§ØµÙĦØ§":3598,"ĠÙħØ¯ÙĬÙĨØ©":3599,"ĠØ¯Ø±Ø¬":3600,"Ø§Ø´Ø±Ø©":3601,"ai":3602,"Ø²ÙĬÙĨ":3603,"ĠðŁĶ¥":3604,"ĠØ«Ø§ÙĦØ«":3605,"Ø·ÙĬÙĨÙĬ":3606,"ĠØµØ¹":3607,"ÙĪØ³Ø¹":3608,"ĠÙĪØ³ÙĩÙĦØ§":3609,"ĠÙĪÙĩØ°Ùĩ":3610,"Ġne":3611,"ĠÙĨØ³ØªÙĨØ§":3612,"hom":3613,"ĠØ³Ø¹Ø¯":3614,"ĠØ§ÙĦÙĨÙĤ":3615,"ĠÙĪØµØŃØ¨Ùĩ":3616,"ĠØ®Ø±":3617,"ĠÙĬÙģØ±ØŃ":3618,"Ø¹ÙĦØ§Ø´":3619,"ÙĪÙĬÙĩ":3620,"ĠØªÙĤØ¨ÙĦ":3621,"ĠÙĪØ¥ÙĨØ§":3622,"ĠÙģØ§ÙĩÙħ":3623,"Ø§Ø·Ø©":3624,"ĠØ§ÙĦÙħØ¬ÙĩØ±":3625,"Ġ200":3626,"ĠØ·Ø¨ÙĬ":3627,"ĠÙģØ±ÙĬ":3628,"ĠE":3629,"ÙĪØªÙĬÙĪØ¨Ø±":3630,"ÙĦÙĬØ³":3631,"ĠØĮØĮ":3632,"ĠâĢª":3633,"Ø¯ÙĬØ§Øª":3634,"ĠÙĤØ±ÙĬØª":3635,"ĠØ®Ø§Ø·Ø±":3636,"ĠØªØŃØ·":3637,"ĠÙĦØµ":3638,"ĠØ®ÙģØª":3639,"ÙħØ¨Ø±ÙĪÙĥ":3640,"ĠÙĬÙĪØ³Ùģ":3641,"ĠØ°Ø§Øª":3642,"ĠØ«Ø§ÙĨÙĬØ§":3643,"ĠØ§ÙĦÙĦØº":3644,"ĠÙħØ±ÙĪ":3645,"ĠÙĤÙħØ©":3646,"ĠØ¨ÙĦØ§Ùĥ":3647,"ĠØ§ÙĦØ£Ø´":3648,"Ø§Ø¦Ø¬":3649,"Ùł":3650,"ĠÙĪØ¬Ø¯":3651,"ĠØ¸ÙĩØ±":3652,"Ø§ÙĨÙĬØ§":3653,"ĠØªÙĨØª":3654,"ÙĪÙĨØ³ÙĬ":3655,"ĠÙĤÙĦØ¨Ùĥ":3656,"fa":3657,"ĠÙĪØ§Ø¯":3658,"Ø¨ØºÙĬ":3659,"âĻ":3660,"ĠØ£ÙĨÙģØ³":3661,"ĠØ§ÙĦØ¯Ø±Ø§Ø³Ø©":3662,"ĠØ¨Ø´ÙĥÙĦ":3663,"ĠâĻ¥":3664,"ÙĦØ§ÙĨ":3665,"ĠØ±Ø¬Ø§ÙĦ":3666,"ĠØ§ÙĦØ¥Ø³Øª":3667,"Ø±ÙĥØ§Øª":3668,"Ø¨ÙĬÙĬÙĨ":3669,"Ø§ÙĤØ©":3670,"ĠØ§ÙĦØŃÙĤÙĬ":3671,"ĠØ§ÙĦØ§Ùģ":3672,"Ø±Ø¶Ùī":3673,"ĠØ£ÙħØ§Ùħ":3674,"ĠØ¯ÙĬÙħØ§":3675,"ĠØ§ÙĦÙħØ§ÙĦ":3676,"Ø¹Ø§ÙĨ":3677,"33":3678,"Ø§ØŃØ¨":3679,"ÙĩØ§Ø°":3680,"ĠØ§ÙĨØªÙĬ":3681,"47":3682,"ĠØ¨ÙĨÙģØ³":3683,"ĠÙĨØµÙĬØŃØ©":3684,"ĠØ£Ø«":3685,"ĠÙĨØªØ¨Ø¹":3686,"ĠÙĨØ¨ÙĬÙĨØ§":3687,"ĠÙĪØ³ÙĬ":3688,"Ø®Ø·":3689,"Ø¹ÙĪØ©":3690,"ĠÙħØ¯Ø©":3691,"Ø±Ø§ÙĨØ§":3692,"Ø·ÙĤ":3693,"ĠØ³ÙĩÙĦØ§":3694,"ĠÙĪØ§ÙĦÙħØ¹":3695,"ĠÙĨØ¯ÙĬØ±ÙĪ":3696,"ĠØªØ¯Ø®ÙĦ":3697,"Ø¬Ø§Ø¬":3698,"ØŃØ§":3699,"ran":3700,"Ġ}":3701,"ĠØ§ÙĦØ²ÙĪØ§Ø¬":3702,"ĠØ§ÙĦÙħØ¹ÙĦÙĪÙħØ§Øª":3703,"ÙģÙĬÙĨ":3704,"Ø§Ø´ÙĬ":3705,"ĠØ°Ø§Ùĥ":3706,"ĠÙĪÙĥØ°ÙĦÙĥ":3707,"ÙģÙĨ":3708,"ĠØ§ÙĦØ§ÙĪÙĦÙī":3709,"ĠÙĨØ¶":3710,"ĠØŃÙĬØ§Ø©":3711,"ĠÙĦÙĦÙĥ":3712,"Ø§Ø¦ÙĥØ©":3713,"ĠØ§ÙĦØŃØ¨":3714,"ĠÙĩØ°ÙĪ":3715,"ĠØ¨Ø¹Ø¯ÙĩØ§":3716,"ØŃÙĥØ§Ùħ":3717,"000":3718,"ation":3719,"ĠØ§ÙĦÙĥØ¨ÙĬØ±":3720,"ĠØ¨ÙĦØ§Ø¯ÙĬ":3721,"ĠÙĦÙĦØ¥":3722,"Ø§Ø·Ø±":3723,"Ġbon":3724,"ji":3725,"ĠØ§ÙĦØ¹ÙĦÙħÙĬØ©":3726,"Ø±ÙĬØ¨ÙĬØ©":3727,"ĠØ§ØµØ¨ØŃ":3728,"ĠÙĦØºØ©":3729,"ÙĪÙĦÙĬØ©":3730,"ĠÙĬØ±ØŃÙħÙĪ":3731,"ĠðŁİīðŁİī":3732,"ÙĤØ¯ÙħØ©":3733,"ØªØ³":3734,"ÙĦÙĪØ±ÙĬØ§":3735,"ĠØ§ÙĦØ§Ø¯Ø¨":3736,"ĠØ£ØŃÙĬ":3737,"ĠØ§ÙĦØµÙģ":3738,"ÙĬÙĦÙĬ":3739,"ĠÙħØ´Ø§Ø¡":3740,"Ø§Ø£":3741,"ĠØ¹Ø§Ø´":3742,"ÙĪØ¹Ø©":3743,"ĠÙħÙĬØª":3744,"ĠØ¨ÙĪØ±":3745,"ĠØ§ÙĦØ¹ÙĬÙĨ":3746,"Ġmn":3747,"ĠØ²Ùĩ":3748,"ĠØ§ÙĦÙģØ±ÙĨØ³ÙĬ":3749,"ĠØ¥Ø³Øª":3750,"Ġâĺ":3751,"ĠØ·Ø¨Ø¹Ø§":3752,"ĠØ§ÙĦØ®ÙĦÙĤ":3753,"Ø³ÙħØŃ":3754,"ØµØ¨ØŃ":3755,"ĠØ¯ÙĤÙĬÙĤØ©":3756,"ĠÙĬØ¹Ø·ÙĬ":3757,"ĠÙħØŃÙħ":3758,"Ġ#":3759,"Ø¨Ø³Ùħ":3760,"Ø§ÙĨØ´Ø§Ø¡":3761,"Ø³Ø¯":3762,"ĠÙģÙĥØ§ÙĨ":3763,"Ø¦Ùĥ":3764,"ĠØ´ÙĥØ±Ø§Ø§":3765,"ĠÙħØ¹Ø§ÙĥÙħ":3766,"ĠØ¶Ø¹":3767,"ĠÙĪØ±Ø¯":3768,"ĠØ§ÙĦØªØ¹ÙĦÙĬÙħ":3769,"ĠÙĪÙĥØ§ÙĨØª":3770,"Ø´ÙĬØ§Ø¡":3771,"ĠØ¬ÙĬØ¨":3772,"ÙģÙĬØ©":3773,"Ġ30":3774,"ÙģØ±ØŃÙĪ":3775,"Ġst":3776,"Ø§Ø±Ø§":3777,"ÙģÙĬÙĩ":3778,"Ø¨Ø²":3779,"ĠØªÙĪÙĥ":3780,"ĠðŁ¥¹":3781,"ÙģÙĥØ±":3782,"ØµÙĪØ±":3783,"ĠØ§ÙĦÙħÙĪØ§Ø¶ÙĬØ¹":3784,"ĠÙĨØ¨ÙĬ":3785,"ÙĢÙĢ":3786,"ĠÙħÙĦØ§":3787,"ĠÙĨÙĤÙĦ":3788,"Ø§Ø·ÙĬÙĨ":3789,"ÙĤÙĬØ§":3790,"ĠØ§ÙĦØŃØ±Ø¨":3791,"Ø¬Ø§Øª":3792,"ĠÙĩØ§":3793,"ĠØ¯Ø¹Ø§Ø¡":3794,"ĠØ¨Ø§ÙĦØ´":3795,"ĠØ¥ÙĦÙĬÙĩØ§":3796,"ĠÙĪØ§ÙĦØ¢":3797,"Ø§ÙĪØ¯ÙĬ":3798,"ĠØ¨Ø±ÙĨØ§ÙħØ¬":3799,"ĠÙĨØ§Ø¬ØŃÙĬÙĨ":3800,"ĠØ§ÙĦØ£Ø³Ø¦ÙĦØ©":3801,"ĠØ§ÙĦÙĥØªØ¨":3802,"ĠØ¯ÙĪÙĥ":3803,"ĠÙĪØ¨Ø§ÙĦ":3804,"ant":3805,"ĠÙĪÙĬÙĤÙĪÙĦ":3806,"Ø®Ø±ÙĬÙĨ":3807,"ÙĬØªÙĩØ§":3808,"ĠÙħÙĪÙĦ":3809,"ĠØ¨ÙħÙĨ":3810,"ĠØ§ÙĦØ±Ø³":3811,"ĠÙĩØ§Ø¯ÙĪ":3812,"ÙĬØ·":3813,"ĠØ¨ØºÙĬØ±":3814,"ĠØªÙĤÙĪÙĦÙĬ":3815,"ĠÙĥØ£ÙĨ":3816,"ĠØ¯ÙĦÙĬÙĦ":3817,"ĠÙĬØ¹ÙħÙĦ":3818,"ĠØ§ÙĦØ§Ø³Ùħ":3819,"ÙĬØ§Ø®ÙĪ":3820,"ĠÙĦØ¹Ø§Ùħ":3821,"ĠðŁĺĬðŁĺĬ":3822,"ĠÙħØ§Ø¯Ø©":3823,"ĠÙģØ´":3824,"ĠØ±Ø¤":3825,"ĠØ§ÙĦØ¬ÙħØ¹Ø©":3826,"Ġan":3827,"ĠÙĥØªØ§Ø¨Ùĩ":3828,"ĠØ§ÙĦØ³ÙĦÙģ":3829,"ĠØ§ØŃØ¨":3830,"ĠÙĪØ¶":3831,"ĠØ§ÙĦØ®Ø§ØµØ©":3832,"ĠÙģÙĦØ³ÙģØ©":3833,"Ġof":3834,"ĠØªØ¯ÙĬØ±":3835,"Hhh":3836,"ĠØ³Ø¹":3837,"ĠØ´ÙĪÙĬØ§":3838,"ĠØ¨Ø³Ùħ":3839,"ĠÙĥØ±ÙĬÙħ":3840,"ĠØªØ²ÙĬØ¯":3841,"ĠØªÙĤØ±ÙĬ":3842,"Ġrabi":3843,"ĠØ§ÙĦÙĪØ§ÙĤØ¹":3844,"ĠÙĬØ³ÙħØ¹":3845,"ĠØ§ÙĦØµÙĪØ±Ø©":3846,"ĠÙĨØ±ÙĤØ¯":3847,"ÙĥØ±Ùĥ":3848,"ĠØ§ÙĦØ£Øµ":3849,"Ø±Ø§ÙĨ":3850,"ĠÙģØ¹ÙĦØ§":3851,"ĠÙħÙĩÙħØ§":3852,"ØªÙħØ¯":3853,"kaya":3854,"ĠÙĩØ§Ø°ÙĪ":3855,"Ø§Ø±Ø¹":3856,"ĠØ±Ø¨Ùĥ":3857,"ĠØªØ±Ùī":3858,"ĠØ¯Ø§ÙĪØ¯":3859,"Ø±ÙĬØŃÙĬØ©":3860,"ĠØ³Ø¤":3861,"ÙĤØªÙĥ":3862,"ĠÙĨØ¹Ø§ÙĪØ¯":3863,"ĠØŃÙĥÙĬ":3864,"Ø¯ÙĥØ³":3865,"Ø§ÙĨØ´":3866,"ĠÙħÙĨÙĪ":3867,"ĠØµØ±Ø§ØŃØ©":3868,"Ġque":3869,"Ø³ØŃ":3870,"ÙĩØ¯Ø§Ø¡":3871,"ĠØ£ÙĩÙħ":3872,"ØŃØ³ÙĨ":3873,"dir":3874,"ĠÙģØ¬":3875,"ĠØ§ÙĦÙħÙĤØ§ÙĦ":3876,"ĠØ¨ÙĩØ°Ùĩ":3877,"ĠØ§ÙĦØ§ÙħØ±":3878,"ĠØ§Ø¬ØªÙħØ§Ø¹":3879,"ĠÙĥÙĦÙħ":3880,"ÙĨØªØ§":3881,"Ø¨Ø±ÙĪ":3882,"ĠØ±ÙĪØ·Ø§Ø±":3883,"ĠÙĪØ±Ø§ÙĨÙĬ":3884,"Ġnta":3885,"Ú©":3886,"ani":3887,"ĠÙĪØ§ØµÙĦ":3888,"ĠØªØ¹Ø¨":3889,"ÙĨÙĬØ´":3890,"Ġwlh":3891,"ĠØªÙĨØ³":3892,"ÙĥØ´":3893,"ĠØµÙĨ":3894,"Ø§Ø¬Ø¨":3895,"ĠØ¨Ø§ÙĦÙģ":3896,"Ø²ÙĪ":3897,"ĠØŃÙĦÙĪ":3898,"Ø§ÙģÙĬÙĥ":3899,"ĠØ¹ÙħØ±ÙĪ":3900,"ÙĬÙħÙĬØ©":3901,"ĠÙĪØ£Ø³":3902,"ille":3903,"ÙĨØªÙĬ":3904,"ĠÙħØ§Ø¨":3905,"ĠØ§ÙĦØ³ÙĬØ§Ø³ÙĬ":3906,"ÙĤÙĪÙĤ":3907,"ĠØªØ§ÙĪ":3908,"Ya":3909,"Ø®Ø±Ø§":3910,"Ø²Ø§Ùħ":3911,"ĠØŃÙĨ":3912,"ĠØ§ÙĩÙĦ":3913,"ĠØªØ¶":3914,"ĠØ´ØºÙĦ":3915,"ĠØ§ÙĬÙĩ":3916,"ĠØ£Ø¨Ø¯Ø§":3917,"ÙĤØ§Ø¯":3918,"ĠÙĪÙħØ³ÙĦÙħ":3919,"ĠØ¨Ø§ÙĬÙĨØ©":3920,"ĠØ§ÙĦÙħØ³Ø¬Ø¯":3921,"ĠØ§ÙĦØ¨ÙĦØ§Ø¯":3922,"50":3923,"ĠØ¨Ø§Ø³ÙĥÙĪ":3924,"ĠÙĥØ§Ø±":3925,"ÙĪÙĬÙĦ":3926,"ĠÙĬØ¯ÙĦ":3927,"ØµÙĦØª":3928,"ĠØ§ÙĦØ¯Ø±Ø³":3929,"ĠÙĪØ±ÙĪ":3930,"ĠÙĨÙĥØªØ¨":3931,"Ġab":3932,"ĠØ±ÙĬØ§Ø¶":3933,"ĠðŁĺįðŁĺį":3934,"ĠÙĬØŃÙģØ¸ÙĥÙħ":3935,"ÙĦØ¹":3936,"Ø¸Ø§ÙĩØ±":3937,"ĠØ§ÙĬÙĨ":3938,"ĠØ§ÙĦÙĤØ±Ø§ÙĨ":3939,"ĠØ®ÙģÙĬ":3940,"ØŃÙĥØ§ÙĬØ§Øª":3941,"ĠÙĨØ³ÙĤØ³ÙĬÙĥ":3942,"ĠG":3943,"ĠÙĪÙĨÙģØ±ØŃ":3944,"ÙĤØµØµ":3945,"Ø®Øª":3946,"ĠØ§ÙĦØµØ¨Ø§ØŃ":3947,"ĠØ®ÙĪØªÙĬ":3948,"ĠØ§ÙĦÙĩØ¯":3949,"ÙħÙĪØ¹Ø©":3950,"ĠØ§ÙĦÙĪØµ":3951,"ðŁĴľ":3952,"ĠØ¨Ø¹ÙĬØ¯":3953,"ĠÙħÙĪØª":3954,"ĠÙĨØŃÙģØ¸":3955,"han":3956,"ÙĤÙĪÙī":3957,"Ġfa":3958,"Ø£ÙģØ¶ÙĦ":3959,"ĠØ§ÙĦÙĥÙĦ":3960,"Ø´Ø±ØŃ":3961,"ĠØ¬Ø±":3962,"ĠÙĨÙģØ³ÙĩØ§":3963,"Ø§ÙĬØ¬":3964,"ĠvidÃ©o":3965,"ĠØ§ÙĦØ¹ÙĬØ¯":3966,"ØµØ¨Ø±":3967,"ĠØ±ÙģØ¹":3968,"Ø³ÙħØ¹":3969,"Ø§ÙħØ±":3970,"mi":3971,"ĠØªÙħØ±":3972,"ĠðŁĺģ":3973,"Ø³ÙĬÙĤÙī":3974,"ĠØ§ÙĦØ¥ÙĨ":3975,"ĠØªØ±Ø¬":3976,"ĠØ§ÙĦØ¨ØŃØ±":3977,"ĠØ§ÙĨØ´":3978,"ĠÙĨØ´Ø±ÙĬ":3979,"ĠØ§ÙĦØ³ÙĨ":3980,"Ġcon":3981,"ĠØ¨Ø§ÙĤÙĬ":3982,"Ø§ÙħÙĨ":3983,"Ø§Ø¬Ø±":3984,"ðŁ¥²":3985,"ĠØ§ÙĦÙħØŃØªÙĪÙī":3986,"ĠÙĤØ±Ø§Ø¡Ø©":3987,"ess":3988,"ĠØ¯ÙĪÙĦ":3989,"ĠØ§ÙĦØ¹Ø´Ø±ÙĬØ©":3990,"ÙģØªØŃ":3991,"99999999":3992,"Ø§Ø¯Ø±Ø©":3993,"ÙħØ±ØŃØ¨Ø§":3994,"ÙĪØ§ÙĤ":3995,"ĠØ§ÙĦØ³ÙĬØ¯":3996,"Ġga":3997,"ĠÙģØ§ÙĬ":3998,"ĠØ§ÙĦØ¬Ø¯ÙĬØ¯":3999,"Ø§Ø®ÙĬ":4000,"ÙħØŃ":4001,"Ø±ÙĪØ¨":4002,"ĠÙĨØ®Ø§Ùģ":4003,"ĠÙĬØ£ØªÙĬ":4004,"Ø§ÙĦÙĨØ§":4005,"Ø¯Ø®":4006,"ĠØ·Ø±Ùģ":4007,"ĠØ®Ø±Ø¬Øª":4008,"ðŁĴĸ":4009,"ĠØ§ÙĦØ¨Ø§ÙĥØ§ÙĦÙĪØ±ÙĬØ§":4010,"ĠØ§ÙĦÙģÙĦØ³ÙģØ©":4011,"ðŁĮ¹":4012,"Ø¸ÙħØ©":4013,"ĠØ§ÙĦØ£Ø¨":4014,"ÙĪØ£":4015,"ĠÙĩÙħØ§":4016,"ØŃÙħÙĩ":4017,"ĠÙĥØ´":4018,"Ø§ØµÙĬ":4019,"ĠÙħØ¹Ø§ÙĩÙħ":4020,"ĠØ§ÙĦÙĨÙĪ":4021,"oud":4022,"ĠØ¬ÙĪØ§Ø¨":4023,"ĠðŁĴª":4024,"ĠÙĨØªÙĪÙħØ§":4025,"ĠÙĤØ¹Ø¯":4026,"ĠØ§ÙĦØ´Ø±ØŃ":4027,"Ø¸Ø§Ùħ":4028,"ĠØ§ÙĦØ¢Ø®Ø±Ø©":4029,"ÙĦØ§ØŃ":4030,"ĠØ§ÙĦÙĨÙģ":4031,"th":4032,"ĠØ¨ÙĥÙħ":4033,"ĠÙĬØ¨ÙĤÙī":4034,"ĠØ§ÙĦØ·ÙĬØ¨Ø©":4035,"Ø§ÙĩÙĦØ§":4036,"ct":4037,"ĠØ¨ÙĦÙħ":4038,"ÙģØ±ÙĤ":4039,"ÙħÙĬÙħ":4040,"ÙĬØ³Ùī":4041,"fd":4042,"ĠØªØ±ÙĪØŃ":4043,"ĠØ£Ø±Ø§Ø¯":4044,"Ġč":4045,"ÙĪØ¯Ø§Ø¡":4046,"Ú¤":4047,"ĠØ²ÙħØ§ÙĨ":4048,"Ø¬ÙĪØ¯":4049,"ĠØ§ÙĦÙĤØ¨Ø±":4050,"ĠÙĩØ°ÙĬÙĥ":4051,"Ø§ÙģÙĩ":4052,"ĠÙĪØ±Ø¨":4053,"ĠØ®Ø§Ø±Ø¬":4054,"ĠØ§ÙĦÙĬÙĩÙĪØ¯":4055,"Ø³ÙĬØ¯":4056,"ĠØ§ÙĦØ¹ÙĤÙĦ":4057,"ÙĤØ¯Ø±ØªØ´":4058,"ly":4059,"ow":4060,"ÙĩØ§Ø¨":4061,"ĠÙħØªØ§Ø¨Ø¹":4062,"ĠÙħÙĥÙĨÙĬØ©":4063,"ĠÙĤØ¯Ø§Ùħ":4064,"ĠØ£Ø®Ø¨Ø±":4065,"Ø§Ø¹ÙĦ":4066,"ĠØ§ÙĦÙħÙĥ":4067,"ĠÙĪØ§ÙĬ":4068,"ĠØ§ÙĦÙħØ¨Ø§Ø±Ùĥ":4069,"ĠÙĪØ§ÙĦØ¨":4070,"Ø¸ÙĬ":4071,"ĠØ§ÙĦÙĪÙĦØ§":4072,"ĠØ¹Ùģ":4073,"ĠØ§ÙĦØ£ÙĨØ¨ÙĬØ§Ø¡":4074,"ĠØ§ÙĦØŃØ¯":4075,"ĠØ§ÙĦØ´ÙĬØ¡":4076,"ĠØ§ÙĦÙģØ±Ø¯ÙĪØ³":4077,"ĠØ§Ø¯Ø§":4078,"ĠØ¹Ø§ÙĬØ´":4079,"ĠÙĦÙĬÙĦ":4080,"ĠÙĬÙģØªØŃ":4081,"ĠÙĨØ³ÙĬ":4082,"ĠØ¶Ø±Ø¨":4083,"Ø§ÙĬÙĦ":4084,"Ø£ÙĦØ©":4085,"ĠØ£Ø¹Ø¸Ùħ":4086,"ĠÙĨÙĩØ§ÙĬØ©":4087,"Ø·ÙĨ":4088,"Ø°Ùĥ":4089,"ĠØ¹ÙĨÙĩÙħØ§":4090,"Ġun":4091,"ĠÙĬØ®Ø¯Ùħ":4092,"ĠÙĨØ§ÙĤ":4093,"Ø±Ø§Ùĩ":4094,"Ø§Ø§":4095,"ĠÙĬØ°ÙĥØ±":4096,"ĠØ¬Ø¨Øª":4097,"ĠØ§ÙĦÙħØ¹ÙĨÙī":4098,"ĠÙĬÙĪØªÙĬÙĪØ¨Ø±":4099,"ĠÙĨØ³Ø£ÙĦ":4100,"ĠÙĤÙĬÙĦ":4101,"ÙĤØ§Ùħ":4102,"pe":4103,"ĠØ¨Ø¹Ø«":4104,"ĠØ¨Ø§ÙĬ":4105,"ØŃØ·":4106,"44":4107,"Ø¥ÙĨØ§":4108,"ĠØ§ÙĦÙħØ±Ø©":4109,"ĠØ¹Ø±Ø¨ÙĬ":4110,"ĠØ§ÙĦÙģØ±ÙĤ":4111,"Ø§ÙĥØª":4112,"ĠØµØŃØ§Ø¨":4113,"ĠÙĪÙĬÙĪÙģÙĤ":4114,"Ø§Ø¨Ø±":4115,"ĠðŁ¥²":4116,"25":4117,"ĠÙħØ±ÙĬÙħ":4118,"ÙĨØ§ÙĤ":4119,"ĠØŁ!":4120,"Ø¬Ø§Ø±":4121,"ĠØ¨Ø¨":4122,"ĠØ®ÙĦÙģ":4123,"ĠÙĪÙĬØ´":4124,"ÙĦØ¨Ø³":4125,"ðŁ¤Ķ":4126,"ĠØµØ¨Ø±":4127,"ĠÙĥØªØ±":4128,"Ġ2021":4129,"Ø·Ø§ÙĤØ©":4130,"ĠÙĬØ¶":4131,"ĠY":4132,"ÙĦØªÙĩØ§":4133,"//":4134,"nt":4135,"ĠØ§ÙĦØµØ§ÙĦØŃØ©":4136,"ĠÙħØ§ØªØª":4137,"ĠØ¹Ø¶":4138,"ĠðŁĮ¹":4139,"ÙħÙĥ":4140,"ĠÙĥØ§Ùħ":4141,"ĠÙħØ¹Ø±ÙĪÙģ":4142,"ĠØ¬Ø¹":4143,"ĠØ®Ùħ":4144,"ĠÙħØ±ÙĬØ¶":4145,"Ø§Ø¬Ùĩ":4146,"ĠØ§ÙĦØ±Ø¬":4147,"ĠÙĤÙĬÙħØ©":4148,"Ø¬ÙĪØ²":4149,"ĠØ§Ø²":4150,"vo":4151,"Ġ,,":4152,"ĠÙħØ§ÙĩÙĪ":4153,"ĠØªØ°ÙĥØ±":4154,"\"ØĮ":4155,"ĠÙģÙĪØ±":4156,"ÙĬØ±ÙĪ":4157,"ĠØ§Ø±Ø¬":4158,"ĠÙĩØ§ÙĬÙĦ":4159,"ment":4160,"Ġon":4161,"ĠÙģÙĥØ±":4162,"ĠØªÙĬÙħÙĬØ©":4163,"ÙĤØµÙĪØ¯":4164,"ĠØ¨Ø£Ø³":4165,"ss":4166,"ĠÙĨØŃÙĪ":4167,"Ġrak":4168,"Ø±Ø§ÙĥÙĦÙĬØ·Ø©":4169,"Ø«Ø±Ø©":4170,"ĠðŁ«":4171,"ĠØ§ÙĦØ´Ø±Ùĥ":4172,"ĠÙĨÙĤØµ":4173,"Ø·ÙĪÙĦ":4174,"ØŃØ³Ø¨":4175,"ĠØ³ÙĩÙĦ":4176,"ĠØ¯Ø§":4177,"ĠÙĬÙħØ§":4178,"ØªØ§ÙĨ":4179,"âĻ¥":4180,"ĠØ¥ÙĨØ³Ø§ÙĨ":4181,"ĠÙĨØ³ÙĬØª":4182,"Ø·ÙĬÙĨØ©":4183,"ĠØ¢ÙĬØ©":4184,"ĠØ³Ùĩ":4185,"ĠØ¯Ø±Ùĥ":4186,"ØºØ±Ø§Ùħ":4187,"ĠØ¹Ø¬Ø¨ØªÙĨÙĬ":4188,"ĠÙĨÙĤØ±":4189,"ĠØ£ÙĩÙĦÙĩ":4190,"ĠÙĬÙĤÙĪÙħ":4191,"ĠØ£ÙĨØ³":4192,"ĠØ§ÙĦØ§Ø¬Ø§Ø¨Ø©":4193,"ĠO":4194,"ĠØ¯ÙĬØ±ÙĪ":4195,"ĠØ§ÙĦØ§Ø®Øª":4196,"ĠØ«Ø¨Øª":4197,"ÙģØ±ÙĬ":4198,"ĠØ³Ø¨ÙĤ":4199,"ĠØ¶ÙĬÙģ":4200,"ĠØ¸ÙĦ":4201,"ux":4202,"ØªÙĩØ§Ø´":4203,"ĠÙħØªÙī":4204,"ĠØ§ÙĦÙĨÙĪØ¹":4205,"ĠØ±ÙĪØ§ÙĬØ©":4206,"Ø§Ø¹Ùĩ":4207,"Ø´ÙĥØ±Ø§Ø§":4208,"Ø·ÙģÙī":4209,"ĠØ¹ÙĬÙĨÙĬ":4210,"ĠÙĬÙĤØª":4211,"ĠØ§ÙĦØ³Ø¨Ø¨":4212,"Ġï´¿":4213,"ĠÙĪØ§ÙĦÙħØ±":4214,"ĠØ°ÙĩØ¨":4215,"Ø¹ÙħØ§Ø±":4216,"ĠÙĨØŃÙĪØ³":4217,"ĠØ§ÙĦÙħÙĪØ§Ø¯":4218,"ĠÙĬÙĥØªØ¨":4219,"ĠÙĪÙģÙĤÙĨØ§":4220,"ĠÙħØ§ÙĩÙĬ":4221,"Ø¹Ø¨Ø§Ø³ÙĬØ©":4222,"Ġredx":4223,"ĠØ§ÙĦÙĥÙĦÙħØ§Øª":4224,"ĠØªØªÙĪ":4225,"ĠØ§ÙĦÙĦÙĤ":4226,"ĠÙĤØ§Ø¯Ø©":4227,"ĠØªØ¨Ø§ÙĨ":4228,"ĠØ¨ÙĨØ§Øª":4229,"ĠØ¹Ø±Ø¶":4230,"ĠØ±Ø§Ø¨":4231,"ĠÙĪØ§ÙĦØ³ÙĦÙĪØ§ÙĨ":4232,"ĠØ¬Ø²":4233,"Ø¹Ø¯Ùĥ":4234,"Ø´ÙĬØ¡":4235,"ĠÙĬØ³ØªØ±":4236,"ÙĨØ¯ÙĬØ´":4237,"ðŁĳĮ":4238,"ĠâĿ":4239,"Ø¨Ø¯ÙĪ":4240,"ger":4241,"ĠÙħØ¹Ø±ÙģØ©":4242,"ĠØªØ¤":4243,"ØªÙĪØ§":4244,"ÙħØ±ÙĬ":4245,"ĠØ§ÙĦØ¹ÙĦÙĬ":4246,"Ġ))":4247,"ĠÙĥØ±Ùĩ":4248,"ÙħÙĪØ¹":4249,"ĠØ§Ø¹Ø±Ùģ":4250,"Ø¨Ø§ÙĤÙĬ":4251,"ĠØ¹ÙĬØ³Ùī":4252,"ĠÙĨÙĤÙĪÙĦÙĪ":4253,"ĠÙħØ¹Ø§ÙĩØ§":4254,"ĠÙĤÙĦÙĬÙĦ":4255,"Ġse":4256,"Ġ***":4257,"ØªÙħØ§Ùħ":4258,"Ġbest":4259,"ĠÙĥØ§ÙħÙĦØ©":4260,"ĠÙĬØ¯ÙĬØ±ÙĪ":4261,"ĠØ§ÙĦØ¬Ø²Ø§Ø¦Ø±ÙĬÙĬÙĨ":4262,"Ù¡":4263,"ĠØ¹Ø¸ÙĬÙħ":4264,"ĠÙĩÙĪØ§":4265,"ðŁĺħðŁĺħ":4266,"ĠÙħÙĦØ®Øµ":4267,"ÙģØ§Ø¯":4268,"ĠÙĦÙħØ±":4269,"ÙĩØ§ØªÙĥ":4270,"ĠØ§ÙĦØ¨Ø´Ø±":4271,"ĠØ§ÙĦÙĥÙĦÙħØ©":4272,"Ø´ÙĬØ®":4273,"ÙĦØ§ÙĦØ§":4274,"Ø§Ø¯ÙĬØ©":4275,"ĠÙĬØŃØ·":4276,"ØºØ±Ø¨":4277,"oul":4278,"ĠØ¢Ø¯Ùħ":4279,"ĠÙĪØŃØªÙī":4280,"Ġkha":4281,"ĠØµØŃÙĬØŃØ©":4282,"ĠØ¹Ø«ÙħØ§ÙĨ":4283,"ÙħÙĪØª":4284,"Ø³Ø§Ø³":4285,"ĠØŃØ¶":4286,"ØµØŃÙĥ":4287,"ĠØªÙħØ§Ø±ÙĬÙĨ":4288,"ĠØ§ÙĦØ´Ø¨Ø§Ø¨":4289,"ĠØªÙĥÙĨ":4290,"ĠÙĨØ¬ÙĬ":4291,"Ø§Ø±Øª":4292,"ĠØ¯ÙĪÙĦØ©":4293,"Ø§ÙĪØ©":4294,"ĠØ¨ÙĨØ§Ø¡":4295,"ðŁĴķ":4296,"ĠÙĦÙĦÙĪ":4297,"ĠØ§ÙĦÙģØ¬Ø±":4298,"ĠØŃÙĦÙħÙĬ":4299,"ðŁİīðŁİī":4300,"ĠÙĪØ±Ø³ÙĪÙĦÙĩ":4301,"24":4302,"Ø³Ø¨ÙĪÙĥ":4303,"Ġfr":4304,"sh":4305,"ĠØ§ÙĦÙĤØ¯Ø±":4306,"ĠÙħØ³ØªÙĪÙī":4307,"Ø°ÙĦ":4308,"ÙĤØªØµØ§Ø¯":4309,"ĠØ¹ÙĦÙħØ§Ø¡":4310,"ĠØ³ÙĬØ¯ÙĬ":4311,"ĠØ±ÙĬØ¶Ø§":4312,"Ø£Ø³Ùģ":4313,"ĠÙĪØªÙĨ":4314,"ourage":4315,"ĠÙĬÙĩØ¯":4316,"ĠØ¬Ùĩ":4317,"Ø¯Ø§Ø¨":4318,"ĠÙĪØ§ÙĦØ·":4319,"ĠØ¬ÙĨØ§ØªÙĩ":4320,"ĠØ¨Ø§ÙĦØ³":4321,"ĠØŃÙĦÙħ":4322,"ĠØ§Ø³ÙħÙĩØ§":4323,"ĠØ¨Ø·Ø±ÙĬÙĤØ©":4324,"23":4325,"ÙĤØ¯ÙĬØ±":4326,"Ġgh":4327,"ĠØ§ÙĦØŃÙĥØ§ÙĬØ§Øª":4328,"ĠØ¹Ø±ÙģØª":4329,"ÙĬØ±Ø§ÙĨ":4330,"ÙĥØ§":4331,"ĠØ§ÙĦÙħÙģ":4332,"ĠØ§ÙĦØªØ±Ùħ":4333,"ĠØ§ÙĦÙĥØ¨":4334,"ĠØ´Ø®ØµÙĬØ©":4335,"ĠØ§ÙĦÙĩÙħ":4336,"Ġ~":4337,"Ø³ØªØ§":4338,"ĠØ³Ø§ÙĩÙĦ":4339,"ÙĤØ±Ø¢ÙĨ":4340,"ĠÙĩØ§ÙĬÙĦØ©":4341,"ĠØ§ÙĦØŃØ§Ø¬Ø©":4342,"ÙĩØ°ÙĬ":4343,"ĠØ§ÙĦØ´ÙħØ³":4344,"ĠÙĪÙĨØ´":4345,"ðŁĺĬðŁĺĬ":4346,"ĠÙħÙģÙĩÙħØªØ´":4347,"ĠØ¨Ø§Ø³Ùħ":4348,"ĠØ§Ø¬ÙĦ":4349,"ĠÙĦÙĦØ§Ø³":4350,"Ø¶ÙĬØ¹":4351,"ĠÙģÙĬÙĤÙĪÙĦ":4352,"ĠÙĤÙĨØ§ØªÙĥ":4353,"ĠÙĬÙĩØ¯ÙĬÙĥ":4354,"ĠØ·ÙĪÙĬÙĦØ©":4355,"ðŁĺĶ":4356,"ÙĪØ¬ÙĪØ¯":4357,"ĠØ¨Ø¹Ø¶ÙĩÙħ":4358,"Ø²ÙĬÙĦ":4359,"ĠØ§ÙĦÙĨØ¸Ø±":4360,"ĠØ§ÙĦØ¨ÙĨØ§Ø¡":4361,"Ø³ÙĨØ·ÙĬÙĨØ©":4362,"ĠÙĨÙĤÙĪÙĦÙĥ":4363,"Ø§Ø´Ø±":4364,"ĠØªØ¬Ø±ÙĬØ¨ÙĬØ©":4365,"ĠØ£Ø±ÙĬØ¯":4366,"ĠØ±Ø§ØŃØª":4367,"ĠØªØ·Ø¨ÙĬ":4368,"ØªØ¬":4369,"ĠØ§ÙĦÙĨØ¬":4370,"ĠØ®ÙħØ³":4371,"ĠØ¹ÙħØ±Ùĥ":4372,"ÙħÙĥØ§ÙĨ":4373,"ĠÙĬÙĤÙĪÙĦÙĪ":4374,"ĠØ§ÙĦÙģÙĬØ¯ÙĬÙĪÙĩØ§Øª":4375,"ĠØ¹Øµ":4376,"ÙĥÙħØ©":4377,"ØªØ¨Ø¹":4378,"ĠÙĪØ§ÙĦØ³ÙĨØ©":4379,"ĠÙĨØ²ÙĬØ¯":4380,"ĠÙĬÙģØ±Ø¬":4381,"ĠØ§ÙĦØ¹ÙĦØ§ÙħØ©":4382,"ĠÙĪØ±Ø§Ø¡":4383,"ĠÙĨØŃØ³":4384,"ØªØ§ÙĦ":4385,"ØµØ§ÙĦ":4386,"ĠØ±Ø¨ØŃ":4387,"Ø·Ø§ÙĦ":4388,"ï¸ıâ":4389,"Ø¯ÙĨØ§":4390,"ÙģÙĪØ±":4391,"ĠØ§ÙĦØ¹ÙĨ":4392,"ĠØ§ÙĦØµÙĪØª":4393,"ĠÙĨØ´Ø§Ø¡":4394,"ĠØ§ÙĦØªØ±ÙħØ°ÙĬ":4395,"ĠÙĬØ±ÙĪØŃ":4396,"Ø¯ÙĬÙĦ":4397,"ĠÙĪØ§ÙĦØ¯ÙĬ":4398,"Ø§Ø¦Ø©":4399,"ĠØºØ¯ÙĪØ©":4400,"Ġit":4401,"ĠÙĪÙħØ´":4402,"ĠØ±Ø¨Ùĩ":4403,"ĠÙħØ¬Ø§ÙĦ":4404,"ĠÙħØ±Ø§Ø¬Ø¹Ø©":4405,"ck":4406,"ĠÙĪØ£ÙĨÙĩ":4407,"ĠØ·ÙĪÙĬÙĦ":4408,"ĠÙħØ¯Ø±":4409,"ĠÙĬØ¬Ø¹ÙĦÙĩØ§":4410,"ĠØ§ÙĦØºØ±Ø¨":4411,"ĠÙĬØµØ±":4412,"Ø¯ÙĬÙĪØ§":4413,"ĠØ§ÙĦØ£Ø¯Ø¨":4414,"ĠØ§ÙĦØ§Øª":4415,"ĠØ³ÙĦÙĬ":4416,"ĠÃł":4417,"Ø§ÙĩØ¯Ø©":4418,"ĠØ§ÙĦØ®Ø§Øµ":4419,"ok":4420,"ul":4421,"ĠØªØ®ØµØµ":4422,"Ø§Ø¨Ø§":4423,"ĠØ¬ÙĩØ©":4424,"ÙĪØ¨Ø©":4425,"ĠØªØ¬Ø¯":4426,"ĠØ§ÙĦÙĨØ¨ÙĪ":4427,"ĠÙĤÙĬ":4428,"ÙĬÙĨÙĩ":4429,"ĠØ§ÙĦØ§Øµ":4430,"Ø®ØµÙĪØµ":4431,"ĠØ¹Ø²ÙĬØ²":4432,"Ø¯Ø§Ø¹":4433,"ĠØ¨Ø¯Ø§":4434,"Ø·ÙĦØ¨":4435,"ĠØ§ÙĦÙĨØ§Ø¬":4436,"ĠØ£Ø«Ø±":4437,"ĠØ´Ø±Ùģ":4438,"ĠØ´ÙĬÙĥÙĪØ±":4439,"ĠØºØ§ÙĦØ·":4440,"ĠØ±ÙĪØŃÙĪ":4441,"ĠÙħØ¯Ø±Ø³Ø©":4442,"ĠØ§ÙĦØ¬ÙħÙĬÙĦ":4443,"Ġmais":4444,"ĠØ¹ÙĤØ¯":4445,"ĠÙĬÙĨØ¨ØºÙĬ":4446,"ĠØ£Ø¹Ø·":4447,"ĠÙħØ¨Ø§Ø´Ø±Ø©":4448,"ĠÙħÙĨØªØ¯Ùī":4449,"ĠÙħØ¬ÙĩÙĪØ¯Ø§ØªÙĥ":4450,"Ø§Ø¨Ø§Øª":4451,"Ø§Ø¦ÙĩÙħ":4452,"ÙĬØªÙĬ":4453,"ĠØ§ÙĦÙħØ¹Ø¯ÙĦ":4454,"ĠØ±Ø³Ø§ÙĦØ©":4455,"ver":4456,"ĠØªÙĤØ±Ø§":4457,"Ø«ÙĬ":4458,"ĠØ·ÙģÙĦ":4459,"ĠðŁĺĤâĿ¤":4460,"ĠØªÙĨØ¬ØŃ":4461,"ĠÙĨÙĤØ·Ø©":4462,"ĠØ§ÙĦØ´ÙĩØ±":4463,"ÙĪÙħÙĨØª":4464,"ĠÙħØ¯ÙĬØ±":4465,"ÙĪÙĨÙĩØ§":4466,"ĠÙĦØ§ÙĬÙģ":4467,"ÙĪØ§ÙĨÙĬ":4468,"ÙĦØªÙĨÙĬ":4469,"ĠÙĬÙħÙĨ":4470,"Ø¢ÙħÙĬÙĨ":4471,"ĠÙĨØ¹ÙħØ©":4472,"ĠÙħÙĨÙĬØ´":4473,"ĠØºÙĦØ·":4474,"ĠØ§ÙĦÙĪØŃÙĬØ¯":4475,"ĠØ§ÙĦØ¯ÙĬ":4476,"Ø§Ø±Ø¶":4477,"ĠØ§ÙĦØ·Ø¨ÙĬ":4478,"ĠØ§ÙĦØ±ÙĬØ§Ø¶ÙĬØ§Øª":4479,"ĠØ£Ø¹Ø¯":4480,"ĠÙĪÙĨØŃÙĨ":4481,"ĠØ§ÙĦØµØŃÙĬØŃØ©":4482,"ĠØªØ²ÙĪØ¬":4483,"ĠØ£Ø±Ø¬ÙĪ":4484,"Ø·Ø¹":4485,"ĠØ§Ø³ÙħÙĬ":4486,"ĠØ³ÙħØ§":4487,"ĠØ¬Ø¨":4488,"ĠØ°ÙĬ":4489,"ĠÙĦØ§ÙĨÙĩ":4490,"ĠðŁĳı":4491,"ĠØ§ÙĦØ«ÙĤ":4492,"oi":4493,"ØªØŃÙĬØ§":4494,"ĠØŃØ¬Ø±":4495,"ĠØ¹ÙĦÙħØ§":4496,"ĠÙĬØµØ¨Ø±":4497,"ĠÙĪÙĬØ±Ø²ÙĤ":4498,"Ø¨ÙĪØ¹":4499,"ĠÙĪØ§ÙĦØ¯ÙĬØ§":4500,"ĠU":4501,"ĠØ¹ÙĦÙħÙĬØ©":4502,"ĠÙĪØ§Øº":4503,"ĠÙħÙĨØ¹Ø±Ùģ":4504,"ĠÙĪÙĦØ§Øª":4505,"ÙĥØªÙĪØ±":4506,"ÙĥØ°Ø§":4507,"ĠØ§ÙĦÙģÙĥØ±Ø©":4508,"ft":4509,"ĠØ¯ÙĤ":4510,"ĠÙĨØ´Ø±":4511,"ĠØ±Ø¨ÙĨØ§":4512,"ÙĨØ§ÙĩØ§":4513,"ĠØµØŃØ¨":4514,"ĠØµØ±Ø§Øª":4515,"ĠØ§ÙĦÙĤÙĦÙĪØ¨":4516,"ĠØ§ÙĦÙĨÙĪØ±":4517,"ĠÙĦØ£ÙĨÙĩØ§":4518,"Ø¶ÙĪØ¡":4519,"ĠØµØ§ØŃØ¨ÙĬ":4520,"ĠØŃØ§ÙĪÙĦ":4521,"ĠÙĪØ§ÙĦØ°ÙĬ":4522,"ØªÙĬØ´":4523,"ĠØ§ÙĦØ¥Ø¬Ø§Ø¨Ø©":4524,"ĠØ§ÙĦÙĪØ§ÙĦØ¯ÙĬÙĨ":4525,"Ø¹ÙĨØ¯Ùĥ":4526,"Ø±Ø§Ùħ":4527,"ĠÙħØµØ·ÙĦØŃØ§Øª":4528,"Ø¨Ø±Ùī":4529,"ÙĪØ®":4530,"Ø¸ÙĦÙħ":4531,"ĠØ§ÙĦÙĨØª":4532,"ĠØ¹ÙĬØ´":4533,"ĠØªØ±ÙĬØ¯":4534,"ĠØ°Ø§":4535,"ĠØ±Ø£ÙĬÙĥ":4536,"ĠØ§ÙĦØ¹Ø§ØµÙħØ©":4537,"ĠÙģØ¶ÙĦ":4538,"26":4539,"ĠØ³Ø¬":4540,"ĠØ§ÙĦØ´Ø¹":4541,"ĠØ§ÙĦØ«Ø§ÙĦØ«Ø©":4542,"ĠØ¬Ø¯ÙĬ":4543,"ĠÙĪÙħØª":4544,"sta":4545,"ĠØ¬ÙħØ§ÙĦ":4546,"ĠØªØ³ÙħØ¹":4547,"ĠØ¨Ø§ÙĦÙĨØ¬Ø§ØŃ":4548,"================":4549,"ĠÙħØ´Ø±ÙĪØ¹":4550,"Ø±ÙĬØ¨Ø©":4551,"ĠÙĬØ±Ùī":4552,"ĠÙĬØŃÙĥÙĬ":4553,"ĠÙĪØ¬Ø¯Øª":4554,"Ù¢":4555,"ÙĪØ·":4556,"35":4557,"ĠØªØ§ÙĨ":4558,"ĠØªØŃÙħ":4559,"27":4560,"ĠØ§ÙĦØ¨Ø¹Ø¶":4561,"Ø¹ÙĪØ¶":4562,"ÙħÙĨÙĬ":4563,"ĠÙĥÙĦÙħØ§Øª":4564,"ĠØ§ÙĦÙĪØ§Ø³":4565,"ĠØ§ÙĦØ«ÙĦØ§Ø«":4566,"ĠÙĩØ¯Ø§Ùĥ":4567,"ĠØ§ÙĦØªØŃØ±ÙĬØ±":4568,"''":4569,"28":4570,"ØªÙĦÙĥ":4571,"ĠØªØºÙĬØ±":4572,"ĠÙĪØŃØ¯Ùĥ":4573,"ĠÙĦÙĦÙĨØ§Ø³":4574,"ØªØ±Ø§Ùĥ":4575,"ĠØ§ÙĪÙĦØ§":4576,"ĠØ£Ø¨Ø§":4577,"ĠÙĥÙĦÙħØ§":4578,"Ana":4579,"ĠØ§ÙĦÙĪØ§ØŃØ¯":4580,"ĠÙĬØ¯Ø¹ÙĬÙĦÙĬ":4581,"ĠÙħØªÙħ":4582,"ĠØ¹ÙĪØ¯":4583,"Ø±ÙĬØ¹":4584,"ĠÙĪÙĤÙĬÙĦ":4585,"ĠØ¹Ø¶ÙĪ":4586,"ĠÙĨÙĥÙħÙĦ":4587,"ĠÙĤØ¶ÙĬØ©":4588,"Ġcourage":4589,"ĠÙħØ§ÙģÙĩÙħ":4590,"Ø§Ø¯ÙĤ":4591,"ĠÙģØ±Ø¶":4592,"Ø±ÙĬØ¶":4593,"ĠÙĬØ¯Ø¹ÙĪ":4594,"ÙĦÙħÙĬØ°":4595,"Ø±ÙĪØ·":4596,"ÙĥÙĬÙĨØ©":4597,"ĠØ«Ø§ÙĨÙĬØ©":4598,"ĠÙĤØ§ÙĦÙĪ":4599,"Ø¶ÙĬÙģ":4600,"ØµØ±Ùģ":4601,"ĠÙĪØ¬Ø¹ÙĦ":4602,"ĠÙĪØµÙĦØª":4603,"ĠÙħØ®ÙĦÙĪ":4604,"ĠØ£Ø®Ø±Ø¬Ùĩ":4605,"od":4606,"ĠØ¨Ø§ÙĦÙħØ¹":4607,"ÙĥÙĨÙĩØ§":4608,"ĠØ®ØµÙĪØµ":4609,"ÙĪØ±ÙĪ":4610,"ĠÙĪØ§ÙĦØ§Ø³Øª":4611,"Ø§Ø¦ÙĩØ§":4612,"Ø§Ø±Ùĩ":4613,"ĠØ§ÙĦØ£Ø¹ÙħØ§ÙĦ":4614,"ÙħÙĬØ²Ø©":4615,"ĠÙĬØŃØ¯Ø«":4616,"ØŃÙī":4617,"ĠØ´Ø¨Ùĩ":4618,"ĠØ¨ÙĬØ§ÙĨ":4619,"ÙĪØ§ØŃ":4620,"ĠØ¬ÙĬØ¯Ø§":4621,"ĠÙĪÙĩØ±Ø§ÙĨ":4622,"ĠØ¯Ø¹ÙĪØ§ØªÙĥÙħ":4623,"ĠØ¨ÙĤÙĬ":4624,"ĠØ¶Ø¹ÙĬÙģ":4625,"Ġ2022":4626,"ĠÙĪÙĬØŃ":4627,"ĠÙĪÙĬØ³Øª":4628,"ĠÙĦÙĦØ¹ÙĦÙħ":4629,"Ø³ÙĬØ©":4630,"ĠØ§ÙĦØ¹Ø§Ø¯Ø©":4631,"ĠâĿ¤ðŁİī":4632,"ĠØ£Ø³ØªØ§Ø°Ø©":4633,"ĠØ§ÙĦÙħØ¯Ø±Ø³Ø©":4634,"ĠÙĦØ§Ø¨ÙĨ":4635,"Ø³ÙĬÙĬØ±":4636,"ĠØ²ÙħÙĨ":4637,"ĠÙĪÙĬÙĨØ¬ØŃ":4638,"ĠÙĪÙĦÙħØ§":4639,"ff":4640,"ĠØ£ÙĤÙĪÙĦ":4641,"ÙĦÙĬØ¯":4642,"ØµÙĦÙĬ":4643,"ÙĪØ±ÙĬØ©":4644,"ĠÙĪØŃØ¯ÙĪ":4645,"ĠÙĬØ®ÙĪÙģ":4646,"ĠÙĪØ§ÙĦØªÙĬ":4647,"Ø³ÙĦÙħÙĬÙĨ":4648,"um":4649,"ĠÙģØ±ÙĤ":4650,"ĠØ±ÙĬØ¯ÙĥØ³":4651,"ĠØªØŃÙĬØ§":4652,"Bac":4653,"ĠØ§ÙĦØ¯Ø¹ÙĪØ©":4654,"ĠÙĨØªØ§Ø¹Ùĥ":4655,"che":4656,"ĠØ§ÙĦØ±ØŃÙħØ§ÙĨ":4657,"ui":4658,"ĠÙħÙĬÙĦÙĪØ¯":4659,"Ø§Ø²ÙĬØº":4660,"ĠÙĬØŃÙĬ":4661,"ĠÙĥÙģØ§Ùĩ":4662,"ĠØ¨Ø£ÙĨÙĩ":4663,"ĠØ§ÙĦØ¨Ø·":4664,"ĠØ§ÙĦØ±ÙĪÙħ":4665,"ĠØ¥Ø´":4666,"Ġ25":4667,"ĠØªÙĤÙĪÙħ":4668,"ÙĦØ§Ø²Ùħ":4669,"ĠØ§Ø³ÙħÙĩ":4670,"ĠØ®Ø·Ø£":4671,"ĠØ¹Ø§ÙĦ":4672,"ÙħÙĨØª":4673,"ĠÙĨÙĤØ±Ø§ÙĪ":4674,"Ø§ÙĩÙĦØ©":4675,"ĠØ²ÙĬÙĨ":4676,"Ġso":4677,"ĠÙħØ¹ÙĦÙĪÙħØ§Øª":4678,"ĠÙĦÙĦÙĬ":4679,"ðŁİ":4680,"ĠÙĨØŃÙĬ":4681,"ĠØŃØ±Ùģ":4682,"ĠØ¯Ø¹Ùħ":4683,"ĠØ§ÙĦÙģØµÙĦ":4684,"ĠØ¨ÙģØ¶":4685,"ĠÙģÙĥÙĬÙģ":4686,"lik":4687,"ĠØ¨ÙĬÙĨÙĩÙħ":4688,"ĠØ§ÙĦÙĥÙĪÙĨ":4689,"ĠØ§Ø¨ÙĬ":4690,"ĠØ¢ÙħÙĨÙĪØ§":4691,"ĠØ§ÙĦÙħÙĬ":4692,"ĠØ§ÙĦØ¬Ø²Ø§Ø¡":4693,"ĠØ£ØµÙĦ":4694,"ĠØ§ÙĦÙħÙĥØ§ÙĨ":4695,"ÙĦØ¨ÙĬØ©":4696,"and":4697,"Ø¨Øº":4698,"ØµÙĦØ§ØŃ":4699,"ĠØ§ÙĦØ¥Ø³ÙĦØ§ÙħÙĬ":4700,"ĠØ§ÙĦØ£ÙĬØ§Ùħ":4701,"ĠÙ±":4702,"ÙĨÙģØ³":4703,"Ġest":4704,"ĠðŁĳĮ":4705,"ĠØ¯ÙĬØ±ÙĬÙĦÙĨØ§":4706,"ĠØ§ÙħØ±Ø£Ø©":4707,"ĠØŃÙĤÙĬÙĤÙĬØ©":4708,"ØªØ¨Ø©":4709,"ÙĦÙĬÙĨØ§":4710,"Ø®Ø¨Ø±":4711,"Ø±ÙĪØŃÙĪ":4712,"ĠØµÙģØ©":4713,"ĠØ§ÙĨØ¸Ø±":4714,"inu":4715,"ÙħÙĪØ§Øª":4716,"Ø¦ÙħØ©":4717,"Ø·Ø±ÙĬÙĤØ©":4718,"ĠØ§ÙĦØ§Ø®ÙĬØ±":4719,"ĠÙĪØ§ÙĦØº":4720,"abi":4721,"Ø±Ø¹":4722,"Ø§Ø¦Ø¹Ø©":4723,"Ø¯ÙĪØ´":4724,"Ġ2020":4725,"ĠØ®ÙĦÙĤÙĩ":4726,"ĠØ§ÙĦÙħØªØ§Ø¨":4727,"ĠØ§ÙĦØ£ØŃØ§Ø¯ÙĬØ«":4728,"ĠÙĦØ³Øª":4729,"ĠØ§ÙĦØ¹ØµØ±":4730,"ĠØºØ§ÙĬØ©":4731,"ĠØ§ÙĦØ®ÙĬ":4732,"ĠØ§ÙĦØªÙĥ":4733,"ĠØªÙĥÙĪÙĨÙĬ":4734,"ĠÙħØ¨Ø¹Ø¯":4735,"Ø·Ø§Ø¹":4736,"Ø§ØªÙħ":4737,"ĠÙĪØŃØ³ÙĨ":4738,"ĠØ·ÙĦØ¹":4739,"ĠØ¥ÙĨØ´Ø§Ø¡":4740,"Ø·ÙĦÙĤ":4741,"ĠØ®Ø¯ÙħØ©":4742,"ĠðŁĺĶ":4743,"ĠØ§ÙĦØ¯Ùħ":4744,"ÙĪØ¨Ø§":4745,"Ø·ÙģØ§ÙĦ":4746,"ĠÙĪØ§Ùĥ":4747,"ĠØªÙĤÙĪ":4748,"ĠØµØŃØ§":4749,"ĠØ§ÙĦÙĪØ·ÙĨ":4750,"ĠØ§ÙĦØ±ÙĪØŃ":4751,"Ø§Ø¶ÙĬØ©":4752,"ĠØ§ÙĦØ´Ø±Ø¹ÙĬØ©":4753,"un":4754,"ĠÛ":4755,"Ø¦Ø§Øª":4756,"ĠÙĪÙĦÙĩØ°Ø§":4757,"Ø§ØªØ´":4758,"ĠØ¬ÙĬØ¯":4759,"ĠÙĤØ§ÙĦÙĥ":4760,"Ġna":4761,"ĠØªØ«":4762,"Ġ24":4763,"ØµØ±Ø§ØŃØ©":4764,"ĠÙĦØ§Ùħ":4765,"ĠØ¹ØµØ±":4766,"Ø²ÙĦØ©":4767,"ĠØ¯ÙĦ":4768,"ĠÙĪÙģÙĤÙĨÙĬ":4769,"ĠØ´ÙĪÙģÙĬ":4770,"ĠØ±ÙĬØ§Ø¶ÙĬØ§Øª":4771,"ĠØ§ÙĦÙĪØ·ÙĨÙĬØ©":4772,"eb":4773,"ĠØ±ÙĪÙī":4774,"ĠØ§ÙĦØ§Ø±Ø¶":4775,"ĠØµØ¯ÙĬ":4776,"ĠÙħÙĪØ¬ÙĪØ¯":4777,"ĠØ£ÙĦ":4778,"Ø®ÙĪÙĦ":4779,"ĠØªÙĤØ±ÙĬØ¨Ø§":4780,"ÙĨØµ":4781,"ĠØ±Ø§ÙĬØŃØ©":4782,"ĠÙħÙĨØ·ÙĤØ©":4783,"ĠØ£ÙĨÙĨÙĬ":4784,"ĠØ§ÙĦÙĩØ§ØªÙģ":4785,"ØŃÙĦÙĬ":4786,"Ø¶Ùħ":4787,"ĠØ§ÙĦÙĩÙĪ":4788,"ĠØ®Ø§ÙĬÙģØ©":4789,"Ø·Ø±Ø©":4790,"ĠØ°ÙĪ":4791,"ĠðŁĸ¤":4792,"ĠØ§ÙĦØ±ÙĪ":4793,"ĠÙĤØ¨Ø±Ùĩ":4794,"ðŁ©":4795,"ĠÙĥØ§":4796,"ĠØ£ÙħÙĪØ±":4797,"ĠØ±Ø§ÙĥÙĦÙĬØ·Ø§":4798,"ĠØ§ÙĦØ±Ø§ØŃ":4799,"ÙĤØ±Ø¨":4800,"ØªÙĬÙĩØ§":4801,"Ø¹ÙĬÙĪÙĦÙĬ":4802,"ĠÙħØ«Ø§ÙĦ":4803,"ĠØ£Ø²":4804,"ÙĦØ§ÙĤØ©":4805,"ĠØ§ÙĦØªØ±Ø¨ÙĬØ©":4806,"ĠØ±Ø£ÙĬØª":4807,"ĠØ±Ø§Ø¨Ø·":4808,"ĠØºØ§ÙĦØ¨":4809,"ÙĥÙĬÙģØ§Ø´":4810,"ĠØ¹ÙĩØ¯":4811,"ĠØ¹Ø¯ÙĦ":4812,"ÙĨØªÙĩ":4813,"Ø±ÙģÙĬ":4814,"ĠØ¹ÙħØ§":4815,"ĠØ§Ø³ÙĥÙĪ":4816,"ĠØ§ÙĦØµÙĪØ±":4817,"ĠÙĨØªØ¹":4818,"ĠØ¥ÙĨÙĥ":4819,"Ġman":4820,"ĠÙĬØ±Ø¬Ø¹":4821,"ĠÙĦØ¯Ø±":4822,"ĠØ¹Ø§ÙħØ©":4823,"ĠØªÙĤØ¯Ø±ÙĬ":4824,"ĠÙħØ¹ÙĩÙħ":4825,"Ø¨ÙĤØ§":4826,"ĠØŃÙĦÙĤØ©":4827,"ite":4828,"ĠØ¯ÙĨÙĬØ§":4829,"ÙĪØ§ÙĤÙģ":4830,"ĠÙĬØ¨Ø§ÙĨ":4831,"ĠÙĥÙĬÙģÙĥ":4832,"ĠØ§ÙĦØ¨Ø±ÙĨØ§ÙħØ¬":4833,"ĠÙĥØ°Ø§":4834,"ĠÙĤÙĦÙĬÙĦØ§":4835,"ĠÙģÙĬÙĦÙħ":4836,"Ġvous":4837,"ĠÙĬØ±ØŃÙħÙĩ":4838,"Ġtr":4839,"ĠØªÙĪÙģÙĬ":4840,"Ġhada":4841,"Ġex":4842,"ÙĬÙĪ":4843,"ĠØ§ÙĦØ¹ÙħØ±":4844,"ÙĪÙĬÙĦÙĬØ©":4845,"ĠØ±Ø§ÙĬÙĥ":4846,"ĠØ¬Ø§ÙĦ":4847,"ĠÙĬØ´ÙģÙĬÙĥ":4848,"ĠÙħÙĦÙģ":4849,"ĠØ§ÙĦØ±ÙĤÙħ":4850,"ĠÙĬÙĨÙģØ¹":4851,"ĠØŃÙĬÙĤÙĪÙĨ":4852,"kha":4853,"ĠÙĦÙĦÙĤ":4854,"ĠØ¨ÙħØ¹ÙĨÙī":4855,"ØµØ¯ÙĤ":4856,"Ø¹Ø¬Ø¨ØªÙĨÙĬ":4857,"Ø³Ø§Ø¡":4858,"Ġbz":4859,"ida":4860,"ÙĨØ´Ø§ÙĦÙĦÙĩ":4861,"tu":4862,"ĠØ¨Ø§ÙĦØ¶ØŃÙĥ":4863,"ĠÙĪÙĦÙĨ":4864,"ĠØªØ¬Ø¹ÙĦ":4865,"ĠØ³ÙĪÙī":4866,"ØºØ§ÙĦ":4867,"Ø§ÙģØ§Øª":4868,"Ø§ÙĤØ¨":4869,"ĠØ¬ÙĨØ§ÙĨÙĩ":4870,"ĠÙĬØ¹ÙĪØ¯":4871,"Ø§ÙĤØ¨Ø©":4872,"Ø®ÙĪØªÙĬ":4873,"ĠØ§ÙĦÙħØ²ÙĬØ¯":4874,"Ø¨ÙĦØ§Ø¯":4875,"Ġune":4876,"ĠØ¨Ø¯Ø±":4877,"Ø§Ø¶Ø¹":4878,"ØªØŃÙĬØ©":4879,"ÙħØ¨Ø±":4880,"ĠØ´Ø§":4881,"00000000":4882,"Ø§Ø¦ÙĬÙĦ":4883,"ĠÙħØ³Ø¤":4884,"ĠÙĤØ¹":4885,"ĠÙĦØ³Ø§ÙĨ":4886,"ĠÙħØ´ØªØ±Ùĥ":4887,"ĠÙĬØªÙģØ±Ø¬":4888,"ĠÙĪÙĤØ¹":4889,"ĠØ§ÙĦØ¹Ø§Ø¦ÙĦØ©":4890,"ĠØªØŃØ±Ùħ":4891,"ĠÙħØ³ÙĥÙĬÙĨ":4892,"ans":4893,"iya":4894,"ĠÙħÙĤØ±":4895,"ØµØŃØ©":4896,"ĠÙĬÙģØ¹ÙĦ":4897,"dr":4898,"ĠÙģØ¨":4899,"ÙģØ±Ø©":4900,"ĠÙĬØ±ØŃÙħÙĩÙħ":4901,"ĠØ°ÙĥØ±Ùĩ":4902,"2025":4903,"ĠØªØ®Ø¯Ùħ":4904,"ĠØ§ÙĦØ¨ØŃØ«":4905,"ØŃÙĤÙĤ":4906,"ÙĨØ´Ø§ÙĦÙĩ":4907,"ĠØŃÙģØ¸Ùĥ":4908,"ĠÙĬØ§Ø±":4909,"ĠØªØ¹ÙħÙĦ":4910,"ĠÙĦØªØŃ":4911,"Ø³Ø³":4912,"ÙħÙĬÙĬÙĨ":4913,"ĠØ±Ø¬Ø¹Øª":4914,"ĠÙħÙĨÙĬÙĨ":4915,"op":4916,"ĠÙĪÙĬØ¬Ø¹ÙĦ":4917,"Ø§ÙĦÙĬÙĪÙħ":4918,"ĠØ±Ø£Ø³":4919,"ĠØ§ÙĦØªØ±Ùĥ":4920,"ĠØ§ÙĦØµØº":4921,"ĠÙĪØºÙĬØ±ÙĩØ§":4922,"Ø§ÙĦÙħÙĬÙĨ":4923,"ĠØ¹ÙĦØ§Ø¨Ø§ÙĦÙĬ":4924,"ĠØµØ§ÙĨØ¹":4925,"ĠØ¨Ø±ÙĬ":4926,"ĠÙĦÙħØ¹":4927,"ĠØ§ÙĦØ¯ÙĪÙĦ":4928,"ĠØ«ÙĤ":4929,"ĠØ§ÙĦÙĪÙĦ":4930,"ĠÙĬØ±Ø¯":4931,"âĺº":4932,"ÙģÙĬØ±":4933,"ĠØªØ¨ÙĤÙī":4934,"ĠØ¯ÙģØ¹":4935,"df":4936,"ĠÙĬØ®Øµ":4937,"ĠØ¹ÙĨÙĬ":4938,"ÙģØ±Ø¯":4939,"ĠØ®Ø§ÙĦØªÙĬ":4940,"ter":4941,"ðŁĺ±":4942,"ĠÙĪØ°ÙĥØ±":4943,"ĠØŃØ¨Ø³":4944,"ÙĪØ¯Ùĥ":4945,"ĠØªÙĥØªØ¨":4946,"ÙħØ«":4947,"Ø¨Ø§Ø³":4948,"ĠÙģÙĦÙĬÙĦ":4949,"ĠØ¬Ø§ÙĪ":4950,"ĠØ§Ø¯Ø¹ÙĪ":4951,"ØªÙĬØ¨":4952,"ĠØ¨Ø³Ùĥ":4953,"Ø¨ÙĬØ¶":4954,"ØªÙĬÙĥ":4955,"ĠØ§ÙĦØ£Ø®Ø±Ùī":4956,"ĠÙĥÙħÙĦØª":4957,"29":4958,"Ø§ÙĥÙĬ":4959,"ĠÙĦÙĦØ³":4960,"Ø±ØŃÙĬØ¨":4961,"ĠØ¨Ø¯ÙĦ":4962,"ØªÙģÙĬ":4963,"ĠØ§ÙĦØ²ÙħØ§ÙĨ":4964,"ÙħØ§Ø¹":4965,"ĠØ§ÙĦØ±Ùĥ":4966,"ĠÙĥÙĬÙģÙĬ":4967,"Ø°ÙĬØ¨":4968,"ĠØ§ÙĦØŃÙĤÙĬÙĤÙĬ":4969,"Ø§ÙĦØ¯":4970,"ĠÙĥÙĪØ±":4971,"oun":4972,"isto":4973,"ala":4974,"ĠØ¨Ø±ØŃÙħØªÙĥ":4975,"ĠÙĬØµÙĦ":4976,"ĠÙĨØ§":4977,"ĠØ¢ÙĬØ§Øª":4978,"Ø³ÙĬÙĦØ©":4979,"ĠÙĬØŃØªØ§Ø¬":4980,"ÙĥØ¯":4981,"ĠØ§ÙĦÙħÙĦØ§Ø¦ÙĥØ©":4982,"ĠØŃØ³ÙĬØª":4983,"Ø·Øª":4984,"Ø¹Ø§Øª":4985,"ÙĨØ³Ø§Ø¡":4986,"ÙĦÙĪØ´":4987,"ĠÙĪØ£Ø¹":4988,"ĠØ§Ø¹Øª":4989,"ĠØŃØ±Ø¨":4990,"ĠØªÙĪØŃØ´ÙĨØ§Ùĥ":4991,"ÙĬØ¯ÙĬÙĨ":4992,"ĠØ¶Ø±":4993,"ØªÙĦÙģØ©":4994,"ĠðŁ¤Ķ":4995,"ĠÙĦÙĨÙģØ³":4996,"ØªÙĬÙħ":4997,"ĠÙĨØ±Ø¨ØŃ":4998,"ĠØ§ÙĦØ³ÙĦØ³ÙĦØ©":4999,"ĠÙĪØªØ´":5000,"Ġmerci":5001,"ĠÙĥØ§Ø³":5002,"Ø§ÙĪÙĦÙĬ":5003,"ĠØ§ÙĦØ³ÙħØ§":5004,"ĠØ§ÙĦÙħØ¬ÙĩÙĪØ¯":5005,"Úª":5006,"ĠØ¨Ø§Ø·ÙĦ":5007,"ĠÙĬØ§ÙĦ":5008,"Ø²Ø¨":5009,"ÙħØªØ¹":5010,"ĠÙĤÙĦØ¨Ùĩ":5011,"ĠØ¹ÙĦØ§ÙħØ©":5012,"ĠØ§ÙĦØµØ±":5013,"Ø¦Ø§":5014,"Ġmon":5015,"ĠØ§ÙĦØ°ÙĨÙĪØ¨":5016,"ĠðŁĴľ":5017,"ĠÙĤØµØµÙĥ":5018,"ĠØ¹Ø¨Ø§Ø±Ø©":5019,"hk":5020,"ØŃÙĪØ±":5021,"ÙĥÙĬÙĦÙĨØ§":5022,"Ø®ÙĦÙĩ":5023,"ÙĬÙĩØ§":5024,"ĠØ´Ø±ÙĬ":5025,"ĠØ³Ø§Ø¹Ø§Øª":5026,"ÙĦÙĬÙģÙĪÙĨ":5027,"ĠØ¨Ø§Ø¹":5028,"Ã©ri":5029,"ĠØªØ³ØªØ§ÙĩÙĦ":5030,"ÙħØ²Ø§ÙĦ":5031,"Ø§Ø¦ÙĨ":5032,"Ø®Ùģ":5033,"ÙĪÙĦÙĪØ¬":5034,"Ø§Ø¶Ø±":5035,"hank":5036,"Ġ).":5037,"hm":5038,"ĠØ¨Ø¯ÙĬ":5039,"ÙĪÙĨÙĥ":5040,"ÙĬØ§Ø¡":5041,"ĠÃ©":5042,"ĠÙħØ§Ø¡":5043,"ĠØ¹ÙĨÙĥ":5044,"ĠÙħØ¬ÙħÙĪØ¹Ø©":5045,"ĠÙĪØ°":5046,"ÙĤÙĪØ§":5047,"ĠÙĤØ±Ø¨":5048,"ĠÙģØªØ±Ø©":5049,"ĠØ§ÙĦØ®Ø±":5050,"Ø·Ùĩ":5051,"ĠØ£ÙĨØ²ÙĦ":5052,"ĠÙĪÙĬØª":5053,"ĠØ¨Ø¹Ø¯Ùĩ":5054,"ĠØªØªØ¹":5055,"ĠØªØ§ÙĪØ¹Ùĥ":5056,"Ø«ÙĦØ§Ø«":5057,"ĠØ§ÙĦÙħØ´Ø¨Ùĩ":5058,"ðŁı¼":5059,"ĠØ¸ÙĦÙħ":5060,"ĠØ±Ø§ÙĬØŃ":5061,"ĠØ±Ø§ÙĤØ¯":5062,"Ø§Ø¯Ø«":5063,"ĠØ§Ø³Ø·ÙĪØ±Ø©":5064,"ĠØ§ÙĦØ±Ø¹Ø¯":5065,"ðŁ¤²ðŁı»":5066,"ĠÙĪØ§ÙĦØ£Ø±Ø¶":5067,"Ø´ÙĦ":5068,"ĠØ§ÙĦØ£Ø¹Ø¶Ø§Ø¡":5069,"ĠØªÙĦÙħ":5070,"ĠðŁĺĺ":5071,"ĠÙĬØ¹ØªØ¨Ø±":5072,"ĠØ§ÙĦÙģÙĤ":5073,"ĠØªØ§Ø¹ÙĨØ§":5074,"ĠÙĪÙģÙĤÙĥ":5075,"ĠÙĬØ¶ØŃÙĥ":5076,"ĠØ±Ø§ÙĤÙĬ":5077,"ĠÂ»":5078,"ĠØ§Ø¨Ø¯Ø§":5079,"ĠÙĪØ§Ùĩ":5080,"ĠØ£Ø¹Ø±Ùģ":5081,"ĠØªÙĪÙģÙĬÙĤ":5082,"ĠØªØ¹ÙĬØ´ÙĪ":5083,"ĠØ§ÙĦØ¥Ø®":5084,"ĠÙĬØ¸ÙĩØ±":5085,"ĠØ§ØŃØ¨Ùĥ":5086,"Ġhadi":5087,"ĠÙĪØŃØ¯ÙĩØ§":5088,"ĠØ¯Ø§ÙĬÙħØ§":5089,"ĠÙħØ§ÙĦØ§":5090,"Ø´Ø¹Ø±":5091,"ĠØ¬Ø²Ø§ÙĥÙħ":5092,"ĠÙĬÙĦØ¹Ø¨":5093,"ts":5094,"Ø¬Ø§Ùħ":5095,"ĠØ§ÙĦØ¬Ø§ÙħØ¹Ø©":5096,"ĠØ§ÙĦØŃØ²ÙĨ":5097,"ĠØªØµØ±ÙĬØŃÙĬØ©":5098,"ĠØ§ÙĦØ§Ø¬ØªÙħØ§Ø¹ÙĬ":5099,"ÙĨØ§Ø³":5100,"ĠÙĦØ¯Ø§Ø±":5101,"Ø´Ø±Ø©":5102,"ĠØ³Ø¨Ø¹":5103,"ĠØ§ÙĨÙĨÙĬ":5104,"Ġâľħ":5105,"ĠÙĦØ§ÙĨÙĬ":5106,"ĠÙĪÙĨØµ":5107,"ĠØ´ÙĪ":5108,"ĠØ´Ø±Ùĥ":5109,"ÙĪÙħÙĨ":5110,"Ø±Ø¶ÙĬ":5111,"Ø¯ÙĪÙĩ":5112,"ĠØ§ÙĦØ®ÙĦ":5113,"ĠØªØ§Ø¹ÙĩØ§":5114,"ÙĨØ¨ÙĬØ©":5115,"ĠÙĬÙĤÙĪÙĦÙĪÙĨ":5116,"ĠØ§ÙĦØ¬ÙħÙĦØ©":5117,"Ø²ÙĪÙħ":5118,"ĠØ§ÙĦØŃØ¶":5119,"ĠØ§ÙĦØ²ÙħÙĨ":5120,"ĠØ§ÙĪÙĦØ§Ø¯":5121,"36":5122,"ÙĪÙħØ§":5123,"ØŃØ³Ø§ÙĨ":5124,"oup":5125,"ĠØ´ÙĥÙĦ":5126,"Ø¹Ø¨Ø¯":5127,"ĠÙĬÙĤØ±Ø§":5128,"ĠØªØ³ÙħØ§":5129,"ĠØªÙģÙĥØ±":5130,"ĠØ£ØŃØ¯Ø§":5131,"ĠÙĩØ§ØªÙĩ":5132,"ĠØ¯Ø²Ø§ÙĬØ±":5133,"ĠÙħØ³Ø¹ÙĪØ¯":5134,"ĠØ§ÙĦØºÙĬØ¨":5135,"ĠØªÙĦÙģ":5136,"Ġ??":5137,"ĠØ§ÙĦØ°ÙĥØ±":5138,"Ø§Ø·ÙĨ":5139,"ĠØ³ÙĪØ¡":5140,"Ġvra":5141,"ÙĥØ¨Ø±":5142,"ĠØ¨ØŃÙĬ":5143,"ÙĨÙĬØª":5144,"ĠJ":5145,"Ġro":5146,"Ø®Ø¨":5147,"ÙĨØ§Ø¬":5148,"ĠÙħØ§Ø®":5149,"Ø§ØªÙĦ":5150,"ĠÙĬÙħÙĪØª":5151,"ĠØ§ÙĦØªØ³Ø¬ÙĬÙĦ":5152,"ĠØªÙĪØµÙĦ":5153,"ĠØ§ÙĦØ¬ÙĪ":5154,"ĠØ£Ø³ÙħØ§Ø¡":5155,"Ø§ÙĬØ¹":5156,"Ø§Ø®Øª":5157,"ĠÙħØ®ØªÙĦÙģ":5158,"Ø¬ÙĬØª":5159,"ĠÙĤØ³ÙĨØ·ÙĬÙĨØ©":5160,"ØºÙģØ±Ø©":5161,"ml":5162,"ĠØ§ÙĦØªØ¹Ø¨":5163,"Ġpr":5164,"âģ":5165,"ĠØ§ÙĦÙĨØ§":5166,"ÙĥØ§Ø©":5167,"ĠÙĦÙĬÙģÙĬØ¯ÙĬÙĪ":5168,"Ø³ÙħÙĬØ©":5169,"Ø±Ø¬ÙĦ":5170,"ĠØ§ÙĦÙħØ±ÙĪØ±":5171,"ĠÙĬØ¹Ø¯":5172,"ÙĦÙĪÙĩØ§":5173,"ĠØ§ÙĦØ§Ø·":5174,"ĠØ¨ÙģØ¶ÙĦ":5175,"ĠÙħØ¹ÙĨØ¯":5176,"ĠÙĬÙĪÙħÙĬÙĨ":5177,"ĠØ³Ø¨ÙĬ":5178,"ĠØ¨ÙĬÙĨØ§":5179,"ÙĦÙĥÙĨ":5180,"Ø¶Ø¹Ùģ":5181,"2026":5182,"Ġcontinu":5183,"ĠÙģØ§Ø¹":5184,"ØºØ¨":5185,"ĠØ§ÙĦØ¢ÙĬØ§Øª":5186,"ĠØ§ÙĦÙĪØŃØ¯Ø©":5187,"ĠÙĦÙĬÙĩ":5188,"ĠÙħØ³ÙĦØ³ÙĦ":5189,"ĠØ¹ÙĬØ¨":5190,"ĠâĿ¤ðŁĺĬ":5191,"Ġ\".":5192,"ĠÙĪØ§ÙĦÙħØ´":5193,"ĠØ®Ø·Ø±Ø©":5194,"):":5195,"40":5196,"ĠØ®ÙĦØ§Ùģ":5197,"ÙģÙĬØ¯Ø©":5198,"ĠØ§ÙĦØ®Ø§Ùħ":5199,"ĠØ§ÙĦØ¹ÙĦÙħÙĬÙĬÙĨ":5200,"ĠØ£ÙĪÙĦØ§Ø¯":5201,"ĠÙħØ§ÙĨÙĬØ´":5202,"ĠØµØ¯ÙĬÙĤ":5203,"ÙĪÙĬØ±":5204,"ĠÙĬÙĤØ±":5205,"ĠÙĪØ§ÙĦØµÙĦØ§Ø©":5206,"ĠØ§ÙĦØ¹Ø±Ø´":5207,"ĠØ§ÙĦØ¬ÙħØ¹":5208,"ĠØ¹Ø´Ø±Ø©":5209,"ĠØ±Ø´":5210,"ØµØŃØ§":5211,"Ġpl":5212,"ĠÙĤÙĪÙĦÙĪ":5213,"ĠÙĦØ¹ÙĦ":5214,"ĠØ£ÙĪØ±":5215,"ÙħÙĦÙĬ":5216,"ĠØ¨Ùģ":5217,"Ø¯ÙĬÙĥØ³":5218,"ĠØ¨ØºÙĬØª":5219,"ĠØ®ÙĦØ§":5220,"Ø§Ø²ÙĦ":5221,"ĠÙħÙĥØ©":5222,"ĠÙĪÙĤÙĪÙĦÙĩ":5223,"ĠÙĬÙĦÙĤ":5224,"ĠØ±Ùģ":5225,"ĠÙħØªØ£":5226,"ĠØ±Ø§Ø³ÙĬ":5227,"ĠØ³ÙħØ§ÙĨØ©":5228,"ĠÙĪØ£Ø´":5229,"ĠØ§Ø¹Ø·":5230,"ØªÙħÙĦ":5231,"ĠÙĦÙĩØ°Ùĩ":5232,"ĠÙħØªØ§Ø¨Ø¹Ø©":5233,"ĠØ£Ø³Ø£ÙĦ":5234,"ĠÙĬØªÙĥÙĦÙħ":5235,"ĠØºØ§ÙĦÙĬ":5236,"ĠÙĪØ§Ùħ":5237,"Ġlik":5238,"end":5239,"ĠÙħØ¹ÙĨØ§ÙĩØ§":5240,"Ø§ÙĦØ¥":5241,"Ø¨ÙĬÙĥ":5242,"ĠÙħØŃØªÙĪ":5243,"âĻĢ":5244,"Ø§Ø±Ø¨Ø©":5245,"ĠØ¹Ø¬":5246,"ĠØªÙĥÙħ":5247,"ĠÙĨØµÙģ":5248,"ÙĩØ±ÙĬ":5249,"ĠÙĨØ¸Ø§Ùħ":5250,"****************":5251,"ÙĦÙĬÙĩØ§":5252,"ĠØ§ÙĦÙħØ±ØŃ":5253,"ĠØ§ÙĦÙĥÙģØ±":5254,"Ø§ÙĦÙĬØ´":5255,"ĠÙĬØ¤ÙħÙĨ":5256,"ĠÙĥØ°Ø¨":5257,"ĠÙĪØ§ÙĦØ§ÙĨ":5258,"Ø§Ø¹ÙĬÙĦ":5259,"ĠØ§ÙĦÙĤÙĪÙħ":5260,"ĠðŁİīâĿ¤":5261,"âĢįâĻĢ":5262,"ĠØ§ÙĦÙĥÙħ":5263,"ĠØ§ÙĦØªÙĪØ§ØµÙĦ":5264,"ĠÙĬÙĤØ±Ø£":5265,"ĠØ§ÙĦØ¨Ø¯":5266,"ĠØ¨ÙĦØ¯":5267,"Ġ50":5268,"Ø¹ÙĩØ§":5269,"ĠÙħØ¹ÙĩØ§":5270,"ĠØ¨ÙĨØªÙĬ":5271,"ÙħØ¦":5272,"ĠÙĪØ§Ùģ":5273,"ĠÙĩØ¨":5274,"ĠØ¨ÙĦØ§Øµ":5275,"ÙĤÙĪØ§ÙĦ":5276,"ĠØ¬Ø²Ø§Ø¦Ø±ÙĬØ©":5277,"iz":5278,"Ø§ÙĥØ´":5279,"ĠÙĬØŃÙĥÙħ":5280,"ĠØ§ÙĦØ¹Ø¨Ø§Ø¯":5281,"ĠÙĪØ§Ø°Ø§":5282,"ĠØ±Ø§ÙĩØ§":5283,"ĠØ§ÙħØªØŃØ§ÙĨ":5284,"ØµØ§":5285,"ĠØ·Ø±ØŃ":5286,"Ø¹ÙĪÙĩ":5287,"Ġkima":5288,"ĠÙĪØ§ÙĦØ¹Ø§ÙģÙĬØ©":5289,"Ø®ÙĦÙģ":5290,"ĠÙĨØ²ÙĦ":5291,"ÙĪÙĦØ§Ø¯":5292,"ĠØ§ÙĦØ§ÙħØªØŃØ§ÙĨ":5293,"ĠÙĨÙĩØ¯Ø±":5294,"ĠØ§ÙĦØŃÙħØ¯ÙĦÙĦÙĩ":5295,"ood":5296,"ĠÙĬØ·ÙĬØŃ":5297,"ĠØ§ÙĦÙħØ§Ø¯Ø©":5298,"ĠØ§Ø³Ø¦ÙĦØ©":5299,"Ø«ÙĪØ±Ø©":5300,"Ø§ØŃØ´":5301,"ĠØ¯Ø±Ø¬Ø©":5302,"Ø§Ø±ØŃ":5303,"ĠØ§ÙĦÙĨÙĩ":5304,"ĠØŃØ§ÙĦÙĬØ§":5305,"ĠÙģØµÙĦ":5306,"ĠØªØŃØ±":5307,"ĠÙĨØ´ÙĪÙģÙĪ":5308,"ĠÙģÙĦÙĬØ³":5309,"ÙģØ²":5310,"ĠØ§ÙĦÙĨØ¹":5311,"ÙĦØº":5312,"ÙħÙĬØª":5313,"ÙĪØ§ÙĪ":5314,"Ø§ÙĪÙĦØ©":5315,"ĠÙĨØ¬ØŃÙĨØ§":5316,"ĠÙģÙģÙĬ":5317,"Ø¸ÙĬÙģ":5318,"ĠÙĪØ§Ø¬Ø¹ÙĦ":5319,"ĠÙĪØ®ÙĦØ§Øµ":5320,"ÙĤÙĩØ§":5321,"ĠÙĤØ±Ø£":5322,"ers":5323,"ĠØ§ÙĦØ³ÙĬØ§Ø±Ø©":5324,"ĠØµØ§ÙĬ":5325,"ĠØ´ÙģØ§Ø¡":5326,"ĠØ±Ø¢":5327,"Ġhe":5328,"ĠØŃØ¨ÙĬØ¨ÙĬ":5329,"ĠÙĨØ³ÙĥÙĨ":5330,"ĠÙħØ³ØªØŃÙĬÙĦ":5331,"ĠØ¯Ø§Ø±ÙĪ":5332,"ĠÙĪØ¯Ø±":5333,"ĠØ§Ø³ØªØ¹Ø§Ø±Ø©":5334,"ĠØ§ÙĦÙģØ¯ÙĬÙĪ":5335,"ĠÙĪØ®Ø§ØµØ©":5336,"ÙĩØ¯Ø§":5337,"ĠØ§ÙĦÙĨÙĪÙħ":5338,"ØªØ±ÙĬ":5339,"ĠØªÙģØ¶":5340,"ÙģÙĩÙĪÙħ":5341,"]ØĮ":5342,"ĠØ§ÙĦÙħÙĨØ§":5343,"Ġbro":5344,"Ã©s":5345,"ĠØ§ÙĦÙĦØŃ":5346,"Ø§ÙĦØµ":5347,"Ø§Ø¦Øµ":5348,"ĠÙħØ´ÙĥÙĦØ©":5349,"ÙĩØ°Ùĩ":5350,"iloud":5351,"ĠØ§ÙĦØ®Ø·Ø§Ø¨":5352,"ĠØ§ÙĦØ¹Ø§ÙħØ©":5353,"ĠÙħØªØŃ":5354,"ĠØŃÙĬØ§ØªÙĩ":5355,"ĠØ§ÙģÙĩÙħ":5356,"ĠÙĥÙĪ":5357,"Ø¹ÙĨÙĬ":5358,"ĠÙĨØ¶ØŃÙĥ":5359,"ĠØ§ÙĦØ´Ø±ÙĬØ¹Ø©":5360,"Ø¹ÙĪØ¯Ø©":5361,"ĠÙĪØªØ±Ùĥ":5362,"ĠØ®Ø§ÙĦØ¯":5363,"ÙĬÙĥÙħ":5364,"ĠØ³Ø§Ø¹":5365,"45":5366,"ach":5367,"Ø³ØªØ±":5368,"âĢĿ":5369,"ĠØªÙħØ§ÙħØ§":5370,"ĠØ§ÙĦÙħØ³ØªØ¹Ø§ÙĨ":5371,"ĠÙĪØ¹Ø¯Ùħ":5372,"Ġsah":5373,"ĠØ¹Ø¸Ùħ":5374,"ĠÙĪÙħØ¨Ø¹Ø¯":5375,"ĠØ¨Ø§ÙĦÙħØ¹Ø¯ÙĦ":5376,"Ġ^":5377,"ĠØªØºÙĬÙĬØ±":5378,"ĠØªØŃØªØ§Ø¬":5379,"ĠÙĬØ§Ø®ÙĪ":5380,"ĠØ£ÙĨÙĪØ§Ø¹":5381,"ĠÙĦÙĥØ§ÙĨ":5382,"ØªØª":5383,"ĠÙĥÙĦØ´ÙĬ":5384,"ĠÙĬØ¬ÙħØ¹":5385,"ĠÙĪØ³Ø·":5386,"ĠØ§ÙĦØŃØ±Ø§Ùħ":5387,"ĠØ£Ø±Ø¶":5388,"zaf":5389,"Ġghir":5390,"âĢįâĻĢï¸ı":5391,"ĠÙģÙĥÙĦ":5392,"Ø²Ø±":5393,"ĠÙĥØªØ§Ø¨Ùĥ":5394,"mo":5395,"ĠØ§ÙĦØŃØ¬":5396,"ĠÙĥÙĦØ§ÙħÙĥ":5397,"ĠØ¹Ø§ÙĪØ¯":5398,"ÙĨÙĬÙĥ":5399,"ĠØ§ÙĦÙĤØ¶ÙĬØ©":5400,"ĠÙħØ´Ø§Ø±Ùĥ":5401,"ĠØ£Ø¬ÙħÙĦ":5402,"ĠØ§ÙĦØ£Ø®Øª":5403,"Ø¨ÙĪÙĦ":5404,"Ø¯Ø±ÙĬ":5405,"elle":5406,"ĠØŃÙģØ¸Ùĩ":5407,"Ø§Ø§Ø°":5408,"ÙĪØ§Ø¡":5409,"ĠØ§ÙĦØ£Ø¹ÙĦÙī":5410,"ĠØ§ÙĦØ¹ÙģÙĪ":5411,"ĠØ³ÙĬØ§Ø³ÙĬ":5412,"ĠÙģÙĦØ§ÙĨ":5413,"ĠÙĬÙĪÙĦÙĬ":5414,"ĠØ¬Ø§Ø²":5415,"ĠØ§ÙĦØ³ÙĪØ¯Ø§Ø¡":5416,"ĠØªØŃÙĤÙĬÙĤ":5417,"ĠØªÙĨØµØŃ":5418,"ĠÙĬØ³ØªØ·ÙĬØ¹":5419,"ÙħÙĬØ³":5420,"ĠÙĪÙĬÙĥÙĪÙĨ":5421,"ĠÙĨÙĪØ±Ùħ":5422,"ÙĪØ§ÙĨØ§":5423,"ĠÙĦÙĦÙģ":5424,"ĠÙĪÙħÙĬÙĦÙĪØ¯":5425,"ĠØ§ÙĦØºØ§ÙĦÙĬØ©":5426,"ĠØ§ÙĦÙħØªØŃ":5427,"ĠØ¨ÙĦØ§Ø¯ÙĨØ§":5428,"ĠØ±Ø¦ÙĬØ³":5429,"ĠÙģØ§ÙĦØ¨Ø§Ùĥ":5430,"ĠÙĬÙĪØªÙĬÙĪØ¨":5431,"ĠØ¨ÙĬÙĨÙĨØ§":5432,"ĠØ¹Ø¨Ø§Ø¯Ø©":5433,"ĠÙĪØ§Ø¬Ø¨":5434,"Ø§ÙĪØ±":5435,"ÙħØ´Ø§Ø¡":5436,"ĠÙĪÙĥÙħ":5437,"ØªÙĪÙħØ§":5438,"ÙĦØºØ©":5439,"Ø¦Ø°":5440,"ĠÙĤØ§Ø¹Ø¯":5441,"Ø·ÙĦØ§ÙĤ":5442,"ĠØ°ÙĨÙĪØ¨":5443,"Ø³Ø¨ÙĪØ¹":5444,"Ġare":5445,"ĠØ§ÙĦÙħÙĨØ·ÙĤØ©":5446,"ĠØ£ØµÙĦØ§":5447,"ÙĤØ±ÙĬ":5448,"ĠØ¯ÙĪØ±Ø©":5449,"ĠÙĥØ«Ø±Ø©":5450,"ĠØ§ÙĦØ±Ø§ØŃÙħÙĬÙĨ":5451,"ĠØªØ¹ÙĪØ¯":5452,"ĠØ§ÙĦÙģÙĤÙĩ":5453,"ÙģØ§Ø¯Ø©":5454,"ĠØ¨Ø³Ø±":5455,"ĠÙĨØ±Ø¬Ø¹":5456,"ĠØ§ÙĦØªÙĦØ§ÙħÙĬØ°":5457,"ĠØ§ÙĦÙħØ§Ø¶ÙĬ":5458,"ĠØ§ÙĦØ´Ø§Ø¹Ø±":5459,"Ġlah":5460,"ĠØ´Ø±Ø·":5461,"ĠÙĨØµÙĬØ¨":5462,"ĠÙĬØ·ÙĦØ¨":5463,"ĠÙħØ§Ø³":5464,"ĠÙĦØŃÙħ":5465,"ĠÙĨÙĪÙĦÙĬ":5466,"ĠÙģØªÙĨØ©":5467,"ĠØ·Ø±ÙĬ":5468,"ØŃÙĬØ§Ø¡":5469,"ĠÙģØ§ÙĦÙĤ":5470,"Ø¬Ø§ÙĪØ²":5471,"ÙħØ¹ÙĦÙĬØ´":5472,"ĠÃ¯":5473,"ĠØ³ÙĦÙĬÙħØ§ÙĨ":5474,"ĠØ¨Ø§Ø³Øª":5475,"ĠÙĬØµÙĦØŃ":5476,"ĠØ§ÙĦØ£Ùģ":5477,"ÙĤÙĬØªØ´":5478,"ĠÙĪØŃÙĨØ§":5479,"Â°":5480,"Ø§Ø¨ÙĦØ©":5481,"ĠØ§ÙĦÙĥØ¨Ø±Ùī":5482,"ĠÙģÙĬØ¯ÙĬÙĪÙĩØ§ØªÙĥ":5483,"ĠØ£Ø¹Øª":5484,"ĠØ´Ø±ÙĬÙĥ":5485,"Ø¸ÙĬÙħØ©":5486,"ĠÙĪÙĬØŃÙģØ¸":5487,"Ø°Ùī":5488,"ÙĪÙģØ©":5489,"ĠÙĪØ¢ÙĦÙĩ":5490,"ĠÙĤÙĦÙĪØ¨ÙĨØ§":5491,"Ġil":5492,"ĠØ§ÙĦØ¬ÙĩØ§Ø¯":5493,"ĠØ§ÙĦØ¹ÙĦÙħÙĬ":5494,"ĠÙģØ±ØŃØª":5495,"ØµÙĬØ©":5496,"ĠØ§ÙĦØŃØ§ÙģØ¸":5497,"ĠØ´Ø±ØŃÙĥ":5498,"21":5499,"ĠÙĤØ§Ø¹Ø¯Ø©":5500,"Red":5501,"Ø§ÙĪØ´":5502,"ØŃÙĬØ§Ø©":5503,"ĠðŁĺ¢âĿ¤":5504,"ĠØ¯Ø§Ø±Øª":5505,"ĠØ§ÙĦÙĤÙĬÙħØ©":5506,"ĠØ§ÙĦÙħÙĦÙģ":5507,"ĠØ§ÙĦØ³Ø¹Ø§Ø¯Ø©":5508,"ĠØµÙĪØ§ÙĦØŃ":5509,"ÙĥÙħØ§":5510,"60":5511,"ĠØ§ÙĦÙģØ§Ø¶ÙĦØ©":5512,"ĠØªÙĥÙħÙĦ":5513,"ØĮØĮ":5514,"ØªÙĬØ§Ø²":5515,"ĠÙĩØ§Ø¯ÙĬÙĥ":5516,"ĠV":5517,"ĠØ¬ÙĪÙĬÙĦÙĬØ©":5518,"ĠØºØ§Ø¯ÙĬ":5519,"ĠØ§Ø³ØªÙħØ±":5520,"Ø§ØµÙĬÙĦ":5521,"ĠÙĨØ³Ø§Ø¡":5522,"ĠØ£Ø³Ø¨Ø§Ø¨":5523,"ĠØ§ÙĦÙĤØ§ÙĨÙĪÙĨ":5524,"ĠÙħØ§Ø¯Ø§Ùħ":5525,"ĠØ§ÙĦÙĥÙĩ":5526,"ĠØ±ÙĪØ¶Ø©":5527,"ĠÙĬØ³ÙĩÙĦ":5528,"ĠØ£Ø´Ø¯":5529,"ĠØ¨Ø§ÙĦÙĤ":5530,"ĠÙĬØµÙĦÙĬ":5531,"ĠØŃØ¯Ø«ÙĨØ§":5532,"Ø§ÙĩØ©":5533,"ĠÙ¡":5534,"ĠØ¨ÙĦÙĪ":5535,"Ø§ÙģÙĬÙĩØ§":5536,"ĠØ³Ø¤Ø§ÙĦÙĬ":5537,"ĠÙħÙĤØªØ±ØŃ":5538,"ĠÙĬØ«Ø¨Øª":5539,"Ø§ØŃØ³ÙĨ":5540,"ĠØ¨Ø§ÙĦØº":5541,"Ø¯ÙħØª":5542,"ÙĪÙĦÙĦÙĩ":5543,"ØªÙĪØ¨Ø±":5544,"ĠÙĪÙĥÙĨØª":5545,"ĠØŃÙħØ¯":5546,"Ø³ÙĨØ¯":5547,"ĠØ§ÙĦØªÙĪØŃÙĬØ¯":5548,"ĠÙĪÙĩÙĥØ°Ø§":5549,"ĠØ¹ÙĦØ§Ø¬":5550,"ĠÙģØ§Ø³":5551,"Ġnt":5552,"ĠÙĪÙħÙĨÙĩØ§":5553,"ĠÙĬÙĥÙģÙĬ":5554,"ĠÙĪÙĪÙģÙĤ":5555,"ĠØ§ÙĦØŃØ§Ø¬":5556,"ÙĪÙĦÙĬÙĨ":5557,"ØªÙħØ±":5558,"ĠØ§ÙĦÙĨØ§Ø¬ØŃÙĬÙĨ":5559,"ĠÙħÙħÙĬØ²":5560,"ØºÙģØ§Ø±":5561,"ĠÙĦØ§Ø®":5562,"ĠØºØ±":5563,"ĠØºÙĬØ±ÙĩØ§":5564,"ĠØ¨ÙĨØ§":5565,"ĠØ£ÙĦÙħ":5566,"ĠØ§ÙĦØ·ÙģÙĦØ©":5567,"ĠØŃØ·ÙĬ":5568,"ĠØ§ÙĦÙħØ¹Ø±":5569,"ĠØ§ÙĥÙĬØ¯":5570,"Ø±ÙģÙĬÙĨ":5571,"ĠØŃÙħØ²Ø©":5572,"ĠÙĦØ¢":5573,"Ø±Ø§Ø¯":5574,"ĠØµØ¯ÙĤØ©":5575,"ĠØ®Ø³Ø±":5576,"ĠØ§ÙĦÙħÙĪÙĤØ¹":5577,"ĠØ±ÙĥÙĦÙĬØ·Ø©":5578,"Ø±Ø§ÙĩÙĬ":5579,"ĠÙĦØŃÙĤ":5580,"ĠØ¹ÙĦÙħÙĬ":5581,"ĠØ§ÙĦÙĪØ¬Ùĩ":5582,"Ġx":5583,"ĠØ¨ÙĬØ³Ùĥ":5584,"ðŁĺ®ðŁĺ®":5585,"ÙĤØ±Ø§Ø¡Ø©":5586,"ĠØ§ÙĦÙĪØ§Ø³Ø¹Ø©":5587,"Ġsepia":5588,"ÙĤØ¨Ø§ÙĦ":5589,"ĠØ§ÙĦÙĬÙĥ":5590,"ĠØ³ÙĬÙĥÙĪÙĨ":5591,"ĠØµØ±Ø§":5592,"ĠØŃØ§Ø¨ÙĬÙĨ":5593,"ÙĨÙĪÙĨ":5594,"ĠÙģØŃ":5595,"ÙĦÙĬÙĦØ©":5596,"ĠØŃØªÙĬ":5597,"Ġdu":5598,"ĠØ¨Ø§Ø¨Ø§Ùĥ":5599,"ÙĨØ¬ØŃ":5600,"ÙħØ±Ø©":5601,"Ø§Ø¦Ùģ":5602,"ÙĪØ±Ø§Øª":5603,"ĠÙħØ¬ØªÙħØ¹":5604,"ĠÙĪØµØŃØŃÙĩ":5605,"lk":5606,"Ø¦ÙĬ":5607,"ĠØ§Ø±ØŃÙħÙĩ":5608,"ĠØ·Ø§ÙĦØ¨Ø©":5609,"Ø¯Ø§Ø±Ø³":5610,"37":5611,"ĠÙĪÙģØ±":5612,"Ø§ÙĨÙĥ":5613,"Ø¬Ø±ÙĬ":5614,"ca":5615,"ĠÙĦØºÙĬØ±":5616,"ĠÙĪØ¹ÙĦÙħ":5617,"ĠØ§ÙĦØ´Ø®ØµÙĬØ©":5618,"ĠØ£Ø¹ÙħØ§ÙĦ":5619,"ĠØŃØ´":5620,"ĠØ§Ø¬ÙħÙĦ":5621,"ĠØ¨Ø§Ø²":5622,"ĠØ±ÙĬØŃ":5623,"ĠØ§ÙĦÙħØ±Ø§Ø¬Ø¹Ø©":5624,"ĠÙĨØ®Ø±Ø¬":5625,"ĠÙĪÙĥØ°Ø§":5626,"ĠÙħØ¤ÙħÙĨ":5627,"Ø§ØŃØ±":5628,"Ø§ÙĦØ±":5629,"Ø¬ÙĨØ©":5630,"ĠÙĤØ¯ÙĬÙħ":5631,"ĠÙĥØ¨Ø§Ø±":5632,"ĠØ±Ø¬ÙĦØ§":5633,"Ġrah":5634,"ĠÙĥÙħÙĦÙĬ":5635,"ĠØ³ÙĥÙĨ":5636,"ÙĦØ§ÙħØ§Øª":5637,"ĠØ§Ø±Ø¨":5638,"ĠÙĦØŃØ¯":5639,"Ġmen":5640,"ĠÙĪÙĦÙĦ":5641,"ØµÙĨ":5642,"Ø§Ø±Ùī":5643,"Ø²ÙĬØ±":5644,"ĠØµØ¹Ø¨":5645,"ĠØ·ÙĬ":5646,"art":5647,"ĠØ§ÙĦØ¨Ø§Ø±Ø¯Ø©":5648,"ĠÙĪØ§ÙĦØ²":5649,"Ø§ÙĬØ³":5650,"ĠÙĦÙĦØ£Ø³Ùģ":5651,"ÙĪØ¨ÙĬØ©":5652,"ĠØ¯Ø±Ø§Ø³Ø©":5653,"ĠÙħØ£":5654,"ĠØ±Ø¯ÙĬ":5655,"Ø¨Ø±Ø§":5656,"ĠÙĨØªÙĬØ¬Ø©":5657,"Ø§ÙĦØ®":5658,"ÙħÙĪÙĨ":5659,"Ø²ÙĬØ¯ÙĬ":5660,"ĠØ¨ÙĤÙĪÙĦÙĩ":5661,"ĠÙĤØ§ÙĦÙĬ":5662,"ØªØ¨Ùĩ":5663,"Ø¯ÙĬØ±ÙĬ":5664,"ĠÙħÙĪØ§Ø¯":5665,"ĠÙĪØ¥ÙĬ":5666,"ÙĩÙĨÙħ":5667,"ĠÙĪÙĨØªØ§":5668,"Ġcomp":5669,"ĠÙĬØŃÙħ":5670,"ĠÙĪØ¬ÙħÙĬØ¹":5671,"ĠÙĬÙĨØ¬ØŃÙĥÙħ":5672,"ĠØ§ÙĦØŃÙģØ¸":5673,"ĠØ§ÙĦØ®Ø¨Ø±":5674,"ðŁĩ©":5675,"ĠÙĬÙħÙĥÙĨÙĥ":5676,"ĠÙĬØ·ÙĦØ¹":5677,"ĠØ¨Ø°":5678,"ĠØ§ÙĦØ£Ø®ÙĬØ±":5679,"ĠØ§Ø¯Ø¨":5680,"Ø§ÙĩØ¯ÙĬÙĨ":5681,"ĠÙĥØ§ÙĬÙĨØ©":5682,"ĠÙĦØ§Ø´":5683,"ĠØ¬ÙĬØ´":5684,"ĠØ·ÙĬØŃ":5685,"ĠÙĬÙĨØ¸Ø±":5686,"ĠØ¶Ø±Ùĥ":5687,"ĠÙĬÙĪÙģÙĤÙĥÙħ":5688,"ÙĬØ¹ÙĨÙĬ":5689,"Ø´Ùĥ":5690,"ĠØ£Ø³Ø±":5691,"ÙĤØ±Ø§Ø¡":5692,"ĠØ§ÙĦØµÙģØŃØ©":5693,"Ø§Ø¦ÙĨØ§":5694,"ĠÙĨØŃÙĦ":5695,"ĠØ§ÙĦÙħÙĨÙĥØ±":5696,"Ġnchlh":5697,"Ø²Ø§Ø±":5698,"Ø¨ÙĬØ§ÙĨ":5699,"ĠØ§ÙĨØªÙħ":5700,"ĠØ§ÙĦØ¹Ø±":5701,"ÙĥÙĬÙģØ§Ùĩ":5702,"ĠÙĥÙĬÙĨ":5703,"ĠØ³Ø§ÙĩÙĦØ©":5704,"ĠÙĪØ§ÙĦÙħÙĨ":5705,"ĠÙĬØ¹Ø§ÙĪÙĨ":5706,"ĠÙĪØ§ÙĦØ¨Ø±":5707,"Ø§ÙģÙĪ":5708,"ĠØ¨Ø§ÙĦÙĬ":5709,"ĠØ®ØµÙĪØµØ§":5710,"Ø§ÙĦØ§ÙĦ":5711,"ÙĨØªØ´":5712,"Ġas":5713,"Ġsur":5714,"ÙĦØ³Ø§ÙĨ":5715,"ĠÙĨØµØ¨":5716,"ĠØ§ÙĦÙħØ³ØªÙĤØ¨ÙĦ":5717,"ĠØ§ÙĦÙģØ¹ÙĦ":5718,"ĠØ§ÙĦÙģÙĥØ±ÙĬ":5719,"ĠÙĨØ³Ø¨Ø©":5720,"ĠØ¹ÙħÙĦÙĬØ©":5721,"ĠÙĬØ³ØªØ±Ùĥ":5722,"Ġï´¾":5723,"ĠØªÙĪØ¬Ø¯":5724,"ĠÙĬØ®ÙĬ":5725,"Ã¨re":5726,"Ø±Ø®":5727,"Ø²ÙĬØ¯Ø´":5728,"ĠØŃÙĪØ§ÙĬØ¬":5729,"ÙĪÙħÙĪÙĨØªØ§Ø±":5730,"ĠØ§ÙĦØ¬ÙħÙĬÙĦØ©":5731,"ÙĤØ±Ø§ÙĬ":5732,"ĠØ§ÙĦÙħÙĨÙĩ":5733,"ĠØŃØ³Ø¨ÙĬ":5734,"ĠØ§ÙĦØ¯ÙĥØªÙĪØ±":5735,"ÙĨØ·":5736,"ĠØ£ÙħØ©":5737,"ĠØ¬ÙĪØ§ÙĨ":5738,"ĠØ§ÙĦØ¹Ø±ÙĪ":5739,"ĠØ¹ÙĨØ¯ÙĥÙħ":5740,"ĠØŃØ±Ùħ":5741,"ĠÙĪÙĬØºÙģØ±":5742,"ÙĤØªÙĩØ§":5743,"ble":5744,"ĠØ£ÙħÙĬ":5745,"ĠÙĤØ§ÙĨÙĪÙĨ":5746,"ÙĦÙĤØ§":5747,"Ø¶ÙĬØŃ":5748,"Ġam":5749,"ĠØªÙĥÙĦÙħ":5750,"Ø·Ø·":5751,"ĠØ¥ÙĤØ§ÙħØ©":5752,"ĠØ³Ø§Ø¨":5753,"ĠØ§ÙĦØ¬Ø¯ÙĬØ¯Ø©":5754,"ĠØªÙĤØ¯ÙĬÙħ":5755,"ĠÙĨØ¬ØŃÙĨÙĬ":5756,"ĠØ§ÙĦØ§ÙĬØ§Ùħ":5757,"Ø¨Ø±ÙĪÙĪÙĥ":5758,"bo":5759,"Ø¹Ø§Ø¯":5760,"ĠÙĪØ§ÙĦØªÙĪ":5761,"ĠÙĬØ³ØªØŃÙĤ":5762,"ĠÌģ":5763,"ĠÙħØ³Ø¨":5764,"Ø±Ø¨ÙĪ":5765,"ĠÙĥØªØ¨Øª":5766,"Ø®ÙĪ":5767,"ĠØªØ´Ø¨Ùĩ":5768,"ĠØªØ±Ø¯":5769,"lita":5770,"Ø´Ø¹Ø¨Ø©":5771,"ĠØ§ÙĦØ¨ÙĬØ§Ùħ":5772,"ĠØŃØ§Ø³":5773,"Ø§Ø¬ÙĬ":5774,"ĠØ§ÙĦØµØºÙĬØ±":5775,"ĠØŃØ¶Ø±":5776,"Ġ23":5777,"Ġ27":5778,"ravo":5779,"Ø¬Ø±Ø¯":5780,"ĠÙĦØ¯ÙĬÙĥ":5781,"Ġdo":5782,"tik":5783,"ØªØ±ÙĨØª":5784,"ĠÙħÙĤØª":5785,"ĠØ§ÙĦÙħØ±Ø¶":5786,"ĠØ§ÙĦØ³ÙĥÙĨ":5787,"ØŃÙĪØ§ÙĦ":5788,"ĠÙħØ¹ÙĨØ§Ùĩ":5789,"ĠØ§ÙĦØŃØ¨ÙĬØ¨":5790,"ĠÙħØ´ÙĥÙĪØ±":5791,"ĠØ§ÙĦØºØ§ÙĦÙĬ":5792,"ĠØ§ÙĦÙĥØ±Ø§Ùħ":5793,"ĠØŃØ¯ÙĪØ¯":5794,"ÙģØ§Ø¹":5795,"ĠÙĬÙĩÙħ":5796,"ĠØ¥ÙħØ§":5797,"ĠØ±ÙĪØ§ØŃ":5798,"ĠØ¥ÙĦÙĬÙĩÙħ":5799,"ĠØªØ¶ØŃÙĥ":5800,"ĠØ§ÙĦÙħÙĤØªØ±ØŃØ§Øª":5801,"ĠÙĥÙĬÙģÙĬØ©":5802,"ÙĬØªÙĩ":5803,"ĠØ§ÙĦØ£Ø®ÙĦØ§ÙĤ":5804,"ĠÙĦØ§Ø¹":5805,"ĠØ£ÙĥÙĪÙĨ":5806,"Ø±ÙĪØ§ØŃ":5807,"ĠØ§ÙħÙĬ":5808,"ĠØŃØ³ÙĨØ©":5809,"ĠØ£Ø«ÙĨØ§Ø¡":5810,"ĠØ£ÙĤÙĦ":5811,"Ø£ÙĨÙĩ":5812,"Ø¸Ø±ÙĪÙģ":5813,"ĠÙĪÙĤØªÙĩØ§":5814,"OU":5815,"Ãª":5816,"________________":5817,"fe":5818,"ĠØ¯Ø±ÙĨØ§":5819,"ĠØ£Ø³Ø¦ÙĦØ©":5820,"ĠØ§ÙĦØŃÙĦÙĤØ©":5821,"ĠØ§ÙĦÙĪØµÙģØ©":5822,"ÙĩÙĦÙĥ":5823,"Ø§Ø®ÙĬØ±Ø§":5824,"ÙĩØ§Ø°ÙĬ":5825,"ÙĩØ§Ø¯ÙĬ":5826,"ĠÙģØµ":5827,"ĠÙĬØµØŃ":5828,"ĠØ§ÙĦÙħØ°":5829,"Ø§Ø±ÙĤ":5830,"ĠØµØ±Ø§ØªÙĦÙĬ":5831,"ĠØ¹ÙĪ":5832,"ĠÙĤØ¶":5833,"ĠØ§ÙĦÙĥÙģØ§Ø±":5834,"ĠØ³ÙĪØ¬ÙĬ":5835,"ĠØ§ÙĦØ±ØŃÙħØ©":5836,"ÙĨØªÙĩØ§":5837,"ĠÙĪØºÙĬØ±Ùĩ":5838,"ĠÙĨØ³Ø¨":5839,"Ø®ÙĬÙĦ":5840,"ĠÙĬØ·ÙĪÙĦ":5841,"??":5842,"ĠÙģØ±Ø¬":5843,"Ø²Ø§Ø¨":5844,"Ø«Ø¨Ø§Øª":5845,"ĠÙĨØªØ¹ÙĦÙħ":5846,"ĠðŁĴĸ":5847,"ĠØŃØ¬":5848,"ĠØªØªÙħÙĨÙī":5849,"ĠØ¨Ø§ÙĦØ¯":5850,"Ø§Ø±ÙĨØ©":5851,"ĠÙĬÙĩØ¯ÙĬÙĨØ§":5852,"Â».":5853,"ĠØ§ÙĦØ¹ÙĦ":5854,"ĠÙħØ±Ø§":5855,"Ø¦ÙĦØªÙĬ":5856,"ÙĥÙĬÙĥ":5857,"Ġtu":5858,"ĠØ¹Ø¬Ø¨":5859,"ĠØ±Ø¶":5860,"ĠØ§ÙĦÙĤØ¯Ùħ":5861,"ĠØ£Ø´ÙĩØ±":5862,"ĠØ§ÙĤØ§ÙħØ©":5863,"Ø¨ÙĬØ¯":5864,"ĠØ§ÙĦØªÙĪØ¨Ø©":5865,"ĠØ²ÙĪØ¬ÙĩØ§":5866,"Ø´Ø¹":5867,"ĠÙĨØ§Ø±":5868,"ĠÙĪÙĨØ³":5869,"Ø¥ÙĨØ³Ø§ÙĨ":5870,"ĠØ§ÙĦØ¹ÙĤÙĬØ¯Ø©":5871,"ĠØ§ÙĦÙħØ¹ÙĦ":5872,"ĠÙĬÙħØ´ÙĬ":5873,"ĠÙĤØ§Ø¦":5874,"Merci":5875,"ĠØªØ±ÙĬ":5876,"ÙĤÙĦÙĬ":5877,"Ġ28":5878,"ĠÙģØ§Ø³Øª":5879,"ĠÙĨÙĨØ³":5880,"Ø´ÙĬØ±":5881,"ĠØ³Ø·":5882,"ĠÙĪÙĬØ¬Ø¹":5883,"ĠÙħØ±Ø§Ø¯":5884,"bac":5885,"ĠØµØ§ØŃØ¨Ø©":5886,"ĠÙģÙĦÙĪ":5887,"ĠØ£ØµØ¨ØŃØª":5888,"ps":5889,"ĠÙĬÙĤØªÙĦ":5890,"Ø§ØªÙĪØ±":5891,"ĠØ¹ÙħØ±Ø§ÙĨ":5892,"ĠÙħÙĤØ¯Ø±ØªØ´":5893,"ØŃØ¨Ø³":5894,"ĠÙģØ¶ÙĦØ§":5895,"ÙĬÙĨÙĩØ§":5896,"ĠØ³ÙĤ":5897,"ĠÙģØ±ØµØ©":5898,"ĠØ¹Ø§Ø±":5899,"ĠÙĤÙĬØ§Ùħ":5900,"ĠÙħØ¹Ø¯":5901,"Ø®ÙĦØ·":5902,"ĠØ§Ø¬Ø±":5903,"ðŁĺįðŁĺį":5904,"ĠÙħÙħØªØ¹Ø©":5905,"ĠØŃÙĥØ§ÙĬØ§ØªÙĥ":5906,"Ø§ÙĪÙĩ":5907,"ĠØªØ¹Ø·ÙĬ":5908,"ĠÙģØ§ÙĦØ¹":5909,"Ġlove":5910,"ĠÙĦØ§Ùĥ":5911,"ĠØ§ÙĦØ¹Øµ":5912,"ĠâĢľ":5913,"Ø¨ØªØ¯":5914,"ĠØ§ÙĦØ§ÙĨØª":5915,"ĠÙĪØ¹Ùħ":5916,"ham":5917,"ĠÙħØ¨Ø¯":5918,"ØªØ±ÙĪÙĨÙĬØ©":5919,"ĠØ´ÙģØªÙĪ":5920,"ii":5921,"ĠØŃØ§Ùģ":5922,"ĠÙĬÙĤØ¨ÙĦ":5923,"ĠÙģØ¥":5924,"ĠØªÙĪÙĨØ³":5925,"Ø±ÙĬØ§Øª":5926,"ĠØ§ÙĦØ¨Ø¯Ø§ÙĬØ©":5927,"ĠØ§Ø³ØªØ§Ø°ÙĨØ§":5928,"ĠØªØ·Ø¨ÙĬÙĤ":5929,"ÙĦÙĪÙĨ":5930,"ÙĪÙĦÙĩØ§":5931,"ĠØºÙģØ±":5932,"ĠØ§ÙĦÙħØ³Ø¤":5933,"âĿ¤ï¸ıâĿ¤ï¸ı":5934,"ðŁį":5935,"ĠØµÙĬ":5936,"ĠØµØ¯Ø±":5937,"ØªØµØ§Ø±":5938,"Ø³Ø§Ø±Ø©":5939,"ĠÙĤÙĦÙĨØ§":5940,"ĠÙħØ¹ÙĬÙĨ":5941,"ĠØ«ÙĪØ±Ø©":5942,"ØµØ±Ø§":5943,"ĠØ§ÙĦØ§Ø¹Ø¶Ø§Ø¡":5944,"Ø²ÙĬØ§Ø¡":5945,"ĠÙĨØ¬Ø¯":5946,"Ġ~~":5947,"Ø§ÙĨØ§Øª":5948,"ĠØ¬ÙĨØ©":5949,"ĠØºÙĦ":5950,"Ø±ÙĪØŃÙĬ":5951,"ĠÙĦÙĥØªØ§Ø¨":5952,"ĠØ£ÙĨÙģØ³ÙĩÙħ":5953,"der":5954,"ĠØªØ§Ø¨":5955,"ĠØ§Ø¸":5956,"ĠØºØ¯ÙĪØ§":5957,"Ã©e":5958,"ĠØªØ¨Ø¯":5959,"ĠØ³Ø·ÙĬÙģ":5960,"ĠÙĬØ´Ø§ÙģÙĬÙĥ":5961,"ĠÙĪÙĬØ¹Ø·ÙĬÙĥ":5962,"ĠØ§ÙĦØ³ÙħØ§ÙĪØ§Øª":5963,"ÙĩØ§Ø¯Ø©":5964,"ĠÙĦØ¯Ùī":5965,"ĠÙĥÙĦÙĩÙħ":5966,"ØªÙĬØ¬Ø©":5967,"ØªØ§Ø¨Ø¹":5968,"ĠÙĦÙĦØ§Ø³Ùģ":5969,"Ġwah":5970,"Ø´ÙĬØ©":5971,"ĠØ®Ø§ÙĦÙĬ":5972,"ĠØ¯Ùĥ":5973,"ĠÙĬØ¹Ø¬Ø¨":5974,"ðŁĴĻ":5975,"ĠØ§ÙĦÙħØ³ÙĦÙħÙĪÙĨ":5976,"ĠØ§ÙĦØ´Ø±Ø¹":5977,"ĠÙĪÙĬØ±ØŃÙħ":5978,"ĠØ§ÙĦØ¶Ø±":5979,"ÙĬØ±Ùĩ":5980,"ĠØ§ÙĦÙħÙĤØµÙĪØ¯":5981,"ĠØ§ÙĦØ®Øµ":5982,"ØªÙĤØ§Ø¯":5983,"39":5984,"ĠØ§ÙĦØ¶ØŃÙĥ":5985,"ĠÙĪØ±ÙĤØ©":5986,"Ġad":5987,"ÙĨÙĩØ§":5988,"ðŁĺĤâĿ¤":5989,"ÙģÙĬØ§":5990,"Ġwin":5991,"ĠÙĥØ°":5992,"Ġmy":5993,"Ø§Ø·ÙĤ":5994,"ĠÙħØ±ÙĥØ²":5995,"ĠÙĦÙĦØ¨":5996,"ĠÙĦÙĥÙĨÙĩ":5997,"ĠØªÙģØ±":5998,"Ø«ÙĤ":5999,"Ġmat":6000,"ĠØŃØ¨ÙĬØ¨":6001,"ØªØ©":6002,"ĠØ¥Ø³ÙĦØ§Ùħ":6003,"Ø§Ø·Ø§":6004,"ĠØ¨Ø§ØºÙĬ":6005,"ĠØ§ÙĦØ§Ùĥ":6006,"ĠÙĬØ¶Ø±Ø¨":6007,"Ø®Ø¯Ø§Ùħ":6008,"ÙģØªÙĨØ§":6009,"ĠØ§Ø¨Øª":6010,"Ø²ÙĬØ²Ø©":6011,"ĠØ§ÙĦÙħØ¹ÙĦÙħ":6012,"ĠØ§ÙģØ±ÙĬ":6013,"ĠÙĦØ§Ùģ":6014,"ĠØ¹Ø§Ø±Ùģ":6015,"Ø±ØŃÙħÙĩ":6016,"ÙĪÙĤØª":6017,"ÙĩØ¯ÙĬ":6018,"ĠØ¹Ø¯Øª":6019,"Ġbla":6020,"ĠØ§Ø¯Ø¹":6021,"ĠÙģÙĬØ¯ÙĬÙĪØ§Øª":6022,"ĠØªÙĩØ¨ÙĦ":6023,"ĠÙĥÙĨØªÙĬ":6024,"Ù¤":6025,"ĠØ§Ø³ÙħÙĪ":6026,"ĠÙĪØ£ÙĬ":6027,"ĠÙħÙĪÙĤÙģ":6028,"ĠÙĪØŃÙģØ¸":6029,"ĠØ£Ø³Ø£ÙĦÙĥ":6030,"Ø¹ÙĨØ§":6031,"ĠØ§ÙĦÙĨØ«Ø±":6032,"ĠØ§ÙĦÙĪÙĤ":6033,"Ġbeau":6034,"ÙĪÙĦÙĪØ¬ÙĬØ§":6035,"ĠØ¨Ø§ÙĦØ®ÙĬØ±":6036,"Ø£ÙĥØ¯":6037,"ĠØ¥ÙĬÙħØ§ÙĨ":6038,"ĠØ¯Ø§Ùħ":6039,"Ø§ÙĬÙĤ":6040,"77":6041,"ĠØªÙĬÙĥ":6042,"ĠØ§ÙĦÙħØ³ÙĬØŃ":6043,"Ø¸ÙĦ":6044,"ĠØ¶ÙĦ":6045,"ĠØªÙĤÙĨÙĬ":6046,"ÙĪØ§ÙĨÙĨØ§":6047,"ĠÙħØ«ÙĦÙĥ":6048,"ĠØ±Ø³ÙĪÙĦÙĩ":6049,"ÙĬØ§Ø±":6050,"ĠÙģØ§Ø·":6051,"ĠØ³ØªØ±":6052,"ouf":6053,"ĠÙĪÙģÙĬÙĩ":6054,"ĠØ§ÙĦÙħÙĨØ²ÙĦ":6055,"ĠØ£ÙĪÙĦØ¦Ùĥ":6056,"we":6057,"Ú¾":6058,"ĠÙĦÙģØ¸":6059,"ĠØ§ÙĦØ¹Ø§ÙĦÙħÙĬØ©":6060,"âľĮ":6061,"ĠÙĦØ¨Ø¹Ø¶":6062,"ĠØµÙģØ§Øª":6063,"ĠÙĪØºÙĬØ±ÙĩÙħ":6064,"ĠÙħØŃØ±":6065,"ÙģØªØ§ØŃ":6066,"ĠÙĬØ®Ø¨Ø·":6067,"Ø±ÙĬÙĥØ§":6068,"ĠØ¨Ø§ÙĦØ§Ùĥ":6069,"Ø±ÙĪÙĬ":6070,"Ø±ÙĪÙĥ":6071,"ĠdÃ©":6072,"Ġhna":6073,"ĠØ§ÙĤØ±Ø¨":6074,"ĠÙħØ±ÙĬØ¶Ø©":6075,"Ø´ÙĥÙĦ":6076,"ĠØ¬Ø§ÙĨ":6077,"ĠÙĪØ£Ø¨ÙĪ":6078,"§a":6079,"ĠÙĪØ§ÙĪ":6080,"ĠØ°Ùĩ":6081,"ĠØ³ÙĬØ§Ø±Ø©":6082,"Ġâĺº":6083,"ĠÙĩØ¯ÙĪ":6084,"ĠÙĪØ§ÙĦÙĬ":6085,"ĠÙģØ§":6086,"ĠÙĥØ¨Ø±":6087,"ĠØ§ÙĦØ³ÙģØ±":6088,"ÙģØ³Ø©":6089,"ĠÙĬØ¬Ø¯":6090,"ĠØ§ÙĩÙħ":6091,"ĠÙĬØªØ¨Ø¹":6092,"ĠÙħØªØª":6093,"of":6094,"ĠðŁĴķ":6095,"ĠØ§ÙĦØ´ÙĬØ¹Ø©":6096,"ĠÙĩÙĨ":6097,"ĠØ§ÙĥØªØ¨":6098,"ĠØ±Ø¬Ø§Ø¡":6099,"ĠÙĪØ§ÙĦÙĩ":6100,"ĠØ¨Ø§Ø¯ÙĬ":6101,"ĠØ§ÙĦØ£Ø¯":6102,"Ø³ÙĬØ±":6103,"ĠØ¹Ø§Ø¬":6104,"ĠÙĤÙĬÙħ":6105,"ĠØ§ÙĦØ´Ø§Ùħ":6106,"ĠÙĪÙĨØŃÙĪ":6107,"ĠØ¨ÙĨØ¬Ø§ØŃ":6108,"ðŁ«¶":6109,"ĠØ«Ø§Ø¨Øª":6110,"ĠØªØ®Ø§Ùģ":6111,"ĠÙĪÙĨØ§":6112,"ĠÙĦØ°Ø§":6113,"ĠÙĨÙĨØª":6114,"Ø¶Ø§Ùģ":6115,"Ġce":6116,"ĠÙĬØ´Ø¨Ùĩ":6117,"ĠØ§ÙĦÙħØ´ÙĥÙĦØ©":6118,"ĠØ£ÙĤØ±Ø¨":6119,"ĠÙĪØ¯ÙĬ":6120,"ĠØ¹Ø«ÙĬÙħÙĬÙĨ":6121,"ĠÙĬØ³ÙħÙī":6122,"ĠØ°ÙĪÙĬ":6123,"ist":6124,"ara":6125,"Ø§Ø¹Ø§":6126,"onn":6127,"Ø¹Ø¯ÙĬ":6128,"ĠØ¨ØŃØ±":6129,"ÙħÙĪØ¶ÙĪØ¹":6130,"ĠÙĬÙĤÙĦ":6131,"ĠÙĦÙħØ¯Ø©":6132,"ĠØ§ÙĦÙĥØªØ§Ø¨Ø©":6133,"ĠØ¨ÙĪØ±ÙĥØª":6134,"Ø§ÙĦÙģØ©":6135,"hab":6136,"Ø´ÙĤ":6137,"ĠØ§ÙĦØ±Ø§Ø¨Ø·":6138,"Ġpdf":6139,"ĠØ¸Ø§ÙĩØ±":6140,"ĠØ¹ÙĬØ¯Ùĥ":6141,"ure":6142,"ØŃØ¨ÙĬ":6143,"ĠÙģØ§ÙĦÙĬ":6144,"ĠØ¹Ø±Ø´":6145,"ĠØ³ÙĥØ±":6146,"ĠØ¥Ø¹":6147,"ĠÙĦÙĦØº":6148,"Ġdi":6149,"Ġrani":6150,"ĠÙĤÙĨØ´ÙĪ":6151,"ÙĦÙĨ":6152,"ĠÙħÙģÙĩÙħ":6153,"ĠØ§ÙĦØ¹Ø§ÙģÙĬØ©":6154,"ue":6155,"ØŃØ¨ÙĬØª":6156,"Ø²Ùĩ":6157,"ĠØ§ØŃÙģØ¸":6158,"ĠØ§ÙĦØ±Ø³Ø§ÙĦØ©":6159,"ĠØªØ±Ø¨":6160,"Ø±Ø§ÙĥÙĬ":6161,"ÙĦÙĪØ§Øª":6162,"ĠØ°Ø±":6163,"Ġ26":6164,"ÙĪØ§ÙĨÙĬÙĨ":6165,"ĠÙĬØ¯ÙĬÙĩ":6166,"ĠØ§ÙĦØŃÙĪ":6167,"ĠAl":6168,"ĠØªÙĪØ¨":6169,"ÙĦÙĬØ§Øª":6170,"ĠØ¬Ø§Ø±":6171,"ØªØ§Ùĩ":6172,"ØŃÙĥÙħ":6173,"ĠØªØ¨Ø±":6174,"ĠØ§ÙĦØ¬Ø§Ùĩ":6175,"ĠØ§ÙĦØ·Ø§Ø¨Ø¹Ø©":6176,"ĠØ§ÙĨØªØ¸Ø§Ø±":6177,"ĠØ§ÙħØ§Ùħ":6178,"Ø¹ÙĪØ¯ÙĬØ©":6179,"Ø³Ø§Ø¯":6180,"ĠØ±Ø®":6181,"Ø§Ø¨Ø³":6182,"ĠØªØ¬Ø±Ø¨Ø©":6183,"ĠÙĪØ±Ø§ØŃ":6184,"ĠÙĪÙģØ§Ø©":6185,"ÙĪÙĨØ¯ÙĬ":6186,"ĠØ³ÙĪØ±":6187,"ĠØ§ÙĦØ±Ø§Ø¬ÙĦ":6188,"Ġni":6189,"ĠÙĨØ±Ø§Ø¬Ø¹":6190,"ĠØ§ÙĦÙħØ¹Øª":6191,"ĠØ§ÙĦØµØ§ÙĦØŃÙĬÙĨ":6192,"Â«":6193,"Ġfo":6194,"ĠØ¯Ø®ÙĪÙĦ":6195,"38":6196,"ÙģÙĪØ§":6197,"ĠØ£Ø¹ÙĦÙī":6198,"ÙĨÙĪØ±":6199,"ĠØ´ÙħØ³":6200,"ĠØ§ÙĦØ³Ø§Ø¨ÙĤØ©":6201,"ĠØªØ¹Ø±Ø¶":6202,"Ġcontinuation":6203,"ĠØ§ÙĦØ¹Ø¶":6204,"ĠØ§ÙĦÙħØ®ÙĦÙĪ":6205,"ĠÙĬØ¹ÙĬØ´Ùĥ":6206,"ĠØ¨ÙĬÙĨÙĩÙħØ§":6207,"ĠØ§ÙĦØ§ÙĨØ¬ÙĦÙĬØ²ÙĬØ©":6208,"ĠØ¨ØŃØ«":6209,"LA":6210,"ĠØ¨ÙĪÙĦ":6211,"ĠØ¨Ø´ÙĬØ¡":6212,"ĠÙĪÙĬØ³Ø±":6213,"Ġye":6214,"ĠÙħØ¬ÙħÙĪØ¹":6215,"ĠÙĪØ¬ÙĩÙĥ":6216,"âĿ¤ðŁİī":6217,"ĠÙĨÙĦØŃÙĤ":6218,"ĠØªØ³ÙĬÙĬØ±":6219,"ĠØªØ§Ø¹ÙĩÙħ":6220,"ĠØµÙĪØªÙĥ":6221,"ĠØªÙĤØ±Ø§ÙĬ":6222,"ĠÙĤÙĨØ´ÙĪØ¨Ø©":6223,"ĠÙĨØº":6224,"ĠØ§ØŃØªØ±Ø§Ùħ":6225,"ĠØ·ÙĦØ¹ÙĪ":6226,"res":6227,"ĠÙĨÙĪØ¶":6228,"ĠØ§Ø¨Ø±":6229,"ĠØ£ØŃÙĬØ§ÙĨØ§":6230,"com":6231,"Ù£":6232,"ĠÙģØ®":6233,"ĠØ§ÙĦØ¹ÙĪ":6234,"ĠØ§Ø³ØªÙģ":6235,"ĠØ§ÙĦØ§Øº":6236,"ĠÙĥÙĦÙĬ":6237,"ĠØ´Ø±ÙĥØ©":6238,"ĠØ¨ÙĤÙĪØ©":6239,"ĠØªØŃÙģØ¸":6240,"ĠØ£Ø¬Ø¯":6241,"ÙĦÙĪÙĦ":6242,"ĠÙĥÙĦØ§":6243,"ðŁĺ¹":6244,"ĠØ§ÙĦØ¬Ø§ÙĬ":6245,"Ø§ÙĤÙĬØ©":6246,"ĠØ¸Ø§ÙĩØ±Ø©":6247,"ĠÙģÙĦØ¨":6248,"Ø§Ø¹ÙĬØ©":6249,"ĠÙĤÙĦÙĬÙĦØ©":6250,"ÙĤÙĦØ©":6251,"ĠØ§ÙĦØ¹ÙĦÙĬØ§":6252,"ĠØ§ÙĦØ£Ø´ÙĬØ§Ø¡":6253,"ĠØ§ÙĦØ±Ø§Ø¦Ø¹":6254,"Ġdar":6255,"ĠØ±Ø£Ùī":6256,"ĠØµØ¹ÙĬØ¨":6257,"ĠÙħØ´Ø§ÙĥÙĦ":6258,"ĠØ§ÙĦØºÙĬØ±":6259,"ĠØ¹Ø§ÙĪ":6260,"bb":6261,"ĠÙĬØŃÙħÙĦ":6262,"ĠØ²ÙĪØ§Ø¬":6263,"ĠÙĨÙĦÙĤØ§":6264,"Ø¹ÙħØ±":6265,"ÙģØªØ´":6266,"ĠØ¨ÙĪÙħ":6267,"ĠÙĦØ¬ÙħÙĬØ¹":6268,"ðŁĴĵ":6269,"ĠØµØ§ÙĨØ¹Ø©":6270,"ØŃØµÙĦ":6271,"ĠØªÙĪÙģ":6272,"ĠÙĨÙģØ¹":6273,"ĠØŃØ§ÙģØ¸":6274,"Ġ22":6275,"ØŃÙĬØ§ØªÙĬ":6276,"ĠÙģÙĤÙĦØª":6277,"ĠØ¬Ø§Ø±ÙĬØ©":6278,"ĠØ§ÙĨØ³":6279,"ĠØ§ÙĦÙĤÙĪ":6280,"ĠØ§ÙĦÙĤÙĬØ§Ùħ":6281,"ØªØ³Ø¨":6282,"ĠØ§ÙĦØŃÙĦÙĪ":6283,"Ġja":6284,"ĠØªØ±Ø¬Ø¹":6285,"ĠÙĦÙĦØ±":6286,"ĠØ§Ø¨ØªØ¯":6287,"ĠÙħØ±ÙĪØ±Ùĥ":6288,"ĠÙĨØŃØªØ§Ø¬":6289,"ĠØ¹ÙĨÙĪØ§ÙĨ":6290,"Ø§Ø²Ø©":6291,"ĠÙĨØ¨ÙĥÙĬ":6292,"ÙĨØŃØ¨":6293,"ĠØ§ÙĦØ®Ø¯ÙħØ©":6294,"ĠÙĪÙħÙĥØ§ÙĨ":6295,"ĠØ§ÙĦÙĨØ¨ÙĪÙĬØ©":6296,"ola":6297,"ÙĥØ±Ø±":6298,"ĠØªØŃØ³":6299,"ĠÙĪÙħØ§Øª":6300,"Ġyour":6301,"Ø·ÙĦØ©":6302,"ĠÙĩÙĥØ¯Ø§":6303,"ĠÙĦØŃØ¸Ø©":6304,"ĠÙħØ¹Ø±ÙģØªØ´":6305,"ĠÙĨØ¹ÙĦÙħ":6306,"Ġar":6307,"ĠØ§ÙĦÙħØ³ØªÙĪÙī":6308,"Ø§ÙĦÙĤØµØ©":6309,"ĠØ¹ÙħØ±ÙĩØ§":6310,"ty":6311,"ÙĪÙĥÙħ":6312,"ÙĩÙĪØ©":6313,"ĠØ§ÙĦÙĤØ¯ÙĬÙħØ©":6314,"ÙģØ±Ø§Ø¯":6315,"lou":6316,"ØªØ¹ÙĬ":6317,"ĠØµÙģØŃØ©":6318,"ĠÙĬØ³Ùħ":6319,"ĠØ¬ÙĬØ¯Ø©":6320,"ĠØ²ÙĬØ§Ø¯Ø©":6321,"Ø¬Ø§Ùĩ":6322,"ĠÙĪØªØ³":6323,"ĠØ³Ø¹ÙĬØ¯Ø©":6324,"ÙģÙĬØ§ÙĨ":6325,"ĠÙĪÙĩÙĨØ§Ùĥ":6326,"Ġkam":6327,"ĠØ£Ø±Ùī":6328,"ĠÙĨÙĤÙĦÙĥ":6329,"ĠØŃÙģ":6330,"ĠØ¬Ø±Ø¨":6331,"ĠØ¬ÙĩÙĨÙħ":6332,"ĠØ§ØŃÙħØ¯":6333,"ÙĪØ§ØªÙĬ":6334,"ĠÙĨÙĤØ¯Ø±ÙĪ":6335,"Ø¹Ø«":6336,"ĠØ§ÙĦÙħÙĬØª":6337,"ĠØ§ÙĦØ¨ÙĦØ¯":6338,"ÙĪÙħÙĨØªØ§Ø±":6339,"challah":6340,"ĠÙĪØ§Ø¶ØŃ":6341,"ĠÙĪØ¨Ø±":6342,"ĠØ§ÙĦØ¨Ø¯Ø¹":6343,"ĠØ·Ø±ÙĤ":6344,"ÙĪØ¯ÙĬØ©":6345,"ĠØ¹Ø¨Ø§Ø¯Ùĩ":6346,"ĠØ§ÙĦÙħØŃØ±":6347,"ĠØ§ÙĦØ¹ÙĬ":6348,"ĠØ§ÙĤÙĪÙĦ":6349,"Ø§ÙĥØ±":6350,"ĠØ¬Ø¹ÙĦÙĩØ§":6351,"ĠØ§ÙĦØŃØ³Ø§Ø¨":6352,"ĠÙĬÙĤØ¹":6353,"ĠØ£ÙĩÙĦÙĩØ§":6354,"Ã¨s":6355,"ĠØªÙĪØŃØ´ÙĨØ§":6356,"Ø£ÙĪÙĦ":6357,"ĠØ¶Ø¹Ùģ":6358,"Ø§ÙĨÙĬÙĨ":6359,"ĠØªØ¨ÙĥÙĬ":6360,"Ø²ÙĬÙĥ":6361,"ĠØ§ÙĦØ¹Ø¯ÙĬØ¯":6362,"ĠÙĪÙĨÙģØ±ØŃÙĪ":6363,"ĠÙĪØ¬ÙĪÙĩ":6364,"ĠÙĪØ¨Ø¯":6365,"ĠØ§ÙĦØ®Ø§Ø±Ø¬":6366,"ĠØŃØ±ÙĥØ©":6367,"ĠØºØ¯Ø§":6368,"haha":6369,"ĠØ¯Ø±ØªÙĬ":6370,"Ø¬ÙħÙĦØ©":6371,"Ø¯Ø¹ÙĪØ§ØªÙĥÙħ":6372,"ĠÙĪØ§ÙĦØ¢Ø®Ø±Ø©":6373,"Ġwla":6374,"ĠÙĪÙħØŃ":6375,"ØŃØ¯Ùī":6376,"ĠØ§ÙĦÙħØ´Ø±Ùĥ":6377,"ĠÙĪØ§ÙĦØ¹ÙĦÙħ":6378,"ĠØ§ÙĦØ¹Ø¯ÙĪ":6379,"Ø±Ø§ÙĥÙĦÙĬØ·Ø§":6380,"ĠØ£ÙħØ±Ùĩ":6381,"Ø§ÙħÙĩ":6382,"ÙĦÙĪÙĥØ§ÙĨ":6383,"ðŁĩ©ðŁĩ¿":6384,"oop":6385,"Ø£Ø³ØªØ§Ø°Ø©":6386,"ÙĤÙĪÙħ":6387,"ĠØ±ÙĤØ¯":6388,"ĠÙĬØ´ÙĪÙģÙĪ":6389,"ðŁĴŀ":6390,"Ø¹Ø±ÙģØ´":6391,"ĠØ§ÙĦÙħØ¬Ø§ÙĦ":6392,"Ø³ÙħØ§":6393,"ĠØ¨Ø§ÙĦØ·":6394,"ĠÙĬØ³ÙĦÙħ":6395,"ØªÙĩØ¯":6396,"Ġwal":6397,"ĠØ§ÙĦØ¢Ø®Ø±ÙĬÙĨ":6398,"ØŃÙħØ¯Ùĩ":6399,"ĠØ§ÙĦØ·Ø¹Ø§Ùħ":6400,"ĠÙĨØ§ÙĤØµ":6401,"ĠØ§ÙĦÙħØ«":6402,"Ø§Ø¯Ø¹ÙĪ":6403,"ĠØªØ¬Ø±ÙĬ":6404,"ĠÙĦØ¨Ø§Ø³":6405,"Ø§ÙĦÙģÙĬØ¯ÙĬÙĪ":6406,"ÙĥØªØ¨":6407,"ĠÙħØ²ÙĬØ¯":6408,"Ġmar":6409,"ĠØ¶ÙħÙĨ":6410,"ement":6411,"ĠØ§ÙĦÙĪÙĦØ§ÙĬØ©":6412,"ĠÙħÙĪØ§ÙĤØ¹":6413,"ĠØ§ÙĦØ¹Ø¨Ø§Ø¯Ø©":6414,"Ø§ÙĦØ¹Ø¨Ø§Ø³ÙĬØ©":6415,"ĠØªÙĤÙĦ":6416,"ĠÙħØ¹ÙĨØ¯ÙĬØ´":6417,"ĠØ§ÙĦØ´ÙĬØ§Ø·ÙĬÙĨ":6418,"ĠØ§ÙĦÙĦÙĤØ§Ø¡":6419,"Ø§ÙĦØº":6420,"Ø¨ÙĩØ§":6421,"ĠØªØŃÙħÙĦ":6422,"ÙĦÙĬÙģ":6423,"ĠÙĦØ§Ùĩ":6424,"ĠÙĬØ§Ø³Ø±":6425,"ØŃÙĬØ©":6426,"Ø°ÙĪ":6427,"ĠØµØºØ§Ø±":6428,"ØªÙģØ±Ø¬":6429,"Ø·ÙĬÙĨØ§":6430,"ÙĨØ§ÙĪ":6431,"Ġkhou":6432,"ÙħÙĬØ©":6433,"ĠÙĥÙĨØªÙħ":6434,"Ø®Ø§ÙģØ´":6435,"ĠØ©":6436,"ĠÙĪØ³Ùħ":6437,"ĠÙĦÙĦØ·":6438,"ĠØ£ÙħÙĬØ±":6439,"ĠØ¬Ø§ÙĪØ¨ÙĨÙĬ":6440,"ĠÙĪØ³Øª":6441,"ĠÙħØ§ÙĨÙĬ":6442,"Ø§ÙģØ¹ÙĬ":6443,"ĠØ¹Ø§ÙħÙĬ":6444,"ĠÙģØªØ§ÙĪÙī":6445,"ÙħØ§Ø´ÙĬ":6446,"ĠØ¨ÙĬØ¯Ùĩ":6447,"ÙĪØ³ÙĪ":6448,"Ø¯Ø§Ø±Ø©":6449,"ĠØªØ¹Ø±ÙģÙĬ":6450,"ĠØ¨Ø±Ø§":6451,"Ø¨Ø§Ø¹":6452,"ĠÙħØªØ¹":6453,"ĠÙĬØ±Ø¬":6454,"ÙĬÙĨØ§Øª":6455,"ĠØ§ÙĦÙħÙħ":6456,"ĠÙĪÙĥØ§ÙĬÙĨ":6457,"ĠÙĤØµØªÙĬ":6458,"ĠØ§ÙĦÙħØ¹ÙĦÙĪÙħØ©":6459,"ðŁĺİ":6460,"ĠÙĬØ´Ø§Ø¡":6461,"ĠØ§Ø®ØªÙĬØ§Ø±":6462,"ĠØ´Ø®ØµÙĬØ§":6463,"Ø¨Ø³":6464,"ĠØ¨ÙĤØ¯Ø±":6465,"ĠØ¹Ø¬Ø¨ÙĨÙĬ":6466,"ĠØªÙĪØ¬":6467,"ĠØªØ¹ÙĬ":6468,"ĠØ§ÙĦØ¨Øµ":6469,"Ø¹Ø¯Ø©":6470,"ĠÙĪÙĬØ®":6471,"Ø§ØµÙĦØ©":6472,"HA":6473,"ĠØ¯Ø§Ø±ÙĨØ§":6474,"ĠØ£Ø¨ÙĪØ§Ø¨":6475,"ĠØ¨Ø§Ø¯ÙĬØ³":6476,"ic":6477,"Ø±ÙĬÙĩ":6478,"Ø§Ø³ØªØºÙģØ±":6479,"ĠÙĪÙĨØªÙĬ":6480,"ĠØ®ÙĪÙĥ":6481,"ĠÙħØ¹ÙĨ":6482,"ØªÙĪØ¨Ø©":6483,"Ø¨ÙĩØ©":6484,"ĠÙĪØ§ÙĦØ§Ø®":6485,"ĠØ§ÙĦÙĥØ°Ø¨":6486,"ĠÙĨØµØ§Ø¦ØŃ":6487,"Ø¹ÙĦÙĬÙĩ":6488,"100":6489,"ĠØ§ÙĦÙĦÙĪ":6490,"ĠØ§ÙĦÙĪÙģ":6491,"ĠØµÙĬØ§Ùħ":6492,"ÙģÙĬÙĩØ§":6493,"ĠÙĪØ§Ø±ØŃÙħ":6494,"Ø§Ø¶Ø©":6495,"ĠÙĬØ®ÙĦÙĬ":6496,"ĠÙĬÙĤØ¯Ùħ":6497,"ÙĪØ¹ÙĦÙĬÙĥÙħ":6498,"ÙĦØ³ÙĦØ§Øª":6499,"ĠðŁĺĬâĿ¤":6500,"ĠØ¬Ø§Ø¡Øª":6501,"ĠÙĦØŃÙĥØ§ÙĬØ§Øª":6502,"ĠØ®Ø®":6503,"ÙĤÙĬÙĩ":6504,"Ø²ÙĪØ¬Ø©":6505,"ĠÙĬÙĦØ²Ùħ":6506,"ĠÙĪÙĬÙĪÙģÙĤÙĥ":6507,"Ø¨Ø§ÙĬÙĨ":6508,"ÙĪØªØ±":6509,"ĠÙħÙħØªØ§Ø²Ø©":6510,"ĠØ¨ÙĦØ¹":6511,"ĠØ¨ÙĦØ§ØµØ©":6512,"ĠØ§ÙĦÙĩØ¯Ø±Ø©":6513,"ĠÙĦØ§ÙĨÙĩØ§":6514,"Ġchik":6515,"ĠØ±Ø§Ø³Ùĥ":6516,"ĠÙĨØ«Ø±":6517,"ĠØ§ÙħÙĬÙĬÙĨ":6518,"ort":6519,"ĠØ¨Ø§ØªÙĨØ©":6520,"ØµØŃÙģ":6521,"Ġpla":6522,"ĠÙĨÙĪØµÙĦ":6523,"Ġbien":6524,"ØªÙĬÙĨÙĬ":6525,"Ø§Ø±Ø³":6526,"Ġave":6527,"ĠØªÙģÙĥ":6528,"Ø¨Ø§ÙĦØªÙĪÙģÙĬÙĤ":6529,"ĠØ§ÙĦØ£Ø±Ø¨":6530,"har":6531,"31":6532,"ĠØŃØµ":6533,"ĠØªØ¹ØªØ¨Ø±":6534,"ĠÙĬÙĪÙħÙĬØ§":6535,"ĠØ§ÙĨÙĩÙħ":6536,"ĠØ§ÙĦØ±ÙĤÙĬØ©":6537,"Ġyh":6538,"ĠØ¯ÙĬÙĨÙĩ":6539,"ØŃØ§Ø¯":6540,"ĠØ²Ø±":6541,"onne":6542,"ĠÙĬØ®Ø§Ùģ":6543,"ÙĤØµØ¯":6544,"ĠÙħÙĬÙĦ":6545,"Ø±ÙĪØ¹Ø©":6546,"ÙĦØ³Ø©":6547,"ke":6548,"ĠÙĬÙĤØ±Ø§ÙĪ":6549,"ĠÙĨØ³Ø£ÙĦÙĥ":6550,"ĠØ§ÙĦØ¯Ø§Ø®":6551,"ĠØ¯ÙĬØ§ÙĦÙĥ":6552,"ĠðŁĺ®ðŁĺ®":6553,"48":6554,"ÙĦÙĬÙħØ§":6555,"Ġmachi":6556,"ĠØµØ§Ø¯":6557,"ĠØ´Ø§Ø¨ÙĬÙĨ":6558,"ĠØ§ÙĦØ¬ÙĬØ´":6559,"ĠØ§ÙĦØ¯Ø¬Ø§ÙĦ":6560,"ĠØ¨ÙĨØ§Ø¯Ùħ":6561,"Ø´ÙĥØ±":6562,"ĠÙħØ³ÙĥÙĪÙĨ":6563,"ØŃØ±Ø§Ùħ":6564,"ĠØ®ÙģÙĬÙģØ©":6565,"Ġ|":6566,"ÙĦØ§ÙĪØ©":6567,"Ch":6568,"ĠÙĪØ£Ø®":6569,"ØªÙħØ¨Ø±":6570,"ĠØ§Ø¨ÙĪ":6571,"ĠØªÙĦØ¹Ø¨":6572,"Ø¯Ø¹ÙĪØ©":6573,"mal":6574,"ØŃÙĦØ©":6575,"Ø§Ø·ÙĬ":6576,"âľħ":6577,"ĠØ±ÙĬØ¯Ø§ÙĥØ³":6578,"ÙĥØ§ÙĦ":6579,"ĠÙĦÙģØ±":6580,"ÙĬÙĨÙĥ":6581,"ÙĪÙĦÙĥÙħ":6582,"ĠØ§ÙĦØ£ØµÙĦ":6583,"Ġsi":6584,"ĠØ·ÙĪÙĦØª":6585,"ĠÙĪØ³ÙĦØ§Ùħ":6586,"Ø´Ø§":6587,"Ġthis":6588,"ÙĨÙĤØ¯Ø±":6589,"Ø§Ø²Ø¹":6590,"Ø§Ø¦ÙģØ©":6591,"ĠØ·Ø±":6592,"ĠØ·Ùģ":6593,"ĠÙħØ±Ø´":6594,"ĠØ¸ÙĩÙĪØ±":6595,"ĠÙħÙĤØ§ÙĦØ©":6596,"66":6597,"Dir":6598,"Ø§Ø¨Ø¹ÙĬÙĨ":6599,"ĠØ¸ÙĨ":6600,"ĠÙĨØ¬ØŃØª":6601,"Ø§ÙĦÙĥÙħ":6602,"ÙĦØ§ÙĬ":6603,"ØºØ§ÙĨ":6604,"ĠØ§ÙĦØ£Ø²":6605,"ĠØ§ÙĦÙĤØ±Ø§Ø¡Ø©":6606,"Ø§Ø´Ø©":6607,"ØªÙĪÙĥ":6608,"ÙĪÙĤÙģ":6609,"ĠÙĪØ§ÙĦÙħØ³":6610,"ðŁ¤²ðŁ¤²":6611,"ØºÙĦØ·":6612,"ours":6613,"ĠÙħÙĦØ§ØŃØ¸Ø©":6614,"ĠÙĪØ±ØŃ":6615,"ðŁĺĩ":6616,"ĠØ²ÙĬØª":6617,"Ø¹Ø§ÙĪÙĨ":6618,"istoire":6619,"Ø²Ø§ÙĤ":6620,"Ø³ÙĨÙĬÙĨ":6621,"ĠÙħØ³Ø§Ø¡":6622,"ĠØ°ÙĥØ±Øª":6623,"ĠØ§ÙĦÙħÙĩØ¯ÙĬ":6624,"Ø¶Ø¨Ø·":6625,"ĠØ¬ØºØ±Ø§ÙģÙĬØ§":6626,"ÙĪØªÙĥ":6627,"ÙĤÙĦØ¨":6628,"ĠÙĨØ¹ÙĬ":6629,"coup":6630,"do":6631,"les":6632,"ĠØ¨Ø¶ØŃÙĥ":6633,"ĠØ´ÙĩØ¯":6634,"ĠØ§Ø±ÙĪØ¹":6635,"ĠØ§Ø¬Ø¯":6636,"ĠØ³Ø§ÙħÙĬØ©":6637,"ĠØ¹Ø§ÙĬ":6638,"Ø£ÙĪ":6639,"ĠØ£Ø±ØŃÙħ":6640,"ĠØ«Ø§ÙĨÙĪÙĬ":6641,"ĠØ¨Ø±Ø¬":6642,"ĠØ¹Ø§ÙĦÙĬ":6643,"Ø°ÙĬØ±":6644,"ÙĨØªÙĬÙĨ":6645,"ÙĪÙĬÙĤ":6646,"ĠØ§Ø³ØªØ§Ø°ÙĬ":6647,"ĠØ§ÙĦØ´ÙĩÙĬØ¯":6648,"ÙĪØªÙĪØ¨":6649,"ÙĤÙĦØª":6650,"ĠÙħØ¬Ø¯":6651,"ĠØ¯ÙħØª":6652,"ÙħØ§Ùĩ":6653,"ĠÙĪØ¬ÙĩÙĩ":6654,"ĠØ§ÙĦÙħØµØ¯Ø±":6655,"ĠØ§ÙĦÙħØ±ÙĬØ¶":6656,"âĢ¢":6657,"ĠØ´ÙģØªÙĩØ§":6658,"Redx":6659,"Ġri":6660,"ĠÙĦØ¯ÙĬÙĩ":6661,"ĠÙĤØ§Ø¦ÙħØ©":6662,"Ø§Ø¦Ø²":6663,"ĠØ·ÙĪØ§ÙĦ":6664,"Ø¨Ø±ÙĥØ©":6665,"Ø¬ÙħØ¹":6666,"Ø´Ùī":6667,"ĠØ§ÙĬÙħØ§ÙĨ":6668,"ĠÙĥØªØ§Ø¨Ø©":6669,"ĠrÃ©":6670,"ĠØ£Ø¸ÙĨ":6671,"Ø¨ÙĪÙĨ":6672,"Ø¨ÙĪØª":6673,"ĠØ¹Ø±ÙĪ":6674,"ÙĨØ§ÙĬØ©":6675,"ĠØªØŃØ¯Ø«":6676,"ĠØŃÙĥØ§ÙĬØªÙĬ":6677,"ØªØ¨Ø§Ø±Ø§Øª":6678,"ĠÙĦÙĦÙħØ±":6679,"ĠÙĤÙĦÙĪØ¨ÙĩÙħ":6680,"ĠØ§ÙĦØ±Ø§Ø¨Ø¹Ø©":6681,"ĠØ£ÙĪÙĦÙī":6682,"ĠÙħØµØ¯Ø±":6683,"ĠØ§ÙĦØ³Ø§Ø¨ÙĤ":6684,"Ø¢Ø¢":6685,"Ø§ÙĤÙĦ":6686,"ĠØ±Ø¬Ø¹ÙĪÙĨÙĬ":6687,"Ø³ØªØºØ±Ø§Ùħ":6688,"rk":6689,"ĠÙĤØ¯ÙĬÙħØ©":6690,"ĠÙĪØ§ÙĦÙĨØ¬Ø§ØŃ":6691,"ĠÙĩØ¯ÙĬÙĥ":6692,"ĠØ§ÙĦØ¹Ø¶ÙĪ":6693,"ÙĦÙĤÙī":6694,"ĠÙĪÙĦÙĤØ¯":6695,"ĠØ§ÙĦØ«Ø§ÙĨ":6696,"ÙģØ¹ÙĪÙĦ":6697,"ĠØ§ÙĦÙħØ±Ø§Ø¯":6698,"Ġthat":6699,"Rak":6700,"men":6701,"Ø§ÙĨÙĪ":6702,"ĠØªØ±Ø¨ÙĬØ©":6703,"Ø«ÙĦØ©":6704,"ØŃØ¯Ø§Ø«":6705,"La":6706,"ĠÙĩØ¯Ùĩ":6707,"ĠÙĤØ¯ÙĬØ±":6708,"Ø³ÙĨØ§Ø¯":6709,"ĠÙĬØ£Ø®Ø°":6710,"ĠÙĨØ²ÙĦØª":6711,"Ø³ÙĥØ±ÙĬØ©":6712,"ĠØ§ÙĦÙĬØ¯":6713,"ĠÙĦÙĬÙĩØ§":6714,"ĠØ§ÙĦØ´ÙģØ§Ø¡":6715,"ĠØªØ³ØªØ·ÙĬØ¹":6716,"ĠÙĬÙħÙĦÙĥ":6717,"ĠØ¬Ø§ÙĪØ¨ÙĪÙĨÙĬ":6718,"ÙħÙĨØ©":6719,"ÙĪØ³Ø©":6720,"ĠÙĬØ³Ø£ÙĦ":6721,"Ø¹Ø§ÙĬØ©":6722,"ĠØºØ²Ø©":6723,"ĠØ§ÙĦØ¯Ø®ÙĪÙĦ":6724,"ĠØ§ÙĦØ®Ø±ÙĪØ¬":6725,"Ġsaha":6726,"ub":6727,"ØªØ§Ø¹":6728,"ĠÙĨØ¨Ø¯":6729,"Ø§Ø±Ø¦":6730,"ĠØ§ÙĦØ³ÙĦÙĪØ§ÙĨ":6731,"Ø°Ø±ÙĬØ©":6732,"ĠØ¬Ø¨ÙĦ":6733,"ĠØµØ§ÙĦØŃØ©":6734,"ĠØ§ÙĦØ´ÙĩØ¯Ø§Ø¡":6735,"ðŁ¤Ĺ":6736,"ÙģØ¹Ø§ÙĦ":6737,"ĠØ§ÙĦÙģÙĥØ±":6738,"Ø§Ø·Ø¹":6739,"ØµØ±ÙĬØ©":6740,"Ø³Ø¹":6741,"ĠØ¨ÙħØ±":6742,"ĠÙĤØ§ÙĦÙĩ":6743,"ĠÙĪØ§ÙĦØ¯ÙĬÙĨØ§":6744,"ĠÙĨØŃÙĥÙĬÙĦÙĥ":6745,"ĠØ«Ø§ÙĦØ«Ø§":6746,"ĠØªÙħÙĨ":6747,"Ø³Ø§ÙħØŃ":6748,"ĠÙĨÙĪØ±ÙħØ§ÙĦÙħÙĪ":6749,"ĠÙģØ·ÙĪØ±":6750,"Ø§Ø³Ø§Øª":6751,"ĠØ§ØŃØªØ±":6752,"ĠØ§ÙĦÙħÙĪØ³ÙĬÙĤÙī":6753,"Ø·Ø¨ÙĬÙĤ":6754,"ĠØ±ÙĤ":6755,"ĠØ¬Ø§ÙĨØ¨":6756,"Ø¹Ø¯ÙĨÙĬ":6757,"ĠÙĬÙģÙĪØª":6758,"ĠØªØ¸ÙĩØ±":6759,"Ø¨ÙĬØ§Øª":6760,"Ø±ÙĬØ¯ÙĥØ³":6761,"Ġgo":6762,"tha":6763,"ĠÙģØ¯":6764,"ĠØ§ÙĦÙģØªÙĨØ©":6765,"ĠØ¨Ø«":6766,"ĠØ¨ÙĬØ§":6767,"ĠØ§ÙĦØªØ¯":6768,"ĠØ§ÙĦØ§Ø®Ø±":6769,"ÙĩÙĨØ§":6770,"ĠØ·Ø§Ø¹Ø©":6771,"Ġcan":6772,"Ġpe":6773,"Ø¨ÙĤØ§Ø´":6774,"ĠØªÙģØ±Ø¬Øª":6775,"ĠÙĪÙĦØ¯ÙĬ":6776,"ÙĪØ±Ùĩ":6777,"ĠØ§ÙĦØ¹Ø¯":6778,"ĠØ¹ÙħØ§Ø±":6779,"ĠÙħØ§Ø¹ÙĨØ¯":6780,"ĠÙĬÙħØ±":6781,"ĠÙħÙĨÙĤØ¯Ø±Ø´":6782,"ĠØ§ÙĨØµØ±":6783,"ĠÙħÙĨØªØ¯ÙĬØ§Øª":6784,"Ø§Ø¦Ø±Ø©":6785,"ĠÙħØ¹ÙĦÙĪÙħØ©":6786,"--------------------------------":6787,"Sepia":6788,"ØªØ³Øª":6789,"ØµÙī":6790,"ðŁĺ¥":6791,"ĠØ§ÙĦÙħÙħÙĬØ²":6792,"Ø§ÙģÙĬÙĩ":6793,"ĠØ§ÙĦØ¯Ø¹Ùħ":6794,"ĠÙĤØ±Ø£Øª":6795,"ĠØ³ÙħØ¹ØªÙĩØ§":6796,"ouk":6797,"ĠØªÙĦÙħØ³Ø§ÙĨ":6798,"ÙģÙĩØ§":6799,"ĠÙĨÙĪÙģ":6800,"ĠØ§ÙĦØŃØ§ÙĥÙħ":6801,"ĠØ§ÙĦØŃØµÙĪÙĦ":6802,"ĠÙĪÙĨØ¹":6803,"ĠØ¨Ø®ØµÙĪØµ":6804,"ĠÙħØ´Ùĥ":6805,"ĠØ§ÙĦØ·ÙĦ":6806,"ĠÙĪÙħØ±ØŃØ¨Ø§":6807,"ĠØ¨Ø³Ø±Ø¹Ø©":6808,"ED":6809,"ØºÙĪ":6810,"ĠØ§ÙĦØ¬Ø±":6811,"ØªØ²":6812,"ĠÙħØ¹ÙĥÙħ":6813,"ĠØ§ÙĦÙĨØ²":6814,"ØªÙĩØ§Ø¯":6815,"Ø¨ØªÙĩ":6816,"ĠØ¨Ø·Ø§ÙĤØ©":6817,"ĠØ¨Ø¯Ø£Øª":6818,"ĠØ¹Ø§Ø¦ÙĦØ©":6819,"Ù¾":6820,"ĠØªØŃÙĥÙħ":6821,"'s":6822,"ĠÙĪØ§ÙĦØ°ÙĬÙĨ":6823,"Ø§Ø²Ø§ÙĦ":6824,"ĠØ§ÙĦÙĪØ§Ø±":6825,"ÙĨÙĨ":6826,"Ø´Ø±ÙĬÙĨ":6827,"ĠÙħÙĬØ³":6828,"ĠØ£Ø¨ÙĨØ§Ø¡":6829,"34":6830,"ÙĪØ§Ùĥ":6831,"ĠÙĬÙĪØµ":6832,"Ø´Ø§Ùħ":6833,"Ø£ØªÙĬ":6834,"ĠØŃØ¨Ø³Øª":6835,"ÙĪØ§ØŃÙĬ":6836,"ĠÙĬØ«":6837,"ĠÙĬØ§Ø§":6838,"ĠÙĦØ¹Ø¨Ø©":6839,"ĠÙħØ°":6840,"rak":6841,"Ù¥":6842,"Ø³ÙĦÙĬÙĨ":6843,"Ġau":6844,"ĠÙħÙĬÙħØ²":6845,"Ø®Ø±Ø§Ø¬":6846,"ĠØ¨Ø¯Ø§Øª":6847,"vp":6848,"ĠÙĦÙĪÙĨ":6849,"ĠØºØ±ÙĬØ¨Ø©":6850,"ĠØ§ÙĦØ¥Ø¹":6851,"ðŁĴ¯":6852,"ØŃÙĥÙĬ":6853,"ĠÙĦØ§Ø³Øª":6854,"ĠØ§ÙĦØ®ÙĦÙĬ":6855,"ĠÙĨØªØ§Ø¦Ø¬":6856,"ĠÙĪÙĦØ°ÙĦÙĥ":6857,"9999999999999999":6858,"ĠÙĤÙĪÙĬØ©":6859,"ĠØ§ÙĦØ¨Ø§ÙĤÙĬ":6860,"ĠÙĬÙĤÙĪÙĦÙĥ":6861,"ĠØ§Ø´Øª":6862,"ÙĪØ±Ø§ÙĦ":6863,"ith":6864,"ĠØ§ÙĦÙĨØµÙĬØŃØ©":6865,"ĠÙħÙĨØ²":6866,"ĠØ§ÙĦØªÙĦÙģ":6867,"ØŃÙĬØ·":6868,"ÙĤÙĪÙĦÙĩØ§":6869,"ĠØ¨Ø±ÙĥØ©":6870,"ĠØŃØ³Ø¨ÙĨØ§":6871,"ĠÙĪÙĤÙĬ":6872,"ÙģØ§ÙĤ":6873,"ĠÙĪÙĩÙĨØ§":6874,"ĠØ§ÙĦØ°Ùĩ":6875,"ĠØ§ØŃÙĨØ§":6876,"ĠØ§ÙĦÙħØ´Ø§Ø±ÙĥØ©":6877,"ĠÙĬÙĨØ¬ØŃÙĨÙĬ":6878,"ÙģÙĬÙĥ":6879,"ĠØ§ÙĦÙģØ¶":6880,"ĠØ§ÙĦÙĥØ±Ø³ÙĬ":6881,"ĠÙĪØ§ÙĦØ¹ÙħÙĦ":6882,"ÙĪØ±ÙĩÙħ":6883,"ĠðŁĻĤðŁĴĶ":6884,"je":6885,"ĠÙħØ§Ø¬":6886,"Ø§Ø®ÙĪØ©":6887,"Ġno":6888,"Ġqui":6889,"ĠØ§ÙĦØ¬Ø§ÙħØ¹":6890,"Ø¨ÙĪÙĥ":6891,"ĠÙħÙĬØ¯":6892,"ĠØ§Ø³ÙĦØ§Ùħ":6893,"ĠØªØ¹Ø¨Øª":6894,"Ø§Ø¤Ùĩ":6895,"ĠØ¯Ø§ÙĬÙħÙĨ":6896,"ĠØ¨Ø¨Ø¹Ø¶":6897,"Ø¹Ø¯Ø¯":6898,"ĠÙĬØ¯Ùĩ":6899,"ĠØ§ÙĦÙħØ±Ø¡":6900,"ĠØ£ØŃØ§Ø¯ÙĬØ«":6901,"ĠÙĤØ·Ø¹":6902,"ĠÙģØ§Ø´":6903,"ĠÙĦØ£ØŃØ¯":6904,"ĠÙħØ±ØŃÙĦØ©":6905,"ĠØ¨ÙĤÙĬØ©":6906,"ĠØ¹Ø±Ø¨":6907,"ÙĬØ±Ø§Øª":6908,"Ø¨ÙĬØŃ":6909,"ÙĪÙħØ§Øª":6910,"ĠðŁĶ":6911,"ĠÙĥÙĦÙĨØ§":6912,"ĠØ«ÙĤØ©":6913,"ĠÙĬØªØ±Ùĥ":6914,"ĠÙħØ®ØªÙĦÙģØ©":6915,"Ø¯ÙĤØ§Ø¡":6916,"ĠØªØ±Ø¨ØŃ":6917,"ĠØ§ÙĦÙĨØ¸Ø§Ùħ":6918,"ĠØ§ÙĥÙĪÙĨ":6919,"ĠØ§ÙĦØ§Ø³Ø§ØªØ°Ø©":6920,"ĠÙĪÙħÙĪ":6921,"ĠÙĨÙĦÙĤÙī":6922,"ĠØ§ÙĦØ§ÙĤÙĦ":6923,"ĠÙģØ§Ø·ÙħØ©":6924,"ÙĦÙĬØª":6925,"Ø§Ø¯ÙĦ":6926,"ĠØ²Ø§ÙĦ":6927,"Ø¨ÙĪØ±":6928,"ÙĨØ§ÙĪÙĦ":6929,"ĠÙĬØŃÙĦ":6930,"ĠØ§ÙĦØµÙģØ§Øª":6931,"ĠØ¹Ø¨Ø¯Ø§ÙĦÙĦÙĩ":6932,"ĠÙħÙĩÙħØ©":6933,"ĠØ§ÙĦØŃÙĥÙħØ©":6934,"ĠØ¹Ø³":6935,"Ø§ÙĬØ¯":6936,"ass":6937,"Ú¯":6938,"ĠÙħØªÙĥ":6939,"Ø¨ÙĤØ±Ø©":6940,"Ġkif":6941,"Ø£ÙĨØª":6942,"ĠØ§ÙĦÙħÙĤØ¯":6943,"ĠØ³ÙĬÙĨ":6944,"ÙħÙĬÙĩ":6945,"ĠÙĨØ´Ø§Ø·":6946,"ĠØ§ÙĦØ§Ø®ÙĬØ±Ø©":6947,"Ġ1956":6948,"ĠØ´Ø¦Øª":6949,"gra":6950,"Ø§ÙĦØ·":6951,"ÙģÙģ":6952,"oma":6953,"ĠØªØµØ±Ùģ":6954,"2024":6955,"ĠØªÙĦÙĤÙī":6956,"ĠðŁĻıðŁĻı":6957,"ĠðŁĶ¥ðŁĶ¥":6958,"ĠØµØ¹ÙĬØ¨Ø©":6959,"imp":6960,"ĠØ¨Ø±Ø¨ÙĬ":6961,"ĠØ£Ø®Ø±":6962,"ĠØªØ´ÙĪÙģÙĬ":6963,"Ø§ÙĦØªØ§ÙĦÙĬ":6964,"ĠØŃÙĦÙĪØ©":6965,"ĠØ¹Ø¯ÙĪ":6966,"Ø±ÙĬØ¶Ø§":6967,"Ġmin":6968,"ĠØªØªÙģØ±Ø¬":6969,"ĠØ£ÙĨØªÙħ":6970,"ĠØ§ÙĦØ£Ø³ÙħØ§Ø¡":6971,"Ġ:\"":6972,"ĠÙħÙĤØ§ÙĦØ§Øª":6973,"ĠÙĨÙĦØ¹Ø¨":6974,"Ġlike":6975,"ĠÙĦØ®Ø±":6976,"ĠÙģÙĬÙĥÙĪÙĨ":6977,"ĠØ¥Ø°ÙĨ":6978,"ĠØ¨Ø§ÙĦÙħØ§Ø¡":6979,"ĠÙĬÙħØ¯":6980,"ĠØ¹Ø§Ø¯Ø©":6981,"ĠØ£Ø°":6982,"ĠØ§ÙĦØ¬ÙĩÙĦ":6983,"Ġda":6984,"ĠØ§ÙĤÙĦ":6985,"ĠÙĬØ³Ø¨":6986,"Ø§ØªÙħØ©":6987,"ĠØ§ÙĦÙħØ«ÙĦ":6988,"ĠØ§ÙĦØŃØ±ÙĬØ©":6989,"Ġmeille":6990,"Ø§ÙĩØ¨":6991,"Ø¯ÙĬØ±ÙĪ":6992,"ĠØªØ¨Ø¯Ø§":6993,"ĠØ§ÙĦØ¸ÙĨ":6994,"ĠÙħÙĦØ§ÙĬÙĨ":6995,"ĠÙĨØ±ÙĬØ¯":6996,"Ø§Ø¯ÙħØ©":6997,"ĠØ§ÙĦØ´Ø±ÙĬÙģ":6998,"ĠØ²Ø¹Ùħ":6999,"ÙĥÙĦÙģ":7000,"ĠÙħØ³ÙĥÙĬÙĨØ©":7001,"ĠÙĪØµÙĦÙī":7002,"ĠÙĤÙĪÙĦÙĬÙĦÙĬ":7003,"ĠØ§Ø±Ø²ÙĤÙĨÙĬ":7004,"ĠÙħØ®Ø±Ø¬":7005,"ĠÙĨÙħÙĪ":7006,"ĠØ³ÙĦÙĬÙħ":7007,"ĠØ§Ø³ÙħÙĥ":7008,"Ġbeaucoup":7009,"ÙĥØ©":7010,"ĠÙħÙĥØ±":7011,"Ø¯ÙĪÙĤ":7012,"ĠØ§ÙĦÙĤØ¯ÙĬÙħ":7013,"ĠØ£ØŃØ¯ÙĥÙħ":7014,"ĠÙĤÙĪÙĬ":7015,"ĠØŃØª":7016,"Ġtop":7017,"ĠØ¬Ø³":7018,"ĠÙĪÙħÙĨÙĩ":7019,"ĠØªØ¨ÙĬÙĨ":7020,"ĠØ±Ø£Ø³Ùĩ":7021,"ðŁĮ¸":7022,"ĠðŁ¥ºðŁ¥º":7023,"ĠÙħØŃÙħØ¯Ø§":7024,"ĠÙĤÙĦØªÙĬ":7025,"ĠØ·ÙĦØ¹Øª":7026,"ĠÙĤØ§ÙĦÙĩØ§":7027,"ÙĦØªÙĨØ§":7028,"ĠÙĪØ±ØŃÙħ":7029,"ðŁ¥Ģ":7030,"ĠØ¨Ø§Ø®":7031,"ĠÙĨØ¯ÙĪ":7032,"ĠØ§ÙĦØ£Ø®ÙĬØ±Ø©":7033,"Ø±ÙĬÙĬÙĨ":7034,"ØªØ§ØŃ":7035,"Ø´ÙĩØ§Ø¯":7036,"ĠÙģØ£ÙĨØ§":7037,"Ø¬ÙħØ§Ø¹":7038,"ĠØŃÙħÙĬØ¯":7039,"ĠØ¨Ø±ØŃÙħØªÙĩ":7040,"Ġ^^":7041,"ĠØ¥ÙħØ§Ùħ":7042,"ØªÙĪØŃØ´ÙĨØ§Ùĥ":7043,"ÃĹ":7044,"ĠØªÙĤÙĬ":7045,"ĠØ§ÙĦØ£ÙĤÙĦ":7046,"ĠØªØ¨ÙĪÙĨ":7047,"mes":7048,"ÙħØ±ÙĬÙĨ":7049,"ĠØ§ÙĦÙĪØ¶Ø¹":7050,"ĠØºØ§ÙĦØ·Ø©":7051,"ĠØ¨ØªÙĪ":7052,"ĠØ¨Ø§ÙĦØ®":7053,"ĠØ¨Ø¹Ø¶Ø§":7054,"ĠÙĬØ¯Ø¹ÙĬ":7055,"ØªØ§Ùħ":7056,"ĠØ§ÙĦØ±Ø§Ø¨Ø¹":7057,"ĠØ§ÙĦÙĥØ§ØªØ¨":7058,"ĠØ§ÙħÙĦ":7059,"ĠØ§Ø´ÙĩØ±":7060,"ĠØ£Ø¨ÙĬÙĩ":7061,"ĠØ§ÙĦØ§ÙħÙĪØ±":7062,"ÙĦØ§Ø¨Ø§ÙĦÙĬØ´":7063,"ĠÙģØ£ÙĨ":7064,"ĠÙĬØ·ÙĬ":7065,"ĠÙĬØ¨Ø¹Ø«":7066,"ĠÙĪØ§ÙĦØªØŃ":7067,"ĠØ¨ÙĬÙĨÙħØ§":7068,"ÙĤÙĦØ§ÙĦ":7069,"ĠÙģÙĦÙĨ":7070,"âĢįâ":7071,"ĠØ¬Ø²Ø§Ø¡":7072,"ĠØ§ÙĦØ±Ø§ÙĤÙĬ":7073,"Ġfl":7074,"ĠØ§ÙĦÙĦØ¬ÙĨØ©":7075,"Rabi":7076,"ÙħÙĪØ±":7077,"ĠØ§ÙĦØ²ÙĬ":7078,"ĠØŃÙĤÙĪÙĤ":7079,"Ø§Ø¯Ø¦":7080,"ĠØªØ¹ÙĨÙĬ":7081,"ĠÙĪØµÙģØ©":7082,"ï´¾":7083,"min":7084,"ĠØ³ÙģÙĬØ§ÙĨ":7085,"Ġ29":7086,"ĠØ§ÙĦÙģÙĩÙħ":7087,"ĠÙĪÙħÙĨÙĩÙħ":7088,"ĠÙħÙĪØ¬ÙĪØ¯Ø©":7089,"ĠØ§ÙĦÙĪØ§ÙĦØ¯":7090,"vi":7091,"ĠØ§ÙĦÙĨÙĩØ§ÙĬØ©":7092,"ĠØ²ÙĩØ±":7093,"Â»ØĮ":7094,"ĠÙĬØ´ÙģÙĬÙĩØ§":7095,"ĠØ¨Ø³ÙĬØ·Ø©":7096,"ĠØŃØ²":7097,"ĠØ§ÙĦØŃØ³":7098,"ĠØ¯ÙĬØ¬Ø§":7099,"ĠØ§ÙĦØ§Ø³ÙĦØ§ÙħÙĬØ©":7100,"ĠØ§ÙĦÙģØªØ§ÙĪÙī":7101,"tou":7102,"ĠØ¨Ø¢":7103,"ĠØµÙĨØ¹":7104,"ÙħÙĬÙĬØ²":7105,"Ø«Ùī":7106,"Ø´Ø±ÙĬ":7107,"Ø§ØŃÙĦ":7108,"ðŁĴļ":7109,"ĠØ§ÙĦØ§Ø³ØªØ§Ø°Ø©":7110,"ĠØŃØ¸":7111,"ĠØ§ÙĦÙĤØªÙĦ":7112,"ĠØ§Ø³ÙħØ¹":7113,"ĠØ§ÙĦØ±ÙħØ²":7114,"ĠØ§ÙĦÙħØ´Ø§ÙĥÙĦ":7115,"ĠØ§ÙĦØ´ÙĩØ§Ø¯Ø©":7116,"tÃ©":7117,"ĠÙĬØªØ±":7118,"ĠÙĪØ§ÙĦØ§":7119,"ĠØ¨Ø§ÙĦÙħÙĨ":7120,"ĠÙĪØ¨Ø¹Ø¶":7121,"ĠØ§ØµØŃØ§Ø¨":7122,"ÙĩØ§ÙĨ":7123,"ĠØ£ÙĨÙĨØ§":7124,"Ø±Ø¨Ùĩ":7125,"Ø±ÙĪÙĤ":7126,"ĠÙĪÙĦØ§ÙĦØ§":7127,"ĠØ¨ÙĬØ§Ùħ":7128,"ĠÙģØ·ÙĪØ±Ùĥ":7129,"ĠÙĦØ¯Ø±Ø¬Ø©":7130,"ĠØŃÙĪØ§ÙĦÙĬ":7131,"ĠÙħØ³Ø¨ÙĤØ§":7132,"ĠØ§ÙĦÙħÙĦÙĬÙĪÙĨ":7133,"âĿ¤ðŁĺĬ":7134,"ĠØ§Ø®ØªØ±":7135,"ðŁĩ¦":7136,"Ø¶Øª":7137,"ĠÙĪÙħØ³":7138,"ĠÙĪØ¥ÙĦØ§":7139,"ĠØ²ÙĩØ±Ø©":7140,"ðŁĲ":7141,"ĠØ¹ÙĬØ¯ÙĥÙħ":7142,"aime":7143,"ĠØ¹ÙĦØ¨":7144,"ĠÙĤØ¶Ø§Ø¡":7145,"Ø¹ÙĪØ¨":7146,"Ġtw":7147,"ØµÙĦØŃØ©":7148,"Ġfiha":7149,"ĠØ§ÙĦÙģØªØ±Ø©":7150,"ÙħØŃÙħØ¯":7151,"ØªÙĬÙĤ":7152,"ĠØ§ÙĦØ¹Ø¯Ø¯":7153,"Ġyah":7154,"ĠÙħØ³ÙĦÙħÙĬÙĨ":7155,"ĠØ¬Ø§Ùĩ":7156,"ÙĬØ§Ø§":7157,"ĠØ§ÙĦØ£Ø·ÙģØ§ÙĦ":7158,"ĠðŁİ":7159,"ĠðŁĻĦ":7160,"jb":7161,"ĠØ§ÙĦØ£Ø¨ÙĬØ¶":7162,"ĠØ§ÙĦØµÙĬØ§Ùħ":7163,"ĠØ¬ÙħØ¹ÙĬØ©":7164,"ĠØªØ³ÙĦÙĬÙħØ§":7165,"ĠØ¨ÙģØ¶ÙĦÙĥ":7166,"ÙĩØ§ÙĬ":7167,"ĠØ§ÙĦØ£Ø³Ø¨Ø§Ø¨":7168,"Ø·Ø±ÙĤ":7169,"ĠØ§ÙĦÙĩÙĨØ¯":7170,"ĠØ¨Ø§ÙĦØ±ØŃÙħØ©":7171,"ST":7172,"ĠØ§ÙĦØ·Ø±ÙĤ":7173,"ĠØ¹ÙĤÙĦÙĬ":7174,"46":7175,"ÙĩØ§ÙĦÙĥ":7176,"ĠØªÙħØª":7177,"ĠÙĬØŃØµÙĦ":7178,"ĠÙħØµØ·ÙģÙī":7179,"32":7180,"Ġ21":7181,"ĠØ§ÙĦØµØ¯ÙĬÙĤ":7182,"ÙĦØªØ´":7183,"ĠÙĪÙĦÙĥÙĨÙĩ":7184,"ĠÙĬØŃÙģØ¶ÙĥÙħ":7185,"ÙģÙĪÙĤ":7186,"ĠØŃØ¬Ø©":7187,"ĠØ§ÙĦØ®Ø·Ø£":7188,"ĠØ§ÙĦÙĨÙĪÙĪÙĬ":7189,"ĠØ§Ø¨Ø±Ø§ÙĩÙĬÙħ":7190,"ga":7191,"ĠÙĨØµØŃ":7192,"ĠÙħÙĨØ¹":7193,"Ø±ÙĬØ¬":7194,"ĠØ§ÙĦØ¨ÙĨØª":7195,"ðŁ¤©":7196,"ĠØ§ÙĦØ§ÙĦØª":7197,"ÙĪÙĨØªÙĬ":7198,"ĠØªØ¹Ø±ÙĬÙģ":7199,"Ġdz":7200,"Ø²ÙĬØ§Ùħ":7201,"ĠØ§ÙĦÙħØ³Ø£ÙĦØ©":7202,"ðŁĻĥ":7203,"Ø±Ø¨ÙĩØ§":7204,"ĠØ§ÙĦØ²ÙĩØ¯":7205,"ĠÙĥØ¨ÙĬØ±Ø§":7206,"ĠÙĦØ§Ø¨Ø¯":7207,"ĠØ§ÙĦØµØºÙĬØ±Ø©":7208,"ĠØ¥ØŃ":7209,"ĠØ¯Ø¬":7210,"ĠØ§ÙĦØ¯ÙĦÙĬÙĦ":7211,"ĠÙĬØ³ÙĥÙĨ":7212,"ĠÙĬØŃÙĬÙī":7213,"Ø³Ø·Ø©":7214,"ĠØ§ÙĦÙħØ¶":7215,"ĠØ§Ø®ÙĪØªÙĬ":7216,"ĠÙħØ±ÙĪØ±":7217,"ÙĪÙĦØ§Øª":7218,"ĠØ±ØŃÙĬÙħ":7219,"ĠÙħÙĦØ§Ùĥ":7220,"ĠØ£ÙĬØ§":7221,"ÙĪÙĨÙĩÙħ":7222,"ĠØ¥ÙĨØª":7223,"ĠÙĪØ±Ø§Ùĥ":7224,"ĠØ§ÙģÙĥØ§Ø±":7225,"ĠÙĦØ§ØŃØ¸":7226,"Ø¨Ø§ÙĨ":7227,"ĠØ§ÙĦØ¨ÙĨØ§Øª":7228,"Ġ60":7229,"ĠÙĬÙĦØŃÙĤ":7230,"ĠØ¬ÙĬØ¬ÙĦ":7231,"ĠÙģÙĪÙĪØ±":7232,"ÙģÙĨØ§":7233,"ĠØ¬ÙħÙĬ":7234,"ĠØ§ÙĦØ¨ÙĨ":7235,"ĠÙĦÙĦØ¯":7236,"Ø¦Øª":7237,"ĠØ§Ø¹Ø±Ø§Ø¨":7238,"ĠØ§ÙĨØ´Ø§ÙĦÙĦÙĩ":7239,"ĠØ³Ø§Ø¨ÙĤØ§":7240,"ÙĪÙĨØªØ§Ø¬":7241,"Ø§Ø¶ÙĦ":7242,"ĠØ¨Ø£ÙĬ":7243,"ÙħØ´ÙĥÙĪØ±":7244,"Ø·ÙĪØ±ÙĬ":7245,"Ø§ØªÙĨÙĬ":7246,"ĠØ®Ø§Ùģ":7247,"ĠðŁ¤¦":7248,"ĠÙħÙĪØªÙī":7249,"ĠØ¨ÙĪÙĥ":7250,"Ø¬ØªÙħØ§Ø¹":7251,"ĠØŃØµØ©":7252,"ĠØ§Ø¨Ø¯":7253,"ĠÙĦØ£ÙĨÙĩÙħ":7254,"Ø¤ÙħÙĨÙĬÙĨ":7255,"ĠØ£Ø±Ø¯Øª":7256,"ĠØ§ÙĦØªØ¹ÙĦÙĬÙħÙĬ":7257,"Ġkhoya":7258,"du":7259,"ĠØ£ØªÙī":7260,"ĠØ§ÙĦÙĨØ¨":7261,"ĠØ§ÙĦÙĨØ´":7262,"Ø±ÙĪØ§Ùĩ":7263,"ĠÙģØ§ÙĦØ¬":7264,"ĠÙĥÙħÙĦÙĨØ§":7265,"ĠÙĬØ·ÙĦÙĤ":7266,"Ø¬ØªÙħØ¹":7267,"ĠØ´Ø¯ÙĬØ¯":7268,"Ø²ÙĬÙħØ©":7269,"ĠØ¹ÙħÙĦÙĩ":7270,"ĠØ¨Ø¯Ø£":7271,"ĠÙĪÙĤØªÙĥ":7272,"ÙĦØ§ÙĤØ§":7273,"ĠÙħØ§ÙģÙĬÙĩ":7274,"ĠÙħØ§ÙģÙĩÙħØªØ´":7275,"ĠØ³ÙĬØ±ÙĬ":7276,"ĠØ¨Ø§ÙĦÙģØ±":7277,"ĠØ§ÙĦØ¨ÙĪ":7278,"ĠØ§ÙĦÙģØ¶ÙĦ":7279,"ĠØ£ÙĪÙĤØ§Øª":7280,"ÙĪØ²ÙĬÙĨØ©":7281,"Ù¦":7282,"ÙħØ´ÙĬ":7283,"Ø³ÙĦÙĩ":7284,"ĠÙĪØªÙĤ":7285,"ÙĪÙĬØª":7286,"ĠðŁ¥°ðŁ¥°":7287,"ðŁĺī":7288,"ĠØ§ÙĦÙĤÙĪØ©":7289,"ĠØ°ÙĪÙĬÙĩ":7290,"Ø¹Ø¨Ø§Ø³":7291,"ĠØ¥ÙĨÙĩØ§":7292,"ĠÙĥØ§ÙģØ±":7293,"ĠØ°ÙĨØ¨":7294,"Ġps":7295,"man":7296,"ĠÙĥØ§Øª":7297,"ĠÙĦÙĬÙģØ§Øª":7298,"ðŁİīâĿ¤":7299,"ĠØªÙģØªØŃ":7300,"::":7301,"ÙħÙģÙĩÙħØªØ´":7302,"ĠØŃØµÙĦ":7303,"ĠÙĪØ±Ø²ÙĤ":7304,"ĠÙĬØ§Ø®ÙĬ":7305,"ÙĪØ§Ø®ÙĬØ±Ø§":7306,"ĠÙħØ§ØŃ":7307,"ĠØ§ÙĦØ¹Ø«":7308,"ĠØ§ÙĦØ£ÙĪØ±":7309,"ĠÙĪØ£ÙħØ±":7310,"ĠÙĤÙĪÙĦÙĪÙĦÙĬ":7311,"ĠØ§ÙĦÙħØªÙĪØ³Ø·":7312,"ĠÙĤØ§ØªÙĦÙĬ":7313,"ĠØ§ÙĦÙħÙģØ±":7314,"va":7315,"ĠØ¹ÙĥØ³":7316,"ĠØ§ÙĦÙħØ§Ø³":7317,"ĠÙħØ¹Ø§ÙĨÙĬ":7318,"ĠÙħØ¹Ø¸Ùħ":7319,"ĠØ§ÙĦØ±Ø§Ø¦Ø¹Ø©":7320,"Ø¹ÙĦÙĬÙħ":7321,"ĠÙĥÙĪÙĨØª":7322,"Ġbonne":7323,"af":7324,"ØªØ¨ÙĬ":7325,"ĠÙħØ±Ùģ":7326,"Ø´Ùħ":7327,"ĠØ³ÙĦÙĥ":7328,"ĠÙģØ±ÙĪÙĨØ³ÙĬ":7329,"ĠÙĨÙĤØ§Ø·":7330,"ÙĤÙĨØ§Ø©":7331,"ĠÙĪØŃÙĬ":7332,"ĠÙĤÙħØª":7333,"ĠØ§Ø§":7334,"ĠÙĬØ¨Ø¹Ø¯":7335,"ĠÙģÙĩØ°Ùĩ":7336,"ĠÙĥÙħØ§ÙĦ":7337,"Ø±ÙĥÙĦÙĬØ·Ø©":7338,"ØªØ±ÙĪÙĨÙĬ":7339,"ĠØ§ÙĦØ³Øª":7340,"ĠÙĪØ²ÙĪØ¬":7341,"ĠÙĬØ§ÙĪ":7342,"ĠØ¬Ø§ÙĨÙĬ":7343,"ĠØ§ÙĦØ³Ø§Ø¯":7344,"ĠØªØ¹Ø¯":7345,"ĠÙĬØ¹ØªÙĤØ¯":7346,"ĠØ§ÙĦÙĪØ§Ø¬Ø¨":7347,"ĠØ§ÙĦØ§Ø³ØªØ¶Ø§ÙģØ©":7348,"ĠØªØ³ØªØŃÙĤ":7349,"ĠØ§ÙĦØŃØ¯ÙĬØ«Ø©":7350,"ĠØ¯ÙĪÙħØ§":7351,"cp":7352,"ÙħØ§Ø¬":7353,"ĠØ§ÙĦØ§Ùĩ":7354,"ĠØ§ÙĦÙħØ²":7355,"ĠØ§ÙĦØ¹ÙĥØ³":7356,"Ø¯Ø±Ø§Ùĥ":7357,"ĠØ§Ø¨ÙĨÙĬ":7358,"ĠðŁĴĻ":7359,"Ø§ÙĦØªÙĬ":7360,"ĠØ¨Ø§ÙĦØ¨":7361,"ĠØºØ§Ø¶":7362,"ÙĪÙģÙĬØ©":7363,"âĢįâĻĤ":7364,"ĠÙģØ®Ø±":7365,"ØµØ§Ø¨":7366,"ĠÙĦÙĦØ®":7367,"ĠØ§ÙĦÙĥØ§ÙģØ±":7368,"ĠØ¨ÙĦÙħØ«ÙĦ":7369,"ĠÙħÙĪÙģÙĤ":7370,"Ø£ÙħÙĬÙĨ":7371,"ĠØ´Ø£ÙĨ":7372,"ĠØªØ¹Ø¬Ø¨ÙĨÙĬ":7373,"ĠØ§ÙĤØ³Ùħ":7374,"ÙĬØªÙĥ":7375,"ĠÙĬÙĤÙĪÙĦÙĬ":7376,"ĠØ§ÙĦØ°ÙĩØ¨":7377,"ĠØ¨Ø¹ÙĬØ¯Ø§":7378,"ĠÙĬÙĤØµØ¯":7379,"Ġallah":7380,"ĠØ±ÙģØ¶":7381,"hal":7382,"ĠÙħÙĪØ¶Ø¹":7383,"ĠØ§ÙĦØ§Ø³ØªØ¹ÙħØ§Ø±":7384,"ĠØ§ÙĦØµÙĨ":7385,"ðŁĮ·":7386,"ĠÙħØ¬Ø¯Ø¯Ø§":7387,"ÙĦÙĤØ¨":7388,"ĠÙĪÙĦÙĬØ¯ÙĬ":7389,"ĠÙĬÙĥÙģØ±":7390,"ĠØ³ÙĦØ·Ø§ÙĨ":7391,"one":7392,"ĠØªÙĦØŃÙĤ":7393,"ĠÙĪØ§ØºÙģØ±":7394,"49":7395,"ÙģØ³Ø±":7396,"ish":7397,"ĠÙĪØ§Ø±Ø²ÙĤ":7398,"ÙĩØ±Ø©":7399,"ĠØ¨Ø¹Ø¯ÙĬ":7400,"ĠÙħÙĥØªÙĪØ¨":7401,"ÙĩÙī":7402,"ĠÙĪØ§ÙĦÙĬÙĪÙħ":7403,"Ø§Ø¯Ø±Ø§":7404,"ĠÙĩÙĥØ§Ùĥ":7405,"ĠÙ¢":7406,"Ø±ØŃØ¨":7407,"ĠØªØ´Ø¨ÙĬÙĩ":7408,"ĠØ§ÙĥØªØ´":7409,"ĠØ§ÙĦÙĨØµÙĪØµ":7410,"ĠÙĬØ¨Ø¯":7411,"ĠØªÙĦØ§ÙħÙĬØ°":7412,"ĠØ§ÙĦØªØ§ÙĦÙĬØ©":7413,"ÙĦØªÙĩÙħ":7414,"ÙĦÙĤØ§Øª":7415,"ĠØ¨ØŃÙĬØ«":7416,"Ġavec":7417,"ĠØªØµÙĦ":7418,"ĠÙĪØ§ÙĦÙĦ":7419,"ÙĨÙĬÙĩ":7420,"ĠØ§ÙĪÙħ":7421,"ĠØ§ÙĦÙħØ¬Ø§Ø²":7422,"dou":7423,"oli":7424,"ÙĬØ§Ø¨":7425,"ĠÙħØ°ÙĩØ¨":7426,"ĠÙĬÙĨÙĤØµ":7427,"ĠØ£Ø³Ø§Ø³":7428,"The":7429,"Â§":7430,"ĠØ§ÙĦØ¨Ø§Ø·ÙĦ":7431,"Ġkada":7432,"ĠØ´ÙĬØ·Ø§ÙĨ":7433,"ĠØ§ÙĦØ§Ø¹Ø±Ø§Ø¨":7434,"by":7435,"ÙĨØŃÙĨ":7436,"ĠØ£Ø¹ÙĪØ°":7437,"ÙĦÙĬØ¨":7438,"ĠÙĥÙĪÙĥ":7439,"Ġnot":7440,"ĠØ¹ÙħØ±Ùĩ":7441,"ĠÙħØ§Ø±Ø³":7442,"ĠØªÙħØ±ÙĬÙĨ":7443,"ĠØ§ÙĦØµØ¯":7444,"ĠÙģØ¥ÙĨÙĩØ§":7445,"urs":7446,"ĠØ§ÙĦØªØ¬Ø§Ø±Ø©":7447,"ĠØ§ÙĦØ¨ÙĤØ§Ø¡":7448,"ÙĤØ§Ø¡":7449,"ĠÙĦÙĬÙĨ":7450,"ĠÙĦØ§Ø³":7451,"Ø£ÙĩÙĦØ§":7452,"ðŁĺĳ":7453,"ðŁĺĴ":7454,"ÙĪØ§ÙĩØ§":7455,"ĠØ§ÙĦØªÙĦ":7456,"ĠØ§ÙĦØ«ÙĪØ¨":7457,"ĠØ§ÙĦØ¨Ø§Ø±ØŃ":7458,"ĠØ§ÙĦÙĦØºÙĪÙĬ":7459,"ĠØ§Ø±Ø¬ÙĪÙĥ":7460,"tni":7461,"ĠØ§ÙĦÙĥÙĨ":7462,"ĠØ³Ø¹Ø±":7463,"ÙĨØªÙĥ":7464,"ĠØ§ÙĦÙħØ´Ø±ÙĪØ¹":7465,"ĠÙĬÙĪÙģÙĤÙĨÙĬ":7466,"ĠØªØ¯ÙĦ":7467,"Ø´Ø±Ø¹":7468,"Ø®ÙĬØ±Ø§":7469,"ÙģØ¹Ø©":7470,"ðŁĶ":7471,"ĠØ¬Ø¨Ø±ÙĬ":7472,"ĠØ§ÙĦØ£Ø¹Ø±":7473,"Ø¹Ø¯Ùħ":7474,"ens":7475,"ĠØ§ÙĦÙĤØ±ÙĨ":7476,"ÙĨØ¯ÙĤ":7477,"ØªÙĦØ§ÙĦ":7478,"ĠØ§ÙĦØµØ§ÙĦØŃØ§Øª":7479,"ĠØ§ÙĦÙĥØ¨ÙĬØ±Ø©":7480,"Ġplus":7481,"ĠÙĨØ¹ÙĬØ´":7482,"ĠÙĬÙĪØµÙĦ":7483,"ĠØ¯Ø¹Ø§":7484,"ĠÙħØ¹Ø§ÙĪÙĬØ©":7485,"ĠÙħØ±Ùĩ":7486,"ĠØ§ÙĦÙĦØºØ§Øª":7487,"Ø§ÙħØ¹":7488,"Ø§Ø¯Ø¨":7489,"ĠØ¨Ø¹Ø¶ÙĩØ§":7490,"ĠØªØ¨ÙĨØ§Ø¬":7491,"ĠÙĬØ¨Ø¯Ø§":7492,"ĠÙĪØ±Ø¨ÙħØ§":7493,"ĠÙĪÙĤØ¯Ø±":7494,"Ø³ÙħØ©":7495,"ĠÙĤØ§Øª":7496,"ĠØŃÙħÙĦ":7497,"ĠØ¬ÙĬÙĦ":7498,"ÙħØ§ÙĬØ©":7499,"ĠÙĬØ¬Ø±ÙĬ":7500,"ĠØªØ´Ø±ØŃ":7501,"ĠØ§ØºÙĦØ¨":7502,"ÙĬÙĤ":7503,"Ø¬ÙĪÙĨ":7504,"ĠØªÙĤØ±Ø£":7505,"ĠØ¬ÙĨØ§Øª":7506,"ĠÙĨÙĤØ±Ùī":7507,"ØºØ¨Ø©":7508,"ĠØ±Ùĩ":7509,"ĠØ´Ø§Ø±Ùĥ":7510,"ĠÙĪÙĬÙģØ±ØŃ":7511,"ĠØ§ÙĦØ¹ÙĨÙĪØ§ÙĨ":7512,"ĠÙĬØ¨ÙĦØº":7513,"ĠÙĬÙĥÙĪÙĨÙĪ":7514,"ĠÙĩØ§Ø°ÙĬÙĥ":7515,"ĠØ£ØµØ§Ø¨":7516,"ĠÙħÙģÙĩÙĪÙħ":7517,"ĠØ¬Ø¨ØªÙĬ":7518,"ĠØ§ÙĦØªØ§ÙĦÙĬ":7519,"ĠØ±Ø§ØŃØ©":7520,"ĠÙħØ§ÙĥØ§ÙĨØ´":7521,"ĠØ§Ø±ÙħÙĬ":7522,"ome":7523,"ĠØµØ¨":7524,"Ø§Ø¦Ø·":7525,"ĠØ§Ø³ØªÙĪ":7526,"ĠØ³Ø¨ØªÙħØ¨Ø±":7527,"ĠÙĪØ§ØªÙĪØ¨":7528,"ĠØ§Ø±Ø²ÙĤÙĨØ§":7529,"ĠâĿĮ":7530,"ĠÙĬØ¨Ø¯ÙĪ":7531,"Ø·Ø£":7532,"ĠÙĪØ¯Ø¹":7533,"ĠØ§ÙĦØµÙĬÙģ":7534,"ÙģØ¹ÙĦÙĩ":7535,"ĠØ¯Ø§Ø±ÙĩØ§":7536,"ĠØ§ÙĦØ¶Ø¹ÙĬ":7537,"ðŁĻĦ":7538,"ĠØ§ÙĦÙħØ³Ø§Ø¬Ø¯":7539,"Re":7540,"ĠÙĥØ§Ùģ":7541,"ØºØ¶":7542,"ĠØ§ÙĦØªØ¨":7543,"ĠØ°Ùĥ":7544,"Ġwh":7545,"ĠÙģØ§Ø¦Ø¯Ø©":7546,"Ø³ØŃØ§ÙĤ":7547,"ĠØ§ÙĦÙħØ¬ÙĩÙĪØ¯Ø§Øª":7548,"Ø³Ø§Øª":7549,"ĠÙĨØµØ±":7550,"ĠØ§ÙĦÙĤØ¨ÙĪØ±":7551,"ali":7552,"ĠØ¨Ø§Ùħ":7553,"ĠÙĬØ±ÙģØ¹":7554,"ĠÙĥØ±Ùħ":7555,"ĠØ§ÙĦØ¨Ø±ÙĬØ¯":7556,"Ø¢ÙĦ":7557,"ĠÙĬÙĨØ²ÙĦ":7558,"ĠØ¬Ø²ÙĬÙĦ":7559,"ĠØ¨ØªØŃ":7560,"Ø§ÙĬØ¨":7561,"ÙĦÙĥØ©":7562,"ĠÙĬØŃÙĤÙĤ":7563,"ĠØ§ÙĪØ±":7564,"ĠØ§ÙĦÙģØ±ØŃØ©":7565,"ĠÙĦØ¹ÙĤÙĪØ¨Ø©":7566,"ÙĥÙģ":7567,"ĠØ¹ÙĤÙĦ":7568,"ĠÙĪØ¹ÙħØ±":7569,"Ø§Ø²ÙĬØºÙĬØ©":7570,"ĠÙģØ¯Ø§Ø±":7571,"ĠÙĬØ¶Ø±":7572,"Ø¬ÙĬÙĨ":7573,"ĠÙģØ£ÙĨØª":7574,"čĠč":7575,"ĠØªØ§Ùĥ":7576,"Ø¸Ø§Øª":7577,"ĠØ§ÙĦÙĨØªÙĬØ¬Ø©":7578,"ĠÙĪØ¥ÙĦÙī":7579,"ĠØ§ÙĦÙĪØ±ÙĤØ©":7580,"ĠØ¨Ø³ÙĬØ·":7581,"ĠØ§ÙĦØ²ÙĪØ¬Ø©":7582,"ĠØ§ÙĦÙĪÙĦØ§ÙĬØ§Øª":7583,"ĠØ§ÙĦØ§Ø«":7584,"ĠØªÙĥØ±":7585,"Ø±ÙģØ¶":7586,"ĠÙĪÙĨØ¨":7587,"ðŁ¤¦":7588,"ĠØ§ØŃÙĥÙĬ":7589,"ĠÙĦØ£ÙĨÙĬ":7590,"ill":7591,"ĠØ¨Ø§ÙĦØµ":7592,"ĠØ¯ÙĬØ±Ø§ÙĥØª":7593,"ĠØªØ¬Ø§Ø±Ø©":7594,"ĠØ§Ø¯Ø¹ÙĬ":7595,"ĠØ§ÙĦØ´Ø±Ø¹ÙĬ":7596,"ĠÙħØªÙĪØ³Ø·":7597,"ĠÙħØ¸":7598,"ĠÙĬØ®ÙĦØµ":7599,"Ø²Ø§Ùģ":7600,"Ø±Ø¨ÙħØ§":7601,"jib":7602,"ig":7603,"ĠØ¨Ø§ÙĨØª":7604,"ĠÙĦØ¨ÙĨØ§Øª":7605,"ĠØ§ÙĦØ§Ø®ÙĪØ©":7606,"ĠØ³Ø±Ø¯":7607,"ĠÙĥÙģØ§Ø´":7608,"ĠØ§ÙĦÙħÙĪØ¬":7609,"ĠÙĪØ§ÙĦÙħÙĪ":7610,"ÙĬØ§ÙĤ":7611,"ĠØ¨ÙħØ«ÙĦ":7612,"88":7613,"Ø°Ø§Øª":7614,"ĠØªÙħÙĪØª":7615,"tch":7616,"Ø³Ø³Ø©":7617,"ĠØ£Ø¹Ø¶Ø§Ø¡":7618,"ĠØ¹Ø§ÙĬØ´ÙĬÙĨ":7619,"ĠØ¹Ø±":7620,"ĠØªÙĤØªÙĦ":7621,"ĠØ¥ØŃØ¯Ùī":7622,"ĠØ§ÙĦØ¬Ùĩ":7623,"ÙĪÙĬÙĪÙĬ":7624,"ĠÙħØŃØª":7625,"ĠØ®ÙħØ³Ø©":7626,"ef":7627,"ĠÙħØ±Ùĥ":7628,"Ø§Ø¬Ø¯Ùĥ":7629,"ĠÙĨØ¶Øª":7630,"70":7631,"£ï¸ı":7632,"ĠÙĩØ§Ø¯Ø§Ùĥ":7633,"ĠÙĬÙĥØ«Ø±":7634,"âĢįâĻĤï¸ı":7635,"ĠØªØŃÙĦÙĬÙĦ":7636,"ĠÙĨØ¯ÙĬØ±ÙĩØ§":7637,"ĠØ§ÙĦØ¸ÙĦÙħ":7638,"ÙĨÙĤ":7639,"Ø´ÙĬØ±Ø©":7640,"ÙĥØ±Ø§Ùħ":7641,"ĠÙĦÙĦØ§Ø³Øª":7642,"ÙĤÙĪØ¨":7643,"Ø§ÙĦØ¨ÙĤØ±Ø©":7644,"ĠØŃØ§":7645,"ĠØ£ÙĪÙĦÙĬ":7646,"ĠÙĪÙĥÙħØ§":7647,"ĠØµÙĦØ§ØŃ":7648,"ØŃÙħØ±":7649,"ĠÙĦÙĨÙģØ³Ùĩ":7650,"Ã©rie":7651,"ÙĩØ´":7652,"Ø®ÙĦÙĩØ§":7653,"ĠØ¨Ø¯Ø¹Ø©":7654,"90":7655,"ĠØªÙģÙĬØ¯":7656,"Ø£Ø®Ø°":7657,"ÙĥÙĬÙħØ§":7658,"ĠØ§ÙĦÙĪØ«":7659,"ĠÙĪÙĨØŃ":7660,"ĠÙĪÙĨØ¬ØŃ":7661,"ĠØ¨ÙĬØªÙĩ":7662,"ĠØ§ÙĦØµØŃØ±Ø§Ø¡":7663,"Ø¬ÙħÙĪØ¹":7664,"ĠØ³ØªÙĥÙĪÙĨ":7665,"ĠØ£Ø´ÙĬØ§Ø¡":7666,"ĠØ±Ø¨ÙĩÙħ":7667,"ĠÙĪØ§ÙĤÙĬ":7668,"ĠÙħÙĤØ¯ÙħØ©":7669,"Ø¬Ø§Ø¯":7670,"ĠØªØªÙĥÙĦÙħ":7671,"ĠÙĨØ±Ø¬":7672,"ĠØ§ÙĦÙĪØ³":7673,"Ø´Ø±ÙĤ":7674,"ĠØ¹Ø§ÙħÙĬÙĨ":7675,"ĠØªÙģØ¹ÙĦ":7676,"ĠÙĬØµØ¨ØŃ":7677,"ĠØ¹Ø§Ø¯ÙĬØ©":7678,"ĠØ§ÙĦØªØ¹Ø±ÙĬÙģ":7679,"ĠØ¨Ø§ÙĦØ¹Ø±Ø¨ÙĬØ©":7680,"ĠØ¯ÙĬØ¯ÙĬÙĨ":7681,"Ø§Ø¬Ùħ":7682,"Ø¹Ø¯Ø§Ø¯":7683,"iment":7684,"ĠØ§ÙĦÙĦØ³Ø§ÙĨ":7685,"ĠØ¨Ø³Ø¨":7686,"ĠØ§Ø³Ø¨ÙĪØ¹":7687,"ĠÙģØ±ÙĨØ³ÙĬØ©":7688,"ÙģÙĥÙĬØ±":7689,"ĠÙĥØ§Ø§ÙħÙĦ":7690,"ĠÙĬØ§Ùħ":7691,"ĠÙĬØ¹ÙĪØ¶":7692,"ĠÙĩÙĨØ¯":7693,"ĠØ¬Ø§ÙĬØ©":7694,"ĠØ¥Ø³Ø±":7695,"ÙĪØªÙĬÙĨ":7696,"ÙĪØªÙĨØ§":7697,"ĠÙĬÙĩØ¨ÙĦ":7698,"ĠØ§ÙĦØ§ÙĤØª":7699,"oni":7700,"ðŁĩ¸":7701,"ĠÙĥØ§Ø±Ø«Ø©":7702,"ette":7703,"ĠÙģØªÙĪ":7704,"ØªÙħÙĬØ©":7705,"ĠØ¹Ø¨Ø¯ÙĪ":7706,"ĠØ²Ø¹ÙĬÙħ":7707,"ĠÙĨÙģØ±ØŃÙĪ":7708,"ĠØ³Ø§Ø¦Ø±":7709,"Ø±ÙĬÙĦÙĨØ§":7710,"ĠØ§ÙĦØ³ÙĬØ§Ø³Ø©":7711,"ĠÙĪÙĬØ³Ø¹Ø¯Ùĥ":7712,"cc":7713,"Ø§Ø¡Ø§Øª":7714,"ĠØ§ÙĦÙĤØ·":7715,"ĠÙĪØªØ±":7716,"ĠÙĪØ§ØŃØ¯Ø§":7717,"ĠÙĬØ²Ø§ÙĦ":7718,"ĠØªÙĤØª":7719,"Ø¨Ø±Ø§ÙĨÙĬ":7720,"ĠÙĪØ¬Ø§Ø¡":7721,"chlh":7722,"lam":7723,"ĠØ§ÙĦØ¯ÙĬÙĨÙĬØ©":7724,"ĠØ§ÙĦØ¬ÙĬ":7725,"ÙħÙĥØ§ÙĨØ´":7726,"ĠØ§ÙĦØ¬ÙĦÙĬÙĦ":7727,"ĠâĻ":7728,"ĠØ´Ø±Ø¹":7729,"ĠØ§ÙĦØ¥ÙĨØª":7730,"ĠØŃÙĤÙĬÙĤÙĬ":7731,"ĠÙĬÙĦÙĬÙĤ":7732,"ĠÙĨÙĪÙģÙħØ¨Ø±":7733,"ÙĨÙĬÙĬÙĨ":7734,"ØªÙĪÙĬ":7735,"ĠØ§ÙĦÙħØ¹Ø±ÙĪÙģ":7736,"ĠØ¬Ø¨Ø±ÙĬÙĦ":7737,"eep":7738,"ÙħØ·":7739,"ĠØ£Ø±Ø¬":7740,"ĠÙĪØªØª":7741,"ĠÙĪÙħÙĦ":7742,"ĠØ§ÙĦÙģØªÙĨ":7743,"ĠØ§ÙĦÙĪØŃÙĬØ¯Ø©":7744,"ÙĩØ¯Ø±":7745,"Ø³ÙĪØ±Ø©":7746,"ĠÙĨÙĥÙħ":7747,"ĠØ¢Ø¯Ø§Ø¨":7748,"ĠÙħØ³Ø¬Ø¯":7749,"ĠÙħÙĨÙĩØ¬ÙĬØ©":7750,"ĠØ³ØŃ":7751,"ĠØ§ØŃÙĬ":7752,"ĠÙĨØ¯Ø¹ÙĬ":7753,"ĠÙĨØ§Ø¬ØŃ":7754,"ĠØ£ØµØŃØ§Ø¨Ùĩ":7755,"Ø±Ø§Ø¯Ø©":7756,"Ø¹Ø·":7757,"ĠØ¯Ø§Ùĥ":7758,"Ø¨ØŃØ±":7759,"ĠØ§ÙĦØªØ¹Ø¨ÙĬØ±":7760,"ĠÙħØŃØªÙĪØ§Ùĥ":7761,"ĠÙĪØ¸":7762,"ÙĪØ§ÙĨØ§Øª":7763,"ĠØ§ÙĦØ¨ÙĬØ§ÙĨ":7764,"ĠÙĤØ·Ø±":7765,"ĠØ§ÙĦØ³ÙĪØ±Ø©":7766,"AN":7767,"ĠÙħÙĨØ·":7768,"ĠØ§ÙĦÙĤØ§Ø¯Ùħ":7769,"Ø¹ÙĦØ§Ø¨":7770,"ĠØ§ÙĥÙĦ":7771,"ĠØ£ÙĥÙĬØ¯":7772,"ðŁĺ¢âĿ¤":7773,"Ø§Ø±ÙĬØ¹":7774,"ĠØ´ÙĩØ±ÙĬÙĨ":7775,"ĠØ§ÙĦÙħØ¨Ø§Ø±ÙĥØ©":7776,"ĠÙĬØ¯ÙĪ":7777,"ĠØ£ÙħÙĦ":7778,"ĠØ·Ø¨ÙĤ":7779,"Ø±Ø¬Ø§ÙĦ":7780,"ĠÙħÙĤØ§Ùħ":7781,"ĠØ¬Ø¯Ø§ØªÙĬ":7782,"Ø§ÙĦÙħØ§":7783,"ÙħØ§Ø°Ø§":7784,"ĠÙħÙĨÙĤÙĪÙĦ":7785,"ĠØ³ÙĥØ§ÙĨ":7786,"ĠØ¯ÙĬÙĨØ§ØªÙĪØ±":7787,"ĠÙĪØ§Ø±ØŃÙħÙĩ":7788,"dj":7789,"ĠØ³Ø§Ùĥ":7790,"ĠÙĪØ¹ÙĦØ§":7791,"ini":7792,"Ġfik":7793,"ĠØ¹ÙĬÙĬØª":7794,"fr":7795,"gle":7796,"Ġ****":7797,"ĠØªØ·ÙĦØ¹":7798,"ĠØ·Ø§ØŃØª":7799,"ĠÙģØ§ÙĦØª":7800,"lih":7801,"ĠÙĤØµØ¯":7802,"ĠØ§ÙĦØ§ÙģØ¶ÙĦ":7803,"ÙĨÙĬÙģ":7804,"ĠØ§ÙĦØ¬Ø²":7805,"ĠØ§ÙĦÙĤØ¯":7806,"tt":7807,"ĠÙĦÙĬØ±":7808,"ĠÙĥØ£Ø³":7809,"ĠØ§ÙĦØ¬Ø¯":7810,"ĠØ¹Ø¨Ø§Ø³ÙĬØ©":7811,"ĠØµØ§ØŃØ¨Ùĩ":7812,"ĠÙħÙĪÙģ":7813,"ĠØ¨ØŃÙĤ":7814,"Ø¬ÙĬØ´":7815,"Ø²ÙĦØª":7816,"ĠØ¨Ø¹Ø¯ÙħØ§":7817,"iss":7818,"ÙĤØµÙī":7819,"ĠØ§ÙĦÙħØªØ§Ø¨Ø¹ÙĬÙĨ":7820,"ĠÚ¤":7821,"ĠÙĥØ£":7822,"ĠØ§ÙĦØ£ÙģØ¶ÙĦ":7823,"ĠÙĪØªÙĥÙĪÙĨ":7824,"ĠØ¨ÙĬØ¶":7825,"ĠÙĪÙĤØ¨ÙĦ":7826,"ĠØ§ÙĦÙĦÙĬÙĦØ©":7827,"ĠØ±ÙĬØ§Ø¶ÙĬ":7828,"ĠØ§ÙĦØ¹Ø°Ø§Ø¨":7829,"ĠØ§ÙĦØŃÙĦÙħ":7830,"ðŁĴĢ":7831,"ĠØµØŃØªÙĥ":7832,"Ġjus":7833,"ĠÙģØ·ÙĪØ±ÙĥÙħ":7834,"Ø¹Ø§Ùĥ":7835,"Ø·Ø§Øª":7836,"ĠØŃØ°Ùģ":7837,"ĠÙħØªÙģÙĤ":7838,"ĠÙĦÙĪØ§ÙĦ":7839,"ĠÙĥÙĦØ§ÙħÙĩ":7840,"ĠØ£Ø±Ø¨Ø¹Ø©":7841,"ĠØ£ØŃÙĥØ§Ùħ":7842,"ĠÙĨØ§ØŃÙĬØ©":7843,"Ø¨ÙĥØ§ÙĦÙĪØ±ÙĬØ§":7844,"ĠØ¨Ø§ÙĦÙħØ¹Ø±ÙĪÙģ":7845,"ĠÙĥØ´Ùģ":7846,"Ø§Ø¯Ø¹":7847,"ĠØ§ÙĦØŃØ¬Ø©":7848,"ĠØ§ÙĦÙģÙĪ":7849,"ĠØ§ÙĦÙģØ§Øª":7850,"Ø§ÙĦÙħÙĩÙħ":7851,"ĠØ§ÙĦØ§ÙĨØªØ±ÙĨØª":7852,"ĠØ§ÙĦØ³ÙĬØ§Ø±Ø§Øª":7853,"ĠÙĨØ³ØªÙĨØ§ÙĪ":7854,"ĠÙĪØ±ÙĪÙī":7855,"ÙĦÙĪØ§":7856,"ĠØ§ÙĦØ¶ÙĪ":7857,"ĠØ³ÙģØ±":7858,"ĠØ§Ø¯Ø®ÙĦ":7859,"4747":7860,"ĠØ§Ø¸ÙĨ":7861,"ðŁ§":7862,"ĠØŃØ¨Ø©":7863,"ĠâĿ¤ðŁ¤²":7864,"ØŃÙĬÙĦÙĬ":7865,"ĠÙħØªÙĨ":7866,"Ġpa":7867,"Ø·ÙĦØŃ":7868,"ĠÙĤØ±ÙĬØ´":7869,"ĠÙħÙģØªÙĪ":7870,"Ø§ÙĬØ§Ùħ":7871,"ÙĪÙħÙĩ":7872,"ÙĥÙĬÙħ":7873,"ĠÙĨØ´ÙĪÙģÙĥ":7874,"ĠØ§ÙĦØªØŃØ±ÙĬØ±ÙĬØ©":7875,"Ġtra":7876,"ĠØ§ÙĦÙģØ±ØµØ©":7877,"ĠØŃØ·ÙĬØª":7878,"Ø¨ÙĦÙĪ":7879,"Ø¹ÙĦÙĥ":7880,"ÙĦØªÙĤÙĬ":7881,"ĠÙĬØ¹Ø·ÙĬÙĥÙħ":7882,"ĠØ§ÙĦØ°ÙĩØ¨ÙĬ":7883,"Ù©":7884,"Ø´Ø¹Ø¨":7885,"ÙĪÙĬØ§Øª":7886,"ĠØ³ÙĪØ§ÙĬØ¹":7887,"ĠØ§ÙĦÙħÙĩØ¬Ø±":7888,"ĠÙĪØ¹ÙĨØ¯ÙħØ§":7889,"Ha":7890,"Ù§":7891,"ÙĪØ§Ø¯":7892,"ĠÙģØ¶ÙĬ":7893,"Ø¬Ø§ÙĨ":7894,"Ø§Ø¬ÙħÙĦ":7895,"ĠØºØ¶":7896,"ĠØ§Ø³ØªØ¹ÙħØ§ÙĦ":7897,"ĠØ§ÙĦØ·Ø§ÙĩØ±":7898,"ĠØ¨ØŃØ§Ø¬Ø©":7899,"ĠØ²ÙĬØ¯ÙĦÙĪ":7900,"Ù¨":7901,"ĠðŁĲ":7902,"ĠØ§ÙĦØ±Ø²ÙĤ":7903,"ÙĤÙĪÙĬÙħ":7904,"ĠÙĤØ¹Ø¯Øª":7905,"ĠØ±Ø¢Ùĩ":7906,"Ġes":7907,"Ø¯ÙĬØ§ÙĨ":7908,"Ø§Ø¹Ø¨":7909,"ĠØ§ÙĦØ³Ùħ":7910,"ĠØ§ÙĦØªØ®":7911,"ĠØªØ®ÙĦÙĬ":7912,"ĠØ¬Ø§ÙħØ¹Ø©":7913,"Ġreda":7914,"ĠÙħÙĤØ¯":7915,"ĠØ¹ÙħÙĪ":7916,"ĠØ£Ø³ÙĦÙħ":7917,"ĠÙĤØ¯ÙĪØ©":7918,"ĠØ§ÙĦØ¹Ø¬":7919,"ĠØ§ØŃØ±Ø§Ø±":7920,"ĠÙĤØ±ÙĬØ¨Ø§":7921,"ĠÙĪÙĬØ§":7922,"ĠÙĪØ®Ø±Ø¬":7923,"ĠØ±Ùħ":7924,"ÙĪØ±ÙĩØ§":7925,"ĠØ·ÙĦØ§Ø¨":7926,"ĠÙĨØ¹Ø±ÙģÙĪ":7927,"ĠØŃØ·ÙĦÙĨØ§":7928,"ĠØ§ÙĦØ¹ÙĦØ§Ø¬":7929,"Oui":7930,"ĠØ´Øº":7931,"ĠÙģØ¹ÙĦÙĩ":7932,"ĠØ§ÙĦØ·Ø¨Ø±ÙĬ":7933,"ĠØ§ÙĦØ±Ø£ÙĬ":7934,"ĠØŃÙĦØ§ÙĦ":7935,"ĠÙĨØ³ØªÙĨÙī":7936,"ĠÙħØ¨Ø±":7937,"ĠØªÙģØ¶ÙĦ":7938,"Ø¶ÙħÙĨ":7939,"Ġwith":7940,"ÙħÙĪØ§ÙĦ":7941,"ĠØ³Ø¨ØŃØ§ÙĨÙĪ":7942,"ĠØ§ÙĦÙħØ´Ø±ÙĥÙĬÙĨ":7943,"²ðŁĩ¦":7944,"Ø°Ø§Ø±":7945,"ĠØ§ÙĦØ£ÙĤ":7946,"ĠØ§ÙĦÙĦÙģØ¸":7947,"ĠØ§ÙĦØªÙģØ³ÙĬØ±":7948,"ĠÙĪØªÙģ":7949,"ĠÙĪÙĦÙĬØ³Øª":7950,"ĠÙĬØªÙĤØ¨ÙĦ":7951,"ĠØªØ¹ÙĦÙħØª":7952,"Ø§ÙĦØ¬Ø²Ø§Ø¦Ø±":7953,"ĠÙĦÙħÙĬ":7954,"ĠÙĬÙĥØ±Ùĩ":7955,"ĠØ§ÙĦØ®ÙĦÙģ":7956,"ons":7957,"ĠÙĦØ£ÙĨÙĪ":7958,"ĠØ§ÙĦØ§Ø¶":7959,"ĠØ£Ø¹Ùħ":7960,"ĠÙĪØ±ØŃÙħÙĩ":7961,"Ġdire":7962,"ĠÙħØ³Ø£ÙĦØ©":7963,"ĠØ¹ÙĦÙħÙĩ":7964,"ÙĤØ§ÙĪÙħØ©":7965,"80":7966,"ĠØ¬ÙĩØ¯":7967,"ĠØ§ÙĦØ¨Ø´Ø±ÙĬØ©":7968,"ĠØ§ÙĦØ§ÙħØ§Ùħ":7969,"ĠØ§ÙĦØ§Ø¹ÙĦÙī":7970,"ĠØ¹Ø§ÙĪÙĨ":7971,"ĠØ¯Ø§ÙĬØ±Ø©":7972,"ĠØ§ÙĦØ¬Ø§ÙĩÙĦÙĬØ©":7973,"ÙĬØ§ÙĪ":7974,"ÙģØ§Ùģ":7975,"ĠØ¹Ø§ÙĦÙĬØ©":7976,"ÙģÙĬØª":7977,"ĠÙĪØªØ¬":7978,"ĠÙĬÙĨØµØ±":7979,"ĠØ¹Ø°Ø±":7980,"Ø¹ÙĪØ¨Ø©":7981,"ÙĪØ¹Ø§":7982,"ÙĪØ¹Ùĩ":7983,"Ø³ÙĥØ±ÙĬ":7984,"Ø´ÙĩØ¯":7985,"ĠØ£ÙħÙĨ":7986,"ĠØ§ÙĦÙĥØ§ÙħÙĦØ©":7987,"Ø§Ø²ÙħØ©":7988,"Ø¨Ø¹Øª":7989,"ĠÙĪØ²Ø§Ø¯":7990,"200":7991,"ØªÙģØ³ÙĬØ±":7992,"Ø´Ø¯":7993,"ĠØ·Ø¨ÙĬØ¨":7994,"ĠØ§Ø®ÙĬØ±Ø§":7995,"ØŃØ¨Ø´":7996,"ÙĪØ³Ø·":7997,"ĠØ§ÙĦØ³ÙħÙĪØ§Øª":7998,"ĠÙĨØŃØ·":7999,"ĠÙħÙĨØ§Ùģ":8000,"ĠØ¯ÙĬÙĨØ§":8001,"ĠØ§ÙĦØ£ÙĥØ¨Ø±":8002,"ĠðŁĺĳ":8003,"ĠØ§ÙĦØ«ÙĤØ©":8004,"Ġkay":8005,"ĠØ§ÙĦØ¬ÙħØ§Ø¹Ø©":8006,"Ø§Ø¨Ø¯":8007,"Ø§ÙģØ¶Ø©":8008,"ĠÙĪÙĨØ¬ÙĬØ¨":8009,"ĠØ§ÙĦØ³ÙĬØ§Ø³ÙĬØ©":8010,"ĠØ§ÙĦØŃÙħÙĬØ¯":8011,"ER":8012,"Ĺ¿":8013,"ĠØ¨ØªØ±":8014,"ĠÙħÙĨØŃ":8015,"Ø§ÙĪØ¯ÙĪ":8016,"ĠØªÙħØ´ÙĬ":8017,"ĠÙĬØªØ¹ÙĦÙĤ":8018,"ĠØ§ÙĦØ¸Ø±ÙĪÙģ":8019,"ĠØ§ÙĦØ±Ø¦ÙĬØ³":8020,"ĠÙĪØ£Ùħ":8021,"ĠØ§Ø®ØªÙĦÙģ":8022,"ÙĤØ±Ø§Ø±":8023,"ĠØ£ÙĬØ¯ÙĬ":8024,"ĠÙĬØ¹Ø§ÙĪÙĨÙĥ":8025,"ĠØ§ÙĦØ¨ÙĥÙĦÙĪØ±ÙĬØ§":8026,"ĠØ§ÙĦØ´Ø±ÙĤ":8027,"ĠÙĩØ§ÙĥØ§":8028,"ĠØ¹Ø¯ÙĨØ§":8029,"ÙĬØ§ÙĦ":8030,"Ø°Ø§ÙĨ":8031,"Ø§ÙģÙĦ":8032,"ĠØ§ÙĦØ³Ø¹ÙĪØ¯ÙĬØ©":8033,"ĠØªØ¹Ø¬Ø¨":8034,"ĠðŁĺī":8035,"ĠØ§ÙĦØ·ÙĦØ¨":8036,"ĠØ±Ø¨Ø¹":8037,"ĠØªÙĩØ¨ÙĦÙĬ":8038,"ĠØ§ÙĦÙģÙĬÙĦÙħ":8039,"ĠØŃØ§Ø³Ø©":8040,"ĠØ§ÙĦØ¬ÙħØ§ÙĦ":8041,"ĠØ§ØŃØ³":8042,"Ø¨ÙĦÙĬØ²":8043,"kon":8044,"ĠÙĦÙĤØ¨":8045,"Ø±ÙĬØ´":8046,"ĠâĿ¤ðŁĺ¢":8047,"ĠØ¥ÙĦÙĬÙĥÙħ":8048,"ĠÙĨØ¨ØºÙĬ":8049,"ĠØ§ÙĦØ¸Ø§ÙĦÙħÙĬÙĨ":8050,"~~~~":8051,"zid":8052,"Ø¯ÙĬØªØ´":8053,"ĠÙħØ¹ÙĬÙĨØ©":8054,"ĠØ§ÙĦØ¨Ø§ÙĦ":8055,"ĠØ§Ø°ÙĨ":8056,"ĠØ§ÙĩÙĦÙĩ":8057,"ĠÙħØ§ÙĥØ§ÙĨ":8058,"ĠØµÙĦÙĬØª":8059,"ĠØªØŃØ±ÙħÙĨØ§":8060,"ĠØ¹Ø§Ø¦ÙĦ":8061,"ĠØªÙĩØ¯":8062,"ĠØ¬ÙħØ¹Ø©":8063,"ĠÙħØ¹ÙĦÙħ":8064,"ÙħÙĨÙĬÙĨ":8065,"ĠÙĪÙĨØŃØ¨":8066,"ðŁĺĬâĿ¤":8067,"ĠÙĬØ±Ø¶Ùī":8068,"ĠØ³Ø£ÙĦ":8069,"ĠØ®Ø±ÙĪØ¬":8070,"rah":8071,"ĠØªØ¬Ø³ÙĬØ¯":8072,"ĠØ§ÙĦÙĪØ§ÙĦØ¯Ø©":8073,"ÙĪØ«":8074,"ĠØ¨ØªÙĪÙģÙĬÙĤ":8075,"ĠÙĦÙĤÙĪÙĦÙĩ":8076,"Ø®Ø®":8077,"ØºÙĬÙĥ":8078,"ĠØ§ÙĦØ£Ø¬":8079,"ĠØ§ÙĦØ¬ÙĬÙĦ":8080,"ĠÙĤØ§ÙĦÙĪÙĦÙĬ":8081,"ĠÙĪØ±Ø§Ùĩ":8082,"Ġdans":8083,"ĠÙĦÙĦÙħÙĨØª":8084,"ĠÙĪÙģÙĬÙĩØ§":8085,"ðŁ¦":8086,"ĠÙĪØ§ÙĦÙĪØ§":8087,"Ø¯ÙĬÙħØ§":8088,"ĠØ§ÙĦØ¥ÙĦØª":8089,"ĠØ£Ø¯Ø±ÙĬ":8090,"ĠÙĨØ§Ø¬ØŃØ©":8091,"Ø³Ùģ":8092,"ĠÙĥØ§ØªØ¨":8093,"Ø§Ø·ÙĬØ©":8094,"ĠØ±Ø§Ø¬Ø¹":8095,"ĠâľĮ":8096,"Ġbzf":8097,"ĠØ¬ÙĩÙĦ":8098,"ĠØ«ÙĦ":8099,"ĠØ§ÙĦÙħØ³Ø§Ø¹Ø¯Ø©":8100,"ore":8101,"ĠðŁĺĴ":8102,"ĠÙģØªØ§Ø©":8103,"ĠØ§ÙĦØ¬ÙĨÙĪÙĨ":8104,"ĠØ¡":8105,"Ø³Ø¤Ø§ÙĦ":8106,"ØµÙĦØ©":8107,"ĠØ§ÙĦØ®ÙĦØ§":8108,"ĠØ¨Ø§ÙĥØ§ÙĦÙĪØ±ÙĬØ§":8109,"ĠØ²ÙĪØ¬Ø©":8110,"Ø®Ø§ÙģÙĬØ´":8111,"ĠÙĪØ§Ø¶ØŃØ©":8112,"Ø«ÙĦØ¬":8113,"Ġgood":8114,"ĠÙĤØµØ¯ÙĬ":8115,"ĠØ§ØµØ¨ØŃØª":8116,"ĠÙħØ§Ø¦Ø©":8117,"ĠØ´Ø§ÙĩØ¯":8118,"Ġkan":8119,"ĠØ§ÙĦØ²ÙĬØª":8120,"ĠØºÙĬØ§Ø¨":8121,"Ø´ÙģØ§Ø¡":8122,"ĠÙħØ¯Ø§Ø±":8123,"ĠÙĦØ®ÙĬØ±":8124,"ĠÙĨØ§Ùģ":8125,"ĠØ²ÙĬØ§Ø±Ø©":8126,"mar":8127,"Ø´ÙĬÙĥÙĪØ±":8128,"ðŁķ":8129,"ĠÙħÙĨÙĩÙħØ§":8130,"Ø§ÙĩÙĦÙĬ":8131,"ĠØ¨Ø§ÙĦÙĦØºØ©":8132,"ĠØ§ÙĦØªÙĩ":8133,"ĠØ§Ø³Ø§ÙĦ":8134,"ØªÙĩÙī":8135,"ĠÙĨØ¬Ø±ÙĬ":8136,"ĠØªØ´Ø®ÙĬØµ":8137,"ĠØ§ÙĦØ¯Ø±Ø¬Ø©":8138,"ĠØ±ÙĪØŃÙĩØ§":8139,"Ø¶ØŃÙī":8140,"ĠÙĪÙĬØ±Ø²ÙĤÙĥ":8141,"ry":8142,"Ġid":8143,"Ø§Ø¯Ø«Ø©":8144,"ÙĪØ±Ø¯":8145,"Ø§ÙĬÙĬ":8146,"Ø§ÙĩÙĬØ©":8147,"ĠÙĪØ¹ÙĦÙĬÙĩ":8148,"Ġhkaya":8149,"ĠØªØ³ÙĥÙĨ":8150,"ĠØ®ÙĦØµ":8151,"ĠÙģÙĦÙĩ":8152,"ĠØ§ÙĦÙĦÙĩØ¬Ø©":8153,"ÙĦØ§ÙħÙĥ":8154,"ĠØ¯Ø±ØªÙĩØ§":8155,"ĠØ§ÙĨØªØ¸Ø±":8156,"ĠØ³ÙĩÙĦØ©":8157,"ĠØºØ§ÙĦÙĬØªÙĬ":8158,"ĠÙģÙĬØ¯ÙĬÙĪØ§":8159,"Ø¹Ø¨Ø§Ø¯":8160,"ĠØªØµÙĦÙĬ":8161,"ast":8162,"ĠÂ·":8163,"ĠØ§ÙĦØ¹ÙħÙĦÙĬØ©":8164,"ĠØ§ÙĦØ§Ø¬ØªÙħØ§Ø¹ÙĬØ©":8165,"ĠØ§ÙĦØ¶ÙĬØ§ÙģØ©":8166,"ĠðŁĳıðŁĳı":8167,"ĠØ§ÙĦØªÙħ":8168,"ĠÙĬØ¹Ø¨Ø¯":8169,"ĠÙħØ¯Ø§Ùħ":8170,"ĠØ¹ÙĦØ§Ø¨Ø§ÙĦÙĥ":8171,"65":8172,"ĠÙĬÙĥÙħÙĦ":8173,"ĠÙĪØ§ÙĦØ¥ÙĨ":8174,"ÙģÙĬÙģ":8175,"ĠÙħØªØ®":8176,"ÙĪØ±ÙĬØ§Øª":8177,"ĠÙĦØ§ÙĨÙĥ":8178,"ĠØªØ¹ÙĦÙĬÙħ":8179,"ĠÙĬØ£ÙħØ±":8180,"ĠÙģØ²":8181,"Ø§Ø¨ÙĨ":8182,"ĠØ³ÙĪÙĤ":8183,"ĠÙĪØ§ÙĦØ£ÙĨ":8184,"ĠØ¨Ø§ÙĦØ²":8185,"ĠØ§Ø³Ø±":8186,"ĠØªØŃÙĦ":8187,"ell":8188,"ĠðŁĺħðŁĺĤ":8189,"ĠØ±Ø§Ø¦Ø¯":8190,"ĠðŁĻĥ":8191,"ĠØ§ÙĦÙħÙĬÙĦ":8192,"Ø§Ø¹ØªÙĩ":8193,"Ø¢Ø¡":8194,"Ø§ØºØ©":8195,"ĠØ§ÙĦÙĨØµØ§Ø±Ùī":8196,"ĠØ¬Ø§Ø¨Ø±":8197,"ĠØ¬Ø¹ÙģØ±":8198,"ĠØ¹ÙĬØ´Ùĥ":8199,"ĠÙĪÙĪØ³Ø¹":8200,"ĠØ§ÙĦØ¯Ø§Ø¦ÙħØ©":8201,"ĠØ§Ø¹ØªÙĤØ¯":8202,"Ġho":8203,"ĠØ¸Ø±ÙĪÙģ":8204,"ĠØ§ÙĦØ«ÙĦØ§Ø«Ø©":8205,"Ma":8206,"ĠÙĤØµØ±":8207,"ĠðŁĺ±":8208,"ĠØ§ÙĦØ¯ÙĦ":8209,"ĠØ§Ø¯Ø¹ÙĬÙĦÙĬ":8210,"Ġup":8211,"ĠØ§ÙĦÙĩØ¯Ùģ":8212,"ĠØ§ÙĦØ§ÙħÙĦ":8213,"ĠÙħØ¯Ùī":8214,"ĠÙĪØ§ÙĦØ¯Ùĥ":8215,"ĠÙĦÙĬÙĥÙħ":8216,"Ø¹ØªØ¨Ø±":8217,"ĠÙģØ¹ÙĦØª":8218,"ĠØ§ÙĦØŃØ¯ÙĪØ¯":8219,"Ù±":8220,"ĠÙħÙĬØ´":8221,"ÙģØ³ÙĬ":8222,"Ø§ÙĨÙĩØ§":8223,"ĠÙĤÙĦÙħ":8224,"ĠØ´Ø§Ùĩ":8225,"Ø§Ø¬Ø§Øª":8226,"ØªØ¨Ø§Ø¹":8227,"ĠÙģØ§ÙĦÙģÙĬØ¯ÙĬÙĪ":8228,"ĠØ§ÙĦÙĨØªØ§Ø¦Ø¬":8229,"ÙĨØ·Ø§ÙĦØ¨":8230,"ĠØ§ÙĦØ·ÙĦØ¨Ø©":8231,"ĠÙĪØ¹ÙħÙĦ":8232,"ĠÙħØ®ÙĦ":8233,"ĠÙĬØ¶Ø¹":8234,"ĠØ±ÙĬØ¨":8235,"ÙĨØ§ÙĬ":8236,"Ø¯Ø±Øª":8237,"ĠÙħØŃØªØ§Ø¬":8238,"ĠØ±Ø¨ÙĥÙħ":8239,"ĠØ§ÙĦÙĦØ¨":8240,"Ø³ÙĪÙĨ":8241,"ĠØªØ§Ø¨Ø¹":8242,"Ø§ÙĬØŃ":8243,"ĠØ§ÙĦØ¥Ùħ":8244,"Ø§ÙĦØ´ÙĬØ®":8245,"ÙĨØµÙĬØŃØ©":8246,"ĠÙĪØºÙģØ±":8247,"ĠØŃØ§Ø·":8248,"ĠÙĪØ§ÙĦÙħØª":8249,"ĠØ§Ø®Ø°":8250,"ĠØ§ÙĦØ°Ø±ÙĬØ©":8251,"ĠÙħÙĪØ¹Ø¯":8252,"ØºÙĬØ¨":8253,"ØªÙĬÙĦ":8254,"ĠÙĦÙĦÙħØ´":8255,"ĠØ§ÙĦØŃÙĥÙĪÙħØ©":8256,"ĠØ±ÙĪÙħ":8257,"Ø§Ø¯Ùī":8258,"ÙģØ±ØŃÙĥ":8259,"ĠðŁĴĢ":8260,"tions":8261,"ÙĦÙĤØ¯":8262,"ÙĪØ§ØŃØ¯":8263,"ĠØ®ÙĦÙĪ":8264,"ĠÙħØ±Ø¹Ø¨Ø©":8265,"ĠØ¯Ø±ØªÙĪ":8266,"ÙĪÙĤØ¹":8267,"ĠÙĪØ§ÙĦØ£Ø®":8268,"ĠÙĤÙĨÙĪØ§Øª":8269,"ĠØ¬ÙĪØ§Ø²":8270,".\"":8271,"md":8272,"Ġï":8273,"ÙĤØ§Ø·":8274,"Ø§ÙģØ±ÙĬÙĨ":8275,"ĠØ¨Ø§ÙĦØ«ÙĪØ±Ø©":8276,"ÙĬØ¯Ùĩ":8277,"ĠØ´Ø¹ÙĪØ±":8278,"ĠØ§ÙĦØªØ¹Ø§ÙħÙĦ":8279,"ĠØ§ÙĦÙĪÙĦØ¯":8280,"ØŃØ§ÙĤ":8281,"ĠØŃØ±ÙĥØ§Øª":8282,"Ġfe":8283,"ĠÙħØ«ÙĦÙĩ":8284,"ĠÙĤØ¨Ø±ÙĩØ§":8285,"ĠÙħØ®ÙĦÙĪÙĤ":8286,"Ø±ÙĤØ¯":8287,"ÙĤØ³Ùħ":8288,"ĠÙĬÙħØª":8289,"ĠØ´Ø§Ùĥ":8290,"ĠØ¬Ø¹ÙĦÙĩ":8291,"ĠØ§ÙĦØŃØ¬Ø±":8292,"ĠØ§ÙĦØ¨ÙĦÙĬ":8293,"Ø±ÙĪÙĩ":8294,"ĠÙĦÙĥÙĨÙĬ":8295,"liha":8296,"ĠØ¨ÙĨÙģØ³Ùĩ":8297,"ĠÙģØ§ÙĦÙĤÙħØ©":8298,"ĠÙĦÙĩÙħØ§":8299,"ĠØ±ÙħØ²":8300,"ĠØ§ÙĦØ¹Ø±Ø¶":8301,"ĠØ¢ÙĨ":8302,"ĠØ§ÙĦØ§ÙħÙĬØ±":8303,"ĠØ²ÙĬØ¯ÙĬ":8304,"ØªØ§ÙĦÙĬØ§Øª":8305,"ĠØªÙģØ±ØŃ":8306,"Ø´ÙģØª":8307,"ĠØ®Ø§ÙĪ":8308,"ĠØ§ÙĦØ´Ø¨Ùĩ":8309,"ĠØ§ÙĪÙĨ":8310,"ĠØ§ÙĦÙħØ±Ø§Ø©":8311,"ĠØ´Ø¹Ø±Ùĥ":8312,"ĠØ§ÙĦÙĪÙĦØ§Ø¯Ø©":8313,"Â·":8314,"ÙģØ¹ÙĦ":8315,"ĠØµØ§Ùħ":8316,"ĠÙĦÙĬØª":8317,"Ø¤ÙĪÙĨ":8318,"ĠÙĨØªÙħÙĨØ§":8319,"ĠØ§ÙĦÙħÙĪÙĦÙī":8320,"ahk":8321,"ĠØ§ÙĦØ´Ø±Ø·":8322,"gu":8323,"Ø¯ÙħÙĬ":8324,"ĠÙĪØ§ÙĦØ¬ÙħØ§Ø¹Ø©":8325,"Ø¶ÙĬØ±":8326,"Ø§Ø¦ÙĥÙħ":8327,"ĠØ§ÙĦØ´Ø§ÙģØ¹ÙĬ":8328,"ĠØ§Ø±ÙĪØ§ØŃ":8329,"ĠØ§ÙĦÙħØŃØ¨Ø©":8330,"ĠØ§ÙĦØ³ÙĬØ¨ÙĬØ§":8331,"ĠÙģØ¹ÙĦÙĬØ©":8332,"Ø´Øª":8333,"ØµÙĦÙĪ":8334,"ĠÙĩØ§Øª":8335,"ÙĬØ§Ø§Ø±Ø¨":8336,"ĠÙĪÙĬØµØ¨Ø±":8337,"ĠØ§ÙĦÙħÙĨÙģÙī":8338,"ĠØªØµØ¨ØŃ":8339,"ØªÙĪØŃØ´ÙĨØ§":8340,"Ø¨Ø²Ø§Ùģ":8341,"ÙħØ¹Øª":8342,"ĠÙĨØ¬ÙĪØ²":8343,"ĠØ³ÙĬØ¦":8344,"ĠØªØ£ØªÙĬ":8345,"ÙĪØ§Ø¬Ø¨":8346,"Ø§Ø±Ùħ":8347,"ĠÙĩØ´Ø§Ùħ":8348,"ĠØ¯ÙħØ´":8349,"ĠØ§ÙĦÙģÙĪØ²":8350,"ĠÙĬØ¬ÙĪ":8351,"ĠÙĪØµÙģØ§Øª":8352,"ĠÙĪØ§ÙĦØªØ¹":8353,"Ġsuis":8354,"ÙĬØ¶":8355,"Ø³Ø¨Ø©":8356,"ĠØ§ÙĦØ¯ÙĤÙĬÙĤØ©":8357,"ĠØ¢Ø«Ø§Ø±":8358,"ĠÙĦØ£ÙĨÙĥ":8359,"Ġzid":8360,"µðŁĩ¸":8361,"ØµÙĬØ±":8362,"ĠØºØ²":8363,"ĠØ§ÙĦØ¯ÙĪ":8364,"AR":8365,"pr":8366,"ĠÙħØ³ÙĬ":8367,"ĠØ§ÙĦØ³Ùģ":8368,"ĠØºÙĬØ±ÙĩÙħ":8369,"ÙĪØ¬Ø¨":8370,"ØªÙħØ§ÙĦ":8371,"ĠÙħØªØ´":8372,"Ø¯Ø¹ÙĪØ§":8373,"ÙĪØ¯ÙĥØ§Ø³Øª":8374,"ĠÙĪÙĦØª":8375,"ĠØ§ÙĦÙħØ«Ø§ÙĦ":8376,"ðŁĺĨ":8377,"ĠÙĪØªÙĥ":8378,"ĠÙħØ´Ø§Ø±ÙĥØ©":8379,"ĠÙĬØ³ÙĬØ±":8380,"ĠÙĤÙĨØ§ØªÙĬ":8381,"ĠðŁĳįðŁĳį":8382,"bl":8383,"Ø«Ø§ÙĦÙĥ":8384,"ØªØ§Ø¨Ø©":8385,"ĠÙĨÙĨØµØŃÙĥ":8386,"ĠØ§ÙĦØ´Ø±Ùģ":8387,"ĠØ¶Ùĥ":8388,"ÙĥÙĪÙĬÙĨ":8389,"ĠØ§ÙĨØªØ´":8390,"ĠØªØ¹Ø§ÙĪØ¯":8391,"ĠØ§ÙĦÙģÙĦØ³Ø·ÙĬÙĨ":8392,"ĠØ§Ø®ØªØ§Ø±":8393,"ĠØ§ÙħÙĪØ±":8394,"Ø³Ø±Ùī":8395,"ĠÙĤØ±Ø¢ÙĨ":8396,"Ø·ÙĦØ¹ÙĪ":8397,"ĠØ£ÙħØ±Ø§":8398,"ĠvidÃ©os":8399,"Ø¨Ø¹ÙĪ":8400,"Ø£Ø¬":8401,"ĠØ§ÙĦÙĤÙĦÙħ":8402,"ĠÙĨØ³Ø®Ø©":8403,"ĠØ¯ÙĪÙĦØ§Ø±":8404,"Ø³ÙĬØ§":8405,"ĠØ¹Ø¸ÙĬÙħØ©":8406,"ĠØŃÙĤÙĩ":8407,"ÙĦØ§ÙĤÙĬ":8408,"Ø§Ø³Ø¹":8409,"ĠÙħØªÙģ":8410,"ĠØ¨ÙĬÙĨÙĩ":8411,"ĠØ§ÙĦÙĬÙĪÙħÙĬØ©":8412,"Ø¨ÙĬÙĩØ§":8413,"ĠØ§Ø³ØªØ·Ø§Ø¹":8414,"Ø¹ØªÙĨÙĬ":8415,"ĠØ£Ø³ØªØ§Ø°ÙĨØ§":8416,"ĠÙĨÙĨØ¬ØŃÙĪØ§":8417,"ĠØ¹ÙĤÙĬØ¯Ø©":8418,"ĠðŁ«¶":8419,"ĠØ·ÙħÙĪ":8420,"ĠØ§ÙĦØ¥Ø®ÙĪØ©":8421,"'t":8422,"wi":8423,"Ø¹Ø§ÙĦ":8424,"ĠÙĦÙĪÙĦØ©":8425,"Ø¯Ø±Ø§Øª":8426,"ÙĤØ¯Ø§Ùħ":8427,"ĠÙĬØ¹Ø·":8428,"ouh":8429,"ĠØ¯ÙĬØ±ÙĬÙĨØ§":8430,"Ġ90":8431,"ĠÙĨØªØ§Ø¹ÙĬ":8432,"ĠÙĪØ¬Ø²Ø§ÙĥÙħ":8433,"ĠðŁĸ¤ðŁĸ¤":8434,"ĠÙģÙĬØ²Ø§":8435,"ĠØŃØ§Ø´":8436,"ĠØ§ÙĦØŃØ±ÙĥØ©":8437,"ÙĤÙĪÙĦÙĪ":8438,"ĠÙħÙĤØ¨":8439,"ĠÙĨÙĪØ±Øª":8440,"ĠÙĥØ§ÙħÙĦÙĬÙĨ":8441,"Ø±ÙĨØ§":8442,"ĠØ·Ø§Ø¨Ø¹Ø©":8443,"ÙĤÙĪÙĦØ©":8444,"Ġtout":8445,"ĠÙĪØ¹ÙĦØ§Ùĩ":8446,"ĠÙĬÙħÙĨØ¹":8447,"ĠÙĦØ®Ø±ÙĬÙĨ":8448,"Ø§ÙĨØ¹":8449,"ĠÙĪØ§ÙĦØ§ØŃ":8450,"ĠÙħØ´Øª":8451,"ĠØ§ÙĦÙħÙĦØ®Øµ":8452,"ĠØ¯ÙħØ´ÙĤ":8453,"Ø¨Ø«":8454,"ĠØ¨Ø°ÙĥØ±":8455,"ĠØ¨ÙĤÙĬØª":8456,"Ø±Ø¨Ø¹":8457,"ĠÙħØŃØ¨Ø©":8458,"Ø¨ÙĤØ§ÙĪ":8459,"ĠØ§ÙĦÙħØµØ·ÙĦØŃØ§Øª":8460,"ĠÙħØ¯Ø§":8461,"ĠØŃØ°":8462,"ĠØ´Ùħ":8463,"ĠØ³Ùĥ":8464,"ĠÙħÙĬØ®":8465,"Ø³Ø®":8466,"ĠØ£Ø±ÙĪØ¹":8467,"ĠØ§ÙĦØ¯ÙĨØ³":8468,"Ø§Ø«Ø©":8469,"ĠØ¬Ø§ØªÙĨÙĬ":8470,"ĠØ§Ø®ØªÙĦØ§Ùģ":8471,"ĠØ±Ø¤ÙĬØ©":8472,"AC":8473,"ÙĨÙħ":8474,"ÙĨØ´Ø§Ø¡":8475,"ĠØ£ÙģÙĥØ§Ø±":8476,"ĠØ¨Ø§Ø·":8477,"ĠÙĬØ°ÙĩØ¨":8478,"ÙĨÙĬØ§Øª":8479,"ĠØ§ÙĦØ®Ø§ÙĦÙĤ":8480,"Ġday":8481,"ĠÙĪØ³Ø§Ø¦ÙĦ":8482,"ĠÙħØ³ØªÙĤØ¨":8483,"ĠÙĦØŃÙĤØª":8484,"ĠØ§ÙģØ±ÙĬÙĤÙĬØ§":8485,">>":8486,"Ø£ÙĦÙĩ":8487,"ÙħØ§Ø±ÙĬÙĨ":8488,"Ø¨ÙĬÙĦØ©":8489,"ĠØ¬Ø¯Ø¯":8490,"ĠØ§ÙĦØ´Ø§Ø¨":8491,"ĠØ³ÙĬØ§Ø³Ø©":8492,"ĠÙħØ¨Øª":8493,"ĠÙĬØ±Ø¶":8494,"Ø¨ÙĬØ¨Ø©":8495,"ĠØ´Ø¯Ø©":8496,"ĠØ§ÙĦØ¨Ø§Ø±ÙĬ":8497,"ĠØ§ÙĦÙħÙĪÙĤÙģ":8498,"ĠÙĪÙĤØªØ§Ø´":8499,"âģĦ":8500,"ĠÙģØ¶ÙĦÙĩ":8501,"ĠØ£ØŃØ³":8502,"Ø¨ÙĨÙĬ":8503,"ĠØ£Ø³Ùħ":8504,"Ġgra":8505,"ĠØ§ÙĦØ³ÙĦØ·Ø§ÙĨ":8506,"ĠÙĨÙĪØµ":8507,"Ø£ÙĦÙģ":8508,"ĠØŃÙģØ¶":8509,"ĠØ¥Ø³ØŃØ§ÙĤ":8510,"ĠØ§ÙĦØµØ§Ø¨":8511,"---":8512,"ĠÙĦÙĥÙĨÙĩØ§":8513,"ase":8514,"ĠØ§ÙĦØ³ØŃ":8515,"ÙĤÙĪÙĦÙĥ":8516,"ĠÙĨÙģØ³ÙĪ":8517,"ĠÙĪÙĥØ£ÙĨ":8518,"Ø¹ØªÙĬÙĨ":8519,"ĠÙĬØµÙĬØ¨":8520,"ĠØ¯ÙĤØ§ÙĬÙĤ":8521,"ĠØ§Ø³ØªÙģØ¯Øª":8522,"ĠØªØ¨Ø¯Ø£":8523,"ĠÙĥÙĪÙħ":8524,"ĠØ¥Ø«Ø¨Ø§Øª":8525,"ĠØ¨Ø§ÙĦØªÙģ":8526,"ĠØ§ÙĦØ£Ø¦ÙħØ©":8527,"Ø±ÙģØª":8528,"Ø³ÙĬØ³":8529,"ĠÙģØ§ÙĦØŃ":8530,"ĠØ§ÙĦØ§Ø®Ø±Ùī":8531,"ĠØ§ÙĦØ£ÙħÙħ":8532,"ĠØªØŃØ·ÙĬ":8533,"ÙģØ³Ø¯":8534,"ĠÙħØ±Ø§Ùĩ":8535,"ĠÙĨØ¬ÙĬØ¨ÙĪÙĩ":8536,"ĠØ£ØŃØ¯ÙĩÙħ":8537,"ĠÙĪØ§ØµÙĦÙĬ":8538,"ÙĥÙī":8539,"ØµØ·ÙĦØŃØ§Øª":8540,"ĠØŃØ±Ø¬":8541,"Ø±ÙĬØ·":8542,"ĠØ§ÙĦØ¹Ø´Ø§Ø¡":8543,"ĠØ§ÙĦØ£Ø±":8544,"hak":8545,"ÙĦÙĤÙĩ":8546,"ĠÙĪØ§ÙĨØªÙħ":8547,"Ġ199":8548,"Ø§Ø³Ø·ÙĪØ±Ø©":8549,"ĠØ§ÙĦØ£ÙħÙĦ":8550,"ĠØ§ÙĦØ±Ø³ÙĦ":8551,"ĠØ§Ø®ÙĪØ©":8552,"ĠØªØ¶Ø¹":8553,"ĠØµØ¹Ø¨Ø©":8554,"Ø§Ø¦ÙħØ§":8555,"ĠÙħÙĤØ§Ø¨ÙĦ":8556,"ĠÙĨØªÙģØ±Ø¬ÙĪ":8557,"ĠØ¹Ø²ÙĬØ²ØªÙĬ":8558,"ĠÙ±ÙĦ":8559,"Ã¢":8560,"ĠØ¹ÙĪØ¶":8561,"ĠØ§ÙĦÙĤØ¨Ø§Ø¦ÙĦ":8562,"ĠØµØŃØ¨ØªÙĬ":8563,"jet":8564,"ĠØ§ÙĦØ¶ÙĪØ¡":8565,"ĠØ¨Ø·ÙĦ":8566,"ĠØ§ÙĦÙħÙĪØ§ÙĤÙģ":8567,"ĠØ¹ÙĨØ§Ø¨Ø©":8568,"ĠØ§ÙĦØªØ±ØŃÙĬØ¨":8569,"Ġ35":8570,"ĠÙħØ¸Ø§ÙĩØ±":8571,"ĠØ¹ÙĦØ§ÙħØ§Øª":8572,"ĠØªØµØ±":8573,"ĠÙħØ´ÙĩÙĪØ±":8574,"ÙĤÙĦØ¨ÙĬ":8575,"ĠØ¯Ø§Ø±Ùĩ":8576,"ĠØ²ÙĪØ¬ØªÙĩ":8577,"Ø·Ø¨Ø®":8578,"ĠØ¹Ø§ÙĪØ¯Øª":8579,"ĠØ´Ø±ÙĪØ·":8580,"ĠØ¨Ø§ÙĦÙħØ±":8581,"ĠØ§ÙĦØ´Ø¯ÙĬØ¯":8582,"rabi":8583,"ĠÙģØ§ÙĦØ£":8584,"ally":8585,"Â»(":8586,"ĠÙĪØ§ÙĤØ¹":8587,"gl":8588,"ÙĥØ±ÙĪ":8589,"ĠØ§ÙĦÙĨÙĬØ©":8590,"ĠØ§ÙĦÙĤØ¶Ø§Ø¡":8591,"ĠØºÙĬØ¨Ø©":8592,"ĠØªØ«Ø¨ÙĬØª":8593,"ÙĩÙĪÙĦ":8594,"ĠÙħØ§Ø¬Ùĩ":8595,"ĠØ¨ÙĥÙĬØª":8596,"ĠØ³ÙĤØ³ÙĬ":8597,"ĠØ§ÙĦØ³Ø±Ø¯":8598,"ĠØ¶ÙĬÙģØªÙĨØ§":8599,"ĠÙĬØªÙĨ":8600,"tif":8601,"Ġ1955":8602,"ðŁĺ¨":8603,"ÙĦØ§ÙĬÙģ":8604,"ÙĪÙĦÙĬØ´":8605,"ĠØ§ÙĦØ§Ø¨ØªØ¯":8606,"ĠÙĦÙĦØ´ÙĬØ®":8607,",,":8608,"Ø£ÙħÙĦ":8609,"Ø·ØŃ":8610,"ĠðŁį":8611,"ĠÙħØ´Ø§ÙĩØ¯Ø©":8612,"ĠØªØŃØµÙĦØª":8613,"ĠØ²Ø¯Øª":8614,"ĠØ§ÙĦÙģÙĤØ±":8615,"Ġvo":8616,"ires":8617,"ĠÙģØ§ÙĩÙħØ©":8618,"Ø¹Ø¬Ø¨ÙĨÙĬ":8619,"ĠÙĦØ¨ÙĦ":8620,"Ø¹Ø¯ÙĪ":8621,"ĠÙħØŃØ±Ùħ":8622,"ĠÙħØ«ÙĪØ§Ùĩ":8623,"bab":8624,"ĠØ§ÙĦÙĨÙĤØ¯ÙĬ":8625,"ĠØºÙĦØ·Øª":8626,"Ø³ÙħÙĬ":8627,"ĠØ®ØªÙĥ":8628,"ĠÙĦÙĦØµ":8629,"Ø³ÙĬÙĦ":8630,"ĠÙĪØ¬ÙĩØ©":8631,"ĠÙħÙĥØªØ¨":8632,"ØŃØ¯Ø©":8633,"ÙĬØªÙĩÙħ":8634,"ØªÙĦØ§Ø·":8635,"ĠÙĬØ¨ÙĥÙĬ":8636,"ĠâĻ¥ï¸ıâĻ¥ï¸ı":8637,"âĺºï¸ı":8638,"Ø§ÙĦØ²":8639,"ĠØªØŃØ³Ø¨":8640,"ĠAllah":8641,"ĠØ§ÙĦØ³Ø±Ø¹Ø©":8642,"ĠØ¨ÙĤØ§":8643,"ĠÙĥØŃÙĦ":8644,"ĠØ³Ø¦ÙĦ":8645,"ĠØ§ÙĨØ³ØªØ§":8646,"ĠÙĨØ¹ÙĬÙħ":8647,"ĠÙĬØ¹ÙĦÙħÙĪÙĨ":8648,"Ġfait":8649,"ĠØ¥Ø³Ø±Ø§Ø¦ÙĬÙĦ":8650,"ĠÙĬØªØ´":8651,"ĠØ§ÙĦÙħÙģØ¶":8652,"Ø±ÙĬØ¯Ø©":8653,"ĠØ§ÙĦØµØ¯ÙĤ":8654,"Ø²Ø¹ÙħØ§":8655,"ĠØ§ÙĦØªØ§Ø±ÙĬØ®ÙĬØ©":8656,"ÙħÙĦÙĬÙĪÙĨ":8657,"ÙĪØ§ØµÙĦ":8658,"Ø§Ø³ØªÙĬ":8659,"ÙĥÙħØ§ÙĦ":8660,"ĠÙĪÙĬÙĪÙħ":8661,"Ø¢Ùħ":8662,"ĠØ§ÙĦÙģØ³Ø§Ø¯":8663,"ÙģØ³Ø§Ø±":8664,"rek":8665,"ĠØªÙĦÙĤØ§ÙĬ":8666,"ĠÙĬØªÙĬ":8667,"ĠØ¯ÙĬÙĥ":8668,"ØŃÙĥØ§ÙĬ":8669,"Ø®ÙĦØ¹":8670,"ĠâĢĿ":8671,"ĠÙģØªØŃØª":8672,"ĠÙĦÙĦØ¬Ø²Ø§Ø¦Ø±":8673,"ĠØ§ÙĦØ§ÙĦÙĥ":8674,"ĠØ¨Ø§ÙĦØµØŃØ©":8675,"ĠÙĪÙĬØ¬":8676,"ĠØ§ÙĦØºØ±Ø¨ÙĬØ©":8677,"ĠØ§ÙĦÙĦÙĪÙĨ":8678,"ĠØªØ£Ø«ÙĬØ±":8679,"Ø«ÙĨØ§Ø¡":8680,"ĠØ³ÙĦÙģ":8681,"ĠÙĪØ§ÙĦØ¯Ùĩ":8682,"Ġmal":8683,"ĠÙĪØ¢Ø®Ø±":8684,"ĠÙĥÙĨØ§ÙĬØ©":8685,"ĠØªÙĪÙģÙĬÙĤÙĥ":8686,"for":8687,"ÙĬÙĩÙħ":8688,"ÙĨÙĪØ§":8689,"ĠØ§ÙĦÙħÙĪØ±Ø§ÙĦ":8690,"Ø§Ø¯ÙĦØ©":8691,"ĠØ¬Ø¯Ùĥ":8692,"ĠØ¨Ø§ÙĦØ¹ÙĦÙħ":8693,"ĠÙĬØ´Ø¹Ø±":8694,"ĠØ§Ø±ØŃÙħÙĩØ§":8695,"Ø¸ÙĬÙģØ©":8696,"Ø§Ø¬ØªÙħØ§Ø¹":8697,"ĠØ¹Ø¨Ø¯Ùĩ":8698,"ĠØ§ÙĦÙħØ³Ø§Ø¨ÙĤØ©":8699,"ÙĪØ§Ø±Ø¬":8700,"Ġkhir":8701,"ÙĨØ¬":8702,"ĠØ¹Ø±Ø³":8703,"ĠØªØ³Ø±":8704,"ĠØ¬ÙĪØ²":8705,"ØºØ¯ÙĪØ©":8706,"ĠØ§ÙĦØ£ÙħÙĨ":8707,"Ø¯Ø±ÙĪØ³":8708,"ĠðŁĺ¥":8709,"Ġmes":8710,"ĠØ±ÙĪÙĪØ¹Ø©":8711,"ĠÙħØ±ØªÙĬÙĨ":8712,"ĠÙħÙģØ±":8713,"ĠØ¨Ø¹Ùħ":8714,"ĠÙĦÙĤØ±":8715,"ĠÙĪØ§ÙĦØªÙĪÙģÙĬÙĤ":8716,"ĠÙħØªÙĨØ³":8717,"Ø±ÙħØ¶Ø§ÙĨ":8718,"ÙĤØ§Ø¯Ø©":8719,"ĠØ±Ø³Ùħ":8720,"Ø¶Ø§Ø±":8721,"ĠØ§ÙĦÙħÙģØ¶ÙĦ":8722,"ØªÙĪÙĩ":8723,"ĠØ¨Ø¹ÙĬÙĨ":8724,"ĠØ¨Ø¹ÙĬØ¯Ø©":8725,"ĠØ¨ÙĬØ¹":8726,"ĠØ¬ÙĨØ§ØªÙĥ":8727,"ØŃÙĤÙĪ":8728,"ĠØ¨ÙĪØ³":8729,"ĠÙĥÙħÙĨ":8730,"ðŁĺĲ":8731,"ĠØ§ÙĦØ£Ø¬Ø±":8732,"ĠÙĪØ£ÙĥØ«Ø±":8733,"ĠÙħØªØ±Ø´":8734,"ĠØ§ÙĦÙĩØ¯Ùī":8735,"Le":8736,"ÙĩÙĦÙĩ":8737,"ĠÙħÙģØ¹ÙĪÙĦ":8738,"ĠÙĤÙĦØ©":8739,"ØºØ§":8740,"ĠØ§ÙĦØ¹Ø§Øµ":8741,"ÙĦØ¨Ùĩ":8742,"Ø¹Ø±Ø§Ø¶":8743,"ÙĥÙĪØ¨ÙĬ":8744,"ĠØ¨Ø¬Ø§ÙĬØ©":8745,"ĠØ¯ÙĤØ§Ø¦ÙĤ":8746,"ber":8747,"ÙĦØ§ÙĬÙĥ":8748,"Ø§Ø³Ø±":8749,"ĠØ§ÙĦØ¬Ø§ÙĬØ©":8750,"ĠØ§ÙĦØŃÙĨ":8751,"ĠÙģÙĤØ§ÙĦØª":8752,"ÙħÙĨØªØ¯Ùī":8753,"Ãł":8754,"ĠÙĪÙģÙĩÙħ":8755,"Ø¬ÙĬØ¹":8756,"ĠØªØ®Øµ":8757,"ĠØ§ÙĦÙĤÙħØ±":8758,"Ġ106":8759,"ĠØŃÙĬÙĨÙħØ§":8760,"ĠØ¯Ø§ÙĬØ±ÙĬÙĨ":8761,"ĠÙĤÙĪØ§Ø¹Ø¯":8762,"ĠÙĦÙĦØ¹ÙĦÙħÙĬÙĬÙĨ":8763,"wf":8764,"ĠÙĦØ²ÙĪØ¬":8765,"ĠÙĨÙĪÙħ":8766,"ĠØ§ÙĦÙħÙĪØ§ÙĤØ¹":8767,"Ø±ÙĬØŃØ©":8768,"ĠÙĬØŃØ¨ÙĪ":8769,"ĠØ§Ø®ØªØ¨Ø§Ø±":8770,"ÙĥØ§ÙĨØª":8771,"ari":8772,"ĠÙĩØ¯Ø±Øª":8773,"Ġvrai":8774,"ÙĪØ°":8775,"ĠØ¹Ø¨ÙĬØ¯":8776,"ĠØªÙĦÙħÙĬØ°":8777,"ÙĦÙĬÙĪÙħ":8778,"ĠØ§ÙĨÙĨØ§":8779,"ĠÙĪØ£ØµØŃØ§Ø¨":8780,"ĠÙĪØªÙħ":8781,"ĠÙģØ£Ø¬Ø§Ø¨":8782,"ĠØ¨Ø³ÙĥÙĪ":8783,"ĠØ¨Ø³ÙĥØ±Ø©":8784,"ÙĩÙĪØ±Ø©":8785,"ĠÙĦÙħØ³":8786,"ĠØ§Ø¨ØŃØ«":8787,"Ġhom":8788,"ĠØªØ³Ø§Ø¹Ø¯":8789,"ĠØ§ÙĦÙģÙĦØ³Ø·ÙĬÙĨÙĬØ©":8790,"ÙĨÙħÙĪØª":8791,"ĠÙħØŃÙĬ":8792,"ĠØ¨ÙĪØ¬ÙĪØ¯":8793,"ĠÙĬÙĪÙĦØ¯":8794,"ÙĤÙĪÙĦÙĩÙħ":8795,"ĠØ§ÙĦÙģÙĬØ¯ÙĬÙĪØ§Øª":8796,"ðŁĸ¤ðŁĸ¤":8797,"ĠÙĪØ®ÙĬØ±":8798,"Ø§ÙĨØªÙĬ":8799,"ĠØªØ§":8800,"Ø°ÙĬÙĥ":8801,"Ø¯ÙĬØ¯Ø§":8802,"ĠØ±Ø¨ÙĬØ¹":8803,"ĠÙĬØŃØ±Ùħ":8804,"Ġmiloud":8805,"ĠÙĨØŃÙģØ¶":8806,"ĠØ§ÙĦØ²ÙĩØ±ÙĬ":8807,"ĠØ¬ÙĨÙĪÙĨ":8808,"ĠØ³ÙĨÙĨ":8809,"ĠðŁĮ¸":8810,"ÙĪÙĨØ§ÙĦ":8811,"ĠØ®Ø´":8812,"ĠØ§ÙĦØŃØ¬Ø§Ø¨":8813,"ĠÙĪÙĬÙĥ":8814,"ĠÙĦÙĪÙĤØª":8815,"ĠØªÙĪÙģØ±":8816,"ĠØ§Ø´Ø±ØŃ":8817,"ĠØ¨ØµÙģØ©":8818,"Ø§Ø¨ÙĬÙĩØ§":8819,"ĠÙħØ¨Ø§Ø±ÙĥØ©":8820,"ĠØ§ÙĦØ§ÙģÙĥØ§Ø±":8821,"ĠØ§ÙĦØªÙĦÙħÙĬØ°":8822,"ĠÙĩØ°ÙĪÙĥ":8823,"ĠÙħØ´ÙĪ":8824,"Ġndir":8825,"ĠÙĪØ´Ø±":8826,"ĠÙĬØªØ²ÙĪØ¬":8827,"ise":8828,"Ø±ÙĬÙĦ":8829,"ĠØ§ÙĦØ¨ÙĦØ§Ø¡":8830,"ĠØ§ÙĦØµÙĨÙģ":8831,"ĠØ¨ÙĬÙĨÙĩØ§":8832,"ÙĤØ·Ø§Ø¹":8833,"ĠÙĦÙĦÙħÙĪ":8834,"ĠØ£Ø¨ÙĨ":8835,"ĠÙĨÙĦÙĤØ§ÙĪ":8836,"fdk":8837,"ĠÙģÙĦØ¨Ø§Ùĥ":8838,"ĠØ§ÙĦØ¹ÙĪØ¯Ø©":8839,"ĠðŁ©":8840,"ĠØ§Ø±Ø¶":8841,"ĠØ§ÙĦØ¨ÙĬØ§ÙĨÙĬØ©":8842,"Ġrebi":8843,"ĠØ±ÙĥØ²":8844,"ĠÙĨØ·ÙĦØ¨":8845,"ĠØ§ÙĦØŃÙĤÙĬÙĤÙĬØ©":8846,"rÃ©":8847,"ÙĥØªØ§Ø¨":8848,"ĠØ§ÙĦÙħØ¹Ø±Ùģ":8849,"ĠØ§Ø³ØªØ§Ø§Ø°":8850,"ĠØ§ØµÙĦ":8851,"ĠØ®Ø·ÙĪØ©":8852,"ĠðŁĻĤðŁĻĤ":8853,"ĠÙĨØ±Ùī":8854,"Ø§ÙĦØ´Ø¹Ø¨":8855,"Ø§ÙĦØ³Ø¤Ø§ÙĦ":8856,"ÙĨØ§ÙĤØ¶":8857,"ĠÙĪØªØ¯":8858,"ĠØ®ØµØ§Ø¦Øµ":8859,"gi":8860,"ÙĦØ§Ø´":8861,"ÙĬØ§ÙĨ":8862,"Ø§Ø±Ø¯":8863,"ĠØ´Ø±ÙĬØª":8864,"ĠØ§ÙĨØµØŃ":8865,"âĢŀ":8866,"ÙģØªØ®Ø±":8867,"Ġver":8868,"ĠØ§ÙĦÙħØ¬Ø§ÙĩØ¯ÙĬÙĨ":8869,"ĠØŃØ³ÙĬÙĨ":8870,"ĠØ§ÙĦÙģØªØ§Ø©":8871,"ĠÙĬØ§Ø³ÙĬÙĨ":8872,"ĠØ§ÙĦØ£Ø¯ÙĦØ©":8873,"ĠÙħÙĪÙģÙĤØ©":8874,"ĠÙħÙģÙĬØ¯Ø©":8875,"ĠÙħØ¨Ø±ÙĪÙĪÙĥ":8876,"ĠÙĦØ§ÙĥÙĨ":8877,"ØµØ§ØŃ":8878,"ĠÙĩØ§Ø¯ÙĪÙĥ":8879,"ĠØ´Ø®ØµÙĬØ§Øª":8880,"ĠØ³ØªØ©":8881,"ÙĨØ§Ø©":8882,"ĠÙħÙĨØ´":8883,"ĠÙħÙĨØµ":8884,"ĠØ§ÙĦÙħÙĤØ¯ÙħØ©":8885,"ÙĪÙħÙĬÙĨ":8886,"ĠØ§ÙĦØ¬Ø³Ùħ":8887,"ĠØ¨Ø±ÙĤÙħ":8888,"Ġ'":8889,"ĠÙĪØ¯Ø§Ø±":8890,"ĠÙĦØªÙĪ":8891,"ĠÙħÙĨØ¨Ø¹Ø¯":8892,"ĠØ§ÙĦØ¹Ø´Ø±":8893,"ĠðŁĺİ":8894,"ĠØ¨ÙĦØ¯ÙĬØ©":8895,"Ġder":8896,"ÙħÙĪØ²ÙĬÙĨ":8897,"ĠÙĤØ±Ø§ÙĬ":8898,"ĠØ£ØµÙĪÙĦ":8899,"ĠÙĪØ§Ø³Ø¹":8900,"ðŁ©·":8901,"ĠØ§ÙĦØ£ÙģÙĥØ§Ø±":8902,"ĠØ§ÙĦÙĨÙĬ":8903,"ĠØ¹Ø§":8904,"ÙĪØ±Øª":8905,"ÙĬØ§ÙĤØ©":8906,"ĠðŁĺĲ":8907,"ĠØ§ÙĦÙĪØµÙĪÙĦ":8908,"Ġwas":8909,"Ġkol":8910,"ĠÙħØ³Ø§Ø¹Ø¯Ø©":8911,"ĠÙĬØ´ÙĩØ¯":8912,"ĠØ§ÙĤØªØ¨Ø§Ø³":8913,"])":8914,"ĠØ§ÙĦÙĩÙĬ":8915,"ĠÙģÙĦÙĥ":8916,"ĠØ§ÙĦØ£ÙĦÙħ":8917,"ĠØ§ÙĦØ¬ØºØ±Ø§ÙģÙĬØ§":8918,"ĠØ§ÙĦÙģØ¶ÙĬ":8919,"ĠÙĪØ¨ØŃÙħØ¯Ùĩ":8920,"chalah":8921,"ðŁİĢ":8922,"Ġ;":8923,"ÙģØ§Ø¸":8924,"ĠØ¹Ø¨Ø±Ø©":8925,"ĠØ´ÙĪÙĥ":8926,"ĠÙĪØ§ÙĦØ¯ÙĬÙĨ":8927,"ĠØ§ÙĦØªØ®ØµØµ":8928,"ĠÙĪÙĦØ§ÙĤÙĪØ©":8929,"ĠØ³Ø¨ØŃØ§ÙĨÙĥ":8930,"ĠØ³Ø¨Ø¨Ø§":8931,"ĠÙħÙĪØ±Ø§Ùĥ":8932,"ĠÙĬØ¯Ø±":8933,"ĠÙĬÙģÙĬØ¯":8934,"ĠØ§Ø³Ø§Ø³":8935,"ĠØ§ÙĦØ¥ÙĦÙĥ":8936,"ĠØªØ¬Ø±Ø¨":8937,"ĠÙĬÙĥÙĪÙĨÙĪØ§":8938,"ÙħÙĪÙĩ":8939,"ĠÙħØ®Øª":8940,"ĠÙĬÙħØ§Ùĥ":8941,"Ø§ÙĦØŃÙħØ¯ÙĦÙĦÙĩ":8942,":\"":8943,"ĠØ±Ø§Ø¨Ø¹":8944,"Ø§Ø³Ùĥ":8945,"ĠØ¨Ø§ÙĦØ®ÙĪÙģ":8946,"ÙģÙĬØ²":8947,"ĠØŃÙĬØ§ØªÙĨØ§":8948,"ĠÙĥØ±ÙĩØª":8949,"ĠØ§ÙĦÙĤÙĪØ§Ø¹Ø¯":8950,"ĠÙħØ²ÙĬØ©":8951,"ĠÙĬÙĪÙĨØ³":8952,"Ø§ÙĨØ³Ø§ÙĨ":8953,"Ø¹ÙĦÙĬÙĤ":8954,"Ø´ÙģÙī":8955,"Ø§ÙĪØ¨ÙĨÙĬ":8956,"ĠØ§ÙĦØ´Ø¹ÙĪØ±":8957,"ÙħØ³Øª":8958,"Ø¯ÙĪØ¯":8959,"Ø£Ø«Ø±":8960,"ØºÙĦØ¨":8961,"Ø§ÙģØ¸Ø©":8962,"ĠØ¨Ø§ÙĦØŃÙĤ":8963,"ĠâĿ¤ðŁĺĤ":8964,"ĠØ§ÙĦØ±Ø¤":8965,"Ø³ÙĬÙĪ":8966,"ØªØ§Ø¨Ø¹Ø©":8967,"irst":8968,"ĠÙĪØ¨Ø¹Ø¯ÙĩØ§":8969,"67":8970,"ĠÙĪÙĤØ±":8971,"ĠØ§ÙĦØ¬ÙħÙĦ":8972,"Ø¹Ø¨Ø§Ø¯Ø©":8973,"ĠÙĪØ±Ø¬":8974,"Ġca":8975,"ĠØ¹Ø§Ø¬ÙĦØ§":8976,"ĠÙħÙħÙĬØ²Ø©":8977,"ĠÙĬØ§Ø£":8978,"ĠØ§ÙĦÙĨØ¹Ùħ":8979,"ĠÙĪÙĦØ§ÙĪ":8980,"ĠÙĪØªØ³Øª":8981,"ĠÙħØªØŃÙħ":8982,"ĠØ£Ø®ØªÙĨØ§":8983,"ĠØ§ÙĦÙħÙĨØ§ÙģÙĤ":8984,"ĠÙģØ¸":8985,"ĠÙĪØ§ÙĦÙģØ±":8986,"Ø§Ø¦ÙĬØ§":8987,"Ġ2019":8988,"ĠØ§ÙĦØºØ±ÙĬØ¨":8989,"ĠÙĦÙĦÙħØ³ÙĦÙħÙĬÙĨ":8990,"Ø§Ø·Ùģ":8991,"ĠØ§ÙĦÙĨØ¬ÙĪÙħ":8992,"ĠÙĥÙĪØ±Ø§Ø¬":8993,"++":8994,"ĠÙħØ§ÙĦÙĬ":8995,"ÙĤØ¶":8996,"ĠØ§ÙĦØ±ÙĪØ§ÙĬØ©":8997,"Ø¨Ø¯Ø§Ø¹":8998,"ĠÙĪÙĤÙģ":8999,"ĠÙĨÙĨØµØŃ":9000,"nj":9001,"Ø«ÙĬÙĦ":9002,"ĠØµÙģØ±":9003,"ĠØªØŃÙĤÙĤ":9004,"Ø¦ÙĦØªÙĥ":9005,"***":9006,"ĠÙĨØŃØ§ÙĪÙĦ":9007,"ĠØ§ÙĦØ¹Ø±Ø§ÙĤ":9008,"ĠØ¨ÙĪÙĨ":9009,"ĠØªØµØŃÙĬØŃ":9010,"ĠðŁĵ":9011,"ĠÙĬØŃØ¨Ùĩ":9012,"Ø§ÙĦÙħÙĪÙĨ":9013,"ĠðŁĴĵ":9014,"ĠÙĪØ§ÙĦÙħØ³ÙĦÙħ":9015,"ĠØ£Ø³Ø¹Ø¯":9016,"ĠÙħØ³ÙĦÙħØ©":9017,"89":9018,"ĠØ¨Ø¶":9019,"ØªØ¨ÙĬÙĨ":9020,"ĠØ£ÙħÙĩ":9021,"ĠØ¹Ø¨Ø¯Ùĥ":9022,"ĠÙĦØ£Ø®":9023,"Ø§ÙĩØ¯Ø§Øª":9024,"ĠØ§ÙĦØªØ¹ÙĦÙĬÙĤØ§Øª":9025,"ĠØ£ØºÙĦØ¨":9026,"43":9027,"ĠÙĪØ¬Ø¨":9028,"ĠØ§ÙĦØ¯Ø±Ø§ÙĩÙħ":9029,"ĠÙĤØµÙĬØ±Ø©":9030,"ĠØ±Ø§ÙĬØŃÙĬÙĨ":9031,"ĠÙĪØ§ÙĦØŃØ¯ÙĬØ«":9032,"ĠÙħØ¶Ø§Ùģ":9033,"ĠØ¥Ø³ÙħØ§Ø¹ÙĬÙĦ":9034,"ĠÙģØ§ÙĦÙĦÙĩ":9035,"ĠØ´Ø±ÙĬØ¹Ø©":9036,"Ø¯Ø±Ø§Ø³Ø©":9037,"ĠØ§ÙĦÙĩØ¬Ø±Ø©":9038,"ĠÙĥØªØ¨Ùĩ":9039,"ĠÙĨØ§ÙģØ¹":9040,"ĠØ§ÙĦØªÙĤØ¯ÙĬØ±":9041,"ĠÙħØ¬Ø§Ø²":9042,"ĠØ§ØªØ®Ø°":9043,"ĠÙĤØ±Ø§Ø¡":9044,"ĠÙģÙĤØ§ÙĦÙĪØ§":9045,"ĠÙĪÙĬØ¨Ø§Ø±Ùĥ":9046,"ĠÙĤØ§":9047,"ĠØ§Ø³ØªØ·ÙĬØ¹":9048,"Ġfel":9049,"ĠØ¨ØŃÙĥÙħ":9050,"ĠØ§ÙĤØªØµØ§Ø¯":9051,"ÙĪØ§ÙĦØŃ":9052,"ĠÙģØ§ÙĬØ±":9053,"Ø·ÙĬØ¨":9054,"Ø§ÙĬÙĥ":9055,"Ø§Ø¸Ø±":9056,"Ø·Ø¨ÙĤ":9057,"ĠØ§ÙĦÙĤØ¯Ø±Ø©":9058,"ĠØªÙĪÙĤ":9059,"ĠØ£ØŃØ¨Ùĥ":9060,"ĠØµØ¯ÙĬÙĤÙĬ":9061,"ÙĤØ§Ø¨":9062,"Ø´Ø§Ø±Ø©":9063,"ĠÙĬØŃØ³ÙĨ":9064,"Ø§Ø·ÙģØ©":9065,"Ġsh":9066,"ĠÙĦØ£ÙĬ":9067,"ĠØ¶ØŃÙĥØª":9068,"ĠØ®Ø§ÙĬÙģ":9069,"ĠØ²ÙĬÙĨØ¨":9070,"ĠØ§ÙĦÙħØªØ§Ø¨Ø¹Ø©":9071,"Allah":9072,"ĠØ±ÙĪÙĬ":9073,"ĠÙĪØ¹Ø¨Ø¯":9074,"ĠØ§ÙĦØ£Ø´Ø®Ø§Øµ":9075,"ĠØ·Ø±ÙĬÙĤØªÙĥ":9076,"ll":9077,"ĠÙħÙĬØ±":9078,"ĠØ¨Ø±Ø¨":9079,"ĠÙĬØ¨Ø¯Ø£":9080,"ĠØªØµÙĦØŃ":9081,"ĠÙĨÙĤØ¯":9082,"ĠÙĪØ£ØŃ":9083,"ĠÙĪØŃØ¨":9084,"ĠØ¨ÙĬÙĪØª":9085,"ĠØ§ÙĦÙĤØ±Ø·Ø¨ÙĬ":9086,"Ġmak":9087,"ĠØŃØ±ÙĬØ©":9088,"ĠÙħÙĪØ±Ø§ÙĬØ§":9089,"ĠØ§ÙĦÙħØ¤Ø±Ø®":9090,"Ġ<":9091,"ĠÙĥØ³":9092,"Ø°ÙĥØ§Ø±":9093,"Ø§Ø³ÙĦ":9094,"ĠØªØªØ±Ùĥ":9095,"ĠØ±Ø§ØŃÙĪ":9096,"ĠÙĬØ¨ÙĬÙĨ":9097,"ðŁĻĤðŁĴĶ":9098,"ÙĥØ±ÙĬØ§Øª":9099,"Ø¶ØŃÙĬØ©":9100,"ÙĪØ¨ÙĬ":9101,"Ø¹Ø¸Ùħ":9102,"ÙĤØ±Ø§Ø·ÙĬØ©":9103,"ĠØ§ÙĦØ·Ø¨ÙĬØ¨":9104,"ĠØ§Ø¬Ø±ÙĥÙħ":9105,"ĠÙĪÙĦØ¨":9106,"ÙĦÙĪØ³":9107,"ĠØ§ÙĦÙĬÙĤÙĬÙĨ":9108,"ĠÙĦÙĤØ§Ø¡":9109,"ĠØ¯ÙĪÙĥØ§":9110,"ÙĤØ§Ø¹":9111,"ÙĦÙĬØ·":9112,"Ø§ÙħÙĬØ©":9113,"Ø¯ÙĬÙĩØ§":9114,"ĠØ§ÙĦÙģÙĦØ³":9115,"ÙĤØ¯Ø±ÙĪØ´":9116,"ĠÙĬØ¯ÙĪØ±":9117,"ĠÙĤØ¨ÙĦÙĩ":9118,"Ø®Ø§Ø°":9119,"Ø¹Ø¯Øª":9120,"ÙħÙĬØ§":9121,"ĠðŁĺĩ":9122,"ÙħØ±Øª":9123,"ĠðŁ¤Ĺ":9124,"ĠØ§ÙĦØ¸Ø§ÙĩØ±Ø©":9125,"ĠØ§ÙĦØ§ØŃØ¯":9126,"Ġyoutu":9127,"pa":9128,"Ø²ØŃ":9129,"ðŁĺ©":9130,"ĠØ¥Ø¶Ø§ÙģØ©":9131,"ØºÙĨÙĬ":9132,"ĠØ§Ø³ØªØ®Ø¯Ø§Ùħ":9133,"ĠØ£ØŃØ¯ÙĩÙħØ§":9134,"ĠØ²ÙĪØ¬ÙĬ":9135,"ĠØªØ£Ø®Ø°":9136,"ĠÙĨØ¸Ø±Ø©":9137,"ĠØ²ÙĩØ±ÙĬ":9138,"Ø§Ø±Ø¬ÙĬ":9139,"ĠØ§ÙĦÙħØŃØ¯Ø«":9140,"Ø§Ø³ØªØ¹Ø§Ø±Ø©":9141,"ĠØ§ÙĦØ°Ø§Øª":9142,"ĠØ§ÙĦØ£Ø³Ø±Ø©":9143,"62":9144,"ÙħØ§Ùĥ":9145,"ĠØªØ®ÙĦØµ":9146,"ĠØ§ÙĦØ¹ÙĦØ§ÙĤØ©":9147,"ĠØ§ÙĦÙĪØŃÙĬ":9148,"ĠØ§ÙħÙĥ":9149,"ÙħØ³Ùĥ":9150,"ĠÙĦÙĪØ¬Ùĩ":9151,"ĠÙĬÙĦØª":9152,"ĠØªØ³ÙħÙī":9153,"ĠÙĨÙĪØŃ":9154,"ĠØŃÙĥÙĬØª":9155,"ØŃØªØ§Ø¬":9156,"Ø§Ø¤ÙĦ":9157,"ĠÙĬØªØŃØ¯Ø«":9158,"0000000000000000":9159,"ĠÙĪØªÙĩ":9160,"ÙĨØªÙħÙĨÙī":9161,"had":9162,"ĠØ§ÙĦÙħØµØ·ÙģÙī":9163,"Ġche":9164,"Ãªme":9165,"ĠØ¹Ø§Ø±ÙģØ©":9166,"ĠØ§ÙĦØ§ÙĦØªØ²Ø§Ùħ":9167,"up":9168,"ĠÙĪØ³Ø±":9169,"ÙĦØ§ÙĤØ§Øª":9170,"Ø¨ÙĬØ¨ÙĨØ§":9171,"ĠØ£Ø³ØªØºÙģØ±":9172,"ĠØ§Ø¬ØªÙħØ§Ø¹ÙĬØ§Øª":9173,"ĠØ§ÙĦÙħØ°ÙĥÙĪØ±":9174,"Ġâĺºï¸ı":9175,"ÙħØªÙĩ":9176,"ĠÙĦØ¹ÙĦÙħ":9177,"ĠÙĪØ§ÙĦÙĩÙħ":9178,"ence":9179,"ĠØ¨ÙĦÙĤ":9180,"ĠÙģØ±ÙĬÙĤ":9181,"ĠØ§ÙĦØŃØ³ÙĬÙĨ":9182,"ĠØ§ÙĦØ´Ø§ÙħÙĦØ©":9183,"ĠØ°ÙĨ":9184,"ĠØ§ÙĦÙħØ±Ø³ÙĦÙĬÙĨ":9185,"ÙĬØµ":9186,"ÙĨØ§Ùħ":9187,"ðŁĺı":9188,"ĠÙĪØ§ÙĦØ¬ÙĨ":9189,"ĠØ§ÙĦØªÙģÙĥÙĬØ±":9190,"ĠØºØ±Ø¨":9191,"ĠÙĪØ´ÙĨÙĪ":9192,"ĠÙĪÙħÙĨÙĥÙħ":9193,"ĠØ§ØªØ¨Ø§Ø¹":9194,"ĠÙĪØ§Ø³ÙĥÙĨÙĩ":9195,"tk":9196,"ĠØ´ÙħØ§ÙĦ":9197,"ÙĪÙĨØ¯":9198,"Ø§ÙĪÙĪ":9199,"ÙĪØ¯Ùĩ":9200,"ĠØ¬Ø§ÙħØ¹":9201,"ĠØ§ÙĦØ§Ø·ÙģØ§ÙĦ":9202,"ĠØ£Ø³Ø¨ÙĪØ¹":9203,"âĿ¤ðŁĺĤ":9204,"ĠØ§ÙĦØªÙħØ§Ø±ÙĬÙĨ":9205,"ĠØ§ÙĦÙĨØµØ±":9206,"ĠÙĦÙħÙĪ":9207,"ÙĩÙĬÙĩ":9208,"ĠBac":9209,"ĠØ§ÙĦØ¬ÙħÙĩÙĪØ±":9210,"ðŁ©¹":9211,"Ø§ÙĦØªÙĩ":9212,"Ø§ÙĦØŃÙĥØ§ÙĬØ©":9213,"Ø¨Ø§Ùĩ":9214,"ĠØ£Ø°ÙĥØ±":9215,"ĠÙĨØ§Ø¶":9216,"ĠØ±ÙĤØ§Ø¯":9217,"Ø³ØªØ§ÙĨ":9218,"ĠØ§ÙĦØ³Ø¬ÙĨ":9219,"Ġbl":9220,"ĠÙĬØ®ØªÙĦÙģ":9221,"dak":9222,"ĠØ±Ø²ÙĤÙĥ":9223,"ĠÙĨÙĤÙĦÙĥÙħ":9224,"79":9225,"ĠØ³ÙĨØ¯":9226,"Ø§ÙģÙĤØ©":9227,"ĠØ§ÙĦØ¯ÙĪØ±Ø©":9228,"ĠØ¨ÙĪØ¹":9229,"Ø§ÙĨÙĬÙĬÙĨ":9230,"Ø§Ø·Ø¨":9231,"ÙħÙĥÙĨÙĬØ©":9232,"ĠØ±ÙĬØ¯ÙĬÙĥØ³":9233,"ÙĪÙĦØ§ÙĬØ©":9234,"ĠÙĪØ§ÙĤØªØµØ§Ø¯":9235,"ÙħØ§Ø¯":9236,"ĠðŁĴĶðŁĴĶ":9237,"ĠÙĬØ§Ø¨":9238,"ĠÙĨÙĥØ±Ùĩ":9239,"ĠÙĨØ¨Ø¹Ø«":9240,"ĠØ±Ø§Ø¯":9241,"ĠØ±Ø§Ùģ":9242,"ØªÙĬÙĦÙĬ":9243,"ĠÙħÙĦÙĬØ§Ø±":9244,"ĠÙģØ±Ø§ÙĤ":9245,"ĠØ§ÙĦØ®Ø§ÙħØ³Ø©":9246,"Ġor":9247,"ĠÙĬØ¯Ø±Ø³":9248,"ĠØªØªØ±":9249,"Ø·Ø¦":9250,"ðŁĺĢ":9251,"ØºÙĬÙĦ":9252,"Ø¹ÙħØ±ÙĬ":9253,"Ø·ÙĬÙĥÙħ":9254,"ĠØ§ÙĦÙģÙĤÙĬØ¯":9255,"ÙħØ§ÙĬ":9256,"ĠØ·Ø¹Ø§Ùħ":9257,"ĠØŃØ±ÙĪÙģ":9258,"ĠÙĬÙĥØ°Ø¨":9259,"ĠÃ§a":9260,"Ø¬ÙĪÙħ":9261,"Ø³ÙĬÙħ":9262,"ĠÙĨÙģØªØŃ":9263,"ĠØ§ÙĦØªÙĤÙĦÙĬ":9264,"wal":9265,"Ø¯Ø§Ùĥ":9266,"ĠØ§ÙĦÙħØ¯Ø§Ø±Ø³":9267,"ÙĦØ§Ø§Ùħ":9268,"Ġ--":9269,"Ø³ÙĬÙģ":9270,"ĠØ§ÙĦØ¯ÙĪØ±":9271,"Ø§Ø®Ø°":9272,"ĠØ¯ÙĬÙĨÙĥ":9273,"ĠØ§ÙĨÙĪØ§Ø¹":9274,"lt":9275,"ĠØ§ÙĦÙĨÙĤÙĦ":9276,"ĠØ²ÙĪ":9277,"ĠÙģØ§ÙĦØ¯":9278,"ĠØ¨ØŃØ³Ø¨":9279,"ĠØ£Ø¯Ø¨":9280,"ÙĩÙĪÙĦØ©":9281,"ĠØ§ÙĦÙħØ¬Ø±":9282,"ĠÙĦÙĬÙĥÙĪÙĨ":9283,"ĠÙħØ¹ÙĨØªÙĩØ§":9284,"ÙĤØ±Ø§Ùħ":9285,"Ġns":9286,"ĠØ¨ÙĬØ²Ø§Ø±":9287,"ĠØ§ÙĦØ²ÙĥØ§Ø©":9288,"ĠØªØ±Ø§Ø¨":9289,"ĠØ§ÙĦÙħØ¬Ø§ÙĩØ¯":9290,"ĠØµØ¯Ø±ÙĬ":9291,"Ø§ÙĦÙħØ±":9292,"ĠÙĬÙĥÙħ":9293,"ĠØ£ØªÙħ":9294,"ĠØ§Ø³ÙĦÙĪØ¨":9295,"ĠØªÙĤØ¹":9296,"ĠÙĨØ¯Ø¹Ùħ":9297,"ĠØ§ÙĦÙĨÙģØ³ÙĬØ©":9298,"Ø±Ø§Ùģ":9299,"ĠØ£ÙĤÙĪØ§ÙĦ":9300,"Ø±Ø¨ØŃÙĪ":9301,"ĠØ§ÙĦÙĤÙĨÙĪØ§Øª":9302,"Ø®Ùħ":9303,"ĠÙĤÙħ":9304,"ĠØ³ÙĪØ¯Ø§Ø¡":9305,"ÙĦÙħØ§Ø°Ø§":9306,"Ø§ÙĬØ¯Ø©":9307,"ĠÙħÙĨÙĩØ¬":9308,"ĠðŁ¥ºðŁ¤²":9309,"ĠÙĪØ£ÙĨØªÙħ":9310,"ĠØ±Ø£ÙĬÙĬ":9311,"rc":9312,"Ø§ÙħØª":9313,"Ø¯ÙĬØ´":9314,"ĠÙĪÙĬÙģØ±ØŃÙĥ":9315,"ÙĬÙħÙĪ":9316,"ÙĪÙĩÙĪ":9317,"ĠÙĬØ³ØªØ§ÙĩÙĦ":9318,"ĠØ§ÙĦÙħØ³ÙĦØ³ÙĦ":9319,"ĠØ¶Ø¹ÙĬÙģØ©":9320,"ĠØ§ÙĦØ¥ÙĨØ¬ÙĦÙĬØ²ÙĬØ©":9321,"dk":9322,"ÙĦØ²Ùħ":9323,"ÙĨØŃ":9324,"ĠØªÙĪØ¹":9325,"ĠØ§ÙĦÙĤØ§Ø¯ÙħØ©":9326,"ĠÙĪØ£ÙĪÙĦ":9327,"ĠÙħØªØ§Ø¨Ø¹ÙĬÙĨ":9328,"Ġ2016":9329,"ĠÙĨØ³Ø®":9330,"ĠØ§ÙĦØ¯Ø±Ø§Ø³ÙĬ":9331,"ØªØ±Ùģ":9332,"ĠØ¨ÙĪØ±Ùĥ":9333,"Ø§ÙģØ§":9334,"ÙĤÙĬØ§Ùħ":9335,"Ġpre":9336,"ĠØªÙĨØ²ÙĬÙĦ":9337,"ĠÙĤØ¯Ø±Øª":9338,"ĠØ§ÙĦØªØŃØ±Ø±":9339,"ĠÙĬØ°":9340,"ĠØ§ÙĦÙħÙĥØª":9341,"ĠØ¨Ø§ÙĦØ¶Ø¨Ø·":9342,"Ø¯Ø§ÙĤØ©":9343,"Ø¹ÙĦÙĤØ©":9344,"ÙĪÙĬØ³":9345,"ĠØ¯ÙĬÙĨØ§Ø±":9346,"ĠØµØŃÙĬØŃÙĩ":9347,"ĠØ¯Ø±ÙĪÙĥ":9348,"ĠØ·Ø¨ÙĬØ¹ÙĬ":9349,"ĠØŃØ³ÙĬ":9350,"ÙģØ³Ø§Ø¯":9351,"ĠÙħØªØ±":9352,"ÙĤØ§ÙĦÙĬØ¯":9353,"ĠØ§ÙĤØ±Ø§ÙĬ":9354,"Ø¯ÙĪØ§Øª":9355,"Ġve":9356,"ĠØªØ³ÙĬØ±":9357,"ĠÙĤØ±Ø§":9358,"Ø§ÙĦÙĪØ±ÙĬØ§Øª":9359,"ĠÙĪÙħÙħØ§":9360,"ĠÙĨØŃØ³Ø¨":9361,"ĠÙĬØªØ¹ÙĦÙħ":9362,"ĠÙĦØ¨Ø§Ø±ØŃ":9363,"Ġhay":9364,"ĠÙĤØ¯ÙħØª":9365,"ĠÙĪØ³ÙĬÙĦØ©":9366,"IN":9367,"ÙĨÙĩØ§Ø±":9368,"ĠÙĪØ³Ø¨":9369,"ĠÙĥØ±Ø©":9370,"ÙĦÙĪÙĩÙħ":9371,"ĠÙĪØ§ÙĦÙħØŃ":9372,"Ø¶Ø±ÙĪØ±Ø©":9373,"ĠØªØ·ÙĦØ¨":9374,"ÙĦØŃÙĤ":9375,"ĠØ®Ø§ÙĪØ©":9376,"ÙĪØ§ÙĤÙĬ":9377,"ĠØªØ¹ÙĦÙĤ":9378,"ĠØªØŃÙĦÙĬ":9379,"ĠÙĪØªØ¨":9380,"Ø²ÙĬÙĪÙĨ":9381,"ĠØ¯Ø§Ø±Ø§":9382,"ĠÙĤØªÙĦØªÙĨÙĬ":9383,"ĠÙĨØªØ¨Ø¹Ùĥ":9384,"Je":9385,"ÙĥØ§ÙħÙĦ":9386,"ÙĤÙĦÙĥ":9387,"ĠØ¨ÙģØ±":9388,"ĠØ¨Ø§Ø±ÙĬ":9389,"ĠØ¹ÙĪÙĨ":9390,"ÙĬØ±ØŃÙħ":9391,"ĠÙĤØ§Ø¯":9392,"Ø«ÙĬÙĨ":9393,"ĠØ§ÙĦØ±Ø§Ø¨":9394,"ØªÙħØ§Ø¯":9395,"ĠØªÙĤÙĦÙĬ":9396,"ĠØ¹ÙħÙĦØ§":9397,"ĠÙĪÙĤÙĦØª":9398,"ĠÙħÙĤØ§Ø±ÙĨØ©":9399,"ĠØ´Ø±Ø¹ÙĬØ©":9400,"ĠØ¨Ø§Ø±Ø¯Ø©":9401,"Ø¨Ø´":9402,"ĠÙĦØ°":9403,"ĠØ£ÙĥÙĦ":9404,"Ø«ÙĦÙĩ":9405,"ÙĤØ§ÙĦÙĥ":9406,"ĠØªØ¬Ø§ÙĪØ²":9407,"Ø§Ø¯Ø±Ø§Ùĥ":9408,"ÙĨÙĪØ¹Ø©":9409,"ĠØ®ÙĬØªÙĬ":9410,"ĠÙħØªØ§Ø¨Ø¹ØªÙĥ":9411,"Ø¸ÙĬÙħØ§":9412,"ĠØ§ÙĦØ®Ø§ÙħØ³":9413,"ĠÙĨÙĨØªØ¸Ø±":9414,"vid":9415,"Ø«Ø§ÙĨ":9416,"Ø§ØŃØ¸":9417,"ĠÙĪØ£ÙĩÙĦ":9418,"ĠØ¨ÙĦØ§ÙĦ":9419,"ĠØ§ÙĦØŃÙĦØ§ÙĦ":9420,"ĠÙĦØ´Ø¹Ø¨Ø©":9421,"ES":9422,"ĠÙĪØ¯ÙĬØ±":9423,"Ø³Ø®Ø±":9424,"ĠØ¨ØºÙĬ":9425,"ðŁĺĦ":9426,"ĠØ§ÙĦØ¹ÙĩØ¯":9427,"Ø¥Ø°ÙĨ":9428,"ĠØ§ÙĦØ¥ÙĦÙĩ":9429,"ĠØ§ÙĦÙĪØ¬ÙĪØ¯":9430,"Ø³ÙħØ¨Ø±":9431,"ĠØ®ÙĪÙĨØ§":9432,"ĠØªÙĪÙĤÙĬ":9433,"ĠÙĦØ£ÙĨÙĨÙĬ":9434,"ĠØ§ÙĦØ£Ø³ÙĪØ¯":9435,"Ġprof":9436,"ĠÙĦÙĦÙħÙĨØªØ¯Ùī":9437,"ĠÙħÙģÙĬØ¯":9438,"ĠÙĬØ±ÙĪ":9439,"ĠÙĬØºÙĬØ±":9440,"ÙīØ¡":9441,"Ø±ÙģØªØ´":9442,"ĠØ´Ø±Ø§Ø¡":9443,"Ġfih":9444,"ĠÙĬØ¤Ø¯ÙĬ":9445,"ĠØ£Ø±Ø¨Ø¹":9446,"ĠÙħÙĨØ¹Ø±ÙģØ´":9447,"ĠÙĩØ¨Ø·":9448,"ÙĪÙĨÙĬØ´":9449,"ĠØ§ÙĦØ£ØŃÙĥØ§Ùħ":9450,"ĠØ§Ø³Ø§ØªØ°Ø©":9451,"Ġly":9452,"ĠÙĬØ´Ø±ØŃ":9453,"ĠØ¹Ø§ÙħØ±":9454,"ĠÙĪØ§ÙĦÙĪØ§Ø¬Ø¨":9455,"ĠØ¹Ø±ÙģØ©":9456,"ÙħÙĥØ§Ø´":9457,"ĠØ§ÙĦØ´Ùĥ":9458,"ĠÙħÙĪØ§ÙĦ":9459,"ĠØ¯Ø±ÙĦÙĨØ§":9460,"ĠÙĦØ¨ÙĦØ§Ø¯":9461,"ØµÙĦÙĨØ§":9462,"ÙĨØ§ÙĩÙħ":9463,"ĠØ§ÙĦÙĤØ§Ø¶ÙĬ":9464,"ĠðŁĺ¹":9465,"ĠØ±ØŃÙħÙĩØ§":9466,"ÙģÙĦØŃ":9467,"ĠØ®Ø§Ø·Ø±Ø´":9468,"ÙĬØ§ÙĪØ¯ÙĬ":9469,"ĠÙģÙĬÙĨ":9470,"Ø²ÙĪÙĨ":9471,"Ø¶Ø§Ø¹":9472,"ĠØ´ÙĨ":9473,"ĠØ®Ø¯":9474,"âĿĮ":9475,"ĠØ£ÙħØªÙĬ":9476,"Ø¹Ø±Ø§Ø¨":9477,"ĠÙĨØµÙĪØµ":9478,"ÙĨØ³ÙĤØ³ÙĬ":9479,"ĠØ¹ÙħØªÙĬ":9480,"Ġ500":9481,"ĠØ®ÙĦÙĤØª":9482,"ĠØ±ÙĨÙĬ":9483,"Ø±ÙĬÙģØ©":9484,"ĠØ§ÙĦØ¹Ø¯ÙĦ":9485,"Ø²Ø§ÙĨØ©":9486,"ĠÙĨØ®ÙħÙħ":9487,"ĠÙĨÙĪØ¹Ø§":9488,"ĠÙĬØ¨Øª":9489,"ĠÙĨÙģØ±":9490,"ĠÙħÙĨØ§ÙĦ":9491,"ĠØ¨Ø§ÙĦÙĤØ±Ø¢ÙĨ":9492,"ĠØªØŃØ¯ÙĬØ¯":9493,"ĠØ§ÙĦØ®ÙĬÙħØ©":9494,"ĠØ§ÙĦØ¥Ø³Ø±":9495,"Ø§Ø·ÙĪ":9496,"ĠÙĪØ¬Ø¹ÙĦÙĩØ§":9497,"ĠØ§ÙĪÙĦÙī":9498,"ĠÙĦÙĪØ§ØŃØ¯":9499,"Ġcar":9500,"ĠÙħØ³Ø§Ø¹Ø¯":9501,"ĠØ§ÙĦØ§ÙĨØ¨ÙĬØ§Ø¡":9502,"med":9503,"ĠÙģÙħÙĥ":9504,"ziz":9505,"Ø¬Ø§Ø¹Ø©":9506,"ØºØ§Ø±":9507,"Ġhab":9508,"ĠØ¨Ø§ÙĦØ±ØºÙħ":9509,"rit":9510,"tes":9511,"ĠØ§ÙĦØ³ÙĪÙĤ":9512,"ĠØ§Ø³ÙĪØ¯":9513,"Ġsvp":9514,"ĠÙģØ§ÙĦÙĥ":9515,"ĠØªÙħÙĨÙĬØª":9516,"Ġ45":9517,"Ġkhouya":9518,")).":9519,"AL":9520,"Ø§ÙĤØª":9521,"ØªØŃÙĬØ§ØªÙĬ":9522,"ĠÙĥØ±ÙĬ":9523,"ÙĩÙħÙĬØ©":9524,"ØºØ±ÙĬØ¨":9525,"ĠØ§ÙĦØ¹Ø§Ø¬ÙĦ":9526,"ĠØ¹Ø§ÙħØ§":9527,"ĠØ§ÙĦØ§ÙĤØªØµØ§Ø¯":9528,"ĠØ®Ø¯ÙħØª":9529,"ĠÙħØŃÙħÙĪØ¯":9530,"ĠØ¨ØµØ±Ø§ØŃØ©":9531,"Ø§Ø±Ø«":9532,"ĠØ¬ÙĨØ³":9533,"ĠÙĦÙĦØ¯Ø§Ø±":9534,"ĠØ§ÙĦØ²Ø¨ÙĬØ±":9535,"ĠØŃØ¨Ø§ÙĨ":9536,"ĠØ³ÙĤÙħØ§":9537,"ÙĥÙĬØ©":9538,"ĠÙħØªÙĩ":9539,"ĠØªØ§ÙģÙĩ":9540,"Ø£Ø³Øª":9541,"ĠØ§ÙĦÙħÙħØª":9542,"ĠØ§ÙĨØ¬ØŃ":9543,"ÙĥÙħÙĦÙĬ":9544,"ĠÙĪÙĨÙģØ¹":9545,"ĠÙĬØ³Ø§Ø¹Ø¯":9546,"ĠØ§ÙĦÙħØ´Ø§Ø±Ùĥ":9547,"ĠØ±ÙĪØŃÙĩ":9548,"ĠØ¨Ø§ÙĦØªÙĪ":9549,"ĠÙĪØ£ÙĦÙĩÙħ":9550,"ĠØ§ÙĦÙĪØ³Ø·":9551,"ĠØ¶ÙĬÙģØ©":9552,"ex":9553,"ĠÙĩØ¯Ø±Ø©":9554,"ĠØ¨Ø§ÙĦÙĪ":9555,"ØªÙĪÙĨØ§":9556,"ÙĬØ¨Ø§":9557,"ĠØ§ÙĦØ±Ø§ÙģØ¶Ø©":9558,"ĠÙĪØ¨Ø§ÙĦØªØ§ÙĦÙĬ":9559,"ÙĪØ´Ø©":9560,"ØŃÙĩØ§":9561,"ĠØ®Ø¨Ø±Ø©":9562,"ĠÙħØ¹Ø¬":9563,"ĠÙħØ¹Ø±ÙĥØ©":9564,"Ø¨Ø±Ùĩ":9565,"ĠØ§ÙĦÙĥÙģ":9566,"ĠÙħÙĪØµÙĪÙĦ":9567,"ĠðŁĴļ":9568,"ĠÙĦØ¹ÙĨ":9569,"ĠØ§ÙĦØ®Ø·Ø§ÙĬØ§":9570,"ĠØµØ§ÙĦØŃØ§":9571,"ĠØ§ÙĦÙĨØ¹ÙĬÙħ":9572,"ĠÙĦØ²":9573,"Ø§ÙĨØ¯":9574,"ĠÙħÙĨÙĥØ±":9575,"ĠÙħØ¹Ø±Ø¶":9576,"ĠØ§ÙĦØ¬Ø§ÙĨØ¨":9577,"ĠØ§ÙĦÙĨÙĩÙĬ":9578,"ormal":9579,"ĠØ¨Ø£ÙħØ±":9580,"ĠÙĨØŃØ¨ÙĪÙĥ":9581,"ĠÙĪØ§ÙĦØªÙĤØ¯ÙĬØ±":9582,"ĠØ¯ÙĬÙĨÙĩÙħ":9583,"ÙĩØ§Ø¯Ø§":9584,"ĠÙĩØ¯ÙĬØ©":9585,"ĠðŁĻıðŁı»":9586,"Al":9587,"ĠÙĨÙĩØ§":9588,"ĠÙĥÙĬØ¯":9589,"ĠØ³Ø®":9590,"ĠØªÙĨØ¬":9591,"ĠØ§ÙĦØ§Ø³Ø¨ÙĪØ¹":9592,"ĠÙĦØ£Ø¬ÙĦ":9593,"ĠØ§ÙĦÙĨÙĩØ§Ø¦ÙĬØ©":9594,".âĢı":9595,"ÙĬÙĪØ³Ùģ":9596,"ĠØ§ÙĦØ§ÙĦ":9597,"ĠØ®Ø°":9598,"ĠØ§Ø®ØªÙĥ":9599,"ĠÙħØ¬ÙĦØ³":9600,"ÙħØ§ÙĨÙĬØ©":9601,"ÙĩÙĪØ¯ÙĬ":9602,"ĠØ§ÙĦØ§Ø®ÙĦØ§ÙĤ":9603,"Ø±ÙĬØ¯Ø§ÙĥØ³":9604,"ĠØŃØ³ÙĨØ§":9605,"ĠÙĪØ·ÙĦØ¨":9606,"ĠØ§ÙĦØ«Ø§ÙĨÙĪÙĬØ©":9607,"ib":9608,"ÙĬØ¨ÙĬ":9609,"ĠØªÙĪØ³":9610,"ĠØ§ÙĦÙħØ±Ùĥ":9611,"ĠØ§ÙĦÙħØ³ÙĬÙĦØ©":9612,"ĠØ§ÙĦØ¬Ø³Ø¯":9613,"ĠØ«ÙĪØ¨":9614,"ĠÙĪØªØ®":9615,"ĠØ§ÙĬØ©":9616,"ØµØ±Ùĩ":9617,"ĠØ§ÙĦØ«ÙĤØ§ÙģØ©":9618,"75":9619,"ÙħÙĤ":9620,"Ø¬Øª":9621,"ĠÙĥÙĦÙĬØ©":9622,"Ø¯ÙĬØ¬Ø©":9623,"ÙĥÙĬØ´":9624,"ĠØ§ÙĦØµØ§Ø¯ÙĤ":9625,"Ġlbac":9626,"ĠØ§ÙĦØ§ØŃØ±Ø§Ø±":9627,"Ġrbi":9628,"ĠÙĪØ¹ÙĨØ¯ÙĬ":9629,"ĠðŁĺģðŁĺģ":9630,"ĠÛŀ":9631,"ĠÙħÙĨØ²ÙĦ":9632,"Ø£Ø®ÙĬ":9633,"ĠØ§ÙĦØ¹Ø³ÙĥØ±ÙĬØ©":9634,"ĠØ§ÙĦØ³Ø¬ÙĪØ¯":9635,"ĠØ§ÙĦØµÙģØ±":9636,"ĠØ¨ÙĨÙĬØ©":9637,"ĠÙĪØªÙĤÙĪÙĦ":9638,"ĠØ¶Ø±Ø¨Ø©":9639,"ĠØ£Ø¹Ø·Ùī":9640,"ĠÙĬØµØ¨Ø±ÙĥÙħ":9641,"mou":9642,"Ø¯ÙĨ":9643,"Ø°Ø±Ø©":9644,"ĠÙĦÙĦØªÙĪ":9645,"ĠØ§ØŃÙĦÙī":9646,"ĠØ§Ø¬ÙĨØ¨ÙĬØ©":9647,"ĠØ§ÙĦØ§Ø¬ØªÙħØ§Ø¹ÙĬØ§Øª":9648,"ÙĪØº":9649,"ĠØ£Ø¨Ø¯":9650,"ĠØ¬Ø±Ø¨Øª":9651,"ĠØ§ÙĦØ¹ÙĤØ¯":9652,"ĠØ¹ÙħÙĦÙĥ":9653,"ĠØªØ£Ùĥ":9654,"ĠØ§ÙĦØ¶Ø¹Ùģ":9655,"ÙĪÙĦÙĪØ§":9656,"ĠØ®Ø³Ø§Ø±Ø©":9657,"ĠÙĪÙĬÙĪØ³Ø¹":9658,"ĠÙĪÙĥØªØ¨":9659,"Ġmay":9660,"ĠØ±ÙħØ¶Ø§ÙĨÙĥ":9661,"ĠØ¹Ø´Ø±ÙĬÙĨ":9662,"ĠÙĦØ´Ø®Øµ":9663,"ĠØ§ÙĦÙĬÙħ":9664,"ĠØ£ÙĨÙĪ":9665,"Ø¨Ø±Ø²":9666,"ĠØ§ÙĦØµÙĪÙħ":9667,"ĠØ«ÙħÙĨ":9668,"ØŃÙĦØ§ÙĦ":9669,"ĠÙĬØ±Ø²ÙĤÙĨÙĬ":9670,"ĠÙĦÙģÙĬ":9671,"ĠØŃØ§ÙĦÙĥ":9672,"ĠØ´Ø¬Ø±Ø©":9673,"ĠÙĪØ§ÙĦØ§Ø¹":9674,"ĠØ£ÙħÙĪØ§ÙĦ":9675,"ĠØªØ¬ÙħØ¹":9676,"ÙĩØ¯Ø§Ùģ":9677,"ĠØ®ÙģÙĬÙģ":9678,"ĠØ§ÙĦØŃØ¶Ø§Ø±Ø©":9679,"ĠØ¹Ø¬Ø²":9680,"ĠØµØ§Ø¨":9681,"Ø·ÙĬÙĩ":9682,"ĠÙĨØ¯ÙĬÙĩ":9683,"ĠØ¨ØµÙĪØª":9684,"ĠØ³ÙħØ§Ø¹":9685,"ØµØ§Ø±Ùī":9686,"ĠØ§ÙĦÙĤØµÙĬØ¯Ø©":9687,"ÙĤÙĬÙĤÙĩ":9688,"ÙĥÙĬØªØ´":9689,"ĠØ§ÙĦØµØºØ±":9690,"Ġdj":9691,"Ġdis":9692,"ĠðŁĴŀ":9693,"ĠÙĬÙħÙĥÙĨÙĨÙĬ":9694,"ĠØ³Ø£ÙĦØª":9695,"ĠØ§ÙĦØ·Ø¨Ø®":9696,"ĠØ§ÙĦØ¶ÙĬÙģ":9697,"ĠÙĬÙģØ±ØŃÙĨØ§":9698,"Ø¨Ø§ÙĬÙĨØ©":9699,"hb":9700,"ĠÙģØ¹ÙĨ":9701,"ĠÙĨÙĬØ©":9702,"Ø§ÙħØ¹Ø©":9703,"ĠÙĪØ§ÙĦÙĦÙĤØ¨":9704,"ĠØ¯ÙĬÙĨÙĬ":9705,"Ø§ØŃÙĥÙĬÙĦÙĨØ§":9706,"ĠÙĪÙĨØ´ÙĪÙģ":9707,"ÙĦÙĤØ§Ø¡":9708,"Ø²ÙĬØ§Ø¯Ø©":9709,"ĠØ§ÙĦØªØ¬Ø±Ø¨Ø©":9710,"ĠØ§ÙĦØ¹ÙĤÙĦÙĬØ©":9711,"ØºØ§ÙĨÙħ":9712,"Bon":9713,"ÙĪÙĦÙĥÙĨ":9714,"ÙĪØ±ÙĬÙĨ":9715,"ĠØ§ÙĦØªÙī":9716,"ĠØ§ÙĦÙĪØ²":9717,"ĠØªÙĨÙģØ¹":9718,"ĠÙģØ±Ø¹ÙĪÙĨ":9719,"ĠÙĤØ±Ø§Ø±":9720,"ĠØªØ¨Ø³Ø©":9721,"ĠØŃÙģØ¸Øª":9722,"ĠØŃÙĥÙħØ©":9723,"Ġpart":9724,"ÙłÙł":9725,"ĠÙĪÙĬÙĨØ¬ØŃÙĨØ§":9726,"pi":9727,"ĠÙĬÙĦØ§":9728,"Ø§ÙħÙĬÙĬÙĨ":9729,"Ø«Ø±ÙĬ":9730,"ĠØ¨Ø§ÙĦØ¯Ø¹Ø§Ø¡":9731,"ĠØ§ÙĦØªØ±Ø§Ø¨":9732,"ĠÙħÙĪØ³ÙĬÙĤÙī":9733,"ĠØ§Ø¹Ø·ÙĬÙĨÙĬ":9734,"allah":9735,"Ø¨ØªÙĩØ§":9736,"Ø§ÙĬÙħØ§":9737,"ÙħØ±Ø§Ø±":9738,"Ø³ÙĬØ·":9739,"ĠÙĬØ£ÙĥÙĦ":9740,"41":9741,"ØªØ¯ÙĬ":9742,"ĠØ£ÙĥØ±Ùħ":9743,"ĠØ±Ø¯ÙĥØ³":9744,"ona":9745,"ĠØªÙĨØ´Ø±":9746,"ĠØªØªØ¹ÙĦÙħ":9747,"ĠØªÙĥØ°Ø¨":9748,"ĠØ§ÙĦÙħÙģØ¶ÙĦØ©":9749,"AD":9750,"ĠÙĬØŃØ§ÙĪÙĦ":9751,"ĠØ§ÙĪÙĬÙĦÙĬ":9752,"ĠØ§ÙĦÙħØ¹Ø§ØµÙĬ":9753,"ĠØ§ÙĦØ§Ø³ØªØºÙģØ§Ø±":9754,"Ø¨Ø§Ø´":9755,"ÙĥÙĪÙĨØ´":9756,"ĠØ±ØŃÙħØªÙĥ":9757,"ĠÙĨÙĪØ±Ø§":9758,"Ġchw":9759,"ĨĹ":9760,"ÙĩØ§Ø°Ø§":9761,"ĠÙĨÙģÙĬ":9762,"Ø«Ùĩ":9763,"ĠÙģØ§ÙĦØ´":9764,"ĠØªÙĪÙĤÙģ":9765,"ĠÙĨÙģØ³ÙĬØ©":9766,"ĠØ§ÙĦÙħØ´Ø±Ùģ":9767,"ÙĪØ§ÙĨÙĩ":9768,"ĠØ¨Ø§ÙĦØ¹ÙĥØ³":9769,"ĠØ§ÙĦÙĨÙģÙĪØ³":9770,"ÙħØ¦ÙĨ":9771,"ĠØ¹Ø±Ø´Ùĩ":9772,"ĠÙĬØ¸ÙĨ":9773,"ĠØ§ÙĦØ³ÙĬØ¯Ø©":9774,"Ø¦ÙĬÙĨ":9775,"ĠØ§ÙĦØµÙĪÙģÙĬØ©":9776,"ĠØ§ÙĦØ·Ø§ÙĦØ¨":9777,"ĠØ¯ÙĬÙĨÙĨØ§":9778,"ØŃØ³Ø¨ÙĬ":9779,"ĠØ£Ø³ØªØ·ÙĬØ¹":9780,"ĠØ³ÙĬØ±ÙĬÙĪ":9781,"Ø¹Ø±Ø¶":9782,"ĠÙģÙĦÙĤ":9783,"ĠØªØ³Ø¨":9784,"ĠÙĤØ§Ø±":9785,"ØªÙĬØª":9786,"ÙĦÙĪØ¹":9787,"ĠØ§ÙĦÙĪØ¬":9788,"ĠÙĪÙĤØ¹Øª":9789,"ĠØ£Ø´Ø±Ùģ":9790,"Ø¬Ø§Ø¨ÙĬØ©":9791,"ĠÙĤØ¨ÙĪÙĦ":9792,"ĠØªØ®ÙĦØ·":9793,"rf":9794,"Ø´ÙĪÙģÙĬ":9795,"ĠÙĨÙĬØ´":9796,"ĠØ¨Ø§ÙĦÙĩ":9797,"ĠÙħØ¹Ø³ÙĥØ±":9798,"ĠØ§ÙĦØ³Ø¹Ø¯ÙĬ":9799,"ØªØ±Ø§Ùģ":9800,"ĠØ§ÙĦÙħÙĨØ§Ø³Ø¨":9801,"ĠØ§ÙĦÙħØ§Ø³ÙĪÙĨÙĬØ©":9802,"ÙĪØ³Øª":9803,"ĠØ±Ø§ÙĪ":9804,"ĠØ³Ø§Ø±":9805,"ĠØ§ÙĦÙĤÙĦÙĬÙĦ":9806,"ĠØ²ÙĥØ±ÙĬ":9807,"Ø§Ø®ÙĦ":9808,"Ġydir":9809,"ĠØ§ÙĩØªÙħØ§Ùħ":9810,"ĠØ§ÙĦØ·Ø¨ÙĬØ¹Ø©":9811,"ØªÙĪØ±":9812,"ĠÙħÙĦØª":9813,"Ø¬Ø±Ø¨":9814,"ĠÙĬÙĩØ¯ÙĬÙĩÙħ":9815,"ĠÙĬÙģØ±ØŃÙĥÙħ":9816,"ĠØ§ÙĦÙĨØ¨ÙĪØ©":9817,"ĠÙĪØ§Ø«":9818,"ĠØªÙĥÙĦ":9819,"ĠÙĨØ¨ÙĬÙĩ":9820,"Ø·Ø§Ø¬":9821,"ĠØ§ÙĦÙħÙħÙĬØ²Ø©":9822,"ĠØ´ÙĩØ¯Ø§Ø¡":9823,"ØªÙĪÙĩØ§":9824,"ØªÙĩÙĨ":9825,"Ġti":9826,"ark":9827,"ĠØ¨ÙħØ³":9828,"ĠÙĤØ§ÙĦØªÙĦÙĬ":9829,"ĠØ§Ø¯Ø¹ÙĪÙĦÙĨØ§":9830,"Ġq":9831,"ØªÙĪÙĨ":9832,"ĠØ³ÙĬØª":9833,"ØªØ§Ø¨Ø¹ÙĬÙĨ":9834,"ĠÙģØ±ÙĨØ³ÙĬ":9835,"ĠØ§Ø´Ø¹Ø§Ø±":9836,"ĠØ§ÙĦÙħØªØŃØ¯Ø©":9837,"ĠÙĪØ§ÙĦØ¨Ø±Ø¯":9838,"ÙģÙĬÙĨÙĬ":9839,"ĠÙģØ¹ÙĦÙĬ":9840,"Ø£ÙħÙĨ":9841,"ane":9842,"ĠØŃÙħØ¨ÙĪÙĥ":9843,"ook":9844,"ĠÙĩØ§ÙĬÙĦÙĬÙĨ":9845,"ĠØªØ±Ø¬ÙħØ©":9846,"hou":9847,"ÙĦØ®":9848,"ĠÙĤØ§Ø¯Ø±Ø©":9849,"ĠØ´Ø§ÙĬ":9850,"ĠØ§Ø³ØªØ¹Ùħ":9851,"ĠØ§ÙĦØ¯ÙĬÙĨÙĬ":9852,"ĠØ§ÙĦØ²ÙĩØ±":9853,"ĠÙģØ±Ø§Ø´":9854,"ĠÙĪØ§Ø¹Ø±Ø©":9855,"ĠØŃÙĥØ§ÙĬØªÙĥ":9856,"ØµØ§Ùģ":9857,"ĠÙĥØ§Ø¹":9858,"ĠÙĪØ§ÙĦØ¯ÙĬÙĩ":9859,"ĠØ§ÙĦÙĤØ¯ÙĬØ±":9860,"ĠÙĥÙĬÙĪØª":9861,"Ø§ØµØ¨":9862,"Ġtb":9863,"ĠØ§Ø¨ÙĨÙĩ":9864,"ĠØ§ÙģØª":9865,"ĠØ§Ø·ÙĦ":9866,"42":9867,"Ø¯ÙĨÙĬ":9868,"ĠÙħØ¨ÙĤØ§Ø´":9869,"ĠØ¨Ø¯Ùħ":9870,"ĠÙĪØ§ÙĦÙħØ¤ÙħÙĨ":9871,"ðŁĮļ":9872,"ĠØ³ÙħØŃ":9873,"ĠðŁĴªðŁĴª":9874,"ĠÙħØ³ÙĥÙĪÙĨØ©":9875,"ÙĬØ±ÙĩØ§":9876,"ĠØ¯Ùģ":9877,"ÙħØ§ÙĤ":9878,"ĠØ§ÙĦØ³Ø§Ø¦ÙĦ":9879,"Ø§ÙĤØ³Ùħ":9880,"ĠØ¨ÙĦØ¹Ø¨Ø§Ø³":9881,"ĠØ§Ø¬ØªÙħØ¹":9882,"ĠÙħÙĥÙħ":9883,"ĠØ¨ÙħÙĪ":9884,"ÙĦÙĬÙĬÙĨ":9885,"ĠÙĥÙĪÙĦ":9886,"Ø£Ø®":9887,"ÙģÙĬØ´":9888,"Ġapp":9889,"Ġfin":9890,"ĠØ§Ø¯Ø¹ÙĪØ§":9891,"ĠØ¹ÙĦÙħÙĬÙĬÙĨ":9892,"ĠØ§ÙĦÙģØ±ØŃ":9893,"ĠYou":9894,"aha":9895,"ÙĪØ¯ÙĬ":9896,"ĠØ£ÙĦÙĩÙħ":9897,"ĠØ£Ø°ÙĨ":9898,"ĠÙĥØ§ÙģØ©":9899,"ĠØŃØ²ÙĨ":9900,"Ġtah":9901,"ĠÙħØªØ¨":9902,"Ã®":9903,"ĠÙĪØ§ÙĦØ§Ø³":9904,"Ø§Ø¹Ùĥ":9905,"ĠØ§ÙĦÙĤØ§Ø³Ùħ":9906,"ĠØ§Ø¹ÙĦÙī":9907,"ØŃØ±Ùħ":9908,"ĠÙĪØ¥ÙħØ§":9909,"Ø¯ÙĦÙĪÙĦ":9910,"Ġchan":9911,"ĠÙĪØ§ÙĦØ«Ø§ÙĨÙĬ":9912,"EDX":9913,"ĠØ¨Ø§Ø®ØªØµØ§Ø±":9914,"cation":9915,"ĠÙĬØ¨ØŃØ«":9916,"ÙĤØ§ÙĦØ©":9917,"ĠØ£ÙħØ§ÙĨ":9918,"ĠÙĬÙħØ«ÙĦ":9919,"Ġ1000":9920,"ĠØ³Ø¬ÙĦØª":9921,"Ø§ÙĦÙĬØ¨":9922,"ĠØ£ÙģÙĩÙħ":9923,"Ø§ÙĥÙĬÙĨ":9924,"ĠÙĦÙĬÙĩÙħ":9925,"ĠØªØ±Ø¯ÙĬ":9926,"Ġvide":9927,"ĠÙĨÙĩÙī":9928,"ĠØªØ´ÙĪÙģÙĪ":9929,"Ġvraiment":9930,"ĠØ¬Ø§ÙĨÙģÙĬ":9931,"Ø§ÙĦÙħØ´ÙĥÙĦ":9932,"ĠØ§Ø±Ùī":9933,"ÙĪÙĦÙĬØ³":9934,"ĠÙĤÙĪÙĦÙĥ":9935,"ĠðŁĩµðŁĩ¸":9936,"ĠØºØ§ÙĦØ¨Ø§":9937,"ĠÙĪÙĤÙĦ":9938,"ĠÙģÙĥØ±ÙĬ":9939,"Ø§ÙĥØ¯":9940,"ĠÙĬØ§Ø§Ø±Ø¨ÙĬ":9941,"ĠØ«ÙĪØ§Ø¨":9942,"ĠØ§ÙĦÙĬÙĪØªÙĪØ¨":9943,"ĠØ§ÙĦØ¨Ø§ÙĥÙĦÙĪØ±ÙĬØ§":9944,"ĠðŁĩ²ðŁĩ¦":9945,"ĠÙĨÙĨØ³Ùī":9946,"tre":9947,"ĠØ§ÙĦÙħØ¸":9948,"ĠÙĪØ£Ø®Ø°":9949,"ĠÙĬÙĨÙģ":9950,"ĠÙĤØ¨ÙĦÙĩØ§":9951,"ĠÙģÙĨØŃÙĨ":9952,"ĠÙĨØªÙĪØ§ØµÙĦ":9953,"ĠØ¨Ø§ÙĦÙģØ¹ÙĦ":9954,"ÙĩØ²":9955,"Ø¨ØªÙĥ":9956,"ĠØªØ«Ø¨Øª":9957,"ĠØ§ÙĦØ¯Ø§ÙĦØ©":9958,"ĠÙĪÙĨØ¯ÙĬØ±":9959,"ĠØ§ÙĦÙĬÙħÙĨ":9960,"ĠØ§ÙĦØ¹Ø¨Ø§Ø³":9961,"ĠØ±ØŃÙĦØ©":9962,"ĠÙĥØ«Ø±ÙĦÙĨØ§":9963,"ĠØŃØ§Ø¬Ø§":9964,"ĠØ§ÙĦÙħÙĨÙĩØ¬ÙĬØ©":9965,"merci":9966,"Ø¯ÙħØ§Øª":9967,"ĠØªÙħÙĦÙĥ":9968,"-:":9969,"ĠÙĪÙģØ±ØŃ":9970,"ĠØ±Ø¯Ùĥ":9971,"Ø£ÙĬØª":9972,"ĠØŃØªØ§ÙĨ":9973,"ĠØ§ÙĦØ¹ÙĨÙģ":9974,"ĠÙĨØªÙģÙĥØ±":9975,"Ġfran":9976,"ĠØ§ÙĩÙĦÙĩØ§":9977,"ĠØŃØ§ÙĦØ§Øª":9978,"ĠÙĪØ£ÙĬØ¶Ø§":9979,":âĢı":9980,"Wlh":9981,"Û©":9982,"ĠÙĪØ¯ÙĬÙĨ":9983,"ĠØªØ¨ØŃØ«":9984,"ĠØ³Ø§Ø¹Ø¯":9985,"ĠØ³Ø¹Ø§Ø¯Ø©":9986,"ĠØ§ÙĦØµÙħØ¯":9987,"ĠØºÙĬØ±Ùĥ":9988,"ĠÙģØ±Ø¯":9989,"ĠØªØ®ØªÙĦÙģ":9990,"ĠÙģÙĦØ§ÙĪÙĨ":9991,"stad":9992,"56":9993,"wti":9994,"ĠØ¨Ø§ØŃ":9995,"ĠÙģØ±Ùĥ":9996,"ĠØ³ÙĤØ·":9997,"Ø§Ø°ÙĬ":9998,"ĠØ§ÙĦØ³Ø¨Øª":9999}